<?xml version="1.0"?>
<MethodSetup Method="BDT::BDTG">
  <GeneralInfo>
    <Info name="TMVA Release" value="4.2.1 [262657]"/>
    <Info name="ROOT Release" value="6.04/16 [394256]"/>
    <Info name="Creator" value="sakatsuk"/>
    <Info name="Date" value="Mon Oct  1 13:52:57 2018"/>
    <Info name="Host" value="Linux lcgapp-slc6-physical1.cern.ch 2.6.32-573.8.1.el6.x86_64 #1 SMP Wed Nov 11 15:27:45 CET 2015 x86_64 x86_64 x86_64 GNU/Linux"/>
    <Info name="Dir" value="/gpfs/fs6001/sakatsuk/PromptLeptonTagger/addToNtuple/script"/>
    <Info name="Training events" value="852225"/>
    <Info name="TrainingTime" value="4.23442209e+02"/>
    <Info name="AnalysisType" value="Classification"/>
  </GeneralInfo>
  <Options>
    <Option name="V" modified="Yes">False</Option>
    <Option name="VerbosityLevel" modified="No">Default</Option>
    <Option name="VarTransform" modified="No">None</Option>
    <Option name="H" modified="Yes">False</Option>
    <Option name="CreateMVAPdfs" modified="No">False</Option>
    <Option name="IgnoreNegWeightsInTraining" modified="No">False</Option>
    <Option name="NTrees" modified="Yes">100</Option>
    <Option name="MaxDepth" modified="Yes">7</Option>
    <Option name="MinNodeSize" modified="Yes">1.0</Option>
    <Option name="nCuts" modified="Yes">30</Option>
    <Option name="BoostType" modified="Yes">Grad</Option>
    <Option name="AdaBoostR2Loss" modified="No">quadratic</Option>
    <Option name="UseBaggedBoost" modified="No">True</Option>
    <Option name="Shrinkage" modified="Yes">5.000000e-02</Option>
    <Option name="AdaBoostBeta" modified="No">5.000000e-01</Option>
    <Option name="UseRandomisedTrees" modified="No">False</Option>
    <Option name="UseNvars" modified="No">3</Option>
    <Option name="UsePoissonNvars" modified="No">True</Option>
    <Option name="BaggedSampleFraction" modified="No">5.000000e-01</Option>
    <Option name="UseYesNoLeaf" modified="No">True</Option>
    <Option name="NegWeightTreatment" modified="No">ignorenegweightsintraining</Option>
    <Option name="Css" modified="No">1.000000e+00</Option>
    <Option name="Cts_sb" modified="No">1.000000e+00</Option>
    <Option name="Ctb_ss" modified="No">1.000000e+00</Option>
    <Option name="Cbb" modified="No">1.000000e+00</Option>
    <Option name="NodePurityLimit" modified="No">5.000000e-01</Option>
    <Option name="SeparationType" modified="No">giniindex</Option>
    <Option name="DoBoostMonitor" modified="No">False</Option>
    <Option name="UseFisherCuts" modified="No">False</Option>
    <Option name="MinLinCorrForFisher" modified="No">8.000000e-01</Option>
    <Option name="UseExclusiveVars" modified="No">False</Option>
    <Option name="DoPreselection" modified="No">False</Option>
    <Option name="SigToBkgFraction" modified="No">1.000000e+00</Option>
    <Option name="PruneMethod" modified="Yes">nopruning</Option>
    <Option name="PruneStrength" modified="No">0.000000e+00</Option>
    <Option name="PruningValFraction" modified="No">5.000000e-01</Option>
    <Option name="nEventsMin" modified="No">0</Option>
    <Option name="UseBaggedGrad" modified="Yes">True</Option>
    <Option name="GradBaggingFraction" modified="Yes">5.000000e-01</Option>
    <Option name="UseNTrainEvents" modified="No">0</Option>
    <Option name="NNodesMax" modified="No">0</Option>
  </Options>
  <Variables NVar="8">
    <Variable VarIndex="0" Expression="CorrPtvarcone40/Pt/1000" Label="CorrPtvarcone40/Pt/1000" Title="mytree.CorrPtvarcone40/mytree.Pt/1000" Unit="unit" Internal="CorrPtvarcone40_D_Pt_D_1000" Type="F" Min="-3.43586203e-06" Max="9.99848461e+00"/>
    <Variable VarIndex="1" Expression="CorrTopoetcone40/Pt" Label="CorrTopoetcone40/Pt" Title="mytree.CorrTopoetcone40/mytree.Pt" Unit="unit" Internal="CorrTopoetcone40_D_Pt" Type="F" Min="-9.57004700e+01" Max="9.99975491e+00"/>
    <Variable VarIndex="2" Expression="PLTInput_PtRel" Label="PLTInput_PtRel" Title="mytree.PLTInput_PtRel" Unit="unit" Internal="PLTInput_PtRel" Type="F" Min="0.00000000e+00" Max="2.16053027e+03"/>
    <Variable VarIndex="3" Expression="PLTInput_PtFrac" Label="PLTInput_PtFrac" Title="mytree.PLTInput_PtFrac" Unit="unit" Internal="PLTInput_PtFrac" Type="F" Min="1.11423498e-02" Max="1.99673855e+00"/>
    <Variable VarIndex="4" Expression="PLTInput_DL1mu" Label="PLTInput_DL1mu" Title="mytree.PLTInput_DL1mu" Unit="unit" Internal="PLTInput_DL1mu" Type="F" Min="-5.22529840e+00" Max="3.23721352e+01"/>
    <Variable VarIndex="5" Expression="PLTInput_rnnip" Label="PLTInput_rnnip" Title="mytree.PLTInput_rnnip" Unit="unit" Internal="PLTInput_rnnip" Type="F" Min="-3.00000000e+01" Max="1.24462471e+01"/>
    <Variable VarIndex="6" Expression="PLTInput_DRlj" Label="PLTInput_DRlj" Title="mytree.PLTInput_DRlj" Unit="unit" Internal="PLTInput_DRlj" Type="F" Min="5.44132295e-09" Max="3.99827272e-01"/>
    <Variable VarIndex="7" Expression="PLTInput_TrackJetNTrack" Label="PLTInput_TrackJetNTrack" Title="mytree.PLTInput_TrackJetNTrack" Unit="unit" Internal="PLTInput_TrackJetNTrack" Type="I" Min="1.00000000e+00" Max="2.80000000e+01"/>
  </Variables>
  <Spectators NSpec="0"/>
  <Classes NClass="2">
    <Class Name="Signal" Index="0"/>
    <Class Name="Background" Index="1"/>
  </Classes>
  <Transformations NTransformations="0"/>
  <MVAPdfs/>
  <Weights NTrees="100" AnalysisType="1">
    <BinaryTree type="DecisionTree" boostWeight="1.0000000000000000e+00" itree="0">
      <Node pos="s" depth="0" NCoef="0" IVar="3" Cut="6.5165728330612183e-01" cType="1" res="-1.7789738485589623e-03" rms="4.9999684095382690e-01" purity="4.9822100996971130e-01" nType="0">
        <Node pos="l" depth="1" NCoef="0" IVar="3" Cut="4.8636093735694885e-01" cType="1" res="-3.2872837781906128e-01" rms="3.7674614787101746e-01" purity="1.7127162218093872e-01" nType="0">
          <Node pos="l" depth="2" NCoef="0" IVar="0" Cut="1.2896249294281006e+00" cType="1" res="-4.0065839886665344e-01" rms="2.9912012815475464e-01" purity="9.9341601133346558e-02" nType="0">
            <Node pos="l" depth="3" NCoef="0" IVar="4" Cut="1.8387905359268188e+00" cType="1" res="-3.3587408065795898e-01" rms="3.7038981914520264e-01" purity="1.6412591934204102e-01" nType="0">
              <Node pos="l" depth="4" NCoef="0" IVar="6" Cut="1.1433639377355576e-01" cType="1" res="-3.1162866950035095e-01" rms="3.9100840687751770e-01" purity="1.8837133049964905e-01" nType="0">
                <Node pos="l" depth="5" NCoef="0" IVar="6" Cut="7.3949590325355530e-02" cType="1" res="-3.6113673448562622e-01" rms="3.4580379724502563e-01" purity="1.3886326551437378e-01" nType="0">
                  <Node pos="l" depth="6" NCoef="0" IVar="-1" Cut="0.0000000000000000e+00" cType="1" res="-4.1420742869377136e-02" rms="3.1822878122329712e-01" purity="1.1434414982795715e-01" nType="-99"/>
                  <Node pos="r" depth="6" NCoef="0" IVar="-1" Cut="0.0000000000000000e+00" cType="1" res="-3.4413415938615799e-02" rms="3.7480279803276062e-01" purity="1.6905760765075684e-01" nType="-99"/>
                </Node>
                <Node pos="r" depth="5" NCoef="0" IVar="5" Cut="-1.6487455368041992e+00" cType="1" res="-2.6063185930252075e-01" rms="4.2669782042503357e-01" purity="2.3936812579631805e-01" nType="0">
                  <Node pos="l" depth="6" NCoef="0" IVar="-1" Cut="0.0000000000000000e+00" cType="1" res="-2.2288423031568527e-02" rms="4.4636484980583191e-01" purity="2.7470371127128601e-01" nType="-99"/>
                  <Node pos="r" depth="6" NCoef="0" IVar="-1" Cut="0.0000000000000000e+00" cType="1" res="-3.2848622649908066e-02" rms="3.8346028327941895e-01" purity="1.7912897467613220e-01" nType="-99"/>
                </Node>
              </Node>
              <Node pos="r" depth="4" NCoef="0" IVar="-1" Cut="0.0000000000000000e+00" cType="1" res="-4.9749955534934998e-02" rms="1.9673208892345428e-01" purity="4.0330026298761368e-02" nType="-99"/>
            </Node>
            <Node pos="r" depth="3" NCoef="0" IVar="6" Cut="1.9192321598529816e-01" cType="1" res="-4.2601817846298218e-01" rms="2.6174131035804749e-01" purity="7.3981814086437225e-02" nType="0">
              <Node pos="l" depth="4" NCoef="0" IVar="4" Cut="1.7746680974960327e+00" cType="1" res="-4.4303059577941895e-01" rms="2.3178416490554810e-01" purity="5.6969407945871353e-02" nType="0">
                <Node pos="l" depth="5" NCoef="0" IVar="3" Cut="3.3532920479774475e-01" cType="1" res="-4.2840352654457092e-01" rms="2.5781857967376709e-01" purity="7.1596480906009674e-02" nType="0">
                  <Node pos="l" depth="6" NCoef="0" IVar="7" Cut="5.0000000000000000e+00" cType="1" res="-4.3467298150062561e-01" rms="2.2821474075317383e-01" purity="5.0142467021942139e-02" nType="0">
                    <Node pos="l" depth="7" NCoef="0" IVar="-1" Cut="0.0000000000000000e+00" cType="1" res="-5.0796598196029663e-02" rms="2.6219576597213745e-01" purity="7.4261367321014404e-02" nType="-99"/>
                    <Node pos="r" depth="7" NCoef="0" IVar="-1" Cut="0.0000000000000000e+00" cType="1" res="-5.4433111101388931e-02" rms="2.0143915712833405e-01" purity="4.2373228818178177e-02" nType="-99"/>
                  </Node>
                  <Node pos="r" depth="6" NCoef="0" IVar="6" Cut="1.1773915588855743e-01" cType="1" res="-3.9616549015045166e-01" rms="3.0504575371742249e-01" purity="1.0383450984954834e-01" nType="0">
                    <Node pos="l" depth="7" NCoef="0" IVar="-1" Cut="0.0000000000000000e+00" cType="1" res="-4.5545674860477448e-02" rms="2.7726337313652039e-01" purity="8.3917044103145599e-02" nType="-99"/>
                    <Node pos="r" depth="7" NCoef="0" IVar="-1" Cut="0.0000000000000000e+00" cType="1" res="-3.8257867097854614e-02" rms="3.5511013865470886e-01" purity="1.4801023900508881e-01" nType="-99"/>
                  </Node>
                </Node>
                <Node pos="r" depth="5" NCoef="0" IVar="5" Cut="1.4767574071884155e+00" cType="1" res="-4.8706147074699402e-01" rms="1.1300940811634064e-01" purity="1.2938532046973705e-02" nType="0">
                  <Node pos="l" depth="6" NCoef="0" IVar="-1" Cut="0.0000000000000000e+00" cType="1" res="-5.5229377001523972e-02" rms="1.4455826580524445e-01" purity="2.1353043615818024e-02" nType="-99"/>
                  <Node pos="r" depth="6" NCoef="0" IVar="0" Cut="2.4107940196990967e+00" cType="1" res="-4.9275004863739014e-01" rms="8.4837444126605988e-02" purity="7.2499541565775871e-03" nType="0">
                    <Node pos="l" depth="7" NCoef="0" IVar="-1" Cut="0.0000000000000000e+00" cType="1" res="-5.4094061255455017e-02" rms="9.5061607658863068e-02" purity="9.1198822483420372e-03" nType="-99"/>
                    <Node pos="r" depth="7" NCoef="0" IVar="-1" Cut="0.0000000000000000e+00" cType="1" res="-6.0039140284061432e-02" rms="7.3062866926193237e-02" purity="5.3669870831072330e-03" nType="-99"/>
                  </Node>
                </Node>
              </Node>
              <Node pos="r" depth="4" NCoef="0" IVar="5" Cut="-1.1780424118041992e+00" cType="1" res="-3.5277307033538818e-01" rms="3.5433200001716614e-01" purity="1.4722691476345062e-01" nType="0">
                <Node pos="l" depth="5" NCoef="0" IVar="-1" Cut="0.0000000000000000e+00" cType="1" res="-3.2782454043626785e-02" rms="3.9661660790443420e-01" purity="1.9554102420806885e-01" nType="-99"/>
                <Node pos="r" depth="5" NCoef="0" IVar="-1" Cut="0.0000000000000000e+00" cType="1" res="-4.6224929392337799e-02" rms="2.9331555962562561e-01" purity="9.5072872936725616e-02" nType="-99"/>
              </Node>
            </Node>
          </Node>
          <Node pos="r" depth="2" NCoef="0" IVar="5" Cut="-1.1440990865230560e-01" cType="1" res="-1.9492971897125244e-01" rms="4.6043717861175537e-01" purity="3.0507031083106995e-01" nType="0">
            <Node pos="l" depth="3" NCoef="0" IVar="0" Cut="6.4465397596359253e-01" cType="1" res="-1.6766752302646637e-01" rms="4.7104945778846741e-01" purity="3.3233246207237244e-01" nType="0">
              <Node pos="l" depth="4" NCoef="0" IVar="1" Cut="4.0395396947860718e-01" cType="1" res="-9.8893932998180389e-02" rms="4.9012243747711182e-01" purity="4.0110605955123901e-01" nType="0">
                <Node pos="l" depth="5" NCoef="0" IVar="0" Cut="4.1581872105598450e-01" cType="1" res="-4.4549364596605301e-02" rms="4.9801141023635864e-01" purity="4.5545062422752380e-01" nType="0">
                  <Node pos="l" depth="6" NCoef="0" IVar="-1" Cut="0.0000000000000000e+00" cType="1" res="1.1551161296665668e-03" rms="4.9981153011322021e-01" purity="5.1372683048248291e-01" nType="-99"/>
                  <Node pos="r" depth="6" NCoef="0" IVar="-1" Cut="0.0000000000000000e+00" cType="1" res="-8.7060304358601570e-03" rms="4.9065864086151123e-01" purity="4.0380185842514038e-01" nType="-99"/>
                </Node>
                <Node pos="r" depth="5" NCoef="0" IVar="0" Cut="4.9906212091445923e-01" cType="1" res="-1.7441880702972412e-01" rms="4.6859160065650940e-01" purity="3.2558119297027588e-01" nType="0">
                  <Node pos="l" depth="6" NCoef="0" IVar="-1" Cut="0.0000000000000000e+00" cType="1" res="-1.2170055881142616e-02" rms="4.8177596926689148e-01" purity="3.6623933911323547e-01" nType="-99"/>
                  <Node pos="r" depth="6" NCoef="0" IVar="-1" Cut="0.0000000000000000e+00" cType="1" res="-2.2504922002553940e-02" rms="4.4233796000480652e-01" purity="2.6689672470092773e-01" nType="-99"/>
                </Node>
              </Node>
              <Node pos="r" depth="4" NCoef="0" IVar="6" Cut="1.0234172642230988e-01" cType="1" res="-2.4032416939735413e-01" rms="4.3845671415328979e-01" purity="2.5967583060264587e-01" nType="0">
                <Node pos="l" depth="5" NCoef="0" IVar="1" Cut="7.2170209884643555e-01" cType="1" res="-2.7540701627731323e-01" rms="4.1731402277946472e-01" purity="2.2459299862384796e-01" nType="0">
                  <Node pos="l" depth="6" NCoef="0" IVar="3" Cut="5.5035096406936646e-01" cType="1" res="-2.4383451044559479e-01" rms="4.3651428818702698e-01" purity="2.5616550445556641e-01" nType="0">
                    <Node pos="l" depth="7" NCoef="0" IVar="-1" Cut="0.0000000000000000e+00" cType="1" res="-2.7822680771350861e-02" rms="4.1257521510124207e-01" purity="2.1754348278045654e-01" nType="-99"/>
                    <Node pos="r" depth="7" NCoef="0" IVar="-1" Cut="0.0000000000000000e+00" cType="1" res="-1.9384425133466721e-02" rms="4.5651477575302124e-01" purity="2.9605332016944885e-01" nType="-99"/>
                  </Node>
                  <Node pos="r" depth="6" NCoef="0" IVar="-1" Cut="0.0000000000000000e+00" cType="1" res="-3.3397376537322998e-02" rms="3.8206472992897034e-01" purity="1.7746853828430176e-01" nType="-99"/>
                </Node>
                <Node pos="r" depth="5" NCoef="0" IVar="-1" Cut="0.0000000000000000e+00" cType="1" res="-1.6543472185730934e-02" rms="4.6827873587608337e-01" purity="3.2474300265312195e-01" nType="-99"/>
              </Node>
            </Node>
            <Node pos="r" depth="3" NCoef="0" IVar="-1" Cut="0.0000000000000000e+00" cType="1" res="-4.1168853640556335e-02" rms="3.0276191234588623e-01" purity="1.0208640992641449e-01" nType="-99"/>
          </Node>
        </Node>
        <Node pos="r" depth="1" NCoef="0" IVar="0" Cut="3.2182702422142029e-01" cType="1" res="1.9247257709503174e-01" rms="4.6146973967552185e-01" purity="6.9247257709503174e-01" nType="0">
          <Node pos="l" depth="2" NCoef="0" IVar="3" Cut="8.6292433738708496e-01" cType="1" res="2.4248616397380829e-01" rms="4.3726474046707153e-01" purity="7.4248617887496948e-01" nType="0">
            <Node pos="l" depth="3" NCoef="0" IVar="1" Cut="8.4902906417846680e-01" cType="1" res="1.3513097167015076e-01" rms="4.8139342665672302e-01" purity="6.3513100147247314e-01" nType="0">
              <Node pos="l" depth="4" NCoef="0" IVar="5" Cut="-1.5743699073791504e+00" cType="1" res="1.6338191926479340e-01" rms="4.7255301475524902e-01" purity="6.6338193416595459e-01" nType="0">
                <Node pos="l" depth="5" NCoef="0" IVar="3" Cut="7.5389707088470459e-01" cType="1" res="1.9621671736240387e-01" rms="4.5989021658897400e-01" purity="6.9621670246124268e-01" nType="0">
                  <Node pos="l" depth="6" NCoef="0" IVar="1" Cut="-1.9316235557198524e-02" cType="1" res="1.2672971189022064e-01" rms="4.8367300629615784e-01" purity="6.2672966718673706e-01" nType="0">
                    <Node pos="l" depth="7" NCoef="0" IVar="-1" Cut="0.0000000000000000e+00" cType="1" res="1.3571623712778091e-02" rms="4.7107598185539246e-01" purity="6.6759300231933594e-01" nType="-99"/>
                    <Node pos="r" depth="7" NCoef="0" IVar="-1" Cut="0.0000000000000000e+00" cType="1" res="7.5404858216643333e-03" rms="4.9168783426284790e-01" purity="5.9079134464263916e-01" nType="-99"/>
                  </Node>
                  <Node pos="r" depth="6" NCoef="0" IVar="1" Cut="2.5304612517356873e-01" cType="1" res="2.2260950505733490e-01" rms="4.4771084189414978e-01" purity="7.2260951995849609e-01" nType="0">
                    <Node pos="l" depth="7" NCoef="0" IVar="-1" Cut="0.0000000000000000e+00" cType="1" res="1.8805271014571190e-02" rms="4.3884721398353577e-01" purity="7.3961037397384644e-01" nType="-99"/>
                    <Node pos="r" depth="7" NCoef="0" IVar="-1" Cut="0.0000000000000000e+00" cType="1" res="1.4257634058594704e-02" rms="4.6708455681800842e-01" purity="6.7841529846191406e-01" nType="-99"/>
                  </Node>
                </Node>
                <Node pos="r" depth="5" NCoef="0" IVar="5" Cut="-9.1406202316284180e-01" cType="1" res="5.6736599653959274e-02" rms="4.9677053093910217e-01" purity="5.5673658847808838e-01" nType="0">
                  <Node pos="l" depth="6" NCoef="0" IVar="-1" Cut="0.0000000000000000e+00" cType="1" res="9.9202413111925125e-03" rms="4.8528963327407837e-01" purity="6.2039089202880859e-01" nType="-99"/>
                  <Node pos="r" depth="6" NCoef="0" IVar="-1" Cut="0.0000000000000000e+00" cType="1" res="-1.6180612146854401e-03" rms="4.9965468049049377e-01" purity="4.8142024874687195e-01" nType="-99"/>
                </Node>
              </Node>
              <Node pos="r" depth="4" NCoef="0" IVar="3" Cut="8.0158692598342896e-01" cType="1" res="-3.4135589376091957e-03" rms="4.9998834729194641e-01" purity="4.9658644199371338e-01" nType="0">
                <Node pos="l" depth="5" NCoef="0" IVar="-1" Cut="0.0000000000000000e+00" cType="1" res="-3.7980549968779087e-03" rms="4.9805784225463867e-01" purity="4.5597276091575623e-01" nType="-99"/>
                <Node pos="r" depth="5" NCoef="0" IVar="-1" Cut="0.0000000000000000e+00" cType="1" res="3.7675739731639624e-03" rms="4.9779060482978821e-01" purity="5.4695236682891846e-01" nType="-99"/>
              </Node>
            </Node>
            <Node pos="r" depth="3" NCoef="0" IVar="5" Cut="-1.5086820125579834e+00" cType="1" res="2.8883284330368042e-01" rms="4.0813672542572021e-01" purity="7.8883290290832520e-01" nType="0">
              <Node pos="l" depth="4" NCoef="0" IVar="1" Cut="3.4517639875411987e-01" cType="1" res="3.0930057168006897e-01" rms="3.9285257458686829e-01" purity="8.0930060148239136e-01" nType="0">
                <Node pos="l" depth="5" NCoef="0" IVar="5" Cut="-2.5055675506591797e+00" cType="1" res="3.3965754508972168e-01" rms="3.6692336201667786e-01" purity="8.3965754508972168e-01" nType="0">
                  <Node pos="l" depth="6" NCoef="0" IVar="4" Cut="-1.1038656234741211e+00" cType="1" res="3.5554584860801697e-01" rms="3.5154965519905090e-01" purity="8.5554581880569458e-01" nType="0">
                    <Node pos="l" depth="7" NCoef="0" IVar="-1" Cut="0.0000000000000000e+00" cType="1" res="2.4760112166404724e-02" rms="3.7520390748977661e-01" purity="8.3048754930496216e-01" nType="-99"/>
                    <Node pos="r" depth="7" NCoef="0" IVar="-1" Cut="0.0000000000000000e+00" cType="1" res="2.8383770957589149e-02" rms="3.3830627799034119e-01" purity="8.6816960573196411e-01" nType="-99"/>
                  </Node>
                  <Node pos="r" depth="6" NCoef="0" IVar="5" Cut="-1.7980986833572388e+00" cType="1" res="3.0978196859359741e-01" rms="3.9247310161590576e-01" purity="8.0978196859359741e-01" nType="0">
                    <Node pos="l" depth="7" NCoef="0" IVar="-1" Cut="0.0000000000000000e+00" cType="1" res="2.4676855653524399e-02" rms="3.8485598564147949e-01" purity="8.1919568777084351e-01" nType="-99"/>
                    <Node pos="r" depth="7" NCoef="0" IVar="-1" Cut="0.0000000000000000e+00" cType="1" res="2.1480776369571686e-02" rms="4.2117500305175781e-01" purity="7.6946544647216797e-01" nType="-99"/>
                  </Node>
                </Node>
                <Node pos="r" depth="5" NCoef="0" IVar="1" Cut="1.2786366939544678e+00" cType="1" res="2.4179740250110626e-01" rms="4.3764600157737732e-01" purity="7.4179732799530029e-01" nType="0">
                  <Node pos="l" depth="6" NCoef="0" IVar="4" Cut="-1.0243510007858276e+00" cType="1" res="2.6650029420852661e-01" rms="4.2305743694305420e-01" purity="7.6650029420852661e-01" nType="0">
                    <Node pos="l" depth="7" NCoef="0" IVar="-1" Cut="0.0000000000000000e+00" cType="1" res="1.7063654959201813e-02" rms="4.4806918501853943e-01" purity="7.2188740968704224e-01" nType="-99"/>
                    <Node pos="r" depth="7" NCoef="0" IVar="-1" Cut="0.0000000000000000e+00" cType="1" res="2.2667175158858299e-02" rms="4.0628489851951599e-01" purity="7.9143196344375610e-01" nType="-99"/>
                  </Node>
                  <Node pos="r" depth="6" NCoef="0" IVar="4" Cut="-7.3276060819625854e-01" cType="1" res="1.7928180098533630e-01" rms="4.6675264835357666e-01" purity="6.7928183078765869e-01" nType="0">
                    <Node pos="l" depth="7" NCoef="0" IVar="-1" Cut="0.0000000000000000e+00" cType="1" res="1.0787922888994217e-02" rms="4.7977322340011597e-01" purity="6.4077514410018921e-01" nType="-99"/>
                    <Node pos="r" depth="7" NCoef="0" IVar="-1" Cut="0.0000000000000000e+00" cType="1" res="1.6840869560837746e-02" rms="4.5240178704261780e-01" purity="7.1291458606719971e-01" nType="-99"/>
                  </Node>
                </Node>
              </Node>
              <Node pos="r" depth="4" NCoef="0" IVar="5" Cut="-7.0446377992630005e-01" cType="1" res="1.3920675218105316e-01" rms="4.8023065924644470e-01" purity="6.3920676708221436e-01" nType="0">
                <Node pos="l" depth="5" NCoef="0" IVar="5" Cut="-1.2233771085739136e+00" cType="1" res="1.8577598035335541e-01" rms="4.6420606970787048e-01" purity="6.8577599525451660e-01" nType="0">
                  <Node pos="l" depth="6" NCoef="0" IVar="-1" Cut="0.0000000000000000e+00" cType="1" res="1.7389282584190369e-02" rms="4.5041188597679138e-01" purity="7.1709245443344116e-01" nType="-99"/>
                  <Node pos="r" depth="6" NCoef="0" IVar="-1" Cut="0.0000000000000000e+00" cType="1" res="1.3032079674303532e-02" rms="4.7438856959342957e-01" purity="6.5797299146652222e-01" nType="-99"/>
                </Node>
                <Node pos="r" depth="5" NCoef="0" IVar="-1" Cut="0.0000000000000000e+00" cType="1" res="4.1826912201941013e-03" rms="4.9766820669174194e-01" purity="5.4823243618011475e-01" nType="-99"/>
              </Node>
            </Node>
          </Node>
          <Node pos="r" depth="2" NCoef="0" IVar="1" Cut="8.7369519472122192e-01" cType="1" res="-1.6348950564861298e-02" rms="4.9973264336585999e-01" purity="4.8365107178688049e-01" nType="0">
            <Node pos="l" depth="3" NCoef="0" IVar="5" Cut="-8.6717200279235840e-01" cType="1" res="3.5641923546791077e-02" rms="4.9872803688049316e-01" purity="5.3564184904098511e-01" nType="0">
              <Node pos="l" depth="4" NCoef="0" IVar="0" Cut="9.4464105367660522e-01" cType="1" res="6.4644634723663330e-02" rms="4.9580344557762146e-01" purity="5.6464463472366333e-01" nType="0">
                <Node pos="l" depth="5" NCoef="0" IVar="3" Cut="8.2468742132186890e-01" cType="1" res="9.0917468070983887e-02" rms="4.9166452884674072e-01" purity="5.9091746807098389e-01" nType="0">
                  <Node pos="l" depth="6" NCoef="0" IVar="6" Cut="6.6412806510925293e-02" cType="1" res="5.6448657065629959e-02" rms="4.9680334329605103e-01" purity="5.5644869804382324e-01" nType="0">
                    <Node pos="l" depth="7" NCoef="0" IVar="-1" Cut="0.0000000000000000e+00" cType="1" res="1.7577898688614368e-03" rms="4.9955916404724121e-01" purity="5.2099126577377319e-01" nType="-99"/>
                    <Node pos="r" depth="7" NCoef="0" IVar="-1" Cut="0.0000000000000000e+00" cType="1" res="7.3798624798655510e-03" rms="4.9153900146484375e-01" purity="5.9159380197525024e-01" nType="-99"/>
                  </Node>
                  <Node pos="r" depth="6" NCoef="0" IVar="-1" Cut="0.0000000000000000e+00" cType="1" res="1.2046913616359234e-02" rms="4.7581991553306580e-01" purity="6.5360790491104126e-01" nType="-99"/>
                </Node>
                <Node pos="r" depth="5" NCoef="0" IVar="-1" Cut="0.0000000000000000e+00" cType="1" res="-6.2365257181227207e-03" rms="4.9512061476707458e-01" purity="4.3031799793243408e-01" nType="-99"/>
              </Node>
              <Node pos="r" depth="4" NCoef="0" IVar="-1" Cut="0.0000000000000000e+00" cType="1" res="-1.1510508134961128e-02" rms="4.8345002532005310e-01" purity="3.7242227792739868e-01" nType="-99"/>
            </Node>
            <Node pos="r" depth="3" NCoef="0" IVar="0" Cut="9.4473040103912354e-01" cType="1" res="-1.3603012263774872e-01" rms="4.8114010691642761e-01" purity="3.6396986246109009e-01" nType="0">
              <Node pos="l" depth="4" NCoef="0" IVar="2" Cut="6.9511871337890625e+01" cType="1" res="-9.0037539601325989e-02" rms="4.9182644486427307e-01" purity="4.0996244549751282e-01" nType="0">
                <Node pos="l" depth="5" NCoef="0" IVar="-1" Cut="0.0000000000000000e+00" cType="1" res="-3.3339273650199175e-03" rms="4.9843183159828186e-01" purity="4.6043106913566589e-01" nType="-99"/>
                <Node pos="r" depth="5" NCoef="0" IVar="-1" Cut="0.0000000000000000e+00" cType="1" res="-1.2307438999414444e-02" rms="4.8124235868453979e-01" purity="3.6433202028274536e-01" nType="-99"/>
              </Node>
              <Node pos="r" depth="4" NCoef="0" IVar="-1" Cut="0.0000000000000000e+00" cType="1" res="-1.9657921046018600e-02" rms="4.5724219083786011e-01" purity="2.9768940806388855e-01" nType="-99"/>
            </Node>
          </Node>
        </Node>
      </Node>
    </BinaryTree>
    <BinaryTree type="DecisionTree" boostWeight="1.0000000000000000e+00" itree="1">
      <Node pos="s" depth="0" NCoef="0" IVar="3" Cut="6.5165728330612183e-01" cType="1" res="1.3828821247443557e-03" rms="4.9198529124259949e-01" purity="4.9934634566307068e-01" nType="0">
        <Node pos="l" depth="1" NCoef="0" IVar="3" Cut="5.0702315568923950e-01" cType="1" res="-3.0774325132369995e-01" rms="3.7645271420478821e-01" purity="1.7431950569152832e-01" nType="0">
          <Node pos="l" depth="2" NCoef="0" IVar="0" Cut="9.6730959415435791e-01" cType="1" res="-3.7196296453475952e-01" rms="3.0666747689247131e-01" purity="1.0617285966873169e-01" nType="0">
            <Node pos="l" depth="3" NCoef="0" IVar="5" Cut="-1.6036550998687744e+00" cType="1" res="-2.7596560120582581e-01" rms="4.0499743819236755e-01" purity="2.0841318368911743e-01" nType="0">
              <Node pos="l" depth="4" NCoef="0" IVar="6" Cut="1.1068397015333176e-01" cType="1" res="-2.3179535567760468e-01" rms="4.3476277589797974e-01" purity="2.5451806187629700e-01" nType="0">
                <Node pos="l" depth="5" NCoef="0" IVar="-1" Cut="0.0000000000000000e+00" cType="1" res="-3.0622271820902824e-02" rms="3.8613119721412659e-01" purity="1.8295793235301971e-01" nType="-99"/>
                <Node pos="r" depth="5" NCoef="0" IVar="-1" Cut="0.0000000000000000e+00" cType="1" res="-1.5993867069482803e-02" rms="4.6596962213516235e-01" purity="3.1926363706588745e-01" nType="-99"/>
              </Node>
              <Node pos="r" depth="4" NCoef="0" IVar="-1" Cut="0.0000000000000000e+00" cType="1" res="-3.6069553345441818e-02" rms="3.4265312552452087e-01" purity="1.3673135638237000e-01" nType="-99"/>
            </Node>
            <Node pos="r" depth="3" NCoef="0" IVar="4" Cut="8.3880376815795898e-01" cType="1" res="-3.9044603705406189e-01" rms="2.8009933233261108e-01" purity="8.6487799882888794e-02" nType="0">
              <Node pos="l" depth="4" NCoef="0" IVar="6" Cut="1.4115460216999054e-01" cType="1" res="-3.6669367551803589e-01" rms="3.1386587023735046e-01" purity="1.1149808019399643e-01" nType="0">
                <Node pos="l" depth="5" NCoef="0" IVar="3" Cut="3.6623769998550415e-01" cType="1" res="-3.9378651976585388e-01" rms="2.7556917071342468e-01" purity="8.3209834992885590e-02" nType="0">
                  <Node pos="l" depth="6" NCoef="0" IVar="7" Cut="6.0000000000000000e+00" cType="1" res="-4.1196656227111816e-01" rms="2.2572584450244904e-01" purity="5.0442423671483994e-02" nType="0">
                    <Node pos="l" depth="7" NCoef="0" IVar="-1" Cut="0.0000000000000000e+00" cType="1" res="-4.8691954463720322e-02" rms="2.4613553285598755e-01" purity="6.4821548759937286e-02" nType="-99"/>
                    <Node pos="r" depth="7" NCoef="0" IVar="-1" Cut="0.0000000000000000e+00" cType="1" res="-5.1290698349475861e-02" rms="1.8821607530117035e-01" purity="3.6859091371297836e-02" nType="-99"/>
                  </Node>
                  <Node pos="r" depth="6" NCoef="0" IVar="3" Cut="4.3434765934944153e-01" cType="1" res="-3.5511967539787292e-01" rms="3.3074033260345459e-01" purity="1.2529411911964417e-01" nType="0">
                    <Node pos="l" depth="7" NCoef="0" IVar="-1" Cut="0.0000000000000000e+00" cType="1" res="-4.1162613779306412e-02" rms="3.0463498830795288e-01" purity="1.0361075401306152e-01" nType="-99"/>
                    <Node pos="r" depth="7" NCoef="0" IVar="-1" Cut="0.0000000000000000e+00" cType="1" res="-3.4600861370563507e-02" rms="3.5912832617759705e-01" purity="1.5241946280002594e-01" nType="-99"/>
                  </Node>
                </Node>
                <Node pos="r" depth="5" NCoef="0" IVar="7" Cut="5.0000000000000000e+00" cType="1" res="-3.1061518192291260e-01" rms="3.7271469831466675e-01" purity="1.6855910420417786e-01" nType="0">
                  <Node pos="l" depth="6" NCoef="0" IVar="-1" Cut="0.0000000000000000e+00" cType="1" res="-2.7206370607018471e-02" rms="4.1443413496017456e-01" purity="2.2128143906593323e-01" nType="-99"/>
                  <Node pos="r" depth="6" NCoef="0" IVar="3" Cut="2.8396460413932800e-01" cType="1" res="-3.4074780344963074e-01" rms="3.4538677334785461e-01" purity="1.3908571004867554e-01" nType="0">
                    <Node pos="l" depth="7" NCoef="0" IVar="-1" Cut="0.0000000000000000e+00" cType="1" res="-4.1869729757308960e-02" rms="3.1775036454200745e-01" purity="1.1447089910507202e-01" nType="-99"/>
                    <Node pos="r" depth="7" NCoef="0" IVar="-1" Cut="0.0000000000000000e+00" cType="1" res="-3.1365446746349335e-02" rms="3.8602319359779358e-01" purity="1.8280880153179169e-01" nType="-99"/>
                  </Node>
                </Node>
              </Node>
              <Node pos="r" depth="4" NCoef="0" IVar="6" Cut="2.0574976503849030e-01" cType="1" res="-4.3633803725242615e-01" rms="1.9107322394847870e-01" purity="3.8165383040904999e-02" nType="0">
                <Node pos="l" depth="5" NCoef="0" IVar="5" Cut="7.1384059265255928e-04" cType="1" res="-4.4629368185997009e-01" rms="1.6363257169723511e-01" purity="2.7693850919604301e-02" nType="0">
                  <Node pos="l" depth="6" NCoef="0" IVar="-1" Cut="0.0000000000000000e+00" cType="1" res="-4.7124467790126801e-02" rms="2.3037777841091156e-01" purity="5.6515745818614960e-02" nType="-99"/>
                  <Node pos="r" depth="6" NCoef="0" IVar="5" Cut="1.5844053030014038e+00" cType="1" res="-4.5843750238418579e-01" rms="1.2021269649267197e-01" purity="1.4706976711750031e-02" nType="0">
                    <Node pos="l" depth="7" NCoef="0" IVar="-1" Cut="0.0000000000000000e+00" cType="1" res="-5.1557596772909164e-02" rms="1.5542948246002197e-01" purity="2.4814654141664505e-02" nType="-99"/>
                    <Node pos="r" depth="7" NCoef="0" IVar="-1" Cut="0.0000000000000000e+00" cType="1" res="-5.3245767951011658e-02" rms="8.5927568376064301e-02" purity="7.4531571008265018e-03" nType="-99"/>
                  </Node>
                </Node>
                <Node pos="r" depth="5" NCoef="0" IVar="-1" Cut="0.0000000000000000e+00" cType="1" res="-4.3312761932611465e-02" rms="2.9790684580802917e-01" purity="9.8524160683155060e-02" nType="-99"/>
              </Node>
            </Node>
          </Node>
          <Node pos="r" depth="2" NCoef="0" IVar="4" Cut="1.5097582340240479e+00" cType="1" res="-1.6438691318035126e-01" rms="4.6730703115463257e-01" purity="3.2644179463386536e-01" nType="0">
            <Node pos="l" depth="3" NCoef="0" IVar="0" Cut="6.4465385675430298e-01" cType="1" res="-1.3932299613952637e-01" rms="4.7654801607131958e-01" purity="3.5244411230087280e-01" nType="0">
              <Node pos="l" depth="4" NCoef="0" IVar="1" Cut="7.6651656627655029e-01" cType="1" res="-7.8490592539310455e-02" rms="4.9219346046447754e-01" purity="4.1643127799034119e-01" nType="0">
                <Node pos="l" depth="5" NCoef="0" IVar="0" Cut="3.9505597949028015e-01" cType="1" res="-4.4475484639406204e-02" rms="4.9707481265068054e-01" purity="4.5167633891105652e-01" nType="0">
                  <Node pos="l" depth="6" NCoef="0" IVar="-1" Cut="0.0000000000000000e+00" cType="1" res="1.3721792493015528e-03" rms="4.9940633773803711e-01" purity="5.1515835523605347e-01" nType="-99"/>
                  <Node pos="r" depth="6" NCoef="0" IVar="6" Cut="8.8411368429660797e-02" cType="1" res="-8.7739057838916779e-02" rms="4.9084272980690002e-01" purity="4.0657061338424683e-01" nType="0">
                    <Node pos="l" depth="7" NCoef="0" IVar="-1" Cut="0.0000000000000000e+00" cType="1" res="-1.0832427069544792e-02" rms="4.8400467634201050e-01" purity="3.7562051415443420e-01" nType="-99"/>
                    <Node pos="r" depth="7" NCoef="0" IVar="-1" Cut="0.0000000000000000e+00" cType="1" res="-4.1445884853601456e-03" rms="4.9675539135932922e-01" purity="4.4726109504699707e-01" nType="-99"/>
                  </Node>
                </Node>
                <Node pos="r" depth="5" NCoef="0" IVar="-1" Cut="0.0000000000000000e+00" cType="1" res="-1.6533251851797104e-02" rms="4.6375998854637146e-01" purity="3.1396794319152832e-01" nType="-99"/>
              </Node>
              <Node pos="r" depth="4" NCoef="0" IVar="1" Cut="3.8586400449275970e-02" cType="1" res="-2.1534642577171326e-01" rms="4.4469374418258667e-01" purity="2.7247810363769531e-01" nType="0">
                <Node pos="l" depth="5" NCoef="0" IVar="-1" Cut="0.0000000000000000e+00" cType="1" res="-1.3332816772162914e-02" rms="4.7523224353790283e-01" purity="3.4568890929222107e-01" nType="-99"/>
                <Node pos="r" depth="5" NCoef="0" IVar="6" Cut="8.9875712990760803e-02" cType="1" res="-2.4150496721267700e-01" rms="4.3005573749542236e-01" purity="2.4578289687633514e-01" nType="0">
                  <Node pos="l" depth="6" NCoef="0" IVar="-1" Cut="0.0000000000000000e+00" cType="1" res="-2.7682831510901451e-02" rms="4.0693941712379456e-01" purity="2.0988348126411438e-01" nType="-99"/>
                  <Node pos="r" depth="6" NCoef="0" IVar="-1" Cut="0.0000000000000000e+00" cType="1" res="-1.9042767584323883e-02" rms="4.5455485582351685e-01" purity="2.9241311550140381e-01" nType="-99"/>
                </Node>
              </Node>
            </Node>
            <Node pos="r" depth="3" NCoef="0" IVar="-1" Cut="0.0000000000000000e+00" cType="1" res="-3.9165392518043518e-02" rms="3.0134135484695435e-01" purity="1.0192681103944778e-01" nType="-99"/>
          </Node>
        </Node>
        <Node pos="r" depth="1" NCoef="0" IVar="0" Cut="3.2182702422142029e-01" cType="1" res="1.8496407568454742e-01" rms="4.5954602956771851e-01" purity="6.9237053394317627e-01" nType="0">
          <Node pos="l" depth="2" NCoef="0" IVar="3" Cut="8.6846292018890381e-01" cType="1" res="2.3287828266620636e-01" rms="4.3631166219711304e-01" purity="7.4228066205978394e-01" nType="0">
            <Node pos="l" depth="3" NCoef="0" IVar="1" Cut="4.6227201819419861e-01" cType="1" res="1.3567523658275604e-01" rms="4.7881466150283813e-01" purity="6.4123654365539551e-01" nType="0">
              <Node pos="l" depth="4" NCoef="0" IVar="4" Cut="1.9040851294994354e-01" cType="1" res="1.7804411053657532e-01" rms="4.6396884322166443e-01" purity="6.8497765064239502e-01" nType="0">
                <Node pos="l" depth="5" NCoef="0" IVar="3" Cut="7.7755552530288696e-01" cType="1" res="1.9963839650154114e-01" rms="4.5476844906806946e-01" purity="7.0715487003326416e-01" nType="0">
                  <Node pos="l" depth="6" NCoef="0" IVar="3" Cut="7.1259003877639771e-01" cType="1" res="1.5155765414237976e-01" rms="4.7436317801475525e-01" purity="6.5752053260803223e-01" nType="0">
                    <Node pos="l" depth="7" NCoef="0" IVar="-1" Cut="0.0000000000000000e+00" cType="1" res="8.8643664494156837e-03" rms="4.8637849092483521e-01" purity="6.1534452438354492e-01" nType="-99"/>
                    <Node pos="r" depth="7" NCoef="0" IVar="-1" Cut="0.0000000000000000e+00" cType="1" res="1.4091652818024158e-02" rms="4.6659198403358459e-01" purity="6.7934346199035645e-01" nType="-99"/>
                  </Node>
                  <Node pos="r" depth="6" NCoef="0" IVar="5" Cut="-1.8605929613113403e+00" cType="1" res="2.2654235363006592e-01" rms="4.4114580750465393e-01" purity="7.3492813110351562e-01" nType="0">
                    <Node pos="l" depth="7" NCoef="0" IVar="-1" Cut="0.0000000000000000e+00" cType="1" res="1.8692163750529289e-02" rms="4.3208131194114685e-01" purity="7.5152325630187988e-01" nType="-99"/>
                    <Node pos="r" depth="7" NCoef="0" IVar="-1" Cut="0.0000000000000000e+00" cType="1" res="1.4121962711215019e-02" rms="4.6467205882072449e-01" purity="6.8376499414443970e-01" nType="-99"/>
                  </Node>
                </Node>
                <Node pos="r" depth="5" NCoef="0" IVar="-1" Cut="0.0000000000000000e+00" cType="1" res="2.9568613972514868e-03" rms="4.9777132272720337e-01" purity="5.3723800182342529e-01" nType="-99"/>
              </Node>
              <Node pos="r" depth="4" NCoef="0" IVar="0" Cut="1.7646740376949310e-01" cType="1" res="3.4881599247455597e-02" rms="4.9812683463096619e-01" purity="5.3717863559722900e-01" nType="0">
                <Node pos="l" depth="5" NCoef="0" IVar="1" Cut="1.0749974250793457e+00" cType="1" res="8.1575497984886169e-02" rms="4.9242088198661804e-01" purity="5.8430701494216919e-01" nType="0">
                  <Node pos="l" depth="6" NCoef="0" IVar="-1" Cut="0.0000000000000000e+00" cType="1" res="9.1331936419010162e-03" rms="4.8470774292945862e-01" purity="6.2124347686767578e-01" nType="-99"/>
                  <Node pos="r" depth="6" NCoef="0" IVar="-1" Cut="0.0000000000000000e+00" cType="1" res="2.8168675489723682e-03" rms="4.9851569533348083e-01" purity="5.3665262460708618e-01" nType="-99"/>
                </Node>
                <Node pos="r" depth="5" NCoef="0" IVar="-1" Cut="0.0000000000000000e+00" cType="1" res="-4.1054137982428074e-03" rms="4.9772512912750244e-01" purity="4.5705062150955200e-01" nType="-99"/>
              </Node>
            </Node>
            <Node pos="r" depth="3" NCoef="0" IVar="5" Cut="-1.5086820125579834e+00" cType="1" res="2.7779710292816162e-01" rms="4.0744292736053467e-01" purity="7.8897452354431152e-01" nType="0">
              <Node pos="l" depth="4" NCoef="0" IVar="1" Cut="4.7053411602973938e-01" cType="1" res="2.9711943864822388e-01" rms="3.9271569252014160e-01" purity="8.0905318260192871e-01" nType="0">
                <Node pos="l" depth="5" NCoef="0" IVar="5" Cut="-2.4277606010437012e+00" cType="1" res="3.2326051592826843e-01" rms="3.7005928158760071e-01" purity="8.3612012863159180e-01" nType="0">
                  <Node pos="l" depth="6" NCoef="0" IVar="4" Cut="-9.8907691240310669e-01" cType="1" res="3.3886203169822693e-01" rms="3.5487818717956543e-01" purity="8.5215210914611816e-01" nType="0">
                    <Node pos="l" depth="7" NCoef="0" IVar="-1" Cut="0.0000000000000000e+00" cType="1" res="2.3632155731320381e-02" rms="3.7972649931907654e-01" purity="8.2523351907730103e-01" nType="-99"/>
                    <Node pos="r" depth="7" NCoef="0" IVar="-1" Cut="0.0000000000000000e+00" cType="1" res="2.7331398800015450e-02" rms="3.3827278017997742e-01" purity="8.6818289756774902e-01" nType="-99"/>
                  </Node>
                  <Node pos="r" depth="6" NCoef="0" IVar="1" Cut="-5.3706981241703033e-02" cType="1" res="2.8741919994354248e-01" rms="4.0047803521156311e-01" purity="7.9928988218307495e-01" nType="0">
                    <Node pos="l" depth="7" NCoef="0" IVar="-1" Cut="0.0000000000000000e+00" cType="1" res="2.3506093770265579e-02" rms="3.8561841845512390e-01" purity="8.1823879480361938e-01" nType="-99"/>
                    <Node pos="r" depth="7" NCoef="0" IVar="-1" Cut="0.0000000000000000e+00" cType="1" res="2.1023023873567581e-02" rms="4.1646590828895569e-01" purity="7.7658963203430176e-01" nType="-99"/>
                  </Node>
                </Node>
                <Node pos="r" depth="5" NCoef="0" IVar="1" Cut="1.0847656726837158e+00" cType="1" res="2.2106538712978363e-01" rms="4.4354504346847534e-01" purity="7.3030549287796021e-01" nType="0">
                  <Node pos="l" depth="6" NCoef="0" IVar="3" Cut="9.9600559473037720e-01" cType="1" res="2.5726440548896790e-01" rms="4.2227414250373840e-01" purity="7.6760512590408325e-01" nType="0">
                    <Node pos="l" depth="7" NCoef="0" IVar="-1" Cut="0.0000000000000000e+00" cType="1" res="1.7695209011435509e-02" rms="4.4372272491455078e-01" purity="7.3037576675415039e-01" nType="-99"/>
                    <Node pos="r" depth="7" NCoef="0" IVar="-1" Cut="0.0000000000000000e+00" cType="1" res="2.1330056712031364e-02" rms="4.0193590521812439e-01" purity="7.9729968309402466e-01" nType="-99"/>
                  </Node>
                  <Node pos="r" depth="6" NCoef="0" IVar="3" Cut="9.9471092224121094e-01" cType="1" res="1.7133317887783051e-01" rms="4.6664831042289734e-01" purity="6.7906117439270020e-01" nType="0">
                    <Node pos="l" depth="7" NCoef="0" IVar="-1" Cut="0.0000000000000000e+00" cType="1" res="9.4500826671719551e-03" rms="4.8516836762428284e-01" purity="6.2039470672607422e-01" nType="-99"/>
                    <Node pos="r" depth="7" NCoef="0" IVar="-1" Cut="0.0000000000000000e+00" cType="1" res="1.5389959327876568e-02" rms="4.5146387815475464e-01" purity="7.1453517675399780e-01" nType="-99"/>
                  </Node>
                </Node>
              </Node>
              <Node pos="r" depth="4" NCoef="0" IVar="5" Cut="-7.0447921752929688e-01" cType="1" res="1.3750581443309784e-01" rms="4.7872430086135864e-01" purity="6.4319169521331787e-01" nType="0">
                <Node pos="l" depth="5" NCoef="0" IVar="5" Cut="-1.2493194341659546e+00" cType="1" res="1.7639964818954468e-01" rms="4.6487674117088318e-01" purity="6.8395555019378662e-01" nType="0">
                  <Node pos="l" depth="6" NCoef="0" IVar="-1" Cut="0.0000000000000000e+00" cType="1" res="1.6225090250372887e-02" rms="4.5312201976776123e-01" purity="7.1137750148773193e-01" nType="-99"/>
                  <Node pos="r" depth="6" NCoef="0" IVar="-1" Cut="0.0000000000000000e+00" cType="1" res="1.2639844790101051e-02" rms="4.7293633222579956e-01" purity="6.6226017475128174e-01" nType="-99"/>
                </Node>
                <Node pos="r" depth="5" NCoef="0" IVar="-1" Cut="0.0000000000000000e+00" cType="1" res="5.4408828727900982e-03" rms="4.9577820301055908e-01" purity="5.6483811140060425e-01" nType="-99"/>
              </Node>
            </Node>
          </Node>
          <Node pos="r" depth="2" NCoef="0" IVar="0" Cut="9.4472086429595947e-01" cType="1" res="-1.7342681065201759e-02" rms="4.9844402074813843e-01" purity="4.8163631558418274e-01" nType="0">
            <Node pos="l" depth="3" NCoef="0" IVar="5" Cut="-1.3573164939880371e+00" cType="1" res="2.2273836657404900e-02" rms="4.9857336282730103e-01" purity="5.2307653427124023e-01" nType="0">
              <Node pos="l" depth="4" NCoef="0" IVar="3" Cut="7.3816269636154175e-01" cType="1" res="5.8855414390563965e-02" rms="4.9564570188522339e-01" purity="5.6077086925506592e-01" nType="0">
                <Node pos="l" depth="5" NCoef="0" IVar="6" Cut="7.2226054966449738e-02" cType="1" res="-1.0965661145746708e-02" rms="4.9939724802970886e-01" purity="4.8979842662811279e-01" nType="0">
                  <Node pos="l" depth="6" NCoef="0" IVar="-1" Cut="0.0000000000000000e+00" cType="1" res="-5.4162973538041115e-03" rms="4.9580770730972290e-01" purity="4.3809372186660767e-01" nType="-99"/>
                  <Node pos="r" depth="6" NCoef="0" IVar="-1" Cut="0.0000000000000000e+00" cType="1" res="3.8555576466023922e-03" rms="4.9718984961509705e-01" purity="5.4837328195571899e-01" nType="-99"/>
                </Node>
                <Node pos="r" depth="5" NCoef="0" IVar="0" Cut="6.0300242900848389e-01" cType="1" res="1.1065578460693359e-01" rms="4.8641049861907959e-01" purity="6.1342549324035645e-01" nType="0">
                  <Node pos="l" depth="6" NCoef="0" IVar="3" Cut="8.5954797267913818e-01" cType="1" res="1.4435450732707977e-01" rms="4.7727817296981812e-01" purity="6.4721697568893433e-01" nType="0">
                    <Node pos="l" depth="7" NCoef="0" IVar="-1" Cut="0.0000000000000000e+00" cType="1" res="8.1090563908219337e-03" rms="4.8897859454154968e-01" purity="6.0230791568756104e-01" nType="-99"/>
                    <Node pos="r" depth="7" NCoef="0" IVar="-1" Cut="0.0000000000000000e+00" cType="1" res="1.3807333074510098e-02" rms="4.6469235420227051e-01" purity="6.8347382545471191e-01" nType="-99"/>
                  </Node>
                  <Node pos="r" depth="6" NCoef="0" IVar="-1" Cut="0.0000000000000000e+00" cType="1" res="2.8307319153100252e-03" rms="4.9814587831497192e-01" purity="5.3663730621337891e-01" nType="-99"/>
                </Node>
              </Node>
              <Node pos="r" depth="4" NCoef="0" IVar="3" Cut="7.3658221960067749e-01" cType="1" res="-9.5516130328178406e-02" rms="4.8965728282928467e-01" purity="4.0170350670814514e-01" nType="0">
                <Node pos="l" depth="5" NCoef="0" IVar="-1" Cut="0.0000000000000000e+00" cType="1" res="-1.5432786196470261e-02" rms="4.6911171078681946e-01" purity="3.2859608530998230e-01" nType="-99"/>
                <Node pos="r" depth="5" NCoef="0" IVar="-1" Cut="0.0000000000000000e+00" cType="1" res="-2.7116523124277592e-03" rms="4.9838933348655701e-01" purity="4.6610268950462341e-01" nType="-99"/>
              </Node>
            </Node>
            <Node pos="r" depth="3" NCoef="0" IVar="5" Cut="-1.8380683660507202e+00" cType="1" res="-1.4272436499595642e-01" rms="4.7681292891502380e-01" purity="3.5048288106918335e-01" nType="0">
              <Node pos="l" depth="4" NCoef="0" IVar="-1" Cut="0.0000000000000000e+00" cType="1" res="-8.0721499398350716e-03" rms="4.9053150415420532e-01" purity="4.0446415543556213e-01" nType="-99"/>
              <Node pos="r" depth="4" NCoef="0" IVar="-1" Cut="0.0000000000000000e+00" cType="1" res="-2.2191587835550308e-02" rms="4.4151270389556885e-01" purity="2.6584464311599731e-01" nType="-99"/>
            </Node>
          </Node>
        </Node>
      </Node>
    </BinaryTree>
    <BinaryTree type="DecisionTree" boostWeight="1.0000000000000000e+00" itree="2">
      <Node pos="s" depth="0" NCoef="0" IVar="3" Cut="6.5165728330612183e-01" cType="1" res="3.6457569804042578e-03" rms="4.8466667532920837e-01" purity="4.9985942244529724e-01" nType="0">
        <Node pos="l" depth="1" NCoef="0" IVar="3" Cut="4.8636174201965332e-01" cType="1" res="-2.9227846860885620e-01" rms="3.7263378500938416e-01" purity="1.7295539379119873e-01" nType="0">
          <Node pos="l" depth="2" NCoef="0" IVar="6" Cut="1.4110337197780609e-01" cType="1" res="-3.5763332247734070e-01" rms="2.9609540104866028e-01" purity="9.8833441734313965e-02" nType="0">
            <Node pos="l" depth="3" NCoef="0" IVar="3" Cut="3.9449572563171387e-01" cType="1" res="-3.8382565975189209e-01" rms="2.5337675213813782e-01" purity="6.9860778748989105e-02" nType="0">
              <Node pos="l" depth="4" NCoef="0" IVar="4" Cut="1.9133913516998291e+00" cType="1" res="-4.0647792816162109e-01" rms="2.0395143330097198e-01" purity="4.3765835464000702e-02" nType="0">
                <Node pos="l" depth="5" NCoef="0" IVar="0" Cut="1.6121864318847656e+00" cType="1" res="-3.9707452058792114e-01" rms="2.2636263072490692e-01" purity="5.4426517337560654e-02" nType="0">
                  <Node pos="l" depth="6" NCoef="0" IVar="-1" Cut="0.0000000000000000e+00" cType="1" res="-4.1258480399847031e-02" rms="2.8057867288589478e-01" purity="8.6540378630161285e-02" nType="-99"/>
                  <Node pos="r" depth="6" NCoef="0" IVar="2" Cut="1.3110694885253906e+02" cType="1" res="-4.0410897135734558e-01" rms="2.0833763480186462e-01" purity="4.5537937432527542e-02" nType="0">
                    <Node pos="l" depth="7" NCoef="0" IVar="-1" Cut="0.0000000000000000e+00" cType="1" res="-4.7775357961654663e-02" rms="2.2983166575431824e-01" purity="5.6055136024951935e-02" nType="-99"/>
                    <Node pos="r" depth="7" NCoef="0" IVar="-1" Cut="0.0000000000000000e+00" cType="1" res="-4.7870829701423645e-02" rms="1.9418950378894806e-01" purity="3.9295218884944916e-02" nType="-99"/>
                  </Node>
                </Node>
                <Node pos="r" depth="5" NCoef="0" IVar="6" Cut="9.1395422816276550e-02" cType="1" res="-4.3733704090118408e-01" rms="9.3303322792053223e-02" purity="8.7806824594736099e-03" nType="0">
                  <Node pos="l" depth="6" NCoef="0" IVar="-1" Cut="0.0000000000000000e+00" cType="1" res="-5.1228102296590805e-02" rms="7.4578829109668732e-02" purity="5.6017138995230198e-03" nType="-99"/>
                  <Node pos="r" depth="6" NCoef="0" IVar="-1" Cut="0.0000000000000000e+00" cType="1" res="-5.0799440592527390e-02" rms="1.1374401301145554e-01" purity="1.3091662898659706e-02" nType="-99"/>
                </Node>
              </Node>
              <Node pos="r" depth="4" NCoef="0" IVar="4" Cut="1.1593813896179199e+00" cType="1" res="-3.3855402469635010e-01" rms="3.2603541016578674e-01" purity="1.2201274186372757e-01" nType="0">
                <Node pos="l" depth="5" NCoef="0" IVar="0" Cut="9.5173978805541992e-01" cType="1" res="-3.1734952330589294e-01" rms="3.5195246338844299e-01" purity="1.4554855227470398e-01" nType="0">
                  <Node pos="l" depth="6" NCoef="0" IVar="-1" Cut="0.0000000000000000e+00" cType="1" res="-2.5738708674907684e-02" rms="4.0969708561897278e-01" purity="2.1416254341602325e-01" nType="-99"/>
                  <Node pos="r" depth="6" NCoef="0" IVar="6" Cut="8.2040823996067047e-02" cType="1" res="-3.3888593316078186e-01" rms="3.2732716202735901e-01" purity="1.2231274694204330e-01" nType="0">
                    <Node pos="l" depth="7" NCoef="0" IVar="-1" Cut="0.0000000000000000e+00" cType="1" res="-3.9928756654262543e-02" rms="2.9075199365615845e-01" purity="9.3240045011043549e-02" nType="-99"/>
                    <Node pos="r" depth="7" NCoef="0" IVar="-1" Cut="0.0000000000000000e+00" cType="1" res="-3.2998964190483093e-02" rms="3.6263915896415710e-01" purity="1.5609738230705261e-01" nType="-99"/>
                  </Node>
                </Node>
                <Node pos="r" depth="5" NCoef="0" IVar="-1" Cut="0.0000000000000000e+00" cType="1" res="-4.4752743095159531e-02" rms="1.9203144311904907e-01" purity="3.8702830672264099e-02" nType="-99"/>
              </Node>
            </Node>
            <Node pos="r" depth="3" NCoef="0" IVar="5" Cut="-7.0496100187301636e-01" cType="1" res="-3.1207686662673950e-01" rms="3.5387867689132690e-01" purity="1.4922581613063812e-01" nType="0">
              <Node pos="l" depth="4" NCoef="0" IVar="3" Cut="3.7903010845184326e-01" cType="1" res="-2.6951768994331360e-01" rms="3.9531204104423523e-01" purity="1.9619707763195038e-01" nType="0">
                <Node pos="l" depth="5" NCoef="0" IVar="6" Cut="2.3123943805694580e-01" cType="1" res="-3.0056837201118469e-01" rms="3.6768400669097900e-01" purity="1.6280661523342133e-01" nType="0">
                  <Node pos="l" depth="6" NCoef="0" IVar="0" Cut="1.9311300516128540e+00" cType="1" res="-3.3868950605392456e-01" rms="3.2717469334602356e-01" purity="1.2307452410459518e-01" nType="0">
                    <Node pos="l" depth="7" NCoef="0" IVar="-1" Cut="0.0000000000000000e+00" cType="1" res="-3.1629890203475952e-02" rms="3.7737801671028137e-01" purity="1.7322270572185516e-01" nType="-99"/>
                    <Node pos="r" depth="7" NCoef="0" IVar="-1" Cut="0.0000000000000000e+00" cType="1" res="-4.4444486498832703e-02" rms="2.8187602758407593e-01" purity="8.7414622306823730e-02" nType="-99"/>
                  </Node>
                  <Node pos="r" depth="6" NCoef="0" IVar="-1" Cut="0.0000000000000000e+00" cType="1" res="-2.3746440187096596e-02" rms="4.2406472563743591e-01" purity="2.3673479259014130e-01" nType="-99"/>
                </Node>
                <Node pos="r" depth="5" NCoef="0" IVar="-1" Cut="0.0000000000000000e+00" cType="1" res="-1.7631880939006805e-02" rms="4.5282444357872009e-01" purity="2.8971898555755615e-01" nType="-99"/>
              </Node>
              <Node pos="r" depth="4" NCoef="0" IVar="6" Cut="2.2371721267700195e-01" cType="1" res="-3.8217055797576904e-01" rms="2.5731199979782104e-01" purity="7.1865588426589966e-02" nType="0">
                <Node pos="l" depth="5" NCoef="0" IVar="4" Cut="2.3410985469818115e+00" cType="1" res="-4.0013420581817627e-01" rms="2.2212915122509003e-01" purity="5.2623212337493896e-02" nType="0">
                  <Node pos="l" depth="6" NCoef="0" IVar="-1" Cut="0.0000000000000000e+00" cType="1" res="-4.2608309537172318e-02" rms="2.7696818113327026e-01" purity="8.4394223988056183e-02" nType="-99"/>
                  <Node pos="r" depth="6" NCoef="0" IVar="-1" Cut="0.0000000000000000e+00" cType="1" res="-4.9208354204893112e-02" rms="1.5148928761482239e-01" purity="2.3551147431135178e-02" nType="-99"/>
                </Node>
                <Node pos="r" depth="5" NCoef="0" IVar="-1" Cut="0.0000000000000000e+00" cType="1" res="-3.9255559444427490e-02" rms="3.1571596860885620e-01" purity="1.1245808750391006e-01" nType="-99"/>
              </Node>
            </Node>
          </Node>
          <Node pos="r" depth="2" NCoef="0" IVar="5" Cut="-5.8793872594833374e-01" cType="1" res="-1.7216315865516663e-01" rms="4.5896390080451965e-01" purity="3.0918371677398682e-01" nType="0">
            <Node pos="l" depth="3" NCoef="0" IVar="0" Cut="6.4465397596359253e-01" cType="1" res="-1.4158506691455841e-01" rms="4.7222840785980225e-01" purity="3.4239125251770020e-01" nType="0">
              <Node pos="l" depth="4" NCoef="0" IVar="1" Cut="7.1846157312393188e-01" cType="1" res="-7.6716452836990356e-02" rms="4.9131116271018982e-01" purity="4.1447684168815613e-01" nType="0">
                <Node pos="l" depth="5" NCoef="0" IVar="0" Cut="3.9509603381156921e-01" cType="1" res="-4.2449172586202621e-02" rms="4.9680206179618835e-01" purity="4.5161312818527222e-01" nType="0">
                  <Node pos="l" depth="6" NCoef="0" IVar="-1" Cut="0.0000000000000000e+00" cType="1" res="1.1093330103904009e-03" rms="4.9952188134193420e-01" purity="5.1272445917129517e-01" nType="-99"/>
                  <Node pos="r" depth="6" NCoef="0" IVar="6" Cut="7.8177966177463531e-02" cType="1" res="-8.2499288022518158e-02" rms="4.9094697833061218e-01" purity="4.0769296884536743e-01" nType="0">
                    <Node pos="l" depth="7" NCoef="0" IVar="-1" Cut="0.0000000000000000e+00" cType="1" res="-1.1752970516681671e-02" rms="4.7994571924209595e-01" purity="3.6091426014900208e-01" nType="-99"/>
                    <Node pos="r" depth="7" NCoef="0" IVar="-1" Cut="0.0000000000000000e+00" cType="1" res="-3.6464997101575136e-03" rms="4.9710083007812500e-01" purity="4.4978237152099609e-01" nType="-99"/>
                  </Node>
                </Node>
                <Node pos="r" depth="5" NCoef="0" IVar="-1" Cut="0.0000000000000000e+00" cType="1" res="-1.5818048268556595e-02" rms="4.6379226446151733e-01" purity="3.1448614597320557e-01" nType="-99"/>
              </Node>
              <Node pos="r" depth="4" NCoef="0" IVar="6" Cut="1.0275658220052719e-01" cType="1" res="-2.0986701548099518e-01" rms="4.4108206033706665e-01" purity="2.6651263236999512e-01" nType="0">
                <Node pos="l" depth="5" NCoef="0" IVar="3" Cut="5.7700496912002563e-01" cType="1" res="-2.4259948730468750e-01" rms="4.2067381739616394e-01" purity="2.3101781308650970e-01" nType="0">
                  <Node pos="l" depth="6" NCoef="0" IVar="1" Cut="3.6047229170799255e-01" cType="1" res="-2.6809930801391602e-01" rms="4.0272399783134460e-01" purity="2.0449738204479218e-01" nType="0">
                    <Node pos="l" depth="7" NCoef="0" IVar="-1" Cut="0.0000000000000000e+00" cType="1" res="-2.0944237709045410e-02" rms="4.3803292512893677e-01" purity="2.5962871313095093e-01" nType="-99"/>
                    <Node pos="r" depth="7" NCoef="0" IVar="-1" Cut="0.0000000000000000e+00" cType="1" res="-3.1492576003074646e-02" rms="3.7059125304222107e-01" purity="1.6458235681056976e-01" nType="-99"/>
                  </Node>
                  <Node pos="r" depth="6" NCoef="0" IVar="-1" Cut="0.0000000000000000e+00" cType="1" res="-1.8319295719265938e-02" rms="4.5209670066833496e-01" purity="2.8815856575965881e-01" nType="-99"/>
                </Node>
                <Node pos="r" depth="5" NCoef="0" IVar="-1" Cut="0.0000000000000000e+00" cType="1" res="-1.3808490708470345e-02" rms="4.7141534090042114e-01" purity="3.3443078398704529e-01" nType="-99"/>
              </Node>
            </Node>
            <Node pos="r" depth="3" NCoef="0" IVar="3" Cut="5.5567479133605957e-01" cType="1" res="-3.2586252689361572e-01" rms="3.4675478935241699e-01" purity="1.4226755499839783e-01" nType="0">
              <Node pos="l" depth="4" NCoef="0" IVar="-1" Cut="0.0000000000000000e+00" cType="1" res="-3.7544336169958115e-02" rms="3.0654728412628174e-01" purity="1.0641340166330338e-01" nType="-99"/>
              <Node pos="r" depth="4" NCoef="0" IVar="-1" Cut="0.0000000000000000e+00" cType="1" res="-2.9800748452544212e-02" rms="3.7612286210060120e-01" purity="1.7370295524597168e-01" nType="-99"/>
            </Node>
          </Node>
        </Node>
        <Node pos="r" depth="1" NCoef="0" IVar="0" Cut="3.2204878330230713e-01" cType="1" res="1.7797774076461792e-01" rms="4.5771461725234985e-01" purity="6.9244199991226196e-01" nType="0">
          <Node pos="l" depth="2" NCoef="0" IVar="3" Cut="8.5804980993270874e-01" cType="1" res="2.2339546680450439e-01" rms="4.3558740615844727e-01" purity="7.4181765317916870e-01" nType="0">
            <Node pos="l" depth="3" NCoef="0" IVar="5" Cut="-1.3379402160644531e+00" cType="1" res="1.2055396288633347e-01" rms="4.8101761937141418e-01" purity="6.3107490539550781e-01" nType="0">
              <Node pos="l" depth="4" NCoef="0" IVar="1" Cut="4.3762883543968201e-01" cType="1" res="1.5079531073570251e-01" rms="4.7162669897079468e-01" purity="6.6275405883789062e-01" nType="0">
                <Node pos="l" depth="5" NCoef="0" IVar="3" Cut="7.9813468456268311e-01" cType="1" res="1.8923148512840271e-01" rms="4.5582172274589539e-01" purity="7.0461791753768921e-01" nType="0">
                  <Node pos="l" depth="6" NCoef="0" IVar="3" Cut="7.1308940649032593e-01" cType="1" res="1.5193545818328857e-01" rms="4.7155180573463440e-01" purity="6.6541427373886108e-01" nType="0">
                    <Node pos="l" depth="7" NCoef="0" IVar="-1" Cut="0.0000000000000000e+00" cType="1" res="8.0943703651428223e-03" rms="4.8801153898239136e-01" purity="6.0853594541549683e-01" nType="-99"/>
                    <Node pos="r" depth="7" NCoef="0" IVar="-1" Cut="0.0000000000000000e+00" cType="1" res="1.3895498588681221e-02" rms="4.6400189399719238e-01" purity="6.8589234352111816e-01" nType="-99"/>
                  </Node>
                  <Node pos="r" depth="6" NCoef="0" IVar="5" Cut="-2.2626678943634033e+00" cType="1" res="2.3071347177028656e-01" rms="4.3391320109367371e-01" purity="7.4822169542312622e-01" nType="0">
                    <Node pos="l" depth="7" NCoef="0" IVar="-1" Cut="0.0000000000000000e+00" cType="1" res="1.9010296091437340e-02" rms="4.2409202456474304e-01" purity="7.6480174064636230e-01" nType="-99"/>
                    <Node pos="r" depth="7" NCoef="0" IVar="-1" Cut="0.0000000000000000e+00" cType="1" res="1.5540709719061852e-02" rms="4.4920212030410767e-01" purity="7.1927678585052490e-01" nType="-99"/>
                  </Node>
                </Node>
                <Node pos="r" depth="5" NCoef="0" IVar="3" Cut="7.8481888771057129e-01" cType="1" res="6.2199983745813370e-02" rms="4.9493911862373352e-01" purity="5.6625765562057495e-01" nType="0">
                  <Node pos="l" depth="6" NCoef="0" IVar="-1" Cut="0.0000000000000000e+00" cType="1" res="1.2575878063216805e-03" rms="4.9921351671218872e-01" purity="5.1691532135009766e-01" nType="-99"/>
                  <Node pos="r" depth="6" NCoef="0" IVar="-1" Cut="0.0000000000000000e+00" cType="1" res="8.1454217433929443e-03" rms="4.8746597766876221e-01" purity="6.0911870002746582e-01" nType="-99"/>
                </Node>
              </Node>
              <Node pos="r" depth="4" NCoef="0" IVar="5" Cut="-6.7210727930068970e-01" cType="1" res="-1.2189355678856373e-02" rms="4.9901083111763000e-01" purity="4.9202063679695129e-01" nType="0">
                <Node pos="l" depth="5" NCoef="0" IVar="-1" Cut="0.0000000000000000e+00" cType="1" res="4.1533969342708588e-03" rms="4.9613907933235168e-01" purity="5.5591315031051636e-01" nType="-99"/>
                <Node pos="r" depth="5" NCoef="0" IVar="-1" Cut="0.0000000000000000e+00" cType="1" res="-8.0015305429697037e-03" rms="4.9185514450073242e-01" purity="4.1248339414596558e-01" nType="-99"/>
              </Node>
            </Node>
            <Node pos="r" depth="3" NCoef="0" IVar="5" Cut="-2.0338079929351807e+00" cType="1" res="2.6493674516677856e-01" rms="4.0855610370635986e-01" purity="7.8655046224594116e-01" nType="0">
              <Node pos="l" depth="4" NCoef="0" IVar="1" Cut="7.3694103956222534e-01" cType="1" res="2.9387205839157104e-01" rms="3.8575407862663269e-01" purity="8.1729900836944580e-01" nType="0">
                <Node pos="l" depth="5" NCoef="0" IVar="4" Cut="-1.1761542558670044e+00" cType="1" res="3.1288617849349976e-01" rms="3.6836758255958557e-01" purity="8.3781385421752930e-01" nType="0">
                  <Node pos="l" depth="6" NCoef="0" IVar="1" Cut="5.6384172290563583e-02" cType="1" res="2.8289985656738281e-01" rms="3.9546293020248413e-01" purity="8.0576324462890625e-01" nType="0">
                    <Node pos="l" depth="7" NCoef="0" IVar="-1" Cut="0.0000000000000000e+00" cType="1" res="2.2689351812005043e-02" rms="3.7985074520111084e-01" purity="8.2511544227600098e-01" nType="-99"/>
                    <Node pos="r" depth="7" NCoef="0" IVar="-1" Cut="0.0000000000000000e+00" cType="1" res="1.9723812118172646e-02" rms="4.1681355237960815e-01" purity="7.7590829133987427e-01" nType="-99"/>
                  </Node>
                  <Node pos="r" depth="6" NCoef="0" IVar="1" Cut="2.6516538858413696e-01" cType="1" res="3.2772642374038696e-01" rms="3.5325184464454651e-01" purity="8.5367578268051147e-01" nType="0">
                    <Node pos="l" depth="7" NCoef="0" IVar="-1" Cut="0.0000000000000000e+00" cType="1" res="2.5927877053618431e-02" rms="3.4363970160484314e-01" purity="8.6311787366867065e-01" nType="-99"/>
                    <Node pos="r" depth="7" NCoef="0" IVar="-1" Cut="0.0000000000000000e+00" cType="1" res="2.3068139329552650e-02" rms="3.8277044892311096e-01" purity="8.2145601511001587e-01" nType="-99"/>
                  </Node>
                </Node>
                <Node pos="r" depth="5" NCoef="0" IVar="4" Cut="-7.2966885566711426e-01" cType="1" res="2.0215827226638794e-01" rms="4.4932597875595093e-01" purity="7.1834641695022583e-01" nType="0">
                  <Node pos="l" depth="6" NCoef="0" IVar="-1" Cut="0.0000000000000000e+00" cType="1" res="1.2454320676624775e-02" rms="4.6694371104240417e-01" purity="6.7793673276901245e-01" nType="-99"/>
                  <Node pos="r" depth="6" NCoef="0" IVar="1" Cut="1.3329160213470459e+00" cType="1" res="2.3628292977809906e-01" rms="4.3020451068878174e-01" purity="7.5425064563751221e-01" nType="0">
                    <Node pos="l" depth="7" NCoef="0" IVar="-1" Cut="0.0000000000000000e+00" cType="1" res="2.0117975771427155e-02" rms="4.1401743888854980e-01" purity="7.8002649545669556e-01" nType="-99"/>
                    <Node pos="r" depth="7" NCoef="0" IVar="-1" Cut="0.0000000000000000e+00" cType="1" res="1.6564406454563141e-02" rms="4.4608929753303528e-01" purity="7.2555559873580933e-01" nType="-99"/>
                  </Node>
                </Node>
              </Node>
              <Node pos="r" depth="4" NCoef="0" IVar="1" Cut="7.9699051380157471e-01" cType="1" res="1.7682068049907684e-01" rms="4.6017351746559143e-01" purity="6.9291269779205322e-01" nType="0">
                <Node pos="l" depth="5" NCoef="0" IVar="5" Cut="-7.2927349805831909e-01" cType="1" res="2.0625746250152588e-01" rms="4.4661051034927368e-01" purity="7.2294503450393677e-01" nType="0">
                  <Node pos="l" depth="6" NCoef="0" IVar="1" Cut="7.1633949875831604e-02" cType="1" res="2.3047517240047455e-01" rms="4.3291094899177551e-01" purity="7.4960404634475708e-01" nType="0">
                    <Node pos="l" depth="7" NCoef="0" IVar="-1" Cut="0.0000000000000000e+00" cType="1" res="2.0042272284626961e-02" rms="4.1912153363227844e-01" purity="7.7225166559219360e-01" nType="-99"/>
                    <Node pos="r" depth="7" NCoef="0" IVar="-1" Cut="0.0000000000000000e+00" cType="1" res="1.5784703195095062e-02" rms="4.5090821385383606e-01" purity="7.1533393859863281e-01" nType="-99"/>
                  </Node>
                  <Node pos="r" depth="6" NCoef="0" IVar="-1" Cut="0.0000000000000000e+00" cType="1" res="7.7832909300923347e-03" rms="4.9060437083244324e-01" purity="5.9623640775680542e-01" nType="-99"/>
                </Node>
                <Node pos="r" depth="5" NCoef="0" IVar="-1" Cut="0.0000000000000000e+00" cType="1" res="2.4436446838080883e-03" rms="4.9729180335998535e-01" purity="5.4229587316513062e-01" nType="-99"/>
              </Node>
            </Node>
          </Node>
          <Node pos="r" depth="2" NCoef="0" IVar="1" Cut="6.6425025463104248e-01" cType="1" res="-1.2913351878523827e-02" rms="4.9746474623680115e-01" purity="4.8491543531417847e-01" nType="0">
            <Node pos="l" depth="3" NCoef="0" IVar="5" Cut="-1.2845387458801270e+00" cType="1" res="4.2620446532964706e-02" rms="4.9635908007621765e-01" purity="5.4351836442947388e-01" nType="0">
              <Node pos="l" depth="4" NCoef="0" IVar="0" Cut="6.2511360645294189e-01" cType="1" res="7.2047933936119080e-02" rms="4.9309316277503967e-01" purity="5.7555937767028809e-01" nType="0">
                <Node pos="l" depth="5" NCoef="0" IVar="3" Cut="7.3816740512847900e-01" cType="1" res="1.0657848417758942e-01" rms="4.8635876178741455e-01" purity="6.1263149976730347e-01" nType="0">
                  <Node pos="l" depth="6" NCoef="0" IVar="-1" Cut="0.0000000000000000e+00" cType="1" res="3.9457031525671482e-03" rms="4.9724745750427246e-01" purity="5.4937899112701416e-01" nType="-99"/>
                  <Node pos="r" depth="6" NCoef="0" IVar="-1" Cut="0.0000000000000000e+00" cType="1" res="1.2423454783856869e-02" rms="4.7017952799797058e-01" purity="6.6920411586761475e-01" nType="-99"/>
                </Node>
                <Node pos="r" depth="5" NCoef="0" IVar="-1" Cut="0.0000000000000000e+00" cType="1" res="6.2046303355600685e-05" rms="4.9921458959579468e-01" purity="4.9898216128349304e-01" nType="-99"/>
              </Node>
              <Node pos="r" depth="4" NCoef="0" IVar="-1" Cut="0.0000000000000000e+00" cType="1" res="-5.4135601967573166e-03" rms="4.9392357468605042e-01" purity="4.3066021800041199e-01" nType="-99"/>
            </Node>
            <Node pos="r" depth="3" NCoef="0" IVar="2" Cut="6.4486351013183594e+01" cType="1" res="-1.0694772005081177e-01" rms="4.8504355549812317e-01" purity="3.8568419218063354e-01" nType="0">
              <Node pos="l" depth="4" NCoef="0" IVar="1" Cut="1.5675326585769653e+00" cType="1" res="-5.2387904375791550e-02" rms="4.9510177969932556e-01" purity="4.4171267747879028e-01" nType="0">
                <Node pos="l" depth="5" NCoef="0" IVar="-1" Cut="0.0000000000000000e+00" cType="1" res="-1.0177535004913807e-03" rms="4.9835893511772156e-01" purity="4.8421236872673035e-01" nType="-99"/>
                <Node pos="r" depth="5" NCoef="0" IVar="-1" Cut="0.0000000000000000e+00" cType="1" res="-8.8321641087532043e-03" rms="4.8724475502967834e-01" purity="3.9286160469055176e-01" nType="-99"/>
              </Node>
              <Node pos="r" depth="4" NCoef="0" IVar="0" Cut="6.3372814655303955e-01" cType="1" res="-1.5775430202484131e-01" rms="4.6982297301292419e-01" purity="3.3350995182991028e-01" nType="0">
                <Node pos="l" depth="5" NCoef="0" IVar="-1" Cut="0.0000000000000000e+00" cType="1" res="-9.2334346845746040e-03" rms="4.8702964186668396e-01" purity="3.9185786247253418e-01" nType="-99"/>
                <Node pos="r" depth="5" NCoef="0" IVar="-1" Cut="0.0000000000000000e+00" cType="1" res="-2.1531458944082260e-02" rms="4.4355911016464233e-01" purity="2.7139851450920105e-01" nType="-99"/>
              </Node>
            </Node>
          </Node>
        </Node>
      </Node>
    </BinaryTree>
    <BinaryTree type="DecisionTree" boostWeight="1.0000000000000000e+00" itree="3">
      <Node pos="s" depth="0" NCoef="0" IVar="3" Cut="6.5069407224655151e-01" cType="1" res="6.2052877619862556e-03" rms="4.7779986262321472e-01" purity="5.0072127580642700e-01" nType="0">
        <Node pos="l" depth="1" NCoef="0" IVar="3" Cut="4.8580196499824524e-01" cType="1" res="-2.7597200870513916e-01" rms="3.7054049968719482e-01" purity="1.7332059144973755e-01" nType="0">
          <Node pos="l" depth="2" NCoef="0" IVar="0" Cut="9.6730959415435791e-01" cType="1" res="-3.3807790279388428e-01" rms="2.9458960890769958e-01" purity="9.8447889089584351e-02" nType="0">
            <Node pos="l" depth="3" NCoef="0" IVar="5" Cut="-1.4211193323135376e+00" cType="1" res="-2.5080481171607971e-01" rms="3.9966875314712524e-01" purity="2.0319901406764984e-01" nType="0">
              <Node pos="l" depth="4" NCoef="0" IVar="6" Cut="1.2776778638362885e-01" cType="1" res="-2.1125523746013641e-01" rms="4.3055880069732666e-01" purity="2.4876286089420319e-01" nType="0">
                <Node pos="l" depth="5" NCoef="0" IVar="-1" Cut="0.0000000000000000e+00" cType="1" res="-2.7748035266995430e-02" rms="3.8576626777648926e-01" purity="1.8274427950382233e-01" nType="-99"/>
                <Node pos="r" depth="5" NCoef="0" IVar="-1" Cut="0.0000000000000000e+00" cType="1" res="-1.4494736678898335e-02" rms="4.6491879224777222e-01" purity="3.1730321049690247e-01" nType="-99"/>
              </Node>
              <Node pos="r" depth="4" NCoef="0" IVar="-1" Cut="0.0000000000000000e+00" cType="1" res="-3.4051228314638138e-02" rms="3.2832801342010498e-01" purity="1.2412052601575851e-01" nType="-99"/>
            </Node>
            <Node pos="r" depth="3" NCoef="0" IVar="6" Cut="1.5358279645442963e-01" cType="1" res="-3.5151135921478271e-01" rms="2.7239879965782166e-01" purity="8.2324154675006866e-02" nType="0">
              <Node pos="l" depth="4" NCoef="0" IVar="3" Cut="3.9405179023742676e-01" cType="1" res="-3.6953753232955933e-01" rms="2.3770883679389954e-01" purity="6.0998421162366867e-02" nType="0">
                <Node pos="l" depth="5" NCoef="0" IVar="4" Cut="1.9043531417846680e+00" cType="1" res="-3.8364428281784058e-01" rms="2.0237551629543304e-01" purity="4.3108232319355011e-02" nType="0">
                  <Node pos="l" depth="6" NCoef="0" IVar="0" Cut="1.8424607515335083e+00" cType="1" res="-3.7489992380142212e-01" rms="2.2473627328872681e-01" purity="5.3620394319295883e-02" nType="0">
                    <Node pos="l" depth="7" NCoef="0" IVar="-1" Cut="0.0000000000000000e+00" cType="1" res="-4.0880404412746429e-02" rms="2.6406303048133850e-01" purity="7.5815469026565552e-02" nType="-99"/>
                    <Node pos="r" depth="7" NCoef="0" IVar="-1" Cut="0.0000000000000000e+00" cType="1" res="-4.6295300126075745e-02" rms="2.0401661098003387e-01" purity="4.3579958379268646e-02" nType="-99"/>
                  </Node>
                  <Node pos="r" depth="6" NCoef="0" IVar="2" Cut="2.0009979248046875e+02" cType="1" res="-4.1180369257926941e-01" rms="9.5713526010513306e-02" purity="9.2559494078159332e-03" nType="0">
                    <Node pos="l" depth="7" NCoef="0" IVar="-1" Cut="0.0000000000000000e+00" cType="1" res="-5.1554325968027115e-02" rms="7.8814588487148285e-02" purity="6.2628961168229580e-03" nType="-99"/>
                    <Node pos="r" depth="7" NCoef="0" IVar="-1" Cut="0.0000000000000000e+00" cType="1" res="-4.6368502080440521e-02" rms="1.1125465482473373e-01" purity="1.2539696879684925e-02" nType="-99"/>
                  </Node>
                </Node>
                <Node pos="r" depth="5" NCoef="0" IVar="5" Cut="-9.9169522523880005e-01" cType="1" res="-3.3332854509353638e-01" rms="3.0756491422653198e-01" purity="1.0691867023706436e-01" nType="0">
                  <Node pos="l" depth="6" NCoef="0" IVar="6" Cut="9.4233639538288116e-02" cType="1" res="-3.0966982245445251e-01" rms="3.3998051285743713e-01" purity="1.3403643667697906e-01" nType="0">
                    <Node pos="l" depth="7" NCoef="0" IVar="-1" Cut="0.0000000000000000e+00" cType="1" res="-3.5892635583877563e-02" rms="3.1329751014709473e-01" purity="1.1043365299701691e-01" nType="-99"/>
                    <Node pos="r" depth="7" NCoef="0" IVar="-1" Cut="0.0000000000000000e+00" cType="1" res="-2.9270384460687637e-02" rms="3.7800347805023193e-01" purity="1.7350427806377411e-01" nType="-99"/>
                  </Node>
                  <Node pos="r" depth="6" NCoef="0" IVar="-1" Cut="0.0000000000000000e+00" cType="1" res="-4.2343821376562119e-02" rms="2.0869216322898865e-01" purity="4.6217150986194611e-02" nType="-99"/>
                </Node>
              </Node>
              <Node pos="r" depth="4" NCoef="0" IVar="5" Cut="-1.1680841445922852e+00" cType="1" res="-3.0873364210128784e-01" rms="3.3703601360321045e-01" purity="1.3293197751045227e-01" nType="0">
                <Node pos="l" depth="5" NCoef="0" IVar="7" Cut="5.0000000000000000e+00" cType="1" res="-2.6900470256805420e-01" rms="3.7958997488021851e-01" purity="1.7773392796516418e-01" nType="0">
                  <Node pos="l" depth="6" NCoef="0" IVar="-1" Cut="0.0000000000000000e+00" cType="1" res="-2.1131066605448723e-02" rms="4.3281915783882141e-01" purity="2.5159803032875061e-01" nType="-99"/>
                  <Node pos="r" depth="6" NCoef="0" IVar="3" Cut="2.4437764286994934e-01" cType="1" res="-3.0127397179603577e-01" rms="3.5002484917640686e-01" purity="1.4423650503158569e-01" nType="0">
                    <Node pos="l" depth="7" NCoef="0" IVar="-1" Cut="0.0000000000000000e+00" cType="1" res="-3.8645744323730469e-02" rms="3.1408768892288208e-01" purity="1.1190530657768250e-01" nType="-99"/>
                    <Node pos="r" depth="7" NCoef="0" IVar="-1" Cut="0.0000000000000000e+00" cType="1" res="-2.9047034680843353e-02" rms="3.8471558690071106e-01" purity="1.8196035921573639e-01" nType="-99"/>
                  </Node>
                </Node>
                <Node pos="r" depth="5" NCoef="0" IVar="6" Cut="2.2404597699642181e-01" cType="1" res="-3.5242086648941040e-01" rms="2.7236127853393555e-01" purity="8.1478625535964966e-02" nType="0">
                  <Node pos="l" depth="6" NCoef="0" IVar="-1" Cut="0.0000000000000000e+00" cType="1" res="-4.3790668249130249e-02" rms="2.3231633007526398e-01" purity="5.7842351496219635e-02" nType="-99"/>
                  <Node pos="r" depth="6" NCoef="0" IVar="-1" Cut="0.0000000000000000e+00" cType="1" res="-3.6154981702566147e-02" rms="3.2587161660194397e-01" purity="1.2126976251602173e-01" nType="-99"/>
                </Node>
              </Node>
            </Node>
          </Node>
          <Node pos="r" depth="2" NCoef="0" IVar="4" Cut="1.7548229694366455e+00" cType="1" res="-1.6173958778381348e-01" rms="4.5833820104598999e-01" purity="3.1103524565696716e-01" nType="0">
            <Node pos="l" depth="3" NCoef="0" IVar="0" Cut="6.4186453819274902e-01" cType="1" res="-1.4093111455440521e-01" rms="4.6832928061485291e-01" purity="3.3440107107162476e-01" nType="0">
              <Node pos="l" depth="4" NCoef="0" IVar="1" Cut="7.9077363014221191e-01" cType="1" res="-7.6184809207916260e-02" rms="4.8953330516815186e-01" purity="4.0951597690582275e-01" nType="0">
                <Node pos="l" depth="5" NCoef="0" IVar="0" Cut="4.1407564282417297e-01" cType="1" res="-4.9299020320177078e-02" rms="4.9466055631637573e-01" purity="4.4035378098487854e-01" nType="0">
                  <Node pos="l" depth="6" NCoef="0" IVar="-1" Cut="0.0000000000000000e+00" cType="1" res="4.9486625357531011e-05" rms="4.9878677725791931e-01" purity="4.9718394875526428e-01" nType="-99"/>
                  <Node pos="r" depth="6" NCoef="0" IVar="6" Cut="8.8735781610012054e-02" cType="1" res="-9.0376205742359161e-02" rms="4.8741894960403442e-01" purity="3.9356026053428650e-01" nType="0">
                    <Node pos="l" depth="7" NCoef="0" IVar="-1" Cut="0.0000000000000000e+00" cType="1" res="-1.1759212240576744e-02" rms="4.7772404551506042e-01" purity="3.5475668311119080e-01" nType="-99"/>
                    <Node pos="r" depth="7" NCoef="0" IVar="-1" Cut="0.0000000000000000e+00" cType="1" res="-3.9471103809773922e-03" rms="4.9560087919235229e-01" purity="4.4273081421852112e-01" nType="-99"/>
                  </Node>
                </Node>
                <Node pos="r" depth="5" NCoef="0" IVar="-1" Cut="0.0000000000000000e+00" cType="1" res="-1.4646404422819614e-02" rms="4.6467199921607971e-01" purity="3.1727716326713562e-01" nType="-99"/>
              </Node>
              <Node pos="r" depth="4" NCoef="0" IVar="1" Cut="-5.3869676776230335e-03" cType="1" res="-2.0689888298511505e-01" rms="4.3590784072875977e-01" purity="2.5786915421485901e-01" nType="0">
                <Node pos="l" depth="5" NCoef="0" IVar="-1" Cut="0.0000000000000000e+00" cType="1" res="-1.2874206528067589e-02" rms="4.7022116184234619e-01" purity="3.3327999711036682e-01" nType="-99"/>
                <Node pos="r" depth="5" NCoef="0" IVar="1" Cut="1.2773991823196411e+00" cType="1" res="-2.2874154150485992e-01" rms="4.2221030592918396e-01" purity="2.3420561850070953e-01" nType="0">
                  <Node pos="l" depth="6" NCoef="0" IVar="6" Cut="8.9277379214763641e-02" cType="1" res="-2.0826673507690430e-01" rms="4.3490657210350037e-01" purity="2.5549021363258362e-01" nType="0">
                    <Node pos="l" depth="7" NCoef="0" IVar="-1" Cut="0.0000000000000000e+00" cType="1" res="-2.3620344698429108e-02" rms="4.1414338350296021e-01" purity="2.2087474167346954e-01" nType="-99"/>
                    <Node pos="r" depth="7" NCoef="0" IVar="-1" Cut="0.0000000000000000e+00" cType="1" res="-1.6472883522510529e-02" rms="4.5613679289817810e-01" purity="2.9729151725769043e-01" nType="-99"/>
                  </Node>
                  <Node pos="r" depth="6" NCoef="0" IVar="-1" Cut="0.0000000000000000e+00" cType="1" res="-2.9810179024934769e-02" rms="3.8155776262283325e-01" purity="1.7814393341541290e-01" nType="-99"/>
                </Node>
              </Node>
            </Node>
            <Node pos="r" depth="3" NCoef="0" IVar="-1" Cut="0.0000000000000000e+00" cType="1" res="-3.9804339408874512e-02" rms="2.4855184555053711e-01" purity="6.7189678549766541e-02" nType="-99"/>
          </Node>
        </Node>
        <Node pos="r" depth="1" NCoef="0" IVar="0" Cut="3.2182702422142029e-01" cType="1" res="1.7316794395446777e-01" rms="4.5512944459915161e-01" purity="6.9444239139556885e-01" nType="0">
          <Node pos="l" depth="2" NCoef="0" IVar="3" Cut="8.5377109050750732e-01" cType="1" res="2.1667429804801941e-01" rms="4.3351614475250244e-01" purity="7.4377691745758057e-01" nType="0">
            <Node pos="l" depth="3" NCoef="0" IVar="1" Cut="4.6743294596672058e-01" cType="1" res="1.1339289695024490e-01" rms="4.8101028800010681e-01" purity="6.2843704223632812e-01" nType="0">
              <Node pos="l" depth="4" NCoef="0" IVar="5" Cut="-1.5743699073791504e+00" cType="1" res="1.5079528093338013e-01" rms="4.6872335672378540e-01" purity="6.7007344961166382e-01" nType="0">
                <Node pos="l" depth="5" NCoef="0" IVar="3" Cut="7.8170782327651978e-01" cType="1" res="1.7915001511573792e-01" rms="4.5690900087356567e-01" purity="7.0192402601242065e-01" nType="0">
                  <Node pos="l" depth="6" NCoef="0" IVar="0" Cut="1.9723424315452576e-01" cType="1" res="1.4079242944717407e-01" rms="4.7371238470077515e-01" purity="6.5922844409942627e-01" nType="0">
                    <Node pos="l" depth="7" NCoef="0" IVar="-1" Cut="0.0000000000000000e+00" cType="1" res="1.2683773413300514e-02" rms="4.6456688642501831e-01" purity="6.8429815769195557e-01" nType="-99"/>
                    <Node pos="r" depth="7" NCoef="0" IVar="-1" Cut="0.0000000000000000e+00" cType="1" res="9.6621066331863403e-03" rms="4.8323845863342285e-01" purity="6.2745213508605957e-01" nType="-99"/>
                  </Node>
                  <Node pos="r" depth="6" NCoef="0" IVar="5" Cut="-2.4950373172760010e+00" cType="1" res="2.1007345616817474e-01" rms="4.4047313928604126e-01" purity="7.3634463548660278e-01" nType="0">
                    <Node pos="l" depth="7" NCoef="0" IVar="-1" Cut="0.0000000000000000e+00" cType="1" res="1.7963156104087830e-02" rms="4.2760184407234192e-01" purity="7.5903046131134033e-01" nType="-99"/>
                    <Node pos="r" depth="7" NCoef="0" IVar="-1" Cut="0.0000000000000000e+00" cType="1" res="1.4631752856075764e-02" rms="4.5298829674720764e-01" purity="7.1139389276504517e-01" nType="-99"/>
                  </Node>
                </Node>
                <Node pos="r" depth="5" NCoef="0" IVar="4" Cut="-4.3949082493782043e-02" cType="1" res="5.9982582926750183e-02" rms="4.9386629462242126e-01" purity="5.6806451082229614e-01" nType="0">
                  <Node pos="l" depth="6" NCoef="0" IVar="-1" Cut="0.0000000000000000e+00" cType="1" res="1.0047268122434616e-02" rms="4.8059964179992676e-01" purity="6.3680464029312134e-01" nType="-99"/>
                  <Node pos="r" depth="6" NCoef="0" IVar="-1" Cut="0.0000000000000000e+00" cType="1" res="-7.2552106576040387e-04" rms="4.9866557121276855e-01" purity="4.9476346373558044e-01" nType="-99"/>
                </Node>
              </Node>
              <Node pos="r" depth="4" NCoef="0" IVar="3" Cut="7.8171783685684204e-01" cType="1" res="2.3509085178375244e-02" rms="4.9796903133392334e-01" purity="5.2837824821472168e-01" nType="0">
                <Node pos="l" depth="5" NCoef="0" IVar="-1" Cut="0.0000000000000000e+00" cType="1" res="-2.7247532270848751e-03" rms="4.9828702211380005e-01" purity="4.7038090229034424e-01" nType="-99"/>
                <Node pos="r" depth="5" NCoef="0" IVar="4" Cut="-1.6560938358306885e+00" cType="1" res="7.1252197027206421e-02" rms="4.9275222420692444e-01" purity="5.7897877693176270e-01" nType="0">
                  <Node pos="l" depth="6" NCoef="0" IVar="-1" Cut="0.0000000000000000e+00" cType="1" res="8.7840138003230095e-03" rms="4.8430284857749939e-01" purity="6.2190997600555420e-01" nType="-99"/>
                  <Node pos="r" depth="6" NCoef="0" IVar="-1" Cut="0.0000000000000000e+00" cType="1" res="2.2268048487603664e-03" rms="4.9788215756416321e-01" purity="5.3287315368652344e-01" nType="-99"/>
                </Node>
              </Node>
            </Node>
            <Node pos="r" depth="3" NCoef="0" IVar="1" Cut="7.4781411886215210e-01" cType="1" res="2.5612905621528625e-01" rms="4.0707746148109436e-01" purity="7.8783816099166870e-01" nType="0">
              <Node pos="l" depth="4" NCoef="0" IVar="5" Cut="-1.5627477169036865e+00" cType="1" res="2.7770769596099854e-01" rms="3.8990119099617004e-01" purity="8.1155622005462646e-01" nType="0">
                <Node pos="l" depth="5" NCoef="0" IVar="5" Cut="-2.4801759719848633e+00" cType="1" res="2.9390060901641846e-01" rms="3.7528842687606812e-01" purity="8.2989454269409180e-01" nType="0">
                  <Node pos="l" depth="6" NCoef="0" IVar="4" Cut="-1.2818510532379150e+00" cType="1" res="3.0940803885459900e-01" rms="3.5993540287017822e-01" purity="8.4670633077621460e-01" nType="0">
                    <Node pos="l" depth="7" NCoef="0" IVar="-1" Cut="0.0000000000000000e+00" cType="1" res="2.1272154524922371e-02" rms="3.8829073309898376e-01" purity="8.1474041938781738e-01" nType="-99"/>
                    <Node pos="r" depth="7" NCoef="0" IVar="-1" Cut="0.0000000000000000e+00" cType="1" res="2.4898400530219078e-02" rms="3.4525695443153381e-01" purity="8.6149471998214722e-01" nType="-99"/>
                  </Node>
                  <Node pos="r" depth="6" NCoef="0" IVar="1" Cut="2.7548366785049438e-01" cType="1" res="2.6257020235061646e-01" rms="4.0271514654159546e-01" purity="7.9592895507812500e-01" nType="0">
                    <Node pos="l" depth="7" NCoef="0" IVar="-1" Cut="0.0000000000000000e+00" cType="1" res="2.1508052945137024e-02" rms="3.9209920167922974e-01" purity="8.1006062030792236e-01" nType="-99"/>
                    <Node pos="r" depth="7" NCoef="0" IVar="-1" Cut="0.0000000000000000e+00" cType="1" res="1.7146402969956398e-02" rms="4.3575599789619446e-01" purity="7.4459469318389893e-01" nType="-99"/>
                  </Node>
                </Node>
                <Node pos="r" depth="5" NCoef="0" IVar="5" Cut="-6.8039232492446899e-01" cType="1" res="1.6725294291973114e-01" rms="4.6293127536773682e-01" purity="6.8646740913391113e-01" nType="0">
                  <Node pos="l" depth="6" NCoef="0" IVar="3" Cut="9.8675960302352905e-01" cType="1" res="2.0106548070907593e-01" rms="4.4637745618820190e-01" purity="7.2485178709030151e-01" nType="0">
                    <Node pos="l" depth="7" NCoef="0" IVar="-1" Cut="0.0000000000000000e+00" cType="1" res="1.4131076633930206e-02" rms="4.6219593286514282e-01" purity="6.9046413898468018e-01" nType="-99"/>
                    <Node pos="r" depth="7" NCoef="0" IVar="-1" Cut="0.0000000000000000e+00" cType="1" res="1.7457867041230202e-02" rms="4.3314120173454285e-01" purity="7.4937987327575684e-01" nType="-99"/>
                  </Node>
                  <Node pos="r" depth="6" NCoef="0" IVar="-1" Cut="0.0000000000000000e+00" cType="1" res="7.5111184269189835e-03" rms="4.9052003026008606e-01" purity="5.9657114744186401e-01" nType="-99"/>
                </Node>
              </Node>
              <Node pos="r" depth="4" NCoef="0" IVar="5" Cut="-2.0338079929351807e+00" cType="1" res="1.5100739896297455e-01" rms="4.6806037425994873e-01" purity="6.7229413986206055e-01" nType="0">
                <Node pos="l" depth="5" NCoef="0" IVar="4" Cut="-7.6859849691390991e-01" cType="1" res="1.9056247174739838e-01" rms="4.5118662714958191e-01" purity="7.1416413784027100e-01" nType="0">
                  <Node pos="l" depth="6" NCoef="0" IVar="-1" Cut="0.0000000000000000e+00" cType="1" res="1.1415610089898109e-02" rms="4.6953904628753662e-01" purity="6.7116498947143555e-01" nType="-99"/>
                  <Node pos="r" depth="6" NCoef="0" IVar="1" Cut="1.3430747985839844e+00" cType="1" res="2.2436955571174622e-01" rms="4.3192955851554871e-01" purity="7.5115031003952026e-01" nType="0">
                    <Node pos="l" depth="7" NCoef="0" IVar="-1" Cut="0.0000000000000000e+00" cType="1" res="1.9895462319254875e-02" rms="4.1111153364181519e-01" purity="7.8430527448654175e-01" nType="-99"/>
                    <Node pos="r" depth="7" NCoef="0" IVar="-1" Cut="0.0000000000000000e+00" cType="1" res="1.5116637572646141e-02" rms="4.5094132423400879e-01" purity="7.1567475795745850e-01" nType="-99"/>
                  </Node>
                </Node>
                <Node pos="r" depth="5" NCoef="0" IVar="-1" Cut="0.0000000000000000e+00" cType="1" res="3.2237786799669266e-03" rms="4.9602672457695007e-01" purity="5.5360347032546997e-01" nType="-99"/>
              </Node>
            </Node>
          </Node>
          <Node pos="r" depth="2" NCoef="0" IVar="1" Cut="1.2082620859146118e+00" cType="1" res="-8.7323430925607681e-03" rms="4.9643129110336304e-01" purity="4.8817437887191772e-01" nType="0">
            <Node pos="l" depth="3" NCoef="0" IVar="5" Cut="-1.0864858627319336e+00" cType="1" res="2.7572719380259514e-02" rms="4.9646532535552979e-01" purity="5.2793633937835693e-01" nType="0">
              <Node pos="l" depth="4" NCoef="0" IVar="0" Cut="9.3925464153289795e-01" cType="1" res="5.7461518794298172e-02" rms="4.9423721432685852e-01" purity="5.6096994876861572e-01" nType="0">
                <Node pos="l" depth="5" NCoef="0" IVar="3" Cut="8.2384216785430908e-01" cType="1" res="8.2146450877189636e-02" rms="4.9062868952751160e-01" purity="5.8888864517211914e-01" nType="0">
                  <Node pos="l" depth="6" NCoef="0" IVar="1" Cut="4.7172299027442932e-01" cType="1" res="4.8724476248025894e-02" rms="4.9634748697280884e-01" purity="5.5188333988189697e-01" nType="0">
                    <Node pos="l" depth="7" NCoef="0" IVar="-1" Cut="0.0000000000000000e+00" cType="1" res="6.3131768256425858e-03" rms="4.9262025952339172e-01" purity="5.8225148916244507e-01" nType="-99"/>
                    <Node pos="r" depth="7" NCoef="0" IVar="-1" Cut="0.0000000000000000e+00" cType="1" res="-2.7507054619491100e-03" rms="4.9792540073394775e-01" purity="4.6556448936462402e-01" nType="-99"/>
                  </Node>
                  <Node pos="r" depth="6" NCoef="0" IVar="0" Cut="5.0108987092971802e-01" cType="1" res="1.4072199165821075e-01" rms="4.7480043768882751e-01" purity="6.5374439954757690e-01" nType="0">
                    <Node pos="l" depth="7" NCoef="0" IVar="-1" Cut="0.0000000000000000e+00" cType="1" res="1.3895773328840733e-02" rms="4.5815914869308472e-01" purity="6.9880616664886475e-01" nType="-99"/>
                    <Node pos="r" depth="7" NCoef="0" IVar="-1" Cut="0.0000000000000000e+00" cType="1" res="7.7537093311548233e-03" rms="4.8802152276039124e-01" purity="6.0547137260437012e-01" nType="-99"/>
                  </Node>
                </Node>
                <Node pos="r" depth="5" NCoef="0" IVar="-1" Cut="0.0000000000000000e+00" cType="1" res="-4.9936962313950062e-03" rms="4.9491247534751892e-01" purity="4.3271932005882263e-01" nType="-99"/>
              </Node>
              <Node pos="r" depth="4" NCoef="0" IVar="-1" Cut="0.0000000000000000e+00" cType="1" res="-9.1436225920915604e-03" rms="4.8516595363616943e-01" purity="3.8473397493362427e-01" nType="-99"/>
            </Node>
            <Node pos="r" depth="3" NCoef="0" IVar="5" Cut="-2.2356259822845459e+00" cType="1" res="-1.3552418351173401e-01" rms="4.7502276301383972e-01" purity="3.4930980205535889e-01" nType="0">
              <Node pos="l" depth="4" NCoef="0" IVar="-1" Cut="0.0000000000000000e+00" cType="1" res="-7.4976910836994648e-03" rms="4.8940131068229675e-01" purity="4.0366718173027039e-01" nType="-99"/>
              <Node pos="r" depth="4" NCoef="0" IVar="-1" Cut="0.0000000000000000e+00" cType="1" res="-1.7307147383689880e-02" rms="4.5667302608489990e-01" purity="3.0009198188781738e-01" nType="-99"/>
            </Node>
          </Node>
        </Node>
      </Node>
    </BinaryTree>
    <BinaryTree type="DecisionTree" boostWeight="1.0000000000000000e+00" itree="4">
      <Node pos="s" depth="0" NCoef="0" IVar="3" Cut="6.5137040615081787e-01" cType="1" res="7.5434432365000248e-03" rms="4.7161099314689636e-01" purity="5.0067007541656494e-01" nType="0">
        <Node pos="l" depth="1" NCoef="0" IVar="3" Cut="5.0680088996887207e-01" cType="1" res="-2.6003545522689819e-01" rms="3.6896154284477234e-01" purity="1.7405359447002411e-01" nType="0">
          <Node pos="l" depth="2" NCoef="0" IVar="0" Cut="9.6759217977523804e-01" cType="1" res="-3.1399855017662048e-01" rms="3.0239656567573547e-01" purity="1.0549921542406082e-01" nType="0">
            <Node pos="l" depth="3" NCoef="0" IVar="5" Cut="-1.1833332777023315e+00" cType="1" res="-2.3247918486595154e-01" rms="4.0422847867012024e-01" purity="2.1149745583534241e-01" nType="0">
              <Node pos="l" depth="4" NCoef="0" IVar="6" Cut="1.2537157535552979e-01" cType="1" res="-1.9254054129123688e-01" rms="4.3525350093841553e-01" purity="2.5865030288696289e-01" nType="0">
                <Node pos="l" depth="5" NCoef="0" IVar="-1" Cut="0.0000000000000000e+00" cType="1" res="-2.5325570255517960e-02" rms="3.9473873376846313e-01" purity="1.9492258131504059e-01" nType="-99"/>
                <Node pos="r" depth="5" NCoef="0" IVar="-1" Cut="0.0000000000000000e+00" cType="1" res="-1.2044512666761875e-02" rms="4.7020778059959412e-01" purity="3.3338379859924316e-01" nType="-99"/>
              </Node>
              <Node pos="r" depth="4" NCoef="0" IVar="-1" Cut="0.0000000000000000e+00" cType="1" res="-3.4571737051010132e-02" rms="3.0865225195884705e-01" purity="1.0829731076955795e-01" nType="-99"/>
            </Node>
            <Node pos="r" depth="3" NCoef="0" IVar="6" Cut="1.9185881316661835e-01" cType="1" res="-3.2953789830207825e-01" rms="2.7607768774032593e-01" purity="8.5293650627136230e-02" nType="0">
              <Node pos="l" depth="4" NCoef="0" IVar="3" Cut="3.9500176906585693e-01" cType="1" res="-3.4177157282829285e-01" rms="2.5321474671363831e-01" purity="7.0489063858985901e-02" nType="0">
                <Node pos="l" depth="5" NCoef="0" IVar="4" Cut="1.6402426958084106e+00" cType="1" res="-3.5747650265693665e-01" rms="2.1459391713142395e-01" purity="4.9021530896425247e-02" nType="0">
                  <Node pos="l" depth="6" NCoef="0" IVar="6" Cut="1.1152962595224380e-01" cType="1" res="-3.4756532311439514e-01" rms="2.3975121974945068e-01" purity="6.1810851097106934e-02" nType="0">
                    <Node pos="l" depth="7" NCoef="0" IVar="-1" Cut="0.0000000000000000e+00" cType="1" res="-4.3171864002943039e-02" rms="2.1378435194492340e-01" purity="4.8134554177522659e-02" nType="-99"/>
                    <Node pos="r" depth="7" NCoef="0" IVar="-1" Cut="0.0000000000000000e+00" cType="1" res="-3.9993047714233398e-02" rms="2.7471914887428284e-01" purity="8.3196438848972321e-02" nType="-99"/>
                  </Node>
                  <Node pos="r" depth="6" NCoef="0" IVar="6" Cut="1.2412233650684357e-01" cType="1" res="-3.8369110226631165e-01" rms="1.2194868177175522e-01" purity="1.5194414183497429e-02" nType="0">
                    <Node pos="l" depth="7" NCoef="0" IVar="-1" Cut="0.0000000000000000e+00" cType="1" res="-4.6745974570512772e-02" rms="9.7483634948730469e-02" purity="9.6217440441250801e-03" nType="-99"/>
                    <Node pos="r" depth="7" NCoef="0" IVar="-1" Cut="0.0000000000000000e+00" cType="1" res="-4.5658849179744720e-02" rms="1.5835544466972351e-01" purity="2.5909453630447388e-02" nType="-99"/>
                  </Node>
                </Node>
                <Node pos="r" depth="5" NCoef="0" IVar="5" Cut="-9.7518891096115112e-01" cType="1" res="-3.0375522375106812e-01" rms="3.2528442144393921e-01" purity="1.2245479971170425e-01" nType="0">
                  <Node pos="l" depth="6" NCoef="0" IVar="6" Cut="9.9169254302978516e-02" cType="1" res="-2.8020715713500977e-01" rms="3.5728055238723755e-01" purity="1.5175132453441620e-01" nType="0">
                    <Node pos="l" depth="7" NCoef="0" IVar="-1" Cut="0.0000000000000000e+00" cType="1" res="-3.4316793084144592e-02" rms="3.1690469384193420e-01" purity="1.1359838396310806e-01" nType="-99"/>
                    <Node pos="r" depth="7" NCoef="0" IVar="-1" Cut="0.0000000000000000e+00" cType="1" res="-2.4429230019450188e-02" rms="4.0457659959793091e-01" purity="2.0733636617660522e-01" nType="-99"/>
                  </Node>
                  <Node pos="r" depth="6" NCoef="0" IVar="-1" Cut="0.0000000000000000e+00" cType="1" res="-3.9083234965801239e-02" rms="2.3195227980613708e-01" purity="5.7934496551752090e-02" nType="-99"/>
                </Node>
              </Node>
              <Node pos="r" depth="4" NCoef="0" IVar="5" Cut="-1.5896000862121582e+00" cType="1" res="-2.7097842097282410e-01" rms="3.6055308580398560e-01" purity="1.5615931153297424e-01" nType="0">
                <Node pos="l" depth="5" NCoef="0" IVar="-1" Cut="0.0000000000000000e+00" cType="1" res="-2.3973276838660240e-02" rms="4.0692529082298279e-01" purity="2.1185620129108429e-01" nType="-99"/>
                <Node pos="r" depth="5" NCoef="0" IVar="6" Cut="2.3801615834236145e-01" cType="1" res="-3.0906945466995239e-01" rms="3.1242915987968445e-01" purity="1.1051671952009201e-01" nType="0">
                  <Node pos="l" depth="6" NCoef="0" IVar="-1" Cut="0.0000000000000000e+00" cType="1" res="-3.9832554757595062e-02" rms="2.6712080836296082e-01" purity="7.8078947961330414e-02" nType="-99"/>
                  <Node pos="r" depth="6" NCoef="0" IVar="-1" Cut="0.0000000000000000e+00" cType="1" res="-3.1516313552856445e-02" rms="3.5030293464660645e-01" purity="1.4380037784576416e-01" nType="-99"/>
                </Node>
              </Node>
            </Node>
          </Node>
          <Node pos="r" depth="2" NCoef="0" IVar="5" Cut="-1.1440990865230560e-01" cType="1" res="-1.3896316289901733e-01" rms="4.6390232443809509e-01" purity="3.2786312699317932e-01" nType="0">
            <Node pos="l" depth="3" NCoef="0" IVar="0" Cut="6.4243853092193604e-01" cType="1" res="-1.1577299982309341e-01" rms="4.7479876875877380e-01" purity="3.5536083579063416e-01" nType="0">
              <Node pos="l" depth="4" NCoef="0" IVar="1" Cut="4.4574090838432312e-01" cType="1" res="-6.5812967717647552e-02" rms="4.9076160788536072e-01" purity="4.1753092408180237e-01" nType="0">
                <Node pos="l" depth="5" NCoef="0" IVar="3" Cut="6.0940068960189819e-01" cType="1" res="-1.8873754888772964e-02" rms="4.9778929352760315e-01" purity="4.7131258249282837e-01" nType="0">
                  <Node pos="l" depth="6" NCoef="0" IVar="-1" Cut="0.0000000000000000e+00" cType="1" res="-4.6413894742727280e-03" rms="4.9463006854057312e-01" purity="4.3639135360717773e-01" nType="-99"/>
                  <Node pos="r" depth="6" NCoef="0" IVar="-1" Cut="0.0000000000000000e+00" cType="1" res="1.7638158751651645e-03" rms="4.9850383400917053e-01" purity="5.1176834106445312e-01" nType="-99"/>
                </Node>
                <Node pos="r" depth="5" NCoef="0" IVar="6" Cut="7.8470759093761444e-02" cType="1" res="-1.3764488697052002e-01" rms="4.7083321213722229e-01" purity="3.3522784709930420e-01" nType="0">
                  <Node pos="l" depth="6" NCoef="0" IVar="-1" Cut="0.0000000000000000e+00" cType="1" res="-1.7907973378896713e-02" rms="4.5089623332023621e-01" purity="2.8617742657661438e-01" nType="-99"/>
                  <Node pos="r" depth="6" NCoef="0" IVar="-1" Cut="0.0000000000000000e+00" cType="1" res="-7.8741572797298431e-03" rms="4.8536577820777893e-01" purity="3.8522085547447205e-01" nType="-99"/>
                </Node>
              </Node>
              <Node pos="r" depth="4" NCoef="0" IVar="1" Cut="7.8848022222518921e-01" cType="1" res="-1.7589014768600464e-01" rms="4.4751507043838501e-01" purity="2.8055122494697571e-01" nType="0">
                <Node pos="l" depth="5" NCoef="0" IVar="6" Cut="9.4096839427947998e-02" cType="1" res="-1.4391274750232697e-01" rms="4.6393460035324097e-01" purity="3.1663939356803894e-01" nType="0">
                  <Node pos="l" depth="6" NCoef="0" IVar="-1" Cut="0.0000000000000000e+00" cType="1" res="-1.6945801675319672e-02" rms="4.4843432307243347e-01" purity="2.8062584996223450e-01" nType="-99"/>
                  <Node pos="r" depth="6" NCoef="0" IVar="-1" Cut="0.0000000000000000e+00" cType="1" res="-9.2938980087637901e-03" rms="4.8088467121124268e-01" purity="3.6564874649047852e-01" nType="-99"/>
                </Node>
                <Node pos="r" depth="5" NCoef="0" IVar="-1" Cut="0.0000000000000000e+00" cType="1" res="-2.3561347275972366e-02" rms="4.1087600588798523e-01" purity="2.1677060425281525e-01" nType="-99"/>
              </Node>
            </Node>
            <Node pos="r" depth="3" NCoef="0" IVar="-1" Cut="0.0000000000000000e+00" cType="1" res="-3.3586774021387100e-02" rms="3.1252995133399963e-01" purity="1.1218498647212982e-01" nType="-99"/>
          </Node>
        </Node>
        <Node pos="r" depth="1" NCoef="0" IVar="0" Cut="3.2182702422142029e-01" cType="1" res="1.6513372957706451e-01" rms="4.5412710309028625e-01" purity="6.9303047657012939e-01" nType="0">
          <Node pos="l" depth="2" NCoef="0" IVar="3" Cut="8.6822217702865601e-01" cType="1" res="2.0738673210144043e-01" rms="4.3315982818603516e-01" purity="7.4284040927886963e-01" nType="0">
            <Node pos="l" depth="3" NCoef="0" IVar="5" Cut="-1.5743699073791504e+00" cType="1" res="1.1736883223056793e-01" rms="4.7757673263549805e-01" purity="6.3815641403198242e-01" nType="0">
              <Node pos="l" depth="4" NCoef="0" IVar="1" Cut="6.8247342109680176e-01" cType="1" res="1.4850084483623505e-01" rms="4.6692642569541931e-01" purity="6.7315459251403809e-01" nType="0">
                <Node pos="l" depth="5" NCoef="0" IVar="3" Cut="7.8427964448928833e-01" cType="1" res="1.7461682856082916e-01" rms="4.5541733503341675e-01" purity="7.0406174659729004e-01" nType="0">
                  <Node pos="l" depth="6" NCoef="0" IVar="6" Cut="4.9824800342321396e-02" cType="1" res="1.3223932683467865e-01" rms="4.7473680973052979e-01" purity="6.5473794937133789e-01" nType="0">
                    <Node pos="l" depth="7" NCoef="0" IVar="-1" Cut="0.0000000000000000e+00" cType="1" res="8.5109705105423927e-03" rms="4.8333865404129028e-01" purity="6.2443435192108154e-01" nType="-99"/>
                    <Node pos="r" depth="7" NCoef="0" IVar="-1" Cut="0.0000000000000000e+00" cType="1" res="1.2705045752227306e-02" rms="4.6583935618400574e-01" purity="6.8016600608825684e-01" nType="-99"/>
                  </Node>
                  <Node pos="r" depth="6" NCoef="0" IVar="1" Cut="1.8000020086765289e-01" cType="1" res="2.0345400273799896e-01" rms="4.3945756554603577e-01" purity="7.3762583732604980e-01" nType="0">
                    <Node pos="l" depth="7" NCoef="0" IVar="-1" Cut="0.0000000000000000e+00" cType="1" res="1.6929322853684425e-02" rms="4.2982986569404602e-01" purity="7.5519478321075439e-01" nType="-99"/>
                    <Node pos="r" depth="7" NCoef="0" IVar="-1" Cut="0.0000000000000000e+00" cType="1" res="1.3092980720102787e-02" rms="4.6046730875968933e-01" purity="6.9340741634368896e-01" nType="-99"/>
                  </Node>
                </Node>
                <Node pos="r" depth="5" NCoef="0" IVar="3" Cut="8.0527657270431519e-01" cType="1" res="5.1656033843755722e-02" rms="4.9545598030090332e-01" purity="5.5854272842407227e-01" nType="0">
                  <Node pos="l" depth="6" NCoef="0" IVar="-1" Cut="0.0000000000000000e+00" cType="1" res="5.0013553118333220e-04" rms="4.9953871965408325e-01" purity="5.0729703903198242e-01" nType="-99"/>
                  <Node pos="r" depth="6" NCoef="0" IVar="-1" Cut="0.0000000000000000e+00" cType="1" res="8.2527184858918190e-03" rms="4.8514941334724426e-01" purity="6.1876171827316284e-01" nType="-99"/>
                </Node>
              </Node>
              <Node pos="r" depth="4" NCoef="0" IVar="5" Cut="-6.9402486085891724e-01" cType="1" res="1.9040944054722786e-02" rms="4.9711301922798157e-01" purity="5.2761769294738770e-01" nType="0">
                <Node pos="l" depth="5" NCoef="0" IVar="3" Cut="7.8428244590759277e-01" cType="1" res="6.9240756332874298e-02" rms="4.9180209636688232e-01" purity="5.8274149894714355e-01" nType="0">
                  <Node pos="l" depth="6" NCoef="0" IVar="-1" Cut="0.0000000000000000e+00" cType="1" res="2.9692947864532471e-03" rms="4.9664399027824402e-01" purity="5.4560625553131104e-01" nType="-99"/>
                  <Node pos="r" depth="6" NCoef="0" IVar="-1" Cut="0.0000000000000000e+00" cType="1" res="8.0108344554901123e-03" rms="4.8573747277259827e-01" purity="6.1437028646469116e-01" nType="-99"/>
                </Node>
                <Node pos="r" depth="5" NCoef="0" IVar="-1" Cut="0.0000000000000000e+00" cType="1" res="-6.8371878005564213e-03" rms="4.9321940541267395e-01" purity="4.2328980565071106e-01" nType="-99"/>
              </Node>
            </Node>
            <Node pos="r" depth="3" NCoef="0" IVar="5" Cut="-1.8219672441482544e+00" cType="1" res="2.4832506477832794e-01" rms="4.0480795502662659e-01" purity="7.9044854640960693e-01" nType="0">
              <Node pos="l" depth="4" NCoef="0" IVar="1" Cut="4.6793714165687561e-01" cType="1" res="2.7005943655967712e-01" rms="3.8690581917762756e-01" purity="8.1529194116592407e-01" nType="0">
                <Node pos="l" depth="5" NCoef="0" IVar="5" Cut="-2.7309751510620117e+00" cType="1" res="2.9212337732315063e-01" rms="3.6538612842559814e-01" purity="8.4099715948104858e-01" nType="0">
                  <Node pos="l" depth="6" NCoef="0" IVar="4" Cut="-1.0753340721130371e+00" cType="1" res="3.0711001157760620e-01" rms="3.4941619634628296e-01" purity="8.5742980241775513e-01" nType="0">
                    <Node pos="l" depth="7" NCoef="0" IVar="-1" Cut="0.0000000000000000e+00" cType="1" res="2.1294139325618744e-02" rms="3.7622165679931641e-01" purity="8.2923710346221924e-01" nType="-99"/>
                    <Node pos="r" depth="7" NCoef="0" IVar="-1" Cut="0.0000000000000000e+00" cType="1" res="2.4889085441827774e-02" rms="3.3494830131530762e-01" purity="8.7119442224502563e-01" nType="-99"/>
                  </Node>
                  <Node pos="r" depth="6" NCoef="0" IVar="4" Cut="-1.1587573289871216e+00" cType="1" res="2.7311325073242188e-01" rms="3.8384994864463806e-01" purity="8.2015281915664673e-01" nType="0">
                    <Node pos="l" depth="7" NCoef="0" IVar="-1" Cut="0.0000000000000000e+00" cType="1" res="1.9585991278290749e-02" rms="4.0236669778823853e-01" purity="7.9659765958786011e-01" nType="-99"/>
                    <Node pos="r" depth="7" NCoef="0" IVar="-1" Cut="0.0000000000000000e+00" cType="1" res="2.2177379578351974e-02" rms="3.7376999855041504e-01" purity="8.3196395635604858e-01" nType="-99"/>
                  </Node>
                </Node>
                <Node pos="r" depth="5" NCoef="0" IVar="1" Cut="1.0820472240447998e+00" cType="1" res="2.0567406713962555e-01" rms="4.3746069073677063e-01" purity="7.4028086662292480e-01" nType="0">
                  <Node pos="l" depth="6" NCoef="0" IVar="4" Cut="-7.4409067630767822e-01" cType="1" res="2.3569738864898682e-01" rms="4.1705521941184998e-01" purity="7.7503508329391479e-01" nType="0">
                    <Node pos="l" depth="7" NCoef="0" IVar="-1" Cut="0.0000000000000000e+00" cType="1" res="1.5484415926039219e-02" rms="4.3817290663719177e-01" purity="7.4026286602020264e-01" nType="-99"/>
                    <Node pos="r" depth="7" NCoef="0" IVar="-1" Cut="0.0000000000000000e+00" cType="1" res="2.0355861634016037e-02" rms="3.9748901128768921e-01" purity="8.0302387475967407e-01" nType="-99"/>
                  </Node>
                  <Node pos="r" depth="6" NCoef="0" IVar="3" Cut="9.9396902322769165e-01" cType="1" res="1.6443201899528503e-01" rms="4.6085253357887268e-01" purity="6.9254028797149658e-01" nType="0">
                    <Node pos="l" depth="7" NCoef="0" IVar="-1" Cut="0.0000000000000000e+00" cType="1" res="8.7274033576250076e-03" rms="4.8269337415695190e-01" purity="6.2970834970474243e-01" nType="-99"/>
                    <Node pos="r" depth="7" NCoef="0" IVar="-1" Cut="0.0000000000000000e+00" cType="1" res="1.4625987969338894e-02" rms="4.4487586617469788e-01" purity="7.2738653421401978e-01" nType="-99"/>
                  </Node>
                </Node>
              </Node>
              <Node pos="r" depth="4" NCoef="0" IVar="1" Cut="4.4695872068405151e-01" cType="1" res="1.5055800974369049e-01" rms="4.6469545364379883e-01" purity="6.7869639396667480e-01" nType="0">
                <Node pos="l" depth="5" NCoef="0" IVar="5" Cut="-8.4369158744812012e-01" cType="1" res="1.8698434531688690e-01" rms="4.4840905070304871e-01" purity="7.1800065040588379e-01" nType="0">
                  <Node pos="l" depth="6" NCoef="0" IVar="5" Cut="-1.4116607904434204e+00" cType="1" res="2.1586768329143524e-01" rms="4.3110796809196472e-01" purity="7.5256454944610596e-01" nType="0">
                    <Node pos="l" depth="7" NCoef="0" IVar="-1" Cut="0.0000000000000000e+00" cType="1" res="1.8848463892936707e-02" rms="4.1647779941558838e-01" purity="7.7639484405517578e-01" nType="-99"/>
                    <Node pos="r" depth="7" NCoef="0" IVar="-1" Cut="0.0000000000000000e+00" cType="1" res="1.5189145691692829e-02" rms="4.4960567355155945e-01" purity="7.1848142147064209e-01" nType="-99"/>
                  </Node>
                  <Node pos="r" depth="6" NCoef="0" IVar="-1" Cut="0.0000000000000000e+00" cType="1" res="9.1990120708942413e-03" rms="4.8366805911064148e-01" purity="6.2428057193756104e-01" nType="-99"/>
                </Node>
                <Node pos="r" depth="5" NCoef="0" IVar="-1" Cut="0.0000000000000000e+00" cType="1" res="4.6245208941400051e-03" rms="4.9221214652061462e-01" purity="5.7599878311157227e-01" nType="-99"/>
              </Node>
            </Node>
          </Node>
          <Node pos="r" depth="2" NCoef="0" IVar="0" Cut="9.4471895694732666e-01" cType="1" res="-1.1204384267330170e-02" rms="4.9530518054962158e-01" purity="4.8515462875366211e-01" nType="0">
            <Node pos="l" depth="3" NCoef="0" IVar="5" Cut="-1.3116797208786011e+00" cType="1" res="2.4933755397796631e-02" rms="4.9582630395889282e-01" purity="5.2708065509796143e-01" nType="0">
              <Node pos="l" depth="4" NCoef="0" IVar="1" Cut="7.8237158060073853e-01" cType="1" res="5.6418605148792267e-02" rms="4.9345484375953674e-01" purity="5.6341671943664551e-01" nType="0">
                <Node pos="l" depth="5" NCoef="0" IVar="3" Cut="8.1276017427444458e-01" cType="1" res="9.0281821787357330e-02" rms="4.8799705505371094e-01" purity="6.0264331102371216e-01" nType="0">
                  <Node pos="l" depth="6" NCoef="0" IVar="6" Cut="6.3035503029823303e-02" cType="1" res="5.5883463472127914e-02" rms="4.9525818228721619e-01" purity="5.6338804960250854e-01" nType="0">
                    <Node pos="l" depth="7" NCoef="0" IVar="-1" Cut="0.0000000000000000e+00" cType="1" res="8.2997727440670133e-04" rms="4.9919357895851135e-01" purity="5.1460796594619751e-01" nType="-99"/>
                    <Node pos="r" depth="7" NCoef="0" IVar="-1" Cut="0.0000000000000000e+00" cType="1" res="7.4450871907174587e-03" rms="4.8879507184028625e-01" purity="6.0328352451324463e-01" nType="-99"/>
                  </Node>
                  <Node pos="r" depth="6" NCoef="0" IVar="-1" Cut="0.0000000000000000e+00" cType="1" res="1.1338433250784874e-02" rms="4.7088730335235596e-01" purity="6.6564846038818359e-01" nType="-99"/>
                </Node>
                <Node pos="r" depth="5" NCoef="0" IVar="-1" Cut="0.0000000000000000e+00" cType="1" res="-3.4349709749221802e-03" rms="4.9619030952453613e-01" purity="4.5201665163040161e-01" nType="-99"/>
              </Node>
              <Node pos="r" depth="4" NCoef="0" IVar="4" Cut="2.4503555893898010e-01" cType="1" res="-8.2551069557666779e-02" rms="4.8879000544548035e-01" purity="4.0303471684455872e-01" nType="0">
                <Node pos="l" depth="5" NCoef="0" IVar="-1" Cut="0.0000000000000000e+00" cType="1" res="-8.6170714348554611e-04" rms="4.9830660223960876e-01" purity="4.7822174429893494e-01" nType="-99"/>
                <Node pos="r" depth="5" NCoef="0" IVar="-1" Cut="0.0000000000000000e+00" cType="1" res="-1.3749459758400917e-02" rms="4.6983364224433899e-01" purity="3.3316120505332947e-01" nType="-99"/>
              </Node>
            </Node>
            <Node pos="r" depth="3" NCoef="0" IVar="5" Cut="-2.1259143352508545e+00" cType="1" res="-1.2643851339817047e-01" rms="4.7564375400543213e-01" purity="3.5146439075469971e-01" nType="0">
              <Node pos="l" depth="4" NCoef="0" IVar="-1" Cut="0.0000000000000000e+00" cType="1" res="-6.4055239781737328e-03" rms="4.9151396751403809e-01" purity="4.1257691383361816e-01" nType="-99"/>
              <Node pos="r" depth="4" NCoef="0" IVar="-1" Cut="0.0000000000000000e+00" cType="1" res="-1.7937017604708672e-02" rms="4.5173037052154541e-01" purity="2.8909131884574890e-01" nType="-99"/>
            </Node>
          </Node>
        </Node>
      </Node>
    </BinaryTree>
    <BinaryTree type="DecisionTree" boostWeight="1.0000000000000000e+00" itree="5">
      <Node pos="s" depth="0" NCoef="0" IVar="3" Cut="6.5238207578659058e-01" cType="1" res="7.5132031925022602e-03" rms="4.6600714325904846e-01" purity="4.9919968843460083e-01" nType="0">
        <Node pos="l" depth="1" NCoef="0" IVar="3" Cut="4.8717558383941650e-01" cType="1" res="-2.4706941843032837e-01" rms="3.6634540557861328e-01" purity="1.7310473322868347e-01" nType="0">
          <Node pos="l" depth="2" NCoef="0" IVar="4" Cut="8.3880376815795898e-01" cType="1" res="-3.0115792155265808e-01" rms="2.9346904158592224e-01" purity="9.8881386220455170e-02" nType="0">
            <Node pos="l" depth="3" NCoef="0" IVar="6" Cut="1.4116869866847992e-01" cType="1" res="-2.8041014075279236e-01" rms="3.2687246799468994e-01" purity="1.2574689090251923e-01" nType="0">
              <Node pos="l" depth="4" NCoef="0" IVar="0" Cut="1.2897487878799438e+00" cType="1" res="-3.0687642097473145e-01" rms="2.8492644429206848e-01" purity="9.1081522405147552e-02" nType="0">
                <Node pos="l" depth="5" NCoef="0" IVar="1" Cut="2.5129324197769165e-01" cType="1" res="-2.6091670989990234e-01" rms="3.6252707242965698e-01" purity="1.5702496469020844e-01" nType="0">
                  <Node pos="l" depth="6" NCoef="0" IVar="-1" Cut="0.0000000000000000e+00" cType="1" res="-2.3003892973065376e-02" rms="3.9673396944999695e-01" purity="1.9725872576236725e-01" nType="-99"/>
                  <Node pos="r" depth="6" NCoef="0" IVar="6" Cut="7.7975451946258545e-02" cType="1" res="-2.8129419684410095e-01" rms="3.4157180786132812e-01" purity="1.3604520261287689e-01" nType="0">
                    <Node pos="l" depth="7" NCoef="0" IVar="-1" Cut="0.0000000000000000e+00" cType="1" res="-3.3788021653890610e-02" rms="3.0876949429512024e-01" purity="1.0702963173389435e-01" nType="-99"/>
                    <Node pos="r" depth="7" NCoef="0" IVar="-1" Cut="0.0000000000000000e+00" cType="1" res="-2.7889348566532135e-02" rms="3.6896389722824097e-01" purity="1.6391222178936005e-01" nType="-99"/>
                  </Node>
                </Node>
                <Node pos="r" depth="5" NCoef="0" IVar="3" Cut="3.6575776338577271e-01" cType="1" res="-3.2753199338912964e-01" rms="2.3922082781791687e-01" purity="6.1444710940122604e-02" nType="0">
                  <Node pos="l" depth="6" NCoef="0" IVar="2" Cut="1.0603248596191406e+02" cType="1" res="-3.3657655119895935e-01" rms="2.1186965703964233e-01" purity="4.7184690833091736e-02" nType="0">
                    <Node pos="l" depth="7" NCoef="0" IVar="-1" Cut="0.0000000000000000e+00" cType="1" res="-4.0787667036056519e-02" rms="2.4547502398490906e-01" purity="6.4510621130466461e-02" nType="-99"/>
                    <Node pos="r" depth="7" NCoef="0" IVar="-1" Cut="0.0000000000000000e+00" cType="1" res="-4.2543433606624603e-02" rms="1.9617690145969391e-01" purity="4.0163949131965637e-02" nType="-99"/>
                  </Node>
                  <Node pos="r" depth="6" NCoef="0" IVar="-1" Cut="0.0000000000000000e+00" cType="1" res="-3.4783903509378433e-02" rms="2.9721099138259888e-01" purity="9.8273739218711853e-02" nType="-99"/>
                </Node>
              </Node>
              <Node pos="r" depth="4" NCoef="0" IVar="3" Cut="3.8044148683547974e-01" cType="1" res="-2.3226881027221680e-01" rms="3.8721212744712830e-01" purity="1.8880209326744080e-01" nType="0">
                <Node pos="l" depth="5" NCoef="0" IVar="7" Cut="5.0000000000000000e+00" cType="1" res="-2.5129482150077820e-01" rms="3.5894307494163513e-01" purity="1.5818561613559723e-01" nType="0">
                  <Node pos="l" depth="6" NCoef="0" IVar="-1" Cut="0.0000000000000000e+00" cType="1" res="-2.1272661164402962e-02" rms="4.1532909870147705e-01" purity="2.2583657503128052e-01" nType="-99"/>
                  <Node pos="r" depth="6" NCoef="0" IVar="6" Cut="2.2382463514804840e-01" cType="1" res="-2.7973142266273499e-01" rms="3.3597245812416077e-01" purity="1.3204576075077057e-01" nType="0">
                    <Node pos="l" depth="7" NCoef="0" IVar="-1" Cut="0.0000000000000000e+00" cType="1" res="-3.6448944360017776e-02" rms="2.9956239461898804e-01" purity="1.0144566744565964e-01" nType="-99"/>
                    <Node pos="r" depth="7" NCoef="0" IVar="-1" Cut="0.0000000000000000e+00" cType="1" res="-2.6859149336814880e-02" rms="3.8108423352241516e-01" purity="1.7771504819393158e-01" nType="-99"/>
                  </Node>
                </Node>
                <Node pos="r" depth="5" NCoef="0" IVar="-1" Cut="0.0000000000000000e+00" cType="1" res="-1.5787569805979729e-02" rms="4.4674944877624512e-01" purity="2.7995839715003967e-01" nType="-99"/>
              </Node>
            </Node>
            <Node pos="r" depth="3" NCoef="0" IVar="4" Cut="1.8561167716979980e+00" cType="1" res="-3.4330695867538452e-01" rms="2.0341427624225616e-01" purity="4.4304229319095612e-02" nType="0">
              <Node pos="l" depth="4" NCoef="0" IVar="6" Cut="1.1526817083358765e-01" cType="1" res="-3.1799638271331787e-01" rms="2.6433706283569336e-01" purity="7.7201575040817261e-02" nType="0">
                <Node pos="l" depth="5" NCoef="0" IVar="-1" Cut="0.0000000000000000e+00" cType="1" res="-4.0676414966583252e-02" rms="2.1194799244403839e-01" purity="4.8024155199527740e-02" nType="-99"/>
                <Node pos="r" depth="5" NCoef="0" IVar="-1" Cut="0.0000000000000000e+00" cType="1" res="-3.3746659755706787e-02" rms="3.1002953648567200e-01" purity="1.0955270379781723e-01" nType="-99"/>
              </Node>
              <Node pos="r" depth="4" NCoef="0" IVar="6" Cut="1.9344446063041687e-01" cType="1" res="-3.5567513108253479e-01" rms="1.6427497565746307e-01" purity="2.8228754177689552e-02" nType="0">
                <Node pos="l" depth="5" NCoef="0" IVar="6" Cut="1.4410391449928284e-01" cType="1" res="-3.6283689737319946e-01" rms="1.2984152138233185e-01" purity="1.7283486202359200e-02" nType="0">
                  <Node pos="l" depth="6" NCoef="0" IVar="2" Cut="1.3812744140625000e+02" cType="1" res="-3.6653646826744080e-01" rms="1.1150771379470825e-01" purity="1.2599026784300804e-02" nType="0">
                    <Node pos="l" depth="7" NCoef="0" IVar="-1" Cut="0.0000000000000000e+00" cType="1" res="-4.5411180704832077e-02" rms="1.2884196639060974e-01" purity="1.6919789835810661e-02" nType="-99"/>
                    <Node pos="r" depth="7" NCoef="0" IVar="-1" Cut="0.0000000000000000e+00" cType="1" res="-4.3247707188129425e-02" rms="1.0026135295629501e-01" purity="1.0156733915209770e-02" nType="-99"/>
                  </Node>
                  <Node pos="r" depth="6" NCoef="0" IVar="-1" Cut="0.0000000000000000e+00" cType="1" res="-4.2451143264770508e-02" rms="1.7627060413360596e-01" purity="3.2530512660741806e-02" nType="-99"/>
                </Node>
                <Node pos="r" depth="5" NCoef="0" IVar="-1" Cut="0.0000000000000000e+00" cType="1" res="-3.9007775485515594e-02" rms="2.5598716735839844e-01" purity="7.0945039391517639e-02" nType="-99"/>
              </Node>
            </Node>
          </Node>
          <Node pos="r" depth="2" NCoef="0" IVar="5" Cut="-9.6265369653701782e-01" cType="1" res="-1.4668682217597961e-01" rms="4.5600789785385132e-01" purity="3.1085547804832458e-01" nType="0">
            <Node pos="l" depth="3" NCoef="0" IVar="0" Cut="6.4186453819274902e-01" cType="1" res="-1.1431140452623367e-01" rms="4.7217807173728943e-01" purity="3.4986656904220581e-01" nType="0">
              <Node pos="l" depth="4" NCoef="0" IVar="1" Cut="7.6651656627655029e-01" cType="1" res="-6.0235366225242615e-02" rms="4.9094614386558533e-01" purity="4.2075833678245544e-01" nType="0">
                <Node pos="l" depth="5" NCoef="0" IVar="0" Cut="3.3126050233840942e-01" cType="1" res="-2.8371809050440788e-02" rms="4.9677705764770508e-01" purity="4.5934286713600159e-01" nType="0">
                  <Node pos="l" depth="6" NCoef="0" IVar="-1" Cut="0.0000000000000000e+00" cType="1" res="2.9781172052025795e-03" rms="4.9813735485076904e-01" purity="5.3411823511123657e-01" nType="-99"/>
                  <Node pos="r" depth="6" NCoef="0" IVar="6" Cut="8.1225335597991943e-02" cType="1" res="-5.4678544402122498e-02" rms="4.9381402134895325e-01" purity="4.2869326472282410e-01" nType="0">
                    <Node pos="l" depth="7" NCoef="0" IVar="-1" Cut="0.0000000000000000e+00" cType="1" res="-7.9468777403235435e-03" rms="4.8712560534477234e-01" purity="3.9132231473922729e-01" nType="-99"/>
                    <Node pos="r" depth="7" NCoef="0" IVar="-1" Cut="0.0000000000000000e+00" cType="1" res="-1.6720766434445977e-03" rms="4.9836197495460510e-01" purity="4.6842476725578308e-01" nType="-99"/>
                  </Node>
                </Node>
                <Node pos="r" depth="5" NCoef="0" IVar="-1" Cut="0.0000000000000000e+00" cType="1" res="-1.4355098828673363e-02" rms="4.6144324541091919e-01" purity="3.0912768840789795e-01" nType="-99"/>
              </Node>
              <Node pos="r" depth="4" NCoef="0" IVar="6" Cut="9.2201620340347290e-02" cType="1" res="-1.7058192193508148e-01" rms="4.4489705562591553e-01" purity="2.7609789371490479e-01" nType="0">
                <Node pos="l" depth="5" NCoef="0" IVar="3" Cut="5.5646061897277832e-01" cType="1" res="-2.0798656344413757e-01" rms="4.2046657204627991e-01" purity="2.3183628916740417e-01" nType="0">
                  <Node pos="l" depth="6" NCoef="0" IVar="-1" Cut="0.0000000000000000e+00" cType="1" res="-2.5179039686918259e-02" rms="3.9277753233909607e-01" purity="1.9150397181510925e-01" nType="-99"/>
                  <Node pos="r" depth="6" NCoef="0" IVar="-1" Cut="0.0000000000000000e+00" cType="1" res="-1.5940438956022263e-02" rms="4.4836750626564026e-01" purity="2.8183582425117493e-01" nType="-99"/>
                </Node>
                <Node pos="r" depth="5" NCoef="0" IVar="2" Cut="3.1620645141601562e+02" cType="1" res="-1.2043116986751556e-01" rms="4.7104966640472412e-01" purity="3.3544221520423889e-01" nType="0">
                  <Node pos="l" depth="6" NCoef="0" IVar="-1" Cut="0.0000000000000000e+00" cType="1" res="-8.1569710746407509e-03" rms="4.8035502433776855e-01" purity="3.6538654565811157e-01" nType="-99"/>
                  <Node pos="r" depth="6" NCoef="0" IVar="-1" Cut="0.0000000000000000e+00" cType="1" res="-1.5025558881461620e-02" rms="4.5826935768127441e-01" purity="3.0253103375434875e-01" nType="-99"/>
                </Node>
              </Node>
            </Node>
            <Node pos="r" depth="3" NCoef="0" IVar="4" Cut="1.1785665750503540e+00" cType="1" res="-2.6255282759666443e-01" rms="3.7020623683929443e-01" purity="1.7124152183532715e-01" nType="0">
              <Node pos="l" depth="4" NCoef="0" IVar="-1" Cut="0.0000000000000000e+00" cType="1" res="-1.9475899636745453e-02" rms="4.3110617995262146e-01" purity="2.5301060080528259e-01" nType="-99"/>
              <Node pos="r" depth="4" NCoef="0" IVar="-1" Cut="0.0000000000000000e+00" cType="1" res="-3.3334016799926758e-02" rms="2.9962080717086792e-01" purity="1.0248810052871704e-01" nType="-99"/>
            </Node>
          </Node>
        </Node>
        <Node pos="r" depth="1" NCoef="0" IVar="0" Cut="3.2204878330230713e-01" cType="1" res="1.5856605768203735e-01" rms="4.5289030671119690e-01" purity="6.9268333911895752e-01" nType="0">
          <Node pos="l" depth="2" NCoef="0" IVar="3" Cut="8.6910390853881836e-01" cType="1" res="1.9839680194854736e-01" rms="4.3293610215187073e-01" purity="7.4181228876113892e-01" nType="0">
            <Node pos="l" depth="3" NCoef="0" IVar="1" Cut="5.9289205074310303e-01" cType="1" res="1.1591438949108124e-01" rms="4.7593781352043152e-01" purity="6.4160954952239990e-01" nType="0">
              <Node pos="l" depth="4" NCoef="0" IVar="5" Cut="-1.8193925619125366e+00" cType="1" res="1.4607827365398407e-01" rms="4.6495410799980164e-01" purity="6.7726147174835205e-01" nType="0">
                <Node pos="l" depth="5" NCoef="0" IVar="3" Cut="7.7825629711151123e-01" cType="1" res="1.7709897458553314e-01" rms="4.5057776570320129e-01" purity="7.1438270807266235e-01" nType="0">
                  <Node pos="l" depth="6" NCoef="0" IVar="6" Cut="4.2636491358280182e-02" cType="1" res="1.2807986140251160e-01" rms="4.7437909245491028e-01" purity="6.5605187416076660e-01" nType="0">
                    <Node pos="l" depth="7" NCoef="0" IVar="-1" Cut="0.0000000000000000e+00" cType="1" res="7.4134073220193386e-03" rms="4.8587760329246521e-01" purity="6.1459815502166748e-01" nType="-99"/>
                    <Node pos="r" depth="7" NCoef="0" IVar="-1" Cut="0.0000000000000000e+00" cType="1" res="1.2304046191275120e-02" rms="4.6592274308204651e-01" purity="6.8017673492431641e-01" nType="-99"/>
                  </Node>
                  <Node pos="r" depth="6" NCoef="0" IVar="1" Cut="-4.1998576372861862e-02" cType="1" res="2.0544125139713287e-01" rms="4.3370357155799866e-01" purity="7.4810892343521118e-01" nType="0">
                    <Node pos="l" depth="7" NCoef="0" IVar="-1" Cut="0.0000000000000000e+00" cType="1" res="1.7264727503061295e-02" rms="4.2120635509490967e-01" purity="7.6913279294967651e-01" nType="-99"/>
                    <Node pos="r" depth="7" NCoef="0" IVar="-1" Cut="0.0000000000000000e+00" cType="1" res="1.4703078195452690e-02" rms="4.4560945034027100e-01" purity="7.2599333524703979e-01" nType="-99"/>
                  </Node>
                </Node>
                <Node pos="r" depth="5" NCoef="0" IVar="5" Cut="-7.7043646574020386e-01" cType="1" res="7.4634723365306854e-02" rms="4.8905548453330994e-01" purity="5.9176784753799438e-01" nType="0">
                  <Node pos="l" depth="6" NCoef="0" IVar="3" Cut="7.8522562980651855e-01" cType="1" res="1.1013506352901459e-01" rms="4.8051318526268005e-01" purity="6.3502621650695801e-01" nType="0">
                    <Node pos="l" depth="7" NCoef="0" IVar="-1" Cut="0.0000000000000000e+00" cType="1" res="6.7408429458737373e-03" rms="4.8909774422645569e-01" purity="6.0052543878555298e-01" nType="-99"/>
                    <Node pos="r" depth="7" NCoef="0" IVar="-1" Cut="0.0000000000000000e+00" cType="1" res="1.0873686522245407e-02" rms="4.7213760018348694e-01" purity="6.6276520490646362e-01" nType="-99"/>
                  </Node>
                  <Node pos="r" depth="6" NCoef="0" IVar="-1" Cut="0.0000000000000000e+00" cType="1" res="-1.0024853982031345e-03" rms="4.9879196286201477e-01" purity="4.8682343959808350e-01" nType="-99"/>
                </Node>
              </Node>
              <Node pos="r" depth="4" NCoef="0" IVar="5" Cut="-1.6164273023605347e+00" cType="1" res="2.2328851744532585e-02" rms="4.9698999524116516e-01" purity="5.3099703788757324e-01" nType="0">
                <Node pos="l" depth="5" NCoef="0" IVar="3" Cut="8.1318336725234985e-01" cType="1" res="5.7887505739927292e-02" rms="4.9366661906242371e-01" purity="5.6860369443893433e-01" nType="0">
                  <Node pos="l" depth="6" NCoef="0" IVar="-1" Cut="0.0000000000000000e+00" cType="1" res="1.0564106050878763e-03" rms="4.9892723560333252e-01" purity="5.1676619052886963e-01" nType="-99"/>
                  <Node pos="r" depth="6" NCoef="0" IVar="-1" Cut="0.0000000000000000e+00" cType="1" res="9.1261183843016624e-03" rms="4.8016715049743652e-01" purity="6.3680374622344971e-01" nType="-99"/>
                </Node>
                <Node pos="r" depth="5" NCoef="0" IVar="-1" Cut="0.0000000000000000e+00" cType="1" res="-6.6125239245593548e-03" rms="4.9284800887107849e-01" purity="4.2671006917953491e-01" nType="-99"/>
              </Node>
            </Node>
            <Node pos="r" depth="3" NCoef="0" IVar="5" Cut="-2.0338079929351807e+00" cType="1" res="2.3690246045589447e-01" rms="4.0562245249748230e-01" purity="7.8859043121337891e-01" nType="0">
              <Node pos="l" depth="4" NCoef="0" IVar="1" Cut="9.1024720668792725e-01" cType="1" res="2.6193532347679138e-01" rms="3.8443937897682190e-01" purity="8.1806409358978271e-01" nType="0">
                <Node pos="l" depth="5" NCoef="0" IVar="1" Cut="4.4649863243103027e-01" cType="1" res="2.7563431859016418e-01" rms="3.7089455127716064e-01" purity="8.3470392227172852e-01" nType="0">
                  <Node pos="l" depth="6" NCoef="0" IVar="4" Cut="-1.1635710000991821e+00" cType="1" res="2.8424417972564697e-01" rms="3.6175861954689026e-01" purity="8.4485346078872681e-01" nType="0">
                    <Node pos="l" depth="7" NCoef="0" IVar="-1" Cut="0.0000000000000000e+00" cType="1" res="2.0001450553536415e-02" rms="3.8719633221626282e-01" purity="8.1625574827194214e-01" nType="-99"/>
                    <Node pos="r" depth="7" NCoef="0" IVar="-1" Cut="0.0000000000000000e+00" cType="1" res="2.3133121430873871e-02" rms="3.4877401590347290e-01" purity="8.5814017057418823e-01" nType="-99"/>
                  </Node>
                  <Node pos="r" depth="6" NCoef="0" IVar="4" Cut="-8.7631261348724365e-01" cType="1" res="2.2585210204124451e-01" rms="4.1636207699775696e-01" purity="7.7601909637451172e-01" nType="0">
                    <Node pos="l" depth="7" NCoef="0" IVar="-1" Cut="0.0000000000000000e+00" cType="1" res="1.4444167725741863e-02" rms="4.4167792797088623e-01" purity="7.3382383584976196e-01" nType="-99"/>
                    <Node pos="r" depth="7" NCoef="0" IVar="-1" Cut="0.0000000000000000e+00" cType="1" res="1.9631203263998032e-02" rms="3.9744320511817932e-01" purity="8.0315697193145752e-01" nType="-99"/>
                  </Node>
                </Node>
                <Node pos="r" depth="5" NCoef="0" IVar="4" Cut="-8.0116045475006104e-01" cType="1" res="1.7361029982566833e-01" rms="4.5248922705650330e-01" purity="7.1077805757522583e-01" nType="0">
                  <Node pos="l" depth="6" NCoef="0" IVar="-1" Cut="0.0000000000000000e+00" cType="1" res="9.5447292551398277e-03" rms="4.7429332137107849e-01" purity="6.5723800659179688e-01" nType="-99"/>
                  <Node pos="r" depth="6" NCoef="0" IVar="-1" Cut="0.0000000000000000e+00" cType="1" res="1.6411654651165009e-02" rms="4.3243470788002014e-01" purity="7.5010681152343750e-01" nType="-99"/>
                </Node>
              </Node>
              <Node pos="r" depth="4" NCoef="0" IVar="1" Cut="7.9699051380157471e-01" cType="1" res="1.5823374688625336e-01" rms="4.5712822675704956e-01" purity="6.9596576690673828e-01" nType="0">
                <Node pos="l" depth="5" NCoef="0" IVar="5" Cut="-1.0647820234298706e+00" cType="1" res="1.8350024521350861e-01" rms="4.4466140866279602e-01" purity="7.2479122877120972e-01" nType="0">
                  <Node pos="l" depth="6" NCoef="0" IVar="1" Cut="7.1734085679054260e-02" cType="1" res="2.1400126814842224e-01" rms="4.2549630999565125e-01" purity="7.6164305210113525e-01" nType="0">
                    <Node pos="l" depth="7" NCoef="0" IVar="-1" Cut="0.0000000000000000e+00" cType="1" res="1.8647870048880577e-02" rms="4.0998432040214539e-01" purity="7.8570145368576050e-01" nType="-99"/>
                    <Node pos="r" depth="7" NCoef="0" IVar="-1" Cut="0.0000000000000000e+00" cType="1" res="1.4609497971832752e-02" rms="4.4605681300163269e-01" purity="7.2502326965332031e-01" nType="-99"/>
                  </Node>
                  <Node pos="r" depth="6" NCoef="0" IVar="-1" Cut="0.0000000000000000e+00" cType="1" res="8.5254805162549019e-03" rms="4.8332300782203674e-01" purity="6.2479519844055176e-01" nType="-99"/>
                </Node>
                <Node pos="r" depth="5" NCoef="0" IVar="-1" Cut="0.0000000000000000e+00" cType="1" res="2.5959257036447525e-03" rms="4.9610352516174316e-01" purity="5.5120676755905151e-01" nType="-99"/>
              </Node>
            </Node>
          </Node>
          <Node pos="r" depth="2" NCoef="0" IVar="1" Cut="7.8163707256317139e-01" cType="1" res="-7.5028254650533199e-03" rms="4.9458426237106323e-01" purity="4.8784688115119934e-01" nType="0">
            <Node pos="l" depth="3" NCoef="0" IVar="5" Cut="-8.6717200279235840e-01" cType="1" res="3.6793939769268036e-02" rms="4.9432566761970520e-01" purity="5.4061537981033325e-01" nType="0">
              <Node pos="l" depth="4" NCoef="0" IVar="0" Cut="6.3075268268585205e-01" cType="1" res="6.1355955898761749e-02" rms="4.9234503507614136e-01" purity="5.7010143995285034e-01" nType="0">
                <Node pos="l" depth="5" NCoef="0" IVar="3" Cut="7.3547750711441040e-01" cType="1" res="9.3458957970142365e-02" rms="4.8621261119842529e-01" purity="6.0838788747787476e-01" nType="0">
                  <Node pos="l" depth="6" NCoef="0" IVar="3" Cut="6.9258713722229004e-01" cType="1" res="3.3690612763166428e-02" rms="4.9736237525939941e-01" purity="5.4007899761199951e-01" nType="0">
                    <Node pos="l" depth="7" NCoef="0" IVar="-1" Cut="0.0000000000000000e+00" cType="1" res="-4.0941551560536027e-05" rms="4.9876031279563904e-01" purity="5.0593161582946777e-01" nType="-99"/>
                    <Node pos="r" depth="7" NCoef="0" IVar="-1" Cut="0.0000000000000000e+00" cType="1" res="5.6968550197780132e-03" rms="4.9336218833923340e-01" purity="5.7585018873214722e-01" nType="-99"/>
                  </Node>
                  <Node pos="r" depth="6" NCoef="0" IVar="5" Cut="-2.3667392730712891e+00" cType="1" res="1.4444027841091156e-01" rms="4.7053393721580505e-01" purity="6.6665422916412354e-01" nType="0">
                    <Node pos="l" depth="7" NCoef="0" IVar="-1" Cut="0.0000000000000000e+00" cType="1" res="1.3268094509840012e-02" rms="4.5899254083633423e-01" purity="6.9624131917953491e-01" nType="-99"/>
                    <Node pos="r" depth="7" NCoef="0" IVar="-1" Cut="0.0000000000000000e+00" cType="1" res="9.0445987880229950e-03" rms="4.8145073652267456e-01" purity="6.3317906856536865e-01" nType="-99"/>
                  </Node>
                </Node>
                <Node pos="r" depth="5" NCoef="0" IVar="2" Cut="5.4045166015625000e+01" cType="1" res="-5.9094564057886600e-03" rms="4.9829038977622986e-01" purity="4.8987984657287598e-01" nType="0">
                  <Node pos="l" depth="6" NCoef="0" IVar="-1" Cut="0.0000000000000000e+00" cType="1" res="3.6679559852927923e-03" rms="4.9675253033638000e-01" purity="5.4175764322280884e-01" nType="-99"/>
                  <Node pos="r" depth="6" NCoef="0" IVar="-1" Cut="0.0000000000000000e+00" cType="1" res="-5.3970105946063995e-03" rms="4.9431389570236206e-01" purity="4.3455687165260315e-01" nType="-99"/>
                </Node>
              </Node>
              <Node pos="r" depth="4" NCoef="0" IVar="-1" Cut="0.0000000000000000e+00" cType="1" res="-9.2052584514021873e-03" rms="4.8246291279792786e-01" purity="3.7422642111778259e-01" nType="-99"/>
            </Node>
            <Node pos="r" depth="3" NCoef="0" IVar="6" Cut="1.2857256457209587e-02" cType="1" res="-9.6678256988525391e-02" rms="4.8293474316596985e-01" purity="3.8161665201187134e-01" nType="0">
              <Node pos="l" depth="4" NCoef="0" IVar="-1" Cut="0.0000000000000000e+00" cType="1" res="-3.0568488873541355e-03" rms="4.9493181705474854e-01" purity="4.4814041256904602e-01" nType="-99"/>
              <Node pos="r" depth="4" NCoef="0" IVar="1" Cut="1.6688973903656006e+00" cType="1" res="-1.2832792103290558e-01" rms="4.7355705499649048e-01" purity="3.4751471877098083e-01" nType="0">
                <Node pos="l" depth="5" NCoef="0" IVar="-1" Cut="0.0000000000000000e+00" cType="1" res="-8.5601406171917915e-03" rms="4.8409545421600342e-01" purity="3.8445806503295898e-01" nType="-99"/>
                <Node pos="r" depth="5" NCoef="0" IVar="-1" Cut="0.0000000000000000e+00" cType="1" res="-1.6156569123268127e-02" rms="4.5700949430465698e-01" purity="3.0220967531204224e-01" nType="-99"/>
              </Node>
            </Node>
          </Node>
        </Node>
      </Node>
    </BinaryTree>
    <BinaryTree type="DecisionTree" boostWeight="1.0000000000000000e+00" itree="6">
      <Node pos="s" depth="0" NCoef="0" IVar="3" Cut="6.5137040615081787e-01" cType="1" res="1.0142980143427849e-02" rms="4.6049895882606506e-01" purity="5.0075715780258179e-01" nType="0">
        <Node pos="l" depth="1" NCoef="0" IVar="3" Cut="5.0680088996887207e-01" cType="1" res="-2.3397110402584076e-01" rms="3.6427024006843567e-01" purity="1.7260451614856720e-01" nType="0">
          <Node pos="l" depth="2" NCoef="0" IVar="4" Cut="1.7312856912612915e+00" cType="1" res="-2.8040939569473267e-01" rms="3.0073919892311096e-01" purity="1.0527793318033218e-01" nType="0">
            <Node pos="l" depth="3" NCoef="0" IVar="0" Cut="9.6759390830993652e-01" cType="1" res="-2.6465290784835815e-01" rms="3.2751765847206116e-01" purity="1.2710784375667572e-01" nType="0">
              <Node pos="l" depth="4" NCoef="0" IVar="6" Cut="1.1447378993034363e-01" cType="1" res="-1.9354979693889618e-01" rms="4.1812261939048767e-01" purity="2.3143455386161804e-01" nType="0">
                <Node pos="l" depth="5" NCoef="0" IVar="-1" Cut="0.0000000000000000e+00" cType="1" res="-2.5676703080534935e-02" rms="3.7627005577087402e-01" purity="1.7248201370239258e-01" nType="-99"/>
                <Node pos="r" depth="5" NCoef="0" IVar="-1" Cut="0.0000000000000000e+00" cType="1" res="-1.4819662086665630e-02" rms="4.4820284843444824e-01" purity="2.8475898504257202e-01" nType="-99"/>
              </Node>
              <Node pos="r" depth="4" NCoef="0" IVar="6" Cut="1.5313786268234253e-01" cType="1" res="-2.7995717525482178e-01" rms="3.0233100056648254e-01" purity="1.0465250164270401e-01" nType="0">
                <Node pos="l" depth="5" NCoef="0" IVar="3" Cut="4.1223132610321045e-01" cType="1" res="-2.9442393779754639e-01" rms="2.7426272630691528e-01" purity="8.3743952214717865e-02" nType="0">
                  <Node pos="l" depth="6" NCoef="0" IVar="3" Cut="3.3598518371582031e-01" cType="1" res="-3.0918502807617188e-01" rms="2.3839095234870911e-01" purity="6.1053246259689331e-02" nType="0">
                    <Node pos="l" depth="7" NCoef="0" IVar="-1" Cut="0.0000000000000000e+00" cType="1" res="-4.1261930018663406e-02" rms="2.0578406751155853e-01" purity="4.4367052614688873e-02" nType="-99"/>
                    <Node pos="r" depth="7" NCoef="0" IVar="-1" Cut="0.0000000000000000e+00" cType="1" res="-3.4249514341354370e-02" rms="2.8391766548156738e-01" purity="8.9048333466053009e-02" nType="-99"/>
                  </Node>
                  <Node pos="r" depth="6" NCoef="0" IVar="6" Cut="9.8905660212039948e-02" cType="1" res="-2.5395473837852478e-01" rms="3.5128700733184814e-01" purity="1.4595302939414978e-01" nType="0">
                    <Node pos="l" depth="7" NCoef="0" IVar="-1" Cut="0.0000000000000000e+00" cType="1" res="-2.9921106994152069e-02" rms="3.2813501358032227e-01" purity="1.2341805547475815e-01" nType="-99"/>
                    <Node pos="r" depth="7" NCoef="0" IVar="-1" Cut="0.0000000000000000e+00" cType="1" res="-2.3977536708116531e-02" rms="3.8830912113189697e-01" purity="1.8721616268157959e-01" nType="-99"/>
                  </Node>
                </Node>
                <Node pos="r" depth="5" NCoef="0" IVar="7" Cut="5.0000000000000000e+00" cType="1" res="-2.4055692553520203e-01" rms="3.6206653714179993e-01" purity="1.5882818400859833e-01" nType="0">
                  <Node pos="l" depth="6" NCoef="0" IVar="-1" Cut="0.0000000000000000e+00" cType="1" res="-2.1517002955079079e-02" rms="4.0957224369049072e-01" purity="2.1658301353454590e-01" nType="-99"/>
                  <Node pos="r" depth="6" NCoef="0" IVar="3" Cut="2.3907616734504700e-01" cType="1" res="-2.6490265130996704e-01" rms="3.3459532260894775e-01" purity="1.3037498295307159e-01" nType="0">
                    <Node pos="l" depth="7" NCoef="0" IVar="-1" Cut="0.0000000000000000e+00" cType="1" res="-3.5839959979057312e-02" rms="2.9831629991531372e-01" purity="1.0012307763099670e-01" nType="-99"/>
                    <Node pos="r" depth="7" NCoef="0" IVar="-1" Cut="0.0000000000000000e+00" cType="1" res="-2.6655102148652077e-02" rms="3.6536848545074463e-01" purity="1.6083508729934692e-01" nType="-99"/>
                  </Node>
                </Node>
              </Node>
            </Node>
            <Node pos="r" depth="3" NCoef="0" IVar="6" Cut="1.6678057610988617e-01" cType="1" res="-3.3359330892562866e-01" rms="1.7317989468574524e-01" purity="3.1594049185514450e-02" nType="0">
              <Node pos="l" depth="4" NCoef="0" IVar="5" Cut="1.4923769235610962e+00" cType="1" res="-3.4526005387306213e-01" rms="1.2409855425357819e-01" purity="1.5769056975841522e-02" nType="0">
                <Node pos="l" depth="5" NCoef="0" IVar="-1" Cut="0.0000000000000000e+00" cType="1" res="-4.1365131735801697e-02" rms="1.5610845386981964e-01" purity="2.5232566520571709e-02" nType="-99"/>
                <Node pos="r" depth="5" NCoef="0" IVar="0" Cut="2.2471604347229004e+00" cType="1" res="-3.5035884380340576e-01" rms="8.9937254786491394e-02" purity="8.1158680841326714e-03" nType="0">
                  <Node pos="l" depth="6" NCoef="0" IVar="-1" Cut="0.0000000000000000e+00" cType="1" res="-4.1709847748279572e-02" rms="9.2952072620391846e-02" purity="8.6579713970422745e-03" nType="-99"/>
                  <Node pos="r" depth="6" NCoef="0" IVar="-1" Cut="0.0000000000000000e+00" cType="1" res="-4.5288778841495514e-02" rms="8.5978068411350250e-02" purity="7.4650151655077934e-03" nType="-99"/>
                </Node>
              </Node>
              <Node pos="r" depth="4" NCoef="0" IVar="-1" Cut="0.0000000000000000e+00" cType="1" res="-3.7054665386676788e-02" rms="2.5582572817802429e-01" purity="7.1351237595081329e-02" nType="-99"/>
            </Node>
          </Node>
          <Node pos="r" depth="2" NCoef="0" IVar="4" Cut="1.3960732221603394e+00" cType="1" res="-1.3021302223205566e-01" rms="4.5989778637886047e-01" purity="3.2303372025489807e-01" nType="0">
            <Node pos="l" depth="3" NCoef="0" IVar="0" Cut="6.4362961053848267e-01" cType="1" res="-1.0889803618192673e-01" rms="4.7185540199279785e-01" purity="3.5043862462043762e-01" nType="0">
              <Node pos="l" depth="4" NCoef="0" IVar="1" Cut="8.1053256988525391e-01" cType="1" res="-6.0592252761125565e-02" rms="4.8973047733306885e-01" purity="4.1570317745208740e-01" nType="0">
                <Node pos="l" depth="5" NCoef="0" IVar="0" Cut="3.9445710182189941e-01" cType="1" res="-3.8404870778322220e-02" rms="4.9472832679748535e-01" purity="4.4506886601448059e-01" nType="0">
                  <Node pos="l" depth="6" NCoef="0" IVar="-1" Cut="0.0000000000000000e+00" cType="1" res="7.1460672188550234e-04" rms="4.9857744574546814e-01" purity="5.0373953580856323e-01" nType="-99"/>
                  <Node pos="r" depth="6" NCoef="0" IVar="1" Cut="2.0131193101406097e-01" cType="1" res="-7.1594439446926117e-02" rms="4.8927688598632812e-01" purity="4.0353369712829590e-01" nType="0">
                    <Node pos="l" depth="7" NCoef="0" IVar="-1" Cut="0.0000000000000000e+00" cType="1" res="-4.2790821753442287e-03" rms="4.9430817365646362e-01" purity="4.3046876788139343e-01" nType="-99"/>
                    <Node pos="r" depth="7" NCoef="0" IVar="-1" Cut="0.0000000000000000e+00" cType="1" res="-9.7330296412110329e-03" rms="4.7985568642616272e-01" purity="3.6489972472190857e-01" nType="-99"/>
                  </Node>
                </Node>
                <Node pos="r" depth="5" NCoef="0" IVar="-1" Cut="0.0000000000000000e+00" cType="1" res="-1.2412695214152336e-02" rms="4.6601745486259460e-01" purity="3.2069656252861023e-01" nType="-99"/>
              </Node>
              <Node pos="r" depth="4" NCoef="0" IVar="1" Cut="7.7436196804046631e-01" cType="1" res="-1.6734018921852112e-01" rms="4.4228243827819824e-01" purity="2.7147912979125977e-01" nType="0">
                <Node pos="l" depth="5" NCoef="0" IVar="3" Cut="5.6275922060012817e-01" cType="1" res="-1.3793484866619110e-01" rms="4.5930045843124390e-01" purity="3.0677667260169983e-01" nType="0">
                  <Node pos="l" depth="6" NCoef="0" IVar="-1" Cut="0.0000000000000000e+00" cType="1" res="-1.7388418316841125e-02" rms="4.4002246856689453e-01" purity="2.6630768179893494e-01" nType="-99"/>
                  <Node pos="r" depth="6" NCoef="0" IVar="-1" Cut="0.0000000000000000e+00" cType="1" res="-8.8731674477458000e-03" rms="4.7655096650123596e-01" purity="3.5255202651023865e-01" nType="-99"/>
                </Node>
                <Node pos="r" depth="5" NCoef="0" IVar="-1" Cut="0.0000000000000000e+00" cType="1" res="-2.2545790299773216e-02" rms="4.0688005089759827e-01" purity="2.1145454049110413e-01" nType="-99"/>
              </Node>
            </Node>
            <Node pos="r" depth="3" NCoef="0" IVar="-1" Cut="0.0000000000000000e+00" cType="1" res="-3.1403660774230957e-02" rms="3.0529162287712097e-01" purity="1.0896217823028564e-01" nType="-99"/>
          </Node>
        </Node>
        <Node pos="r" depth="1" NCoef="0" IVar="0" Cut="3.2182705402374268e-01" cType="1" res="1.5440952777862549e-01" rms="4.5048081874847412e-01" purity="6.9468879699707031e-01" nType="0">
          <Node pos="l" depth="2" NCoef="0" IVar="3" Cut="8.6822336912155151e-01" cType="1" res="1.9414377212524414e-01" rms="4.3015068769454956e-01" purity="7.4527263641357422e-01" nType="0">
            <Node pos="l" depth="3" NCoef="0" IVar="5" Cut="-1.5743699073791504e+00" cType="1" res="1.1331231892108917e-01" rms="4.7466865181922913e-01" purity="6.4345842599868774e-01" nType="0">
              <Node pos="l" depth="4" NCoef="0" IVar="1" Cut="1.0352293252944946e+00" cType="1" res="1.4195841550827026e-01" rms="4.6424460411071777e-01" purity="6.7818313837051392e-01" nType="0">
                <Node pos="l" depth="5" NCoef="0" IVar="3" Cut="7.8428018093109131e-01" cType="1" res="1.5985518693923950e-01" rms="4.5633736252784729e-01" purity="7.0010411739349365e-01" nType="0">
                  <Node pos="l" depth="6" NCoef="0" IVar="1" Cut="2.0746502280235291e-01" cType="1" res="1.1440399289131165e-01" rms="4.7715508937835693e-01" purity="6.4442342519760132e-01" nType="0">
                    <Node pos="l" depth="7" NCoef="0" IVar="-1" Cut="0.0000000000000000e+00" cType="1" res="1.1677533388137817e-02" rms="4.6647012233734131e-01" purity="6.7882186174392700e-01" nType="-99"/>
                    <Node pos="r" depth="7" NCoef="0" IVar="-1" Cut="0.0000000000000000e+00" cType="1" res="5.2371509373188019e-03" rms="4.9167689681053162e-01" purity="5.8202141523361206e-01" nType="-99"/>
                  </Node>
                  <Node pos="r" depth="6" NCoef="0" IVar="1" Cut="7.0462554693222046e-02" cType="1" res="1.9047895073890686e-01" rms="4.3911334872245789e-01" purity="7.3762029409408569e-01" nType="0">
                    <Node pos="l" depth="7" NCoef="0" IVar="-1" Cut="0.0000000000000000e+00" cType="1" res="1.6639189794659615e-02" rms="4.2243686318397522e-01" purity="7.6724529266357422e-01" nType="-99"/>
                    <Node pos="r" depth="7" NCoef="0" IVar="-1" Cut="0.0000000000000000e+00" cType="1" res="1.2679358012974262e-02" rms="4.5742744207382202e-01" purity="7.0036154985427856e-01" nType="-99"/>
                  </Node>
                </Node>
                <Node pos="r" depth="5" NCoef="0" IVar="-1" Cut="0.0000000000000000e+00" cType="1" res="1.7818495398387313e-03" rms="4.9779999256134033e-01" purity="5.3102672100067139e-01" nType="-99"/>
              </Node>
              <Node pos="r" depth="4" NCoef="0" IVar="5" Cut="-6.9391268491744995e-01" cType="1" res="2.0800229161977768e-02" rms="4.9569097161293030e-01" purity="5.3131538629531860e-01" nType="0">
                <Node pos="l" depth="5" NCoef="0" IVar="3" Cut="7.8428816795349121e-01" cType="1" res="6.8846769630908966e-02" rms="4.9034938216209412e-01" purity="5.8765304088592529e-01" nType="0">
                  <Node pos="l" depth="6" NCoef="0" IVar="-1" Cut="0.0000000000000000e+00" cType="1" res="2.6759721804410219e-03" rms="4.9636554718017578e-01" purity="5.4507380723953247e-01" nType="-99"/>
                  <Node pos="r" depth="6" NCoef="0" IVar="-1" Cut="0.0000000000000000e+00" cType="1" res="8.0959731712937355e-03" rms="4.8333233594894409e-01" purity="6.2200975418090820e-01" nType="-99"/>
                </Node>
                <Node pos="r" depth="5" NCoef="0" IVar="-1" Cut="0.0000000000000000e+00" cType="1" res="-6.4592459239065647e-03" rms="4.9276617169380188e-01" purity="4.2256230115890503e-01" nType="-99"/>
              </Node>
            </Node>
            <Node pos="r" depth="3" NCoef="0" IVar="5" Cut="-2.0338079929351807e+00" cType="1" res="2.3104143142700195e-01" rms="4.0286287665367126e-01" purity="7.9174840450286865e-01" nType="0">
              <Node pos="l" depth="4" NCoef="0" IVar="1" Cut="9.6366393566131592e-01" cType="1" res="2.5514698028564453e-01" rms="3.8153308629989624e-01" purity="8.2122123241424561e-01" nType="0">
                <Node pos="l" depth="5" NCoef="0" IVar="1" Cut="5.0272554159164429e-01" cType="1" res="2.6893690228462219e-01" rms="3.6748558282852173e-01" purity="8.3828938007354736e-01" nType="0">
                  <Node pos="l" depth="6" NCoef="0" IVar="4" Cut="-1.0156286954879761e+00" cType="1" res="2.7657026052474976e-01" rms="3.5889232158660889e-01" purity="8.4772658348083496e-01" nType="0">
                    <Node pos="l" depth="7" NCoef="0" IVar="-1" Cut="0.0000000000000000e+00" cType="1" res="1.9605947658419609e-02" rms="3.8327172398567200e-01" purity="8.2086217403411865e-01" nType="-99"/>
                    <Node pos="r" depth="7" NCoef="0" IVar="-1" Cut="0.0000000000000000e+00" cType="1" res="2.2828221321105957e-02" rms="3.4328866004943848e-01" purity="8.6335730552673340e-01" nType="-99"/>
                  </Node>
                  <Node pos="r" depth="6" NCoef="0" IVar="4" Cut="-8.6402356624603271e-01" cType="1" res="2.1931776404380798e-01" rms="4.1566759347915649e-01" purity="7.7694475650787354e-01" nType="0">
                    <Node pos="l" depth="7" NCoef="0" IVar="-1" Cut="0.0000000000000000e+00" cType="1" res="1.4056278392672539e-02" rms="4.4144025444984436e-01" purity="7.3429495096206665e-01" nType="-99"/>
                    <Node pos="r" depth="7" NCoef="0" IVar="-1" Cut="0.0000000000000000e+00" cType="1" res="1.9140750169754028e-02" rms="3.9555239677429199e-01" purity="8.0570012331008911e-01" nType="-99"/>
                  </Node>
                </Node>
                <Node pos="r" depth="5" NCoef="0" IVar="3" Cut="9.9383527040481567e-01" cType="1" res="1.5909704566001892e-01" rms="4.5640382170677185e-01" purity="7.0233798027038574e-01" nType="0">
                  <Node pos="l" depth="6" NCoef="0" IVar="-1" Cut="0.0000000000000000e+00" cType="1" res="9.3172518536448479e-03" rms="4.7606140375137329e-01" purity="6.5145963430404663e-01" nType="-99"/>
                  <Node pos="r" depth="6" NCoef="0" IVar="-1" Cut="0.0000000000000000e+00" cType="1" res="1.3843776658177376e-02" rms="4.4345331192016602e-01" purity="7.2995579242706299e-01" nType="-99"/>
                </Node>
              </Node>
              <Node pos="r" depth="4" NCoef="0" IVar="5" Cut="-1.0924021005630493e+00" cType="1" res="1.5522478520870209e-01" rms="4.5535147190093994e-01" purity="6.9905060529708862e-01" nType="0">
                <Node pos="l" depth="5" NCoef="0" IVar="1" Cut="-2.4920810759067535e-01" cType="1" res="1.9087512791156769e-01" rms="4.3571808934211731e-01" purity="7.4187630414962769e-01" nType="0">
                  <Node pos="l" depth="6" NCoef="0" IVar="-1" Cut="0.0000000000000000e+00" cType="1" res="1.8804717808961868e-02" rms="4.0029731392860413e-01" purity="7.9930830001831055e-01" nType="-99"/>
                  <Node pos="r" depth="6" NCoef="0" IVar="1" Cut="4.0920042991638184e-01" cType="1" res="1.7486634850502014e-01" rms="4.4555595517158508e-01" purity="7.2304826974868774e-01" nType="0">
                    <Node pos="l" depth="7" NCoef="0" IVar="-1" Cut="0.0000000000000000e+00" cType="1" res="1.6709890216588974e-02" rms="4.2481729388237000e-01" purity="7.6309943199157715e-01" nType="-99"/>
                    <Node pos="r" depth="7" NCoef="0" IVar="-1" Cut="0.0000000000000000e+00" cType="1" res="1.0014459490776062e-02" rms="4.7281444072723389e-01" purity="6.5811640024185181e-01" nType="-99"/>
                  </Node>
                </Node>
                <Node pos="r" depth="5" NCoef="0" IVar="4" Cut="-2.7943184971809387e-01" cType="1" res="6.9575197994709015e-02" rms="4.8886254429817200e-01" purity="5.9616225957870483e-01" nType="0">
                  <Node pos="l" depth="6" NCoef="0" IVar="-1" Cut="0.0000000000000000e+00" cType="1" res="5.8829803019762039e-03" rms="4.8810574412345886e-01" purity="5.9938484430313110e-01" nType="-99"/>
                  <Node pos="r" depth="6" NCoef="0" IVar="-1" Cut="0.0000000000000000e+00" cType="1" res="5.8988607488572598e-03" rms="4.8944491147994995e-01" purity="5.9366267919540405e-01" nType="-99"/>
                </Node>
              </Node>
            </Node>
          </Node>
          <Node pos="r" depth="2" NCoef="0" IVar="1" Cut="7.8163707256317139e-01" cType="1" res="-1.2906817719340324e-02" rms="4.9363848567008972e-01" purity="4.8168611526489258e-01" nType="0">
            <Node pos="l" depth="3" NCoef="0" IVar="5" Cut="-1.1902645826339722e+00" cType="1" res="3.0317243188619614e-02" rms="4.9435222148895264e-01" purity="5.3536820411682129e-01" nType="0">
              <Node pos="l" depth="4" NCoef="0" IVar="0" Cut="9.3484312295913696e-01" cType="1" res="5.5455047637224197e-02" rms="4.9252572655677795e-01" purity="5.6790429353713989e-01" nType="0">
                <Node pos="l" depth="5" NCoef="0" IVar="3" Cut="6.9295281171798706e-01" cType="1" res="7.4649907648563385e-02" rms="4.8956620693206787e-01" purity="5.9278482198715210e-01" nType="0">
                  <Node pos="l" depth="6" NCoef="0" IVar="-1" Cut="0.0000000000000000e+00" cType="1" res="2.8722043498419225e-04" rms="4.9937245249748230e-01" purity="5.1034271717071533e-01" nType="-99"/>
                  <Node pos="r" depth="6" NCoef="0" IVar="0" Cut="5.7888138294219971e-01" cType="1" res="9.4950914382934570e-02" rms="4.8482400178909302e-01" purity="6.1625748872756958e-01" nType="0">
                    <Node pos="l" depth="7" NCoef="0" IVar="-1" Cut="0.0000000000000000e+00" cType="1" res="9.0664466843008995e-03" rms="4.7903135418891907e-01" purity="6.3882070779800415e-01" nType="-99"/>
                    <Node pos="r" depth="7" NCoef="0" IVar="-1" Cut="0.0000000000000000e+00" cType="1" res="3.2711257226765156e-03" rms="4.9636349081993103e-01" purity="5.5338460206985474e-01" nType="-99"/>
                  </Node>
                </Node>
                <Node pos="r" depth="5" NCoef="0" IVar="-1" Cut="0.0000000000000000e+00" cType="1" res="-3.7543848156929016e-03" rms="4.9593663215637207e-01" purity="4.4122925400733948e-01" nType="-99"/>
              </Node>
              <Node pos="r" depth="4" NCoef="0" IVar="-1" Cut="0.0000000000000000e+00" cType="1" res="-6.0311122797429562e-03" rms="4.8928356170654297e-01" purity="4.0900027751922607e-01" nType="-99"/>
            </Node>
            <Node pos="r" depth="3" NCoef="0" IVar="5" Cut="-2.2356259822845459e+00" cType="1" res="-9.8787538707256317e-02" rms="4.8082247376441956e-01" purity="3.7502661347389221e-01" nType="0">
              <Node pos="l" depth="4" NCoef="0" IVar="-1" Cut="0.0000000000000000e+00" cType="1" res="-4.3041636236011982e-03" rms="4.9342459440231323e-01" purity="4.3202522397041321e-01" nType="-99"/>
              <Node pos="r" depth="4" NCoef="0" IVar="-1" Cut="0.0000000000000000e+00" cType="1" res="-1.3549516908824444e-02" rms="4.6442085504531860e-01" purity="3.2320803403854370e-01" nType="-99"/>
            </Node>
          </Node>
        </Node>
      </Node>
    </BinaryTree>
    <BinaryTree type="DecisionTree" boostWeight="1.0000000000000000e+00" itree="7">
      <Node pos="s" depth="0" NCoef="0" IVar="3" Cut="7.1639901399612427e-01" cType="1" res="9.6449786797165871e-03" rms="4.5583763718605042e-01" purity="4.9917766451835632e-01" nType="0">
        <Node pos="l" depth="1" NCoef="0" IVar="3" Cut="5.5738389492034912e-01" cType="1" res="-1.9555351138114929e-01" rms="3.8816368579864502e-01" purity="2.1294380724430084e-01" nType="0">
          <Node pos="l" depth="2" NCoef="0" IVar="0" Cut="9.6736311912536621e-01" cType="1" res="-2.5494751334190369e-01" rms="3.1916898488998413e-01" purity="1.2340474873781204e-01" nType="0">
            <Node pos="l" depth="3" NCoef="0" IVar="5" Cut="-1.1833332777023315e+00" cType="1" res="-1.8652354180812836e-01" rms="4.1625997424125671e-01" purity="2.3471318185329437e-01" nType="0">
              <Node pos="l" depth="4" NCoef="0" IVar="6" Cut="1.1420211941003799e-01" cType="1" res="-1.5383808314800262e-01" rms="4.4291889667510986e-01" purity="2.7825066447257996e-01" nType="0">
                <Node pos="l" depth="5" NCoef="0" IVar="0" Cut="6.8650537729263306e-01" cType="1" res="-1.9340008497238159e-01" rms="4.1588953137397766e-01" purity="2.3003806173801422e-01" nType="0">
                  <Node pos="l" depth="6" NCoef="0" IVar="-1" Cut="0.0000000000000000e+00" cType="1" res="-1.5007734298706055e-02" rms="4.4538989663124084e-01" purity="2.8476065397262573e-01" nType="-99"/>
                  <Node pos="r" depth="6" NCoef="0" IVar="-1" Cut="0.0000000000000000e+00" cType="1" res="-2.3158747702836990e-02" rms="3.9158657193183899e-01" purity="1.9166988134384155e-01" nType="-99"/>
                </Node>
                <Node pos="r" depth="5" NCoef="0" IVar="3" Cut="4.6945229172706604e-01" cType="1" res="-9.8815523087978363e-02" rms="4.7250127792358398e-01" purity="3.4530445933341980e-01" nType="0">
                  <Node pos="l" depth="6" NCoef="0" IVar="-1" Cut="0.0000000000000000e+00" cType="1" res="-1.4158992096781731e-02" rms="4.5257717370986938e-01" purity="2.9008316993713379e-01" nType="-99"/>
                  <Node pos="r" depth="6" NCoef="0" IVar="-1" Cut="0.0000000000000000e+00" cType="1" res="-5.0837951712310314e-03" rms="4.8760679364204407e-01" purity="3.9983040094375610e-01" nType="-99"/>
                </Node>
              </Node>
              <Node pos="r" depth="4" NCoef="0" IVar="3" Cut="4.8959356546401978e-01" cType="1" res="-2.6634296774864197e-01" rms="3.2917726039886475e-01" purity="1.2839257717132568e-01" nType="0">
                <Node pos="l" depth="5" NCoef="0" IVar="-1" Cut="0.0000000000000000e+00" cType="1" res="-3.0637275427579880e-02" rms="3.0735453963279724e-01" purity="1.0813433676958084e-01" nType="-99"/>
                <Node pos="r" depth="5" NCoef="0" IVar="-1" Cut="0.0000000000000000e+00" cType="1" res="-2.7345938608050346e-02" rms="3.4965866804122925e-01" purity="1.4876486361026764e-01" nType="-99"/>
              </Node>
            </Node>
            <Node pos="r" depth="3" NCoef="0" IVar="6" Cut="1.4121992886066437e-01" cType="1" res="-2.7679213881492615e-01" rms="2.7767089009284973e-01" purity="8.7869107723236084e-02" nType="0">
              <Node pos="l" depth="4" NCoef="0" IVar="3" Cut="3.9926707744598389e-01" cType="1" res="-2.9223826527595520e-01" rms="2.4377664923667908e-01" purity="6.5707214176654816e-02" nType="0">
                <Node pos="l" depth="5" NCoef="0" IVar="7" Cut="4.0000000000000000e+00" cType="1" res="-2.9768696427345276e-01" rms="1.9864851236343384e-01" purity="4.0619168430566788e-02" nType="0">
                  <Node pos="l" depth="6" NCoef="0" IVar="-1" Cut="0.0000000000000000e+00" cType="1" res="-3.5083301365375519e-02" rms="2.6072454452514648e-01" purity="7.3426410555839539e-02" nType="-99"/>
                  <Node pos="r" depth="6" NCoef="0" IVar="3" Cut="3.3691990375518799e-01" cType="1" res="-3.0964410305023193e-01" rms="1.8510521948337555e-01" purity="3.5906542092561722e-02" nType="0">
                    <Node pos="l" depth="7" NCoef="0" IVar="-1" Cut="0.0000000000000000e+00" cType="1" res="-4.1736364364624023e-02" rms="1.5940091013908386e-01" purity="2.6183102279901505e-02" nType="-99"/>
                    <Node pos="r" depth="7" NCoef="0" IVar="-1" Cut="0.0000000000000000e+00" cType="1" res="-3.5437364131212234e-02" rms="2.3743854463100433e-01" purity="6.0537867248058319e-02" nType="-99"/>
                  </Node>
                </Node>
                <Node pos="r" depth="5" NCoef="0" IVar="4" Cut="1.1593813896179199e+00" cType="1" res="-2.6452130079269409e-01" rms="3.1927949190139771e-01" purity="1.1833637207746506e-01" nType="0">
                  <Node pos="l" depth="6" NCoef="0" IVar="6" Cut="9.6006803214550018e-02" cType="1" res="-2.4765883386135101e-01" rms="3.4719738364219666e-01" purity="1.4248254895210266e-01" nType="0">
                    <Node pos="l" depth="7" NCoef="0" IVar="-1" Cut="0.0000000000000000e+00" cType="1" res="-2.9664993286132812e-02" rms="3.2694575190544128e-01" purity="1.2277449667453766e-01" nType="-99"/>
                    <Node pos="r" depth="7" NCoef="0" IVar="-1" Cut="0.0000000000000000e+00" cType="1" res="-2.3868467658758163e-02" rms="3.8371643424034119e-01" purity="1.8271559476852417e-01" nType="-99"/>
                  </Node>
                  <Node pos="r" depth="6" NCoef="0" IVar="-1" Cut="0.0000000000000000e+00" cType="1" res="-3.7779219448566437e-02" rms="1.8302625417709351e-01" purity="3.5168129950761795e-02" nType="-99"/>
                </Node>
              </Node>
              <Node pos="r" depth="4" NCoef="0" IVar="4" Cut="1.9824082851409912e+00" cType="1" res="-2.4627605080604553e-01" rms="3.3259019255638123e-01" purity="1.3165314495563507e-01" nType="0">
                <Node pos="l" depth="5" NCoef="0" IVar="7" Cut="4.0000000000000000e+00" cType="1" res="-2.2481155395507812e-01" rms="3.5913047194480896e-01" purity="1.5885300934314728e-01" nType="0">
                  <Node pos="l" depth="6" NCoef="0" IVar="-1" Cut="0.0000000000000000e+00" cType="1" res="-1.5802567824721336e-02" rms="4.3199381232261658e-01" purity="2.5501281023025513e-01" nType="-99"/>
                  <Node pos="r" depth="6" NCoef="0" IVar="3" Cut="3.2915171980857849e-01" cType="1" res="-2.4519093334674835e-01" rms="3.4086486697196960e-01" purity="1.3721774518489838e-01" nType="0">
                    <Node pos="l" depth="7" NCoef="0" IVar="-1" Cut="0.0000000000000000e+00" cType="1" res="-3.2108616083860397e-02" rms="3.1517577171325684e-01" purity="1.1390706151723862e-01" nType="-99"/>
                    <Node pos="r" depth="7" NCoef="0" IVar="-1" Cut="0.0000000000000000e+00" cType="1" res="-2.1746758371591568e-02" rms="3.9437937736511230e-01" purity="1.9540423154830933e-01" nType="-99"/>
                  </Node>
                </Node>
                <Node pos="r" depth="5" NCoef="0" IVar="-1" Cut="0.0000000000000000e+00" cType="1" res="-3.7973769009113312e-02" rms="2.1732133626937866e-01" purity="5.0633933395147324e-02" nType="-99"/>
              </Node>
            </Node>
          </Node>
          <Node pos="r" depth="2" NCoef="0" IVar="5" Cut="-9.6265369653701782e-01" cType="1" res="-6.5540753304958344e-02" rms="4.8256936669349670e-01" purity="4.0894374251365662e-01" nType="0">
            <Node pos="l" depth="3" NCoef="0" IVar="1" Cut="1.1413998603820801e+00" cType="1" res="-3.6220785230398178e-02" rms="4.9043515324592590e-01" purity="4.4601008296012878e-01" nType="0">
              <Node pos="l" depth="4" NCoef="0" IVar="1" Cut="1.6236340999603271e-01" cType="1" res="-1.2190714478492737e-02" rms="4.9414914846420288e-01" purity="4.7655639052391052e-01" nType="0">
                <Node pos="l" depth="5" NCoef="0" IVar="0" Cut="3.1126788258552551e-01" cType="1" res="3.1574115157127380e-02" rms="4.9514997005462646e-01" purity="5.2897799015045166e-01" nType="0">
                  <Node pos="l" depth="6" NCoef="0" IVar="-1" Cut="0.0000000000000000e+00" cType="1" res="7.5646475888788700e-03" rms="4.8548462986946106e-01" purity="6.1573427915573120e-01" nType="-99"/>
                  <Node pos="r" depth="6" NCoef="0" IVar="3" Cut="6.3944691419601440e-01" cType="1" res="3.7414974067360163e-03" rms="4.9702301621437073e-01" purity="4.8935273289680481e-01" nType="0">
                    <Node pos="l" depth="7" NCoef="0" IVar="-1" Cut="0.0000000000000000e+00" cType="1" res="-2.6271413080394268e-03" rms="4.9474564194679260e-01" purity="4.4013860821723938e-01" nType="-99"/>
                    <Node pos="r" depth="7" NCoef="0" IVar="-1" Cut="0.0000000000000000e+00" cType="1" res="3.4434315748512745e-03" rms="4.9689951539039612e-01" purity="5.4450094699859619e-01" nType="-99"/>
                  </Node>
                </Node>
                <Node pos="r" depth="5" NCoef="0" IVar="3" Cut="6.7021423578262329e-01" cType="1" res="-6.0202393680810928e-02" rms="4.8855996131896973e-01" purity="4.1904786229133606e-01" nType="0">
                  <Node pos="l" depth="6" NCoef="0" IVar="6" Cut="6.1873510479927063e-02" cType="1" res="-8.5525177419185638e-02" rms="4.8229414224624634e-01" purity="3.8117682933807373e-01" nType="0">
                    <Node pos="l" depth="7" NCoef="0" IVar="-1" Cut="0.0000000000000000e+00" cType="1" res="-1.1906110681593418e-02" rms="4.6923321485519409e-01" purity="3.3727231621742249e-01" nType="-99"/>
                    <Node pos="r" depth="7" NCoef="0" IVar="-1" Cut="0.0000000000000000e+00" cType="1" res="-5.3279222920536995e-03" rms="4.8867750167846680e-01" purity="4.0937635302543640e-01" nType="-99"/>
                  </Node>
                  <Node pos="r" depth="6" NCoef="0" IVar="-1" Cut="0.0000000000000000e+00" cType="1" res="-3.7235394120216370e-04" rms="4.9756637215614319e-01" purity="5.0254940986633301e-01" nType="-99"/>
                </Node>
              </Node>
              <Node pos="r" depth="4" NCoef="0" IVar="-1" Cut="0.0000000000000000e+00" cType="1" res="-1.4470872469246387e-02" rms="4.5579335093498230e-01" purity="3.0205515027046204e-01" nType="-99"/>
            </Node>
            <Node pos="r" depth="3" NCoef="0" IVar="4" Cut="8.7502771615982056e-01" cType="1" res="-1.9292202591896057e-01" rms="4.2386537790298462e-01" purity="2.4790807068347931e-01" nType="0">
              <Node pos="l" depth="4" NCoef="0" IVar="-1" Cut="0.0000000000000000e+00" cType="1" res="-1.1019110679626465e-02" rms="4.7027805447578430e-01" purity="3.4152802824974060e-01" nType="-99"/>
              <Node pos="r" depth="4" NCoef="0" IVar="-1" Cut="0.0000000000000000e+00" cType="1" res="-2.6441516354680061e-02" rms="3.6725920438766479e-01" purity="1.6714990139007568e-01" nType="-99"/>
            </Node>
          </Node>
        </Node>
        <Node pos="r" depth="1" NCoef="0" IVar="0" Cut="3.2204878330230713e-01" cType="1" res="1.6466622054576874e-01" rms="4.4169709086418152e-01" purity="7.1541869640350342e-01" nType="0">
          <Node pos="l" depth="2" NCoef="0" IVar="3" Cut="8.7879538536071777e-01" cType="1" res="1.9065567851066589e-01" rms="4.2669230699539185e-01" purity="7.5119465589523315e-01" nType="0">
            <Node pos="l" depth="3" NCoef="0" IVar="1" Cut="8.5076755285263062e-01" cType="1" res="1.1892216652631760e-01" rms="4.6945640444755554e-01" purity="6.5834838151931763e-01" nType="0">
              <Node pos="l" depth="4" NCoef="0" IVar="5" Cut="-1.8193925619125366e+00" cType="1" res="1.4284221827983856e-01" rms="4.5994567871093750e-01" purity="6.8773704767227173e-01" nType="0">
                <Node pos="l" depth="5" NCoef="0" IVar="3" Cut="8.1069302558898926e-01" cType="1" res="1.7049698531627655e-01" rms="4.4580364227294922e-01" purity="7.2369700670242310e-01" nType="0">
                  <Node pos="l" depth="6" NCoef="0" IVar="1" Cut="-1.1091930419206619e-01" cType="1" res="1.3942895829677582e-01" rms="4.6384808421134949e-01" purity="6.8385535478591919e-01" nType="0">
                    <Node pos="l" depth="7" NCoef="0" IVar="-1" Cut="0.0000000000000000e+00" cType="1" res="1.3641543686389923e-02" rms="4.4722262024879456e-01" purity="7.2290211915969849e-01" nType="-99"/>
                    <Node pos="r" depth="7" NCoef="0" IVar="-1" Cut="0.0000000000000000e+00" cType="1" res="9.7661111503839493e-03" rms="4.7312626242637634e-01" purity="6.5841138362884521e-01" nType="-99"/>
                  </Node>
                  <Node pos="r" depth="6" NCoef="0" IVar="6" Cut="3.1377665698528290e-02" cType="1" res="1.9424234330654144e-01" rms="4.2999297380447388e-01" purity="7.5414806604385376e-01" nType="0">
                    <Node pos="l" depth="7" NCoef="0" IVar="-1" Cut="0.0000000000000000e+00" cType="1" res="1.3990874402225018e-02" rms="4.4222357869148254e-01" purity="7.3150134086608887e-01" nType="-99"/>
                    <Node pos="r" depth="7" NCoef="0" IVar="-1" Cut="0.0000000000000000e+00" cType="1" res="1.6092261299490929e-02" rms="4.2233386635780334e-01" purity="7.6693660020828247e-01" nType="-99"/>
                  </Node>
                </Node>
                <Node pos="r" depth="5" NCoef="0" IVar="4" Cut="1.7925126850605011e-01" cType="1" res="7.6166853308677673e-02" rms="4.8594573140144348e-01" purity="6.0103797912597656e-01" nType="0">
                  <Node pos="l" depth="6" NCoef="0" IVar="1" Cut="-4.7909852117300034e-02" cType="1" res="1.1504314094781876e-01" rms="4.7589406371116638e-01" purity="6.4772009849548340e-01" nType="0">
                    <Node pos="l" depth="7" NCoef="0" IVar="-1" Cut="0.0000000000000000e+00" cType="1" res="1.2496368028223515e-02" rms="4.6030700206756592e-01" purity="6.9285094738006592e-01" nType="-99"/>
                    <Node pos="r" depth="7" NCoef="0" IVar="-1" Cut="0.0000000000000000e+00" cType="1" res="6.6165523603558540e-03" rms="4.8599374294281006e-01" purity="6.0914647579193115e-01" nType="-99"/>
                  </Node>
                  <Node pos="r" depth="6" NCoef="0" IVar="-1" Cut="0.0000000000000000e+00" cType="1" res="-1.2138814199715853e-03" rms="4.9691039323806763e-01" purity="4.9322316050529480e-01" nType="-99"/>
                </Node>
              </Node>
              <Node pos="r" depth="4" NCoef="0" IVar="4" Cut="-1.3339954614639282e+00" cType="1" res="-8.6786312749609351e-05" rms="4.9735039472579956e-01" purity="5.1213145256042480e-01" nType="0">
                <Node pos="l" depth="5" NCoef="0" IVar="-1" Cut="0.0000000000000000e+00" cType="1" res="4.1687507182359695e-03" rms="4.9371153116226196e-01" purity="5.6828844547271729e-01" nType="-99"/>
                <Node pos="r" depth="5" NCoef="0" IVar="-1" Cut="0.0000000000000000e+00" cType="1" res="-6.7080436274409294e-03" rms="4.9297696352005005e-01" purity="4.3062224984169006e-01" nType="-99"/>
              </Node>
            </Node>
            <Node pos="r" depth="3" NCoef="0" IVar="1" Cut="7.9441523551940918e-01" cType="1" res="2.2266738116741180e-01" rms="4.0204888582229614e-01" purity="7.9262816905975342e-01" nType="0">
              <Node pos="l" depth="4" NCoef="0" IVar="5" Cut="-2.0863528251647949e+00" cType="1" res="2.3936060070991516e-01" rms="3.8710403442382812e-01" purity="8.1384718418121338e-01" nType="0">
                <Node pos="l" depth="5" NCoef="0" IVar="1" Cut="2.9758968949317932e-01" cType="1" res="2.5881862640380859e-01" rms="3.6645326018333435e-01" purity="8.3950698375701904e-01" nType="0">
                  <Node pos="l" depth="6" NCoef="0" IVar="5" Cut="-2.9868257045745850e+00" cType="1" res="2.6751556992530823e-01" rms="3.5650807619094849e-01" purity="8.5025578737258911e-01" nType="0">
                    <Node pos="l" depth="7" NCoef="0" IVar="-1" Cut="0.0000000000000000e+00" cType="1" res="2.2266462445259094e-02" rms="3.3688592910766602e-01" purity="8.6925518512725830e-01" nType="-99"/>
                    <Node pos="r" depth="7" NCoef="0" IVar="-1" Cut="0.0000000000000000e+00" cType="1" res="2.0254729315638542e-02" rms="3.6859491467475891e-01" purity="8.3753979206085205e-01" nType="-99"/>
                  </Node>
                  <Node pos="r" depth="6" NCoef="0" IVar="4" Cut="-1.1129354238510132e+00" cType="1" res="2.2637723386287689e-01" rms="3.9971682429313660e-01" purity="7.9941183328628540e-01" nType="0">
                    <Node pos="l" depth="7" NCoef="0" IVar="-1" Cut="0.0000000000000000e+00" cType="1" res="1.4288419857621193e-02" rms="4.3273213505744934e-01" purity="7.5016629695892334e-01" nType="-99"/>
                    <Node pos="r" depth="7" NCoef="0" IVar="-1" Cut="0.0000000000000000e+00" cType="1" res="1.9158389419317245e-02" rms="3.8342669606208801e-01" purity="8.2043528556823730e-01" nType="-99"/>
                  </Node>
                </Node>
                <Node pos="r" depth="5" NCoef="0" IVar="5" Cut="-7.0103466510772705e-01" cType="1" res="1.8292571604251862e-01" rms="4.3669241666793823e-01" purity="7.3942500352859497e-01" nType="0">
                  <Node pos="l" depth="6" NCoef="0" IVar="1" Cut="6.9506406784057617e-02" cType="1" res="1.9963784515857697e-01" rms="4.2485684156417847e-01" purity="7.6208186149597168e-01" nType="0">
                    <Node pos="l" depth="7" NCoef="0" IVar="-1" Cut="0.0000000000000000e+00" cType="1" res="1.7730848863720894e-02" rms="4.0798205137252808e-01" purity="7.8829342126846313e-01" nType="-99"/>
                    <Node pos="r" depth="7" NCoef="0" IVar="-1" Cut="0.0000000000000000e+00" cType="1" res="1.3445766642689705e-02" rms="4.4695413112640381e-01" purity="7.2249406576156616e-01" nType="-99"/>
                  </Node>
                  <Node pos="r" depth="6" NCoef="0" IVar="-1" Cut="0.0000000000000000e+00" cType="1" res="7.8170886263251305e-03" rms="4.8638212680816650e-01" purity="6.1557549238204956e-01" nType="-99"/>
                </Node>
              </Node>
              <Node pos="r" depth="4" NCoef="0" IVar="5" Cut="-2.2264776229858398e+00" cType="1" res="1.3288013637065887e-01" rms="4.6423852443695068e-01" purity="6.7849820852279663e-01" nType="0">
                <Node pos="l" depth="5" NCoef="0" IVar="4" Cut="-8.4071737527847290e-01" cType="1" res="1.7249430716037750e-01" rms="4.4545149803161621e-01" purity="7.2472393512725830e-01" nType="0">
                  <Node pos="l" depth="6" NCoef="0" IVar="-1" Cut="0.0000000000000000e+00" cType="1" res="9.5182992517948151e-03" rms="4.6966901421546936e-01" purity="6.7010968923568726e-01" nType="-99"/>
                  <Node pos="r" depth="6" NCoef="0" IVar="-1" Cut="0.0000000000000000e+00" cType="1" res="1.5797257423400879e-02" rms="4.2610719799995422e-01" purity="7.6055192947387695e-01" nType="-99"/>
                </Node>
                <Node pos="r" depth="5" NCoef="0" IVar="-1" Cut="0.0000000000000000e+00" cType="1" res="3.8707170169800520e-03" rms="4.9172097444534302e-01" purity="5.7828915119171143e-01" nType="-99"/>
              </Node>
            </Node>
          </Node>
          <Node pos="r" depth="2" NCoef="0" IVar="0" Cut="9.4536918401718140e-01" cType="1" res="1.9555784761905670e-02" rms="4.9297058582305908e-01" purity="5.1566565036773682e-01" nType="0">
            <Node pos="l" depth="3" NCoef="0" IVar="1" Cut="1.0154478251934052e-01" cType="1" res="6.1461780220270157e-02" rms="4.9075326323509216e-01" purity="5.6947666406631470e-01" nType="0">
              <Node pos="l" depth="4" NCoef="0" IVar="2" Cut="6.6750869750976562e+01" cType="1" res="1.1794079095125198e-01" rms="4.7789588570594788e-01" purity="6.3677704334259033e-01" nType="0">
                <Node pos="l" depth="5" NCoef="0" IVar="-1" Cut="0.0000000000000000e+00" cType="1" res="1.1894889175891876e-02" rms="4.6364858746528625e-01" purity="6.8238234519958496e-01" nType="-99"/>
                <Node pos="r" depth="5" NCoef="0" IVar="-1" Cut="0.0000000000000000e+00" cType="1" res="5.8920467272400856e-03" rms="4.8985818028450012e-01" purity="5.8267086744308472e-01" nType="-99"/>
              </Node>
              <Node pos="r" depth="4" NCoef="0" IVar="2" Cut="8.3283622741699219e+01" cType="1" res="2.3862931877374649e-02" rms="4.9557292461395264e-01" purity="5.2467387914657593e-01" nType="0">
                <Node pos="l" depth="5" NCoef="0" IVar="0" Cut="5.0300425291061401e-01" cType="1" res="5.6077297776937485e-02" rms="4.9284940958023071e-01" purity="5.6157982349395752e-01" nType="0">
                  <Node pos="l" depth="6" NCoef="0" IVar="-1" Cut="0.0000000000000000e+00" cType="1" res="6.9912686012685299e-03" rms="4.8587441444396973e-01" purity="6.0027509927749634e-01" nType="-99"/>
                  <Node pos="r" depth="6" NCoef="0" IVar="-1" Cut="0.0000000000000000e+00" cType="1" res="1.7279037274420261e-03" rms="4.9741575121879578e-01" purity="5.2203202247619629e-01" nType="-99"/>
                </Node>
                <Node pos="r" depth="5" NCoef="0" IVar="-1" Cut="0.0000000000000000e+00" cType="1" res="-2.5923959910869598e-03" rms="4.9546280503273010e-01" purity="4.6350294351577759e-01" nType="-99"/>
              </Node>
            </Node>
            <Node pos="r" depth="3" NCoef="0" IVar="5" Cut="-2.1353240013122559e+00" cType="1" res="-8.5048928856849670e-02" rms="4.8284476995468140e-01" purity="3.8134407997131348e-01" nType="0">
              <Node pos="l" depth="4" NCoef="0" IVar="-1" Cut="0.0000000000000000e+00" cType="1" res="-2.7701004873961210e-03" rms="4.9558198451995850e-01" purity="4.4477912783622742e-01" nType="-99"/>
              <Node pos="r" depth="4" NCoef="0" IVar="-1" Cut="0.0000000000000000e+00" cType="1" res="-1.3610866852104664e-02" rms="4.6223780512809753e-01" purity="3.1416851282119751e-01" nType="-99"/>
            </Node>
          </Node>
        </Node>
      </Node>
    </BinaryTree>
    <BinaryTree type="DecisionTree" boostWeight="1.0000000000000000e+00" itree="8">
      <Node pos="s" depth="0" NCoef="0" IVar="3" Cut="7.1639901399612427e-01" cType="1" res="1.0182522237300873e-02" rms="4.5127651095390320e-01" purity="4.9864900112152100e-01" nType="0">
        <Node pos="l" depth="1" NCoef="0" IVar="3" Cut="5.3467011451721191e-01" cType="1" res="-1.8629088997840881e-01" rms="3.8590273261070251e-01" purity="2.1173587441444397e-01" nType="0">
          <Node pos="l" depth="2" NCoef="0" IVar="0" Cut="1.2898201942443848e+00" cType="1" res="-2.4650359153747559e-01" rms="3.0891051888465881e-01" purity="1.1385536938905716e-01" nType="0">
            <Node pos="l" depth="3" NCoef="0" IVar="4" Cut="1.7659629583358765e+00" cType="1" res="-2.0655241608619690e-01" rms="3.8059768080711365e-01" purity="1.8465028703212738e-01" nType="0">
              <Node pos="l" depth="4" NCoef="0" IVar="6" Cut="1.1420211941003799e-01" cType="1" res="-1.8951147794723511e-01" rms="4.0168032050132751e-01" purity="2.0969690382480621e-01" nType="0">
                <Node pos="l" depth="5" NCoef="0" IVar="2" Cut="1.7227531433105469e+02" cType="1" res="-2.2199743986129761e-01" rms="3.6865189671516418e-01" purity="1.6652409732341766e-01" nType="0">
                  <Node pos="l" depth="6" NCoef="0" IVar="0" Cut="8.3213078975677490e-01" cType="1" res="-2.0069234073162079e-01" rms="3.8545545935630798e-01" purity="1.8713437020778656e-01" nType="0">
                    <Node pos="l" depth="7" NCoef="0" IVar="-1" Cut="0.0000000000000000e+00" cType="1" res="-1.6457887366414070e-02" rms="4.2755845189094543e-01" purity="2.4734440445899963e-01" nType="-99"/>
                    <Node pos="r" depth="7" NCoef="0" IVar="-1" Cut="0.0000000000000000e+00" cType="1" res="-2.5241293013095856e-02" rms="3.5638317465782166e-01" purity="1.5176990628242493e-01" nType="-99"/>
                  </Node>
                  <Node pos="r" depth="6" NCoef="0" IVar="-1" Cut="0.0000000000000000e+00" cType="1" res="-2.7712019160389900e-02" rms="3.4036141633987427e-01" purity="1.3653659820556641e-01" nType="-99"/>
                </Node>
                <Node pos="r" depth="5" NCoef="0" IVar="1" Cut="1.1126194894313812e-01" cType="1" res="-1.4836925268173218e-01" rms="4.3650916218757629e-01" purity="2.6437366008758545e-01" nType="0">
                  <Node pos="l" depth="6" NCoef="0" IVar="-1" Cut="0.0000000000000000e+00" cType="1" res="-8.8804112747311592e-03" rms="4.6440458297729492e-01" purity="3.2518032193183899e-01" nType="-99"/>
                  <Node pos="r" depth="6" NCoef="0" IVar="0" Cut="8.3212077617645264e-01" cType="1" res="-1.7353828251361847e-01" rms="4.2100846767425537e-01" purity="2.3717162013053894e-01" nType="0">
                    <Node pos="l" depth="7" NCoef="0" IVar="-1" Cut="0.0000000000000000e+00" cType="1" res="-1.3810161501169205e-02" rms="4.4772699475288391e-01" purity="2.8513571619987488e-01" nType="-99"/>
                    <Node pos="r" depth="7" NCoef="0" IVar="-1" Cut="0.0000000000000000e+00" cType="1" res="-2.1824823692440987e-02" rms="3.9551839232444763e-01" purity="1.9772215187549591e-01" nType="-99"/>
                  </Node>
                </Node>
              </Node>
              <Node pos="r" depth="4" NCoef="0" IVar="-1" Cut="0.0000000000000000e+00" cType="1" res="-3.6029104143381119e-02" rms="1.9767127931118011e-01" purity="4.1033148765563965e-02" nType="-99"/>
            </Node>
            <Node pos="r" depth="3" NCoef="0" IVar="6" Cut="2.1819069981575012e-01" cType="1" res="-2.6894044876098633e-01" rms="2.5742235779762268e-01" purity="7.4096404016017914e-02" nType="0">
              <Node pos="l" depth="4" NCoef="0" IVar="4" Cut="1.7335439920425415e+00" cType="1" res="-2.7805805206298828e-01" rms="2.3602069914340973e-01" purity="6.1174694448709488e-02" nType="0">
                <Node pos="l" depth="5" NCoef="0" IVar="7" Cut="4.0000000000000000e+00" cType="1" res="-2.6216080784797668e-01" rms="2.6315248012542725e-01" purity="7.7096894383430481e-02" nType="0">
                  <Node pos="l" depth="6" NCoef="0" IVar="4" Cut="-4.2408788204193115e-01" cType="1" res="-2.3442810773849487e-01" rms="3.2741385698318481e-01" purity="1.2503305077552795e-01" nType="0">
                    <Node pos="l" depth="7" NCoef="0" IVar="-1" Cut="0.0000000000000000e+00" cType="1" res="-2.5746807456016541e-02" rms="3.4801533818244934e-01" purity="1.4430029690265656e-01" nType="-99"/>
                    <Node pos="r" depth="7" NCoef="0" IVar="-1" Cut="0.0000000000000000e+00" cType="1" res="-3.0440058559179306e-02" rms="3.0773040652275085e-01" purity="1.0838083177804947e-01" nType="-99"/>
                  </Node>
                  <Node pos="r" depth="6" NCoef="0" IVar="3" Cut="3.6631938815116882e-01" cType="1" res="-2.7585086226463318e-01" rms="2.4503797292709351e-01" purity="6.5538175404071808e-02" nType="0">
                    <Node pos="l" depth="7" NCoef="0" IVar="-1" Cut="0.0000000000000000e+00" cType="1" res="-3.7689279764890671e-02" rms="2.1933183073997498e-01" purity="5.1293928176164627e-02" nType="-99"/>
                    <Node pos="r" depth="7" NCoef="0" IVar="-1" Cut="0.0000000000000000e+00" cType="1" res="-2.8605239465832710e-02" rms="3.1914243102073669e-01" purity="1.1667546629905701e-01" nType="-99"/>
                  </Node>
                </Node>
                <Node pos="r" depth="5" NCoef="0" IVar="4" Cut="2.6685223579406738e+00" cType="1" res="-3.0786442756652832e-01" rms="1.2039142102003098e-01" purity="1.4895706437528133e-02" nType="0">
                  <Node pos="l" depth="6" NCoef="0" IVar="-1" Cut="0.0000000000000000e+00" cType="1" res="-3.9702896028757095e-02" rms="1.5813380479812622e-01" purity="2.6067355647683144e-02" nType="-99"/>
                  <Node pos="r" depth="6" NCoef="0" IVar="5" Cut="2.6501309871673584e+00" cType="1" res="-3.1200325489044189e-01" rms="9.4285398721694946e-02" purity="8.9924363419413567e-03" nType="0">
                    <Node pos="l" depth="7" NCoef="0" IVar="-1" Cut="0.0000000000000000e+00" cType="1" res="-4.0730170905590057e-02" rms="1.1532754451036453e-01" purity="1.3515485450625420e-02" nType="-99"/>
                    <Node pos="r" depth="7" NCoef="0" IVar="-1" Cut="0.0000000000000000e+00" cType="1" res="-4.1543249040842056e-02" rms="7.3956206440925598e-02" purity="5.5017643608152866e-03" nType="-99"/>
                  </Node>
                </Node>
              </Node>
              <Node pos="r" depth="4" NCoef="0" IVar="5" Cut="-1.1680841445922852e+00" cType="1" res="-2.0685482025146484e-01" rms="3.6572769284248352e-01" purity="1.6208608448505402e-01" nType="0">
                <Node pos="l" depth="5" NCoef="0" IVar="-1" Cut="0.0000000000000000e+00" cType="1" res="-2.0021447911858559e-02" rms="4.0062832832336426e-01" purity="2.0325425267219543e-01" nType="-99"/>
                <Node pos="r" depth="5" NCoef="0" IVar="-1" Cut="0.0000000000000000e+00" cType="1" res="-2.9324354603886604e-02" rms="3.2046559453010559e-01" purity="1.1716788262128830e-01" nType="-99"/>
              </Node>
            </Node>
          </Node>
          <Node pos="r" depth="2" NCoef="0" IVar="4" Cut="1.3384464979171753e+00" cType="1" res="-7.7241651713848114e-02" rms="4.7680860757827759e-01" purity="3.8900405168533325e-01" nType="0">
            <Node pos="l" depth="3" NCoef="0" IVar="1" Cut="4.6473208069801331e-01" cType="1" res="-5.8185361325740814e-02" rms="4.8452368378639221e-01" purity="4.1451635956764221e-01" nType="0">
              <Node pos="l" depth="4" NCoef="0" IVar="0" Cut="5.3256344795227051e-01" cType="1" res="-1.1051397770643234e-02" rms="4.9346786737442017e-01" purity="4.7650822997093201e-01" nType="0">
                <Node pos="l" depth="5" NCoef="0" IVar="0" Cut="2.0611254870891571e-01" cType="1" res="2.5126188993453979e-02" rms="4.9602019786834717e-01" purity="5.3055244684219360e-01" nType="0">
                  <Node pos="l" depth="6" NCoef="0" IVar="-1" Cut="0.0000000000000000e+00" cType="1" res="6.4295525662600994e-03" rms="4.8729744553565979e-01" purity="6.0468620061874390e-01" nType="-99"/>
                  <Node pos="r" depth="6" NCoef="0" IVar="6" Cut="5.0830539315938950e-02" cType="1" res="7.6859910041093826e-03" rms="4.9731746315956116e-01" purity="5.0810438394546509e-01" nType="0">
                    <Node pos="l" depth="7" NCoef="0" IVar="-1" Cut="0.0000000000000000e+00" cType="1" res="-3.6685361992567778e-03" rms="4.9587136507034302e-01" purity="4.6024119853973389e-01" nType="-99"/>
                    <Node pos="r" depth="7" NCoef="0" IVar="-1" Cut="0.0000000000000000e+00" cType="1" res="2.3134483490139246e-03" rms="4.9658998847007751e-01" purity="5.2712619304656982e-01" nType="-99"/>
                  </Node>
                </Node>
                <Node pos="r" depth="5" NCoef="0" IVar="3" Cut="5.9326124191284180e-01" cType="1" res="-7.3081821203231812e-02" rms="4.8279231786727905e-01" purity="3.8384363055229187e-01" nType="0">
                  <Node pos="l" depth="6" NCoef="0" IVar="-1" Cut="0.0000000000000000e+00" cType="1" res="-1.0652684606611729e-02" rms="4.6822941303253174e-01" purity="3.3054861426353455e-01" nType="-99"/>
                  <Node pos="r" depth="6" NCoef="0" IVar="-1" Cut="0.0000000000000000e+00" cType="1" res="-3.5093228798359632e-03" rms="4.9250251054763794e-01" purity="4.3007344007492065e-01" nType="-99"/>
                </Node>
              </Node>
              <Node pos="r" depth="4" NCoef="0" IVar="0" Cut="3.2222375273704529e-01" cType="1" res="-1.2689597904682159e-01" rms="4.6265733242034912e-01" purity="3.2414618134498596e-01" nType="0">
                <Node pos="l" depth="5" NCoef="0" IVar="-1" Cut="0.0000000000000000e+00" cType="1" res="-3.4633493050932884e-03" rms="4.9414461851119995e-01" purity="4.4318863749504089e-01" nType="-99"/>
                <Node pos="r" depth="5" NCoef="0" IVar="6" Cut="8.1757441163063049e-02" cType="1" res="-1.4957068860530853e-01" rms="4.5136624574661255e-01" purity="2.9321807622909546e-01" nType="0">
                  <Node pos="l" depth="6" NCoef="0" IVar="2" Cut="9.1026718139648438e+01" cType="1" res="-1.8728722631931305e-01" rms="4.3161731958389282e-01" purity="2.5314643979072571e-01" nType="0">
                    <Node pos="l" depth="7" NCoef="0" IVar="-1" Cut="0.0000000000000000e+00" cType="1" res="-1.5447463840246201e-02" rms="4.4662734866142273e-01" purity="2.8123259544372559e-01" nType="-99"/>
                    <Node pos="r" depth="7" NCoef="0" IVar="-1" Cut="0.0000000000000000e+00" cType="1" res="-2.1179946139454842e-02" rms="4.1778928041458130e-01" purity="2.3040261864662170e-01" nType="-99"/>
                  </Node>
                  <Node pos="r" depth="6" NCoef="0" IVar="-1" Cut="0.0000000000000000e+00" cType="1" res="-9.5217227935791016e-03" rms="4.7125619649887085e-01" purity="3.4509962797164917e-01" nType="-99"/>
                </Node>
              </Node>
            </Node>
            <Node pos="r" depth="3" NCoef="0" IVar="-1" Cut="0.0000000000000000e+00" cType="1" res="-2.7894103899598122e-02" rms="3.4023663401603699e-01" purity="1.3818545639514923e-01" nType="-99"/>
          </Node>
        </Node>
        <Node pos="r" depth="1" NCoef="0" IVar="0" Cut="3.2204878330230713e-01" cType="1" res="1.5938006341457367e-01" rms="4.4004279375076294e-01" purity="7.1652454137802124e-01" nType="0">
          <Node pos="l" depth="2" NCoef="0" IVar="5" Cut="-9.2420095205307007e-01" cType="1" res="1.8486794829368591e-01" rms="4.2516112327575684e-01" purity="7.5271677970886230e-01" nType="0">
            <Node pos="l" depth="3" NCoef="0" IVar="3" Cut="8.7677651643753052e-01" cType="1" res="1.9783839583396912e-01" rms="4.1648867726325989e-01" purity="7.6954793930053711e-01" nType="0">
              <Node pos="l" depth="4" NCoef="0" IVar="1" Cut="1.7100094258785248e-01" cType="1" res="1.3571509718894958e-01" rms="4.6129873394966125e-01" purity="6.8435215950012207e-01" nType="0">
                <Node pos="l" depth="5" NCoef="0" IVar="5" Cut="-1.8624377250671387e+00" cType="1" res="1.7440508306026459e-01" rms="4.4041937589645386e-01" purity="7.3462730646133423e-01" nType="0">
                  <Node pos="l" depth="6" NCoef="0" IVar="3" Cut="8.3021348714828491e-01" cType="1" res="1.8528284132480621e-01" rms="4.3247157335281372e-01" purity="7.4988597631454468e-01" nType="0">
                    <Node pos="l" depth="7" NCoef="0" IVar="-1" Cut="0.0000000000000000e+00" cType="1" res="1.3548278249800205e-02" rms="4.4449579715728760e-01" purity="7.2834122180938721e-01" nType="-99"/>
                    <Node pos="r" depth="7" NCoef="0" IVar="-1" Cut="0.0000000000000000e+00" cType="1" res="1.6275480389595032e-02" rms="4.1452932357788086e-01" purity="7.7930915355682373e-01" nType="-99"/>
                  </Node>
                  <Node pos="r" depth="6" NCoef="0" IVar="-1" Cut="0.0000000000000000e+00" cType="1" res="1.1231484822928905e-02" rms="4.6439155936241150e-01" purity="6.8307036161422729e-01" nType="-99"/>
                </Node>
                <Node pos="r" depth="5" NCoef="0" IVar="1" Cut="8.0244165658950806e-01" cType="1" res="8.7733365595340729e-02" rms="4.8164999485015869e-01" purity="6.2200289964675903e-01" nType="0">
                  <Node pos="l" depth="6" NCoef="0" IVar="3" Cut="8.3538204431533813e-01" cType="1" res="1.2076558917760849e-01" rms="4.6943995356559753e-01" purity="6.6743862628936768e-01" nType="0">
                    <Node pos="l" depth="7" NCoef="0" IVar="-1" Cut="0.0000000000000000e+00" cType="1" res="7.7802794985473156e-03" rms="4.8028597235679626e-01" purity="6.3501262664794922e-01" nType="-99"/>
                    <Node pos="r" depth="7" NCoef="0" IVar="-1" Cut="0.0000000000000000e+00" cType="1" res="1.3193102553486824e-02" rms="4.4654378294944763e-01" purity="7.2344094514846802e-01" nType="-99"/>
                  </Node>
                  <Node pos="r" depth="6" NCoef="0" IVar="3" Cut="8.1469869613647461e-01" cType="1" res="3.6533597856760025e-02" rms="4.9565503001213074e-01" purity="5.5157768726348877e-01" nType="0">
                    <Node pos="l" depth="7" NCoef="0" IVar="-1" Cut="0.0000000000000000e+00" cType="1" res="-4.0463660843670368e-04" rms="4.9949720501899719e-01" purity="5.0015079975128174e-01" nType="-99"/>
                    <Node pos="r" depth="7" NCoef="0" IVar="-1" Cut="0.0000000000000000e+00" cType="1" res="6.0589341446757317e-03" rms="4.8874753713607788e-01" purity="6.0048794746398926e-01" nType="-99"/>
                  </Node>
                </Node>
              </Node>
              <Node pos="r" depth="4" NCoef="0" IVar="1" Cut="7.4559003114700317e-01" cType="1" res="2.2354154288768768e-01" rms="3.9361315965652466e-01" purity="8.0479717254638672e-01" nType="0">
                <Node pos="l" depth="5" NCoef="0" IVar="5" Cut="-2.5823085308074951e+00" cType="1" res="2.4004992842674255e-01" rms="3.7717112898826599e-01" purity="8.2683348655700684e-01" nType="0">
                  <Node pos="l" depth="6" NCoef="0" IVar="1" Cut="2.8731915354728699e-01" cType="1" res="2.6125243306159973e-01" rms="3.5330158472061157e-01" purity="8.5323560237884521e-01" nType="0">
                    <Node pos="l" depth="7" NCoef="0" IVar="-1" Cut="0.0000000000000000e+00" cType="1" res="2.1198572590947151e-02" rms="3.4383004903793335e-01" purity="8.6278384923934937e-01" nType="-99"/>
                    <Node pos="r" depth="7" NCoef="0" IVar="-1" Cut="0.0000000000000000e+00" cType="1" res="1.8311455845832825e-02" rms="3.8556921482086182e-01" purity="8.1734085083007812e-01" nType="-99"/>
                  </Node>
                  <Node pos="r" depth="6" NCoef="0" IVar="1" Cut="2.7350586652755737e-01" cType="1" res="2.1110691130161285e-01" rms="4.0571939945220947e-01" purity="7.9079252481460571e-01" nType="0">
                    <Node pos="l" depth="7" NCoef="0" IVar="-1" Cut="0.0000000000000000e+00" cType="1" res="1.7949676141142845e-02" rms="3.9465218782424927e-01" purity="8.0611836910247803e-01" nType="-99"/>
                    <Node pos="r" depth="7" NCoef="0" IVar="-1" Cut="0.0000000000000000e+00" cType="1" res="1.3468073680996895e-02" rms="4.3884608149528503e-01" purity="7.3799651861190796e-01" nType="-99"/>
                  </Node>
                </Node>
                <Node pos="r" depth="5" NCoef="0" IVar="5" Cut="-2.8002529144287109e+00" cType="1" res="1.4122845232486725e-01" rms="4.5824411511421204e-01" purity="6.9492125511169434e-01" nType="0">
                  <Node pos="l" depth="6" NCoef="0" IVar="-1" Cut="0.0000000000000000e+00" cType="1" res="1.4294663444161415e-02" rms="4.3384036421775818e-01" purity="7.4640709161758423e-01" nType="-99"/>
                  <Node pos="r" depth="6" NCoef="0" IVar="1" Cut="1.3418781757354736e+00" cType="1" res="1.0621108114719391e-01" rms="4.7320061922073364e-01" purity="6.5530562400817871e-01" nType="0">
                    <Node pos="l" depth="7" NCoef="0" IVar="-1" Cut="0.0000000000000000e+00" cType="1" res="1.1814218014478683e-02" rms="4.5531240105628967e-01" purity="7.0349025726318359e-01" nType="-99"/>
                    <Node pos="r" depth="7" NCoef="0" IVar="-1" Cut="0.0000000000000000e+00" cType="1" res="4.6841464936733246e-03" rms="4.8777535557746887e-01" purity="6.0166990756988525e-01" nType="-99"/>
                  </Node>
                </Node>
              </Node>
            </Node>
            <Node pos="r" depth="3" NCoef="0" IVar="1" Cut="3.1068339943885803e-02" cType="1" res="1.4772836118936539e-02" rms="4.9532312154769897e-01" purity="5.3199249505996704e-01" nType="0">
              <Node pos="l" depth="4" NCoef="0" IVar="-1" Cut="0.0000000000000000e+00" cType="1" res="7.6105464249849319e-03" rms="4.8457536101341248e-01" purity="6.1130678653717041e-01" nType="-99"/>
              <Node pos="r" depth="4" NCoef="0" IVar="-1" Cut="0.0000000000000000e+00" cType="1" res="-3.8970168679952621e-03" rms="4.9566310644149780e-01" purity="4.6994489431381226e-01" nType="-99"/>
            </Node>
          </Node>
          <Node pos="r" depth="2" NCoef="0" IVar="0" Cut="1.2570302486419678e+00" cType="1" res="1.5021183528006077e-02" rms="4.9197995662689209e-01" purity="5.1153755187988281e-01" nType="0">
            <Node pos="l" depth="3" NCoef="0" IVar="1" Cut="8.6157178878784180e-01" cType="1" res="4.8694100230932236e-02" rms="4.9136817455291748e-01" purity="5.5395108461380005e-01" nType="0">
              <Node pos="l" depth="4" NCoef="0" IVar="5" Cut="-1.9201524257659912e+00" cType="1" res="7.5483225286006927e-02" rms="4.8729631304740906e-01" purity="5.9103924036026001e-01" nType="0">
                <Node pos="l" depth="5" NCoef="0" IVar="0" Cut="5.0298225879669189e-01" cType="1" res="1.0882665216922760e-01" rms="4.7884118556976318e-01" purity="6.3472408056259155e-01" nType="0">
                  <Node pos="l" depth="6" NCoef="0" IVar="-1" Cut="0.0000000000000000e+00" cType="1" res="1.0736606083810329e-02" rms="4.6676567196846008e-01" purity="6.7431336641311646e-01" nType="-99"/>
                  <Node pos="r" depth="6" NCoef="0" IVar="-1" Cut="0.0000000000000000e+00" cType="1" res="5.6797438301146030e-03" rms="4.9093374609947205e-01" purity="5.8445876836776733e-01" nType="-99"/>
                </Node>
                <Node pos="r" depth="5" NCoef="0" IVar="-1" Cut="0.0000000000000000e+00" cType="1" res="1.7301930347457528e-03" rms="4.9605643749237061e-01" purity="5.1899707317352295e-01" nType="-99"/>
              </Node>
              <Node pos="r" depth="4" NCoef="0" IVar="-1" Cut="0.0000000000000000e+00" cType="1" res="-2.2493237629532814e-03" rms="4.9494418501853943e-01" purity="4.5035159587860107e-01" nType="-99"/>
            </Node>
            <Node pos="r" depth="3" NCoef="0" IVar="-1" Cut="0.0000000000000000e+00" cType="1" res="-1.1980256997048855e-02" rms="4.6946245431900024e-01" purity="3.3589556813240051e-01" nType="-99"/>
          </Node>
        </Node>
      </Node>
    </BinaryTree>
    <BinaryTree type="DecisionTree" boostWeight="1.0000000000000000e+00" itree="9">
      <Node pos="s" depth="0" NCoef="0" IVar="3" Cut="7.1639901399612427e-01" cType="1" res="1.0586130432784557e-02" rms="4.4737887382507324e-01" purity="4.9831050634384155e-01" nType="0">
        <Node pos="l" depth="1" NCoef="0" IVar="3" Cut="5.3467142581939697e-01" cType="1" res="-1.7534185945987701e-01" rms="3.8483145833015442e-01" purity="2.1283458173274994e-01" nType="0">
          <Node pos="l" depth="2" NCoef="0" IVar="0" Cut="9.6736311912536621e-01" cType="1" res="-2.3224912583827972e-01" rms="3.0914756655693054e-01" purity="1.1476775258779526e-01" nType="0">
            <Node pos="l" depth="3" NCoef="0" IVar="4" Cut="9.4604438543319702e-01" cType="1" res="-1.7753048241138458e-01" rms="4.0615224838256836e-01" purity="2.1927958726882935e-01" nType="0">
              <Node pos="l" depth="4" NCoef="0" IVar="6" Cut="8.9196659624576569e-02" cType="1" res="-1.5739110112190247e-01" rms="4.2787402868270874e-01" purity="2.5013044476509094e-01" nType="0">
                <Node pos="l" depth="5" NCoef="0" IVar="-1" Cut="0.0000000000000000e+00" cType="1" res="-2.2334733977913857e-02" rms="3.8304221630096436e-01" purity="1.8388149142265320e-01" nType="-99"/>
                <Node pos="r" depth="5" NCoef="0" IVar="5" Cut="-2.4921011924743652e+00" cType="1" res="-1.2481309473514557e-01" rms="4.5102521777153015e-01" purity="2.9218992590904236e-01" nType="0">
                  <Node pos="l" depth="6" NCoef="0" IVar="-1" Cut="0.0000000000000000e+00" cType="1" res="-8.4281405434012413e-03" rms="4.6816810965538025e-01" purity="3.3584541082382202e-01" nType="-99"/>
                  <Node pos="r" depth="6" NCoef="0" IVar="-1" Cut="0.0000000000000000e+00" cType="1" res="-1.4585038647055626e-02" rms="4.3969652056694031e-01" purity="2.6760038733482361e-01" nType="-99"/>
                </Node>
              </Node>
              <Node pos="r" depth="4" NCoef="0" IVar="-1" Cut="0.0000000000000000e+00" cType="1" res="-2.9508281499147415e-02" rms="2.9489448666572571e-01" purity="9.9542655050754547e-02" nType="-99"/>
            </Node>
            <Node pos="r" depth="3" NCoef="0" IVar="6" Cut="2.6851290464401245e-01" cType="1" res="-2.4641847610473633e-01" rms="2.7681818604469299e-01" purity="8.7704494595527649e-02" nType="0">
              <Node pos="l" depth="4" NCoef="0" IVar="4" Cut="7.4191457033157349e-01" cType="1" res="-2.5145876407623291e-01" rms="2.6758867502212524e-01" purity="8.1388108432292938e-02" nType="0">
                <Node pos="l" depth="5" NCoef="0" IVar="3" Cut="4.1721799969673157e-01" cType="1" res="-2.3589164018630981e-01" rms="3.0235001444816589e-01" purity="1.0590004920959473e-01" nType="0">
                  <Node pos="l" depth="6" NCoef="0" IVar="6" Cut="1.9942544400691986e-01" cType="1" res="-2.4781225621700287e-01" rms="2.7375289797782898e-01" purity="8.4184676408767700e-02" nType="0">
                    <Node pos="l" depth="7" NCoef="0" IVar="-1" Cut="0.0000000000000000e+00" cType="1" res="-3.3803369849920273e-02" rms="2.5422888994216919e-01" purity="7.0905461907386780e-02" nType="-99"/>
                    <Node pos="r" depth="7" NCoef="0" IVar="-1" Cut="0.0000000000000000e+00" cType="1" res="-2.2390987724065781e-02" rms="3.7653344869613647e-01" purity="1.7484025657176971e-01" nType="-99"/>
                  </Node>
                  <Node pos="r" depth="6" NCoef="0" IVar="6" Cut="1.0374616831541061e-01" cType="1" res="-1.9860373437404633e-01" rms="3.7565198540687561e-01" purity="1.7382620275020599e-01" nType="0">
                    <Node pos="l" depth="7" NCoef="0" IVar="-1" Cut="0.0000000000000000e+00" cType="1" res="-2.6100199669599533e-02" rms="3.3879563212394714e-01" purity="1.3343669474124908e-01" nType="-99"/>
                    <Node pos="r" depth="7" NCoef="0" IVar="-1" Cut="0.0000000000000000e+00" cType="1" res="-1.6582209616899490e-02" rms="4.2028114199638367e-01" purity="2.3269642889499664e-01" nType="-99"/>
                  </Node>
                </Node>
                <Node pos="r" depth="5" NCoef="0" IVar="5" Cut="3.4857779741287231e-02" cType="1" res="-2.8024083375930786e-01" rms="1.8356773257255554e-01" purity="3.6067895591259003e-02" nType="0">
                  <Node pos="l" depth="6" NCoef="0" IVar="3" Cut="3.0806246399879456e-01" cType="1" res="-2.6244762539863586e-01" rms="2.4217648804187775e-01" purity="6.4579874277114868e-02" nType="0">
                    <Node pos="l" depth="7" NCoef="0" IVar="-1" Cut="0.0000000000000000e+00" cType="1" res="-3.9155408740043640e-02" rms="1.7570689320564270e-01" purity="3.2466564327478409e-02" nType="-99"/>
                    <Node pos="r" depth="7" NCoef="0" IVar="-1" Cut="0.0000000000000000e+00" cType="1" res="-2.9635254293680191e-02" rms="2.8230115771293640e-01" purity="8.9700900018215179e-02" nType="-99"/>
                  </Node>
                  <Node pos="r" depth="6" NCoef="0" IVar="5" Cut="1.6203577518463135e+00" cType="1" res="-2.8911381959915161e-01" rms="1.4497397840023041e-01" purity="2.1849747747182846e-02" nType="0">
                    <Node pos="l" depth="7" NCoef="0" IVar="-1" Cut="0.0000000000000000e+00" cType="1" res="-3.7215564399957657e-02" rms="1.7994271218776703e-01" purity="3.4087672829627991e-02" nType="-99"/>
                    <Node pos="r" depth="7" NCoef="0" IVar="-1" Cut="0.0000000000000000e+00" cType="1" res="-3.9678361266851425e-02" rms="1.1223555356264114e-01" purity="1.2860222719609737e-02" nType="-99"/>
                  </Node>
                </Node>
              </Node>
              <Node pos="r" depth="4" NCoef="0" IVar="-1" Cut="0.0000000000000000e+00" cType="1" res="-1.7200717702507973e-02" rms="4.0389806032180786e-01" purity="2.0879994332790375e-01" nType="-99"/>
            </Node>
          </Node>
          <Node pos="r" depth="2" NCoef="0" IVar="4" Cut="1.1853992938995361e+00" cType="1" res="-7.2208963334560394e-02" rms="4.7621130943298340e-01" purity="3.9056089520454407e-01" nType="0">
            <Node pos="l" depth="3" NCoef="0" IVar="1" Cut="8.9362454414367676e-01" cType="1" res="-5.3891878575086594e-02" rms="4.8430269956588745e-01" purity="4.1644945740699768e-01" nType="0">
              <Node pos="l" depth="4" NCoef="0" IVar="3" Cut="5.9915757179260254e-01" cType="1" res="-2.6083527132868767e-02" rms="4.9094057083129883e-01" purity="4.5522421598434448e-01" nType="0">
                <Node pos="l" depth="5" NCoef="0" IVar="6" Cut="1.0255821794271469e-01" cType="1" res="-9.0967111289501190e-02" rms="4.7533407807350159e-01" purity="3.5934346914291382e-01" nType="0">
                  <Node pos="l" depth="6" NCoef="0" IVar="2" Cut="1.3420166015625000e+02" cType="1" res="-1.1877170950174332e-01" rms="4.6457371115684509e-01" purity="3.2577228546142578e-01" nType="0">
                    <Node pos="l" depth="7" NCoef="0" IVar="-1" Cut="0.0000000000000000e+00" cType="1" res="-7.7721127308905125e-03" rms="4.7726783156394958e-01" purity="3.6120542883872986e-01" nType="-99"/>
                    <Node pos="r" depth="7" NCoef="0" IVar="-1" Cut="0.0000000000000000e+00" cType="1" res="-1.4944999478757381e-02" rms="4.4837555289268494e-01" purity="2.8946852684020996e-01" nType="-99"/>
                  </Node>
                  <Node pos="r" depth="6" NCoef="0" IVar="-1" Cut="0.0000000000000000e+00" cType="1" res="-3.5536158829927444e-03" rms="4.9047839641571045e-01" purity="4.2141017317771912e-01" nType="-99"/>
                </Node>
                <Node pos="r" depth="5" NCoef="0" IVar="1" Cut="5.1016200333833694e-02" cType="1" res="1.8926380435004830e-03" rms="4.9490097165107727e-01" purity="4.9656563997268677e-01" nType="0">
                  <Node pos="l" depth="6" NCoef="0" IVar="2" Cut="1.1591669464111328e+02" cType="1" res="4.7822691500186920e-02" rms="4.9358344078063965e-01" purity="5.5111443996429443e-01" nType="0">
                    <Node pos="l" depth="7" NCoef="0" IVar="-1" Cut="0.0000000000000000e+00" cType="1" res="6.5966704860329628e-03" rms="4.8856613039970398e-01" purity="5.8915060758590698e-01" nType="-99"/>
                    <Node pos="r" depth="7" NCoef="0" IVar="-1" Cut="0.0000000000000000e+00" cType="1" res="2.1825470030307770e-03" rms="4.9547958374023438e-01" purity="5.2642416954040527e-01" nType="-99"/>
                  </Node>
                  <Node pos="r" depth="6" NCoef="0" IVar="0" Cut="3.0841940641403198e-01" cType="1" res="-4.1457869112491608e-02" rms="4.9222534894943237e-01" purity="4.4508045911788940e-01" nType="0">
                    <Node pos="l" depth="7" NCoef="0" IVar="-1" Cut="0.0000000000000000e+00" cType="1" res="1.3789196964353323e-03" rms="4.9714130163192749e-01" purity="5.2844184637069702e-01" nType="-99"/>
                    <Node pos="r" depth="7" NCoef="0" IVar="-1" Cut="0.0000000000000000e+00" cType="1" res="-6.0054208151996136e-03" rms="4.8795264959335327e-01" purity="4.0889617800712585e-01" nType="-99"/>
                  </Node>
                </Node>
              </Node>
              <Node pos="r" depth="4" NCoef="0" IVar="0" Cut="6.4107084274291992e-01" cType="1" res="-1.4232581853866577e-01" rms="4.5131227374076843e-01" purity="2.9314076900482178e-01" nType="0">
                <Node pos="l" depth="5" NCoef="0" IVar="-1" Cut="0.0000000000000000e+00" cType="1" res="-1.0685882531106472e-02" rms="4.7060447931289673e-01" purity="3.3733561635017395e-01" nType="-99"/>
                <Node pos="r" depth="5" NCoef="0" IVar="-1" Cut="0.0000000000000000e+00" cType="1" res="-1.9206058233976364e-02" rms="4.1886970400810242e-01" purity="2.2996933758258820e-01" nType="-99"/>
              </Node>
            </Node>
            <Node pos="r" depth="3" NCoef="0" IVar="-1" Cut="0.0000000000000000e+00" cType="1" res="-2.4497555568814278e-02" rms="3.6044415831565857e-01" purity="1.6361141204833984e-01" nType="-99"/>
          </Node>
        </Node>
        <Node pos="r" depth="1" NCoef="0" IVar="0" Cut="3.2204878330230713e-01" cType="1" res="1.5171915292739868e-01" rms="4.3988692760467529e-01" purity="7.1500778198242188e-01" nType="0">
          <Node pos="l" depth="2" NCoef="0" IVar="5" Cut="-1.6947140693664551e+00" cType="1" res="1.7667183279991150e-01" rms="4.2529284954071045e-01" purity="7.5162076950073242e-01" nType="0">
            <Node pos="l" depth="3" NCoef="0" IVar="1" Cut="4.6883729100227356e-01" cType="1" res="1.9913877546787262e-01" rms="4.0858766436576843e-01" purity="7.8179681301116943e-01" nType="0">
              <Node pos="l" depth="4" NCoef="0" IVar="3" Cut="8.4908443689346313e-01" cType="1" res="2.2099560499191284e-01" rms="3.8793018460273743e-01" purity="8.1275683641433716e-01" nType="0">
                <Node pos="l" depth="5" NCoef="0" IVar="1" Cut="1.4521037519443780e-04" cType="1" res="1.5228895843029022e-01" rms="4.4957339763641357e-01" purity="7.1707051992416382e-01" nType="0">
                  <Node pos="l" depth="6" NCoef="0" IVar="2" Cut="1.3802803039550781e+02" cType="1" res="1.7118787765502930e-01" rms="4.3879491090774536e-01" purity="7.3893606662750244e-01" nType="0">
                    <Node pos="l" depth="7" NCoef="0" IVar="-1" Cut="0.0000000000000000e+00" cType="1" res="1.4231233857572079e-02" rms="4.3106216192245483e-01" purity="7.5271904468536377e-01" nType="-99"/>
                    <Node pos="r" depth="7" NCoef="0" IVar="-1" Cut="0.0000000000000000e+00" cType="1" res="1.2136547826230526e-02" rms="4.5264819264411926e-01" purity="7.1133261919021606e-01" nType="-99"/>
                  </Node>
                  <Node pos="r" depth="6" NCoef="0" IVar="3" Cut="7.9771971702575684e-01" cType="1" res="1.2499410659074783e-01" rms="4.6334058046340942e-01" purity="6.8549114465713501e-01" nType="0">
                    <Node pos="l" depth="7" NCoef="0" IVar="-1" Cut="0.0000000000000000e+00" cType="1" res="8.0946395173668861e-03" rms="4.7635895013809204e-01" purity="6.5002030134201050e-01" nType="-99"/>
                    <Node pos="r" depth="7" NCoef="0" IVar="-1" Cut="0.0000000000000000e+00" cType="1" res="1.2146352790296078e-02" rms="4.4819867610931396e-01" purity="7.2094243764877319e-01" nType="-99"/>
                  </Node>
                </Node>
                <Node pos="r" depth="5" NCoef="0" IVar="5" Cut="-2.6078550815582275e+00" cType="1" res="2.3793190717697144e-01" rms="3.6920639872550964e-01" purity="8.3634358644485474e-01" nType="0">
                  <Node pos="l" depth="6" NCoef="0" IVar="4" Cut="-9.8907691240310669e-01" cType="1" res="2.5209790468215942e-01" rms="3.5242778062820435e-01" purity="8.5420870780944824e-01" nType="0">
                    <Node pos="l" depth="7" NCoef="0" IVar="-1" Cut="0.0000000000000000e+00" cType="1" res="1.8265957012772560e-02" rms="3.7540683150291443e-01" purity="8.2993346452713013e-01" nType="-99"/>
                    <Node pos="r" depth="7" NCoef="0" IVar="-1" Cut="0.0000000000000000e+00" cType="1" res="2.1346425637602806e-02" rms="3.3598932623863220e-01" purity="8.7019592523574829e-01" nType="-99"/>
                  </Node>
                  <Node pos="r" depth="6" NCoef="0" IVar="4" Cut="-1.0828177928924561e+00" cType="1" res="2.1532441675662994e-01" rms="3.9345294237136841e-01" purity="8.0783283710479736e-01" nType="0">
                    <Node pos="l" depth="7" NCoef="0" IVar="-1" Cut="0.0000000000000000e+00" cType="1" res="1.5161450952291489e-02" rms="4.1542702913284302e-01" purity="7.7773398160934448e-01" nType="-99"/>
                    <Node pos="r" depth="7" NCoef="0" IVar="-1" Cut="0.0000000000000000e+00" cType="1" res="1.8707213923335075e-02" rms="3.7793123722076416e-01" purity="8.2697880268096924e-01" nType="-99"/>
                  </Node>
                </Node>
              </Node>
              <Node pos="r" depth="4" NCoef="0" IVar="3" Cut="9.7680199146270752e-01" cType="1" res="1.3788498938083649e-01" rms="4.5603236556053162e-01" purity="6.9503146409988403e-01" nType="0">
                <Node pos="l" depth="5" NCoef="0" IVar="1" Cut="1.3899753093719482e+00" cType="1" res="9.1079711914062500e-02" rms="4.7938778996467590e-01" purity="6.3033628463745117e-01" nType="0">
                  <Node pos="l" depth="6" NCoef="0" IVar="3" Cut="8.1720709800720215e-01" cType="1" res="1.1739344894886017e-01" rms="4.6993201971054077e-01" purity="6.6250830888748169e-01" nType="0">
                    <Node pos="l" depth="7" NCoef="0" IVar="-1" Cut="0.0000000000000000e+00" cType="1" res="5.3976727649569511e-03" rms="4.9142399430274963e-01" purity="5.8549541234970093e-01" nType="-99"/>
                    <Node pos="r" depth="7" NCoef="0" IVar="-1" Cut="0.0000000000000000e+00" cType="1" res="1.1639658361673355e-02" rms="4.5690998435020447e-01" purity="7.0004457235336304e-01" nType="-99"/>
                  </Node>
                  <Node pos="r" depth="6" NCoef="0" IVar="-1" Cut="0.0000000000000000e+00" cType="1" res="2.2626316640526056e-03" rms="4.9579373002052307e-01" purity="5.5243992805480957e-01" nType="-99"/>
                </Node>
                <Node pos="r" depth="5" NCoef="0" IVar="5" Cut="-2.5494639873504639e+00" cType="1" res="1.7705312371253967e-01" rms="4.3164303898811340e-01" purity="7.4917042255401611e-01" nType="0">
                  <Node pos="l" depth="6" NCoef="0" IVar="1" Cut="1.3886538743972778e+00" cType="1" res="1.9723677635192871e-01" rms="4.1775184869766235e-01" purity="7.7268356084823608e-01" nType="0">
                    <Node pos="l" depth="7" NCoef="0" IVar="-1" Cut="0.0000000000000000e+00" cType="1" res="1.6170084476470947e-02" rms="4.0347403287887573e-01" purity="7.9410499334335327e-01" nType="-99"/>
                    <Node pos="r" depth="7" NCoef="0" IVar="-1" Cut="0.0000000000000000e+00" cType="1" res="1.2449388392269611e-02" rms="4.4565567374229431e-01" purity="7.2561913728713989e-01" nType="-99"/>
                  </Node>
                  <Node pos="r" depth="6" NCoef="0" IVar="-1" Cut="0.0000000000000000e+00" cType="1" res="1.0762384161353111e-02" rms="4.5513033866882324e-01" purity="7.0292830467224121e-01" nType="-99"/>
                </Node>
              </Node>
            </Node>
            <Node pos="r" depth="3" NCoef="0" IVar="1" Cut="9.0320968627929688e-01" cType="1" res="7.7287815511226654e-02" rms="4.7998416423797607e-01" purity="6.1813497543334961e-01" nType="0">
              <Node pos="l" depth="4" NCoef="0" IVar="5" Cut="-4.1038376092910767e-01" cType="1" res="1.0347241163253784e-01" rms="4.7260621190071106e-01" purity="6.4909720420837402e-01" nType="0">
                <Node pos="l" depth="5" NCoef="0" IVar="3" Cut="9.8577612638473511e-01" cType="1" res="1.2398351728916168e-01" rms="4.6500501036643982e-01" purity="6.7576485872268677e-01" nType="0">
                  <Node pos="l" depth="6" NCoef="0" IVar="1" Cut="-1.3735673390328884e-02" cType="1" res="9.6567407250404358e-02" rms="4.7743692994117737e-01" purity="6.3981592655181885e-01" nType="0">
                    <Node pos="l" depth="7" NCoef="0" IVar="-1" Cut="0.0000000000000000e+00" cType="1" res="1.0214025154709816e-02" rms="4.6766889095306396e-01" purity="6.7133891582489014e-01" nType="-99"/>
                    <Node pos="r" depth="7" NCoef="0" IVar="-1" Cut="0.0000000000000000e+00" cType="1" res="6.1600203625857830e-03" rms="4.8493030667304993e-01" purity="6.1104059219360352e-01" nType="-99"/>
                  </Node>
                  <Node pos="r" depth="6" NCoef="0" IVar="1" Cut="-1.9374975934624672e-02" cType="1" res="1.6609939932823181e-01" rms="4.4193089008331299e-01" purity="7.3098868131637573e-01" nType="0">
                    <Node pos="l" depth="7" NCoef="0" IVar="-1" Cut="0.0000000000000000e+00" cType="1" res="1.5116073191165924e-02" rms="4.2456755042076111e-01" purity="7.6156848669052124e-01" nType="-99"/>
                    <Node pos="r" depth="7" NCoef="0" IVar="-1" Cut="0.0000000000000000e+00" cType="1" res="1.1313996277749538e-02" rms="4.5783442258834839e-01" purity="6.9918096065521240e-01" nType="-99"/>
                  </Node>
                </Node>
                <Node pos="r" depth="5" NCoef="0" IVar="-1" Cut="0.0000000000000000e+00" cType="1" res="-7.1195513010025024e-04" rms="4.9738588929176331e-01" purity="5.0397264957427979e-01" nType="-99"/>
              </Node>
              <Node pos="r" depth="4" NCoef="0" IVar="-1" Cut="0.0000000000000000e+00" cType="1" res="-6.2223989516496658e-03" rms="4.9424043297767639e-01" purity="4.4191688299179077e-01" nType="-99"/>
            </Node>
          </Node>
          <Node pos="r" depth="2" NCoef="0" IVar="0" Cut="9.4537013769149780e-01" cType="1" res="1.0996624827384949e-02" rms="4.9131900072097778e-01" purity="5.0852590799331665e-01" nType="0">
            <Node pos="l" depth="3" NCoef="0" IVar="1" Cut="7.3369547724723816e-02" cType="1" res="5.1509577780961990e-02" rms="4.9039998650550842e-01" purity="5.6418251991271973e-01" nType="0">
              <Node pos="l" depth="4" NCoef="0" IVar="3" Cut="8.3802527189254761e-01" cType="1" res="1.0805995762348175e-01" rms="4.7830244898796082e-01" purity="6.3466131687164307e-01" nType="0">
                <Node pos="l" depth="5" NCoef="0" IVar="-1" Cut="0.0000000000000000e+00" cType="1" res="6.3303974457085133e-03" rms="4.8726713657379150e-01" purity="5.9777772426605225e-01" nType="-99"/>
                <Node pos="r" depth="5" NCoef="0" IVar="-1" Cut="0.0000000000000000e+00" cType="1" res="1.0708641260862350e-02" rms="4.6704143285751343e-01" purity="6.7230713367462158e-01" nType="-99"/>
              </Node>
              <Node pos="r" depth="4" NCoef="0" IVar="2" Cut="5.4116958618164062e+01" cType="1" res="1.6650101169943810e-02" rms="4.9449929594993591e-01" purity="5.2073711156845093e-01" nType="0">
                <Node pos="l" depth="5" NCoef="0" IVar="-1" Cut="0.0000000000000000e+00" cType="1" res="5.0042923539876938e-03" rms="4.9089801311492920e-01" purity="5.7368975877761841e-01" nType="-99"/>
                <Node pos="r" depth="5" NCoef="0" IVar="-1" Cut="0.0000000000000000e+00" cType="1" res="-2.8154600877314806e-03" rms="4.9372762441635132e-01" purity="4.6374338865280151e-01" nType="-99"/>
              </Node>
            </Node>
            <Node pos="r" depth="3" NCoef="0" IVar="5" Cut="-2.2356259822845459e+00" cType="1" res="-9.2573121190071106e-02" rms="4.7830772399902344e-01" purity="3.6624211072921753e-01" nType="0">
              <Node pos="l" depth="4" NCoef="0" IVar="-1" Cut="0.0000000000000000e+00" cType="1" res="-3.5596771631389856e-03" rms="4.9384504556655884e-01" purity="4.3233090639114380e-01" nType="-99"/>
              <Node pos="r" depth="4" NCoef="0" IVar="-1" Cut="0.0000000000000000e+00" cType="1" res="-1.3572121970355511e-02" rms="4.5831957459449768e-01" purity="3.0598974227905273e-01" nType="-99"/>
            </Node>
          </Node>
        </Node>
      </Node>
    </BinaryTree>
    <BinaryTree type="DecisionTree" boostWeight="1.0000000000000000e+00" itree="10">
      <Node pos="s" depth="0" NCoef="0" IVar="3" Cut="7.1570873260498047e-01" cType="1" res="1.2572440318763256e-02" rms="4.4338172674179077e-01" purity="4.9941080808639526e-01" nType="0">
        <Node pos="l" depth="1" NCoef="0" IVar="0" Cut="6.4506113529205322e-01" cType="1" res="-1.6549068689346313e-01" rms="3.8309735059738159e-01" purity="2.1277679502964020e-01" nType="0">
          <Node pos="l" depth="2" NCoef="0" IVar="5" Cut="-8.7232315540313721e-01" cType="1" res="-5.1572091877460480e-02" rms="4.7931656241416931e-01" purity="4.1279387474060059e-01" nType="0">
            <Node pos="l" depth="3" NCoef="0" IVar="1" Cut="8.9443355798721313e-01" cType="1" res="-2.6775779202580452e-02" rms="4.8843279480934143e-01" purity="4.4932615756988525e-01" nType="0">
              <Node pos="l" depth="4" NCoef="0" IVar="3" Cut="6.2593019008636475e-01" cType="1" res="-3.3008882310241461e-03" rms="4.9226373434066772e-01" purity="4.8329499363899231e-01" nType="0">
                <Node pos="l" depth="5" NCoef="0" IVar="1" Cut="-1.1011282354593277e-01" cType="1" res="-4.9111034721136093e-02" rms="4.8568668961524963e-01" purity="4.0826651453971863e-01" nType="0">
                  <Node pos="l" depth="6" NCoef="0" IVar="-1" Cut="0.0000000000000000e+00" cType="1" res="6.5181993704754859e-05" rms="4.9458590149879456e-01" purity="4.6682769060134888e-01" nType="-99"/>
                  <Node pos="r" depth="6" NCoef="0" IVar="6" Cut="8.7269857525825500e-02" cType="1" res="-7.3341391980648041e-02" rms="4.7943425178527832e-01" purity="3.7981039285659790e-01" nType="0">
                    <Node pos="l" depth="7" NCoef="0" IVar="-1" Cut="0.0000000000000000e+00" cType="1" res="-1.0073755867779255e-02" rms="4.6887174248695374e-01" purity="3.4237486124038696e-01" nType="-99"/>
                    <Node pos="r" depth="7" NCoef="0" IVar="-1" Cut="0.0000000000000000e+00" cType="1" res="-3.6429860629141331e-03" rms="4.8694720864295959e-01" purity="4.1541716456413269e-01" nType="-99"/>
                  </Node>
                </Node>
                <Node pos="r" depth="5" NCoef="0" IVar="6" Cut="7.5511932373046875e-02" cType="1" res="3.3316276967525482e-02" rms="4.9441543221473694e-01" purity="5.4326713085174561e-01" nType="0">
                  <Node pos="l" depth="6" NCoef="0" IVar="0" Cut="3.5335737466812134e-01" cType="1" res="1.0729609057307243e-03" rms="4.9589866399765015e-01" purity="5.1035082340240479e-01" nType="0">
                    <Node pos="l" depth="7" NCoef="0" IVar="-1" Cut="0.0000000000000000e+00" cType="1" res="3.0064163729548454e-03" rms="4.9419561028480530e-01" purity="5.5968302488327026e-01" nType="-99"/>
                    <Node pos="r" depth="7" NCoef="0" IVar="-1" Cut="0.0000000000000000e+00" cType="1" res="-3.9107417687773705e-03" rms="4.9443450570106506e-01" purity="4.4652864336967468e-01" nType="-99"/>
                  </Node>
                  <Node pos="r" depth="6" NCoef="0" IVar="-1" Cut="0.0000000000000000e+00" cType="1" res="6.2991296872496605e-03" rms="4.8890385031700134e-01" purity="5.8855724334716797e-01" nType="-99"/>
                </Node>
              </Node>
              <Node pos="r" depth="4" NCoef="0" IVar="6" Cut="7.3460780084133148e-02" cType="1" res="-1.1304489523172379e-01" rms="4.6399596333503723e-01" purity="3.2449209690093994e-01" nType="0">
                <Node pos="l" depth="5" NCoef="0" IVar="-1" Cut="0.0000000000000000e+00" cType="1" res="-1.4952813275158405e-02" rms="4.4836372137069702e-01" purity="2.8692203760147095e-01" nType="-99"/>
                <Node pos="r" depth="5" NCoef="0" IVar="-1" Cut="0.0000000000000000e+00" cType="1" res="-7.3335673660039902e-03" rms="4.7425404191017151e-01" purity="3.5633364319801331e-01" nType="-99"/>
              </Node>
            </Node>
            <Node pos="r" depth="3" NCoef="0" IVar="4" Cut="1.2840439081192017e+00" cType="1" res="-1.7013569176197052e-01" rms="4.1299340128898621e-01" purity="2.3811486363410950e-01" nType="0">
              <Node pos="l" depth="4" NCoef="0" IVar="-1" Cut="0.0000000000000000e+00" cType="1" res="-1.0656242258846760e-02" rms="4.6205514669418335e-01" purity="3.2873588800430298e-01" nType="-99"/>
              <Node pos="r" depth="4" NCoef="0" IVar="-1" Cut="0.0000000000000000e+00" cType="1" res="-2.5819936767220497e-02" rms="3.3712849020957947e-01" purity="1.3518415391445160e-01" nType="-99"/>
            </Node>
          </Node>
          <Node pos="r" depth="2" NCoef="0" IVar="3" Cut="4.6569615602493286e-01" cType="1" res="-2.1348363161087036e-01" rms="3.2254284620285034e-01" purity="1.2851127982139587e-01" nType="0">
            <Node pos="l" depth="3" NCoef="0" IVar="6" Cut="1.9198320806026459e-01" cType="1" res="-2.3394134640693665e-01" rms="2.7421933412551880e-01" purity="8.6149416863918304e-02" nType="0">
              <Node pos="l" depth="4" NCoef="0" IVar="4" Cut="7.3417204618453979e-01" cType="1" res="-2.4472996592521667e-01" rms="2.4889646470546722e-01" purity="6.9259732961654663e-02" nType="0">
                <Node pos="l" depth="5" NCoef="0" IVar="3" Cut="3.3534055948257446e-01" cType="1" res="-2.3194146156311035e-01" rms="2.8298249840736389e-01" purity="9.0946130454540253e-02" nType="0">
                  <Node pos="l" depth="6" NCoef="0" IVar="7" Cut="5.0000000000000000e+00" cType="1" res="-2.4353854358196259e-01" rms="2.2212211787700653e-01" purity="5.2420061081647873e-02" nType="0">
                    <Node pos="l" depth="7" NCoef="0" IVar="-1" Cut="0.0000000000000000e+00" cType="1" res="-3.1732406467199326e-02" rms="2.7198615670204163e-01" purity="8.1245727837085724e-02" nType="-99"/>
                    <Node pos="r" depth="7" NCoef="0" IVar="-1" Cut="0.0000000000000000e+00" cType="1" res="-3.6547094583511353e-02" rms="2.0178426802158356e-01" purity="4.2763907462358475e-02" nType="-99"/>
                  </Node>
                  <Node pos="r" depth="6" NCoef="0" IVar="6" Cut="1.2400226294994354e-01" cType="1" res="-2.1429674327373505e-01" rms="3.2985779643058777e-01" purity="1.2761892378330231e-01" nType="0">
                    <Node pos="l" depth="7" NCoef="0" IVar="-1" Cut="0.0000000000000000e+00" cType="1" res="-2.8754768893122673e-02" rms="2.9718953371047974e-01" purity="9.9145375192165375e-02" nType="-99"/>
                    <Node pos="r" depth="7" NCoef="0" IVar="-1" Cut="0.0000000000000000e+00" cType="1" res="-1.9124601036310196e-02" rms="3.9461913704872131e-01" purity="1.9691109657287598e-01" nType="-99"/>
                  </Node>
                </Node>
                <Node pos="r" depth="5" NCoef="0" IVar="4" Cut="1.7302362918853760e+00" cType="1" res="-2.6798141002655029e-01" rms="1.6777662932872772e-01" purity="2.9830502346158028e-02" nType="0">
                  <Node pos="l" depth="6" NCoef="0" IVar="-1" Cut="0.0000000000000000e+00" cType="1" res="-3.3272799104452133e-02" rms="2.3598293960094452e-01" purity="6.0560058802366257e-02" nType="-99"/>
                  <Node pos="r" depth="6" NCoef="0" IVar="6" Cut="1.0574880242347717e-01" cType="1" res="-2.7508759498596191e-01" rms="1.2186751514673233e-01" purity="1.5167032368481159e-02" nType="0">
                    <Node pos="l" depth="7" NCoef="0" IVar="-1" Cut="0.0000000000000000e+00" cType="1" res="-3.8390133529901505e-02" rms="9.6524178981781006e-02" purity="9.3575250357389450e-03" nType="-99"/>
                    <Node pos="r" depth="7" NCoef="0" IVar="-1" Cut="0.0000000000000000e+00" cType="1" res="-3.7684518843889236e-02" rms="1.4522111415863037e-01" purity="2.1750414744019508e-02" nType="-99"/>
                  </Node>
                </Node>
              </Node>
              <Node pos="r" depth="4" NCoef="0" IVar="5" Cut="-1.6885657310485840e+00" cType="1" res="-1.8613938987255096e-01" rms="3.6206227540969849e-01" purity="1.6098381578922272e-01" nType="0">
                <Node pos="l" depth="5" NCoef="0" IVar="-1" Cut="0.0000000000000000e+00" cType="1" res="-1.6237186267971992e-02" rms="4.1198706626892090e-01" purity="2.2175186872482300e-01" nType="-99"/>
                <Node pos="r" depth="5" NCoef="0" IVar="6" Cut="2.3812049627304077e-01" cType="1" res="-2.1715578436851501e-01" rms="3.1566703319549561e-01" purity="1.1505325883626938e-01" nType="0">
                  <Node pos="l" depth="6" NCoef="0" IVar="-1" Cut="0.0000000000000000e+00" cType="1" res="-3.0162433162331581e-02" rms="2.8122231364250183e-01" purity="8.9620620012283325e-02" nType="-99"/>
                  <Node pos="r" depth="6" NCoef="0" IVar="-1" Cut="0.0000000000000000e+00" cType="1" res="-2.4282153695821762e-02" rms="3.4724172949790955e-01" purity="1.4196798205375671e-01" nType="-99"/>
                </Node>
              </Node>
            </Node>
            <Node pos="r" depth="3" NCoef="0" IVar="5" Cut="-9.0808767080307007e-01" cType="1" res="-1.6286423802375793e-01" rms="4.1447579860687256e-01" purity="2.3332908749580383e-01" nType="0">
              <Node pos="l" depth="4" NCoef="0" IVar="1" Cut="7.8624701499938965e-01" cType="1" res="-1.3926538825035095e-01" rms="4.3646234273910522e-01" purity="2.6761311292648315e-01" nType="0">
                <Node pos="l" depth="5" NCoef="0" IVar="6" Cut="1.0807997733354568e-01" cType="1" res="-1.1159299314022064e-01" rms="4.5432305335998535e-01" purity="3.0458700656890869e-01" nType="0">
                  <Node pos="l" depth="6" NCoef="0" IVar="3" Cut="5.7861459255218506e-01" cType="1" res="-1.3596779108047485e-01" rms="4.4016554951667786e-01" purity="2.7478286623954773e-01" nType="0">
                    <Node pos="l" depth="7" NCoef="0" IVar="-1" Cut="0.0000000000000000e+00" cType="1" res="-1.7535220831632614e-02" rms="4.1247087717056274e-01" purity="2.2065816819667816e-01" nType="-99"/>
                    <Node pos="r" depth="7" NCoef="0" IVar="-1" Cut="0.0000000000000000e+00" cType="1" res="-7.0982985198497772e-03" rms="4.8210862278938293e-01" purity="3.7608587741851807e-01" nType="-99"/>
                  </Node>
                  <Node pos="r" depth="6" NCoef="0" IVar="-1" Cut="0.0000000000000000e+00" cType="1" res="-5.3173345513641834e-03" rms="4.8017171025276184e-01" purity="3.7166744470596313e-01" nType="-99"/>
                </Node>
                <Node pos="r" depth="5" NCoef="0" IVar="3" Cut="5.5441075563430786e-01" cType="1" res="-1.8636530637741089e-01" rms="3.9987227320671082e-01" purity="2.0468148589134216e-01" nType="0">
                  <Node pos="l" depth="6" NCoef="0" IVar="-1" Cut="0.0000000000000000e+00" cType="1" res="-2.3258965462446213e-02" rms="3.7130716443061829e-01" purity="1.6856113076210022e-01" nType="-99"/>
                  <Node pos="r" depth="6" NCoef="0" IVar="-1" Cut="0.0000000000000000e+00" cType="1" res="-1.6307236626744270e-02" rms="4.3199640512466431e-01" purity="2.5092819333076477e-01" nType="-99"/>
                </Node>
              </Node>
              <Node pos="r" depth="4" NCoef="0" IVar="2" Cut="2.0442007446289062e+02" cType="1" res="-2.3716755211353302e-01" rms="3.2497394084930420e-01" purity="1.2538258731365204e-01" nType="0">
                <Node pos="l" depth="5" NCoef="0" IVar="-1" Cut="0.0000000000000000e+00" cType="1" res="-2.5513269007205963e-02" rms="3.3729994297027588e-01" purity="1.3759553432464600e-01" nType="-99"/>
                <Node pos="r" depth="5" NCoef="0" IVar="-1" Cut="0.0000000000000000e+00" cType="1" res="-2.7632297948002815e-02" rms="3.1214806437492371e-01" purity="1.1343979835510254e-01" nType="-99"/>
              </Node>
            </Node>
          </Node>
        </Node>
        <Node pos="r" depth="1" NCoef="0" IVar="0" Cut="3.1920397281646729e-01" cType="1" res="1.4743705093860626e-01" rms="4.3831598758697510e-01" purity="7.1650677919387817e-01" nType="0">
          <Node pos="l" depth="2" NCoef="0" IVar="5" Cut="-1.5086820125579834e+00" cType="1" res="1.7119003832340240e-01" rms="4.2393049597740173e-01" purity="7.5299549102783203e-01" nType="0">
            <Node pos="l" depth="3" NCoef="0" IVar="3" Cut="8.7646305561065674e-01" cType="1" res="1.8990482389926910e-01" rms="4.0993586182594299e-01" purity="7.7920407056808472e-01" nType="0">
              <Node pos="l" depth="4" NCoef="0" IVar="1" Cut="6.8247342109680176e-01" cType="1" res="1.3288971781730652e-01" rms="4.5654127001762390e-01" purity="6.9493359327316284e-01" nType="0">
                <Node pos="l" depth="5" NCoef="0" IVar="3" Cut="8.3497565984725952e-01" cType="1" res="1.5342438220977783e-01" rms="4.4463962316513062e-01" purity="7.2552150487899780e-01" nType="0">
                  <Node pos="l" depth="6" NCoef="0" IVar="4" Cut="-2.4330592155456543e+00" cType="1" res="1.3544118404388428e-01" rms="4.5675167441368103e-01" purity="7.0063322782516479e-01" nType="0">
                    <Node pos="l" depth="7" NCoef="0" IVar="-1" Cut="0.0000000000000000e+00" cType="1" res="1.3716078363358974e-02" rms="4.3858727812767029e-01" purity="7.3834925889968872e-01" nType="-99"/>
                    <Node pos="r" depth="7" NCoef="0" IVar="-1" Cut="0.0000000000000000e+00" cType="1" res="1.0097056627273560e-02" rms="4.6220508217811584e-01" purity="6.8767178058624268e-01" nType="-99"/>
                  </Node>
                  <Node pos="r" depth="6" NCoef="0" IVar="5" Cut="-2.4280109405517578e+00" cType="1" res="1.8320730328559875e-01" rms="4.2213788628578186e-01" purity="7.6674038171768188e-01" nType="0">
                    <Node pos="l" depth="7" NCoef="0" IVar="-1" Cut="0.0000000000000000e+00" cType="1" res="1.6208196058869362e-02" rms="4.0746539831161499e-01" purity="7.8896170854568481e-01" nType="-99"/>
                    <Node pos="r" depth="7" NCoef="0" IVar="-1" Cut="0.0000000000000000e+00" cType="1" res="1.2621909379959106e-02" rms="4.3991202116012573e-01" purity="7.3659664392471313e-01" nType="-99"/>
                  </Node>
                </Node>
                <Node pos="r" depth="5" NCoef="0" IVar="1" Cut="1.2814320325851440e+00" cType="1" res="5.4636478424072266e-02" rms="4.9149993062019348e-01" purity="5.7836943864822388e-01" nType="0">
                  <Node pos="l" depth="6" NCoef="0" IVar="-1" Cut="0.0000000000000000e+00" cType="1" res="6.9063855335116386e-03" rms="4.8439666628837585e-01" purity="6.1533105373382568e-01" nType="-99"/>
                  <Node pos="r" depth="6" NCoef="0" IVar="-1" Cut="0.0000000000000000e+00" cType="1" res="1.4884931733831763e-03" rms="4.9730062484741211e-01" purity="5.3463631868362427e-01" nType="-99"/>
                </Node>
              </Node>
              <Node pos="r" depth="4" NCoef="0" IVar="1" Cut="7.4065852165222168e-01" cType="1" res="2.1199317276477814e-01" rms="3.8814362883567810e-01" purity="8.1185150146484375e-01" nType="0">
                <Node pos="l" depth="5" NCoef="0" IVar="5" Cut="-2.4277651309967041e+00" cType="1" res="2.2576606273651123e-01" rms="3.7247756123542786e-01" purity="8.3239501714706421e-01" nType="0">
                  <Node pos="l" depth="6" NCoef="0" IVar="4" Cut="-1.0938857793807983e+00" cType="1" res="2.3736453056335449e-01" rms="3.5848486423492432e-01" purity="8.4791803359985352e-01" nType="0">
                    <Node pos="l" depth="7" NCoef="0" IVar="-1" Cut="0.0000000000000000e+00" cType="1" res="1.6953675076365471e-02" rms="3.8436463475227356e-01" purity="8.1921428442001343e-01" nType="-99"/>
                    <Node pos="r" depth="7" NCoef="0" IVar="-1" Cut="0.0000000000000000e+00" cType="1" res="1.9993904978036880e-02" rms="3.4557369351387024e-01" purity="8.6109423637390137e-01" nType="-99"/>
                  </Node>
                  <Node pos="r" depth="6" NCoef="0" IVar="1" Cut="1.9888055324554443e-01" cType="1" res="1.9858986139297485e-01" rms="4.0205869078636169e-01" purity="7.9602324962615967e-01" nType="0">
                    <Node pos="l" depth="7" NCoef="0" IVar="-1" Cut="0.0000000000000000e+00" cType="1" res="1.7246199771761894e-02" rms="3.8828137516975403e-01" purity="8.1451404094696045e-01" nType="-99"/>
                    <Node pos="r" depth="7" NCoef="0" IVar="-1" Cut="0.0000000000000000e+00" cType="1" res="1.2999151833355427e-02" rms="4.3423190712928772e-01" purity="7.4664813280105591e-01" nType="-99"/>
                  </Node>
                </Node>
                <Node pos="r" depth="5" NCoef="0" IVar="5" Cut="-2.5589594841003418e+00" cType="1" res="1.4472229778766632e-01" rms="4.5100393891334534e-01" purity="7.1151083707809448e-01" nType="0">
                  <Node pos="l" depth="6" NCoef="0" IVar="4" Cut="-6.1573410034179688e-01" cType="1" res="1.6905406117439270e-01" rms="4.3623214960098267e-01" purity="7.4160540103912354e-01" nType="0">
                    <Node pos="l" depth="7" NCoef="0" IVar="-1" Cut="0.0000000000000000e+00" cType="1" res="1.0427453555166721e-02" rms="4.5523163676261902e-01" purity="7.0445519685745239e-01" nType="-99"/>
                    <Node pos="r" depth="7" NCoef="0" IVar="-1" Cut="0.0000000000000000e+00" cType="1" res="1.6079995781183243e-02" rms="4.1246488690376282e-01" purity="7.8153645992279053e-01" nType="-99"/>
                  </Node>
                  <Node pos="r" depth="6" NCoef="0" IVar="-1" Cut="0.0000000000000000e+00" cType="1" res="8.3420285955071449e-03" rms="4.7123268246650696e-01" purity="6.6293746232986450e-01" nType="-99"/>
                </Node>
              </Node>
            </Node>
            <Node pos="r" depth="3" NCoef="0" IVar="1" Cut="9.0067160129547119e-01" cType="1" res="6.1633009463548660e-02" rms="4.8371329903602600e-01" purity="5.9956938028335571e-01" nType="0">
              <Node pos="l" depth="4" NCoef="0" IVar="5" Cut="-4.1890406608581543e-01" cType="1" res="9.0238884091377258e-02" rms="4.7695758938789368e-01" purity="6.3360488414764404e-01" nType="0">
                <Node pos="l" depth="5" NCoef="0" IVar="3" Cut="9.6347975730895996e-01" cType="1" res="1.1369007825851440e-01" rms="4.6886390447616577e-01" purity="6.6478884220123291e-01" nType="0">
                  <Node pos="l" depth="6" NCoef="0" IVar="1" Cut="-5.0745349377393723e-02" cType="1" res="8.3977714180946350e-02" rms="4.8170232772827148e-01" purity="6.2424588203430176e-01" nType="0">
                    <Node pos="l" depth="7" NCoef="0" IVar="-1" Cut="0.0000000000000000e+00" cType="1" res="1.0037329979240894e-02" rms="4.6931591629981995e-01" purity="6.6711080074310303e-01" nType="-99"/>
                    <Node pos="r" depth="7" NCoef="0" IVar="-1" Cut="0.0000000000000000e+00" cType="1" res="4.7067236155271530e-03" rms="4.8943242430686951e-01" purity="5.8987057209014893e-01" nType="-99"/>
                  </Node>
                  <Node pos="r" depth="6" NCoef="0" IVar="-1" Cut="0.0000000000000000e+00" cType="1" res="1.2233790010213852e-02" rms="4.4899350404739380e-01" purity="7.1679186820983887e-01" nType="-99"/>
                </Node>
                <Node pos="r" depth="5" NCoef="0" IVar="-1" Cut="0.0000000000000000e+00" cType="1" res="-3.6104136961512268e-04" rms="4.9716377258300781e-01" purity="5.0815480947494507e-01" nType="-99"/>
              </Node>
              <Node pos="r" depth="4" NCoef="0" IVar="-1" Cut="0.0000000000000000e+00" cType="1" res="-8.2123400643467903e-03" rms="4.9065247178077698e-01" purity="4.1572934389114380e-01" nType="-99"/>
            </Node>
          </Node>
          <Node pos="r" depth="2" NCoef="0" IVar="0" Cut="9.3702006340026855e-01" cType="1" res="1.4588512480258942e-02" rms="4.9060192704200745e-01" purity="5.1242846250534058e-01" nType="0">
            <Node pos="l" depth="3" NCoef="0" IVar="5" Cut="-1.8539657592773438e+00" cType="1" res="5.4352607578039169e-02" rms="4.8951241374015808e-01" purity="5.6898736953735352e-01" nType="0">
              <Node pos="l" depth="4" NCoef="0" IVar="3" Cut="8.3544367551803589e-01" cType="1" res="8.8218539953231812e-02" rms="4.8301818966865540e-01" purity="6.1299443244934082e-01" nType="0">
                <Node pos="l" depth="5" NCoef="0" IVar="-1" Cut="0.0000000000000000e+00" cType="1" res="3.9885514415800571e-03" rms="4.9243545532226562e-01" purity="5.6481212377548218e-01" nType="-99"/>
                <Node pos="r" depth="5" NCoef="0" IVar="-1" Cut="0.0000000000000000e+00" cType="1" res="9.5050130039453506e-03" rms="4.7261968255043030e-01" purity="6.5282547473907471e-01" nType="-99"/>
              </Node>
              <Node pos="r" depth="4" NCoef="0" IVar="4" Cut="-6.9570228457450867e-02" cType="1" res="-6.9930218160152435e-03" rms="4.9519923329353333e-01" purity="4.8927173018455505e-01" nType="0">
                <Node pos="l" depth="5" NCoef="0" IVar="-1" Cut="0.0000000000000000e+00" cType="1" res="2.2562441881746054e-03" rms="4.9618336558341980e-01" purity="5.3045922517776489e-01" nType="-99"/>
                <Node pos="r" depth="5" NCoef="0" IVar="-1" Cut="0.0000000000000000e+00" cType="1" res="-3.9336439222097397e-03" rms="4.9142551422119141e-01" purity="4.4420477747917175e-01" nType="-99"/>
              </Node>
            </Node>
            <Node pos="r" depth="3" NCoef="0" IVar="5" Cut="-2.0684401988983154e+00" cType="1" res="-8.7498240172863007e-02" rms="4.7848784923553467e-01" purity="3.6722430586814880e-01" nType="0">
              <Node pos="l" depth="4" NCoef="0" IVar="-1" Cut="0.0000000000000000e+00" cType="1" res="-3.8316631689667702e-03" rms="4.9307543039321899e-01" purity="4.2644158005714417e-01" nType="-99"/>
              <Node pos="r" depth="4" NCoef="0" IVar="-1" Cut="0.0000000000000000e+00" cType="1" res="-1.3899425044655800e-02" rms="4.5518913865089417e-01" purity="2.9811188578605652e-01" nType="-99"/>
            </Node>
          </Node>
        </Node>
      </Node>
    </BinaryTree>
    <BinaryTree type="DecisionTree" boostWeight="1.0000000000000000e+00" itree="11">
      <Node pos="s" depth="0" NCoef="0" IVar="3" Cut="7.1310418844223022e-01" cType="1" res="1.4110466465353966e-02" rms="4.4016480445861816e-01" purity="5.0053697824478149e-01" nType="0">
        <Node pos="l" depth="1" NCoef="0" IVar="3" Cut="5.5473542213439941e-01" cType="1" res="-1.5582425892353058e-01" rms="3.8198155164718628e-01" purity="2.1309141814708710e-01" nType="0">
          <Node pos="l" depth="2" NCoef="0" IVar="0" Cut="9.6730959415435791e-01" cType="1" res="-2.0405842363834381e-01" rms="3.1608623266220093e-01" purity="1.2274928390979767e-01" nType="0">
            <Node pos="l" depth="3" NCoef="0" IVar="5" Cut="-1.1833332777023315e+00" cType="1" res="-1.5171627700328827e-01" rms="4.1375038027763367e-01" purity="2.3387059569358826e-01" nType="0">
              <Node pos="l" depth="4" NCoef="0" IVar="6" Cut="8.7889917194843292e-02" cType="1" res="-1.2404908239841461e-01" rms="4.4142380356788635e-01" purity="2.7763831615447998e-01" nType="0">
                <Node pos="l" depth="5" NCoef="0" IVar="0" Cut="7.4887698888778687e-01" cType="1" res="-1.7171187698841095e-01" rms="4.0328690409660339e-01" purity="2.1022737026214600e-01" nType="0">
                  <Node pos="l" depth="6" NCoef="0" IVar="-1" Cut="0.0000000000000000e+00" cType="1" res="-1.6058603301644325e-02" rms="4.2268341779708862e-01" purity="2.4041733145713806e-01" nType="-99"/>
                  <Node pos="r" depth="6" NCoef="0" IVar="-1" Cut="0.0000000000000000e+00" cType="1" res="-2.0544724538922310e-02" rms="3.8146278262138367e-01" purity="1.7882053554058075e-01" nType="-99"/>
                </Node>
                <Node pos="r" depth="5" NCoef="0" IVar="3" Cut="4.6719899773597717e-01" cType="1" res="-9.0055190026760101e-02" rms="4.6374037861824036e-01" purity="3.2571691274642944e-01" nType="0">
                  <Node pos="l" depth="6" NCoef="0" IVar="-1" Cut="0.0000000000000000e+00" cType="1" res="-1.4304591342806816e-02" rms="4.3627277016639709e-01" purity="2.6119652390480042e-01" nType="-99"/>
                  <Node pos="r" depth="6" NCoef="0" IVar="-1" Cut="0.0000000000000000e+00" cType="1" res="-5.1428410224616528e-03" rms="4.7961479425430298e-01" purity="3.7235483527183533e-01" nType="-99"/>
                </Node>
              </Node>
              <Node pos="r" depth="4" NCoef="0" IVar="0" Cut="7.4885863065719604e-01" cType="1" res="-2.1754588186740875e-01" rms="3.2973644137382507e-01" purity="1.2973234057426453e-01" nType="0">
                <Node pos="l" depth="5" NCoef="0" IVar="-1" Cut="0.0000000000000000e+00" cType="1" res="-2.2777233272790909e-02" rms="3.5352250933647156e-01" purity="1.5395252406597137e-01" nType="-99"/>
                <Node pos="r" depth="5" NCoef="0" IVar="-1" Cut="0.0000000000000000e+00" cType="1" res="-2.7467204257845879e-02" rms="3.0157002806663513e-01" purity="1.0404153168201447e-01" nType="-99"/>
              </Node>
            </Node>
            <Node pos="r" depth="3" NCoef="0" IVar="5" Cut="-1.2460906505584717e+00" cType="1" res="-2.2051627933979034e-01" rms="2.7634418010711670e-01" purity="8.7809614837169647e-02" nType="0">
              <Node pos="l" depth="4" NCoef="0" IVar="6" Cut="1.0301903635263443e-01" cType="1" res="-2.0406252145767212e-01" rms="3.1200498342514038e-01" purity="1.1463957279920578e-01" nType="0">
                <Node pos="l" depth="5" NCoef="0" IVar="3" Cut="4.1458007693290710e-01" cType="1" res="-2.2934582829475403e-01" rms="2.6096647977828979e-01" purity="7.5598366558551788e-02" nType="0">
                  <Node pos="l" depth="6" NCoef="0" IVar="2" Cut="8.0708915710449219e+01" cType="1" res="-2.4096946418285370e-01" rms="2.1581771969795227e-01" purity="4.9400750547647476e-02" nType="0">
                    <Node pos="l" depth="7" NCoef="0" IVar="-1" Cut="0.0000000000000000e+00" cType="1" res="-3.1677208840847015e-02" rms="2.5350680947303772e-01" purity="6.9795839488506317e-02" nType="-99"/>
                    <Node pos="r" depth="7" NCoef="0" IVar="-1" Cut="0.0000000000000000e+00" cType="1" res="-3.4597583115100861e-02" rms="1.9906954467296600e-01" purity="4.1629105806350708e-02" nType="-99"/>
                  </Node>
                  <Node pos="r" depth="6" NCoef="0" IVar="-1" Cut="0.0000000000000000e+00" cType="1" res="-2.3992231115698814e-02" rms="3.4097659587860107e-01" purity="1.3544513285160065e-01" nType="-99"/>
                </Node>
                <Node pos="r" depth="5" NCoef="0" IVar="0" Cut="1.8406088352203369e+00" cType="1" res="-1.7817807197570801e-01" rms="3.5491064190864563e-01" purity="1.5460903942584991e-01" nType="0">
                  <Node pos="l" depth="6" NCoef="0" IVar="6" Cut="1.4663697779178619e-01" cType="1" res="-1.4445023238658905e-01" rms="4.0059033036231995e-01" purity="2.0641891658306122e-01" nType="0">
                    <Node pos="l" depth="7" NCoef="0" IVar="-1" Cut="0.0000000000000000e+00" cType="1" res="-1.9558209925889969e-02" rms="3.7667563557624817e-01" purity="1.7478123307228088e-01" nType="-99"/>
                    <Node pos="r" depth="7" NCoef="0" IVar="-1" Cut="0.0000000000000000e+00" cType="1" res="-1.3712408021092415e-02" rms="4.2101079225540161e-01" purity="2.3632621765136719e-01" nType="-99"/>
                  </Node>
                  <Node pos="r" depth="6" NCoef="0" IVar="6" Cut="2.0747108757495880e-01" cType="1" res="-2.0601847767829895e-01" rms="3.0945205688476562e-01" purity="1.1184292286634445e-01" nType="0">
                    <Node pos="l" depth="7" NCoef="0" IVar="-1" Cut="0.0000000000000000e+00" cType="1" res="-3.1211255118250847e-02" rms="2.6983261108398438e-01" purity="8.1356406211853027e-02" nType="-99"/>
                    <Node pos="r" depth="7" NCoef="0" IVar="-1" Cut="0.0000000000000000e+00" cType="1" res="-1.9734140485525131e-02" rms="3.8592180609703064e-01" purity="1.8546256422996521e-01" nType="-99"/>
                  </Node>
                </Node>
              </Node>
              <Node pos="r" depth="4" NCoef="0" IVar="6" Cut="2.2975565493106842e-01" cType="1" res="-2.4356944859027863e-01" rms="2.1461382508277893e-01" purity="5.0218451768159866e-02" nType="0">
                <Node pos="l" depth="5" NCoef="0" IVar="4" Cut="7.1607792377471924e-01" cType="1" res="-2.4911859631538391e-01" rms="1.9549405574798584e-01" purity="4.1224952787160873e-02" nType="0">
                  <Node pos="l" depth="6" NCoef="0" IVar="-1" Cut="0.0000000000000000e+00" cType="1" res="-3.0171018093824387e-02" rms="2.7447971701622009e-01" purity="8.4147088229656219e-02" nType="-99"/>
                  <Node pos="r" depth="6" NCoef="0" IVar="5" Cut="1.4041476249694824e+00" cType="1" res="-2.5552958250045776e-01" rms="1.6243092715740204e-01" purity="2.7740305289626122e-02" nType="0">
                    <Node pos="l" depth="7" NCoef="0" IVar="-1" Cut="0.0000000000000000e+00" cType="1" res="-3.4232795238494873e-02" rms="1.9959510862827301e-01" purity="4.2390391230583191e-02" nType="-99"/>
                    <Node pos="r" depth="7" NCoef="0" IVar="-1" Cut="0.0000000000000000e+00" cType="1" res="-3.7845797836780548e-02" rms="1.0363277792930603e-01" purity="1.0861420072615147e-02" nType="-99"/>
                  </Node>
                </Node>
                <Node pos="r" depth="5" NCoef="0" IVar="-1" Cut="0.0000000000000000e+00" cType="1" res="-2.5667957961559296e-02" rms="3.2733666896820068e-01" purity="1.2287698686122894e-01" nType="-99"/>
              </Node>
            </Node>
          </Node>
          <Node pos="r" depth="2" NCoef="0" IVar="5" Cut="-4.8995110392570496e-01" cType="1" res="-5.1464214920997620e-02" rms="4.7907209396362305e-01" purity="4.0855678915977478e-01" nType="0">
            <Node pos="l" depth="3" NCoef="0" IVar="1" Cut="1.0038193464279175e+00" cType="1" res="-3.1902901828289032e-02" rms="4.8704719543457031e-01" purity="4.3770352005958557e-01" nType="0">
              <Node pos="l" depth="4" NCoef="0" IVar="0" Cut="3.1126779317855835e-01" cType="1" res="-8.2653630524873734e-03" rms="4.9240499734878540e-01" purity="4.7313159704208374e-01" nType="0">
                <Node pos="l" depth="5" NCoef="0" IVar="6" Cut="6.4699806272983551e-02" cType="1" res="5.4727558046579361e-02" rms="4.9233579635620117e-01" purity="5.7212686538696289e-01" nType="0">
                  <Node pos="l" depth="6" NCoef="0" IVar="-1" Cut="0.0000000000000000e+00" cType="1" res="1.5723847318440676e-03" rms="4.9610620737075806e-01" purity="5.3726148605346680e-01" nType="-99"/>
                  <Node pos="r" depth="6" NCoef="0" IVar="-1" Cut="0.0000000000000000e+00" cType="1" res="7.3077129200100899e-03" rms="4.8598140478134155e-01" purity="6.0633957386016846e-01" nType="-99"/>
                </Node>
                <Node pos="r" depth="5" NCoef="0" IVar="6" Cut="4.9301818013191223e-02" cType="1" res="-3.2922465354204178e-02" rms="4.9023279547691345e-01" purity="4.3438225984573364e-01" nType="0">
                  <Node pos="l" depth="6" NCoef="0" IVar="-1" Cut="0.0000000000000000e+00" cType="1" res="-8.7557211518287659e-03" rms="4.7793945670127869e-01" purity="3.6686950922012329e-01" nType="-99"/>
                  <Node pos="r" depth="6" NCoef="0" IVar="3" Cut="6.2114882469177246e-01" cType="1" res="-1.2912879697978497e-02" rms="4.9250549077987671e-01" purity="4.5631372928619385e-01" nType="0">
                    <Node pos="l" depth="7" NCoef="0" IVar="-1" Cut="0.0000000000000000e+00" cType="1" res="-4.7439355403184891e-03" rms="4.8480850458145142e-01" purity="3.9487084746360779e-01" nType="-99"/>
                    <Node pos="r" depth="7" NCoef="0" IVar="-1" Cut="0.0000000000000000e+00" cType="1" res="1.6030551632866263e-03" rms="4.9641522765159607e-01" purity="5.0629591941833496e-01" nType="-99"/>
                  </Node>
                </Node>
              </Node>
              <Node pos="r" depth="4" NCoef="0" IVar="3" Cut="6.3134884834289551e-01" cType="1" res="-1.2284416705369949e-01" rms="4.5453855395317078e-01" purity="3.0140018463134766e-01" nType="0">
                <Node pos="l" depth="5" NCoef="0" IVar="-1" Cut="0.0000000000000000e+00" cType="1" res="-1.6058932989835739e-02" rms="4.2999869585037231e-01" purity="2.4829736351966858e-01" nType="-99"/>
                <Node pos="r" depth="5" NCoef="0" IVar="-1" Cut="0.0000000000000000e+00" cType="1" res="-8.5371909663081169e-03" rms="4.7356539964675903e-01" purity="3.4956613183021545e-01" nType="-99"/>
              </Node>
            </Node>
            <Node pos="r" depth="3" NCoef="0" IVar="-1" Cut="0.0000000000000000e+00" cType="1" res="-2.0440299063920975e-02" rms="3.8761031627655029e-01" purity="1.9613073766231537e-01" nType="-99"/>
          </Node>
        </Node>
        <Node pos="r" depth="1" NCoef="0" IVar="0" Cut="3.2204881310462952e-01" cType="1" res="1.4123125374317169e-01" rms="4.3791154026985168e-01" purity="7.1556246280670166e-01" nType="0">
          <Node pos="l" depth="2" NCoef="0" IVar="5" Cut="-2.0338079929351807e+00" cType="1" res="1.6407291591167450e-01" rms="4.2378965020179749e-01" purity="7.5234168767929077e-01" nType="0">
            <Node pos="l" depth="3" NCoef="0" IVar="3" Cut="8.8419926166534424e-01" cType="1" res="1.9025166332721710e-01" rms="4.0251204371452332e-01" purity="7.9001796245574951e-01" nType="0">
              <Node pos="l" depth="4" NCoef="0" IVar="1" Cut="5.2128654718399048e-01" cType="1" res="1.3809797167778015e-01" rms="4.4999203085899353e-01" purity="7.0931220054626465e-01" nType="0">
                <Node pos="l" depth="5" NCoef="0" IVar="0" Cut="2.0776000618934631e-01" cType="1" res="1.6253159940242767e-01" rms="4.3388643860816956e-01" purity="7.4627697467803955e-01" nType="0">
                  <Node pos="l" depth="6" NCoef="0" IVar="3" Cut="8.3453023433685303e-01" cType="1" res="1.7337659001350403e-01" rms="4.2618715763092041e-01" purity="7.5979316234588623e-01" nType="0">
                    <Node pos="l" depth="7" NCoef="0" IVar="-1" Cut="0.0000000000000000e+00" cType="1" res="1.2076589278876781e-02" rms="4.4234073162078857e-01" purity="7.3205512762069702e-01" nType="-99"/>
                    <Node pos="r" depth="7" NCoef="0" IVar="-1" Cut="0.0000000000000000e+00" cType="1" res="1.5301441773772240e-02" rms="4.1005638241767883e-01" purity="7.8549456596374512e-01" nType="-99"/>
                  </Node>
                  <Node pos="r" depth="6" NCoef="0" IVar="-1" Cut="0.0000000000000000e+00" cType="1" res="1.0923341847956181e-02" rms="4.5880129933357239e-01" purity="6.9678163528442383e-01" nType="-99"/>
                </Node>
                <Node pos="r" depth="5" NCoef="0" IVar="3" Cut="8.2348906993865967e-01" cType="1" res="6.7342810332775116e-02" rms="4.8680663108825684e-01" purity="6.0226929187774658e-01" nType="0">
                  <Node pos="l" depth="6" NCoef="0" IVar="-1" Cut="0.0000000000000000e+00" cType="1" res="2.9575673397630453e-03" rms="4.9531736969947815e-01" purity="5.5580741167068481e-01" nType="-99"/>
                  <Node pos="r" depth="6" NCoef="0" IVar="-1" Cut="0.0000000000000000e+00" cType="1" res="8.1586539745330811e-03" rms="4.7539585828781128e-01" purity="6.5124714374542236e-01" nType="-99"/>
                </Node>
              </Node>
              <Node pos="r" depth="4" NCoef="0" IVar="1" Cut="5.3654247522354126e-01" cType="1" res="2.1109795570373535e-01" rms="3.7988838553428650e-01" purity="8.2227671146392822e-01" nType="0">
                <Node pos="l" depth="5" NCoef="0" IVar="5" Cut="-2.6948649883270264e+00" cType="1" res="2.2643326222896576e-01" rms="3.6060622334480286e-01" purity="8.4573280811309814e-01" nType="0">
                  <Node pos="l" depth="6" NCoef="0" IVar="4" Cut="-1.1976845264434814e+00" cType="1" res="2.3681193590164185e-01" rms="3.4780704975128174e-01" purity="8.5878652334213257e-01" nType="0">
                    <Node pos="l" depth="7" NCoef="0" IVar="-1" Cut="0.0000000000000000e+00" cType="1" res="1.6733309254050255e-02" rms="3.7609812617301941e-01" purity="8.2926148176193237e-01" nType="-99"/>
                    <Node pos="r" depth="7" NCoef="0" IVar="-1" Cut="0.0000000000000000e+00" cType="1" res="2.0005350932478905e-02" rms="3.3620467782020569e-01" purity="8.6995017528533936e-01" nType="-99"/>
                  </Node>
                  <Node pos="r" depth="6" NCoef="0" IVar="4" Cut="-5.5359137058258057e-01" cType="1" res="2.0822633802890778e-01" rms="3.8134306669235229e-01" purity="8.2283324003219604e-01" nType="0">
                    <Node pos="l" depth="7" NCoef="0" IVar="-1" Cut="0.0000000000000000e+00" cType="1" res="1.5403436496853828e-02" rms="3.9461007714271545e-01" purity="8.0640131235122681e-01" nType="-99"/>
                    <Node pos="r" depth="7" NCoef="0" IVar="-1" Cut="0.0000000000000000e+00" cType="1" res="1.8652869388461113e-02" rms="3.6406964063644409e-01" purity="8.4259957075119019e-01" nType="-99"/>
                  </Node>
                </Node>
                <Node pos="r" depth="5" NCoef="0" IVar="1" Cut="1.1462920904159546e+00" cType="1" res="1.5904045104980469e-01" rms="4.3505907058715820e-01" purity="7.4265235662460327e-01" nType="0">
                  <Node pos="l" depth="6" NCoef="0" IVar="3" Cut="9.9845373630523682e-01" cType="1" res="1.8431434035301208e-01" rms="4.1477480530738831e-01" purity="7.7747511863708496e-01" nType="0">
                    <Node pos="l" depth="7" NCoef="0" IVar="-1" Cut="0.0000000000000000e+00" cType="1" res="1.3053388334810734e-02" rms="4.3150627613067627e-01" purity="7.5048232078552246e-01" nType="-99"/>
                    <Node pos="r" depth="7" NCoef="0" IVar="-1" Cut="0.0000000000000000e+00" cType="1" res="1.5851207077503204e-02" rms="3.9361009001731873e-01" purity="8.0740374326705933e-01" nType="-99"/>
                  </Node>
                  <Node pos="r" depth="6" NCoef="0" IVar="4" Cut="-6.2480968236923218e-01" cType="1" res="1.2573465704917908e-01" rms="4.5830318331718445e-01" purity="6.9676303863525391e-01" nType="0">
                    <Node pos="l" depth="7" NCoef="0" IVar="-1" Cut="0.0000000000000000e+00" cType="1" res="7.3372060433030128e-03" rms="4.7302779555320740e-01" purity="6.5948385000228882e-01" nType="-99"/>
                    <Node pos="r" depth="7" NCoef="0" IVar="-1" Cut="0.0000000000000000e+00" cType="1" res="1.2379372492432594e-02" rms="4.4212952256202698e-01" purity="7.3213940858840942e-01" nType="-99"/>
                  </Node>
                </Node>
              </Node>
            </Node>
            <Node pos="r" depth="3" NCoef="0" IVar="1" Cut="6.7731249332427979e-01" cType="1" res="9.6599571406841278e-02" rms="4.6754032373428345e-01" purity="6.5523463487625122e-01" nType="0">
              <Node pos="l" depth="4" NCoef="0" IVar="5" Cut="-7.2926193475723267e-01" cType="1" res="1.2219253182411194e-01" rms="4.5695346593856812e-01" purity="6.9011020660400391e-01" nType="0">
                <Node pos="l" depth="5" NCoef="0" IVar="3" Cut="8.7609976530075073e-01" cType="1" res="1.4186161756515503e-01" rms="4.4583150744438171e-01" purity="7.2071075439453125e-01" nType="0">
                  <Node pos="l" depth="6" NCoef="0" IVar="6" Cut="4.7292992472648621e-02" cType="1" res="1.0045039653778076e-01" rms="4.7189840674400330e-01" purity="6.5963405370712280e-01" nType="0">
                    <Node pos="l" depth="7" NCoef="0" IVar="-1" Cut="0.0000000000000000e+00" cType="1" res="6.1478889547288418e-03" rms="4.7961339354515076e-01" purity="6.3369667530059814e-01" nType="-99"/>
                    <Node pos="r" depth="7" NCoef="0" IVar="-1" Cut="0.0000000000000000e+00" cType="1" res="1.0262795723974705e-02" rms="4.6264675259590149e-01" purity="6.8480342626571655e-01" nType="-99"/>
                  </Node>
                  <Node pos="r" depth="6" NCoef="0" IVar="1" Cut="-1.2900775671005249e-01" cType="1" res="1.6814723610877991e-01" rms="4.2638206481933594e-01" purity="7.5947886705398560e-01" nType="0">
                    <Node pos="l" depth="7" NCoef="0" IVar="-1" Cut="0.0000000000000000e+00" cType="1" res="1.5487808734178543e-02" rms="4.0755382180213928e-01" purity="7.8844469785690308e-01" nType="-99"/>
                    <Node pos="r" depth="7" NCoef="0" IVar="-1" Cut="0.0000000000000000e+00" cType="1" res="1.2520271353423595e-02" rms="4.3855479359626770e-01" purity="7.3888033628463745e-01" nType="-99"/>
                  </Node>
                </Node>
                <Node pos="r" depth="5" NCoef="0" IVar="-1" Cut="0.0000000000000000e+00" cType="1" res="3.1455354765057564e-03" rms="4.9353247880935669e-01" purity="5.5653971433639526e-01" nType="-99"/>
              </Node>
              <Node pos="r" depth="4" NCoef="0" IVar="1" Cut="1.2760871648788452e+00" cType="1" res="-2.7073435485363007e-03" rms="4.9413394927978516e-01" purity="5.1990872621536255e-01" nType="0">
                <Node pos="l" depth="5" NCoef="0" IVar="-1" Cut="0.0000000000000000e+00" cType="1" res="4.4036740437150002e-03" rms="4.8786166310310364e-01" purity="5.8231747150421143e-01" nType="-99"/>
                <Node pos="r" depth="5" NCoef="0" IVar="-1" Cut="0.0000000000000000e+00" cType="1" res="-5.9301592409610748e-03" rms="4.9335330724716187e-01" purity="4.4634214043617249e-01" nType="-99"/>
              </Node>
            </Node>
          </Node>
          <Node pos="r" depth="2" NCoef="0" IVar="0" Cut="9.4536918401718140e-01" cType="1" res="1.4217715710401535e-02" rms="4.9030515551567078e-01" purity="5.1104742288589478e-01" nType="0">
            <Node pos="l" depth="3" NCoef="0" IVar="1" Cut="1.2013459205627441e+00" cType="1" res="5.0916362553834915e-02" rms="4.8981612920761108e-01" purity="5.6623464822769165e-01" nType="0">
              <Node pos="l" depth="4" NCoef="0" IVar="5" Cut="-1.8584004640579224e+00" cType="1" res="6.9720841944217682e-02" rms="4.8693394660949707e-01" purity="5.9275859594345093e-01" nType="0">
                <Node pos="l" depth="5" NCoef="0" IVar="0" Cut="5.0296938419342041e-01" cType="1" res="9.5247089862823486e-02" rms="4.8034068942070007e-01" purity="6.3055908679962158e-01" nType="0">
                  <Node pos="l" depth="6" NCoef="0" IVar="-1" Cut="0.0000000000000000e+00" cType="1" res="9.0964622795581818e-03" rms="4.7264409065246582e-01" purity="6.5672171115875244e-01" nType="-99"/>
                  <Node pos="r" depth="6" NCoef="0" IVar="-1" Cut="0.0000000000000000e+00" cType="1" res="5.1914462819695473e-03" rms="4.8985409736633301e-01" purity="5.9156471490859985e-01" nType="-99"/>
                </Node>
                <Node pos="r" depth="5" NCoef="0" IVar="-1" Cut="0.0000000000000000e+00" cType="1" res="2.0636529661715031e-03" rms="4.9517422914505005e-01" purity="5.2585864067077637e-01" nType="-99"/>
              </Node>
              <Node pos="r" depth="4" NCoef="0" IVar="-1" Cut="0.0000000000000000e+00" cType="1" res="-3.3387527801096439e-03" rms="4.9357125163078308e-01" purity="4.3961834907531738e-01" nType="-99"/>
            </Node>
            <Node pos="r" depth="3" NCoef="0" IVar="5" Cut="-2.2653849124908447e+00" cType="1" res="-7.9148866236209869e-02" rms="4.7903531789779663e-01" purity="3.7064325809478760e-01" nType="0">
              <Node pos="l" depth="4" NCoef="0" IVar="-1" Cut="0.0000000000000000e+00" cType="1" res="-2.5618290528655052e-03" rms="4.9506831169128418e-01" purity="4.3897721171379089e-01" nType="-99"/>
              <Node pos="r" depth="4" NCoef="0" IVar="-1" Cut="0.0000000000000000e+00" cType="1" res="-1.1765912175178528e-02" rms="4.6078044176101685e-01" purity="3.1298997998237610e-01" nType="-99"/>
            </Node>
          </Node>
        </Node>
      </Node>
    </BinaryTree>
    <BinaryTree type="DecisionTree" boostWeight="1.0000000000000000e+00" itree="12">
      <Node pos="s" depth="0" NCoef="0" IVar="3" Cut="7.1458750963211060e-01" cType="1" res="1.4728638343513012e-02" rms="4.3707275390625000e-01" purity="5.0058853626251221e-01" nType="0">
        <Node pos="l" depth="1" NCoef="0" IVar="0" Cut="6.4481252431869507e-01" cType="1" res="-1.4699833095073700e-01" rms="3.8143125176429749e-01" purity="2.1384319663047791e-01" nType="0">
          <Node pos="l" depth="2" NCoef="0" IVar="4" Cut="1.2420232295989990e+00" cType="1" res="-4.6296164393424988e-02" rms="4.7850635647773743e-01" purity="4.1240042448043823e-01" nType="0">
            <Node pos="l" depth="3" NCoef="0" IVar="1" Cut="8.6641514301300049e-01" cType="1" res="-2.9729118570685387e-02" rms="4.8671549558639526e-01" purity="4.3919816613197327e-01" nType="0">
              <Node pos="l" depth="4" NCoef="0" IVar="1" Cut="2.4584386497735977e-02" cType="1" res="-9.3136318027973175e-03" rms="4.9126985669136047e-01" purity="4.7181192040443420e-01" nType="0">
                <Node pos="l" depth="5" NCoef="0" IVar="3" Cut="5.8082842826843262e-01" cType="1" res="3.1495440751314163e-02" rms="4.9198713898658752e-01" purity="5.2349495887756348e-01" nType="0">
                  <Node pos="l" depth="6" NCoef="0" IVar="-1" Cut="0.0000000000000000e+00" cType="1" res="-3.2022772356867790e-03" rms="4.8530891537666321e-01" purity="4.0515527129173279e-01" nType="-99"/>
                  <Node pos="r" depth="6" NCoef="0" IVar="0" Cut="3.9502778649330139e-01" cType="1" res="5.3150780498981476e-02" rms="4.9218252301216125e-01" purity="5.6177270412445068e-01" nType="0">
                    <Node pos="l" depth="7" NCoef="0" IVar="-1" Cut="0.0000000000000000e+00" cType="1" res="6.3624219037592411e-03" rms="4.8692440986633301e-01" purity="6.0151135921478271e-01" nType="-99"/>
                    <Node pos="r" depth="7" NCoef="0" IVar="-1" Cut="0.0000000000000000e+00" cType="1" res="1.5957846771925688e-03" rms="4.9713879823684692e-01" purity="5.0788342952728271e-01" nType="-99"/>
                  </Node>
                </Node>
                <Node pos="r" depth="5" NCoef="0" IVar="1" Cut="4.3189701437950134e-01" cType="1" res="-4.3938625603914261e-02" rms="4.8799154162406921e-01" purity="4.2796084284782410e-01" nType="0">
                  <Node pos="l" depth="6" NCoef="0" IVar="0" Cut="4.5758438110351562e-01" cType="1" res="-1.9655929878354073e-02" rms="4.9200847744941711e-01" purity="4.6142119169235229e-01" nType="0">
                    <Node pos="l" depth="7" NCoef="0" IVar="-1" Cut="0.0000000000000000e+00" cType="1" res="6.0936068621231243e-05" rms="4.9493131041526794e-01" purity="4.9381080269813538e-01" nType="-99"/>
                    <Node pos="r" depth="7" NCoef="0" IVar="-1" Cut="0.0000000000000000e+00" cType="1" res="-5.1118358969688416e-03" rms="4.8453879356384277e-01" purity="4.0302795171737671e-01" nType="-99"/>
                  </Node>
                  <Node pos="r" depth="6" NCoef="0" IVar="-1" Cut="0.0000000000000000e+00" cType="1" res="-7.3741395026445389e-03" rms="4.7976714372634888e-01" purity="3.7860596179962158e-01" nType="-99"/>
                </Node>
              </Node>
              <Node pos="r" depth="4" NCoef="0" IVar="6" Cut="8.3239637315273285e-02" cType="1" res="-1.0113123059272766e-01" rms="4.6342000365257263e-01" purity="3.2513308525085449e-01" nType="0">
                <Node pos="l" depth="5" NCoef="0" IVar="-1" Cut="0.0000000000000000e+00" cType="1" res="-1.3148139230906963e-02" rms="4.5068579912185669e-01" purity="2.9288855195045471e-01" nType="-99"/>
                <Node pos="r" depth="5" NCoef="0" IVar="-1" Cut="0.0000000000000000e+00" cType="1" res="-5.5922246538102627e-03" rms="4.7507455945014954e-01" purity="3.6397784948348999e-01" nType="-99"/>
              </Node>
            </Node>
            <Node pos="r" depth="3" NCoef="0" IVar="-1" Cut="0.0000000000000000e+00" cType="1" res="-2.2450938820838928e-02" rms="3.5494023561477661e-01" purity="1.5715658664703369e-01" nType="-99"/>
          </Node>
          <Node pos="r" depth="2" NCoef="0" IVar="3" Cut="4.6519675850868225e-01" cType="1" res="-1.8925255537033081e-01" rms="3.2314398884773254e-01" purity="1.3052941858768463e-01" nType="0">
            <Node pos="l" depth="3" NCoef="0" IVar="6" Cut="1.6678683459758759e-01" cType="1" res="-2.0871555805206299e-01" rms="2.7376919984817505e-01" purity="8.6128182709217072e-02" nType="0">
              <Node pos="l" depth="4" NCoef="0" IVar="3" Cut="3.6280554533004761e-01" cType="1" res="-2.2104828059673309e-01" rms="2.4110314249992371e-01" purity="6.4612559974193573e-02" nType="0">
                <Node pos="l" depth="5" NCoef="0" IVar="4" Cut="1.9963277578353882e+00" cType="1" res="-2.3199348151683807e-01" rms="1.9050893187522888e-01" purity="3.8285929709672928e-02" nType="0">
                  <Node pos="l" depth="6" NCoef="0" IVar="6" Cut="1.3462702929973602e-01" cType="1" res="-2.2757257521152496e-01" rms="2.1140223741531372e-01" purity="4.7350231558084488e-02" nType="0">
                    <Node pos="l" depth="7" NCoef="0" IVar="-1" Cut="0.0000000000000000e+00" cType="1" res="-3.4642197191715240e-02" rms="1.9421871006488800e-01" purity="3.9365593343973160e-02" nType="-99"/>
                    <Node pos="r" depth="7" NCoef="0" IVar="-1" Cut="0.0000000000000000e+00" cType="1" res="-2.9657470062375069e-02" rms="2.7632001042366028e-01" purity="8.4199793636798859e-02" nType="-99"/>
                  </Node>
                  <Node pos="r" depth="6" NCoef="0" IVar="6" Cut="9.1932639479637146e-02" cType="1" res="-2.4618664383888245e-01" rms="9.5238737761974335e-02" purity="9.1853654012084007e-03" nType="0">
                    <Node pos="l" depth="7" NCoef="0" IVar="-1" Cut="0.0000000000000000e+00" cType="1" res="-3.8547195494174957e-02" rms="5.8381143957376480e-02" purity="3.4180306829512119e-03" nType="-99"/>
                    <Node pos="r" depth="7" NCoef="0" IVar="-1" Cut="0.0000000000000000e+00" cType="1" res="-3.7363551557064056e-02" rms="1.1984644830226898e-01" purity="1.4608960598707199e-02" nType="-99"/>
                  </Node>
                </Node>
                <Node pos="r" depth="5" NCoef="0" IVar="5" Cut="-9.9169522523880005e-01" cType="1" res="-2.0393511652946472e-01" rms="3.0297440290451050e-01" purity="1.0577505081892014e-01" nType="0">
                  <Node pos="l" depth="6" NCoef="0" IVar="1" Cut="4.0056237578392029e-01" cType="1" res="-1.8848311901092529e-01" rms="3.3753961324691772e-01" purity="1.3361598551273346e-01" nType="0">
                    <Node pos="l" depth="7" NCoef="0" IVar="-1" Cut="0.0000000000000000e+00" cType="1" res="-1.8569046631455421e-02" rms="3.7297368049621582e-01" purity="1.7028661072254181e-01" nType="-99"/>
                    <Node pos="r" depth="7" NCoef="0" IVar="-1" Cut="0.0000000000000000e+00" cType="1" res="-2.6069760322570801e-02" rms="3.1341820955276489e-01" purity="1.1217098683118820e-01" nType="-99"/>
                  </Node>
                  <Node pos="r" depth="6" NCoef="0" IVar="6" Cut="9.7431905567646027e-02" cType="1" res="-2.3556782305240631e-01" rms="2.1208719909191132e-01" purity="4.8780191689729691e-02" nType="0">
                    <Node pos="l" depth="7" NCoef="0" IVar="-1" Cut="0.0000000000000000e+00" cType="1" res="-3.2949559390544891e-02" rms="1.8273875117301941e-01" purity="3.5453733056783676e-02" nType="-99"/>
                    <Node pos="r" depth="7" NCoef="0" IVar="-1" Cut="0.0000000000000000e+00" cType="1" res="-2.9898533597588539e-02" rms="2.3781941831111908e-01" purity="6.2288507819175720e-02" nType="-99"/>
                  </Node>
                </Node>
              </Node>
              <Node pos="r" depth="4" NCoef="0" IVar="5" Cut="-1.6449458599090576e+00" cType="1" res="-1.7375451326370239e-01" rms="3.4781399369239807e-01" purity="1.4712113142013550e-01" nType="0">
                <Node pos="l" depth="5" NCoef="0" IVar="3" Cut="2.4917714297771454e-01" cType="1" res="-1.3823598623275757e-01" rms="3.9969769120216370e-01" purity="2.0570886135101318e-01" nType="0">
                  <Node pos="l" depth="6" NCoef="0" IVar="-1" Cut="0.0000000000000000e+00" cType="1" res="-2.1295506507158279e-02" rms="3.6471638083457947e-01" purity="1.6213411092758179e-01" nType="-99"/>
                  <Node pos="r" depth="6" NCoef="0" IVar="-1" Cut="0.0000000000000000e+00" cType="1" res="-1.2212337926030159e-02" rms="4.2584979534149170e-01" purity="2.4377089738845825e-01" nType="-99"/>
                </Node>
                <Node pos="r" depth="5" NCoef="0" IVar="5" Cut="4.4696331024169922e-01" cType="1" res="-2.0182172954082489e-01" rms="2.9756096005439758e-01" purity="1.0082429647445679e-01" nType="0">
                  <Node pos="l" depth="6" NCoef="0" IVar="-1" Cut="0.0000000000000000e+00" cType="1" res="-2.4077629670500755e-02" rms="3.3210179209709167e-01" purity="1.2842082977294922e-01" nType="-99"/>
                  <Node pos="r" depth="6" NCoef="0" IVar="-1" Cut="0.0000000000000000e+00" cType="1" res="-3.0633535236120224e-02" rms="2.4973428249359131e-01" purity="6.8325847387313843e-02" nType="-99"/>
                </Node>
              </Node>
            </Node>
            <Node pos="r" depth="3" NCoef="0" IVar="4" Cut="1.5259138345718384e+00" cType="1" res="-1.4190399646759033e-01" rms="4.1588172316551208e-01" purity="2.3854635655879974e-01" nType="0">
              <Node pos="l" depth="4" NCoef="0" IVar="1" Cut="1.8686799705028534e-01" cType="1" res="-1.2572297453880310e-01" rms="4.3362161517143250e-01" purity="2.6445937156677246e-01" nType="0">
                <Node pos="l" depth="5" NCoef="0" IVar="6" Cut="7.8409671783447266e-02" cType="1" res="-7.2785720229148865e-02" rms="4.6545010805130005e-01" purity="3.3492478728294373e-01" nType="0">
                  <Node pos="l" depth="6" NCoef="0" IVar="-1" Cut="0.0000000000000000e+00" cType="1" res="-1.0981984436511993e-02" rms="4.4716882705688477e-01" purity="2.9120284318923950e-01" nType="-99"/>
                  <Node pos="r" depth="6" NCoef="0" IVar="-1" Cut="0.0000000000000000e+00" cType="1" res="-4.3068043887615204e-03" rms="4.7706523537635803e-01" purity="3.6810854077339172e-01" nType="-99"/>
                </Node>
                <Node pos="r" depth="5" NCoef="0" IVar="3" Cut="6.0196018218994141e-01" cType="1" res="-1.5283246338367462e-01" rms="4.1376709938049316e-01" purity="2.2837358713150024e-01" nType="0">
                  <Node pos="l" depth="6" NCoef="0" IVar="6" Cut="1.1509145796298981e-01" cType="1" res="-1.6872820258140564e-01" rms="3.9695760607719421e-01" purity="2.0180693268775940e-01" nType="0">
                    <Node pos="l" depth="7" NCoef="0" IVar="-1" Cut="0.0000000000000000e+00" cType="1" res="-2.0814895629882812e-02" rms="3.7705022096633911e-01" purity="1.7474669218063354e-01" nType="-99"/>
                    <Node pos="r" depth="7" NCoef="0" IVar="-1" Cut="0.0000000000000000e+00" cType="1" res="-1.2001216411590576e-02" rms="4.4378399848937988e-01" purity="2.7725023031234741e-01" nType="-99"/>
                  </Node>
                  <Node pos="r" depth="6" NCoef="0" IVar="-1" Cut="0.0000000000000000e+00" cType="1" res="-9.4351619482040405e-03" rms="4.6404075622558594e-01" purity="3.2230240106582642e-01" nType="-99"/>
                </Node>
              </Node>
              <Node pos="r" depth="4" NCoef="0" IVar="-1" Cut="0.0000000000000000e+00" cType="1" res="-3.0853915959596634e-02" rms="2.4061609804630280e-01" purity="6.4125917851924896e-02" nType="-99"/>
            </Node>
          </Node>
        </Node>
        <Node pos="r" depth="1" NCoef="0" IVar="0" Cut="3.2204878330230713e-01" cType="1" res="1.3645736873149872e-01" rms="4.3681466579437256e-01" purity="7.1641618013381958e-01" nType="0">
          <Node pos="l" depth="2" NCoef="0" IVar="5" Cut="-8.1788671016693115e-01" cType="1" res="1.5809318423271179e-01" rms="4.2311459779739380e-01" purity="7.5269985198974609e-01" nType="0">
            <Node pos="l" depth="3" NCoef="0" IVar="3" Cut="8.7722617387771606e-01" cType="1" res="1.6814196109771729e-01" rms="4.1615173220634460e-01" purity="7.6753252744674683e-01" nType="0">
              <Node pos="l" depth="4" NCoef="0" IVar="1" Cut="5.9289205074310303e-01" cType="1" res="1.1355797946453094e-01" rms="4.6116644144058228e-01" purity="6.8146651983261108e-01" nType="0">
                <Node pos="l" depth="5" NCoef="0" IVar="3" Cut="7.9328721761703491e-01" cType="1" res="1.3461132347583771e-01" rms="4.4935151934623718e-01" purity="7.1507865190505981e-01" nType="0">
                  <Node pos="l" depth="6" NCoef="0" IVar="0" Cut="1.9735862314701080e-01" cType="1" res="1.0717200487852097e-01" rms="4.6758028864860535e-01" purity="6.7335683107376099e-01" nType="0">
                    <Node pos="l" depth="7" NCoef="0" IVar="-1" Cut="0.0000000000000000e+00" cType="1" res="1.0065147653222084e-02" rms="4.5919361710548401e-01" purity="6.9467729330062866e-01" nType="-99"/>
                    <Node pos="r" depth="7" NCoef="0" IVar="-1" Cut="0.0000000000000000e+00" cType="1" res="7.1535976603627205e-03" rms="4.7755277156829834e-01" purity="6.4394307136535645e-01" nType="-99"/>
                  </Node>
                  <Node pos="r" depth="6" NCoef="0" IVar="1" Cut="9.3365713953971863e-02" cType="1" res="1.4914093911647797e-01" rms="4.3869844079017639e-01" purity="7.3717117309570312e-01" nType="0">
                    <Node pos="l" depth="7" NCoef="0" IVar="-1" Cut="0.0000000000000000e+00" cType="1" res="1.3069640845060349e-02" rms="4.2935085296630859e-01" purity="7.5440585613250732e-01" nType="-99"/>
                    <Node pos="r" depth="7" NCoef="0" IVar="-1" Cut="0.0000000000000000e+00" cType="1" res="1.0165878571569920e-02" rms="4.5500764250755310e-01" purity="7.0402818918228149e-01" nType="-99"/>
                  </Node>
                </Node>
                <Node pos="r" depth="5" NCoef="0" IVar="3" Cut="8.2476705312728882e-01" cType="1" res="4.6008393168449402e-02" rms="4.9112671613693237e-01" purity="5.7362204790115356e-01" nType="0">
                  <Node pos="l" depth="6" NCoef="0" IVar="-1" Cut="0.0000000000000000e+00" cType="1" res="1.0709725320339203e-03" rms="4.9685403704643250e-01" purity="5.2965271472930908e-01" nType="-99"/>
                  <Node pos="r" depth="6" NCoef="0" IVar="-1" Cut="0.0000000000000000e+00" cType="1" res="7.2441520169377327e-03" rms="4.7977104783058167e-01" purity="6.3249826431274414e-01" nType="-99"/>
                </Node>
              </Node>
              <Node pos="r" depth="4" NCoef="0" IVar="1" Cut="7.4781411886215210e-01" cType="1" res="1.9104006886482239e-01" rms="3.9349842071533203e-01" purity="8.0363744497299194e-01" nType="0">
                <Node pos="l" depth="5" NCoef="0" IVar="5" Cut="-1.6709371805191040e+00" cType="1" res="2.0433966815471649e-01" rms="3.7835547327995300e-01" purity="8.2490217685699463e-01" nType="0">
                  <Node pos="l" depth="6" NCoef="0" IVar="1" Cut="2.7568721771240234e-01" cType="1" res="2.1161158382892609e-01" rms="3.6962547898292542e-01" purity="8.3563292026519775e-01" nType="0">
                    <Node pos="l" depth="7" NCoef="0" IVar="-1" Cut="0.0000000000000000e+00" cType="1" res="1.7993692308664322e-02" rms="3.6010628938674927e-01" purity="8.4630048274993896e-01" nType="-99"/>
                    <Node pos="r" depth="7" NCoef="0" IVar="-1" Cut="0.0000000000000000e+00" cType="1" res="1.4931916259229183e-02" rms="4.0095424652099609e-01" purity="7.9710042476654053e-01" nType="-99"/>
                  </Node>
                  <Node pos="r" depth="6" NCoef="0" IVar="4" Cut="-4.0165191888809204e-01" cType="1" res="1.4130896329879761e-01" rms="4.4195082783699036e-01" purity="7.3189097642898560e-01" nType="0">
                    <Node pos="l" depth="7" NCoef="0" IVar="-1" Cut="0.0000000000000000e+00" cType="1" res="1.0725772939622402e-02" rms="4.4715529680252075e-01" purity="7.2148460149765015e-01" nType="-99"/>
                    <Node pos="r" depth="7" NCoef="0" IVar="-1" Cut="0.0000000000000000e+00" cType="1" res="1.2891686521470547e-02" rms="4.3585184216499329e-01" purity="7.4339520931243896e-01" nType="-99"/>
                  </Node>
                </Node>
                <Node pos="r" depth="5" NCoef="0" IVar="5" Cut="-2.7044911384582520e+00" cType="1" res="1.2495287507772446e-01" rms="4.5571288466453552e-01" purity="6.9797027111053467e-01" nType="0">
                  <Node pos="l" depth="6" NCoef="0" IVar="4" Cut="-6.7886680364608765e-01" cType="1" res="1.5785092115402222e-01" rms="4.3530771136283875e-01" purity="7.4278205633163452e-01" nType="0">
                    <Node pos="l" depth="7" NCoef="0" IVar="-1" Cut="0.0000000000000000e+00" cType="1" res="9.6623934805393219e-03" rms="4.5686742663383484e-01" purity="7.0087093114852905e-01" nType="-99"/>
                    <Node pos="r" depth="7" NCoef="0" IVar="-1" Cut="0.0000000000000000e+00" cType="1" res="1.5160162933170795e-02" rms="4.1194796562194824e-01" purity="7.8202265501022339e-01" nType="-99"/>
                  </Node>
                  <Node pos="r" depth="6" NCoef="0" IVar="1" Cut="1.3441581726074219e+00" cType="1" res="9.3996912240982056e-02" rms="4.7202301025390625e-01" purity="6.5580391883850098e-01" nType="0">
                    <Node pos="l" depth="7" NCoef="0" IVar="-1" Cut="0.0000000000000000e+00" cType="1" res="1.0169100947678089e-02" rms="4.5716902613639832e-01" purity="6.9711619615554810e-01" nType="-99"/>
                    <Node pos="r" depth="7" NCoef="0" IVar="-1" Cut="0.0000000000000000e+00" cType="1" res="4.6415650285780430e-03" rms="4.8538494110107422e-01" purity="6.0997766256332397e-01" nType="-99"/>
                  </Node>
                </Node>
              </Node>
            </Node>
            <Node pos="r" depth="3" NCoef="0" IVar="3" Cut="8.7309694290161133e-01" cType="1" res="5.2058766596019268e-04" rms="4.9421349167823792e-01" purity="5.2011215686798096e-01" nType="0">
              <Node pos="l" depth="4" NCoef="0" IVar="-1" Cut="0.0000000000000000e+00" cType="1" res="-4.3046018108725548e-03" rms="4.9408930540084839e-01" purity="4.5167958736419678e-01" nType="-99"/>
              <Node pos="r" depth="4" NCoef="0" IVar="-1" Cut="0.0000000000000000e+00" cType="1" res="3.4246081486344337e-03" rms="4.9081444740295410e-01" purity="5.7475644350051880e-01" nType="-99"/>
            </Node>
          </Node>
          <Node pos="r" depth="2" NCoef="0" IVar="1" Cut="8.7912380695343018e-01" cType="1" res="1.5774153172969818e-02" rms="4.8922976851463318e-01" purity="5.1402813196182251e-01" nType="0">
            <Node pos="l" depth="3" NCoef="0" IVar="0" Cut="6.3344734907150269e-01" cType="1" res="5.4819580167531967e-02" rms="4.8713204264640808e-01" purity="5.7061254978179932e-01" nType="0">
              <Node pos="l" depth="4" NCoef="0" IVar="2" Cut="5.4115447998046875e+01" cType="1" res="9.2372678220272064e-02" rms="4.7916081547737122e-01" purity="6.2577450275421143e-01" nType="0">
                <Node pos="l" depth="5" NCoef="0" IVar="-1" Cut="0.0000000000000000e+00" cType="1" res="1.0274811647832394e-02" rms="4.6370312571525574e-01" purity="6.7989349365234375e-01" nType="-99"/>
                <Node pos="r" depth="5" NCoef="0" IVar="-1" Cut="0.0000000000000000e+00" cType="1" res="4.3186782859265804e-03" rms="4.8961019515991211e-01" purity="5.7554656267166138e-01" nType="-99"/>
              </Node>
              <Node pos="r" depth="4" NCoef="0" IVar="0" Cut="9.3491178750991821e-01" cType="1" res="-7.0823575370013714e-03" rms="4.9379947781562805e-01" purity="4.7968453168869019e-01" nType="0">
                <Node pos="l" depth="5" NCoef="0" IVar="-1" Cut="0.0000000000000000e+00" cType="1" res="2.5086922105401754e-03" rms="4.9474617838859558e-01" purity="5.4730844497680664e-01" nType="-99"/>
                <Node pos="r" depth="5" NCoef="0" IVar="-1" Cut="0.0000000000000000e+00" cType="1" res="-3.8039912469685078e-03" rms="4.9037930369377136e-01" purity="4.1673570871353149e-01" nType="-99"/>
              </Node>
            </Node>
            <Node pos="r" depth="3" NCoef="0" IVar="2" Cut="6.3667537689208984e+01" cType="1" res="-6.8839177489280701e-02" rms="4.8303309082984924e-01" purity="3.9140695333480835e-01" nType="0">
              <Node pos="l" depth="4" NCoef="0" IVar="-1" Cut="0.0000000000000000e+00" cType="1" res="-2.7342347893863916e-03" rms="4.9240973591804504e-01" purity="4.3675962090492249e-01" nType="-99"/>
              <Node pos="r" depth="4" NCoef="0" IVar="-1" Cut="0.0000000000000000e+00" cType="1" res="-1.1729064397513866e-02" rms="4.6454420685768127e-01" purity="3.2790371775627136e-01" nType="-99"/>
            </Node>
          </Node>
        </Node>
      </Node>
    </BinaryTree>
    <BinaryTree type="DecisionTree" boostWeight="1.0000000000000000e+00" itree="13">
      <Node pos="s" depth="0" NCoef="0" IVar="3" Cut="7.1646219491958618e-01" cType="1" res="1.5549071133136749e-02" rms="4.3443438410758972e-01" purity="5.0114476680755615e-01" nType="0">
        <Node pos="l" depth="1" NCoef="0" IVar="0" Cut="6.4506202936172485e-01" cType="1" res="-1.3817159831523895e-01" rms="3.8125991821289062e-01" purity="2.1509489417076111e-01" nType="0">
          <Node pos="l" depth="2" NCoef="0" IVar="5" Cut="-8.7232315540313721e-01" cType="1" res="-4.3778117746114731e-02" rms="4.7771015763282776e-01" purity="4.1291004419326782e-01" nType="0">
            <Node pos="l" depth="3" NCoef="0" IVar="1" Cut="-5.6941371411085129e-02" cType="1" res="-2.1318299695849419e-02" rms="4.8755168914794922e-01" purity="4.4985082745552063e-01" nType="0">
              <Node pos="l" depth="4" NCoef="0" IVar="0" Cut="3.9525797963142395e-01" cType="1" res="3.5351879894733429e-02" rms="4.9262359738349915e-01" purity="5.3342235088348389e-01" nType="0">
                <Node pos="l" depth="5" NCoef="0" IVar="-1" Cut="0.0000000000000000e+00" cType="1" res="5.6056198664009571e-03" rms="4.8799267411231995e-01" purity="5.8445525169372559e-01" nType="-99"/>
                <Node pos="r" depth="5" NCoef="0" IVar="-1" Cut="0.0000000000000000e+00" cType="1" res="-4.1765233618207276e-04" rms="4.9515649676322937e-01" purity="4.7215372323989868e-01" nType="-99"/>
              </Node>
              <Node pos="r" depth="4" NCoef="0" IVar="1" Cut="2.6723167300224304e-01" cType="1" res="-4.6149406582117081e-02" rms="4.8322311043739319e-01" purity="4.1323238611221313e-01" nType="0">
                <Node pos="l" depth="5" NCoef="0" IVar="3" Cut="6.2781721353530884e-01" cType="1" res="1.4097257517278194e-02" rms="4.9165388941764832e-01" purity="5.0282555818557739e-01" nType="0">
                  <Node pos="l" depth="6" NCoef="0" IVar="-1" Cut="0.0000000000000000e+00" cType="1" res="-2.9274248518049717e-03" rms="4.8746266961097717e-01" purity="4.2297747731208801e-01" nType="-99"/>
                  <Node pos="r" depth="6" NCoef="0" IVar="-1" Cut="0.0000000000000000e+00" cType="1" res="4.4150794856250286e-03" rms="4.9178811907768250e-01" purity="5.6798654794692993e-01" nType="-99"/>
                </Node>
                <Node pos="r" depth="5" NCoef="0" IVar="6" Cut="6.2346030026674271e-02" cType="1" res="-7.2365514934062958e-02" rms="4.7713875770568848e-01" purity="3.7424629926681519e-01" nType="0">
                  <Node pos="l" depth="6" NCoef="0" IVar="-1" Cut="0.0000000000000000e+00" cType="1" res="-1.1262578889727592e-02" rms="4.6323940157890320e-01" purity="3.2889899611473083e-01" nType="-99"/>
                  <Node pos="r" depth="6" NCoef="0" IVar="3" Cut="6.2612164020538330e-01" cType="1" res="-4.4584102928638458e-02" rms="4.8333719372749329e-01" purity="4.0196034312248230e-01" nType="0">
                    <Node pos="l" depth="7" NCoef="0" IVar="-1" Cut="0.0000000000000000e+00" cType="1" res="-7.5619500130414963e-03" rms="4.7075819969177246e-01" purity="3.4376162290573120e-01" nType="-99"/>
                    <Node pos="r" depth="7" NCoef="0" IVar="-1" Cut="0.0000000000000000e+00" cType="1" res="-1.1289468966424465e-04" rms="4.9503389000892639e-01" purity="4.7388246655464172e-01" nType="-99"/>
                  </Node>
                </Node>
              </Node>
            </Node>
            <Node pos="r" depth="3" NCoef="0" IVar="4" Cut="1.2365520000457764e+00" cType="1" res="-1.5347643196582794e-01" rms="4.0903702378273010e-01" purity="2.3248369991779327e-01" nType="0">
              <Node pos="l" depth="4" NCoef="0" IVar="-1" Cut="0.0000000000000000e+00" cType="1" res="-1.0091053321957588e-02" rms="4.6174421906471252e-01" purity="3.2420083880424500e-01" nType="-99"/>
              <Node pos="r" depth="4" NCoef="0" IVar="-1" Cut="0.0000000000000000e+00" cType="1" res="-2.3446764796972275e-02" rms="3.3584198355674744e-01" purity="1.3449467718601227e-01" nType="-99"/>
            </Node>
          </Node>
          <Node pos="r" depth="2" NCoef="0" IVar="3" Cut="4.8946955800056458e-01" cType="1" res="-1.7809364199638367e-01" rms="3.2397216558456421e-01" purity="1.3143250346183777e-01" nType="0">
            <Node pos="l" depth="3" NCoef="0" IVar="5" Cut="-1.2603518962860107e+00" cType="1" res="-1.9349248707294464e-01" rms="2.8288748860359192e-01" purity="9.3044869601726532e-02" nType="0">
              <Node pos="l" depth="4" NCoef="0" IVar="6" Cut="1.5352499485015869e-01" cType="1" res="-1.7721787095069885e-01" rms="3.2022628188133240e-01" purity="1.2228643149137497e-01" nType="0">
                <Node pos="l" depth="5" NCoef="0" IVar="3" Cut="4.1257801651954651e-01" cType="1" res="-1.9230860471725464e-01" rms="2.8729012608528137e-01" purity="9.4294644892215729e-02" nType="0">
                  <Node pos="l" depth="6" NCoef="0" IVar="3" Cut="2.8361609578132629e-01" cType="1" res="-2.0457179844379425e-01" rms="2.4405819177627563e-01" purity="6.4719729125499725e-02" nType="0">
                    <Node pos="l" depth="7" NCoef="0" IVar="-1" Cut="0.0000000000000000e+00" cType="1" res="-3.4607343375682831e-02" rms="1.9124665856361389e-01" purity="3.8184747099876404e-02" nType="-99"/>
                    <Node pos="r" depth="7" NCoef="0" IVar="-1" Cut="0.0000000000000000e+00" cType="1" res="-2.7340291067957878e-02" rms="2.7276337146759033e-01" purity="8.2091398537158966e-02" nType="-99"/>
                  </Node>
                  <Node pos="r" depth="6" NCoef="0" IVar="1" Cut="4.3227246403694153e-01" cType="1" res="-1.6319260001182556e-01" rms="3.6860606074333191e-01" purity="1.6451315581798553e-01" nType="0">
                    <Node pos="l" depth="7" NCoef="0" IVar="-1" Cut="0.0000000000000000e+00" cType="1" res="-1.5353025868535042e-02" rms="3.9832925796508789e-01" purity="1.9964502751827240e-01" nType="-99"/>
                    <Node pos="r" depth="7" NCoef="0" IVar="-1" Cut="0.0000000000000000e+00" cType="1" res="-2.2302720695734024e-02" rms="3.4446930885314941e-01" purity="1.3954059779644012e-01" nType="-99"/>
                  </Node>
                </Node>
                <Node pos="r" depth="5" NCoef="0" IVar="3" Cut="3.3722102642059326e-01" cType="1" res="-1.3646270334720612e-01" rms="3.9281970262527466e-01" purity="1.9788311421871185e-01" nType="0">
                  <Node pos="l" depth="6" NCoef="0" IVar="6" Cut="2.3166730999946594e-01" cType="1" res="-1.6414983570575714e-01" rms="3.5962590575218201e-01" purity="1.5654748678207397e-01" nType="0">
                    <Node pos="l" depth="7" NCoef="0" IVar="-1" Cut="0.0000000000000000e+00" cType="1" res="-2.5429852306842804e-02" rms="3.1923720240592957e-01" purity="1.1678268015384674e-01" nType="-99"/>
                    <Node pos="r" depth="7" NCoef="0" IVar="-1" Cut="0.0000000000000000e+00" cType="1" res="-1.5343318693339825e-02" rms="4.0605098009109497e-01" purity="2.1097536385059357e-01" nType="-99"/>
                  </Node>
                  <Node pos="r" depth="6" NCoef="0" IVar="-1" Cut="0.0000000000000000e+00" cType="1" res="-8.5410010069608688e-03" rms="4.4731408357620239e-01" purity="2.8139370679855347e-01" nType="-99"/>
                </Node>
              </Node>
              <Node pos="r" depth="4" NCoef="0" IVar="4" Cut="7.0473378896713257e-01" cType="1" res="-2.1601466834545135e-01" rms="2.1905961632728577e-01" purity="5.2577927708625793e-02" nType="0">
                <Node pos="l" depth="5" NCoef="0" IVar="4" Cut="1.3069458305835724e-01" cType="1" res="-1.9161160290241241e-01" rms="2.9778411984443665e-01" purity="1.0048918426036835e-01" nType="0">
                  <Node pos="l" depth="6" NCoef="0" IVar="-1" Cut="0.0000000000000000e+00" cType="1" res="-2.4106707423925400e-02" rms="3.1766450405120850e-01" purity="1.1630503088235855e-01" nType="-99"/>
                  <Node pos="r" depth="6" NCoef="0" IVar="-1" Cut="0.0000000000000000e+00" cType="1" res="-2.7623109519481659e-02" rms="2.7795085310935974e-01" purity="8.6201280355453491e-02" nType="-99"/>
                </Node>
                <Node pos="r" depth="5" NCoef="0" IVar="6" Cut="2.0581266283988953e-01" cType="1" res="-2.2417901456356049e-01" rms="1.8468475341796875e-01" purity="3.6548621952533722e-02" nType="0">
                  <Node pos="l" depth="6" NCoef="0" IVar="5" Cut="6.4208418130874634e-02" cType="1" res="-2.2944431006908417e-01" rms="1.5864232182502747e-01" purity="2.6499966159462929e-02" nType="0">
                    <Node pos="l" depth="7" NCoef="0" IVar="-1" Cut="0.0000000000000000e+00" cType="1" res="-3.0418809503316879e-02" rms="2.2639845311641693e-01" purity="5.5418055504560471e-02" nType="-99"/>
                    <Node pos="r" depth="7" NCoef="0" IVar="-1" Cut="0.0000000000000000e+00" cType="1" res="-3.5820819437503815e-02" rms="1.2404551357030869e-01" purity="1.5793465077877045e-02" nType="-99"/>
                  </Node>
                  <Node pos="r" depth="6" NCoef="0" IVar="-1" Cut="0.0000000000000000e+00" cType="1" res="-2.7144074440002441e-02" rms="2.8764718770980835e-01" purity="9.2338867485523224e-02" nType="-99"/>
                </Node>
              </Node>
            </Node>
            <Node pos="r" depth="3" NCoef="0" IVar="5" Cut="-9.0808767080307007e-01" cType="1" res="-1.2915755808353424e-01" rms="4.2549169063568115e-01" purity="2.5342473387718201e-01" nType="0">
              <Node pos="l" depth="4" NCoef="0" IVar="6" Cut="1.1482859402894974e-01" cType="1" res="-1.0841964930295944e-01" rms="4.4625732302665710e-01" purity="2.8761345148086548e-01" nType="0">
                <Node pos="l" depth="5" NCoef="0" IVar="2" Cut="1.3038485717773438e+02" cType="1" res="-1.2782964110374451e-01" rms="4.3367880582809448e-01" purity="2.6268652081489563e-01" nType="0">
                  <Node pos="l" depth="6" NCoef="0" IVar="-1" Cut="0.0000000000000000e+00" cType="1" res="-9.7717074677348137e-03" rms="4.4712853431701660e-01" purity="2.9191738367080688e-01" nType="-99"/>
                  <Node pos="r" depth="6" NCoef="0" IVar="1" Cut="4.6473208069801331e-01" cType="1" res="-1.5490008890628815e-01" rms="4.1962778568267822e-01" purity="2.3696544766426086e-01" nType="0">
                    <Node pos="l" depth="7" NCoef="0" IVar="-1" Cut="0.0000000000000000e+00" cType="1" res="-1.2875216081738472e-02" rms="4.4550064206123352e-01" purity="2.8242421150207520e-01" nType="-99"/>
                    <Node pos="r" depth="7" NCoef="0" IVar="-1" Cut="0.0000000000000000e+00" cType="1" res="-2.0046353340148926e-02" rms="3.9009112119674683e-01" purity="1.9170312583446503e-01" nType="-99"/>
                  </Node>
                </Node>
                <Node pos="r" depth="5" NCoef="0" IVar="-1" Cut="0.0000000000000000e+00" cType="1" res="-4.3301177211105824e-03" rms="4.7921276092529297e-01" purity="3.6781382560729980e-01" nType="-99"/>
              </Node>
              <Node pos="r" depth="4" NCoef="0" IVar="-1" Cut="0.0000000000000000e+00" cType="1" res="-2.2388253360986710e-02" rms="3.4094646573066711e-01" purity="1.4227049052715302e-01" nType="-99"/>
            </Node>
          </Node>
        </Node>
        <Node pos="r" depth="1" NCoef="0" IVar="0" Cut="3.2204878330230713e-01" cType="1" res="1.3135261833667755e-01" rms="4.3611550331115723e-01" purity="7.1663683652877808e-01" nType="0">
          <Node pos="l" depth="2" NCoef="0" IVar="5" Cut="-2.0338079929351807e+00" cType="1" res="1.5187998116016388e-01" rms="4.2276710271835327e-01" purity="7.5264614820480347e-01" nType="0">
            <Node pos="l" depth="3" NCoef="0" IVar="1" Cut="4.8538908362388611e-01" cType="1" res="1.7567539215087891e-01" rms="4.0234729647636414e-01" purity="7.8961610794067383e-01" nType="0">
              <Node pos="l" depth="4" NCoef="0" IVar="3" Cut="8.3676797151565552e-01" cType="1" res="1.9443601369857788e-01" rms="3.8189175724983215e-01" purity="8.1985300779342651e-01" nType="0">
                <Node pos="l" depth="5" NCoef="0" IVar="7" Cut="3.0000000000000000e+00" cType="1" res="9.0240575373172760e-02" rms="3.5272195935249329e-01" purity="7.2308748960494995e-01" nType="0">
                  <Node pos="l" depth="6" NCoef="0" IVar="6" Cut="4.4038858264684677e-02" cType="1" res="1.2337779998779297e-01" rms="4.5154738426208496e-01" purity="7.1311581134796143e-01" nType="0">
                    <Node pos="l" depth="7" NCoef="0" IVar="-1" Cut="0.0000000000000000e+00" cType="1" res="7.9203117638826370e-03" rms="4.6226963400840759e-01" purity="6.8854838609695435e-01" nType="-99"/>
                    <Node pos="r" depth="7" NCoef="0" IVar="-1" Cut="0.0000000000000000e+00" cType="1" res="1.1122900992631912e-02" rms="4.4069585204124451e-01" purity="7.3476475477218628e-01" nType="-99"/>
                  </Node>
                  <Node pos="r" depth="6" NCoef="0" IVar="-1" Cut="0.0000000000000000e+00" cType="1" res="1.3664836995303631e-02" rms="4.3933284282684326e-01" purity="7.3678588867187500e-01" nType="-99"/>
                </Node>
                <Node pos="r" depth="5" NCoef="0" IVar="4" Cut="-1.0677615404129028e+00" cType="1" res="2.0545102655887604e-01" rms="3.6709305644035339e-01" purity="8.3845990896224976e-01" nType="0">
                  <Node pos="l" depth="6" NCoef="0" IVar="1" Cut="2.6192331314086914e-01" cType="1" res="1.8685035407543182e-01" rms="3.9248424768447876e-01" purity="8.0899840593338013e-01" nType="0">
                    <Node pos="l" depth="7" NCoef="0" IVar="-1" Cut="0.0000000000000000e+00" cType="1" res="1.5604805201292038e-02" rms="3.8568818569183350e-01" purity="8.1768947839736938e-01" nType="-99"/>
                    <Node pos="r" depth="7" NCoef="0" IVar="-1" Cut="0.0000000000000000e+00" cType="1" res="1.1650245636701584e-02" rms="4.2814594507217407e-01" purity="7.5741428136825562e-01" nType="-99"/>
                  </Node>
                  <Node pos="r" depth="6" NCoef="0" IVar="5" Cut="-2.9360830783843994e+00" cType="1" res="2.1710450947284698e-01" rms="3.4974497556686401e-01" purity="8.5691773891448975e-01" nType="0">
                    <Node pos="l" depth="7" NCoef="0" IVar="-1" Cut="0.0000000000000000e+00" cType="1" res="1.9497994333505630e-02" rms="3.2998847961425781e-01" purity="8.7553596496582031e-01" nType="-99"/>
                    <Node pos="r" depth="7" NCoef="0" IVar="-1" Cut="0.0000000000000000e+00" cType="1" res="1.7205508425831795e-02" rms="3.6411130428314209e-01" purity="8.4229791164398193e-01" nType="-99"/>
                  </Node>
                </Node>
              </Node>
              <Node pos="r" depth="4" NCoef="0" IVar="3" Cut="9.7046935558319092e-01" cType="1" res="1.2042152881622314e-01" rms="4.5281434059143066e-01" purity="7.0056223869323730e-01" nType="0">
                <Node pos="l" depth="5" NCoef="0" IVar="1" Cut="1.0980288982391357e+00" cType="1" res="7.5630784034729004e-02" rms="4.7911480069160461e-01" purity="6.2978905439376831e-01" nType="0">
                  <Node pos="l" depth="6" NCoef="0" IVar="-1" Cut="0.0000000000000000e+00" cType="1" res="8.8126445189118385e-03" rms="4.6620386838912964e-01" purity="6.7280542850494385e-01" nType="-99"/>
                  <Node pos="r" depth="6" NCoef="0" IVar="-1" Cut="0.0000000000000000e+00" cType="1" res="2.8495436999946833e-03" rms="4.9313145875930786e-01" purity="5.7126933336257935e-01" nType="-99"/>
                </Node>
                <Node pos="r" depth="5" NCoef="0" IVar="5" Cut="-2.9138092994689941e+00" cType="1" res="1.5381728112697601e-01" rms="4.2913290858268738e-01" purity="7.5333040952682495e-01" nType="0">
                  <Node pos="l" depth="6" NCoef="0" IVar="-1" Cut="0.0000000000000000e+00" cType="1" res="1.4197136275470257e-02" rms="4.0802553296089172e-01" purity="7.8703856468200684e-01" nType="-99"/>
                  <Node pos="r" depth="6" NCoef="0" IVar="1" Cut="1.0985132455825806e+00" cType="1" res="1.2667858600616455e-01" rms="4.4524511694908142e-01" purity="7.2346472740173340e-01" nType="0">
                    <Node pos="l" depth="7" NCoef="0" IVar="-1" Cut="0.0000000000000000e+00" cType="1" res="1.2271554209291935e-02" rms="4.2462560534477234e-01" purity="7.6279801130294800e-01" nType="-99"/>
                    <Node pos="r" depth="7" NCoef="0" IVar="-1" Cut="0.0000000000000000e+00" cType="1" res="7.0418547838926315e-03" rms="4.6913471817970276e-01" purity="6.7035436630249023e-01" nType="-99"/>
                  </Node>
                </Node>
              </Node>
            </Node>
            <Node pos="r" depth="3" NCoef="0" IVar="1" Cut="6.8399065732955933e-01" cType="1" res="9.0776726603507996e-02" rms="4.6562805771827698e-01" purity="6.5771269798278809e-01" nType="0">
              <Node pos="l" depth="4" NCoef="0" IVar="5" Cut="-3.8952055573463440e-01" cType="1" res="1.1600597202777863e-01" rms="4.5457115769386292e-01" purity="6.9369721412658691e-01" nType="0">
                <Node pos="l" depth="5" NCoef="0" IVar="3" Cut="9.6410787105560303e-01" cType="1" res="1.2995846569538116e-01" rms="4.4761225581169128e-01" purity="7.1449232101440430e-01" nType="0">
                  <Node pos="l" depth="6" NCoef="0" IVar="5" Cut="-1.0261750221252441e+00" cType="1" res="1.0062550753355026e-01" rms="4.6616229414939880e-01" purity="6.7178899049758911e-01" nType="0">
                    <Node pos="l" depth="7" NCoef="0" IVar="-1" Cut="0.0000000000000000e+00" cType="1" res="9.5516126602888107e-03" rms="4.5893928408622742e-01" purity="6.9439613819122314e-01" nType="-99"/>
                    <Node pos="r" depth="7" NCoef="0" IVar="-1" Cut="0.0000000000000000e+00" cType="1" res="4.3815844692289829e-03" rms="4.8950245976448059e-01" purity="5.8558213710784912e-01" nType="-99"/>
                  </Node>
                  <Node pos="r" depth="6" NCoef="0" IVar="1" Cut="1.5801678597927094e-01" cType="1" res="1.6424331068992615e-01" rms="4.2233109474182129e-01" purity="7.6440465450286865e-01" nType="0">
                    <Node pos="l" depth="7" NCoef="0" IVar="-1" Cut="0.0000000000000000e+00" cType="1" res="1.4300027862191200e-02" rms="4.1008836030960083e-01" purity="7.8346717357635498e-01" nType="-99"/>
                    <Node pos="r" depth="7" NCoef="0" IVar="-1" Cut="0.0000000000000000e+00" cType="1" res="1.0513857938349247e-02" rms="4.4858598709106445e-01" purity="7.1829795837402344e-01" nType="-99"/>
                  </Node>
                </Node>
                <Node pos="r" depth="5" NCoef="0" IVar="-1" Cut="0.0000000000000000e+00" cType="1" res="-1.3498413609340787e-03" rms="4.9662137031555176e-01" purity="4.9810394644737244e-01" nType="-99"/>
              </Node>
              <Node pos="r" depth="4" NCoef="0" IVar="5" Cut="-1.4062227010726929e+00" cType="1" res="-6.7843911238014698e-03" rms="4.9414038658142090e-01" purity="5.1856118440628052e-01" nType="0">
                <Node pos="l" depth="5" NCoef="0" IVar="-1" Cut="0.0000000000000000e+00" cType="1" res="4.0820334106683731e-03" rms="4.8847010731697083e-01" purity="5.8892184495925903e-01" nType="-99"/>
                <Node pos="r" depth="5" NCoef="0" IVar="-1" Cut="0.0000000000000000e+00" cType="1" res="-6.0463012196123600e-03" rms="4.9281975626945496e-01" purity="4.4139447808265686e-01" nType="-99"/>
              </Node>
            </Node>
          </Node>
          <Node pos="r" depth="2" NCoef="0" IVar="0" Cut="9.4537013769149780e-01" cType="1" res="1.5923805534839630e-02" rms="4.8884701728820801e-01" purity="5.1415002346038818e-01" nType="0">
            <Node pos="l" depth="3" NCoef="0" IVar="1" Cut="8.2654333114624023e-01" cType="1" res="5.1376316696405411e-02" rms="4.8840636014938354e-01" purity="5.7104134559631348e-01" nType="0">
              <Node pos="l" depth="4" NCoef="0" IVar="2" Cut="6.0593269348144531e+01" cType="1" res="7.6838955283164978e-02" rms="4.8343858122825623e-01" purity="6.1042118072509766e-01" nType="0">
                <Node pos="l" depth="5" NCoef="0" IVar="1" Cut="1.0319651663303375e-01" cType="1" res="1.1172629147768021e-01" rms="4.7283256053924561e-01" purity="6.5499138832092285e-01" nType="0">
                  <Node pos="l" depth="6" NCoef="0" IVar="-1" Cut="0.0000000000000000e+00" cType="1" res="1.0735730640590191e-02" rms="4.6014168858528137e-01" purity="6.9093447923660278e-01" nType="-99"/>
                  <Node pos="r" depth="6" NCoef="0" IVar="-1" Cut="0.0000000000000000e+00" cType="1" res="5.9639448300004005e-03" rms="4.8475188016891479e-01" purity="6.1286497116088867e-01" nType="-99"/>
                </Node>
                <Node pos="r" depth="5" NCoef="0" IVar="-1" Cut="0.0000000000000000e+00" cType="1" res="3.1425880733877420e-03" rms="4.9222677946090698e-01" purity="5.5974513292312622e-01" nType="-99"/>
              </Node>
              <Node pos="r" depth="4" NCoef="0" IVar="-1" Cut="0.0000000000000000e+00" cType="1" res="-1.8381733680143952e-03" rms="4.9517211318016052e-01" purity="4.5804870128631592e-01" nType="-99"/>
            </Node>
            <Node pos="r" depth="3" NCoef="0" IVar="5" Cut="-2.3906702995300293e+00" cType="1" res="-7.3865480720996857e-02" rms="4.7834786772727966e-01" purity="3.7006351351737976e-01" nType="0">
              <Node pos="l" depth="4" NCoef="0" IVar="-1" Cut="0.0000000000000000e+00" cType="1" res="-9.8125869408249855e-04" rms="4.9628627300262451e-01" purity="4.5311042666435242e-01" nType="-99"/>
              <Node pos="r" depth="4" NCoef="0" IVar="-1" Cut="0.0000000000000000e+00" cType="1" res="-1.1646431870758533e-02" rms="4.5970654487609863e-01" purity="3.1023439764976501e-01" nType="-99"/>
            </Node>
          </Node>
        </Node>
      </Node>
    </BinaryTree>
    <BinaryTree type="DecisionTree" boostWeight="1.0000000000000000e+00" itree="14">
      <Node pos="s" depth="0" NCoef="0" IVar="3" Cut="7.1145009994506836e-01" cType="1" res="1.5948642045259476e-02" rms="4.3149176239967346e-01" purity="5.0081157684326172e-01" nType="0">
        <Node pos="l" depth="1" NCoef="0" IVar="3" Cut="5.5355739593505859e-01" cType="1" res="-1.3169738650321960e-01" rms="3.7824386358261108e-01" purity="2.1214805543422699e-01" nType="0">
          <Node pos="l" depth="2" NCoef="0" IVar="0" Cut="9.6697980165481567e-01" cType="1" res="-1.7123243212699890e-01" rms="3.1602337956428528e-01" purity="1.2424397468566895e-01" nType="0">
            <Node pos="l" depth="3" NCoef="0" IVar="5" Cut="-8.7232315540313721e-01" cType="1" res="-1.2736955285072327e-01" rms="4.1409868001937866e-01" purity="2.3776130378246307e-01" nType="0">
              <Node pos="l" depth="4" NCoef="0" IVar="6" Cut="8.8900297880172729e-02" cType="1" res="-1.0670313984155655e-01" rms="4.3898981809616089e-01" purity="2.7613028883934021e-01" nType="0">
                <Node pos="l" depth="5" NCoef="0" IVar="2" Cut="1.1404204559326172e+02" cType="1" res="-1.5671245753765106e-01" rms="3.9700430631637573e-01" purity="2.0389485359191895e-01" nType="0">
                  <Node pos="l" depth="6" NCoef="0" IVar="-1" Cut="0.0000000000000000e+00" cType="1" res="-1.3887246139347553e-02" rms="4.1658142209053040e-01" purity="2.3340649902820587e-01" nType="-99"/>
                  <Node pos="r" depth="6" NCoef="0" IVar="-1" Cut="0.0000000000000000e+00" cType="1" res="-2.0871397107839584e-02" rms="3.7166661024093628e-01" purity="1.7104460299015045e-01" nType="-99"/>
                </Node>
                <Node pos="r" depth="5" NCoef="0" IVar="1" Cut="1.7007397115230560e-01" cType="1" res="-7.0781007409095764e-02" rms="4.6350580453872681e-01" purity="3.2801768183708191e-01" nType="0">
                  <Node pos="l" depth="6" NCoef="0" IVar="-1" Cut="0.0000000000000000e+00" cType="1" res="-2.6992817874997854e-03" rms="4.8137015104293823e-01" purity="3.8400810956954956e-01" nType="-99"/>
                  <Node pos="r" depth="6" NCoef="0" IVar="-1" Cut="0.0000000000000000e+00" cType="1" res="-9.6006337553262711e-03" rms="4.5076525211334229e-01" purity="2.9491707682609558e-01" nType="-99"/>
                </Node>
              </Node>
              <Node pos="r" depth="4" NCoef="0" IVar="-1" Cut="0.0000000000000000e+00" cType="1" res="-2.3559495806694031e-02" rms="3.1519702076911926e-01" purity="1.1743936687707901e-01" nType="-99"/>
            </Node>
            <Node pos="r" depth="3" NCoef="0" IVar="6" Cut="2.6925939321517944e-01" cType="1" res="-1.8476298451423645e-01" rms="2.7749836444854736e-01" purity="8.9226841926574707e-02" nType="0">
              <Node pos="l" depth="4" NCoef="0" IVar="5" Cut="-1.5001565217971802e+00" cType="1" res="-1.8851637840270996e-01" rms="2.6935881376266479e-01" purity="8.3572715520858765e-02" nType="0">
                <Node pos="l" depth="5" NCoef="0" IVar="6" Cut="1.3041427731513977e-01" cType="1" res="-1.7300966382026672e-01" rms="3.0812937021255493e-01" purity="1.1196661740541458e-01" nType="0">
                  <Node pos="l" depth="6" NCoef="0" IVar="0" Cut="1.8404294252395630e+00" cType="1" res="-1.8664577603340149e-01" rms="2.7596399188041687e-01" purity="8.5979379713535309e-02" nType="0">
                    <Node pos="l" depth="7" NCoef="0" IVar="-1" Cut="0.0000000000000000e+00" cType="1" res="-2.2540116682648659e-02" rms="3.2164427638053894e-01" purity="1.2009729444980621e-01" nType="-99"/>
                    <Node pos="r" depth="7" NCoef="0" IVar="-1" Cut="0.0000000000000000e+00" cType="1" res="-3.1628131866455078e-02" rms="2.1481975913047791e-01" purity="4.8950333148241043e-02" nType="-99"/>
                  </Node>
                  <Node pos="r" depth="6" NCoef="0" IVar="3" Cut="3.2938763499259949e-01" cType="1" res="-1.4348700642585754e-01" rms="3.6653149127960205e-01" purity="1.6822989284992218e-01" nType="0">
                    <Node pos="l" depth="7" NCoef="0" IVar="-1" Cut="0.0000000000000000e+00" cType="1" res="-2.5016468018293381e-02" rms="3.1198814511299133e-01" purity="1.1288382112979889e-01" nType="-99"/>
                    <Node pos="r" depth="7" NCoef="0" IVar="-1" Cut="0.0000000000000000e+00" cType="1" res="-1.1061459779739380e-02" rms="4.2443650960922241e-01" purity="2.4212187528610229e-01" nType="-99"/>
                  </Node>
                </Node>
                <Node pos="r" depth="5" NCoef="0" IVar="5" Cut="6.8884932994842529e-01" cType="1" res="-2.0656630396842957e-01" rms="2.1421219408512115e-01" purity="5.0522003322839737e-02" nType="0">
                  <Node pos="l" depth="6" NCoef="0" IVar="3" Cut="4.1440737247467041e-01" cType="1" res="-1.9622936844825745e-01" rms="2.5659149885177612e-01" purity="7.3703646659851074e-02" nType="0">
                    <Node pos="l" depth="7" NCoef="0" IVar="-1" Cut="0.0000000000000000e+00" cType="1" res="-3.0510457232594490e-02" rms="2.2864824533462524e-01" purity="5.6823659688234329e-02" nType="-99"/>
                    <Node pos="r" depth="7" NCoef="0" IVar="-1" Cut="0.0000000000000000e+00" cType="1" res="-2.1798012778162956e-02" rms="3.2877081632614136e-01" purity="1.2714233994483948e-01" nType="-99"/>
                  </Node>
                  <Node pos="r" depth="6" NCoef="0" IVar="4" Cut="2.6002931594848633e+00" cType="1" res="-2.2040846943855286e-01" rms="1.3723725080490112e-01" purity="1.9479516893625259e-02" nType="0">
                    <Node pos="l" depth="7" NCoef="0" IVar="-1" Cut="0.0000000000000000e+00" cType="1" res="-3.2996702939271927e-02" rms="1.8738362193107605e-01" purity="3.7018477916717529e-02" nType="-99"/>
                    <Node pos="r" depth="7" NCoef="0" IVar="-1" Cut="0.0000000000000000e+00" cType="1" res="-3.5412978380918503e-02" rms="1.1065794527530670e-01" purity="1.2421689927577972e-02" nType="-99"/>
                  </Node>
                </Node>
              </Node>
              <Node pos="r" depth="4" NCoef="0" IVar="-1" Cut="0.0000000000000000e+00" cType="1" res="-1.3728721998631954e-02" rms="3.9957714080810547e-01" purity="2.0165260136127472e-01" nType="-99"/>
            </Node>
          </Node>
          <Node pos="r" depth="2" NCoef="0" IVar="5" Cut="-9.0808767080307007e-01" cType="1" res="-4.5252352952957153e-02" rms="4.7605827450752258e-01" purity="4.0435400605201721e-01" nType="0">
            <Node pos="l" depth="3" NCoef="0" IVar="1" Cut="8.7894576787948608e-01" cType="1" res="-2.1384708583354950e-02" rms="4.8657184839248657e-01" purity="4.4307869672775269e-01" nType="0">
              <Node pos="l" depth="4" NCoef="0" IVar="0" Cut="3.1975838541984558e-01" cType="1" res="2.2523738443851471e-03" rms="4.9249929189682007e-01" purity="4.8356997966766357e-01" nType="0">
                <Node pos="l" depth="5" NCoef="0" IVar="6" Cut="6.2596276402473450e-02" cType="1" res="5.0904683768749237e-02" rms="4.9152764678001404e-01" purity="5.7512462139129639e-01" nType="0">
                  <Node pos="l" depth="6" NCoef="0" IVar="-1" Cut="0.0000000000000000e+00" cType="1" res="1.6292604850605130e-03" rms="4.9546888470649719e-01" purity="5.4177969694137573e-01" nType="-99"/>
                  <Node pos="r" depth="6" NCoef="0" IVar="-1" Cut="0.0000000000000000e+00" cType="1" res="6.5328581258654594e-03" rms="4.8618388175964355e-01" purity="6.0508465766906738e-01" nType="-99"/>
                </Node>
                <Node pos="r" depth="5" NCoef="0" IVar="6" Cut="5.9950184077024460e-02" cType="1" res="-1.7621828243136406e-02" rms="4.9151214957237244e-01" purity="4.4617041945457458e-01" nType="0">
                  <Node pos="l" depth="6" NCoef="0" IVar="2" Cut="8.0307716369628906e+01" cType="1" res="-6.1291646212339401e-02" rms="4.8360344767570496e-01" purity="3.9318910241127014e-01" nType="0">
                    <Node pos="l" depth="7" NCoef="0" IVar="-1" Cut="0.0000000000000000e+00" cType="1" res="-1.3534167082980275e-03" rms="4.9172407388687134e-01" purity="4.3954500555992126e-01" nType="-99"/>
                    <Node pos="r" depth="7" NCoef="0" IVar="-1" Cut="0.0000000000000000e+00" cType="1" res="-1.0105371475219727e-02" rms="4.7131004929542542e-01" purity="3.4818264842033386e-01" nType="-99"/>
                  </Node>
                  <Node pos="r" depth="6" NCoef="0" IVar="2" Cut="1.4439897155761719e+02" cType="1" res="5.1813619211316109e-03" rms="4.9406006932258606e-01" purity="4.7383585572242737e-01" nType="0">
                    <Node pos="l" depth="7" NCoef="0" IVar="-1" Cut="0.0000000000000000e+00" cType="1" res="5.0925654359161854e-03" rms="4.9329924583435059e-01" purity="5.3295105695724487e-01" nType="-99"/>
                    <Node pos="r" depth="7" NCoef="0" IVar="-1" Cut="0.0000000000000000e+00" cType="1" res="-1.8547594081610441e-03" rms="4.9220851063728333e-01" purity="4.4815382361412048e-01" nType="-99"/>
                  </Node>
                </Node>
              </Node>
              <Node pos="r" depth="4" NCoef="0" IVar="1" Cut="1.4669250249862671e+00" cType="1" res="-9.6901826560497284e-02" rms="4.5904615521430969e-01" purity="3.1371471285820007e-01" nType="0">
                <Node pos="l" depth="5" NCoef="0" IVar="-1" Cut="0.0000000000000000e+00" cType="1" res="-5.3704176098108292e-03" rms="4.7505486011505127e-01" purity="3.5913902521133423e-01" nType="-99"/>
                <Node pos="r" depth="5" NCoef="0" IVar="-1" Cut="0.0000000000000000e+00" cType="1" res="-1.3847925700247288e-02" rms="4.3923532962799072e-01" purity="2.6904127001762390e-01" nType="-99"/>
              </Node>
            </Node>
            <Node pos="r" depth="3" NCoef="0" IVar="4" Cut="1.1984553337097168e+00" cType="1" res="-1.5378086268901825e-01" rms="4.0772911906242371e-01" purity="2.2826908528804779e-01" nType="0">
              <Node pos="l" depth="4" NCoef="0" IVar="-1" Cut="0.0000000000000000e+00" cType="1" res="-1.1110417544841766e-02" rms="4.5586216449737549e-01" purity="3.0968987941741943e-01" nType="-99"/>
              <Node pos="r" depth="4" NCoef="0" IVar="-1" Cut="0.0000000000000000e+00" cType="1" res="-2.2692512720823288e-02" rms="3.4059935808181763e-01" purity="1.3781189918518066e-01" nType="-99"/>
            </Node>
          </Node>
        </Node>
        <Node pos="r" depth="1" NCoef="0" IVar="0" Cut="3.2182702422142029e-01" cType="1" res="1.2572994828224182e-01" rms="4.3587109446525574e-01" purity="7.1544563770294189e-01" nType="0">
          <Node pos="l" depth="2" NCoef="0" IVar="5" Cut="-9.2420095205307007e-01" cType="1" res="1.4630421996116638e-01" rms="4.2233631014823914e-01" purity="7.5261330604553223e-01" nType="0">
            <Node pos="l" depth="3" NCoef="0" IVar="1" Cut="4.8538908362388611e-01" cType="1" res="1.5650527179241180e-01" rms="4.1480368375778198e-01" purity="7.6901882886886597e-01" nType="0">
              <Node pos="l" depth="4" NCoef="0" IVar="3" Cut="8.7274897098541260e-01" cType="1" res="1.7552761733531952e-01" rms="3.9581352472305298e-01" purity="8.0092722177505493e-01" nType="0">
                <Node pos="l" depth="5" NCoef="0" IVar="3" Cut="8.3632624149322510e-01" cType="1" res="1.3124220073223114e-01" rms="4.4578349590301514e-01" purity="7.2293621301651001e-01" nType="0">
                  <Node pos="l" depth="6" NCoef="0" IVar="6" Cut="5.7202585041522980e-02" cType="1" res="1.1792225390672684e-01" rms="4.5599371194839478e-01" purity="7.0240914821624756e-01" nType="0">
                    <Node pos="l" depth="7" NCoef="0" IVar="-1" Cut="0.0000000000000000e+00" cType="1" res="8.7144942954182625e-03" rms="4.6093073487281799e-01" purity="6.9051170349121094e-01" nType="-99"/>
                    <Node pos="r" depth="7" NCoef="0" IVar="-1" Cut="0.0000000000000000e+00" cType="1" res="1.1444184929132462e-02" rms="4.4587478041648865e-01" purity="7.2411090135574341e-01" nType="-99"/>
                  </Node>
                  <Node pos="r" depth="6" NCoef="0" IVar="5" Cut="-2.3376262187957764e+00" cType="1" res="1.5791900455951691e-01" rms="4.2333880066871643e-01" purity="7.6404726505279541e-01" nType="0">
                    <Node pos="l" depth="7" NCoef="0" IVar="-1" Cut="0.0000000000000000e+00" cType="1" res="1.4084315858781338e-02" rms="4.0832442045211792e-01" purity="7.8832173347473145e-01" nType="-99"/>
                    <Node pos="r" depth="7" NCoef="0" IVar="-1" Cut="0.0000000000000000e+00" cType="1" res="1.1237810365855694e-02" rms="4.4183006882667542e-01" purity="7.3141723871231079e-01" nType="-99"/>
                  </Node>
                </Node>
                <Node pos="r" depth="5" NCoef="0" IVar="5" Cut="-2.3096621036529541e+00" cType="1" res="1.9232259690761566e-01" rms="3.7375602126121521e-01" purity="8.3050489425659180e-01" nType="0">
                  <Node pos="l" depth="6" NCoef="0" IVar="4" Cut="-1.0304487943649292e+00" cType="1" res="2.0457473397254944e-01" rms="3.5678169131278992e-01" purity="8.4971058368682861e-01" nType="0">
                    <Node pos="l" depth="7" NCoef="0" IVar="-1" Cut="0.0000000000000000e+00" cType="1" res="1.5313299372792244e-02" rms="3.8088163733482361e-01" purity="8.2353329658508301e-01" nType="-99"/>
                    <Node pos="r" depth="7" NCoef="0" IVar="-1" Cut="0.0000000000000000e+00" cType="1" res="1.8153714016079903e-02" rms="3.4271588921546936e-01" purity="8.6388510465621948e-01" nType="-99"/>
                  </Node>
                  <Node pos="r" depth="6" NCoef="0" IVar="1" Cut="3.8089208304882050e-02" cType="1" res="1.6329103708267212e-01" rms="4.0972900390625000e-01" purity="7.8499674797058105e-01" nType="0">
                    <Node pos="l" depth="7" NCoef="0" IVar="-1" Cut="0.0000000000000000e+00" cType="1" res="1.4610935933887959e-02" rms="3.9765945076942444e-01" purity="8.0212843418121338e-01" nType="-99"/>
                    <Node pos="r" depth="7" NCoef="0" IVar="-1" Cut="0.0000000000000000e+00" cType="1" res="1.1677367612719536e-02" rms="4.3007478117942810e-01" purity="7.5325953960418701e-01" nType="-99"/>
                  </Node>
                </Node>
              </Node>
              <Node pos="r" depth="4" NCoef="0" IVar="3" Cut="9.5948666334152222e-01" cType="1" res="1.0160072892904282e-01" rms="4.6090602874755859e-01" purity="6.7692101001739502e-01" nType="0">
                <Node pos="l" depth="5" NCoef="0" IVar="0" Cut="1.0380403138697147e-02" cType="1" res="5.4922524839639664e-02" rms="4.8478436470031738e-01" purity="6.0283792018890381e-01" nType="0">
                  <Node pos="l" depth="6" NCoef="0" IVar="1" Cut="1.4021500349044800e+00" cType="1" res="7.6208263635635376e-02" rms="4.7925347089767456e-01" purity="6.3021284341812134e-01" nType="0">
                    <Node pos="l" depth="7" NCoef="0" IVar="-1" Cut="0.0000000000000000e+00" cType="1" res="7.6890285126864910e-03" rms="4.7163686156272888e-01" purity="6.5728431940078735e-01" nType="-99"/>
                    <Node pos="r" depth="7" NCoef="0" IVar="-1" Cut="0.0000000000000000e+00" cType="1" res="2.8556268662214279e-03" rms="4.9386236071586609e-01" purity="5.6798183917999268e-01" nType="-99"/>
                  </Node>
                  <Node pos="r" depth="6" NCoef="0" IVar="-1" Cut="0.0000000000000000e+00" cType="1" res="-1.0690566850826144e-03" rms="4.9581906199455261e-01" purity="5.1730942726135254e-01" nType="-99"/>
                </Node>
                <Node pos="r" depth="5" NCoef="0" IVar="1" Cut="1.0984674692153931e+00" cType="1" res="1.3805976510047913e-01" rms="4.3791034817695618e-01" purity="7.3478513956069946e-01" nType="0">
                  <Node pos="l" depth="6" NCoef="0" IVar="5" Cut="-2.3738276958465576e+00" cType="1" res="1.6069188714027405e-01" rms="4.1900700330734253e-01" purity="7.7010077238082886e-01" nType="0">
                    <Node pos="l" depth="7" NCoef="0" IVar="-1" Cut="0.0000000000000000e+00" cType="1" res="1.3989000581204891e-02" rms="4.0280392765998840e-01" purity="7.9532992839813232e-01" nType="-99"/>
                    <Node pos="r" depth="7" NCoef="0" IVar="-1" Cut="0.0000000000000000e+00" cType="1" res="1.0126153007149696e-02" rms="4.4933894276618958e-01" purity="7.1697145700454712e-01" nType="-99"/>
                  </Node>
                  <Node pos="r" depth="6" NCoef="0" IVar="5" Cut="-2.8002529144287109e+00" cType="1" res="1.0763848572969437e-01" rms="4.6035328507423401e-01" purity="6.8731522560119629e-01" nType="0">
                    <Node pos="l" depth="7" NCoef="0" IVar="-1" Cut="0.0000000000000000e+00" cType="1" res="1.1423236690461636e-02" rms="4.3599316477775574e-01" purity="7.4317955970764160e-01" nType="-99"/>
                    <Node pos="r" depth="7" NCoef="0" IVar="-1" Cut="0.0000000000000000e+00" cType="1" res="5.6942724622786045e-03" rms="4.7759553790092468e-01" purity="6.3893330097198486e-01" nType="-99"/>
                  </Node>
                </Node>
              </Node>
            </Node>
            <Node pos="r" depth="3" NCoef="0" IVar="1" Cut="-1.0725722461938858e-01" cType="1" res="1.1460857465863228e-02" rms="4.9210190773010254e-01" purity="5.3575634956359863e-01" nType="0">
              <Node pos="l" depth="4" NCoef="0" IVar="-1" Cut="0.0000000000000000e+00" cType="1" res="6.9204620085656643e-03" rms="4.8100382089614868e-01" purity="6.1928755044937134e-01" nType="-99"/>
              <Node pos="r" depth="4" NCoef="0" IVar="5" Cut="-4.7383254766464233e-01" cType="1" res="-2.3335650563240051e-02" rms="4.9377441406250000e-01" purity="4.9462074041366577e-01" nType="0">
                <Node pos="l" depth="5" NCoef="0" IVar="-1" Cut="0.0000000000000000e+00" cType="1" res="1.1109698098152876e-03" rms="4.9230247735977173e-01" purity="5.4273408651351929e-01" nType="-99"/>
                <Node pos="r" depth="5" NCoef="0" IVar="-1" Cut="0.0000000000000000e+00" cType="1" res="-5.6956154294312000e-03" rms="4.9231970310211182e-01" purity="4.4146776199340820e-01" nType="-99"/>
              </Node>
            </Node>
          </Node>
          <Node pos="r" depth="2" NCoef="0" IVar="0" Cut="6.3327538967132568e-01" cType="1" res="1.1925045400857925e-02" rms="4.8881649971008301e-01" purity="5.0985550880432129e-01" nType="0">
            <Node pos="l" depth="3" NCoef="0" IVar="3" Cut="8.3441632986068726e-01" cType="1" res="5.9579953551292419e-02" rms="4.8577737808227539e-01" purity="5.8422356843948364e-01" nType="0">
              <Node pos="l" depth="4" NCoef="0" IVar="5" Cut="-2.3348321914672852e+00" cType="1" res="2.1587874740362167e-02" rms="4.9260884523391724e-01" purity="5.3350299596786499e-01" nType="0">
                <Node pos="l" depth="5" NCoef="0" IVar="-1" Cut="0.0000000000000000e+00" cType="1" res="4.2462283745408058e-03" rms="4.8971980810165405e-01" purity="5.7727110385894775e-01" nType="-99"/>
                <Node pos="r" depth="5" NCoef="0" IVar="-1" Cut="0.0000000000000000e+00" cType="1" res="-6.9037560024298728e-05" rms="4.9350419640541077e-01" purity="5.0153887271881104e-01" nType="-99"/>
              </Node>
              <Node pos="r" depth="4" NCoef="0" IVar="0" Cut="4.3239599466323853e-01" cType="1" res="1.0300274938344955e-01" rms="4.7413626313209534e-01" purity="6.4219433069229126e-01" nType="0">
                <Node pos="l" depth="5" NCoef="0" IVar="-1" Cut="0.0000000000000000e+00" cType="1" res="9.9944518879055977e-03" rms="4.6415555477142334e-01" purity="6.7217618227005005e-01" nType="-99"/>
                <Node pos="r" depth="5" NCoef="0" IVar="-1" Cut="0.0000000000000000e+00" cType="1" res="6.3074505887925625e-03" rms="4.8263800144195557e-01" purity="6.1152684688568115e-01" nType="-99"/>
              </Node>
            </Node>
            <Node pos="r" depth="3" NCoef="0" IVar="2" Cut="1.2113490295410156e+02" cType="1" res="-4.4709526002407074e-02" rms="4.8636943101882935e-01" purity="4.2147421836853027e-01" nType="0">
              <Node pos="l" depth="4" NCoef="0" IVar="1" Cut="1.2082620859146118e+00" cType="1" res="-1.3995681889355183e-02" rms="4.9186342954635620e-01" purity="4.5727756619453430e-01" nType="0">
                <Node pos="l" depth="5" NCoef="0" IVar="-1" Cut="0.0000000000000000e+00" cType="1" res="1.4460842357948422e-03" rms="4.9509650468826294e-01" purity="5.0178867578506470e-01" nType="-99"/>
                <Node pos="r" depth="5" NCoef="0" IVar="-1" Cut="0.0000000000000000e+00" cType="1" res="-6.9567309692502022e-03" rms="4.7964811325073242e-01" purity="3.6970430612564087e-01" nType="-99"/>
              </Node>
              <Node pos="r" depth="4" NCoef="0" IVar="-1" Cut="0.0000000000000000e+00" cType="1" res="-1.3343858532607555e-02" rms="4.5781120657920837e-01" purity="3.1550112366676331e-01" nType="-99"/>
            </Node>
          </Node>
        </Node>
      </Node>
    </BinaryTree>
    <BinaryTree type="DecisionTree" boostWeight="1.0000000000000000e+00" itree="15">
      <Node pos="s" depth="0" NCoef="0" IVar="3" Cut="7.1182876825332642e-01" cType="1" res="1.5277609229087830e-02" rms="4.2909350991249084e-01" purity="5.0014662742614746e-01" nType="0">
        <Node pos="l" depth="1" NCoef="0" IVar="3" Cut="5.5398333072662354e-01" cType="1" res="-1.2607891857624054e-01" rms="3.7668973207473755e-01" purity="2.1115998923778534e-01" nType="0">
          <Node pos="l" depth="2" NCoef="0" IVar="0" Cut="9.6721953153610229e-01" cType="1" res="-1.6365922987461090e-01" rms="3.1440100073814392e-01" purity="1.2291970849037170e-01" nType="0">
            <Node pos="l" depth="3" NCoef="0" IVar="4" Cut="1.1001369953155518e+00" cType="1" res="-1.2322859466075897e-01" rms="4.1332316398620605e-01" purity="2.3655585944652557e-01" nType="0">
              <Node pos="l" depth="4" NCoef="0" IVar="6" Cut="1.1420211941003799e-01" cType="1" res="-1.0758166015148163e-01" rms="4.3458190560340881e-01" purity="2.6745894551277161e-01" nType="0">
                <Node pos="l" depth="5" NCoef="0" IVar="1" Cut="7.8848022222518921e-01" cType="1" res="-1.3444049656391144e-01" rms="4.1012504696846008e-01" purity="2.2461219131946564e-01" nType="0">
                  <Node pos="l" depth="6" NCoef="0" IVar="2" Cut="1.5038986206054688e+02" cType="1" res="-1.1166160553693771e-01" rms="4.2932030558586121e-01" purity="2.5611364841461182e-01" nType="0">
                    <Node pos="l" depth="7" NCoef="0" IVar="-1" Cut="0.0000000000000000e+00" cType="1" res="-7.7328765764832497e-03" rms="4.4829389452934265e-01" purity="2.9316306114196777e-01" nType="-99"/>
                    <Node pos="r" depth="7" NCoef="0" IVar="-1" Cut="0.0000000000000000e+00" cType="1" res="-1.6186958178877831e-02" rms="4.0380731225013733e-01" purity="2.1533124148845673e-01" nType="-99"/>
                  </Node>
                  <Node pos="r" depth="6" NCoef="0" IVar="-1" Cut="0.0000000000000000e+00" cType="1" res="-2.1454000845551491e-02" rms="3.6253309249877930e-01" purity="1.5920262038707733e-01" nType="-99"/>
                </Node>
                <Node pos="r" depth="5" NCoef="0" IVar="3" Cut="4.6725857257843018e-01" cType="1" res="-7.3223352432250977e-02" rms="4.6171995997428894e-01" purity="3.2226926088333130e-01" nType="0">
                  <Node pos="l" depth="6" NCoef="0" IVar="-1" Cut="0.0000000000000000e+00" cType="1" res="-1.1658267118036747e-02" rms="4.3730992078781128e-01" purity="2.6423114538192749e-01" nType="-99"/>
                  <Node pos="r" depth="6" NCoef="0" IVar="-1" Cut="0.0000000000000000e+00" cType="1" res="-3.3174916170537472e-03" rms="4.8227664828300476e-01" purity="3.8120681047439575e-01" nType="-99"/>
                </Node>
              </Node>
              <Node pos="r" depth="4" NCoef="0" IVar="-1" Cut="0.0000000000000000e+00" cType="1" res="-2.4619966745376587e-02" rms="2.8895163536071777e-01" purity="9.7236551344394684e-02" nType="-99"/>
            </Node>
            <Node pos="r" depth="3" NCoef="0" IVar="6" Cut="2.5573721528053284e-01" cType="1" res="-1.7616321146488190e-01" rms="2.7554011344909668e-01" purity="8.7775476276874542e-02" nType="0">
              <Node pos="l" depth="4" NCoef="0" IVar="4" Cut="1.6228240728378296e+00" cType="1" res="-1.7994493246078491e-01" rms="2.6624223589897156e-01" purity="8.1315375864505768e-02" nType="0">
                <Node pos="l" depth="5" NCoef="0" IVar="6" Cut="9.9131986498832703e-02" cType="1" res="-1.7182382941246033e-01" rms="2.9409509897232056e-01" purity="1.0029527544975281e-01" nType="0">
                  <Node pos="l" depth="6" NCoef="0" IVar="2" Cut="1.1362970733642578e+02" cType="1" res="-1.8689386546611786e-01" rms="2.5519460439682007e-01" purity="7.1809597313404083e-02" nType="0">
                    <Node pos="l" depth="7" NCoef="0" IVar="-1" Cut="0.0000000000000000e+00" cType="1" res="-2.5630895048379898e-02" rms="2.8012526035308838e-01" purity="8.7787471711635590e-02" nType="-99"/>
                    <Node pos="r" depth="7" NCoef="0" IVar="-1" Cut="0.0000000000000000e+00" cType="1" res="-2.8864726424217224e-02" rms="2.3472602665424347e-01" purity="6.0193203389644623e-02" nType="-99"/>
                  </Node>
                  <Node pos="r" depth="6" NCoef="0" IVar="3" Cut="3.4599411487579346e-01" cType="1" res="-1.5741042792797089e-01" rms="3.2634884119033813e-01" purity="1.2753978371620178e-01" nType="0">
                    <Node pos="l" depth="7" NCoef="0" IVar="-1" Cut="0.0000000000000000e+00" cType="1" res="-2.7102980762720108e-02" rms="2.7449038624763489e-01" purity="8.4330424666404724e-02" nType="-99"/>
                    <Node pos="r" depth="7" NCoef="0" IVar="-1" Cut="0.0000000000000000e+00" cType="1" res="-1.6013180837035179e-02" rms="3.8139110803604126e-01" purity="1.8322363495826721e-01" nType="-99"/>
                  </Node>
                </Node>
                <Node pos="r" depth="5" NCoef="0" IVar="4" Cut="2.5433576107025146e+00" cType="1" res="-2.0454159379005432e-01" rms="1.5103241801261902e-01" purity="2.3830315098166466e-02" nType="0">
                  <Node pos="l" depth="6" NCoef="0" IVar="-1" Cut="0.0000000000000000e+00" cType="1" res="-3.0710289254784584e-02" rms="1.9660271704196930e-01" purity="4.1228167712688446e-02" nType="-99"/>
                  <Node pos="r" depth="6" NCoef="0" IVar="7" Cut="7.0000000000000000e+00" cType="1" res="-2.0669178664684296e-01" rms="1.1966484785079956e-01" purity="1.4528367668390274e-02" nType="0">
                    <Node pos="l" depth="7" NCoef="0" IVar="-1" Cut="0.0000000000000000e+00" cType="1" res="-3.4726824611425400e-02" rms="1.1474315822124481e-01" purity="1.3373268768191338e-02" nType="-99"/>
                    <Node pos="r" depth="7" NCoef="0" IVar="-1" Cut="0.0000000000000000e+00" cType="1" res="-3.3666092902421951e-02" rms="1.2878845632076263e-01" purity="1.7018897458910942e-02" nType="-99"/>
                  </Node>
                </Node>
              </Node>
              <Node pos="r" depth="4" NCoef="0" IVar="-1" Cut="0.0000000000000000e+00" cType="1" res="-1.5091623179614544e-02" rms="3.8533622026443481e-01" purity="1.8528544902801514e-01" nType="-99"/>
            </Node>
          </Node>
          <Node pos="r" depth="2" NCoef="0" IVar="1" Cut="8.6837702989578247e-01" cType="1" res="-4.3958146125078201e-02" rms="4.7553357481956482e-01" purity="4.0398332476615906e-01" nType="0">
            <Node pos="l" depth="3" NCoef="0" IVar="5" Cut="-4.8995110392570496e-01" cType="1" res="-2.1026432514190674e-02" rms="4.8367214202880859e-01" purity="4.4382709264755249e-01" nType="0">
              <Node pos="l" depth="4" NCoef="0" IVar="0" Cut="5.8348548412322998e-01" cType="1" res="-5.4078847169876099e-03" rms="4.9108558893203735e-01" purity="4.7351583838462830e-01" nType="0">
                <Node pos="l" depth="5" NCoef="0" IVar="1" Cut="2.3441510275006294e-02" cType="1" res="1.5560322441160679e-02" rms="4.9389666318893433e-01" purity="5.1446008682250977e-01" nType="0">
                  <Node pos="l" depth="6" NCoef="0" IVar="0" Cut="3.7639850378036499e-01" cType="1" res="4.8846468329429626e-02" rms="4.9181848764419556e-01" purity="5.6171447038650513e-01" nType="0">
                    <Node pos="l" depth="7" NCoef="0" IVar="-1" Cut="0.0000000000000000e+00" cType="1" res="5.9090866707265377e-03" rms="4.8695185780525208e-01" purity="6.0303241014480591e-01" nType="-99"/>
                    <Node pos="r" depth="7" NCoef="0" IVar="-1" Cut="0.0000000000000000e+00" cType="1" res="1.4169601490721107e-03" rms="4.9645462632179260e-01" purity="5.0610649585723877e-01" nType="-99"/>
                  </Node>
                  <Node pos="r" depth="6" NCoef="0" IVar="6" Cut="6.2215298414230347e-02" cType="1" res="-1.3661747798323631e-02" rms="4.9386805295944214e-01" purity="4.7297522425651550e-01" nType="0">
                    <Node pos="l" depth="7" NCoef="0" IVar="-1" Cut="0.0000000000000000e+00" cType="1" res="-5.2386689931154251e-03" rms="4.8824343085289001e-01" purity="4.2140749096870422e-01" nType="-99"/>
                    <Node pos="r" depth="7" NCoef="0" IVar="-1" Cut="0.0000000000000000e+00" cType="1" res="1.4791740104556084e-03" rms="4.9544104933738708e-01" purity="5.0912284851074219e-01" nType="-99"/>
                  </Node>
                </Node>
                <Node pos="r" depth="5" NCoef="0" IVar="6" Cut="8.3101183176040649e-02" cType="1" res="-5.5997572839260101e-02" rms="4.8048374056816101e-01" purity="3.7473031878471375e-01" nType="0">
                  <Node pos="l" depth="6" NCoef="0" IVar="-1" Cut="0.0000000000000000e+00" cType="1" res="-8.2043167203664780e-03" rms="4.7046560049057007e-01" purity="3.3893302083015442e-01" nType="-99"/>
                  <Node pos="r" depth="6" NCoef="0" IVar="-1" Cut="0.0000000000000000e+00" cType="1" res="-2.0315959118306637e-03" rms="4.8977032303810120e-01" purity="4.1647201776504517e-01" nType="-99"/>
                </Node>
              </Node>
              <Node pos="r" depth="4" NCoef="0" IVar="-1" Cut="0.0000000000000000e+00" cType="1" res="-1.4616001397371292e-02" rms="4.0632742643356323e-01" purity="2.2359740734100342e-01" nType="-99"/>
            </Node>
            <Node pos="r" depth="3" NCoef="0" IVar="6" Cut="9.0845480561256409e-02" cType="1" res="-1.1361115425825119e-01" rms="4.4268679618835449e-01" purity="2.8296145796775818e-01" nType="0">
              <Node pos="l" depth="4" NCoef="0" IVar="1" Cut="1.4569786787033081e+00" cType="1" res="-1.3721725344657898e-01" rms="4.3106600642204285e-01" purity="2.5878876447677612e-01" nType="0">
                <Node pos="l" depth="5" NCoef="0" IVar="-1" Cut="0.0000000000000000e+00" cType="1" res="-1.0259316302835941e-02" rms="4.5127695798873901e-01" purity="2.9936587810516357e-01" nType="-99"/>
                <Node pos="r" depth="5" NCoef="0" IVar="-1" Cut="0.0000000000000000e+00" cType="1" res="-1.8286943435668945e-02" rms="4.0630367398262024e-01" purity="2.1715456247329712e-01" nType="-99"/>
              </Node>
              <Node pos="r" depth="4" NCoef="0" IVar="-1" Cut="0.0000000000000000e+00" cType="1" res="-6.7423041909933090e-03" rms="4.6072086691856384e-01" purity="3.2911753654479980e-01" nType="-99"/>
            </Node>
          </Node>
        </Node>
        <Node pos="r" depth="1" NCoef="0" IVar="5" Cut="-1.3109482526779175e+00" cType="1" res="1.2019722163677216e-01" rms="4.3545803427696228e-01" purity="7.1464234590530396e-01" nType="0">
          <Node pos="l" depth="2" NCoef="0" IVar="0" Cut="3.2182705402374268e-01" cType="1" res="1.3820523023605347e-01" rms="4.2428395152091980e-01" purity="7.4372678995132446e-01" nType="0">
            <Node pos="l" depth="3" NCoef="0" IVar="3" Cut="8.3407002687454224e-01" cType="1" res="1.5412895381450653e-01" rms="4.1095733642578125e-01" purity="7.7490431070327759e-01" nType="0">
              <Node pos="l" depth="4" NCoef="0" IVar="1" Cut="6.3038432598114014e-01" cType="1" res="8.6496502161026001e-02" rms="4.6849510073661804e-01" purity="6.6076099872589111e-01" nType="0">
                <Node pos="l" depth="5" NCoef="0" IVar="5" Cut="-2.2364318370819092e+00" cType="1" res="1.0842833667993546e-01" rms="4.5763009786605835e-01" purity="6.9746667146682739e-01" nType="0">
                  <Node pos="l" depth="6" NCoef="0" IVar="1" Cut="4.1225228458642960e-02" cType="1" res="1.2470564246177673e-01" rms="4.4893190264701843e-01" purity="7.1732187271118164e-01" nType="0">
                    <Node pos="l" depth="7" NCoef="0" IVar="-1" Cut="0.0000000000000000e+00" cType="1" res="1.1980647221207619e-02" rms="4.3507900834083557e-01" purity="7.4539613723754883e-01" nType="-99"/>
                    <Node pos="r" depth="7" NCoef="0" IVar="-1" Cut="0.0000000000000000e+00" cType="1" res="7.8862020745873451e-03" rms="4.6598455309867859e-01" purity="6.7792880535125732e-01" nType="-99"/>
                  </Node>
                  <Node pos="r" depth="6" NCoef="0" IVar="-1" Cut="0.0000000000000000e+00" cType="1" res="6.6305939108133316e-03" rms="4.7099125385284424e-01" purity="6.6306680440902710e-01" nType="-99"/>
                </Node>
                <Node pos="r" depth="5" NCoef="0" IVar="-1" Cut="0.0000000000000000e+00" cType="1" res="8.8739203056320548e-04" rms="4.9685576558113098e-01" purity="5.3384804725646973e-01" nType="-99"/>
              </Node>
              <Node pos="r" depth="4" NCoef="0" IVar="1" Cut="7.4781411886215210e-01" cType="1" res="1.6901755332946777e-01" rms="3.9562335610389709e-01" purity="8.0003184080123901e-01" nType="0">
                <Node pos="l" depth="5" NCoef="0" IVar="5" Cut="-2.2364470958709717e+00" cType="1" res="1.8128798902034760e-01" rms="3.8050127029418945e-01" purity="8.2200741767883301e-01" nType="0">
                  <Node pos="l" depth="6" NCoef="0" IVar="4" Cut="-1.0677615404129028e+00" cType="1" res="1.9094391167163849e-01" rms="3.6742928624153137e-01" purity="8.3764153718948364e-01" nType="0">
                    <Node pos="l" depth="7" NCoef="0" IVar="-1" Cut="0.0000000000000000e+00" cType="1" res="1.4190557412803173e-02" rms="3.9348441362380981e-01" purity="8.0717372894287109e-01" nType="-99"/>
                    <Node pos="r" depth="7" NCoef="0" IVar="-1" Cut="0.0000000000000000e+00" cType="1" res="1.7260007560253143e-02" rms="3.4969940781593323e-01" purity="8.5670495033264160e-01" nType="-99"/>
                  </Node>
                  <Node pos="r" depth="6" NCoef="0" IVar="3" Cut="9.7954863309860229e-01" cType="1" res="1.5238161385059357e-01" rms="4.1585475206375122e-01" purity="7.7520442008972168e-01" nType="0">
                    <Node pos="l" depth="7" NCoef="0" IVar="-1" Cut="0.0000000000000000e+00" cType="1" res="1.1209299787878990e-02" rms="4.3482002615928650e-01" purity="7.4439376592636108e-01" nType="-99"/>
                    <Node pos="r" depth="7" NCoef="0" IVar="-1" Cut="0.0000000000000000e+00" cType="1" res="1.3590263202786446e-02" rms="4.0209370851516724e-01" purity="7.9571121931076050e-01" nType="-99"/>
                  </Node>
                </Node>
                <Node pos="r" depth="5" NCoef="0" IVar="3" Cut="9.8306667804718018e-01" cType="1" res="1.0912736505270004e-01" rms="4.5769074559211731e-01" purity="6.9277232885360718e-01" nType="0">
                  <Node pos="l" depth="6" NCoef="0" IVar="-1" Cut="0.0000000000000000e+00" cType="1" res="5.8511137031018734e-03" rms="4.7977581620216370e-01" purity="6.3393002748489380e-01" nType="-99"/>
                  <Node pos="r" depth="6" NCoef="0" IVar="1" Cut="1.0459963083267212e+00" cType="1" res="1.3050398230552673e-01" rms="4.4374027848243713e-01" purity="7.2483003139495850e-01" nType="0">
                    <Node pos="l" depth="7" NCoef="0" IVar="-1" Cut="0.0000000000000000e+00" cType="1" res="1.3201515190303326e-02" rms="4.1387784481048584e-01" purity="7.7812194824218750e-01" nType="-99"/>
                    <Node pos="r" depth="7" NCoef="0" IVar="-1" Cut="0.0000000000000000e+00" cType="1" res="8.7658725678920746e-03" rms="4.5609602332115173e-01" purity="6.9947928190231323e-01" nType="-99"/>
                  </Node>
                </Node>
              </Node>
            </Node>
            <Node pos="r" depth="3" NCoef="0" IVar="0" Cut="9.4474816322326660e-01" cType="1" res="3.7389069795608521e-02" rms="4.8858955502510071e-01" purity="5.4633599519729614e-01" nType="0">
              <Node pos="l" depth="4" NCoef="0" IVar="1" Cut="7.8237158060073853e-01" cType="1" res="6.4286500215530396e-02" rms="4.8510786890983582e-01" purity="5.9673905372619629e-01" nType="0">
                <Node pos="l" depth="5" NCoef="0" IVar="2" Cut="8.3284866333007812e+01" cType="1" res="8.4303364157676697e-02" rms="4.7898703813552856e-01" purity="6.3399237394332886e-01" nType="0">
                  <Node pos="l" depth="6" NCoef="0" IVar="-1" Cut="0.0000000000000000e+00" cType="1" res="8.4630865603685379e-03" rms="4.6946319937705994e-01" purity="6.6605627536773682e-01" nType="-99"/>
                  <Node pos="r" depth="6" NCoef="0" IVar="-1" Cut="0.0000000000000000e+00" cType="1" res="3.8757016882300377e-03" rms="4.9146637320518494e-01" purity="5.8233344554901123e-01" nType="-99"/>
                </Node>
                <Node pos="r" depth="5" NCoef="0" IVar="-1" Cut="0.0000000000000000e+00" cType="1" res="7.8429002314805984e-04" rms="4.9739962816238403e-01" purity="4.9450904130935669e-01" nType="-99"/>
              </Node>
              <Node pos="r" depth="4" NCoef="0" IVar="-1" Cut="0.0000000000000000e+00" cType="1" res="-3.0929790809750557e-03" rms="4.9063619971275330e-01" purity="4.1355726122856140e-01" nType="-99"/>
            </Node>
          </Node>
          <Node pos="r" depth="2" NCoef="0" IVar="5" Cut="-3.4525668621063232e-01" cType="1" res="2.4163110647350550e-03" rms="4.8627519607543945e-01" purity="5.2441626787185669e-01" nType="0">
            <Node pos="l" depth="3" NCoef="0" IVar="0" Cut="3.1361120939254761e-01" cType="1" res="3.6919061094522476e-02" rms="4.8458376526832581e-01" purity="5.7191246747970581e-01" nType="0">
              <Node pos="l" depth="4" NCoef="0" IVar="3" Cut="9.4361311197280884e-01" cType="1" res="5.2574690431356430e-02" rms="4.8192283511161804e-01" purity="6.0668766498565674e-01" nType="0">
                <Node pos="l" depth="5" NCoef="0" IVar="5" Cut="-9.0593796968460083e-01" cType="1" res="2.6118211448192596e-02" rms="4.9069979786872864e-01" purity="5.6546664237976074e-01" nType="0">
                  <Node pos="l" depth="6" NCoef="0" IVar="-1" Cut="0.0000000000000000e+00" cType="1" res="4.3168663978576660e-03" rms="4.8441502451896667e-01" purity="6.0701149702072144e-01" nType="-99"/>
                  <Node pos="r" depth="6" NCoef="0" IVar="-1" Cut="0.0000000000000000e+00" cType="1" res="-3.3787724532885477e-05" rms="4.9618324637413025e-01" purity="5.1969885826110840e-01" nType="-99"/>
                </Node>
                <Node pos="r" depth="5" NCoef="0" IVar="-1" Cut="0.0000000000000000e+00" cType="1" res="7.1026664227247238e-03" rms="4.6864661574363708e-01" purity="6.5814089775085449e-01" nType="-99"/>
              </Node>
              <Node pos="r" depth="4" NCoef="0" IVar="-1" Cut="0.0000000000000000e+00" cType="1" res="-1.3397586299106479e-03" rms="4.8974844813346863e-01" purity="4.5600846409797668e-01" nType="-99"/>
            </Node>
            <Node pos="r" depth="3" NCoef="0" IVar="-1" Cut="0.0000000000000000e+00" cType="1" res="-8.6673814803361893e-03" rms="4.7787612676620483e-01" purity="3.9120000600814819e-01" nType="-99"/>
          </Node>
        </Node>
      </Node>
    </BinaryTree>
    <BinaryTree type="DecisionTree" boostWeight="1.0000000000000000e+00" itree="16">
      <Node pos="s" depth="0" NCoef="0" IVar="3" Cut="7.1639901399612427e-01" cType="1" res="1.5029313042759895e-02" rms="4.2709887027740479e-01" purity="4.9968251585960388e-01" nType="0">
        <Node pos="l" depth="1" NCoef="0" IVar="3" Cut="5.5738848447799683e-01" cType="1" res="-1.1799988895654678e-01" rms="3.7749963998794556e-01" purity="2.1457378566265106e-01" nType="0">
          <Node pos="l" depth="2" NCoef="0" IVar="5" Cut="-1.2603518962860107e+00" cType="1" res="-1.5428288280963898e-01" rms="3.1521263718605042e-01" purity="1.2420842051506042e-01" nType="0">
            <Node pos="l" depth="3" NCoef="0" IVar="3" Cut="4.5186614990234375e-01" cType="1" res="-1.3639655709266663e-01" rms="3.5394668579101562e-01" purity="1.6161686182022095e-01" nType="0">
              <Node pos="l" depth="4" NCoef="0" IVar="6" Cut="1.6596537828445435e-01" cType="1" res="-1.5285350382328033e-01" rms="3.1345301866531372e-01" purity="1.1766841262578964e-01" nType="0">
                <Node pos="l" depth="5" NCoef="0" IVar="6" Cut="1.0723814368247986e-01" cType="1" res="-1.6868273913860321e-01" rms="2.7516818046569824e-01" purity="8.5654325783252716e-02" nType="0">
                  <Node pos="l" depth="6" NCoef="0" IVar="2" Cut="1.6233534240722656e+02" cType="1" res="-1.7856378853321075e-01" rms="2.4804458022117615e-01" purity="6.7054696381092072e-02" nType="0">
                    <Node pos="l" depth="7" NCoef="0" IVar="-1" Cut="0.0000000000000000e+00" cType="1" res="-2.6060804724693298e-02" rms="2.6697733998298645e-01" purity="7.8779324889183044e-02" nType="-99"/>
                    <Node pos="r" depth="7" NCoef="0" IVar="-1" Cut="0.0000000000000000e+00" cType="1" res="-2.9196938499808311e-02" rms="2.1946758031845093e-01" purity="5.1428958773612976e-02" nType="-99"/>
                  </Node>
                  <Node pos="r" depth="6" NCoef="0" IVar="3" Cut="2.9585319757461548e-01" cType="1" res="-1.4966501295566559e-01" rms="3.2012760639190674e-01" purity="1.2145242094993591e-01" nType="0">
                    <Node pos="l" depth="7" NCoef="0" IVar="-1" Cut="0.0000000000000000e+00" cType="1" res="-3.0516181141138077e-02" rms="2.3037758469581604e-01" purity="5.7896044105291367e-02" nType="-99"/>
                    <Node pos="r" depth="7" NCoef="0" IVar="-1" Cut="0.0000000000000000e+00" cType="1" res="-1.6828445717692375e-02" rms="3.6429369449615479e-01" purity="1.6169831156730652e-01" nType="-99"/>
                  </Node>
                </Node>
                <Node pos="r" depth="5" NCoef="0" IVar="7" Cut="5.0000000000000000e+00" cType="1" res="-1.0626674443483353e-01" rms="3.9939826726913452e-01" purity="2.0965254306793213e-01" nType="0">
                  <Node pos="l" depth="6" NCoef="0" IVar="-1" Cut="0.0000000000000000e+00" cType="1" res="-5.6200898252427578e-03" rms="4.5028781890869141e-01" purity="2.9047241806983948e-01" nType="-99"/>
                  <Node pos="r" depth="6" NCoef="0" IVar="3" Cut="2.4186591804027557e-01" cType="1" res="-1.3368275761604309e-01" rms="3.7188938260078430e-01" purity="1.7217986285686493e-01" nType="0">
                    <Node pos="l" depth="7" NCoef="0" IVar="-1" Cut="0.0000000000000000e+00" cType="1" res="-2.3419668897986412e-02" rms="3.2542899250984192e-01" purity="1.2219730019569397e-01" nType="-99"/>
                    <Node pos="r" depth="7" NCoef="0" IVar="-1" Cut="0.0000000000000000e+00" cType="1" res="-1.1344070546329021e-02" rms="4.1159340739250183e-01" purity="2.2477620840072632e-01" nType="-99"/>
                  </Node>
                </Node>
              </Node>
              <Node pos="r" depth="4" NCoef="0" IVar="6" Cut="1.2685303390026093e-01" cType="1" res="-9.9045373499393463e-02" rms="4.2965835332870483e-01" purity="2.6136359572410583e-01" nType="0">
                <Node pos="l" depth="5" NCoef="0" IVar="7" Cut="4.0000000000000000e+00" cType="1" res="-1.1873749643564224e-01" rms="4.0900868177413940e-01" purity="2.2523501515388489e-01" nType="0">
                  <Node pos="l" depth="6" NCoef="0" IVar="-1" Cut="0.0000000000000000e+00" cType="1" res="-1.8637727946043015e-02" rms="3.7672784924507141e-01" purity="1.7653726041316986e-01" nType="-99"/>
                  <Node pos="r" depth="6" NCoef="0" IVar="2" Cut="1.4335144042968750e+02" cType="1" res="-9.7185961902141571e-02" rms="4.2835354804992676e-01" purity="2.5619950890541077e-01" nType="0">
                    <Node pos="l" depth="7" NCoef="0" IVar="-1" Cut="0.0000000000000000e+00" cType="1" res="-6.7325201816856861e-03" rms="4.4472312927246094e-01" purity="2.8778737783432007e-01" nType="-99"/>
                    <Node pos="r" depth="7" NCoef="0" IVar="-1" Cut="0.0000000000000000e+00" cType="1" res="-1.3817022554576397e-02" rms="4.1044196486473083e-01" purity="2.2713589668273926e-01" nType="-99"/>
                  </Node>
                </Node>
                <Node pos="r" depth="5" NCoef="0" IVar="-1" Cut="0.0000000000000000e+00" cType="1" res="-3.1677125953137875e-03" rms="4.7745695710182190e-01" purity="3.6982062458992004e-01" nType="-99"/>
              </Node>
            </Node>
            <Node pos="r" depth="3" NCoef="0" IVar="4" Cut="5.3575791418552399e-02" cType="1" res="-1.8184627592563629e-01" rms="2.4117186665534973e-01" purity="6.6560819745063782e-02" nType="0">
              <Node pos="l" depth="4" NCoef="0" IVar="-1" Cut="0.0000000000000000e+00" cType="1" res="-1.8589084967970848e-02" rms="3.4639307856559753e-01" purity="1.4669850468635559e-01" nType="-99"/>
              <Node pos="r" depth="4" NCoef="0" IVar="6" Cut="1.4013029634952545e-01" cType="1" res="-1.8741770088672638e-01" rms="2.2337126731872559e-01" purity="5.6193452328443527e-02" nType="0">
                <Node pos="l" depth="5" NCoef="0" IVar="1" Cut="9.5308922231197357e-02" cType="1" res="-1.9473253190517426e-01" rms="1.9622687995433807e-01" purity="4.3112352490425110e-02" nType="0">
                  <Node pos="l" depth="6" NCoef="0" IVar="-1" Cut="0.0000000000000000e+00" cType="1" res="-2.4060228839516640e-02" rms="2.6894789934158325e-01" purity="8.6377948522567749e-02" nType="-99"/>
                  <Node pos="r" depth="6" NCoef="0" IVar="5" Cut="-3.8894787430763245e-01" cType="1" res="-2.0016337931156158e-01" rms="1.7693129181861877e-01" purity="3.4122515469789505e-02" nType="0">
                    <Node pos="l" depth="7" NCoef="0" IVar="-1" Cut="0.0000000000000000e+00" cType="1" res="-2.7940316125750542e-02" rms="2.4345253407955170e-01" purity="6.7456647753715515e-02" nType="-99"/>
                    <Node pos="r" depth="7" NCoef="0" IVar="-1" Cut="0.0000000000000000e+00" cType="1" res="-3.2958488911390305e-02" rms="1.4492283761501312e-01" purity="2.1875258535146713e-02" nType="-99"/>
                  </Node>
                </Node>
                <Node pos="r" depth="5" NCoef="0" IVar="5" Cut="7.8059762716293335e-01" cType="1" res="-1.7539459466934204e-01" rms="2.6150161027908325e-01" purity="7.7694363892078400e-02" nType="0">
                  <Node pos="l" depth="6" NCoef="0" IVar="-1" Cut="0.0000000000000000e+00" cType="1" res="-2.2895740345120430e-02" rms="3.0298006534576416e-01" purity="1.0706312954425812e-01" nType="-99"/>
                  <Node pos="r" depth="6" NCoef="0" IVar="-1" Cut="0.0000000000000000e+00" cType="1" res="-2.9984701424837112e-02" rms="2.1168383955955505e-01" purity="4.8531811684370041e-02" nType="-99"/>
                </Node>
              </Node>
            </Node>
          </Node>
          <Node pos="r" depth="2" NCoef="0" IVar="5" Cut="-1.1970727443695068e+00" cType="1" res="-4.0037106722593307e-02" rms="4.7572126984596252e-01" purity="4.0874567627906799e-01" nType="0">
            <Node pos="l" depth="3" NCoef="0" IVar="1" Cut="9.2568558454513550e-01" cType="1" res="-1.6790017485618591e-02" rms="4.8595914244651794e-01" purity="4.4905003905296326e-01" nType="0">
              <Node pos="l" depth="4" NCoef="0" IVar="6" Cut="6.1523955315351486e-02" cType="1" res="4.0044994093477726e-03" rms="4.9159607291221619e-01" purity="4.8796486854553223e-01" nType="0">
                <Node pos="l" depth="5" NCoef="0" IVar="1" Cut="8.5211157798767090e-02" cType="1" res="-3.7087403237819672e-02" rms="4.8733094334602356e-01" purity="4.4253012537956238e-01" nType="0">
                  <Node pos="l" depth="6" NCoef="0" IVar="-1" Cut="0.0000000000000000e+00" cType="1" res="4.9210409633815289e-04" rms="4.9269679188728333e-01" purity="5.0595313310623169e-01" nType="-99"/>
                  <Node pos="r" depth="6" NCoef="0" IVar="-1" Cut="0.0000000000000000e+00" cType="1" res="-7.1559543721377850e-03" rms="4.7876918315887451e-01" purity="3.8294973969459534e-01" nType="-99"/>
                </Node>
                <Node pos="r" depth="5" NCoef="0" IVar="2" Cut="2.1841236877441406e+02" cType="1" res="3.1229836866259575e-02" rms="4.9251702427864075e-01" purity="5.1806759834289551e-01" nType="0">
                  <Node pos="l" depth="6" NCoef="0" IVar="3" Cut="6.3431608676910400e-01" cType="1" res="6.8626992404460907e-02" rms="4.8982688784599304e-01" purity="5.5804115533828735e-01" nType="0">
                    <Node pos="l" depth="7" NCoef="0" IVar="-1" Cut="0.0000000000000000e+00" cType="1" res="2.9533484485000372e-03" rms="4.9626454710960388e-01" purity="4.9171915650367737e-01" nType="-99"/>
                    <Node pos="r" depth="7" NCoef="0" IVar="-1" Cut="0.0000000000000000e+00" cType="1" res="7.3830448091030121e-03" rms="4.8296928405761719e-01" purity="6.1076492071151733e-01" nType="-99"/>
                  </Node>
                  <Node pos="r" depth="6" NCoef="0" IVar="0" Cut="5.2872920036315918e-01" cType="1" res="-6.5001584589481354e-03" rms="4.9234607815742493e-01" purity="4.7773823142051697e-01" nType="0">
                    <Node pos="l" depth="7" NCoef="0" IVar="-1" Cut="0.0000000000000000e+00" cType="1" res="2.4826670996844769e-03" rms="4.9517184495925903e-01" purity="5.4089099168777466e-01" nType="-99"/>
                    <Node pos="r" depth="7" NCoef="0" IVar="-1" Cut="0.0000000000000000e+00" cType="1" res="-5.1766471005976200e-03" rms="4.8420628905296326e-01" purity="3.9000296592712402e-01" nType="-99"/>
                  </Node>
                </Node>
              </Node>
              <Node pos="r" depth="4" NCoef="0" IVar="6" Cut="6.3871011137962341e-02" cType="1" res="-8.9858412742614746e-02" rms="4.5818689465522766e-01" purity="3.1230986118316650e-01" nType="0">
                <Node pos="l" depth="5" NCoef="0" IVar="-1" Cut="0.0000000000000000e+00" cType="1" res="-1.2801420874893665e-02" rms="4.3952706456184387e-01" purity="2.7090561389923096e-01" nType="-99"/>
                <Node pos="r" depth="5" NCoef="0" IVar="-1" Cut="0.0000000000000000e+00" cType="1" res="-5.9127104468643665e-03" rms="4.7028288245201111e-01" purity="3.4462577104568481e-01" nType="-99"/>
              </Node>
            </Node>
            <Node pos="r" depth="3" NCoef="0" IVar="4" Cut="1.1762588024139404e+00" cType="1" res="-1.1894351989030838e-01" rms="4.2992079257965088e-01" purity="2.7194264531135559e-01" nType="0">
              <Node pos="l" depth="4" NCoef="0" IVar="-1" Cut="0.0000000000000000e+00" cType="1" res="-7.4984943494200706e-03" rms="4.6864807605743408e-01" purity="3.4839749336242676e-01" nType="-99"/>
              <Node pos="r" depth="4" NCoef="0" IVar="-1" Cut="0.0000000000000000e+00" cType="1" res="-2.0866116508841515e-02" rms="3.4952175617218018e-01" purity="1.4889855682849884e-01" nType="-99"/>
            </Node>
          </Node>
        </Node>
        <Node pos="r" depth="1" NCoef="0" IVar="5" Cut="-1.3698112964630127e+00" cType="1" res="1.1574483662843704e-01" rms="4.3483951687812805e-01" purity="7.1553641557693481e-01" nType="0">
          <Node pos="l" depth="2" NCoef="0" IVar="0" Cut="3.2182705402374268e-01" cType="1" res="1.3302995264530182e-01" rms="4.2366361618041992e-01" purity="7.4497109651565552e-01" nType="0">
            <Node pos="l" depth="3" NCoef="0" IVar="3" Cut="8.7677174806594849e-01" cType="1" res="1.4740341901779175e-01" rms="4.1102489829063416e-01" purity="7.7474200725555420e-01" nType="0">
              <Node pos="l" depth="4" NCoef="0" IVar="1" Cut="3.0162698030471802e-01" cType="1" res="9.8164059221744537e-02" rms="4.5834493637084961e-01" purity="6.8736535310745239e-01" nType="0">
                <Node pos="l" depth="5" NCoef="0" IVar="3" Cut="8.0437099933624268e-01" cType="1" res="1.2452249228954315e-01" rms="4.4082447886466980e-01" purity="7.3298835754394531e-01" nType="0">
                  <Node pos="l" depth="6" NCoef="0" IVar="0" Cut="1.9724239408969879e-01" cType="1" res="9.7895719110965729e-02" rms="4.6095684170722961e-01" purity="6.9199448823928833e-01" nType="0">
                    <Node pos="l" depth="7" NCoef="0" IVar="-1" Cut="0.0000000000000000e+00" cType="1" res="9.3107139691710472e-03" rms="4.5190635323524475e-01" purity="7.1254646778106689e-01" nType="-99"/>
                    <Node pos="r" depth="7" NCoef="0" IVar="-1" Cut="0.0000000000000000e+00" cType="1" res="6.3344705849885941e-03" rms="4.7258487343788147e-01" purity="6.6172301769256592e-01" nType="-99"/>
                  </Node>
                  <Node pos="r" depth="6" NCoef="0" IVar="5" Cut="-2.2936587333679199e+00" cType="1" res="1.4218115806579590e-01" rms="4.2603278160095215e-01" purity="7.6017516851425171e-01" nType="0">
                    <Node pos="l" depth="7" NCoef="0" IVar="-1" Cut="0.0000000000000000e+00" cType="1" res="1.2946880422532558e-02" rms="4.1314151883125305e-01" purity="7.8110754489898682e-01" nType="-99"/>
                    <Node pos="r" depth="7" NCoef="0" IVar="-1" Cut="0.0000000000000000e+00" cType="1" res="9.5650451257824898e-03" rms="4.4593754410743713e-01" purity="7.2466719150543213e-01" nType="-99"/>
                  </Node>
                </Node>
                <Node pos="r" depth="5" NCoef="0" IVar="0" Cut="1.7648342251777649e-01" cType="1" res="5.3082983940839767e-02" rms="4.8353233933448792e-01" purity="6.0933595895767212e-01" nType="0">
                  <Node pos="l" depth="6" NCoef="0" IVar="1" Cut="9.2074304819107056e-01" cType="1" res="7.2389446198940277e-02" rms="4.7785082459449768e-01" purity="6.3485151529312134e-01" nType="0">
                    <Node pos="l" depth="7" NCoef="0" IVar="-1" Cut="0.0000000000000000e+00" cType="1" res="7.3728258721530437e-03" rms="4.6640422940254211e-01" purity="6.7526894807815552e-01" nType="-99"/>
                    <Node pos="r" depth="7" NCoef="0" IVar="-1" Cut="0.0000000000000000e+00" cType="1" res="3.3130322117358446e-03" rms="4.9261268973350525e-01" purity="5.7547980546951294e-01" nType="-99"/>
                  </Node>
                  <Node pos="r" depth="6" NCoef="0" IVar="-1" Cut="0.0000000000000000e+00" cType="1" res="7.3358044028282166e-04" rms="4.9360939860343933e-01" purity="5.4979288578033447e-01" nType="-99"/>
                </Node>
              </Node>
              <Node pos="r" depth="4" NCoef="0" IVar="1" Cut="2.1323662996292114e-01" cType="1" res="1.6697163879871368e-01" rms="3.8890373706817627e-01" purity="8.0946630239486694e-01" nType="0">
                <Node pos="l" depth="5" NCoef="0" IVar="5" Cut="-2.5125668048858643e+00" cType="1" res="1.8730475008487701e-01" rms="3.6235758662223816e-01" purity="8.4356433153152466e-01" nType="0">
                  <Node pos="l" depth="6" NCoef="0" IVar="5" Cut="-3.0497140884399414e+00" cType="1" res="1.9902834296226501e-01" rms="3.4473440051078796e-01" purity="8.6182647943496704e-01" nType="0">
                    <Node pos="l" depth="7" NCoef="0" IVar="-1" Cut="0.0000000000000000e+00" cType="1" res="1.7624545842409134e-02" rms="3.3208969235420227e-01" purity="8.7343388795852661e-01" nType="-99"/>
                    <Node pos="r" depth="7" NCoef="0" IVar="-1" Cut="0.0000000000000000e+00" cType="1" res="1.6416002064943314e-02" rms="3.5362362861633301e-01" purity="8.5324257612228394e-01" nType="-99"/>
                  </Node>
                  <Node pos="r" depth="6" NCoef="0" IVar="4" Cut="-1.0156804323196411e+00" cType="1" res="1.6647751629352570e-01" rms="3.9084869623184204e-01" purity="8.1112122535705566e-01" nType="0">
                    <Node pos="l" depth="7" NCoef="0" IVar="-1" Cut="0.0000000000000000e+00" cType="1" res="1.2287036515772343e-02" rms="4.0860548615455627e-01" purity="7.8771322965621948e-01" nType="-99"/>
                    <Node pos="r" depth="7" NCoef="0" IVar="-1" Cut="0.0000000000000000e+00" cType="1" res="1.5139034949243069e-02" rms="3.8057523965835571e-01" purity="8.2371973991394043e-01" nType="-99"/>
                  </Node>
                </Node>
                <Node pos="r" depth="5" NCoef="0" IVar="1" Cut="1.1595023870468140e+00" cType="1" res="1.3446554541587830e-01" rms="4.2592385411262512e-01" purity="7.5495457649230957e-01" nType="0">
                  <Node pos="l" depth="6" NCoef="0" IVar="4" Cut="-8.0456489324569702e-01" cType="1" res="1.4996579289436340e-01" rms="4.1008311510086060e-01" purity="7.8288644552230835e-01" nType="0">
                    <Node pos="l" depth="7" NCoef="0" IVar="-1" Cut="0.0000000000000000e+00" cType="1" res="1.0142890736460686e-02" rms="4.3168160319328308e-01" purity="7.5000244379043579e-01" nType="-99"/>
                    <Node pos="r" depth="7" NCoef="0" IVar="-1" Cut="0.0000000000000000e+00" cType="1" res="1.4110104180872440e-02" rms="3.9362540841102600e-01" purity="8.0560463666915894e-01" nType="-99"/>
                  </Node>
                  <Node pos="r" depth="6" NCoef="0" IVar="4" Cut="-4.8728245496749878e-01" cType="1" res="8.9529730379581451e-02" rms="4.6592622995376587e-01" purity="6.7397880554199219e-01" nType="0">
                    <Node pos="l" depth="7" NCoef="0" IVar="-1" Cut="0.0000000000000000e+00" cType="1" res="4.7655273228883743e-03" rms="4.7884073853492737e-01" purity="6.3742029666900635e-01" nType="-99"/>
                    <Node pos="r" depth="7" NCoef="0" IVar="-1" Cut="0.0000000000000000e+00" cType="1" res="1.0207261890172958e-02" rms="4.4749236106872559e-01" purity="7.1777439117431641e-01" nType="-99"/>
                  </Node>
                </Node>
              </Node>
            </Node>
            <Node pos="r" depth="3" NCoef="0" IVar="0" Cut="6.3328051567077637e-01" cType="1" res="3.9720579981803894e-02" rms="4.8777800798416138e-01" purity="5.5170530080795288e-01" nType="0">
              <Node pos="l" depth="4" NCoef="0" IVar="3" Cut="8.3991086483001709e-01" cType="1" res="7.9928837716579437e-02" rms="4.7955778241157532e-01" purity="6.2265956401824951e-01" nType="0">
                <Node pos="l" depth="5" NCoef="0" IVar="-1" Cut="0.0000000000000000e+00" cType="1" res="3.6917589604854584e-03" rms="4.9058312177658081e-01" purity="5.7388073205947876e-01" nType="-99"/>
                <Node pos="r" depth="5" NCoef="0" IVar="-1" Cut="0.0000000000000000e+00" cType="1" res="9.0942094102501869e-03" rms="4.6525838971138000e-01" purity="6.7290937900543213e-01" nType="-99"/>
              </Node>
              <Node pos="r" depth="4" NCoef="0" IVar="0" Cut="1.2360972166061401e+00" cType="1" res="-9.5949657261371613e-03" rms="4.9321928620338440e-01" purity="4.6467965841293335e-01" nType="0">
                <Node pos="l" depth="5" NCoef="0" IVar="-1" Cut="0.0000000000000000e+00" cType="1" res="1.3880399055778980e-03" rms="4.9584490060806274e-01" purity="5.1366889476776123e-01" nType="-99"/>
                <Node pos="r" depth="5" NCoef="0" IVar="-1" Cut="0.0000000000000000e+00" cType="1" res="-4.2733578011393547e-03" rms="4.8720511794090271e-01" purity="3.9621871709823608e-01" nType="-99"/>
              </Node>
            </Node>
          </Node>
          <Node pos="r" depth="2" NCoef="0" IVar="1" Cut="3.6629238724708557e-01" cType="1" res="9.2270569875836372e-03" rms="4.8479235172271729e-01" purity="5.3414827585220337e-01" nType="0">
            <Node pos="l" depth="3" NCoef="0" IVar="5" Cut="-4.0645053982734680e-01" cType="1" res="6.0950800776481628e-02" rms="4.7929683327674866e-01" purity="6.0630238056182861e-01" nType="0">
              <Node pos="l" depth="4" NCoef="0" IVar="3" Cut="8.7885409593582153e-01" cType="1" res="9.0729944407939911e-02" rms="4.7075805068016052e-01" purity="6.5159958600997925e-01" nType="0">
                <Node pos="l" depth="5" NCoef="0" IVar="-1" Cut="0.0000000000000000e+00" cType="1" res="5.6512211449444294e-03" rms="4.8535764217376709e-01" purity="6.0459923744201660e-01" nType="-99"/>
                <Node pos="r" depth="5" NCoef="0" IVar="-1" Cut="0.0000000000000000e+00" cType="1" res="9.3680340796709061e-03" rms="4.5720192790031433e-01" purity="6.9084775447845459e-01" nType="-99"/>
              </Node>
              <Node pos="r" depth="4" NCoef="0" IVar="-1" Cut="0.0000000000000000e+00" cType="1" res="-2.2874933201819658e-03" rms="4.9320775270462036e-01" purity="4.7423124313354492e-01" nType="-99"/>
            </Node>
            <Node pos="r" depth="3" NCoef="0" IVar="5" Cut="-7.2709661722183228e-01" cType="1" res="-7.0995613932609558e-02" rms="4.8234415054321289e-01" purity="4.2223849892616272e-01" nType="0">
              <Node pos="l" depth="4" NCoef="0" IVar="-1" Cut="0.0000000000000000e+00" cType="1" res="-1.3382582692429423e-03" rms="4.9075430631637573e-01" purity="4.9704110622406006e-01" nType="-99"/>
              <Node pos="r" depth="4" NCoef="0" IVar="-1" Cut="0.0000000000000000e+00" cType="1" res="-1.2082776986062527e-02" rms="4.6625238656997681e-01" purity="3.4358257055282593e-01" nType="-99"/>
            </Node>
          </Node>
        </Node>
      </Node>
    </BinaryTree>
    <BinaryTree type="DecisionTree" boostWeight="1.0000000000000000e+00" itree="17">
      <Node pos="s" depth="0" NCoef="0" IVar="3" Cut="7.1539324522018433e-01" cType="1" res="1.5612052753567696e-02" rms="4.2515608668327332e-01" purity="4.9984419345855713e-01" nType="0">
        <Node pos="l" depth="1" NCoef="0" IVar="3" Cut="6.0179507732391357e-01" cType="1" res="-1.1098627001047134e-01" rms="3.7721595168113708e-01" purity="2.1467979252338409e-01" nType="0">
          <Node pos="l" depth="2" NCoef="0" IVar="3" Cut="4.6842101216316223e-01" cType="1" res="-1.3902522623538971e-01" rms="3.3400776982307434e-01" purity="1.4576660096645355e-01" nType="0">
            <Node pos="l" depth="3" NCoef="0" IVar="6" Cut="1.6632510721683502e-01" cType="1" res="-1.5600708127021790e-01" rms="2.8153514862060547e-01" purity="9.3253776431083679e-02" nType="0">
              <Node pos="l" depth="4" NCoef="0" IVar="4" Cut="1.6431593894958496e+00" cType="1" res="-1.6734485328197479e-01" rms="2.4798280000686646e-01" purity="6.9194130599498749e-02" nType="0">
                <Node pos="l" depth="5" NCoef="0" IVar="6" Cut="1.0740059614181519e-01" cType="1" res="-1.6107012331485748e-01" rms="2.7543532848358154e-01" purity="8.6032480001449585e-02" nType="0">
                  <Node pos="l" depth="6" NCoef="0" IVar="2" Cut="8.1456764221191406e+01" cType="1" res="-1.6914014518260956e-01" rms="2.5080263614654541e-01" purity="6.9142445921897888e-02" nType="0">
                    <Node pos="l" depth="7" NCoef="0" IVar="-1" Cut="0.0000000000000000e+00" cType="1" res="-2.3423857986927032e-02" rms="2.8667345643043518e-01" purity="9.2179328203201294e-02" nType="-99"/>
                    <Node pos="r" depth="7" NCoef="0" IVar="-1" Cut="0.0000000000000000e+00" cType="1" res="-2.7425087988376617e-02" rms="2.3609732091426849e-01" purity="6.0840297490358353e-02" nType="-99"/>
                  </Node>
                  <Node pos="r" depth="6" NCoef="0" IVar="3" Cut="3.1097927689552307e-01" cType="1" res="-1.4654847979545593e-01" rms="3.1442373991012573e-01" purity="1.1642533540725708e-01" nType="0">
                    <Node pos="l" depth="7" NCoef="0" IVar="-1" Cut="0.0000000000000000e+00" cType="1" res="-2.9860895127058029e-02" rms="2.2886009514331818e-01" purity="5.6269157677888870e-02" nType="-99"/>
                    <Node pos="r" depth="7" NCoef="0" IVar="-1" Cut="0.0000000000000000e+00" cType="1" res="-1.6794718801975250e-02" rms="3.6096906661987305e-01" purity="1.5814058482646942e-01" nType="-99"/>
                  </Node>
                </Node>
                <Node pos="r" depth="5" NCoef="0" IVar="6" Cut="1.1833638697862625e-01" cType="1" res="-1.8727044761180878e-01" rms="1.2386994063854218e-01" purity="1.5723453834652901e-02" nType="0">
                  <Node pos="l" depth="6" NCoef="0" IVar="0" Cut="1.9329327344894409e+00" cType="1" res="-1.9164627790451050e-01" rms="9.7934730350971222e-02" purity="9.6183279529213905e-03" nType="0">
                    <Node pos="l" depth="7" NCoef="0" IVar="-1" Cut="0.0000000000000000e+00" cType="1" res="-3.2273702323436737e-02" rms="1.0816086083650589e-01" purity="1.1735143139958382e-02" nType="-99"/>
                    <Node pos="r" depth="7" NCoef="0" IVar="-1" Cut="0.0000000000000000e+00" cType="1" res="-3.5265509039163589e-02" rms="8.9161068201065063e-02" purity="8.0078812316060066e-03" nType="-99"/>
                  </Node>
                  <Node pos="r" depth="6" NCoef="0" IVar="-1" Cut="0.0000000000000000e+00" cType="1" res="-3.0968358740210533e-02" rms="1.6632117331027985e-01" purity="2.8936624526977539e-02" nType="-99"/>
                </Node>
              </Node>
              <Node pos="r" depth="4" NCoef="0" IVar="4" Cut="9.1894072294235229e-01" cType="1" res="-1.2573321163654327e-01" rms="3.5417816042900085e-01" purity="1.5749730169773102e-01" nType="0">
                <Node pos="l" depth="5" NCoef="0" IVar="7" Cut="5.0000000000000000e+00" cType="1" res="-1.0523499548435211e-01" rms="3.8915541768074036e-01" purity="1.9979232549667358e-01" nType="0">
                  <Node pos="l" depth="6" NCoef="0" IVar="-1" Cut="0.0000000000000000e+00" cType="1" res="-7.2093587368726730e-03" rms="4.3612283468246460e-01" purity="2.6609328389167786e-01" nType="-99"/>
                  <Node pos="r" depth="6" NCoef="0" IVar="3" Cut="2.3390629887580872e-01" cType="1" res="-1.2916730344295502e-01" rms="3.6574819684028625e-01" purity="1.6562017798423767e-01" nType="0">
                    <Node pos="l" depth="7" NCoef="0" IVar="-1" Cut="0.0000000000000000e+00" cType="1" res="-2.2303650155663490e-02" rms="3.2567629218101501e-01" purity="1.2275902926921844e-01" nType="-99"/>
                    <Node pos="r" depth="7" NCoef="0" IVar="-1" Cut="0.0000000000000000e+00" cType="1" res="-1.2682982720434666e-02" rms="3.9609122276306152e-01" purity="2.0365713536739349e-01" nType="-99"/>
                  </Node>
                </Node>
                <Node pos="r" depth="5" NCoef="0" IVar="3" Cut="2.6402813196182251e-01" cType="1" res="-1.6285982728004456e-01" rms="2.6160854101181030e-01" purity="7.6079890131950378e-02" nType="0">
                  <Node pos="l" depth="6" NCoef="0" IVar="-1" Cut="0.0000000000000000e+00" cType="1" res="-2.4266107007861137e-02" rms="2.8113764524459839e-01" purity="8.8564097881317139e-02" nType="-99"/>
                  <Node pos="r" depth="6" NCoef="0" IVar="-1" Cut="0.0000000000000000e+00" cType="1" res="-2.6557432487607002e-02" rms="2.4094873666763306e-01" purity="6.4076140522956848e-02" nType="-99"/>
                </Node>
              </Node>
            </Node>
            <Node pos="r" depth="3" NCoef="0" IVar="5" Cut="2.9983964562416077e-01" cType="1" res="-1.0163698345422745e-01" rms="4.2501777410507202e-01" purity="2.6138189435005188e-01" nType="0">
              <Node pos="l" depth="4" NCoef="0" IVar="6" Cut="1.2772311270236969e-01" cType="1" res="-9.1208755970001221e-02" rms="4.3913808465003967e-01" purity="2.8278604149818420e-01" nType="0">
                <Node pos="l" depth="5" NCoef="0" IVar="1" Cut="3.8586400449275970e-02" cType="1" res="-1.0840304195880890e-01" rms="4.2711046338081360e-01" purity="2.5824132561683655e-01" nType="0">
                  <Node pos="l" depth="6" NCoef="0" IVar="2" Cut="1.6613247680664062e+02" cType="1" res="-5.7397365570068359e-02" rms="4.6371465921401978e-01" purity="3.4074127674102783e-01" nType="0">
                    <Node pos="l" depth="7" NCoef="0" IVar="-1" Cut="0.0000000000000000e+00" cType="1" res="-1.2189646949991584e-03" rms="4.7697532176971436e-01" purity="3.8807123899459839e-01" nType="-99"/>
                    <Node pos="r" depth="7" NCoef="0" IVar="-1" Cut="0.0000000000000000e+00" cType="1" res="-1.0345989838242531e-02" rms="4.4612243771553040e-01" purity="2.9444023966789246e-01" nType="-99"/>
                  </Node>
                  <Node pos="r" depth="6" NCoef="0" IVar="6" Cut="5.4085586220026016e-02" cType="1" res="-1.2831032276153564e-01" rms="4.1022545099258423e-01" purity="2.2604197263717651e-01" nType="0">
                    <Node pos="l" depth="7" NCoef="0" IVar="-1" Cut="0.0000000000000000e+00" cType="1" res="-1.8933154642581940e-02" rms="3.7667012214660645e-01" purity="1.7789547145366669e-01" nType="-99"/>
                    <Node pos="r" depth="7" NCoef="0" IVar="-1" Cut="0.0000000000000000e+00" cType="1" res="-1.1908055283129215e-02" rms="4.2309865355491638e-01" purity="2.4746194481849670e-01" nType="-99"/>
                  </Node>
                </Node>
                <Node pos="r" depth="5" NCoef="0" IVar="-1" Cut="0.0000000000000000e+00" cType="1" res="-2.7461028657853603e-03" rms="4.7522398829460144e-01" purity="3.7232592701911926e-01" nType="-99"/>
              </Node>
              <Node pos="r" depth="4" NCoef="0" IVar="-1" Cut="0.0000000000000000e+00" cType="1" res="-2.6571616530418396e-02" rms="2.4623198807239532e-01" purity="6.8140059709548950e-02" nType="-99"/>
            </Node>
          </Node>
          <Node pos="r" depth="2" NCoef="0" IVar="5" Cut="-9.0808767080307007e-01" cType="1" res="-1.8142685294151306e-02" rms="4.8251959681510925e-01" purity="4.4286763668060303e-01" nType="0">
            <Node pos="l" depth="3" NCoef="0" IVar="1" Cut="7.0200212299823761e-02" cType="1" res="-3.7918079760856926e-04" rms="4.8994365334510803e-01" purity="4.7697219252586365e-01" nType="0">
              <Node pos="l" depth="4" NCoef="0" IVar="6" Cut="6.3296914100646973e-02" cType="1" res="4.5098789036273956e-02" rms="4.9165478348731995e-01" purity="5.5922031402587891e-01" nType="0">
                <Node pos="l" depth="5" NCoef="0" IVar="-1" Cut="0.0000000000000000e+00" cType="1" res="2.0877881906926632e-03" rms="4.9389442801475525e-01" purity="5.3564429283142090e-01" nType="-99"/>
                <Node pos="r" depth="5" NCoef="0" IVar="-1" Cut="0.0000000000000000e+00" cType="1" res="4.9586305394768715e-03" rms="4.8948565125465393e-01" purity="5.7619917392730713e-01" nType="-99"/>
              </Node>
              <Node pos="r" depth="4" NCoef="0" IVar="6" Cut="7.3918379843235016e-02" cType="1" res="-2.8984230011701584e-02" rms="4.8669207096099854e-01" purity="4.2523911595344543e-01" nType="0">
                <Node pos="l" depth="5" NCoef="0" IVar="2" Cut="8.4669486999511719e+01" cType="1" res="-6.1793137341737747e-02" rms="4.7887071967124939e-01" purity="3.8621148467063904e-01" nType="0">
                  <Node pos="l" depth="6" NCoef="0" IVar="-1" Cut="0.0000000000000000e+00" cType="1" res="-2.0209334325045347e-03" rms="4.8663336038589478e-01" purity="4.2757388949394226e-01" nType="-99"/>
                  <Node pos="r" depth="6" NCoef="0" IVar="-1" Cut="0.0000000000000000e+00" cType="1" res="-9.6078887581825256e-03" rms="4.6835079789161682e-01" purity="3.4687513113021851e-01" nType="-99"/>
                </Node>
                <Node pos="r" depth="5" NCoef="0" IVar="2" Cut="2.4778282165527344e+02" cType="1" res="1.0840531438589096e-02" rms="4.9309581518173218e-01" purity="4.7261238098144531e-01" nType="0">
                  <Node pos="l" depth="6" NCoef="0" IVar="-1" Cut="0.0000000000000000e+00" cType="1" res="3.2156805973500013e-03" rms="4.9367836117744446e-01" purity="5.0375950336456299e-01" nType="-99"/>
                  <Node pos="r" depth="6" NCoef="0" IVar="-1" Cut="0.0000000000000000e+00" cType="1" res="-2.1683073136955500e-03" rms="4.9022665619850159e-01" purity="4.3443241715431213e-01" nType="-99"/>
                </Node>
              </Node>
            </Node>
            <Node pos="r" depth="3" NCoef="0" IVar="-1" Cut="0.0000000000000000e+00" cType="1" res="-1.0647376067936420e-02" rms="4.3437075614929199e-01" purity="2.7688381075859070e-01" nType="-99"/>
          </Node>
        </Node>
        <Node pos="r" depth="1" NCoef="0" IVar="0" Cut="3.2204881310462952e-01" cType="1" res="1.1128894984722137e-01" rms="4.3423694372177124e-01" purity="7.1535760164260864e-01" nType="0">
          <Node pos="l" depth="2" NCoef="0" IVar="5" Cut="-1.7387841939926147e+00" cType="1" res="1.2945327162742615e-01" rms="4.2153111100196838e-01" purity="7.5205874443054199e-01" nType="0">
            <Node pos="l" depth="3" NCoef="0" IVar="3" Cut="8.3728718757629395e-01" cType="1" res="1.4727872610092163e-01" rms="4.0568843483924866e-01" purity="7.8338032960891724e-01" nType="0">
              <Node pos="l" depth="4" NCoef="0" IVar="1" Cut="5.6681340932846069e-01" cType="1" res="9.0885408222675323e-02" rms="4.6347406506538391e-01" purity="6.7599725723266602e-01" nType="0">
                <Node pos="l" depth="5" NCoef="0" IVar="3" Cut="7.6650738716125488e-01" cType="1" res="1.0636772960424423e-01" rms="4.5268175005912781e-01" purity="7.0899909734725952e-01" nType="0">
                  <Node pos="l" depth="6" NCoef="0" IVar="-1" Cut="0.0000000000000000e+00" cType="1" res="5.9799635782837868e-03" rms="4.7214898467063904e-01" purity="6.6084045171737671e-01" nType="-99"/>
                  <Node pos="r" depth="6" NCoef="0" IVar="6" Cut="4.4290952384471893e-02" cType="1" res="1.2038011103868484e-01" rms="4.4405508041381836e-01" purity="7.2782278060913086e-01" nType="0">
                    <Node pos="l" depth="7" NCoef="0" IVar="-1" Cut="0.0000000000000000e+00" cType="1" res="8.0562094226479530e-03" rms="4.5562347769737244e-01" purity="7.0338577032089233e-01" nType="-99"/>
                    <Node pos="r" depth="7" NCoef="0" IVar="-1" Cut="0.0000000000000000e+00" cType="1" res="1.1320663616061211e-02" rms="4.3227112293243408e-01" purity="7.4968051910400391e-01" nType="-99"/>
                  </Node>
                </Node>
                <Node pos="r" depth="5" NCoef="0" IVar="-1" Cut="0.0000000000000000e+00" cType="1" res="3.5852750297635794e-03" rms="4.9172067642211914e-01" purity="5.7620680332183838e-01" nType="-99"/>
              </Node>
              <Node pos="r" depth="4" NCoef="0" IVar="1" Cut="4.3640297651290894e-01" cType="1" res="1.5945747494697571e-01" rms="3.9102599024772644e-01" purity="8.0657094717025757e-01" nType="0">
                <Node pos="l" depth="5" NCoef="0" IVar="5" Cut="-2.6504406929016113e+00" cType="1" res="1.7492920160293579e-01" rms="3.6961770057678223e-01" purity="8.3530300855636597e-01" nType="0">
                  <Node pos="l" depth="6" NCoef="0" IVar="4" Cut="-1.3380812406539917e+00" cType="1" res="1.8633173406124115e-01" rms="3.5304653644561768e-01" purity="8.5319060087203979e-01" nType="0">
                    <Node pos="l" depth="7" NCoef="0" IVar="-1" Cut="0.0000000000000000e+00" cType="1" res="1.3951084576547146e-02" rms="3.8357546925544739e-01" purity="8.2009577751159668e-01" nType="-99"/>
                    <Node pos="r" depth="7" NCoef="0" IVar="-1" Cut="0.0000000000000000e+00" cType="1" res="1.6975617036223412e-02" rms="3.3818399906158447e-01" purity="8.6801189184188843e-01" nType="-99"/>
                  </Node>
                  <Node pos="r" depth="6" NCoef="0" IVar="4" Cut="-9.4802063703536987e-01" cType="1" res="1.5869919955730438e-01" rms="3.9142578840255737e-01" purity="8.0984228849411011e-01" nType="0">
                    <Node pos="l" depth="7" NCoef="0" IVar="-1" Cut="0.0000000000000000e+00" cType="1" res="1.1836371384561062e-02" rms="4.1022959351539612e-01" purity="7.8478300571441650e-01" nType="-99"/>
                    <Node pos="r" depth="7" NCoef="0" IVar="-1" Cut="0.0000000000000000e+00" cType="1" res="1.4813189394772053e-02" rms="3.7527301907539368e-01" purity="8.2979005575180054e-01" nType="-99"/>
                  </Node>
                </Node>
                <Node pos="r" depth="5" NCoef="0" IVar="1" Cut="1.0525618791580200e+00" cType="1" res="1.1723049730062485e-01" rms="4.4148495793342590e-01" purity="7.2815245389938354e-01" nType="0">
                  <Node pos="l" depth="6" NCoef="0" IVar="5" Cut="-2.4906902313232422e+00" cType="1" res="1.3862910866737366e-01" rms="4.2192125320434570e-01" purity="7.6587963104248047e-01" nType="0">
                    <Node pos="l" depth="7" NCoef="0" IVar="-1" Cut="0.0000000000000000e+00" cType="1" res="1.2490254826843739e-02" rms="4.0926721692085266e-01" purity="7.8545141220092773e-01" nType="-99"/>
                    <Node pos="r" depth="7" NCoef="0" IVar="-1" Cut="0.0000000000000000e+00" cType="1" res="9.2117171734571457e-03" rms="4.4494909048080444e-01" purity="7.2671490907669067e-01" nType="-99"/>
                  </Node>
                  <Node pos="r" depth="6" NCoef="0" IVar="5" Cut="-2.5700886249542236e+00" cType="1" res="8.6654797196388245e-02" rms="4.6632111072540283e-01" purity="6.7424541711807251e-01" nType="0">
                    <Node pos="l" depth="7" NCoef="0" IVar="-1" Cut="0.0000000000000000e+00" cType="1" res="8.6644589900970459e-03" rms="4.5413884520530701e-01" purity="7.0463544130325317e-01" nType="-99"/>
                    <Node pos="r" depth="7" NCoef="0" IVar="-1" Cut="0.0000000000000000e+00" cType="1" res="4.0168021805584431e-03" rms="4.8420026898384094e-01" purity="6.2219184637069702e-01" nType="-99"/>
                  </Node>
                </Node>
              </Node>
            </Node>
            <Node pos="r" depth="3" NCoef="0" IVar="1" Cut="8.6803609132766724e-01" cType="1" res="5.5996734648942947e-02" rms="4.7432997822761536e-01" purity="6.2298631668090820e-01" nType="0">
              <Node pos="l" depth="4" NCoef="0" IVar="5" Cut="-5.3713423013687134e-01" cType="1" res="7.8769110143184662e-02" rms="4.6750280261039734e-01" purity="6.5633356571197510e-01" nType="0">
                <Node pos="l" depth="5" NCoef="0" IVar="1" Cut="2.5248742103576660e-01" cType="1" res="9.6569262444972992e-02" rms="4.5888051390647888e-01" purity="6.8894481658935547e-01" nType="0">
                  <Node pos="l" depth="6" NCoef="0" IVar="3" Cut="9.6335625648498535e-01" cType="1" res="1.1303097754716873e-01" rms="4.4948679208755493e-01" purity="7.1241480112075806e-01" nType="0">
                    <Node pos="l" depth="7" NCoef="0" IVar="-1" Cut="0.0000000000000000e+00" cType="1" res="8.0797094851732254e-03" rms="4.6524700522422791e-01" purity="6.7746478319168091e-01" nType="-99"/>
                    <Node pos="r" depth="7" NCoef="0" IVar="-1" Cut="0.0000000000000000e+00" cType="1" res="1.1337114498019218e-02" rms="4.2836239933967590e-01" purity="7.5508260726928711e-01" nType="-99"/>
                  </Node>
                  <Node pos="r" depth="6" NCoef="0" IVar="-1" Cut="0.0000000000000000e+00" cType="1" res="4.4779377058148384e-03" rms="4.8022842407226562e-01" purity="6.2655425071716309e-01" nType="-99"/>
                </Node>
                <Node pos="r" depth="5" NCoef="0" IVar="-1" Cut="0.0000000000000000e+00" cType="1" res="7.5239062425680459e-05" rms="4.9604907631874084e-01" purity="5.1358455419540405e-01" nType="-99"/>
              </Node>
              <Node pos="r" depth="4" NCoef="0" IVar="-1" Cut="0.0000000000000000e+00" cType="1" res="-5.5178361944854259e-03" rms="4.9165704846382141e-01" purity="4.4820693135261536e-01" nType="-99"/>
            </Node>
          </Node>
          <Node pos="r" depth="2" NCoef="0" IVar="0" Cut="9.4537013769149780e-01" cType="1" res="9.2251123860478401e-03" rms="4.8722341656684875e-01" purity="5.0913703441619873e-01" nType="0">
            <Node pos="l" depth="3" NCoef="0" IVar="1" Cut="4.2842790484428406e-01" cType="1" res="4.2207259684801102e-02" rms="4.8795655369758606e-01" purity="5.6832188367843628e-01" nType="0">
              <Node pos="l" depth="4" NCoef="0" IVar="2" Cut="6.0595088958740234e+01" cType="1" res="7.4093729257583618e-02" rms="4.8059034347534180e-01" purity="6.1856532096862793e-01" nType="0">
                <Node pos="l" depth="5" NCoef="0" IVar="-1" Cut="0.0000000000000000e+00" cType="1" res="8.4559703245759010e-03" rms="4.6847864985466003e-01" purity="6.6670185327529907e-01" nType="-99"/>
                <Node pos="r" depth="5" NCoef="0" IVar="-1" Cut="0.0000000000000000e+00" cType="1" res="3.1383603345602751e-03" rms="4.9056574702262878e-01" purity="5.6701952219009399e-01" nType="-99"/>
              </Node>
              <Node pos="r" depth="4" NCoef="0" IVar="3" Cut="8.3547830581665039e-01" cType="1" res="-3.2822927460074425e-03" rms="4.9473217129707336e-01" purity="4.9664416909217834e-01" nType="0">
                <Node pos="l" depth="5" NCoef="0" IVar="-1" Cut="0.0000000000000000e+00" cType="1" res="-3.2745092175900936e-03" rms="4.9362680315971375e-01" purity="4.4831705093383789e-01" nType="-99"/>
                <Node pos="r" depth="5" NCoef="0" IVar="-1" Cut="0.0000000000000000e+00" cType="1" res="2.2341157309710979e-03" rms="4.9368798732757568e-01" purity="5.3812259435653687e-01" nType="-99"/>
              </Node>
            </Node>
            <Node pos="r" depth="3" NCoef="0" IVar="5" Cut="-2.1259143352508545e+00" cType="1" res="-7.3757901787757874e-02" rms="4.7535753250122070e-01" purity="3.6022809147834778e-01" nType="0">
              <Node pos="l" depth="4" NCoef="0" IVar="-1" Cut="0.0000000000000000e+00" cType="1" res="-2.9266711790114641e-03" rms="4.9287626147270203e-01" purity="4.2361518740653992e-01" nType="-99"/>
              <Node pos="r" depth="4" NCoef="0" IVar="-1" Cut="0.0000000000000000e+00" cType="1" res="-1.1573987081646919e-02" rms="4.5260953903198242e-01" purity="2.9485952854156494e-01" nType="-99"/>
            </Node>
          </Node>
        </Node>
      </Node>
    </BinaryTree>
    <BinaryTree type="DecisionTree" boostWeight="1.0000000000000000e+00" itree="18">
      <Node pos="s" depth="0" NCoef="0" IVar="0" Cut="3.2253021001815796e-01" cType="1" res="1.5698997303843498e-02" rms="4.2296144366264343e-01" purity="5.0034135580062866e-01" nType="0">
        <Node pos="l" depth="1" NCoef="0" IVar="3" Cut="8.4871846437454224e-01" cType="1" res="1.1569671332836151e-01" rms="4.2757353186607361e-01" purity="7.3022085428237915e-01" nType="0">
          <Node pos="l" depth="2" NCoef="0" IVar="4" Cut="6.0870403051376343e-01" cType="1" res="5.0368767231702805e-02" rms="4.7510302066802979e-01" purity="5.9702676534652710e-01" nType="0">
            <Node pos="l" depth="3" NCoef="0" IVar="1" Cut="-7.4255973100662231e-02" cType="1" res="6.2105257064104080e-02" rms="4.7412493824958801e-01" purity="6.1760467290878296e-01" nType="0">
              <Node pos="l" depth="4" NCoef="0" IVar="3" Cut="7.6918369531631470e-01" cType="1" res="1.0352569818496704e-01" rms="4.5693576335906982e-01" purity="6.8860042095184326e-01" nType="0">
                <Node pos="l" depth="5" NCoef="0" IVar="0" Cut="1.0401614010334015e-02" cType="1" res="8.2532957196235657e-02" rms="4.7426694631576538e-01" purity="6.3698959350585938e-01" nType="0">
                  <Node pos="l" depth="6" NCoef="0" IVar="-1" Cut="0.0000000000000000e+00" cType="1" res="7.0492909289896488e-03" rms="4.6902674436569214e-01" purity="6.4955765008926392e-01" nType="-99"/>
                  <Node pos="r" depth="6" NCoef="0" IVar="-1" Cut="0.0000000000000000e+00" cType="1" res="6.6799856722354889e-03" rms="4.7987577319145203e-01" purity="6.2303984165191650e-01" nType="-99"/>
                </Node>
                <Node pos="r" depth="5" NCoef="0" IVar="6" Cut="4.6074379235506058e-02" cType="1" res="1.2101227790117264e-01" rms="4.4121879339218140e-01" purity="7.3159134387969971e-01" nType="0">
                  <Node pos="l" depth="6" NCoef="0" IVar="-1" Cut="0.0000000000000000e+00" cType="1" res="8.5171889513731003e-03" rms="4.4937628507614136e-01" purity="7.1470987796783447e-01" nType="-99"/>
                  <Node pos="r" depth="6" NCoef="0" IVar="-1" Cut="0.0000000000000000e+00" cType="1" res="1.1059880256652832e-02" rms="4.3216010928153992e-01" purity="7.4826091527938843e-01" nType="-99"/>
                </Node>
              </Node>
              <Node pos="r" depth="4" NCoef="0" IVar="1" Cut="2.4977840483188629e-01" cType="1" res="3.9987739175558090e-02" rms="4.8159632086753845e-01" purity="5.7969462871551514e-01" nType="0">
                <Node pos="l" depth="5" NCoef="0" IVar="0" Cut="1.7685960233211517e-01" cType="1" res="8.1417195498943329e-02" rms="4.6663758158683777e-01" purity="6.5769267082214355e-01" nType="0">
                  <Node pos="l" depth="6" NCoef="0" IVar="-1" Cut="0.0000000000000000e+00" cType="1" res="8.1260213628411293e-03" rms="4.5679801702499390e-01" purity="6.8701809644699097e-01" nType="-99"/>
                  <Node pos="r" depth="6" NCoef="0" IVar="-1" Cut="0.0000000000000000e+00" cType="1" res="4.9006137996912003e-03" rms="4.7822061181068420e-01" purity="6.1784690618515015e-01" nType="-99"/>
                </Node>
                <Node pos="r" depth="5" NCoef="0" IVar="3" Cut="7.6852619647979736e-01" cType="1" res="1.6566162928938866e-02" rms="4.8829811811447144e-01" purity="5.3559958934783936e-01" nType="0">
                  <Node pos="l" depth="6" NCoef="0" IVar="6" Cut="5.7640939950942993e-02" cType="1" res="-1.2957882136106491e-02" rms="4.9012893438339233e-01" purity="4.6910130977630615e-01" nType="0">
                    <Node pos="l" depth="7" NCoef="0" IVar="-1" Cut="0.0000000000000000e+00" cType="1" res="-3.3763351384550333e-03" rms="4.9021944403648376e-01" purity="4.5582914352416992e-01" nType="-99"/>
                    <Node pos="r" depth="7" NCoef="0" IVar="-1" Cut="0.0000000000000000e+00" cType="1" res="6.3894747290760279e-04" rms="4.8913139104843140e-01" purity="4.8005577921867371e-01" nType="-99"/>
                  </Node>
                  <Node pos="r" depth="6" NCoef="0" IVar="6" Cut="3.9091646671295166e-02" cType="1" res="4.4735349714756012e-02" rms="4.8487189412117004e-01" purity="5.9904623031616211e-01" nType="0">
                    <Node pos="l" depth="7" NCoef="0" IVar="-1" Cut="0.0000000000000000e+00" cType="1" res="7.5530086178332567e-05" rms="4.8984289169311523e-01" purity="5.5872577428817749e-01" nType="-99"/>
                    <Node pos="r" depth="7" NCoef="0" IVar="-1" Cut="0.0000000000000000e+00" cType="1" res="5.7774265296757221e-03" rms="4.7962951660156250e-01" purity="6.2457519769668579e-01" nType="-99"/>
                  </Node>
                </Node>
              </Node>
            </Node>
            <Node pos="r" depth="3" NCoef="0" IVar="-1" Cut="0.0000000000000000e+00" cType="1" res="-6.9111073389649391e-03" rms="4.6789509057998657e-01" purity="3.8181608915328979e-01" nType="-99"/>
          </Node>
          <Node pos="r" depth="2" NCoef="0" IVar="5" Cut="-1.8219672441482544e+00" cType="1" res="1.4290349185466766e-01" rms="4.0303060412406921e-01" purity="7.8569149971008301e-01" nType="0">
            <Node pos="l" depth="3" NCoef="0" IVar="1" Cut="1.5423667430877686e-01" cType="1" res="1.5640777349472046e-01" rms="3.8718867301940918e-01" purity="8.1153374910354614e-01" nType="0">
              <Node pos="l" depth="4" NCoef="0" IVar="3" Cut="8.8455051183700562e-01" cType="1" res="1.7652988433837891e-01" rms="3.5922548174858093e-01" purity="8.4682869911193848e-01" nType="0">
                <Node pos="l" depth="5" NCoef="0" IVar="-1" Cut="0.0000000000000000e+00" cType="1" res="1.2558732181787491e-02" rms="4.0525177121162415e-01" purity="7.9211729764938354e-01" nType="-99"/>
                <Node pos="r" depth="5" NCoef="0" IVar="5" Cut="-2.7309670448303223e+00" cType="1" res="1.8052433431148529e-01" rms="3.5280799865722656e-01" purity="8.5371178388595581e-01" nType="0">
                  <Node pos="l" depth="6" NCoef="0" IVar="4" Cut="-1.5433816909790039e+00" cType="1" res="1.8938533961772919e-01" rms="3.3805945515632629e-01" purity="8.6813110113143921e-01" nType="0">
                    <Node pos="l" depth="7" NCoef="0" IVar="-1" Cut="0.0000000000000000e+00" cType="1" res="1.4390113763511181e-02" rms="3.6863645911216736e-01" purity="8.3780723810195923e-01" nType="-99"/>
                    <Node pos="r" depth="7" NCoef="0" IVar="-1" Cut="0.0000000000000000e+00" cType="1" res="1.7009984701871872e-02" rms="3.2977268099784851e-01" purity="8.7578463554382324e-01" nType="-99"/>
                  </Node>
                  <Node pos="r" depth="6" NCoef="0" IVar="4" Cut="-2.8203120827674866e-01" cType="1" res="1.6892142593860626e-01" rms="3.7091544270515442e-01" purity="8.3483064174652100e-01" nType="0">
                    <Node pos="l" depth="7" NCoef="0" IVar="-1" Cut="0.0000000000000000e+00" cType="1" res="1.3572727330029011e-02" rms="3.8013619184494019e-01" purity="8.2436925172805786e-01" nType="-99"/>
                    <Node pos="r" depth="7" NCoef="0" IVar="-1" Cut="0.0000000000000000e+00" cType="1" res="1.6382690519094467e-02" rms="3.5185530781745911e-01" purity="8.5507285594940186e-01" nType="-99"/>
                  </Node>
                </Node>
              </Node>
              <Node pos="r" depth="4" NCoef="0" IVar="1" Cut="1.4230222702026367e+00" cType="1" res="1.2896299362182617e-01" rms="4.2080554366111755e-01" purity="7.6339465379714966e-01" nType="0">
                <Node pos="l" depth="5" NCoef="0" IVar="4" Cut="-9.9259692430496216e-01" cType="1" res="1.3927255570888519e-01" rms="4.0966773033142090e-01" purity="7.8288024663925171e-01" nType="0">
                  <Node pos="l" depth="6" NCoef="0" IVar="5" Cut="-2.6867895126342773e+00" cType="1" res="1.1839998513460159e-01" rms="4.3264049291610718e-01" purity="7.4750900268554688e-01" nType="0">
                    <Node pos="l" depth="7" NCoef="0" IVar="-1" Cut="0.0000000000000000e+00" cType="1" res="1.0810742154717445e-02" rms="4.2054811120033264e-01" purity="7.6779472827911377e-01" nType="-99"/>
                    <Node pos="r" depth="7" NCoef="0" IVar="-1" Cut="0.0000000000000000e+00" cType="1" res="8.3477897569537163e-03" rms="4.4605824351310730e-01" purity="7.2330647706985474e-01" nType="-99"/>
                  </Node>
                  <Node pos="r" depth="6" NCoef="0" IVar="5" Cut="-2.7309515476226807e+00" cType="1" res="1.5341435372829437e-01" rms="3.9271128177642822e-01" purity="8.0684530735015869e-01" nType="0">
                    <Node pos="l" depth="7" NCoef="0" IVar="-1" Cut="0.0000000000000000e+00" cType="1" res="1.4221861027181149e-02" rms="3.7750354409217834e-01" purity="8.2624053955078125e-01" nType="-99"/>
                    <Node pos="r" depth="7" NCoef="0" IVar="-1" Cut="0.0000000000000000e+00" cType="1" res="1.1900557205080986e-02" rms="4.1065195202827454e-01" purity="7.8231298923492432e-01" nType="-99"/>
                  </Node>
                </Node>
                <Node pos="r" depth="5" NCoef="0" IVar="-1" Cut="0.0000000000000000e+00" cType="1" res="6.3831000588834286e-03" rms="4.6747645735740662e-01" purity="6.6982161998748779e-01" nType="-99"/>
              </Node>
            </Node>
            <Node pos="r" depth="3" NCoef="0" IVar="1" Cut="4.8865437507629395e-01" cType="1" res="8.4562145173549652e-02" rms="4.6078747510910034e-01" purity="6.7404747009277344e-01" nType="0">
              <Node pos="l" depth="4" NCoef="0" IVar="1" Cut="-1.4326800592243671e-02" cType="1" res="1.0813882946968079e-01" rms="4.4799250364303589e-01" purity="7.1331232786178589e-01" nType="0">
                <Node pos="l" depth="5" NCoef="0" IVar="3" Cut="9.7837138175964355e-01" cType="1" res="1.2493035197257996e-01" rms="4.3727540969848633e-01" purity="7.3630237579345703e-01" nType="0">
                  <Node pos="l" depth="6" NCoef="0" IVar="-1" Cut="0.0000000000000000e+00" cType="1" res="8.9092757552862167e-03" rms="4.5542412996292114e-01" purity="7.0018249750137329e-01" nType="-99"/>
                  <Node pos="r" depth="6" NCoef="0" IVar="-1" Cut="0.0000000000000000e+00" cType="1" res="1.1659104377031326e-02" rms="4.2535436153411865e-01" purity="7.5793886184692383e-01" nType="-99"/>
                </Node>
                <Node pos="r" depth="5" NCoef="0" IVar="-1" Cut="0.0000000000000000e+00" cType="1" res="7.3273386806249619e-03" rms="4.6130263805389404e-01" purity="6.8176025152206421e-01" nType="-99"/>
              </Node>
              <Node pos="r" depth="4" NCoef="0" IVar="-1" Cut="0.0000000000000000e+00" cType="1" res="1.5294494805857539e-03" rms="4.8901209235191345e-01" purity="5.6329441070556641e-01" nType="-99"/>
            </Node>
          </Node>
        </Node>
        <Node pos="r" depth="1" NCoef="0" IVar="3" Cut="5.8760577440261841e-01" cType="1" res="-9.7456812858581543e-02" rms="3.8773432374000549e-01" purity="2.4021339416503906e-01" nType="0">
          <Node pos="l" depth="2" NCoef="0" IVar="5" Cut="-1.3629549741744995e+00" cType="1" res="-1.3679258525371552e-01" rms="3.2150265574455261e-01" purity="1.3150896131992340e-01" nType="0">
            <Node pos="l" depth="3" NCoef="0" IVar="3" Cut="4.7602441906929016e-01" cType="1" res="-1.1839074641466141e-01" rms="3.6160030961036682e-01" purity="1.7205868661403656e-01" nType="0">
              <Node pos="l" depth="4" NCoef="0" IVar="6" Cut="1.7741556465625763e-01" cType="1" res="-1.3518871366977692e-01" rms="3.1772014498710632e-01" purity="1.2110456079244614e-01" nType="0">
                <Node pos="l" depth="5" NCoef="0" IVar="3" Cut="3.2772690057754517e-01" cType="1" res="-1.4439855515956879e-01" rms="2.9255816340446472e-01" purity="9.8982952535152435e-02" nType="0">
                  <Node pos="l" depth="6" NCoef="0" IVar="7" Cut="5.0000000000000000e+00" cType="1" res="-1.5449655055999756e-01" rms="2.1216475963592529e-01" purity="5.0529856234788895e-02" nType="0">
                    <Node pos="l" depth="7" NCoef="0" IVar="-1" Cut="0.0000000000000000e+00" cType="1" res="-2.5164593011140823e-02" rms="2.6383259892463684e-01" purity="7.5888849794864655e-02" nType="-99"/>
                    <Node pos="r" depth="7" NCoef="0" IVar="-1" Cut="0.0000000000000000e+00" cType="1" res="-3.0034845694899559e-02" rms="2.0064383745193481e-01" purity="4.2213696986436844e-02" nType="-99"/>
                  </Node>
                  <Node pos="r" depth="6" NCoef="0" IVar="1" Cut="6.6797173023223877e-01" cType="1" res="-1.3150048255920410e-01" rms="3.3781319856643677e-01" purity="1.3585688173770905e-01" nType="0">
                    <Node pos="l" depth="7" NCoef="0" IVar="-1" Cut="0.0000000000000000e+00" cType="1" res="-1.4884767122566700e-02" rms="3.6342525482177734e-01" purity="1.6259616613388062e-01" nType="-99"/>
                    <Node pos="r" depth="7" NCoef="0" IVar="-1" Cut="0.0000000000000000e+00" cType="1" res="-2.1712625399231911e-02" rms="3.0864164233207703e-01" purity="1.0887014865875244e-01" nType="-99"/>
                  </Node>
                </Node>
                <Node pos="r" depth="5" NCoef="0" IVar="3" Cut="2.3602424561977386e-01" cType="1" res="-9.9074885249137878e-02" rms="3.9940303564071655e-01" purity="2.0784831047058105e-01" nType="0">
                  <Node pos="l" depth="6" NCoef="0" IVar="-1" Cut="0.0000000000000000e+00" cType="1" res="-1.8858309835195541e-02" rms="3.5319033265113831e-01" purity="1.5035340189933777e-01" nType="-99"/>
                  <Node pos="r" depth="6" NCoef="0" IVar="-1" Cut="0.0000000000000000e+00" cType="1" res="-8.0860210582613945e-03" rms="4.2941504716873169e-01" purity="2.5234660506248474e-01" nType="-99"/>
                </Node>
              </Node>
              <Node pos="r" depth="4" NCoef="0" IVar="6" Cut="9.2776075005531311e-02" cType="1" res="-7.8873895108699799e-02" rms="4.4570592045783997e-01" purity="2.9192724823951721e-01" nType="0">
                <Node pos="l" depth="5" NCoef="0" IVar="2" Cut="8.7724884033203125e+01" cType="1" res="-1.0535418987274170e-01" rms="4.2273870110511780e-01" purity="2.4502997100353241e-01" nType="0">
                  <Node pos="l" depth="6" NCoef="0" IVar="-1" Cut="0.0000000000000000e+00" cType="1" res="-5.6749871000647545e-03" rms="4.5129317045211792e-01" purity="2.9851782321929932e-01" nType="-99"/>
                  <Node pos="r" depth="6" NCoef="0" IVar="-1" Cut="0.0000000000000000e+00" cType="1" res="-1.4998742379248142e-02" rms="4.0227925777435303e-01" purity="2.1383275091648102e-01" nType="-99"/>
                </Node>
                <Node pos="r" depth="5" NCoef="0" IVar="2" Cut="2.7975524902343750e+02" cType="1" res="-4.4456981122493744e-02" rms="4.7167965769767761e-01" purity="3.5288050770759583e-01" nType="0">
                  <Node pos="l" depth="6" NCoef="0" IVar="-1" Cut="0.0000000000000000e+00" cType="1" res="-1.2659010244533420e-03" rms="4.8009806871414185e-01" purity="3.8436332345008850e-01" nType="-99"/>
                  <Node pos="r" depth="6" NCoef="0" IVar="-1" Cut="0.0000000000000000e+00" cType="1" res="-7.1532530710101128e-03" rms="4.6265450119972229e-01" purity="3.2580211758613586e-01" nType="-99"/>
                </Node>
              </Node>
            </Node>
            <Node pos="r" depth="3" NCoef="0" IVar="5" Cut="3.9666128158569336e-01" cType="1" res="-1.6361165046691895e-01" rms="2.4946233630180359e-01" purity="7.2411298751831055e-02" nType="0">
              <Node pos="l" depth="4" NCoef="0" IVar="1" Cut="1.6858270764350891e-01" cType="1" res="-1.5217000246047974e-01" rms="2.9945909976959229e-01" purity="1.0711434483528137e-01" nType="0">
                <Node pos="l" depth="5" NCoef="0" IVar="-1" Cut="0.0000000000000000e+00" cType="1" res="-1.6051352024078369e-02" rms="3.5495138168334961e-01" purity="1.6018648445606232e-01" nType="-99"/>
                <Node pos="r" depth="5" NCoef="0" IVar="4" Cut="2.1174199879169464e-01" cType="1" res="-1.6115911304950714e-01" rms="2.7884870767593384e-01" purity="9.0183369815349579e-02" nType="0">
                  <Node pos="l" depth="6" NCoef="0" IVar="-1" Cut="0.0000000000000000e+00" cType="1" res="-1.9576352089643478e-02" rms="3.3025982975959778e-01" purity="1.3201008737087250e-01" nType="-99"/>
                  <Node pos="r" depth="6" NCoef="0" IVar="6" Cut="8.8069595396518707e-02" cType="1" res="-1.6936463117599487e-01" rms="2.5581076741218567e-01" purity="7.4054345488548279e-02" nType="0">
                    <Node pos="l" depth="7" NCoef="0" IVar="-1" Cut="0.0000000000000000e+00" cType="1" res="-2.7806814759969711e-02" rms="2.1960502862930298e-01" purity="5.3720600903034210e-02" nType="-99"/>
                    <Node pos="r" depth="7" NCoef="0" IVar="-1" Cut="0.0000000000000000e+00" cType="1" res="-2.4443602189421654e-02" rms="2.7429932355880737e-01" purity="8.5803657770156860e-02" nType="-99"/>
                  </Node>
                </Node>
              </Node>
              <Node pos="r" depth="4" NCoef="0" IVar="3" Cut="2.1907752752304077e-01" cType="1" res="-1.7678126692771912e-01" rms="1.7412132024765015e-01" purity="3.2467186450958252e-02" nType="0">
                <Node pos="l" depth="5" NCoef="0" IVar="-1" Cut="0.0000000000000000e+00" cType="1" res="-2.8936183080077171e-02" rms="2.1879670023918152e-01" purity="5.3159076720476151e-02" nType="-99"/>
                <Node pos="r" depth="5" NCoef="0" IVar="3" Cut="4.4494506716728210e-01" cType="1" res="-1.8193727731704712e-01" rms="1.6141943633556366e-01" purity="2.7608038857579231e-02" nType="0">
                  <Node pos="l" depth="6" NCoef="0" IVar="5" Cut="3.0408074855804443e+00" cType="1" res="-1.7827260494232178e-01" rms="1.4351868629455566e-01" purity="2.1585479378700256e-02" nType="0">
                    <Node pos="l" depth="7" NCoef="0" IVar="-1" Cut="0.0000000000000000e+00" cType="1" res="-3.0831562355160713e-02" rms="1.6294646263122559e-01" purity="2.8044804930686951e-02" nType="-99"/>
                    <Node pos="r" depth="7" NCoef="0" IVar="-1" Cut="0.0000000000000000e+00" cType="1" res="-3.3202502876520157e-02" rms="9.3809127807617188e-02" purity="8.8448952883481979e-03" nType="-99"/>
                  </Node>
                  <Node pos="r" depth="6" NCoef="0" IVar="-1" Cut="0.0000000000000000e+00" cType="1" res="-2.8191335499286652e-02" rms="2.0935425162315369e-01" purity="4.7426365315914154e-02" nType="-99"/>
                </Node>
              </Node>
            </Node>
          </Node>
          <Node pos="r" depth="2" NCoef="0" IVar="5" Cut="1.1919944733381271e-01" cType="1" res="-2.2956389933824539e-02" rms="4.8044133186340332e-01" purity="4.4609540700912476e-01" nType="0">
            <Node pos="l" depth="3" NCoef="0" IVar="1" Cut="1.1949702501296997e+00" cType="1" res="-1.1952795088291168e-02" rms="4.8486760258674622e-01" purity="4.6398860216140747e-01" nType="0">
              <Node pos="l" depth="4" NCoef="0" IVar="3" Cut="6.7824524641036987e-01" cType="1" res="8.0339191481471062e-03" rms="4.8833128809928894e-01" purity="4.9847534298896790e-01" nType="0">
                <Node pos="l" depth="5" NCoef="0" IVar="6" Cut="5.3249068558216095e-02" cType="1" res="-3.6404184997081757e-02" rms="4.8481237888336182e-01" purity="4.1156482696533203e-01" nType="0">
                  <Node pos="l" depth="6" NCoef="0" IVar="-1" Cut="0.0000000000000000e+00" cType="1" res="-8.2518253475427628e-03" rms="4.6919280290603638e-01" purity="3.4690204262733459e-01" nType="-99"/>
                  <Node pos="r" depth="6" NCoef="0" IVar="1" Cut="3.9090913534164429e-01" cType="1" res="-1.6574796289205551e-02" rms="4.8932680487632751e-01" purity="4.3673765659332275e-01" nType="0">
                    <Node pos="l" depth="7" NCoef="0" IVar="-1" Cut="0.0000000000000000e+00" cType="1" res="3.3675649319775403e-04" rms="4.9459451436996460e-01" purity="4.7184613347053528e-01" nType="-99"/>
                    <Node pos="r" depth="7" NCoef="0" IVar="-1" Cut="0.0000000000000000e+00" cType="1" res="-5.3695878013968468e-03" rms="4.7622820734977722e-01" purity="3.6757481098175049e-01" nType="-99"/>
                  </Node>
                </Node>
                <Node pos="r" depth="5" NCoef="0" IVar="0" Cut="6.2441241741180420e-01" cType="1" res="3.3597785979509354e-02" rms="4.8851600289344788e-01" purity="5.4847222566604614e-01" nType="0">
                  <Node pos="l" depth="6" NCoef="0" IVar="1" Cut="3.7896600365638733e-01" cType="1" res="6.1646088957786560e-02" rms="4.8346641659736633e-01" purity="5.9714764356613159e-01" nType="0">
                    <Node pos="l" depth="7" NCoef="0" IVar="-1" Cut="0.0000000000000000e+00" cType="1" res="6.8446337245404720e-03" rms="4.7741490602493286e-01" purity="6.2971937656402588e-01" nType="-99"/>
                    <Node pos="r" depth="7" NCoef="0" IVar="-1" Cut="0.0000000000000000e+00" cType="1" res="7.5184332672506571e-04" rms="4.9303808808326721e-01" purity="5.2243024110794067e-01" nType="-99"/>
                  </Node>
                  <Node pos="r" depth="6" NCoef="0" IVar="2" Cut="5.7751148223876953e+01" cType="1" res="-1.5023383311927319e-02" rms="4.9338451027870178e-01" purity="4.6409448981285095e-01" nType="0">
                    <Node pos="l" depth="7" NCoef="0" IVar="-1" Cut="0.0000000000000000e+00" cType="1" res="1.0780262527987361e-03" rms="4.9635776877403259e-01" purity="5.0278246402740479e-01" nType="-99"/>
                    <Node pos="r" depth="7" NCoef="0" IVar="-1" Cut="0.0000000000000000e+00" cType="1" res="-4.4803651981055737e-03" rms="4.8766955733299255e-01" purity="4.1720163822174072e-01" nType="-99"/>
                  </Node>
                </Node>
              </Node>
              <Node pos="r" depth="4" NCoef="0" IVar="3" Cut="8.1491035223007202e-01" cType="1" res="-8.5603334009647369e-02" rms="4.6451976895332336e-01" purity="3.3690574765205383e-01" nType="0">
                <Node pos="l" depth="5" NCoef="0" IVar="-1" Cut="0.0000000000000000e+00" cType="1" res="-1.1493976227939129e-02" rms="4.4690352678298950e-01" purity="2.8705418109893799e-01" nType="-99"/>
                <Node pos="r" depth="5" NCoef="0" IVar="-1" Cut="0.0000000000000000e+00" cType="1" res="-3.9011235348880291e-03" rms="4.8559907078742981e-01" purity="4.0871381759643555e-01" nType="-99"/>
              </Node>
            </Node>
            <Node pos="r" depth="3" NCoef="0" IVar="-1" Cut="0.0000000000000000e+00" cType="1" res="-1.9669981673359871e-02" rms="3.7588348984718323e-01" purity="1.8581080436706543e-01" nType="-99"/>
          </Node>
        </Node>
      </Node>
    </BinaryTree>
    <BinaryTree type="DecisionTree" boostWeight="1.0000000000000000e+00" itree="19">
      <Node pos="s" depth="0" NCoef="0" IVar="3" Cut="7.1310418844223022e-01" cType="1" res="1.6663389280438423e-02" rms="4.2117184400558472e-01" purity="5.0055736303329468e-01" nType="0">
        <Node pos="l" depth="1" NCoef="0" IVar="0" Cut="6.4490842819213867e-01" cType="1" res="-1.0050437599420547e-01" rms="3.7442752718925476e-01" purity="2.1209947764873505e-01" nType="0">
          <Node pos="l" depth="2" NCoef="0" IVar="5" Cut="-8.7232315540313721e-01" cType="1" res="-3.0938925221562386e-02" rms="4.7365638613700867e-01" purity="4.0991806983947754e-01" nType="0">
            <Node pos="l" depth="3" NCoef="0" IVar="1" Cut="8.6760783195495605e-01" cType="1" res="-1.4934414066374302e-02" rms="4.8407495021820068e-01" purity="4.4516062736511230e-01" nType="0">
              <Node pos="l" depth="4" NCoef="0" IVar="3" Cut="6.0076653957366943e-01" cType="1" res="1.9524748204275966e-03" rms="4.8904454708099365e-01" purity="4.8036471009254456e-01" nType="0">
                <Node pos="l" depth="5" NCoef="0" IVar="0" Cut="4.9926480650901794e-01" cType="1" res="-3.8723580539226532e-02" rms="4.7807660698890686e-01" purity="3.8467684388160706e-01" nType="0">
                  <Node pos="l" depth="6" NCoef="0" IVar="-1" Cut="0.0000000000000000e+00" cType="1" res="-1.8323664553463459e-03" rms="4.8252961039543152e-01" purity="4.1103926301002502e-01" nType="-99"/>
                  <Node pos="r" depth="6" NCoef="0" IVar="-1" Cut="0.0000000000000000e+00" cType="1" res="-6.4875958487391472e-03" rms="4.6986189484596252e-01" purity="3.4471526741981506e-01" nType="-99"/>
                </Node>
                <Node pos="r" depth="5" NCoef="0" IVar="6" Cut="5.0646916031837463e-02" cType="1" res="2.2747069597244263e-02" rms="4.9326363205909729e-01" purity="5.2928268909454346e-01" nType="0">
                  <Node pos="l" depth="6" NCoef="0" IVar="-1" Cut="0.0000000000000000e+00" cType="1" res="-2.2186213172972202e-03" rms="4.9173027276992798e-01" purity="4.6980106830596924e-01" nType="-99"/>
                  <Node pos="r" depth="6" NCoef="0" IVar="2" Cut="1.3886402893066406e+02" cType="1" res="4.4222813099622726e-02" rms="4.9243348836898804e-01" purity="5.5586433410644531e-01" nType="0">
                    <Node pos="l" depth="7" NCoef="0" IVar="-1" Cut="0.0000000000000000e+00" cType="1" res="7.2043980471789837e-03" rms="4.8352149128913879e-01" purity="6.0585576295852661e-01" nType="-99"/>
                    <Node pos="r" depth="7" NCoef="0" IVar="-1" Cut="0.0000000000000000e+00" cType="1" res="1.5802140114828944e-03" rms="4.9523997306823730e-01" purity="5.2883958816528320e-01" nType="-99"/>
                  </Node>
                </Node>
              </Node>
              <Node pos="r" depth="4" NCoef="0" IVar="0" Cut="4.1606238484382629e-01" cType="1" res="-7.4236370623111725e-02" rms="4.6133255958557129e-01" purity="3.2153382897377014e-01" nType="0">
                <Node pos="l" depth="5" NCoef="0" IVar="-1" Cut="0.0000000000000000e+00" cType="1" res="-3.9423578418791294e-03" rms="4.7377389669418335e-01" purity="3.6255425214767456e-01" nType="-99"/>
                <Node pos="r" depth="5" NCoef="0" IVar="-1" Cut="0.0000000000000000e+00" cType="1" res="-1.0770644061267376e-02" rms="4.4665369391441345e-01" purity="2.8176578879356384e-01" nType="-99"/>
              </Node>
            </Node>
            <Node pos="r" depth="3" NCoef="0" IVar="1" Cut="2.6405942440032959e-01" cType="1" res="-1.0930234938859940e-01" rms="4.0999859571456909e-01" purity="2.3735876381397247e-01" nType="0">
              <Node pos="l" depth="4" NCoef="0" IVar="-1" Cut="0.0000000000000000e+00" cType="1" res="-7.0594837889075279e-03" rms="4.3870449066162109e-01" purity="2.9319906234741211e-01" nType="-99"/>
              <Node pos="r" depth="4" NCoef="0" IVar="-1" Cut="0.0000000000000000e+00" cType="1" res="-1.7244325950741768e-02" rms="3.7533807754516602e-01" purity="1.8277986347675323e-01" nType="-99"/>
            </Node>
          </Node>
          <Node pos="r" depth="2" NCoef="0" IVar="1" Cut="1.0652228444814682e-01" cType="1" res="-1.2940892577171326e-01" rms="3.1997412443161011e-01" purity="1.2990553677082062e-01" nType="0">
            <Node pos="l" depth="3" NCoef="0" IVar="0" Cut="1.5482975244522095e+00" cType="1" res="-9.2048913240432739e-02" rms="3.7935557961463928e-01" purity="2.0008845627307892e-01" nType="0">
              <Node pos="l" depth="4" NCoef="0" IVar="5" Cut="-1.2950043678283691e+00" cType="1" res="-6.9201909005641937e-02" rms="4.1735234856605530e-01" purity="2.5358155369758606e-01" nType="0">
                <Node pos="l" depth="5" NCoef="0" IVar="3" Cut="4.9059846997261047e-01" cType="1" res="-4.7298181802034378e-02" rms="4.4553914666175842e-01" purity="3.0103233456611633e-01" nType="0">
                  <Node pos="l" depth="6" NCoef="0" IVar="-1" Cut="0.0000000000000000e+00" cType="1" res="-9.3719065189361572e-03" rms="4.0591159462928772e-01" purity="2.1847160160541534e-01" nType="-99"/>
                  <Node pos="r" depth="6" NCoef="0" IVar="-1" Cut="0.0000000000000000e+00" cType="1" res="-1.9271722994744778e-03" rms="4.7857391834259033e-01" purity="3.7944921851158142e-01" nType="-99"/>
                </Node>
                <Node pos="r" depth="5" NCoef="0" IVar="-1" Cut="0.0000000000000000e+00" cType="1" res="-1.4886833727359772e-02" rms="3.4946367144584656e-01" purity="1.5773002803325653e-01" nType="-99"/>
              </Node>
              <Node pos="r" depth="4" NCoef="0" IVar="2" Cut="2.9898056030273438e+02" cType="1" res="-1.3638040423393250e-01" rms="2.8669360280036926e-01" purity="9.6292443573474884e-02" nType="0">
                <Node pos="l" depth="5" NCoef="0" IVar="-1" Cut="0.0000000000000000e+00" cType="1" res="-2.2138258442282677e-02" rms="2.8109899163246155e-01" purity="9.3472249805927277e-02" nType="-99"/>
                <Node pos="r" depth="5" NCoef="0" IVar="-1" Cut="0.0000000000000000e+00" cType="1" res="-2.1959854289889336e-02" rms="2.9217332601547241e-01" purity="9.9133044481277466e-02" nType="-99"/>
              </Node>
            </Node>
            <Node pos="r" depth="3" NCoef="0" IVar="4" Cut="1.8444797992706299e+00" cType="1" res="-1.3878297805786133e-01" rms="3.0253216624259949e-01" purity="1.1229584366083145e-01" nType="0">
              <Node pos="l" depth="4" NCoef="0" IVar="3" Cut="5.5472505092620850e-01" cType="1" res="-1.3174088299274445e-01" rms="3.2793551683425903e-01" purity="1.3350115716457367e-01" nType="0">
                <Node pos="l" depth="5" NCoef="0" IVar="6" Cut="1.1546491086483002e-01" cType="1" res="-1.3723020255565643e-01" rms="3.0812129378318787e-01" purity="1.1284632235765457e-01" nType="0">
                  <Node pos="l" depth="6" NCoef="0" IVar="2" Cut="6.4960365295410156e+01" cType="1" res="-1.5017190575599670e-01" rms="2.7303919196128845e-01" purity="8.4803357720375061e-02" nType="0">
                    <Node pos="l" depth="7" NCoef="0" IVar="-1" Cut="0.0000000000000000e+00" cType="1" res="-1.9171830266714096e-02" rms="3.1206399202346802e-01" purity="1.1388278752565384e-01" nType="-99"/>
                    <Node pos="r" depth="7" NCoef="0" IVar="-1" Cut="0.0000000000000000e+00" cType="1" res="-2.4217113852500916e-02" rms="2.6317867636680603e-01" purity="7.8321374952793121e-02" nType="-99"/>
                  </Node>
                  <Node pos="r" depth="6" NCoef="0" IVar="7" Cut="4.0000000000000000e+00" cType="1" res="-1.1955211311578751e-01" rms="3.4756672382354736e-01" purity="1.4978557825088501e-01" nType="0">
                    <Node pos="l" depth="7" NCoef="0" IVar="-1" Cut="0.0000000000000000e+00" cType="1" res="-9.9439043551683426e-03" rms="4.0965199470520020e-01" purity="2.2414529323577881e-01" nType="-99"/>
                    <Node pos="r" depth="7" NCoef="0" IVar="-1" Cut="0.0000000000000000e+00" cType="1" res="-1.8855834379792213e-02" rms="3.2963472604751587e-01" purity="1.3042418658733368e-01" nType="-99"/>
                  </Node>
                </Node>
                <Node pos="r" depth="5" NCoef="0" IVar="6" Cut="7.6601274311542511e-02" cType="1" res="-9.2345185577869415e-02" rms="4.4296994805335999e-01" purity="2.8173655271530151e-01" nType="0">
                  <Node pos="l" depth="6" NCoef="0" IVar="-1" Cut="0.0000000000000000e+00" cType="1" res="-1.2629755772650242e-02" rms="4.2540857195854187e-01" purity="2.4661603569984436e-01" nType="-99"/>
                  <Node pos="r" depth="6" NCoef="0" IVar="-1" Cut="0.0000000000000000e+00" cType="1" res="-6.7601352930068970e-03" rms="4.5816102623939514e-01" purity="3.1634911894798279e-01" nType="-99"/>
                </Node>
              </Node>
              <Node pos="r" depth="4" NCoef="0" IVar="6" Cut="1.8026199936866760e-01" cType="1" res="-1.6609561443328857e-01" rms="1.6872964799404144e-01" purity="3.0051499605178833e-02" nType="0">
                <Node pos="l" depth="5" NCoef="0" IVar="7" Cut="5.0000000000000000e+00" cType="1" res="-1.6930787265300751e-01" rms="1.3513021171092987e-01" purity="1.8463673070073128e-02" nType="0">
                  <Node pos="l" depth="6" NCoef="0" IVar="-1" Cut="0.0000000000000000e+00" cType="1" res="-3.1809318810701370e-02" rms="1.4592505991458893e-01" purity="2.1748095750808716e-02" nType="-99"/>
                  <Node pos="r" depth="6" NCoef="0" IVar="3" Cut="2.9521358013153076e-01" cType="1" res="-1.6569367051124573e-01" rms="1.2632200121879578e-01" purity="1.6447795554995537e-02" nType="0">
                    <Node pos="l" depth="7" NCoef="0" IVar="-1" Cut="0.0000000000000000e+00" cType="1" res="-3.3645402640104294e-02" rms="1.1130586266517639e-01" purity="1.2541610747575760e-02" nType="-99"/>
                    <Node pos="r" depth="7" NCoef="0" IVar="-1" Cut="0.0000000000000000e+00" cType="1" res="-2.8870983049273491e-02" rms="1.4164799451828003e-01" purity="2.0952600985765457e-02" nType="-99"/>
                  </Node>
                </Node>
                <Node pos="r" depth="5" NCoef="0" IVar="-1" Cut="0.0000000000000000e+00" cType="1" res="-2.4138471111655235e-02" rms="2.5706297159194946e-01" purity="7.2695933282375336e-02" nType="-99"/>
              </Node>
            </Node>
          </Node>
        </Node>
        <Node pos="r" depth="1" NCoef="0" IVar="5" Cut="-1.3698112964630127e+00" cType="1" res="1.0438892990350723e-01" rms="4.3273079395294189e-01" purity="7.1653079986572266e-01" nType="0">
          <Node pos="l" depth="2" NCoef="0" IVar="0" Cut="3.2182708382606506e-01" cType="1" res="1.2031886726617813e-01" rms="4.2184635996818542e-01" purity="7.4624019861221313e-01" nType="0">
            <Node pos="l" depth="3" NCoef="0" IVar="3" Cut="8.7390708923339844e-01" cType="1" res="1.3327701389789581e-01" rms="4.0933087468147278e-01" purity="7.7662807703018188e-01" nType="0">
              <Node pos="l" depth="4" NCoef="0" IVar="1" Cut="4.6743294596672058e-01" cType="1" res="9.2047147452831268e-02" rms="4.5657941699028015e-01" purity="6.9089400768280029e-01" nType="0">
                <Node pos="l" depth="5" NCoef="0" IVar="3" Cut="8.2722002267837524e-01" cType="1" res="1.1075170338153839e-01" rms="4.4230237603187561e-01" purity="7.2936868667602539e-01" nType="0">
                  <Node pos="l" depth="6" NCoef="0" IVar="6" Cut="5.8626674115657806e-02" cType="1" res="9.6812106668949127e-02" rms="4.5533967018127441e-01" purity="7.0361608266830444e-01" nType="0">
                    <Node pos="l" depth="7" NCoef="0" IVar="-1" Cut="0.0000000000000000e+00" cType="1" res="6.8739373236894608e-03" rms="4.6179676055908203e-01" purity="6.8798124790191650e-01" nType="-99"/>
                    <Node pos="r" depth="7" NCoef="0" IVar="-1" Cut="0.0000000000000000e+00" cType="1" res="1.0374515317380428e-02" rms="4.4120422005653381e-01" purity="7.3346108198165894e-01" nType="-99"/>
                  </Node>
                  <Node pos="r" depth="6" NCoef="0" IVar="5" Cut="-2.2935998439788818e+00" cType="1" res="1.3017463684082031e-01" rms="4.2270210385322571e-01" purity="7.6525157690048218e-01" nType="0">
                    <Node pos="l" depth="7" NCoef="0" IVar="-1" Cut="0.0000000000000000e+00" cType="1" res="1.2149708345532417e-02" rms="4.0940344333648682e-01" purity="7.8625243902206421e-01" nType="-99"/>
                    <Node pos="r" depth="7" NCoef="0" IVar="-1" Cut="0.0000000000000000e+00" cType="1" res="8.8239545002579689e-03" rms="4.4381362199783325e-01" purity="7.2885590791702271e-01" nType="-99"/>
                  </Node>
                </Node>
                <Node pos="r" depth="5" NCoef="0" IVar="6" Cut="3.5069569945335388e-02" cType="1" res="4.5271091163158417e-02" rms="4.8733496665954590e-01" purity="5.9467691183090210e-01" nType="0">
                  <Node pos="l" depth="6" NCoef="0" IVar="-1" Cut="0.0000000000000000e+00" cType="1" res="-2.2901168267708272e-04" rms="4.9213799834251404e-01" purity="5.5044585466384888e-01" nType="-99"/>
                  <Node pos="r" depth="6" NCoef="0" IVar="3" Cut="8.0647039413452148e-01" cType="1" res="7.0819079875946045e-02" rms="4.8281687498092651e-01" purity="6.1822390556335449e-01" nType="0">
                    <Node pos="l" depth="7" NCoef="0" IVar="-1" Cut="0.0000000000000000e+00" cType="1" res="4.4498695060610771e-03" rms="4.9102887511253357e-01" purity="5.8365279436111450e-01" nType="-99"/>
                    <Node pos="r" depth="7" NCoef="0" IVar="-1" Cut="0.0000000000000000e+00" cType="1" res="6.8891611881554127e-03" rms="4.7417521476745605e-01" purity="6.5165859460830688e-01" nType="-99"/>
                  </Node>
                </Node>
              </Node>
              <Node pos="r" depth="4" NCoef="0" IVar="1" Cut="7.4781411886215210e-01" cType="1" res="1.4920343458652496e-01" rms="3.8837796449661255e-01" purity="8.0974572896957397e-01" nType="0">
                <Node pos="l" depth="5" NCoef="0" IVar="5" Cut="-2.7060682773590088e+00" cType="1" res="1.5881927311420441e-01" rms="3.7376728653907776e-01" purity="8.3022707700729370e-01" nType="0">
                  <Node pos="l" depth="6" NCoef="0" IVar="1" Cut="1.7533469200134277e-01" cType="1" res="1.7322212457656860e-01" rms="3.5232600569725037e-01" purity="8.5384041070938110e-01" nType="0">
                    <Node pos="l" depth="7" NCoef="0" IVar="-1" Cut="0.0000000000000000e+00" cType="1" res="1.5924165025353432e-02" rms="3.4009030461311340e-01" purity="8.6611258983612061e-01" nType="-99"/>
                    <Node pos="r" depth="7" NCoef="0" IVar="-1" Cut="0.0000000000000000e+00" cType="1" res="1.3341096229851246e-02" rms="3.8000872731208801e-01" purity="8.2375222444534302e-01" nType="-99"/>
                  </Node>
                  <Node pos="r" depth="6" NCoef="0" IVar="1" Cut="2.7535843849182129e-01" cType="1" res="1.4272075891494751e-01" rms="3.9574259519577026e-01" purity="8.0383366346359253e-01" nType="0">
                    <Node pos="l" depth="7" NCoef="0" IVar="-1" Cut="0.0000000000000000e+00" cType="1" res="1.3065012171864510e-02" rms="3.8661515712738037e-01" purity="8.1613898277282715e-01" nType="-99"/>
                    <Node pos="r" depth="7" NCoef="0" IVar="-1" Cut="0.0000000000000000e+00" cType="1" res="9.9353650584816933e-03" rms="4.2573529481887817e-01" purity="7.5983786582946777e-01" nType="-99"/>
                  </Node>
                </Node>
                <Node pos="r" depth="5" NCoef="0" IVar="5" Cut="-2.3816566467285156e+00" cType="1" res="1.0129233449697495e-01" rms="4.5118051767349243e-01" purity="7.0769715309143066e-01" nType="0">
                  <Node pos="l" depth="6" NCoef="0" IVar="3" Cut="9.9877679347991943e-01" cType="1" res="1.2027189135551453e-01" rms="4.3811875581741333e-01" purity="7.3678743839263916e-01" nType="0">
                    <Node pos="l" depth="7" NCoef="0" IVar="-1" Cut="0.0000000000000000e+00" cType="1" res="7.9344306141138077e-03" rms="4.5405483245849609e-01" purity="7.0471197366714478e-01" nType="-99"/>
                    <Node pos="r" depth="7" NCoef="0" IVar="-1" Cut="0.0000000000000000e+00" cType="1" res="1.1272939853370190e-02" rms="4.1804009675979614e-01" purity="7.7202850580215454e-01" nType="-99"/>
                  </Node>
                  <Node pos="r" depth="6" NCoef="0" IVar="-1" Cut="0.0000000000000000e+00" cType="1" res="4.6480312012135983e-03" rms="4.7775992751121521e-01" purity="6.3863646984100342e-01" nType="-99"/>
                </Node>
              </Node>
            </Node>
            <Node pos="r" depth="3" NCoef="0" IVar="0" Cut="9.4472086429595947e-01" cType="1" res="3.7043865770101547e-02" rms="4.8661318421363831e-01" purity="5.5095392465591431e-01" nType="0">
              <Node pos="l" depth="4" NCoef="0" IVar="5" Cut="-2.2395811080932617e+00" cType="1" res="6.1028312891721725e-02" rms="4.8326864838600159e-01" purity="6.0193997621536255e-01" nType="0">
                <Node pos="l" depth="5" NCoef="0" IVar="3" Cut="8.4477978944778442e-01" cType="1" res="8.1539914011955261e-02" rms="4.7753527760505676e-01" purity="6.2650221586227417e-01" nType="0">
                  <Node pos="l" depth="6" NCoef="0" IVar="-1" Cut="0.0000000000000000e+00" cType="1" res="3.9076283574104309e-03" rms="4.8938906192779541e-01" purity="5.7666760683059692e-01" nType="-99"/>
                  <Node pos="r" depth="6" NCoef="0" IVar="-1" Cut="0.0000000000000000e+00" cType="1" res="8.7597165256738663e-03" rms="4.6497917175292969e-01" purity="6.6969913244247437e-01" nType="-99"/>
                </Node>
                <Node pos="r" depth="5" NCoef="0" IVar="-1" Cut="0.0000000000000000e+00" cType="1" res="1.7836351180449128e-03" rms="4.9173465371131897e-01" purity="5.5452179908752441e-01" nType="-99"/>
              </Node>
              <Node pos="r" depth="4" NCoef="0" IVar="-1" Cut="0.0000000000000000e+00" cType="1" res="-2.5670863687992096e-03" rms="4.8969548940658569e-01" purity="4.1303938627243042e-01" nType="-99"/>
            </Node>
          </Node>
          <Node pos="r" depth="2" NCoef="0" IVar="1" Cut="1.2019240856170654e+00" cType="1" res="6.7242868244647980e-03" rms="4.8289629817008972e-01" purity="5.3438550233840942e-01" nType="0">
            <Node pos="l" depth="3" NCoef="0" IVar="4" Cut="1.0596297979354858e+00" cType="1" res="3.0658394098281860e-02" rms="4.8282954096794128e-01" purity="5.7069575786590576e-01" nType="0">
              <Node pos="l" depth="4" NCoef="0" IVar="7" Cut="2.0000000000000000e+00" cType="1" res="5.5839523673057556e-02" rms="4.7728058695793152e-01" purity="6.0163944959640503e-01" nType="0">
                <Node pos="l" depth="5" NCoef="0" IVar="4" Cut="-2.8875565528869629e-01" cType="1" res="8.3544239401817322e-02" rms="4.6813741326332092e-01" purity="6.5316212177276611e-01" nType="0">
                  <Node pos="l" depth="6" NCoef="0" IVar="-1" Cut="0.0000000000000000e+00" cType="1" res="5.4698172025382519e-03" rms="4.7341841459274292e-01" purity="6.4034253358840942e-01" nType="-99"/>
                  <Node pos="r" depth="6" NCoef="0" IVar="-1" Cut="0.0000000000000000e+00" cType="1" res="8.5875634104013443e-03" rms="4.6172675490379333e-01" purity="6.6686731576919556e-01" nType="-99"/>
                </Node>
                <Node pos="r" depth="5" NCoef="0" IVar="5" Cut="-9.1361480951309204e-01" cType="1" res="2.9576150700449944e-02" rms="4.8836913704872131e-01" purity="5.5983394384384155e-01" nType="0">
                  <Node pos="l" depth="6" NCoef="0" IVar="-1" Cut="0.0000000000000000e+00" cType="1" res="5.0138938240706921e-03" rms="4.8015660047531128e-01" purity="6.1536246538162231e-01" nType="-99"/>
                  <Node pos="r" depth="6" NCoef="0" IVar="-1" Cut="0.0000000000000000e+00" cType="1" res="2.2827225620858371e-04" rms="4.9429643154144287e-01" purity="5.0858688354492188e-01" nType="-99"/>
                </Node>
              </Node>
              <Node pos="r" depth="4" NCoef="0" IVar="-1" Cut="0.0000000000000000e+00" cType="1" res="-9.2703411355614662e-03" rms="4.7690269351005554e-01" purity="3.9460864663124084e-01" nType="-99"/>
            </Node>
            <Node pos="r" depth="3" NCoef="0" IVar="-1" Cut="0.0000000000000000e+00" cType="1" res="-1.2559208087623119e-02" rms="4.5939013361930847e-01" purity="3.2413926720619202e-01" nType="-99"/>
          </Node>
        </Node>
      </Node>
    </BinaryTree>
    <BinaryTree type="DecisionTree" boostWeight="1.0000000000000000e+00" itree="20">
      <Node pos="s" depth="0" NCoef="0" IVar="3" Cut="7.1539324522018433e-01" cType="1" res="1.7429500818252563e-02" rms="4.1965934634208679e-01" purity="5.0108921527862549e-01" nType="0">
        <Node pos="l" depth="1" NCoef="0" IVar="0" Cut="6.4490842819213867e-01" cType="1" res="-9.3545444309711456e-02" rms="3.7520933151245117e-01" purity="2.1477597951889038e-01" nType="0">
          <Node pos="l" depth="2" NCoef="0" IVar="4" Cut="6.4669382572174072e-01" cType="1" res="-2.6657188311219215e-02" rms="4.7414442896842957e-01" purity="4.1370207071304321e-01" nType="0">
            <Node pos="l" depth="3" NCoef="0" IVar="0" Cut="2.0803110301494598e-01" cType="1" res="-1.2435873039066792e-02" rms="4.8440292477607727e-01" purity="4.4566911458969116e-01" nType="0">
              <Node pos="l" depth="4" NCoef="0" IVar="-1" Cut="0.0000000000000000e+00" cType="1" res="3.5840631462633610e-03" rms="4.8421025276184082e-01" purity="5.3172767162322998e-01" nType="-99"/>
              <Node pos="r" depth="4" NCoef="0" IVar="1" Cut="-9.5500946044921875e-02" cType="1" res="-2.5598319247364998e-02" rms="4.8350134491920471e-01" purity="4.2559975385665894e-01" nType="0">
                <Node pos="l" depth="5" NCoef="0" IVar="0" Cut="4.3352738022804260e-01" cType="1" res="2.1743344143033028e-02" rms="4.9270328879356384e-01" purity="5.0815761089324951e-01" nType="0">
                  <Node pos="l" depth="6" NCoef="0" IVar="-1" Cut="0.0000000000000000e+00" cType="1" res="3.9137620478868484e-03" rms="4.9194449186325073e-01" purity="5.5267852544784546e-01" nType="-99"/>
                  <Node pos="r" depth="6" NCoef="0" IVar="-1" Cut="0.0000000000000000e+00" cType="1" res="-5.0661573186516762e-04" rms="4.9213871359825134e-01" purity="4.5713558793067932e-01" nType="-99"/>
                </Node>
                <Node pos="r" depth="5" NCoef="0" IVar="6" Cut="5.0704292953014374e-02" cType="1" res="-4.3305572122335434e-02" rms="4.7881293296813965e-01" purity="3.9472055435180664e-01" nType="0">
                  <Node pos="l" depth="6" NCoef="0" IVar="-1" Cut="0.0000000000000000e+00" cType="1" res="-8.8258236646652222e-03" rms="4.6652176976203918e-01" purity="3.4065842628479004e-01" nType="-99"/>
                  <Node pos="r" depth="6" NCoef="0" IVar="2" Cut="1.4415357971191406e+02" cType="1" res="-2.6124272495508194e-02" rms="4.8208743333816528e-01" purity="4.1449004411697388e-01" nType="0">
                    <Node pos="l" depth="7" NCoef="0" IVar="-1" Cut="0.0000000000000000e+00" cType="1" res="1.5283717075362802e-03" rms="4.8669669032096863e-01" purity="4.6650075912475586e-01" nType="-99"/>
                    <Node pos="r" depth="7" NCoef="0" IVar="-1" Cut="0.0000000000000000e+00" cType="1" res="-4.5948484912514687e-03" rms="4.7830361127853394e-01" purity="3.8871803879737854e-01" nType="-99"/>
                  </Node>
                </Node>
              </Node>
            </Node>
            <Node pos="r" depth="3" NCoef="0" IVar="-1" Cut="0.0000000000000000e+00" cType="1" res="-1.1229014955461025e-02" rms="4.0623962879180908e-01" purity="2.4188326299190521e-01" nType="-99"/>
          </Node>
          <Node pos="r" depth="2" NCoef="0" IVar="0" Cut="1.2482583522796631e+00" cType="1" res="-1.2160560488700867e-01" rms="3.2072749733924866e-01" purity="1.3132487237453461e-01" nType="0">
            <Node pos="l" depth="3" NCoef="0" IVar="5" Cut="-6.6993409395217896e-01" cType="1" res="-9.5427721738815308e-02" rms="3.9410409331321716e-01" purity="2.1316818892955780e-01" nType="0">
              <Node pos="l" depth="4" NCoef="0" IVar="6" Cut="7.6898202300071716e-02" cType="1" res="-8.0102413892745972e-02" rms="4.2052218317985535e-01" purity="2.4872003495693207e-01" nType="0">
                <Node pos="l" depth="5" NCoef="0" IVar="2" Cut="9.9731727600097656e+01" cType="1" res="-1.1993715912103653e-01" rms="3.8284206390380859e-01" purity="1.9341485202312469e-01" nType="0">
                  <Node pos="l" depth="6" NCoef="0" IVar="-1" Cut="0.0000000000000000e+00" cType="1" res="-1.0506525635719299e-02" rms="4.0650409460067749e-01" purity="2.2810295224189758e-01" nType="-99"/>
                  <Node pos="r" depth="6" NCoef="0" IVar="-1" Cut="0.0000000000000000e+00" cType="1" res="-1.8060473725199699e-02" rms="3.5758453607559204e-01" purity="1.6167011857032776e-01" nType="-99"/>
                </Node>
                <Node pos="r" depth="5" NCoef="0" IVar="2" Cut="3.1430468750000000e+02" cType="1" res="-5.3321227431297302e-02" rms="4.4204771518707275e-01" purity="2.8590208292007446e-01" nType="0">
                  <Node pos="l" depth="6" NCoef="0" IVar="3" Cut="5.1488256454467773e-01" cType="1" res="-2.8058139607310295e-02" rms="4.5151332020759583e-01" purity="3.1015053391456604e-01" nType="0">
                    <Node pos="l" depth="7" NCoef="0" IVar="-1" Cut="0.0000000000000000e+00" cType="1" res="-5.5428720079362392e-03" rms="4.2916730046272278e-01" purity="2.5445574522018433e-01" nType="-99"/>
                    <Node pos="r" depth="7" NCoef="0" IVar="-1" Cut="0.0000000000000000e+00" cType="1" res="-2.8602019301615655e-04" rms="4.7887626290321350e-01" purity="3.8529208302497864e-01" nType="-99"/>
                  </Node>
                  <Node pos="r" depth="6" NCoef="0" IVar="6" Cut="1.2780793011188507e-01" cType="1" res="-8.2757703959941864e-02" rms="4.2888304591178894e-01" purity="2.5764787197113037e-01" nType="0">
                    <Node pos="l" depth="7" NCoef="0" IVar="-1" Cut="0.0000000000000000e+00" cType="1" res="-1.3042592443525791e-02" rms="4.0536081790924072e-01" purity="2.1966658532619476e-01" nType="-99"/>
                    <Node pos="r" depth="7" NCoef="0" IVar="-1" Cut="0.0000000000000000e+00" cType="1" res="-6.4562777988612652e-03" rms="4.4485777616500854e-01" purity="2.8712865710258484e-01" nType="-99"/>
                  </Node>
                </Node>
              </Node>
              <Node pos="r" depth="4" NCoef="0" IVar="4" Cut="1.6512663364410400e+00" cType="1" res="-1.4692500233650208e-01" rms="2.8206518292427063e-01" purity="9.3704253435134888e-02" nType="0">
                <Node pos="l" depth="5" NCoef="0" IVar="-1" Cut="0.0000000000000000e+00" cType="1" res="-1.5595537610352039e-02" rms="3.5499587655067444e-01" purity="1.5661545097827911e-01" nType="-99"/>
                <Node pos="r" depth="5" NCoef="0" IVar="-1" Cut="0.0000000000000000e+00" cType="1" res="-2.6438238099217415e-02" rms="2.0986250042915344e-01" purity="4.6891618520021439e-02" nType="-99"/>
              </Node>
            </Node>
            <Node pos="r" depth="3" NCoef="0" IVar="6" Cut="2.3086547851562500e-01" cType="1" res="-1.3645955920219421e-01" rms="2.6924744248390198e-01" purity="8.4885008633136749e-02" nType="0">
              <Node pos="l" depth="4" NCoef="0" IVar="5" Cut="1.2314310669898987e-01" cType="1" res="-1.4123167097568512e-01" rms="2.5528457760810852e-01" purity="7.5655087828636169e-02" nType="0">
                <Node pos="l" depth="5" NCoef="0" IVar="3" Cut="4.0058383345603943e-01" cType="1" res="-1.3556030392646790e-01" rms="2.8195172548294067e-01" purity="9.3274883925914764e-02" nType="0">
                  <Node pos="l" depth="6" NCoef="0" IVar="7" Cut="4.0000000000000000e+00" cType="1" res="-1.3978612422943115e-01" rms="2.4461396038532257e-01" purity="6.6741108894348145e-02" nType="0">
                    <Node pos="l" depth="7" NCoef="0" IVar="-1" Cut="0.0000000000000000e+00" cType="1" res="-1.8421394750475883e-02" rms="3.1054723262786865e-01" purity="1.1108542233705521e-01" nType="-99"/>
                    <Node pos="r" depth="7" NCoef="0" IVar="-1" Cut="0.0000000000000000e+00" cType="1" res="-2.6108620688319206e-02" rms="2.3329792916774750e-01" purity="5.9506267309188843e-02" nType="-99"/>
                  </Node>
                  <Node pos="r" depth="6" NCoef="0" IVar="2" Cut="1.9058972167968750e+02" cType="1" res="-1.1448107659816742e-01" rms="3.7500971555709839e-01" purity="1.7932085692882538e-01" nType="0">
                    <Node pos="l" depth="7" NCoef="0" IVar="-1" Cut="0.0000000000000000e+00" cType="1" res="-1.1822231113910675e-02" rms="3.8677871227264404e-01" purity="1.9629687070846558e-01" nType="-99"/>
                    <Node pos="r" depth="7" NCoef="0" IVar="-1" Cut="0.0000000000000000e+00" cType="1" res="-1.7499033361673355e-02" rms="3.6092606186866760e-01" purity="1.6155901551246643e-01" nType="-99"/>
                  </Node>
                </Node>
                <Node pos="r" depth="5" NCoef="0" IVar="6" Cut="1.2762102484703064e-01" cType="1" res="-1.5845423936843872e-01" rms="1.4584104716777802e-01" purity="2.2147996351122856e-02" nType="0">
                  <Node pos="l" depth="6" NCoef="0" IVar="0" Cut="2.3771512508392334e+00" cType="1" res="-1.6222910583019257e-01" rms="1.1826399713754654e-01" purity="1.4308753423392773e-02" nType="0">
                    <Node pos="l" depth="7" NCoef="0" IVar="-1" Cut="0.0000000000000000e+00" cType="1" res="-3.1434830278158188e-02" rms="1.1670234054327011e-01" purity="1.3600997626781464e-02" nType="-99"/>
                    <Node pos="r" depth="7" NCoef="0" IVar="-1" Cut="0.0000000000000000e+00" cType="1" res="-3.3075340092182159e-02" rms="1.1967892944812775e-01" purity="1.5109049156308174e-02" nType="-99"/>
                  </Node>
                  <Node pos="r" depth="6" NCoef="0" IVar="-1" Cut="0.0000000000000000e+00" cType="1" res="-2.9067739844322205e-02" rms="1.8088391423225403e-01" purity="3.4533943980932236e-02" nType="-99"/>
                </Node>
              </Node>
              <Node pos="r" depth="4" NCoef="0" IVar="-1" Cut="0.0000000000000000e+00" cType="1" res="-1.3099279254674911e-02" rms="3.7105056643486023e-01" purity="1.6972109675407410e-01" nType="-99"/>
            </Node>
          </Node>
        </Node>
        <Node pos="r" depth="1" NCoef="0" IVar="5" Cut="-1.3698112964630127e+00" cType="1" res="1.0135845094919205e-01" rms="4.3182981014251709e-01" purity="7.1762442588806152e-01" nType="0">
          <Node pos="l" depth="2" NCoef="0" IVar="0" Cut="3.2182702422142029e-01" cType="1" res="1.1658179014921188e-01" rms="4.2087039351463318e-01" purity="7.4742698669433594e-01" nType="0">
            <Node pos="l" depth="3" NCoef="0" IVar="3" Cut="8.7792205810546875e-01" cType="1" res="1.2918390333652496e-01" rms="4.0836519002914429e-01" purity="7.7785485982894897e-01" nType="0">
              <Node pos="l" depth="4" NCoef="0" IVar="1" Cut="5.1173144578933716e-01" cType="1" res="8.9056886732578278e-02" rms="4.5548132061958313e-01" purity="6.9360548257827759e-01" nType="0">
                <Node pos="l" depth="5" NCoef="0" IVar="1" Cut="-4.2720288038253784e-02" cType="1" res="1.0537321865558624e-01" rms="4.4241434335708618e-01" purity="7.2925955057144165e-01" nType="0">
                  <Node pos="l" depth="6" NCoef="0" IVar="3" Cut="7.9929554462432861e-01" cType="1" res="1.2009001523256302e-01" rms="4.3150505423545837e-01" purity="7.5005382299423218e-01" nType="0">
                    <Node pos="l" depth="7" NCoef="0" IVar="-1" Cut="0.0000000000000000e+00" cType="1" res="8.4337843582034111e-03" rms="4.5241639018058777e-01" purity="7.1168428659439087e-01" nType="-99"/>
                    <Node pos="r" depth="7" NCoef="0" IVar="-1" Cut="0.0000000000000000e+00" cType="1" res="1.0951511561870575e-02" rms="4.1874051094055176e-01" purity="7.7183383703231812e-01" nType="-99"/>
                  </Node>
                  <Node pos="r" depth="6" NCoef="0" IVar="0" Cut="1.7648272216320038e-01" cType="1" res="8.9003600180149078e-02" rms="4.5368066430091858e-01" purity="7.0612990856170654e-01" nType="0">
                    <Node pos="l" depth="7" NCoef="0" IVar="-1" Cut="0.0000000000000000e+00" cType="1" res="8.3449445664882660e-03" rms="4.4550567865371704e-01" purity="7.2445809841156006e-01" nType="-99"/>
                    <Node pos="r" depth="7" NCoef="0" IVar="-1" Cut="0.0000000000000000e+00" cType="1" res="5.4609724320471287e-03" rms="4.7081023454666138e-01" purity="6.6335922479629517e-01" nType="-99"/>
                  </Node>
                </Node>
                <Node pos="r" depth="5" NCoef="0" IVar="4" Cut="-2.3402631282806396e+00" cType="1" res="4.3655969202518463e-02" rms="4.8714286088943481e-01" purity="5.9439641237258911e-01" nType="0">
                  <Node pos="l" depth="6" NCoef="0" IVar="-1" Cut="0.0000000000000000e+00" cType="1" res="6.6827852278947830e-03" rms="4.7716766595840454e-01" purity="6.4110362529754639e-01" nType="-99"/>
                  <Node pos="r" depth="6" NCoef="0" IVar="-1" Cut="0.0000000000000000e+00" cType="1" res="2.0068082958459854e-03" rms="4.9102219939231873e-01" purity="5.7056611776351929e-01" nType="-99"/>
                </Node>
              </Node>
              <Node pos="r" depth="4" NCoef="0" IVar="1" Cut="4.7053411602973938e-01" cType="1" res="1.4535321295261383e-01" rms="3.8658922910690308e-01" purity="8.1180340051651001e-01" nType="0">
                <Node pos="l" depth="5" NCoef="0" IVar="5" Cut="-2.5826170444488525e+00" cType="1" res="1.5867257118225098e-01" rms="3.6580145359039307e-01" purity="8.3945846557617188e-01" nType="0">
                  <Node pos="l" depth="6" NCoef="0" IVar="1" Cut="-1.5786318108439445e-02" cType="1" res="1.7036123573780060e-01" rms="3.4646555781364441e-01" purity="8.5996276140213013e-01" nType="0">
                    <Node pos="l" depth="7" NCoef="0" IVar="-1" Cut="0.0000000000000000e+00" cType="1" res="1.5682827681303024e-02" rms="3.3715018630027771e-01" purity="8.6888623237609863e-01" nType="-99"/>
                    <Node pos="r" depth="7" NCoef="0" IVar="-1" Cut="0.0000000000000000e+00" cType="1" res="1.4459153637290001e-02" rms="3.5889613628387451e-01" purity="8.4745341539382935e-01" nType="-99"/>
                  </Node>
                  <Node pos="r" depth="6" NCoef="0" IVar="1" Cut="-5.3616233170032501e-02" cType="1" res="1.4111164212226868e-01" rms="3.9241364598274231e-01" purity="8.0865299701690674e-01" nType="0">
                    <Node pos="l" depth="7" NCoef="0" IVar="-1" Cut="0.0000000000000000e+00" cType="1" res="1.3476326130330563e-02" rms="3.7802377343177795e-01" purity="8.2662272453308105e-01" nType="-99"/>
                    <Node pos="r" depth="7" NCoef="0" IVar="-1" Cut="0.0000000000000000e+00" cType="1" res="1.1036492884159088e-02" rms="4.0838688611984253e-01" purity="7.8710389137268066e-01" nType="-99"/>
                  </Node>
                </Node>
                <Node pos="r" depth="5" NCoef="0" IVar="1" Cut="1.0847539901733398e+00" cType="1" res="1.0650589317083359e-01" rms="4.3936532735824585e-01" purity="7.3114454746246338e-01" nType="0">
                  <Node pos="l" depth="6" NCoef="0" IVar="5" Cut="-2.5282583236694336e+00" cType="1" res="1.2448436021804810e-01" rms="4.2115041613578796e-01" purity="7.6667279005050659e-01" nType="0">
                    <Node pos="l" depth="7" NCoef="0" IVar="-1" Cut="0.0000000000000000e+00" cType="1" res="1.1541371233761311e-02" rms="4.0563076734542847e-01" purity="7.9082286357879639e-01" nType="-99"/>
                    <Node pos="r" depth="7" NCoef="0" IVar="-1" Cut="0.0000000000000000e+00" cType="1" res="8.5470490157604218e-03" rms="4.4444352388381958e-01" purity="7.2719788551330566e-01" nType="-99"/>
                  </Node>
                  <Node pos="r" depth="6" NCoef="0" IVar="4" Cut="-7.8709298372268677e-01" cType="1" res="8.1593975424766541e-02" rms="4.6226882934570312e-01" purity="6.8191474676132202e-01" nType="0">
                    <Node pos="l" depth="7" NCoef="0" IVar="-1" Cut="0.0000000000000000e+00" cType="1" res="3.6994903348386288e-03" rms="4.7912174463272095e-01" purity="6.3483071327209473e-01" nType="-99"/>
                    <Node pos="r" depth="7" NCoef="0" IVar="-1" Cut="0.0000000000000000e+00" cType="1" res="8.7498771026730537e-03" rms="4.4816100597381592e-01" purity="7.1581429243087769e-01" nType="-99"/>
                  </Node>
                </Node>
              </Node>
            </Node>
            <Node pos="r" depth="3" NCoef="0" IVar="1" Cut="8.8003325462341309e-01" cType="1" res="3.5068701952695847e-02" rms="4.8634767532348633e-01" purity="5.5061310529708862e-01" nType="0">
              <Node pos="l" depth="4" NCoef="0" IVar="0" Cut="6.3054490089416504e-01" cType="1" res="6.4029783010482788e-02" rms="4.8197704553604126e-01" purity="6.0519754886627197e-01" nType="0">
                <Node pos="l" depth="5" NCoef="0" IVar="2" Cut="6.8444709777832031e+01" cType="1" res="8.2550734281539917e-02" rms="4.7370034456253052e-01" purity="6.5153414011001587e-01" nType="0">
                  <Node pos="l" depth="6" NCoef="0" IVar="-1" Cut="0.0000000000000000e+00" cType="1" res="7.9064965248107910e-03" rms="4.6249711513519287e-01" purity="6.8481421470642090e-01" nType="-99"/>
                  <Node pos="r" depth="6" NCoef="0" IVar="-1" Cut="0.0000000000000000e+00" cType="1" res="4.7426610253751278e-03" rms="4.8659783601760864e-01" purity="6.0855358839035034e-01" nType="-99"/>
                </Node>
                <Node pos="r" depth="5" NCoef="0" IVar="-1" Cut="0.0000000000000000e+00" cType="1" res="2.8365184552967548e-03" rms="4.9388286471366882e-01" purity="5.2825915813446045e-01" nType="-99"/>
              </Node>
              <Node pos="r" depth="4" NCoef="0" IVar="1" Cut="1.7625633478164673e+00" cType="1" res="-2.8028391301631927e-02" rms="4.8984292149543762e-01" purity="4.3169081211090088e-01" nType="0">
                <Node pos="l" depth="5" NCoef="0" IVar="-1" Cut="0.0000000000000000e+00" cType="1" res="9.6459945780225098e-05" rms="4.9393284320831299e-01" purity="4.7207587957382202e-01" nType="-99"/>
                <Node pos="r" depth="5" NCoef="0" IVar="-1" Cut="0.0000000000000000e+00" cType="1" res="-5.3121331147849560e-03" rms="4.8391693830490112e-01" purity="3.9101853966712952e-01" nType="-99"/>
              </Node>
            </Node>
          </Node>
          <Node pos="r" depth="2" NCoef="0" IVar="4" Cut="1.1080106496810913e+00" cType="1" res="8.8674174621701241e-03" rms="4.8300254344940186e-01" purity="5.3655546903610229e-01" nType="0">
            <Node pos="l" depth="3" NCoef="0" IVar="1" Cut="4.6810761094093323e-01" cType="1" res="3.1511865556240082e-02" rms="4.8263847827911377e-01" purity="5.6735748052597046e-01" nType="0">
              <Node pos="l" depth="4" NCoef="0" IVar="7" Cut="2.0000000000000000e+00" cType="1" res="6.7863538861274719e-02" rms="4.7365823388099670e-01" purity="6.2569689750671387e-01" nType="0">
                <Node pos="l" depth="5" NCoef="0" IVar="-1" Cut="0.0000000000000000e+00" cType="1" res="7.8692305833101273e-03" rms="4.6280980110168457e-01" purity="6.7685520648956299e-01" nType="-99"/>
                <Node pos="r" depth="5" NCoef="0" IVar="5" Cut="-7.8996568918228149e-01" cType="1" res="4.1945442557334900e-02" rms="4.8646575212478638e-01" purity="5.8356440067291260e-01" nType="0">
                  <Node pos="l" depth="6" NCoef="0" IVar="-1" Cut="0.0000000000000000e+00" cType="1" res="4.8879203386604786e-03" rms="4.7991529107093811e-01" purity="6.2430840730667114e-01" nType="-99"/>
                  <Node pos="r" depth="6" NCoef="0" IVar="-1" Cut="0.0000000000000000e+00" cType="1" res="2.0691703539341688e-03" rms="4.9409493803977966e-01" purity="5.3154712915420532e-01" nType="-99"/>
                </Node>
              </Node>
              <Node pos="r" depth="4" NCoef="0" IVar="1" Cut="1.0831835269927979e+00" cType="1" res="-3.5281885415315628e-02" rms="4.8740121722221375e-01" purity="4.5248395204544067e-01" nType="0">
                <Node pos="l" depth="5" NCoef="0" IVar="-1" Cut="0.0000000000000000e+00" cType="1" res="2.4669218691997230e-04" rms="4.9215823411941528e-01" purity="5.1589590311050415e-01" nType="-99"/>
                <Node pos="r" depth="5" NCoef="0" IVar="-1" Cut="0.0000000000000000e+00" cType="1" res="-6.9896630011498928e-03" rms="4.7871994972229004e-01" purity="3.8347873091697693e-01" nType="-99"/>
              </Node>
            </Node>
            <Node pos="r" depth="3" NCoef="0" IVar="-1" Cut="0.0000000000000000e+00" cType="1" res="-1.1731067672371864e-02" rms="4.6301168203353882e-01" purity="3.5427382588386536e-01" nType="-99"/>
          </Node>
        </Node>
      </Node>
    </BinaryTree>
    <BinaryTree type="DecisionTree" boostWeight="1.0000000000000000e+00" itree="21">
      <Node pos="s" depth="0" NCoef="0" IVar="3" Cut="7.1752387285232544e-01" cType="1" res="1.6390800476074219e-02" rms="4.1834262013435364e-01" purity="5.0064772367477417e-01" nType="0">
        <Node pos="l" depth="1" NCoef="0" IVar="0" Cut="6.4506030082702637e-01" cType="1" res="-8.8856875896453857e-02" rms="3.7534430623054504e-01" purity="2.1608944237232208e-01" nType="0">
          <Node pos="l" depth="2" NCoef="0" IVar="5" Cut="-8.7232315540313721e-01" cType="1" res="-2.7169520035386086e-02" rms="4.7312608361244202e-01" purity="4.1341120004653931e-01" nType="0">
            <Node pos="l" depth="3" NCoef="0" IVar="1" Cut="7.5543540716171265e-01" cType="1" res="-1.0848370380699635e-02" rms="4.8396322131156921e-01" purity="4.5013278722763062e-01" nType="0">
              <Node pos="l" depth="4" NCoef="0" IVar="0" Cut="4.5776593685150146e-01" cType="1" res="6.5374388359487057e-03" rms="4.8924601078033447e-01" purity="4.8947158455848694e-01" nType="0">
                <Node pos="l" depth="5" NCoef="0" IVar="6" Cut="6.0444988310337067e-02" cType="1" res="2.5868797674775124e-02" rms="4.8983252048492432e-01" purity="5.2660602331161499e-01" nType="0">
                  <Node pos="l" depth="6" NCoef="0" IVar="-1" Cut="0.0000000000000000e+00" cType="1" res="-3.9921168354339898e-04" rms="4.9041774868965149e-01" purity="4.9378997087478638e-01" nType="-99"/>
                  <Node pos="r" depth="6" NCoef="0" IVar="2" Cut="1.5117572021484375e+02" cType="1" res="4.4043943285942078e-02" rms="4.8857930302619934e-01" purity="5.4619443416595459e-01" nType="0">
                    <Node pos="l" depth="7" NCoef="0" IVar="-1" Cut="0.0000000000000000e+00" cType="1" res="6.7746671847999096e-03" rms="4.8189815878868103e-01" purity="6.0097634792327881e-01" nType="-99"/>
                    <Node pos="r" depth="7" NCoef="0" IVar="-1" Cut="0.0000000000000000e+00" cType="1" res="1.8841386772692204e-03" rms="4.9049443006515503e-01" purity="5.1765584945678711e-01" nType="-99"/>
                  </Node>
                </Node>
                <Node pos="r" depth="5" NCoef="0" IVar="6" Cut="8.8735781610012054e-02" cType="1" res="-3.1372699886560440e-02" rms="4.8586568236351013e-01" purity="4.1664829850196838e-01" nType="0">
                  <Node pos="l" depth="6" NCoef="0" IVar="-1" Cut="0.0000000000000000e+00" cType="1" res="-5.5966535583138466e-03" rms="4.8024675250053406e-01" purity="3.8217687606811523e-01" nType="-99"/>
                  <Node pos="r" depth="6" NCoef="0" IVar="-1" Cut="0.0000000000000000e+00" cType="1" res="2.5968602858483791e-04" rms="4.9034261703491211e-01" purity="4.5808225870132446e-01" nType="-99"/>
                </Node>
              </Node>
              <Node pos="r" depth="4" NCoef="0" IVar="6" Cut="7.3052056133747101e-02" cType="1" res="-6.0093760490417480e-02" rms="4.6516281366348267e-01" purity="3.3870550990104675e-01" nType="0">
                <Node pos="l" depth="5" NCoef="0" IVar="-1" Cut="0.0000000000000000e+00" cType="1" res="-9.8962970077991486e-03" rms="4.4863697886466980e-01" purity="2.9405161738395691e-01" nType="-99"/>
                <Node pos="r" depth="5" NCoef="0" IVar="-1" Cut="0.0000000000000000e+00" cType="1" res="-2.2886104416102171e-03" rms="4.7695413231849670e-01" purity="3.7939047813415527e-01" nType="-99"/>
              </Node>
            </Node>
            <Node pos="r" depth="3" NCoef="0" IVar="0" Cut="4.3695974349975586e-01" cType="1" res="-1.0818094760179520e-01" rms="4.0556198358535767e-01" purity="2.3114034533500671e-01" nType="0">
              <Node pos="l" depth="4" NCoef="0" IVar="-1" Cut="0.0000000000000000e+00" cType="1" res="-7.9972613602876663e-03" rms="4.3548455834388733e-01" purity="2.8382915258407593e-01" nType="-99"/>
              <Node pos="r" depth="4" NCoef="0" IVar="-1" Cut="0.0000000000000000e+00" cType="1" res="-1.7007801681756973e-02" rms="3.6676311492919922e-01" purity="1.7352177202701569e-01" nType="-99"/>
            </Node>
          </Node>
          <Node pos="r" depth="2" NCoef="0" IVar="1" Cut="1.5157026052474976e-01" cType="1" res="-1.1538229882717133e-01" rms="3.2073152065277100e-01" purity="1.3124154508113861e-01" nType="0">
            <Node pos="l" depth="3" NCoef="0" IVar="4" Cut="1.6920647621154785e+00" cType="1" res="-8.0097876489162445e-02" rms="3.7893226742744446e-01" purity="2.0075120031833649e-01" nType="0">
              <Node pos="l" depth="4" NCoef="0" IVar="3" Cut="4.2384278774261475e-01" cType="1" res="-6.5267294645309448e-02" rms="4.0568795800209045e-01" purity="2.3461230099201202e-01" nType="0">
                <Node pos="l" depth="5" NCoef="0" IVar="6" Cut="1.3983981311321259e-01" cType="1" res="-9.7350478172302246e-02" rms="3.3367031812667847e-01" purity="1.3594682514667511e-01" nType="0">
                  <Node pos="l" depth="6" NCoef="0" IVar="-1" Cut="0.0000000000000000e+00" cType="1" res="-2.2195415571331978e-02" rms="2.6902312040328979e-01" purity="8.0954037606716156e-02" nType="-99"/>
                  <Node pos="r" depth="6" NCoef="0" IVar="-1" Cut="0.0000000000000000e+00" cType="1" res="-7.8792339190840721e-03" rms="3.9896911382675171e-01" purity="2.0730490982532501e-01" nType="-99"/>
                </Node>
                <Node pos="r" depth="5" NCoef="0" IVar="6" Cut="7.1857564151287079e-02" cType="1" res="-4.0869560092687607e-02" rms="4.5132738351821899e-01" purity="3.0964267253875732e-01" nType="0">
                  <Node pos="l" depth="6" NCoef="0" IVar="-1" Cut="0.0000000000000000e+00" cType="1" res="-8.8349385187029839e-03" rms="4.2787584662437439e-01" purity="2.5914242863655090e-01" nType="-99"/>
                  <Node pos="r" depth="6" NCoef="0" IVar="-1" Cut="0.0000000000000000e+00" cType="1" res="-2.0066150464117527e-03" rms="4.6254339814186096e-01" purity="3.3789771795272827e-01" nType="-99"/>
                </Node>
              </Node>
              <Node pos="r" depth="4" NCoef="0" IVar="-1" Cut="0.0000000000000000e+00" cType="1" res="-2.6158543303608894e-02" rms="2.0390056073665619e-01" purity="4.5310247689485550e-02" nType="-99"/>
            </Node>
            <Node pos="r" depth="3" NCoef="0" IVar="4" Cut="7.0473378896713257e-01" cType="1" res="-1.2544387578964233e-01" rms="3.0133140087127686e-01" purity="1.1142041534185410e-01" nType="0">
              <Node pos="l" depth="4" NCoef="0" IVar="5" Cut="-3.1516690254211426e+00" cType="1" res="-1.1666943132877350e-01" rms="3.3502694964408875e-01" purity="1.4033779501914978e-01" nType="0">
                <Node pos="l" depth="5" NCoef="0" IVar="6" Cut="7.6299116015434265e-02" cType="1" res="-1.5145176649093628e-01" rms="2.6484116911888123e-01" purity="8.0348901450634003e-02" nType="0">
                  <Node pos="l" depth="6" NCoef="0" IVar="-1" Cut="0.0000000000000000e+00" cType="1" res="-2.6094594970345497e-02" rms="2.4760511517524719e-01" purity="6.8936325609683990e-02" nType="-99"/>
                  <Node pos="r" depth="6" NCoef="0" IVar="-1" Cut="0.0000000000000000e+00" cType="1" res="-2.0842501893639565e-02" rms="2.8787425160408020e-01" purity="9.8000757396221161e-02" nType="-99"/>
                </Node>
                <Node pos="r" depth="5" NCoef="0" IVar="7" Cut="5.0000000000000000e+00" cType="1" res="-1.0961619764566422e-01" rms="3.4620818495750427e-01" purity="1.5200105309486389e-01" nType="0">
                  <Node pos="l" depth="6" NCoef="0" IVar="6" Cut="1.4121456444263458e-01" cType="1" res="-9.1374002397060394e-02" rms="3.9106810092926025e-01" purity="2.0223413407802582e-01" nType="0">
                    <Node pos="l" depth="7" NCoef="0" IVar="-1" Cut="0.0000000000000000e+00" cType="1" res="-1.3067120686173439e-02" rms="3.7963357567787170e-01" purity="1.8762075901031494e-01" nType="-99"/>
                    <Node pos="r" depth="7" NCoef="0" IVar="-1" Cut="0.0000000000000000e+00" cType="1" res="-7.1969898417592049e-03" rms="4.2392545938491821e-01" purity="2.4866800010204315e-01" nType="-99"/>
                  </Node>
                  <Node pos="r" depth="6" NCoef="0" IVar="3" Cut="3.3166709542274475e-01" cType="1" res="-1.3061651587486267e-01" rms="2.8757235407829285e-01" purity="9.5868110656738281e-02" nType="0">
                    <Node pos="l" depth="7" NCoef="0" IVar="-1" Cut="0.0000000000000000e+00" cType="1" res="-2.5446986779570580e-02" rms="2.4609582126140594e-01" purity="6.6979348659515381e-02" nType="-99"/>
                    <Node pos="r" depth="7" NCoef="0" IVar="-1" Cut="0.0000000000000000e+00" cType="1" res="-1.5712881460785866e-02" rms="3.4444573521614075e-01" purity="1.4340600371360779e-01" nType="-99"/>
                  </Node>
                </Node>
              </Node>
              <Node pos="r" depth="4" NCoef="0" IVar="5" Cut="3.4857779741287231e-02" cType="1" res="-1.4331549406051636e-01" rms="2.1598812937736511e-01" purity="5.2522100508213043e-02" nType="0">
                <Node pos="l" depth="5" NCoef="0" IVar="6" Cut="8.9364737272262573e-02" cType="1" res="-1.3057683408260345e-01" rms="2.7916222810745239e-01" purity="9.1281041502952576e-02" nType="0">
                  <Node pos="l" depth="6" NCoef="0" IVar="-1" Cut="0.0000000000000000e+00" cType="1" res="-2.4055620655417442e-02" rms="2.4038890004158020e-01" purity="6.7149944603443146e-02" nType="-99"/>
                  <Node pos="r" depth="6" NCoef="0" IVar="-1" Cut="0.0000000000000000e+00" cType="1" res="-1.8735328689217567e-02" rms="3.0295687913894653e-01" purity="1.0836943238973618e-01" nType="-99"/>
                </Node>
                <Node pos="r" depth="5" NCoef="0" IVar="3" Cut="2.3176905512809753e-01" cType="1" res="-1.5062578022480011e-01" rms="1.6897746920585632e-01" purity="3.0279651284217834e-02" nType="0">
                  <Node pos="l" depth="6" NCoef="0" IVar="-1" Cut="0.0000000000000000e+00" cType="1" res="-2.7127882465720177e-02" rms="2.0717574656009674e-01" purity="4.7560948878526688e-02" nType="-99"/>
                  <Node pos="r" depth="6" NCoef="0" IVar="5" Cut="1.1454098224639893e+00" cType="1" res="-1.5687026083469391e-01" rms="1.5484721958637238e-01" purity="2.4976007640361786e-02" nType="0">
                    <Node pos="l" depth="7" NCoef="0" IVar="-1" Cut="0.0000000000000000e+00" cType="1" res="-2.6156315580010414e-02" rms="2.0845292508602142e-01" purity="4.6388458460569382e-02" nType="-99"/>
                    <Node pos="r" depth="7" NCoef="0" IVar="-1" Cut="0.0000000000000000e+00" cType="1" res="-3.1302295625209808e-02" rms="1.1628090590238571e-01" purity="1.3568216934800148e-02" nType="-99"/>
                  </Node>
                </Node>
              </Node>
            </Node>
          </Node>
        </Node>
        <Node pos="r" depth="1" NCoef="0" IVar="5" Cut="-1.3698112964630127e+00" cType="1" res="9.6437439322471619e-02" rms="4.3143248558044434e-01" purity="7.1706992387771606e-01" nType="0">
          <Node pos="l" depth="2" NCoef="0" IVar="1" Cut="8.7188190221786499e-01" cType="1" res="1.1176922917366028e-01" rms="4.2053422331809998e-01" purity="7.4749898910522461e-01" nType="0">
            <Node pos="l" depth="3" NCoef="0" IVar="3" Cut="8.4090501070022583e-01" cType="1" res="1.2585933506488800e-01" rms="4.0670141577720642e-01" purity="7.7792119979858398e-01" nType="0">
              <Node pos="l" depth="4" NCoef="0" IVar="0" Cut="3.0098286271095276e-01" cType="1" res="7.4943862855434418e-02" rms="4.6530604362487793e-01" purity="6.6867965459823608e-01" nType="0">
                <Node pos="l" depth="5" NCoef="0" IVar="6" Cut="4.3062761425971985e-02" cType="1" res="8.7026320397853851e-02" rms="4.5647877454757690e-01" purity="6.9835025072097778e-01" nType="0">
                  <Node pos="l" depth="6" NCoef="0" IVar="4" Cut="-2.2219138145446777e+00" cType="1" res="6.3019029796123505e-02" rms="4.6591213345527649e-01" purity="6.7349100112915039e-01" nType="0">
                    <Node pos="l" depth="7" NCoef="0" IVar="-1" Cut="0.0000000000000000e+00" cType="1" res="7.3591950349509716e-03" rms="4.5528241991996765e-01" purity="7.0165944099426270e-01" nType="-99"/>
                    <Node pos="r" depth="7" NCoef="0" IVar="-1" Cut="0.0000000000000000e+00" cType="1" res="3.7175761535763741e-03" rms="4.7406029701232910e-01" purity="6.4885556697845459e-01" nType="-99"/>
                  </Node>
                  <Node pos="r" depth="6" NCoef="0" IVar="2" Cut="1.3880006408691406e+02" cType="1" res="1.0613549500703812e-01" rms="4.4790959358215332e-01" purity="7.1813756227493286e-01" nType="0">
                    <Node pos="l" depth="7" NCoef="0" IVar="-1" Cut="0.0000000000000000e+00" cType="1" res="1.0053494945168495e-02" rms="4.3527707457542419e-01" purity="7.4213355779647827e-01" nType="-99"/>
                    <Node pos="r" depth="7" NCoef="0" IVar="-1" Cut="0.0000000000000000e+00" cType="1" res="7.2117461822926998e-03" rms="4.5877367258071899e-01" purity="6.9446116685867310e-01" nType="-99"/>
                  </Node>
                </Node>
                <Node pos="r" depth="5" NCoef="0" IVar="2" Cut="1.1668048095703125e+02" cType="1" res="4.0527358651161194e-02" rms="4.8794147372245789e-01" purity="5.8416390419006348e-01" nType="0">
                  <Node pos="l" depth="6" NCoef="0" IVar="-1" Cut="0.0000000000000000e+00" cType="1" res="4.4252541847527027e-03" rms="4.8501822352409363e-01" purity="6.0252565145492554e-01" nType="-99"/>
                  <Node pos="r" depth="6" NCoef="0" IVar="-1" Cut="0.0000000000000000e+00" cType="1" res="2.1788419689983130e-03" rms="4.9046310782432556e-01" purity="5.6521248817443848e-01" nType="-99"/>
                </Node>
              </Node>
              <Node pos="r" depth="4" NCoef="0" IVar="0" Cut="6.4357435703277588e-01" cType="1" res="1.3984531164169312e-01" rms="3.8789260387420654e-01" purity="8.0792862176895142e-01" nType="0">
                <Node pos="l" depth="5" NCoef="0" IVar="5" Cut="-2.2933697700500488e+00" cType="1" res="1.4356711506843567e-01" rms="3.8328763842582703e-01" purity="8.1732058525085449e-01" nType="0">
                  <Node pos="l" depth="6" NCoef="0" IVar="1" Cut="2.3435096442699432e-01" cType="1" res="1.5243798494338989e-01" rms="3.6985355615615845e-01" purity="8.3394241333007812e-01" nType="0">
                    <Node pos="l" depth="7" NCoef="0" IVar="-1" Cut="0.0000000000000000e+00" cType="1" res="1.4206438325345516e-02" rms="3.5785919427871704e-01" purity="8.4783923625946045e-01" nType="-99"/>
                    <Node pos="r" depth="7" NCoef="0" IVar="-1" Cut="0.0000000000000000e+00" cType="1" res="1.1488171294331551e-02" rms="3.9966666698455811e-01" purity="7.9658603668212891e-01" nType="-99"/>
                  </Node>
                  <Node pos="r" depth="6" NCoef="0" IVar="1" Cut="4.6661175787448883e-02" cType="1" res="1.1981148272752762e-01" rms="4.1620790958404541e-01" purity="7.7280849218368530e-01" nType="0">
                    <Node pos="l" depth="7" NCoef="0" IVar="-1" Cut="0.0000000000000000e+00" cType="1" res="1.1700146831572056e-02" rms="3.9954578876495361e-01" purity="7.9780030250549316e-01" nType="-99"/>
                    <Node pos="r" depth="7" NCoef="0" IVar="-1" Cut="0.0000000000000000e+00" cType="1" res="8.7094316259026527e-03" rms="4.3619039654731750e-01" purity="7.4034792184829712e-01" nType="-99"/>
                  </Node>
                </Node>
                <Node pos="r" depth="5" NCoef="0" IVar="-1" Cut="0.0000000000000000e+00" cType="1" res="2.6071674656122923e-03" rms="4.9243018031120300e-01" purity="5.3180742263793945e-01" nType="-99"/>
              </Node>
            </Node>
            <Node pos="r" depth="3" NCoef="0" IVar="0" Cut="6.3840800523757935e-01" cType="1" res="4.2374663054943085e-02" rms="4.7687828540802002e-01" purity="5.9766799211502075e-01" nType="0">
              <Node pos="l" depth="4" NCoef="0" IVar="3" Cut="9.7767174243927002e-01" cType="1" res="5.8183677494525909e-02" rms="4.7365483641624451e-01" purity="6.3450515270233154e-01" nType="0">
                <Node pos="l" depth="5" NCoef="0" IVar="6" Cut="3.4575369209051132e-02" cType="1" res="1.9694112241268158e-02" rms="4.9191951751708984e-01" purity="5.6208056211471558e-01" nType="0">
                  <Node pos="l" depth="6" NCoef="0" IVar="-1" Cut="0.0000000000000000e+00" cType="1" res="-1.2192658614367247e-03" rms="4.9253523349761963e-01" purity="5.4291379451751709e-01" nType="-99"/>
                  <Node pos="r" depth="6" NCoef="0" IVar="-1" Cut="0.0000000000000000e+00" cType="1" res="4.0748319588601589e-03" rms="4.8942637443542480e-01" purity="5.7907503843307495e-01" nType="-99"/>
                </Node>
                <Node pos="r" depth="5" NCoef="0" IVar="4" Cut="-6.9313085079193115e-01" cType="1" res="9.4055086374282837e-02" rms="4.5303994417190552e-01" purity="7.0200324058532715e-01" nType="0">
                  <Node pos="l" depth="6" NCoef="0" IVar="-1" Cut="0.0000000000000000e+00" cType="1" res="4.1222949512302876e-03" rms="4.7331628203392029e-01" purity="6.5143054723739624e-01" nType="-99"/>
                  <Node pos="r" depth="6" NCoef="0" IVar="-1" Cut="0.0000000000000000e+00" cType="1" res="9.7210053354501724e-03" rms="4.3954133987426758e-01" purity="7.3077619075775146e-01" nType="-99"/>
                </Node>
              </Node>
              <Node pos="r" depth="4" NCoef="0" IVar="-1" Cut="0.0000000000000000e+00" cType="1" res="-4.2180581949651241e-03" rms="4.8511067032814026e-01" purity="3.9350977540016174e-01" nType="-99"/>
            </Node>
          </Node>
          <Node pos="r" depth="2" NCoef="0" IVar="1" Cut="1.1959803104400635e+00" cType="1" res="2.8910276014357805e-03" rms="4.8228704929351807e-01" purity="5.3140819072723389e-01" nType="0">
            <Node pos="l" depth="3" NCoef="0" IVar="3" Cut="7.9938495159149170e-01" cType="1" res="2.5814451277256012e-02" rms="4.8306819796562195e-01" purity="5.6899440288543701e-01" nType="0">
              <Node pos="l" depth="4" NCoef="0" IVar="-1" Cut="0.0000000000000000e+00" cType="1" res="-3.6529963836073875e-03" rms="4.8924988508224487e-01" purity="4.6353310346603394e-01" nType="-99"/>
              <Node pos="r" depth="4" NCoef="0" IVar="5" Cut="-5.7494717836380005e-01" cType="1" res="4.6743627637624741e-02" rms="4.7920423746109009e-01" purity="6.0196119546890259e-01" nType="0">
                <Node pos="l" depth="5" NCoef="0" IVar="3" Cut="9.5259189605712891e-01" cType="1" res="6.5347343683242798e-02" rms="4.7162008285522461e-01" purity="6.4416849613189697e-01" nType="0">
                  <Node pos="l" depth="6" NCoef="0" IVar="-1" Cut="0.0000000000000000e+00" cType="1" res="3.9696614257991314e-03" rms="4.8318195343017578e-01" purity="6.0785478353500366e-01" nType="-99"/>
                  <Node pos="r" depth="6" NCoef="0" IVar="-1" Cut="0.0000000000000000e+00" cType="1" res="6.8723526783287525e-03" rms="4.6077308058738708e-01" purity="6.7543441057205200e-01" nType="-99"/>
                </Node>
                <Node pos="r" depth="5" NCoef="0" IVar="-1" Cut="0.0000000000000000e+00" cType="1" res="9.3473249580711126e-04" rms="4.9155277013778687e-01" purity="5.2029526233673096e-01" nType="-99"/>
              </Node>
            </Node>
            <Node pos="r" depth="3" NCoef="0" IVar="-1" Cut="0.0000000000000000e+00" cType="1" res="-1.2000966817140579e-02" rms="4.5682257413864136e-01" purity="3.1951701641082764e-01" nType="-99"/>
          </Node>
        </Node>
      </Node>
    </BinaryTree>
    <BinaryTree type="DecisionTree" boostWeight="1.0000000000000000e+00" itree="22">
      <Node pos="s" depth="0" NCoef="0" IVar="0" Cut="3.2252842187881470e-01" cType="1" res="1.4793779700994492e-02" rms="4.1720193624496460e-01" purity="4.9896752834320068e-01" nType="0">
        <Node pos="l" depth="1" NCoef="0" IVar="3" Cut="8.2499086856842041e-01" cType="1" res="9.7584061324596405e-02" rms="4.2703035473823547e-01" purity="7.2841840982437134e-01" nType="0">
          <Node pos="l" depth="2" NCoef="0" IVar="5" Cut="-1.0924955606460571e+00" cType="1" res="3.4028518944978714e-02" rms="4.7674420475959778e-01" purity="5.7706660032272339e-01" nType="0">
            <Node pos="l" depth="3" NCoef="0" IVar="3" Cut="6.1670684814453125e-01" cType="1" res="4.9192849546670914e-02" rms="4.7560933232307434e-01" purity="6.0827720165252686e-01" nType="0">
              <Node pos="l" depth="4" NCoef="0" IVar="-1" Cut="0.0000000000000000e+00" cType="1" res="-2.7802821714431047e-03" rms="4.7607973217964172e-01" purity="4.0091383457183838e-01" nType="-99"/>
              <Node pos="r" depth="4" NCoef="0" IVar="1" Cut="1.0352293252944946e+00" cType="1" res="5.8638174086809158e-02" rms="4.7467327117919922e-01" purity="6.3304823637008667e-01" nType="0">
                <Node pos="l" depth="5" NCoef="0" IVar="1" Cut="2.0755396783351898e-01" cType="1" res="6.8140260875225067e-02" rms="4.7041586041450500e-01" purity="6.5481626987457275e-01" nType="0">
                  <Node pos="l" depth="6" NCoef="0" IVar="3" Cut="7.3764461278915405e-01" cType="1" res="8.7004475295543671e-02" rms="4.5956030488014221e-01" purity="6.8996679782867432e-01" nType="0">
                    <Node pos="l" depth="7" NCoef="0" IVar="-1" Cut="0.0000000000000000e+00" cType="1" res="4.8433244228363037e-03" rms="4.8206633329391479e-01" purity="6.2685328722000122e-01" nType="-99"/>
                    <Node pos="r" depth="7" NCoef="0" IVar="-1" Cut="0.0000000000000000e+00" cType="1" res="8.6567867547273636e-03" rms="4.4661816954612732e-01" purity="7.2286498546600342e-01" nType="-99"/>
                  </Node>
                  <Node pos="r" depth="6" NCoef="0" IVar="0" Cut="1.7680834233760834e-01" cType="1" res="3.3465906977653503e-02" rms="4.8784327507019043e-01" purity="5.9020578861236572e-01" nType="0">
                    <Node pos="l" depth="7" NCoef="0" IVar="-1" Cut="0.0000000000000000e+00" cType="1" res="4.8760403878986835e-03" rms="4.8111107945442200e-01" purity="6.2717449665069580e-01" nType="-99"/>
                    <Node pos="r" depth="7" NCoef="0" IVar="-1" Cut="0.0000000000000000e+00" cType="1" res="2.3734512069495395e-05" rms="4.9352511763572693e-01" purity="5.4700565338134766e-01" nType="-99"/>
                  </Node>
                </Node>
                <Node pos="r" depth="5" NCoef="0" IVar="-1" Cut="0.0000000000000000e+00" cType="1" res="-2.1498823480214924e-04" rms="4.9689218401908875e-01" purity="4.9285426735877991e-01" nType="-99"/>
              </Node>
            </Node>
            <Node pos="r" depth="3" NCoef="0" IVar="0" Cut="2.1845434606075287e-01" cType="1" res="-4.7006011009216309e-02" rms="4.7462102770805359e-01" purity="4.1028454899787903e-01" nType="0">
              <Node pos="l" depth="4" NCoef="0" IVar="-1" Cut="0.0000000000000000e+00" cType="1" res="-1.6651178011670709e-03" rms="4.8126935958862305e-01" purity="4.4716000556945801e-01" nType="-99"/>
              <Node pos="r" depth="4" NCoef="0" IVar="-1" Cut="0.0000000000000000e+00" cType="1" res="-7.4547505937516689e-03" rms="4.6602013707160950e-01" purity="3.7280970811843872e-01" nType="-99"/>
            </Node>
          </Node>
          <Node pos="r" depth="2" NCoef="0" IVar="5" Cut="-1.5086820125579834e+00" cType="1" res="1.1784064769744873e-01" rms="4.0784427523612976e-01" purity="7.7665764093399048e-01" nType="0">
            <Node pos="l" depth="3" NCoef="0" IVar="1" Cut="4.7053411602973938e-01" cType="1" res="1.2703822553157806e-01" rms="3.9662909507751465e-01" purity="7.9787456989288330e-01" nType="0">
              <Node pos="l" depth="4" NCoef="0" IVar="4" Cut="-1.1484932899475098e+00" cType="1" res="1.3898143172264099e-01" rms="3.7706184387207031e-01" purity="8.2612907886505127e-01" nType="0">
                <Node pos="l" depth="5" NCoef="0" IVar="5" Cut="-2.4504754543304443e+00" cType="1" res="1.2104275077581406e-01" rms="4.0350490808486938e-01" purity="7.9340058565139771e-01" nType="0">
                  <Node pos="l" depth="6" NCoef="0" IVar="4" Cut="-2.6851184368133545e+00" cType="1" res="1.3158082962036133e-01" rms="3.9111661911010742e-01" purity="8.1032425165176392e-01" nType="0">
                    <Node pos="l" depth="7" NCoef="0" IVar="-1" Cut="0.0000000000000000e+00" cType="1" res="1.4633211307227612e-02" rms="3.6939325928688049e-01" purity="8.3588039875030518e-01" nType="-99"/>
                    <Node pos="r" depth="7" NCoef="0" IVar="-1" Cut="0.0000000000000000e+00" cType="1" res="1.0333908721804619e-02" rms="3.9856290817260742e-01" purity="8.0065542459487915e-01" nType="-99"/>
                  </Node>
                  <Node pos="r" depth="6" NCoef="0" IVar="1" Cut="-2.3570861667394638e-02" cType="1" res="1.0123762488365173e-01" rms="4.2510703206062317e-01" purity="7.6159441471099854e-01" nType="0">
                    <Node pos="l" depth="7" NCoef="0" IVar="-1" Cut="0.0000000000000000e+00" cType="1" res="9.8415594547986984e-03" rms="4.1347995400428772e-01" purity="7.7984029054641724e-01" nType="-99"/>
                    <Node pos="r" depth="7" NCoef="0" IVar="-1" Cut="0.0000000000000000e+00" cType="1" res="7.3118759319186211e-03" rms="4.3949204683303833e-01" purity="7.3736864328384399e-01" nType="-99"/>
                  </Node>
                </Node>
                <Node pos="r" depth="5" NCoef="0" IVar="5" Cut="-2.8512959480285645e+00" cType="1" res="1.4976812899112701e-01" rms="3.5979771614074707e-01" purity="8.4580904245376587e-01" nType="0">
                  <Node pos="l" depth="6" NCoef="0" IVar="3" Cut="1.0023583173751831e+00" cType="1" res="1.6601960361003876e-01" rms="3.3172151446342468e-01" purity="8.7394827604293823e-01" nType="0">
                    <Node pos="l" depth="7" NCoef="0" IVar="-1" Cut="0.0000000000000000e+00" cType="1" res="1.5029949136078358e-02" rms="3.3958241343498230e-01" purity="8.6688715219497681e-01" nType="-99"/>
                    <Node pos="r" depth="7" NCoef="0" IVar="-1" Cut="0.0000000000000000e+00" cType="1" res="1.6332264989614487e-02" rms="3.1539520621299744e-01" purity="8.8775438070297241e-01" nType="-99"/>
                  </Node>
                  <Node pos="r" depth="6" NCoef="0" IVar="3" Cut="9.9198919534683228e-01" cType="1" res="1.3705660402774811e-01" rms="3.7983199954032898e-01" purity="8.2379931211471558e-01" nType="0">
                    <Node pos="l" depth="7" NCoef="0" IVar="-1" Cut="0.0000000000000000e+00" cType="1" res="1.0748826898634434e-02" rms="4.0001645684242249e-01" purity="7.9786479473114014e-01" nType="-99"/>
                    <Node pos="r" depth="7" NCoef="0" IVar="-1" Cut="0.0000000000000000e+00" cType="1" res="1.3208290562033653e-02" rms="3.6927196383476257e-01" purity="8.3645498752593994e-01" nType="-99"/>
                  </Node>
                </Node>
              </Node>
              <Node pos="r" depth="4" NCoef="0" IVar="4" Cut="-3.4024313092231750e-01" cType="1" res="9.2907994985580444e-02" rms="4.4609987735748291e-01" purity="7.1713101863861084e-01" nType="0">
                <Node pos="l" depth="5" NCoef="0" IVar="1" Cut="1.6984417438507080e+00" cType="1" res="7.8465990722179413e-02" rms="4.5628505945205688e-01" purity="6.9594568014144897e-01" nType="0">
                  <Node pos="l" depth="6" NCoef="0" IVar="5" Cut="-2.4616143703460693e+00" cType="1" res="9.0423166751861572e-02" rms="4.4792065024375916e-01" purity="7.1687895059585571e-01" nType="0">
                    <Node pos="l" depth="7" NCoef="0" IVar="-1" Cut="0.0000000000000000e+00" cType="1" res="8.2620279863476753e-03" rms="4.3750259280204773e-01" purity="7.3808360099792480e-01" nType="-99"/>
                    <Node pos="r" depth="7" NCoef="0" IVar="-1" Cut="0.0000000000000000e+00" cType="1" res="5.4933619685471058e-03" rms="4.6702226996421814e-01" purity="6.7487746477127075e-01" nType="-99"/>
                  </Node>
                  <Node pos="r" depth="6" NCoef="0" IVar="-1" Cut="0.0000000000000000e+00" cType="1" res="2.9331971891224384e-03" rms="4.8199275135993958e-01" purity="6.2299931049346924e-01" nType="-99"/>
                </Node>
                <Node pos="r" depth="5" NCoef="0" IVar="1" Cut="1.0847656726837158e+00" cType="1" res="1.2260393053293228e-01" rms="4.2284253239631653e-01" purity="7.6069283485412598e-01" nType="0">
                  <Node pos="l" depth="6" NCoef="0" IVar="-1" Cut="0.0000000000000000e+00" cType="1" res="1.1892181821167469e-02" rms="4.0572091937065125e-01" purity="7.8939515352249146e-01" nType="-99"/>
                  <Node pos="r" depth="6" NCoef="0" IVar="-1" Cut="0.0000000000000000e+00" cType="1" res="9.1985007748007774e-03" rms="4.4242689013481140e-01" purity="7.2576504945755005e-01" nType="-99"/>
                </Node>
              </Node>
            </Node>
            <Node pos="r" depth="3" NCoef="0" IVar="1" Cut="1.8475836515426636e-01" cType="1" res="5.5455788969993591e-02" rms="4.7229999303817749e-01" purity="6.3274914026260376e-01" nType="0">
              <Node pos="l" depth="4" NCoef="0" IVar="3" Cut="9.8110634088516235e-01" cType="1" res="9.0885452926158905e-02" rms="4.5797842741012573e-01" purity="6.8999987840652466e-01" nType="0">
                <Node pos="l" depth="5" NCoef="0" IVar="-1" Cut="0.0000000000000000e+00" cType="1" res="6.5413764677941799e-03" rms="4.7077792882919312e-01" purity="6.5736037492752075e-01" nType="-99"/>
                <Node pos="r" depth="5" NCoef="0" IVar="-1" Cut="0.0000000000000000e+00" cType="1" res="9.0030403807759285e-03" rms="4.4562882184982300e-01" purity="7.1937435865402222e-01" nType="-99"/>
              </Node>
              <Node pos="r" depth="4" NCoef="0" IVar="5" Cut="-9.7254222631454468e-01" cType="1" res="7.8155426308512688e-03" rms="4.8685172200202942e-01" purity="5.5576735734939575e-01" nType="0">
                <Node pos="l" depth="5" NCoef="0" IVar="-1" Cut="0.0000000000000000e+00" cType="1" res="3.5894864704459906e-03" rms="4.7839295864105225e-01" purity="6.1904484033584595e-01" nType="-99"/>
                <Node pos="r" depth="5" NCoef="0" IVar="-1" Cut="0.0000000000000000e+00" cType="1" res="-2.2890742402523756e-03" rms="4.9266773462295532e-01" purity="4.9367603659629822e-01" nType="-99"/>
              </Node>
            </Node>
          </Node>
        </Node>
        <Node pos="r" depth="1" NCoef="0" IVar="3" Cut="5.8760577440261841e-01" cType="1" res="-7.8531369566917419e-02" rms="3.8505601882934570e-01" purity="2.4031955003738403e-01" nType="0">
          <Node pos="l" depth="2" NCoef="0" IVar="3" Cut="4.2023858428001404e-01" cType="1" res="-1.0927874594926834e-01" rms="3.2080388069152832e-01" purity="1.3231761753559113e-01" nType="0">
            <Node pos="l" depth="3" NCoef="0" IVar="6" Cut="2.6940393447875977e-01" cType="1" res="-1.2451262772083282e-01" rms="2.5961270928382874e-01" purity="7.7856644988059998e-02" nType="0">
              <Node pos="l" depth="4" NCoef="0" IVar="6" Cut="2.0006473362445831e-01" cType="1" res="-1.2956377863883972e-01" rms="2.4618025124073029e-01" purity="6.9005206227302551e-02" nType="0">
                <Node pos="l" depth="5" NCoef="0" IVar="5" Cut="-1.2460906505584717e+00" cType="1" res="-1.3353987038135529e-01" rms="2.2734075784683228e-01" purity="5.7357732206583023e-02" nType="0">
                  <Node pos="l" depth="6" NCoef="0" IVar="3" Cut="3.5435405373573303e-01" cType="1" res="-1.2686699628829956e-01" rms="2.6194891333580017e-01" purity="7.7345050871372223e-02" nType="0">
                    <Node pos="l" depth="7" NCoef="0" IVar="-1" Cut="0.0000000000000000e+00" cType="1" res="-2.6071816682815552e-02" rms="2.2502666711807251e-01" purity="5.4413732141256332e-02" nType="-99"/>
                    <Node pos="r" depth="7" NCoef="0" IVar="-1" Cut="0.0000000000000000e+00" cType="1" res="-1.6491383314132690e-02" rms="3.2628649473190308e-01" purity="1.2616908550262451e-01" nType="-99"/>
                  </Node>
                  <Node pos="r" depth="6" NCoef="0" IVar="4" Cut="4.8147031664848328e-01" cType="1" res="-1.4264649152755737e-01" rms="1.6861423850059509e-01" purity="3.0080638825893402e-02" nType="0">
                    <Node pos="l" depth="7" NCoef="0" IVar="-1" Cut="0.0000000000000000e+00" cType="1" res="-2.4173887446522713e-02" rms="2.5255286693572998e-01" purity="6.9348670542240143e-02" nType="-99"/>
                    <Node pos="r" depth="7" NCoef="0" IVar="-1" Cut="0.0000000000000000e+00" cType="1" res="-3.0188968405127525e-02" rms="1.4511179924011230e-01" purity="2.1919699385762215e-02" nType="-99"/>
                  </Node>
                </Node>
                <Node pos="r" depth="5" NCoef="0" IVar="3" Cut="2.4867336452007294e-01" cType="1" res="-1.0524802654981613e-01" rms="3.3833774924278259e-01" purity="1.4023523032665253e-01" nType="0">
                  <Node pos="l" depth="6" NCoef="0" IVar="-1" Cut="0.0000000000000000e+00" cType="1" res="-2.2233108058571815e-02" rms="2.9188454151153564e-01" purity="9.6770241856575012e-02" nType="-99"/>
                  <Node pos="r" depth="6" NCoef="0" IVar="-1" Cut="0.0000000000000000e+00" cType="1" res="-1.1643089354038239e-02" rms="3.6657315492630005e-01" purity="1.7144152522087097e-01" nType="-99"/>
                </Node>
              </Node>
              <Node pos="r" depth="4" NCoef="0" IVar="-1" Cut="0.0000000000000000e+00" cType="1" res="-6.8330829963088036e-03" rms="4.0326803922653198e-01" purity="2.0980158448219299e-01" nType="-99"/>
            </Node>
            <Node pos="r" depth="3" NCoef="0" IVar="1" Cut="6.7312276363372803e-01" cType="1" res="-8.5330434143543243e-02" rms="3.9725315570831299e-01" purity="2.1793262660503387e-01" nType="0">
              <Node pos="l" depth="4" NCoef="0" IVar="5" Cut="-9.8639035224914551e-01" cType="1" res="-6.5026909112930298e-02" rms="4.1857585310935974e-01" purity="2.5360450148582458e-01" nType="0">
                <Node pos="l" depth="5" NCoef="0" IVar="6" Cut="7.1801640093326569e-02" cType="1" res="-4.7769993543624878e-02" rms="4.4576227664947510e-01" purity="2.9736268520355225e-01" nType="0">
                  <Node pos="l" depth="6" NCoef="0" IVar="-1" Cut="0.0000000000000000e+00" cType="1" res="-1.0134343057870865e-02" rms="4.1241016983985901e-01" purity="2.3158663511276245e-01" nType="-99"/>
                  <Node pos="r" depth="6" NCoef="0" IVar="2" Cut="2.2351753234863281e+02" cType="1" res="-2.4637604132294655e-02" rms="4.6203076839447021e-01" purity="3.3469828963279724e-01" nType="0">
                    <Node pos="l" depth="7" NCoef="0" IVar="-1" Cut="0.0000000000000000e+00" cType="1" res="1.2948182411491871e-03" rms="4.7223177552223206e-01" purity="3.7189102172851562e-01" nType="-99"/>
                    <Node pos="r" depth="7" NCoef="0" IVar="-1" Cut="0.0000000000000000e+00" cType="1" res="-5.2004796452820301e-03" rms="4.5369908213615417e-01" purity="3.1077584624290466e-01" nType="-99"/>
                  </Node>
                </Node>
                <Node pos="r" depth="5" NCoef="0" IVar="-1" Cut="0.0000000000000000e+00" cType="1" res="-1.5581394545733929e-02" rms="3.2805475592613220e-01" purity="1.3345094025135040e-01" nType="-99"/>
              </Node>
              <Node pos="r" depth="4" NCoef="0" IVar="6" Cut="7.6152332127094269e-02" cType="1" res="-1.1534296721220016e-01" rms="3.6136656999588013e-01" purity="1.6520266234874725e-01" nType="0">
                <Node pos="l" depth="5" NCoef="0" IVar="-1" Cut="0.0000000000000000e+00" cType="1" res="-1.9522957503795624e-02" rms="3.2171529531478882e-01" purity="1.2263235449790955e-01" nType="-99"/>
                <Node pos="r" depth="5" NCoef="0" IVar="2" Cut="2.8891192626953125e+02" cType="1" res="-9.6317052841186523e-02" rms="3.8508522510528564e-01" purity="1.9442749023437500e-01" nType="0">
                  <Node pos="l" depth="6" NCoef="0" IVar="-1" Cut="0.0000000000000000e+00" cType="1" res="-9.6713462844491005e-03" rms="3.9829260110855103e-01" purity="2.1292443573474884e-01" nType="-99"/>
                  <Node pos="r" depth="6" NCoef="0" IVar="-1" Cut="0.0000000000000000e+00" cType="1" res="-1.4967281371355057e-02" rms="3.6816421151161194e-01" purity="1.7326126992702484e-01" nType="-99"/>
                </Node>
              </Node>
            </Node>
          </Node>
          <Node pos="r" depth="2" NCoef="0" IVar="4" Cut="1.2177253961563110e+00" cType="1" res="-2.0253157243132591e-02" rms="4.7858268022537231e-01" purity="4.4502505660057068e-01" nType="0">
            <Node pos="l" depth="3" NCoef="0" IVar="1" Cut="1.2082620859146118e+00" cType="1" res="-9.3691842630505562e-03" rms="4.8391255736351013e-01" purity="4.6544602513313293e-01" nType="0">
              <Node pos="l" depth="4" NCoef="0" IVar="3" Cut="7.2316694259643555e-01" cType="1" res="7.6664895750582218e-03" rms="4.8766243457794189e-01" purity="4.9944111704826355e-01" nType="0">
                <Node pos="l" depth="5" NCoef="0" IVar="6" Cut="5.1450591534376144e-02" cType="1" res="-2.0739451050758362e-02" rms="4.8735633492469788e-01" purity="4.3509376049041748e-01" nType="0">
                  <Node pos="l" depth="6" NCoef="0" IVar="-1" Cut="0.0000000000000000e+00" cType="1" res="-5.8855395764112473e-03" rms="4.7705882787704468e-01" purity="3.7621161341667175e-01" nType="-99"/>
                  <Node pos="r" depth="6" NCoef="0" IVar="2" Cut="1.5012760925292969e+02" cType="1" res="-4.4360156171023846e-03" rms="4.9028056859970093e-01" purity="4.5772117376327515e-01" nType="0">
                    <Node pos="l" depth="7" NCoef="0" IVar="-1" Cut="0.0000000000000000e+00" cType="1" res="2.8836342971771955e-03" rms="4.9052211642265320e-01" purity="5.0210374593734741e-01" nType="-99"/>
                    <Node pos="r" depth="7" NCoef="0" IVar="-1" Cut="0.0000000000000000e+00" cType="1" res="-2.3712671827524900e-03" rms="4.8884153366088867e-01" purity="4.3340101838111877e-01" nType="-99"/>
                  </Node>
                </Node>
                <Node pos="r" depth="5" NCoef="0" IVar="0" Cut="6.2516891956329346e-01" cType="1" res="3.6608580499887466e-02" rms="4.8627048730850220e-01" purity="5.6500297784805298e-01" nType="0">
                  <Node pos="l" depth="6" NCoef="0" IVar="1" Cut="1.2361378967761993e-01" cType="1" res="6.5466158092021942e-02" rms="4.7893118858337402e-01" purity="6.2443333864212036e-01" nType="0">
                    <Node pos="l" depth="7" NCoef="0" IVar="-1" Cut="0.0000000000000000e+00" cType="1" res="7.4156289920210838e-03" rms="4.6765750646591187e-01" purity="6.6422593593597412e-01" nType="-99"/>
                    <Node pos="r" depth="7" NCoef="0" IVar="-1" Cut="0.0000000000000000e+00" cType="1" res="2.9167854227125645e-03" rms="4.8935458064079285e-01" purity="5.8022993803024292e-01" nType="-99"/>
                  </Node>
                  <Node pos="r" depth="6" NCoef="0" IVar="5" Cut="-2.0437769889831543e+00" cType="1" res="-4.6572946012020111e-03" rms="4.9365487694740295e-01" purity="4.8001861572265625e-01" nType="0">
                    <Node pos="l" depth="7" NCoef="0" IVar="-1" Cut="0.0000000000000000e+00" cType="1" res="1.0450643021613359e-03" rms="4.9593004584312439e-01" purity="5.1222920417785645e-01" nType="-99"/>
                    <Node pos="r" depth="7" NCoef="0" IVar="-1" Cut="0.0000000000000000e+00" cType="1" res="-2.5194326881319284e-03" rms="4.8947897553443909e-01" purity="4.3480446934700012e-01" nType="-99"/>
                  </Node>
                </Node>
              </Node>
              <Node pos="r" depth="4" NCoef="0" IVar="3" Cut="7.6946824789047241e-01" cType="1" res="-7.3079876601696014e-02" rms="4.6411374211311340e-01" purity="3.3830976486206055e-01" nType="0">
                <Node pos="l" depth="5" NCoef="0" IVar="-1" Cut="0.0000000000000000e+00" cType="1" res="-1.0914150625467300e-02" rms="4.4345870614051819e-01" purity="2.7806493639945984e-01" nType="-99"/>
                <Node pos="r" depth="5" NCoef="0" IVar="-1" Cut="0.0000000000000000e+00" cType="1" res="-3.4635593183338642e-03" rms="4.8282313346862793e-01" purity="4.0285563468933105e-01" nType="-99"/>
              </Node>
            </Node>
            <Node pos="r" depth="3" NCoef="0" IVar="-1" Cut="0.0000000000000000e+00" cType="1" res="-1.7409645020961761e-02" rms="3.8185402750968933e-01" purity="1.9196997582912445e-01" nType="-99"/>
          </Node>
        </Node>
      </Node>
    </BinaryTree>
    <BinaryTree type="DecisionTree" boostWeight="1.0000000000000000e+00" itree="23">
      <Node pos="s" depth="0" NCoef="0" IVar="3" Cut="7.1639901399612427e-01" cType="1" res="1.6231780871748924e-02" rms="4.1584140062332153e-01" purity="5.0004643201828003e-01" nType="0">
        <Node pos="l" depth="1" NCoef="0" IVar="0" Cut="6.4506113529205322e-01" cType="1" res="-7.9331286251544952e-02" rms="3.7386372685432434e-01" purity="2.1486169099807739e-01" nType="0">
          <Node pos="l" depth="2" NCoef="0" IVar="1" Cut="-1.9547098875045776e-01" cType="1" res="-2.2248184308409691e-02" rms="4.7365671396255493e-01" purity="4.1426485776901245e-01" nType="0">
            <Node pos="l" depth="3" NCoef="0" IVar="6" Cut="8.5760891437530518e-02" cType="1" res="3.6517567932605743e-02" rms="4.8653754591941833e-01" purity="5.1451176404953003e-01" nType="0">
              <Node pos="l" depth="4" NCoef="0" IVar="-1" Cut="0.0000000000000000e+00" cType="1" res="1.5775145730003715e-03" rms="4.8912909626960754e-01" purity="5.0836551189422607e-01" nType="-99"/>
              <Node pos="r" depth="4" NCoef="0" IVar="-1" Cut="0.0000000000000000e+00" cType="1" res="5.0607891753315926e-03" rms="4.8242837190628052e-01" purity="5.2199870347976685e-01" nType="-99"/>
            </Node>
            <Node pos="r" depth="3" NCoef="0" IVar="1" Cut="4.6173396706581116e-01" cType="1" res="-3.8515958935022354e-02" rms="4.6872833371162415e-01" purity="3.8651409745216370e-01" nType="0">
              <Node pos="l" depth="4" NCoef="0" IVar="5" Cut="-1.1994105577468872e+00" cType="1" res="-6.7665767855942249e-03" rms="4.7991311550140381e-01" purity="4.5046275854110718e-01" nType="0">
                <Node pos="l" depth="5" NCoef="0" IVar="6" Cut="6.3985392451286316e-02" cType="1" res="1.3879794627428055e-02" rms="4.9045667052268982e-01" purity="4.9742698669433594e-01" nType="0">
                  <Node pos="l" depth="6" NCoef="0" IVar="-1" Cut="0.0000000000000000e+00" cType="1" res="-1.5784103889018297e-03" rms="4.8857468366622925e-01" purity="4.6190229058265686e-01" nType="-99"/>
                  <Node pos="r" depth="6" NCoef="0" IVar="2" Cut="2.6071588134765625e+02" cType="1" res="3.4526996314525604e-02" rms="4.9058532714843750e-01" purity="5.2065229415893555e-01" nType="0">
                    <Node pos="l" depth="7" NCoef="0" IVar="-1" Cut="0.0000000000000000e+00" cType="1" res="5.7159368880093098e-03" rms="4.8816624283790588e-01" purity="5.6529057025909424e-01" nType="-99"/>
                    <Node pos="r" depth="7" NCoef="0" IVar="-1" Cut="0.0000000000000000e+00" cType="1" res="-1.3684572186321020e-03" rms="4.8972040414810181e-01" purity="4.5819032192230225e-01" nType="-99"/>
                  </Node>
                </Node>
                <Node pos="r" depth="5" NCoef="0" IVar="-1" Cut="0.0000000000000000e+00" cType="1" res="-8.4552122280001640e-03" rms="4.3262329697608948e-01" purity="2.8391909599304199e-01" nType="-99"/>
              </Node>
              <Node pos="r" depth="4" NCoef="0" IVar="6" Cut="7.4320062994956970e-02" cType="1" res="-7.1901589632034302e-02" rms="4.5428463816642761e-01" purity="3.1926980614662170e-01" nType="0">
                <Node pos="l" depth="5" NCoef="0" IVar="0" Cut="3.9534431695938110e-01" cType="1" res="-1.0270744562149048e-01" rms="4.4398593902587891e-01" purity="2.8860601782798767e-01" nType="0">
                  <Node pos="l" depth="6" NCoef="0" IVar="-1" Cut="0.0000000000000000e+00" cType="1" res="-7.2528664022684097e-03" rms="4.6671894192695618e-01" purity="3.4044274687767029e-01" nType="-99"/>
                  <Node pos="r" depth="6" NCoef="0" IVar="-1" Cut="0.0000000000000000e+00" cType="1" res="-1.3797136023640633e-02" rms="4.1983890533447266e-01" purity="2.3996195197105408e-01" nType="-99"/>
                </Node>
                <Node pos="r" depth="5" NCoef="0" IVar="5" Cut="-2.1387438774108887e+00" cType="1" res="-4.6431452035903931e-02" rms="4.6107468008995056e-01" purity="3.4462246298789978e-01" nType="0">
                  <Node pos="l" depth="6" NCoef="0" IVar="-1" Cut="0.0000000000000000e+00" cType="1" res="-1.4170231588650495e-04" rms="4.8515567183494568e-01" purity="4.1481462121009827e-01" nType="-99"/>
                  <Node pos="r" depth="6" NCoef="0" IVar="-1" Cut="0.0000000000000000e+00" cType="1" res="-8.4590073674917221e-03" rms="4.3839198350906372e-01" purity="2.9029721021652222e-01" nType="-99"/>
                </Node>
              </Node>
            </Node>
          </Node>
          <Node pos="r" depth="2" NCoef="0" IVar="3" Cut="5.5839771032333374e-01" cType="1" res="-1.0352789610624313e-01" rms="3.1930664181709290e-01" purity="1.3033792376518250e-01" nType="0">
            <Node pos="l" depth="3" NCoef="0" IVar="6" Cut="1.2826950848102570e-01" cType="1" res="-1.0930112749338150e-01" rms="2.9787945747375488e-01" purity="1.0774740576744080e-01" nType="0">
              <Node pos="l" depth="4" NCoef="0" IVar="4" Cut="5.1737129688262939e-01" cType="1" res="-1.2064459174871445e-01" rms="2.6988419890403748e-01" purity="8.5685051977634430e-02" nType="0">
                <Node pos="l" depth="5" NCoef="0" IVar="3" Cut="4.1973730921745300e-01" cType="1" res="-1.1210917681455612e-01" rms="3.0485242605209351e-01" purity="1.1091070622205734e-01" nType="0">
                  <Node pos="l" depth="6" NCoef="0" IVar="5" Cut="-2.4759089946746826e+00" cType="1" res="-1.2342751026153564e-01" rms="2.3506446182727814e-01" purity="5.9517424553632736e-02" nType="0">
                    <Node pos="l" depth="7" NCoef="0" IVar="-1" Cut="0.0000000000000000e+00" cType="1" res="-2.5798974558711052e-02" rms="2.1822346746921539e-01" purity="5.0727870315313339e-02" nType="-99"/>
                    <Node pos="r" depth="7" NCoef="0" IVar="-1" Cut="0.0000000000000000e+00" cType="1" res="-2.1691193804144859e-02" rms="2.5413319468498230e-01" purity="7.0449039340019226e-02" nType="-99"/>
                  </Node>
                  <Node pos="r" depth="6" NCoef="0" IVar="6" Cut="7.0435881614685059e-02" cType="1" res="-9.6694387495517731e-02" rms="3.7926259636878967e-01" purity="1.8090485036373138e-01" nType="0">
                    <Node pos="l" depth="7" NCoef="0" IVar="-1" Cut="0.0000000000000000e+00" cType="1" res="-1.5459298156201839e-02" rms="3.5089546442031860e-01" purity="1.4831075072288513e-01" nType="-99"/>
                    <Node pos="r" depth="7" NCoef="0" IVar="-1" Cut="0.0000000000000000e+00" cType="1" res="-9.9333841353654861e-03" rms="4.0254110097885132e-01" purity="2.1047739684581757e-01" nType="-99"/>
                  </Node>
                </Node>
                <Node pos="r" depth="5" NCoef="0" IVar="4" Cut="1.4643969535827637e+00" cType="1" res="-1.3588339090347290e-01" rms="1.9129511713981628e-01" purity="4.0648121386766434e-02" nType="0">
                  <Node pos="l" depth="6" NCoef="0" IVar="2" Cut="1.4460295104980469e+02" cType="1" res="-1.2492354214191437e-01" rms="2.6632642745971680e-01" purity="8.0751560628414154e-02" nType="0">
                    <Node pos="l" depth="7" NCoef="0" IVar="-1" Cut="0.0000000000000000e+00" cType="1" res="-1.9058089703321457e-02" rms="2.8877586126327515e-01" purity="9.5834963023662567e-02" nType="-99"/>
                    <Node pos="r" depth="7" NCoef="0" IVar="-1" Cut="0.0000000000000000e+00" cType="1" res="-2.3086991161108017e-02" rms="2.4307079613208771e-01" purity="6.6788159310817719e-02" nType="-99"/>
                  </Node>
                  <Node pos="r" depth="6" NCoef="0" IVar="3" Cut="4.0860691666603088e-01" cType="1" res="-1.4213912189006805e-01" rms="1.2995263934135437e-01" purity="1.7757682129740715e-02" nType="0">
                    <Node pos="l" depth="7" NCoef="0" IVar="-1" Cut="0.0000000000000000e+00" cType="1" res="-3.1439434736967087e-02" rms="9.9121995270252228e-02" purity="9.9768573418259621e-03" nType="-99"/>
                    <Node pos="r" depth="7" NCoef="0" IVar="-1" Cut="0.0000000000000000e+00" cType="1" res="-2.6426205411553383e-02" rms="1.8274749815464020e-01" purity="3.6065660417079926e-02" nType="-99"/>
                  </Node>
                </Node>
              </Node>
              <Node pos="r" depth="4" NCoef="0" IVar="5" Cut="-2.1268799304962158e+00" cType="1" res="-9.1029480099678040e-02" rms="3.3733317255973816e-01" purity="1.4328466355800629e-01" nType="0">
                <Node pos="l" depth="5" NCoef="0" IVar="3" Cut="2.9625153541564941e-01" cType="1" res="-6.2303520739078522e-02" rms="3.9154890179634094e-01" purity="2.0536340773105621e-01" nType="0">
                  <Node pos="l" depth="6" NCoef="0" IVar="-1" Cut="0.0000000000000000e+00" cType="1" res="-1.5997435897588730e-02" rms="3.3044436573982239e-01" purity="1.3127540051937103e-01" nType="-99"/>
                  <Node pos="r" depth="6" NCoef="0" IVar="-1" Cut="0.0000000000000000e+00" cType="1" res="-3.6667017266154289e-03" rms="4.3566656112670898e-01" purity="2.7023789286613464e-01" nType="-99"/>
                </Node>
                <Node pos="r" depth="5" NCoef="0" IVar="2" Cut="2.0275167846679688e+02" cType="1" res="-1.0593385249376297e-01" rms="3.0436849594116211e-01" purity="1.1107529699802399e-01" nType="0">
                  <Node pos="l" depth="6" NCoef="0" IVar="-1" Cut="0.0000000000000000e+00" cType="1" res="-1.1332687921822071e-02" rms="3.3992791175842285e-01" purity="1.4711584150791168e-01" nType="-99"/>
                  <Node pos="r" depth="6" NCoef="0" IVar="6" Cut="2.2368615865707397e-01" cType="1" res="-1.1276161670684814e-01" rms="2.9700756072998047e-01" purity="1.0459282994270325e-01" nType="0">
                    <Node pos="l" depth="7" NCoef="0" IVar="-1" Cut="0.0000000000000000e+00" cType="1" res="-2.0208753645420074e-02" rms="2.7703708410263062e-01" purity="9.1053374111652374e-02" nType="-99"/>
                    <Node pos="r" depth="7" NCoef="0" IVar="-1" Cut="0.0000000000000000e+00" cType="1" res="-1.4325142838060856e-02" rms="3.4250900149345398e-01" purity="1.3964900374412537e-01" nType="-99"/>
                  </Node>
                </Node>
              </Node>
            </Node>
            <Node pos="r" depth="3" NCoef="0" IVar="7" Cut="3.0000000000000000e+00" cType="1" res="-5.1581326872110367e-02" rms="4.4088432192802429e-01" purity="3.0265465378761292e-01" nType="0">
              <Node pos="l" depth="4" NCoef="0" IVar="-1" Cut="0.0000000000000000e+00" cType="1" res="-1.0109703987836838e-02" rms="4.3266952037811279e-01" purity="2.7107411623001099e-01" nType="-99"/>
              <Node pos="r" depth="4" NCoef="0" IVar="2" Cut="1.8818946838378906e+02" cType="1" res="-4.0376618504524231e-02" rms="4.5451959967613220e-01" purity="3.1914433836936951e-01" nType="0">
                <Node pos="l" depth="5" NCoef="0" IVar="-1" Cut="0.0000000000000000e+00" cType="1" res="-1.4805491082370281e-03" rms="4.6298998594284058e-01" purity="3.4593936800956726e-01" nType="-99"/>
                <Node pos="r" depth="5" NCoef="0" IVar="-1" Cut="0.0000000000000000e+00" cType="1" res="-7.9125538468360901e-03" rms="4.4118881225585938e-01" purity="2.8466525673866272e-01" nType="-99"/>
              </Node>
            </Node>
          </Node>
        </Node>
        <Node pos="r" depth="1" NCoef="0" IVar="5" Cut="-2.1259143352508545e+00" cType="1" res="8.8747389614582062e-02" rms="4.3115052580833435e-01" purity="7.1645158529281616e-01" nType="0">
          <Node pos="l" depth="2" NCoef="0" IVar="0" Cut="6.4357435703277588e-01" cType="1" res="1.1251901835203171e-01" rms="4.1041898727416992e-01" purity="7.6568430662155151e-01" nType="0">
            <Node pos="l" depth="3" NCoef="0" IVar="3" Cut="8.7879675626754761e-01" cType="1" res="1.1908277124166489e-01" rms="4.0415439009666443e-01" purity="7.8213584423065186e-01" nType="0">
              <Node pos="l" depth="4" NCoef="0" IVar="1" Cut="8.6837917566299438e-01" cType="1" res="8.2531623542308807e-02" rms="4.5409479737281799e-01" purity="6.9287276268005371e-01" nType="0">
                <Node pos="l" depth="5" NCoef="0" IVar="1" Cut="1.5456475317478180e-01" cType="1" res="9.5264740288257599e-02" rms="4.4493710994720459e-01" purity="7.2107636928558350e-01" nType="0">
                  <Node pos="l" depth="6" NCoef="0" IVar="6" Cut="3.8891736418008804e-02" cType="1" res="1.0835893452167511e-01" rms="4.3296644091606140e-01" purity="7.4618935585021973e-01" nType="0">
                    <Node pos="l" depth="7" NCoef="0" IVar="-1" Cut="0.0000000000000000e+00" cType="1" res="8.0639868974685669e-03" rms="4.3880277872085571e-01" purity="7.3533868789672852e-01" nType="-99"/>
                    <Node pos="r" depth="7" NCoef="0" IVar="-1" Cut="0.0000000000000000e+00" cType="1" res="1.0135085321962833e-02" rms="4.2763897776603699e-01" purity="7.5507789850234985e-01" nType="-99"/>
                  </Node>
                  <Node pos="r" depth="6" NCoef="0" IVar="0" Cut="2.0737297832965851e-02" cType="1" res="7.1650534868240356e-02" rms="4.6481648087501526e-01" purity="6.7578727006912231e-01" nType="0">
                    <Node pos="l" depth="7" NCoef="0" IVar="-1" Cut="0.0000000000000000e+00" cType="1" res="7.1599455550312996e-03" rms="4.5225700736045837e-01" purity="7.0822852849960327e-01" nType="-99"/>
                    <Node pos="r" depth="7" NCoef="0" IVar="-1" Cut="0.0000000000000000e+00" cType="1" res="4.3403934687376022e-03" rms="4.8195877671241760e-01" purity="6.2767028808593750e-01" nType="-99"/>
                  </Node>
                </Node>
                <Node pos="r" depth="5" NCoef="0" IVar="-1" Cut="0.0000000000000000e+00" cType="1" res="1.5314257470890880e-03" rms="4.9266207218170166e-01" purity="5.5092465877532959e-01" nType="-99"/>
              </Node>
              <Node pos="r" depth="4" NCoef="0" IVar="1" Cut="4.5966106653213501e-01" cType="1" res="1.3352411985397339e-01" rms="3.8166725635528564e-01" purity="8.1740367412567139e-01" nType="0">
                <Node pos="l" depth="5" NCoef="0" IVar="5" Cut="-3.0251114368438721e+00" cType="1" res="1.4505608379840851e-01" rms="3.6044597625732422e-01" purity="8.4502339363098145e-01" nType="0">
                  <Node pos="l" depth="6" NCoef="0" IVar="4" Cut="-1.4087585210800171e+00" cType="1" res="1.5888002514839172e-01" rms="3.4041959047317505e-01" purity="8.6534029245376587e-01" nType="0">
                    <Node pos="l" depth="7" NCoef="0" IVar="-1" Cut="0.0000000000000000e+00" cType="1" res="1.1968595907092094e-02" rms="3.7319013476371765e-01" purity="8.3246397972106934e-01" nType="-99"/>
                    <Node pos="r" depth="7" NCoef="0" IVar="-1" Cut="0.0000000000000000e+00" cType="1" res="1.5130117535591125e-02" rms="3.3126524090766907e-01" purity="8.7386322021484375e-01" nType="-99"/>
                  </Node>
                  <Node pos="r" depth="6" NCoef="0" IVar="4" Cut="-3.5800191760063171e-01" cType="1" res="1.3715779781341553e-01" rms="3.7117254734039307e-01" purity="8.3341532945632935e-01" nType="0">
                    <Node pos="l" depth="7" NCoef="0" IVar="-1" Cut="0.0000000000000000e+00" cType="1" res="1.1655610986053944e-02" rms="3.7928330898284912e-01" purity="8.2416361570358276e-01" nType="-99"/>
                    <Node pos="r" depth="7" NCoef="0" IVar="-1" Cut="0.0000000000000000e+00" cType="1" res="1.4187444001436234e-02" rms="3.5375377535820007e-01" purity="8.5227155685424805e-01" nType="-99"/>
                  </Node>
                </Node>
                <Node pos="r" depth="5" NCoef="0" IVar="4" Cut="-6.2480968236923218e-01" cType="1" res="1.0060924291610718e-01" rms="4.3492189049720764e-01" purity="7.3857069015502930e-01" nType="0">
                  <Node pos="l" depth="6" NCoef="0" IVar="1" Cut="1.0670168399810791e+00" cType="1" res="7.9258196055889130e-02" rms="4.5212256908416748e-01" purity="7.0503789186477661e-01" nType="0">
                    <Node pos="l" depth="7" NCoef="0" IVar="-1" Cut="0.0000000000000000e+00" cType="1" res="8.3157252520322800e-03" rms="4.3165555596351624e-01" purity="7.4961102008819580e-01" nType="-99"/>
                    <Node pos="r" depth="7" NCoef="0" IVar="-1" Cut="0.0000000000000000e+00" cType="1" res="3.9907558821141720e-03" rms="4.7692495584487915e-01" purity="6.4455163478851318e-01" nType="-99"/>
                  </Node>
                  <Node pos="r" depth="6" NCoef="0" IVar="5" Cut="-2.9075880050659180e+00" cType="1" res="1.2269345670938492e-01" rms="4.1523018479347229e-01" purity="7.7325505018234253e-01" nType="0">
                    <Node pos="l" depth="7" NCoef="0" IVar="-1" Cut="0.0000000000000000e+00" cType="1" res="1.2429746799170971e-02" rms="3.9730685949325562e-01" purity="8.0067765712738037e-01" nType="-99"/>
                    <Node pos="r" depth="7" NCoef="0" IVar="-1" Cut="0.0000000000000000e+00" cType="1" res="9.0231215581297874e-03" rms="4.2952400445938110e-01" purity="7.4916601181030273e-01" nType="-99"/>
                  </Node>
                </Node>
              </Node>
            </Node>
            <Node pos="r" depth="3" NCoef="0" IVar="-1" Cut="0.0000000000000000e+00" cType="1" res="-2.4085884797386825e-04" rms="4.9398779869079590e-01" purity="4.7673293948173523e-01" nType="-99"/>
          </Node>
          <Node pos="r" depth="2" NCoef="0" IVar="1" Cut="1.2090331315994263e+00" cType="1" res="4.1164141148328781e-02" rms="4.6628201007843018e-01" purity="6.1790335178375244e-01" nType="0">
            <Node pos="l" depth="3" NCoef="0" IVar="4" Cut="1.0679738521575928e+00" cType="1" res="5.7500112801790237e-02" rms="4.6214988827705383e-01" purity="6.4972865581512451e-01" nType="0">
              <Node pos="l" depth="4" NCoef="0" IVar="0" Cut="6.1709636449813843e-01" cType="1" res="6.6542670130729675e-02" rms="4.5960962772369385e-01" purity="6.6564214229583740e-01" nType="0">
                <Node pos="l" depth="5" NCoef="0" IVar="3" Cut="9.5855158567428589e-01" cType="1" res="7.3979221284389496e-02" rms="4.5634350180625916e-01" purity="6.8373817205429077e-01" nType="0">
                  <Node pos="l" depth="6" NCoef="0" IVar="1" Cut="1.6540335118770599e-01" cType="1" res="4.9487836658954620e-02" rms="4.7326886653900146e-01" purity="6.3729953765869141e-01" nType="0">
                    <Node pos="l" depth="7" NCoef="0" IVar="-1" Cut="0.0000000000000000e+00" cType="1" res="6.4235646277666092e-03" rms="4.6250522136688232e-01" purity="6.7719936370849609e-01" nType="-99"/>
                    <Node pos="r" depth="7" NCoef="0" IVar="-1" Cut="0.0000000000000000e+00" cType="1" res="1.0928836418315768e-03" rms="4.8680329322814941e-01" purity="5.7684421539306641e-01" nType="-99"/>
                  </Node>
                  <Node pos="r" depth="6" NCoef="0" IVar="4" Cut="-1.6255353391170502e-01" cType="1" res="1.0368392616510391e-01" rms="4.3307766318321228e-01" purity="7.4006205797195435e-01" nType="0">
                    <Node pos="l" depth="7" NCoef="0" IVar="-1" Cut="0.0000000000000000e+00" cType="1" res="7.4858004227280617e-03" rms="4.4018024206161499e-01" purity="7.2731882333755493e-01" nType="-99"/>
                    <Node pos="r" depth="7" NCoef="0" IVar="-1" Cut="0.0000000000000000e+00" cType="1" res="1.0897518135607243e-02" rms="4.2200696468353271e-01" purity="7.5811421871185303e-01" nType="-99"/>
                  </Node>
                </Node>
                <Node pos="r" depth="5" NCoef="0" IVar="-1" Cut="0.0000000000000000e+00" cType="1" res="-2.3133258800953627e-03" rms="4.8909878730773926e-01" purity="4.4044592976570129e-01" nType="-99"/>
              </Node>
              <Node pos="r" depth="4" NCoef="0" IVar="-1" Cut="0.0000000000000000e+00" cType="1" res="-6.4464998431503773e-03" rms="4.7873485088348389e-01" purity="4.2492333054542542e-01" nType="-99"/>
            </Node>
            <Node pos="r" depth="3" NCoef="0" IVar="5" Cut="-1.3902329206466675e+00" cType="1" res="-6.6745020449161530e-02" rms="4.7890859842300415e-01" purity="4.0767756104469299e-01" nType="0">
              <Node pos="l" depth="4" NCoef="0" IVar="-1" Cut="0.0000000000000000e+00" cType="1" res="-1.5406759921461344e-03" rms="4.9304452538490295e-01" purity="4.8969030380249023e-01" nType="-99"/>
              <Node pos="r" depth="4" NCoef="0" IVar="-1" Cut="0.0000000000000000e+00" cType="1" res="-1.1488654650747776e-02" rms="4.5690295100212097e-01" purity="3.1771916151046753e-01" nType="-99"/>
            </Node>
          </Node>
        </Node>
      </Node>
    </BinaryTree>
    <BinaryTree type="DecisionTree" boostWeight="1.0000000000000000e+00" itree="24">
      <Node pos="s" depth="0" NCoef="0" IVar="3" Cut="7.1202093362808228e-01" cType="1" res="1.6631165519356728e-02" rms="4.1494113206863403e-01" purity="5.0082248449325562e-01" nType="0">
        <Node pos="l" depth="1" NCoef="0" IVar="3" Cut="5.7636690139770508e-01" cType="1" res="-7.5861960649490356e-02" rms="3.7250411510467529e-01" purity="2.1223154664039612e-01" nType="0">
          <Node pos="l" depth="2" NCoef="0" IVar="1" Cut="-6.5313339233398438e-02" cType="1" res="-9.6594847738742828e-02" rms="3.2345890998840332e-01" purity="1.3538049161434174e-01" nType="0">
            <Node pos="l" depth="3" NCoef="0" IVar="3" Cut="3.9650872349739075e-01" cType="1" res="-5.1332008093595505e-02" rms="3.9653328061103821e-01" purity="2.2742055356502533e-01" nType="0">
              <Node pos="l" depth="4" NCoef="0" IVar="-1" Cut="0.0000000000000000e+00" cType="1" res="-1.4521664939820766e-02" rms="3.1596064567565918e-01" purity="1.2185696512460709e-01" nType="-99"/>
              <Node pos="r" depth="4" NCoef="0" IVar="6" Cut="1.1357200890779495e-01" cType="1" res="-2.9334826394915581e-02" rms="4.3974497914314270e-01" purity="2.9612779617309570e-01" nType="0">
                <Node pos="l" depth="5" NCoef="0" IVar="-1" Cut="0.0000000000000000e+00" cType="1" res="-5.6818476878106594e-03" rms="4.2572838068008423e-01" purity="2.6401400566101074e-01" nType="-99"/>
                <Node pos="r" depth="5" NCoef="0" IVar="-1" Cut="0.0000000000000000e+00" cType="1" res="-6.6054846683982760e-05" rms="4.5768857002258301e-01" purity="3.4245008230209351e-01" nType="-99"/>
              </Node>
            </Node>
            <Node pos="r" depth="3" NCoef="0" IVar="6" Cut="1.4133825898170471e-01" cType="1" res="-1.0433751344680786e-01" rms="3.0856972932815552e-01" purity="1.1963611841201782e-01" nType="0">
              <Node pos="l" depth="4" NCoef="0" IVar="3" Cut="5.2172458171844482e-01" cType="1" res="-1.1400122195482254e-01" rms="2.8691223263740540e-01" purity="1.0107922554016113e-01" nType="0">
                <Node pos="l" depth="5" NCoef="0" IVar="2" Cut="1.9076780700683594e+02" cType="1" res="-1.1871591210365295e-01" rms="2.5653764605522156e-01" purity="7.5887888669967651e-02" nType="0">
                  <Node pos="l" depth="6" NCoef="0" IVar="1" Cut="2.5902557373046875e-01" cType="1" res="-1.1103171855211258e-01" rms="2.6796486973762512e-01" purity="8.3845868706703186e-02" nType="0">
                    <Node pos="l" depth="7" NCoef="0" IVar="-1" Cut="0.0000000000000000e+00" cType="1" res="-1.2069175951182842e-02" rms="3.3914265036582947e-01" purity="1.4576812088489532e-01" nType="-99"/>
                    <Node pos="r" depth="7" NCoef="0" IVar="-1" Cut="0.0000000000000000e+00" cType="1" res="-2.1607609465718269e-02" rms="2.5601124763488770e-01" purity="7.5111322104930878e-02" nType="-99"/>
                  </Node>
                  <Node pos="r" depth="6" NCoef="0" IVar="7" Cut="5.0000000000000000e+00" cType="1" res="-1.2632413208484650e-01" rms="2.3989805579185486e-01" purity="6.6069334745407104e-02" nType="0">
                    <Node pos="l" depth="7" NCoef="0" IVar="-1" Cut="0.0000000000000000e+00" cType="1" res="-2.3041950538754463e-02" rms="2.5683939456939697e-01" purity="7.5130589306354523e-02" nType="-99"/>
                    <Node pos="r" depth="7" NCoef="0" IVar="-1" Cut="0.0000000000000000e+00" cType="1" res="-2.2440606728196144e-02" rms="2.2955727577209473e-01" purity="5.9695046395063400e-02" nType="-99"/>
                  </Node>
                </Node>
                <Node pos="r" depth="5" NCoef="0" IVar="7" Cut="4.0000000000000000e+00" cType="1" res="-8.5083097219467163e-02" rms="4.1124555468559265e-01" purity="2.3893073201179504e-01" nType="0">
                  <Node pos="l" depth="6" NCoef="0" IVar="-1" Cut="0.0000000000000000e+00" cType="1" res="-1.3131082989275455e-02" rms="3.9285901188850403e-01" purity="2.0422582328319550e-01" nType="-99"/>
                  <Node pos="r" depth="6" NCoef="0" IVar="-1" Cut="0.0000000000000000e+00" cType="1" res="-7.0798140950500965e-03" rms="4.3361300230026245e-01" purity="2.7293267846107483e-01" nType="-99"/>
                </Node>
              </Node>
              <Node pos="r" depth="4" NCoef="0" IVar="3" Cut="4.3047261238098145e-01" cType="1" res="-8.3555772900581360e-02" rms="3.4973815083503723e-01" purity="1.5954262018203735e-01" nType="0">
                <Node pos="l" depth="5" NCoef="0" IVar="6" Cut="1.9914831221103668e-01" cType="1" res="-9.5378778874874115e-02" rms="3.2520461082458496e-01" purity="1.2865155935287476e-01" nType="0">
                  <Node pos="l" depth="6" NCoef="0" IVar="3" Cut="2.8430622816085815e-01" cType="1" res="-1.1001745611429214e-01" rms="2.8683921694755554e-01" purity="9.6864156424999237e-02" nType="0">
                    <Node pos="l" depth="7" NCoef="0" IVar="-1" Cut="0.0000000000000000e+00" cType="1" res="-2.5980781763792038e-02" rms="2.2518722712993622e-01" purity="5.6422743946313858e-02" nType="-99"/>
                    <Node pos="r" depth="7" NCoef="0" IVar="-1" Cut="0.0000000000000000e+00" cType="1" res="-1.5188659541308880e-02" rms="3.2569128274917603e-01" purity="1.2796485424041748e-01" nType="-99"/>
                  </Node>
                  <Node pos="r" depth="6" NCoef="0" IVar="4" Cut="-5.7927519083023071e-01" cType="1" res="-8.0103084444999695e-02" rms="3.6028349399566650e-01" purity="1.6182219982147217e-01" nType="0">
                    <Node pos="l" depth="7" NCoef="0" IVar="-1" Cut="0.0000000000000000e+00" cType="1" res="-6.6598067060112953e-03" rms="4.0989637374877930e-01" purity="2.2401271760463715e-01" nType="-99"/>
                    <Node pos="r" depth="7" NCoef="0" IVar="-1" Cut="0.0000000000000000e+00" cType="1" res="-1.5201392583549023e-02" rms="3.3017081022262573e-01" purity="1.2908945977687836e-01" nType="-99"/>
                  </Node>
                </Node>
                <Node pos="r" depth="5" NCoef="0" IVar="-1" Cut="0.0000000000000000e+00" cType="1" res="-3.6332323215901852e-03" rms="4.3653282523155212e-01" purity="2.9283550381660461e-01" nType="-99"/>
              </Node>
            </Node>
          </Node>
          <Node pos="r" depth="2" NCoef="0" IVar="5" Cut="-1.1970727443695068e+00" cType="1" res="-2.0530782639980316e-02" rms="4.7502130270004272e-01" purity="4.1732877492904663e-01" nType="0">
            <Node pos="l" depth="3" NCoef="0" IVar="1" Cut="7.0200212299823761e-02" cType="1" res="-3.5027596168220043e-03" rms="4.8540315032005310e-01" purity="4.5697399973869324e-01" nType="0">
              <Node pos="l" depth="4" NCoef="0" IVar="6" Cut="6.3462153077125549e-02" cType="1" res="3.6103714257478714e-02" rms="4.9251523613929749e-01" purity="5.4280567169189453e-01" nType="0">
                <Node pos="l" depth="5" NCoef="0" IVar="-1" Cut="0.0000000000000000e+00" cType="1" res="1.9420364696998149e-04" rms="4.9475738406181335e-01" purity="5.0243616104125977e-01" nType="-99"/>
                <Node pos="r" depth="5" NCoef="0" IVar="-1" Cut="0.0000000000000000e+00" cType="1" res="4.9648755230009556e-03" rms="4.8953080177307129e-01" purity="5.7118546962738037e-01" nType="-99"/>
              </Node>
              <Node pos="r" depth="4" NCoef="0" IVar="0" Cut="3.2093226909637451e-01" cType="1" res="-2.7929494157433510e-02" rms="4.7933566570281982e-01" purity="4.0403854846954346e-01" nType="0">
                <Node pos="l" depth="5" NCoef="0" IVar="-1" Cut="0.0000000000000000e+00" cType="1" res="2.1570436656475067e-03" rms="4.9402582645416260e-01" purity="5.1226693391799927e-01" nType="-99"/>
                <Node pos="r" depth="5" NCoef="0" IVar="6" Cut="7.1779586374759674e-02" cType="1" res="-4.6969119459390640e-02" rms="4.7250661253929138e-01" purity="3.6523532867431641e-01" nType="0">
                  <Node pos="l" depth="6" NCoef="0" IVar="-1" Cut="0.0000000000000000e+00" cType="1" res="-8.0247316509485245e-03" rms="4.5701068639755249e-01" purity="3.1498986482620239e-01" nType="-99"/>
                  <Node pos="r" depth="6" NCoef="0" IVar="2" Cut="2.2726335144042969e+02" cType="1" res="-1.3895122334361076e-02" rms="4.8494696617126465e-01" purity="4.1449365019798279e-01" nType="0">
                    <Node pos="l" depth="7" NCoef="0" IVar="-1" Cut="0.0000000000000000e+00" cType="1" res="1.3909169938415289e-03" rms="4.8888680338859558e-01" purity="4.5191240310668945e-01" nType="-99"/>
                    <Node pos="r" depth="7" NCoef="0" IVar="-1" Cut="0.0000000000000000e+00" cType="1" res="-4.0448787622153759e-03" rms="4.7948741912841797e-01" purity="3.7894922494888306e-01" nType="-99"/>
                  </Node>
                </Node>
              </Node>
            </Node>
            <Node pos="r" depth="3" NCoef="0" IVar="5" Cut="-2.2730751335620880e-01" cType="1" res="-7.7588617801666260e-02" rms="4.3359792232513428e-01" purity="2.8448477387428284e-01" nType="0">
              <Node pos="l" depth="4" NCoef="0" IVar="-1" Cut="0.0000000000000000e+00" cType="1" res="-4.2870766483247280e-03" rms="4.6952652931213379e-01" purity="3.5905995965003967e-01" nType="-99"/>
              <Node pos="r" depth="4" NCoef="0" IVar="-1" Cut="0.0000000000000000e+00" cType="1" res="-1.5019429847598076e-02" rms="3.7040707468986511e-01" purity="1.7664194107055664e-01" nType="-99"/>
            </Node>
          </Node>
        </Node>
        <Node pos="r" depth="1" NCoef="0" IVar="1" Cut="1.2090331315994263e+00" cType="1" res="8.5247598588466644e-02" rms="4.3117493391036987e-01" purity="7.1491491794586182e-01" nType="0">
          <Node pos="l" depth="2" NCoef="0" IVar="5" Cut="-1.7850648164749146e+00" cType="1" res="9.7457043826580048e-02" rms="4.2272356152534485e-01" purity="7.4099439382553101e-01" nType="0">
            <Node pos="l" depth="3" NCoef="0" IVar="3" Cut="8.3424466848373413e-01" cType="1" res="1.1311843246221542e-01" rms="4.0621945261955261e-01" purity="7.7703589200973511e-01" nType="0">
              <Node pos="l" depth="4" NCoef="0" IVar="6" Cut="5.8874089270830154e-02" cType="1" res="6.7928038537502289e-02" rms="4.6690416336059570e-01" purity="6.6209566593170166e-01" nType="0">
                <Node pos="l" depth="5" NCoef="0" IVar="2" Cut="6.6632690429687500e+01" cType="1" res="5.4799120873212814e-02" rms="4.6896186470985413e-01" purity="6.5290504693984985e-01" nType="0">
                  <Node pos="l" depth="6" NCoef="0" IVar="6" Cut="2.8870904818177223e-02" cType="1" res="8.3029344677925110e-02" rms="4.5996260643005371e-01" purity="6.8306386470794678e-01" nType="0">
                    <Node pos="l" depth="7" NCoef="0" IVar="-1" Cut="0.0000000000000000e+00" cType="1" res="5.2946601063013077e-03" rms="4.6636801958084106e-01" purity="6.6180223226547241e-01" nType="-99"/>
                    <Node pos="r" depth="7" NCoef="0" IVar="-1" Cut="0.0000000000000000e+00" cType="1" res="8.1885848194360733e-03" rms="4.5220708847045898e-01" purity="7.0511132478713989e-01" nType="-99"/>
                  </Node>
                  <Node pos="r" depth="6" NCoef="0" IVar="3" Cut="7.7510583400726318e-01" cType="1" res="2.6821114122867584e-02" rms="4.7606468200683594e-01" purity="6.2301576137542725e-01" nType="0">
                    <Node pos="l" depth="7" NCoef="0" IVar="-1" Cut="0.0000000000000000e+00" cType="1" res="-1.9982586672995239e-04" rms="4.8653265833854675e-01" purity="5.7359212636947632e-01" nType="-99"/>
                    <Node pos="r" depth="7" NCoef="0" IVar="-1" Cut="0.0000000000000000e+00" cType="1" res="4.2405943386256695e-03" rms="4.6735280752182007e-01" purity="6.5827256441116333e-01" nType="-99"/>
                  </Node>
                </Node>
                <Node pos="r" depth="5" NCoef="0" IVar="2" Cut="1.6306912231445312e+02" cType="1" res="9.1687686741352081e-02" rms="4.6220991015434265e-01" purity="6.7872822284698486e-01" nType="0">
                  <Node pos="l" depth="6" NCoef="0" IVar="-1" Cut="0.0000000000000000e+00" cType="1" res="1.0073927231132984e-02" rms="4.4444817304611206e-01" purity="7.2138226032257080e-01" nType="-99"/>
                  <Node pos="r" depth="6" NCoef="0" IVar="-1" Cut="0.0000000000000000e+00" cType="1" res="4.9811103381216526e-03" rms="4.7406753897666931e-01" purity="6.4231657981872559e-01" nType="-99"/>
                </Node>
              </Node>
              <Node pos="r" depth="4" NCoef="0" IVar="0" Cut="6.2607818841934204e-01" cType="1" res="1.2446893006563187e-01" rms="3.8866972923278809e-01" purity="8.0590552091598511e-01" nType="0">
                <Node pos="l" depth="5" NCoef="0" IVar="0" Cut="2.0191924646496773e-02" cType="1" res="1.2796066701412201e-01" rms="3.8378211855888367e-01" purity="8.1615924835205078e-01" nType="0">
                  <Node pos="l" depth="6" NCoef="0" IVar="1" Cut="2.9996758699417114e-01" cType="1" res="1.3269385695457458e-01" rms="3.7691733241081238e-01" purity="8.2554852962493896e-01" nType="0">
                    <Node pos="l" depth="7" NCoef="0" IVar="-1" Cut="0.0000000000000000e+00" cType="1" res="1.2821936048567295e-02" rms="3.6202087998390198e-01" purity="8.4361320734024048e-01" nType="-99"/>
                    <Node pos="r" depth="7" NCoef="0" IVar="-1" Cut="0.0000000000000000e+00" cType="1" res="9.5435949042439461e-03" rms="4.1423684358596802e-01" purity="7.7603316307067871e-01" nType="-99"/>
                  </Node>
                  <Node pos="r" depth="6" NCoef="0" IVar="0" Cut="3.1553596258163452e-01" cType="1" res="8.0378904938697815e-02" rms="4.4417974352836609e-01" purity="7.2177100181579590e-01" nType="0">
                    <Node pos="l" depth="7" NCoef="0" IVar="-1" Cut="0.0000000000000000e+00" cType="1" res="7.0327110588550568e-03" rms="4.2976617813110352e-01" purity="7.4886941909790039e-01" nType="-99"/>
                    <Node pos="r" depth="7" NCoef="0" IVar="-1" Cut="0.0000000000000000e+00" cType="1" res="7.3926718905568123e-03" rms="4.5771241188049316e-01" purity="6.9496363401412964e-01" nType="-99"/>
                  </Node>
                </Node>
                <Node pos="r" depth="5" NCoef="0" IVar="-1" Cut="0.0000000000000000e+00" cType="1" res="2.7039847336709499e-03" rms="4.9244678020477295e-01" purity="5.3327208757400513e-01" nType="-99"/>
              </Node>
            </Node>
            <Node pos="r" depth="3" NCoef="0" IVar="5" Cut="-2.0217223465442657e-01" cType="1" res="4.3407771736383438e-02" rms="4.7131946682929993e-01" purity="6.1661094427108765e-01" nType="0">
              <Node pos="l" depth="4" NCoef="0" IVar="7" Cut="2.0000000000000000e+00" cType="1" res="5.8502975851297379e-02" rms="4.6551463007926941e-01" purity="6.4287334680557251e-01" nType="0">
                <Node pos="l" depth="5" NCoef="0" IVar="4" Cut="-5.7527440786361694e-01" cType="1" res="8.6121544241905212e-02" rms="4.4945281744003296e-01" purity="7.0100826025009155e-01" nType="0">
                  <Node pos="l" depth="6" NCoef="0" IVar="-1" Cut="0.0000000000000000e+00" cType="1" res="5.6647122837603092e-03" rms="4.5592227578163147e-01" purity="6.8507295846939087e-01" nType="-99"/>
                  <Node pos="r" depth="6" NCoef="0" IVar="1" Cut="7.1825154125690460e-02" cType="1" res="9.8562709987163544e-02" rms="4.4442656636238098e-01" purity="7.1221160888671875e-01" nType="0">
                    <Node pos="l" depth="7" NCoef="0" IVar="-1" Cut="0.0000000000000000e+00" cType="1" res="1.0041743516921997e-02" rms="4.2756411433219910e-01" purity="7.4765360355377197e-01" nType="-99"/>
                    <Node pos="r" depth="7" NCoef="0" IVar="-1" Cut="0.0000000000000000e+00" cType="1" res="6.9316118024289608e-03" rms="4.6256887912750244e-01" purity="6.7102468013763428e-01" nType="-99"/>
                  </Node>
                </Node>
                <Node pos="r" depth="5" NCoef="0" IVar="1" Cut="-9.6642889082431793e-02" cType="1" res="3.4717854112386703e-02" rms="4.8162987828254700e-01" purity="5.9634476900100708e-01" nType="0">
                  <Node pos="l" depth="6" NCoef="0" IVar="-1" Cut="0.0000000000000000e+00" cType="1" res="5.9152143076062202e-03" rms="4.6956893801689148e-01" purity="6.5206909179687500e-01" nType="-99"/>
                  <Node pos="r" depth="6" NCoef="0" IVar="1" Cut="3.2433643937110901e-01" cType="1" res="1.5042624436318874e-02" rms="4.8742806911468506e-01" purity="5.6393933296203613e-01" nType="0">
                    <Node pos="l" depth="7" NCoef="0" IVar="-1" Cut="0.0000000000000000e+00" cType="1" res="3.9124167524278164e-03" rms="4.8024019598960876e-01" purity="6.1452484130859375e-01" nType="-99"/>
                    <Node pos="r" depth="7" NCoef="0" IVar="-1" Cut="0.0000000000000000e+00" cType="1" res="-1.4093094505369663e-03" rms="4.9298813939094543e-01" purity="5.1059305667877197e-01" nType="-99"/>
                  </Node>
                </Node>
              </Node>
              <Node pos="r" depth="4" NCoef="0" IVar="-1" Cut="0.0000000000000000e+00" cType="1" res="-6.0711507685482502e-03" rms="4.8015007376670837e-01" purity="4.1229060292243958e-01" nType="-99"/>
            </Node>
          </Node>
          <Node pos="r" depth="2" NCoef="0" IVar="5" Cut="-1.3461049795150757e+00" cType="1" res="-4.3944246135652065e-03" rms="4.7933915257453918e-01" purity="5.2343910932540894e-01" nType="0">
            <Node pos="l" depth="3" NCoef="0" IVar="3" Cut="8.3465343713760376e-01" cType="1" res="1.8606737256050110e-02" rms="4.8105171322822571e-01" purity="5.6612712144851685e-01" nType="0">
              <Node pos="l" depth="4" NCoef="0" IVar="-1" Cut="0.0000000000000000e+00" cType="1" res="-4.2354045435786247e-03" rms="4.9089261889457703e-01" purity="4.3608197569847107e-01" nType="-99"/>
              <Node pos="r" depth="4" NCoef="0" IVar="3" Cut="9.8219674825668335e-01" cType="1" res="4.0018599480390549e-02" rms="4.7589084506034851e-01" purity="6.0739982128143311e-01" nType="0">
                <Node pos="l" depth="5" NCoef="0" IVar="-1" Cut="0.0000000000000000e+00" cType="1" res="8.1601919373497367e-04" rms="4.8987668752670288e-01" purity="5.5192202329635620e-01" nType="-99"/>
                <Node pos="r" depth="5" NCoef="0" IVar="4" Cut="-3.4640768170356750e-01" cType="1" res="5.6085526943206787e-02" rms="4.6752959489822388e-01" purity="6.3673353195190430e-01" nType="0">
                  <Node pos="l" depth="6" NCoef="0" IVar="-1" Cut="0.0000000000000000e+00" cType="1" res="2.7281488291919231e-03" rms="4.7644868493080139e-01" purity="6.0535997152328491e-01" nType="-99"/>
                  <Node pos="r" depth="6" NCoef="0" IVar="-1" Cut="0.0000000000000000e+00" cType="1" res="7.0953173562884331e-03" rms="4.5569297671318054e-01" purity="6.7301261425018311e-01" nType="-99"/>
                </Node>
              </Node>
            </Node>
            <Node pos="r" depth="3" NCoef="0" IVar="-1" Cut="0.0000000000000000e+00" cType="1" res="-1.1060575023293495e-02" rms="4.5490670204162598e-01" purity="3.1734809279441833e-01" nType="-99"/>
          </Node>
        </Node>
      </Node>
    </BinaryTree>
    <BinaryTree type="DecisionTree" boostWeight="1.0000000000000000e+00" itree="25">
      <Node pos="s" depth="0" NCoef="0" IVar="0" Cut="3.2243606448173523e-01" cType="1" res="1.6432341188192368e-02" rms="4.1342645883560181e-01" purity="5.0057411193847656e-01" nType="0">
        <Node pos="l" depth="1" NCoef="0" IVar="3" Cut="8.4021311998367310e-01" cType="1" res="8.8638223707675934e-02" rms="4.2471706867218018e-01" purity="7.2986727952957153e-01" nType="0">
          <Node pos="l" depth="2" NCoef="0" IVar="1" Cut="5.9129178524017334e-01" cType="1" res="3.3795371651649475e-02" rms="4.7400707006454468e-01" purity="5.8738994598388672e-01" nType="0">
            <Node pos="l" depth="3" NCoef="0" IVar="5" Cut="-1.5743699073791504e+00" cType="1" res="5.2072223275899887e-02" rms="4.6867427229881287e-01" purity="6.3049000501632690e-01" nType="0">
              <Node pos="l" depth="4" NCoef="0" IVar="3" Cut="7.6130223274230957e-01" cType="1" res="6.9418758153915405e-02" rms="4.6185994148254395e-01" purity="6.6955125331878662e-01" nType="0">
                <Node pos="l" depth="5" NCoef="0" IVar="0" Cut="1.9761957228183746e-01" cType="1" res="4.5479342341423035e-02" rms="4.8008051514625549e-01" purity="6.0272657871246338e-01" nType="0">
                  <Node pos="l" depth="6" NCoef="0" IVar="-1" Cut="0.0000000000000000e+00" cType="1" res="5.6894794106483459e-03" rms="4.7109505534172058e-01" purity="6.3524240255355835e-01" nType="-99"/>
                  <Node pos="r" depth="6" NCoef="0" IVar="-1" Cut="0.0000000000000000e+00" cType="1" res="1.4370202552527189e-03" rms="4.8874118924140930e-01" purity="5.6448149681091309e-01" nType="-99"/>
                </Node>
                <Node pos="r" depth="5" NCoef="0" IVar="6" Cut="3.6210339516401291e-02" cType="1" res="8.9010804891586304e-02" rms="4.4543883204460144e-01" purity="7.2424066066741943e-01" nType="0">
                  <Node pos="l" depth="6" NCoef="0" IVar="-1" Cut="0.0000000000000000e+00" cType="1" res="5.7219718582928181e-03" rms="4.5684552192687988e-01" purity="6.9894188642501831e-01" nType="-99"/>
                  <Node pos="r" depth="6" NCoef="0" IVar="2" Cut="1.3800741577148438e+02" cType="1" res="1.0151599347591400e-01" rms="4.3872809410095215e-01" purity="7.3771959543228149e-01" nType="0">
                    <Node pos="l" depth="7" NCoef="0" IVar="-1" Cut="0.0000000000000000e+00" cType="1" res="9.4749908894300461e-03" rms="4.2757871747016907e-01" purity="7.5730496644973755e-01" nType="-99"/>
                    <Node pos="r" depth="7" NCoef="0" IVar="-1" Cut="0.0000000000000000e+00" cType="1" res="7.0642144419252872e-03" rms="4.5092380046844482e-01" purity="7.1379810571670532e-01" nType="-99"/>
                  </Node>
                </Node>
              </Node>
              <Node pos="r" depth="4" NCoef="0" IVar="0" Cut="1.7681615054607391e-01" cType="1" res="1.0839253664016724e-03" rms="4.8457193374633789e-01" purity="5.1567381620407104e-01" nType="0">
                <Node pos="l" depth="5" NCoef="0" IVar="-1" Cut="0.0000000000000000e+00" cType="1" res="3.0084622558206320e-03" rms="4.8327600955963135e-01" purity="5.6895095109939575e-01" nType="-99"/>
                <Node pos="r" depth="5" NCoef="0" IVar="-1" Cut="0.0000000000000000e+00" cType="1" res="-2.8808065690100193e-03" rms="4.8354339599609375e-01" purity="4.6893477439880371e-01" nType="-99"/>
              </Node>
            </Node>
            <Node pos="r" depth="3" NCoef="0" IVar="0" Cut="1.0399666614830494e-02" cType="1" res="-1.8377894535660744e-02" rms="4.8513659834861755e-01" purity="4.6435597538948059e-01" nType="0">
              <Node pos="l" depth="4" NCoef="0" IVar="-1" Cut="0.0000000000000000e+00" cType="1" res="1.4300810871645808e-03" rms="4.8787125945091248e-01" purity="5.1241439580917358e-01" nType="-99"/>
              <Node pos="r" depth="4" NCoef="0" IVar="-1" Cut="0.0000000000000000e+00" cType="1" res="-5.9785409830510616e-03" rms="4.7820299863815308e-01" purity="4.0590026974678040e-01" nType="-99"/>
            </Node>
          </Node>
          <Node pos="r" depth="2" NCoef="0" IVar="5" Cut="-2.0338079929351807e+00" cType="1" res="1.0928768664598465e-01" rms="4.0267425775527954e-01" purity="7.8351294994354248e-01" nType="0">
            <Node pos="l" depth="3" NCoef="0" IVar="1" Cut="4.6831005811691284e-01" cType="1" res="1.2286741286516190e-01" rms="3.8353112339973450e-01" purity="8.1541264057159424e-01" nType="0">
              <Node pos="l" depth="4" NCoef="0" IVar="4" Cut="-1.0285760164260864e+00" cType="1" res="1.3250632584095001e-01" rms="3.6355474591255188e-01" purity="8.4170556068420410e-01" nType="0">
                <Node pos="l" depth="5" NCoef="0" IVar="3" Cut="8.7682384252548218e-01" cType="1" res="1.1662492901086807e-01" rms="3.9034554362297058e-01" purity="8.1102061271667480e-01" nType="0">
                  <Node pos="l" depth="6" NCoef="0" IVar="-1" Cut="0.0000000000000000e+00" cType="1" res="8.4795122966170311e-03" rms="4.1998600959777832e-01" purity="7.7021616697311401e-01" nType="-99"/>
                  <Node pos="r" depth="6" NCoef="0" IVar="1" Cut="-1.7960552126169205e-02" cType="1" res="1.2290349602699280e-01" rms="3.8079866766929626e-01" purity="8.2323706150054932e-01" nType="0">
                    <Node pos="l" depth="7" NCoef="0" IVar="-1" Cut="0.0000000000000000e+00" cType="1" res="1.1700224131345749e-02" rms="3.6896625161170959e-01" purity="8.3717274665832520e-01" nType="-99"/>
                    <Node pos="r" depth="7" NCoef="0" IVar="-1" Cut="0.0000000000000000e+00" cType="1" res="9.8886648193001747e-03" rms="3.9566582441329956e-01" purity="8.0455219745635986e-01" nType="-99"/>
                  </Node>
                </Node>
                <Node pos="r" depth="5" NCoef="0" IVar="5" Cut="-2.9359707832336426e+00" cType="1" res="1.4296890795230865e-01" rms="3.4436950087547302e-01" purity="8.6192059516906738e-01" nType="0">
                  <Node pos="l" depth="6" NCoef="0" IVar="3" Cut="9.9321824312210083e-01" cType="1" res="1.5545618534088135e-01" rms="3.2255223393440247e-01" purity="8.8194996118545532e-01" nType="0">
                    <Node pos="l" depth="7" NCoef="0" IVar="-1" Cut="0.0000000000000000e+00" cType="1" res="1.3875244185328484e-02" rms="3.3784204721450806e-01" purity="8.6846399307250977e-01" nType="-99"/>
                    <Node pos="r" depth="7" NCoef="0" IVar="-1" Cut="0.0000000000000000e+00" cType="1" res="1.5426889061927795e-02" rms="3.1678840517997742e-01" purity="8.8677859306335449e-01" nType="-99"/>
                  </Node>
                  <Node pos="r" depth="6" NCoef="0" IVar="3" Cut="9.8835706710815430e-01" cType="1" res="1.3303188979625702e-01" rms="3.6048066616058350e-01" purity="8.4598171710968018e-01" nType="0">
                    <Node pos="l" depth="7" NCoef="0" IVar="-1" Cut="0.0000000000000000e+00" cType="1" res="1.0596779175102711e-02" rms="3.8375511765480042e-01" purity="8.1975084543228149e-01" nType="-99"/>
                    <Node pos="r" depth="7" NCoef="0" IVar="-1" Cut="0.0000000000000000e+00" cType="1" res="1.3131792657077312e-02" rms="3.5307061672210693e-01" purity="8.5376459360122681e-01" nType="-99"/>
                  </Node>
                </Node>
              </Node>
              <Node pos="r" depth="4" NCoef="0" IVar="5" Cut="-2.6261272430419922e+00" cType="1" res="9.4637736678123474e-02" rms="4.3558642268180847e-01" purity="7.3840814828872681e-01" nType="0">
                <Node pos="l" depth="5" NCoef="0" IVar="4" Cut="-9.0542227029800415e-01" cType="1" res="1.0889491438865662e-01" rms="4.2427441477775574e-01" purity="7.5908714532852173e-01" nType="0">
                  <Node pos="l" depth="6" NCoef="0" IVar="-1" Cut="0.0000000000000000e+00" cType="1" res="7.0506245829164982e-03" rms="4.4873395562171936e-01" purity="7.1598571538925171e-01" nType="-99"/>
                  <Node pos="r" depth="6" NCoef="0" IVar="5" Cut="-3.0655138492584229e+00" cType="1" res="1.2399962544441223e-01" rms="4.0489295125007629e-01" purity="7.9043126106262207e-01" nType="0">
                    <Node pos="l" depth="7" NCoef="0" IVar="-1" Cut="0.0000000000000000e+00" cType="1" res="1.2208726257085800e-02" rms="3.9066678285598755e-01" purity="8.0994683504104614e-01" nType="-99"/>
                    <Node pos="r" depth="7" NCoef="0" IVar="-1" Cut="0.0000000000000000e+00" cType="1" res="9.4021260738372803e-03" rms="4.1621977090835571e-01" purity="7.7355706691741943e-01" nType="-99"/>
                  </Node>
                </Node>
                <Node pos="r" depth="5" NCoef="0" IVar="4" Cut="-7.3617601394653320e-01" cType="1" res="6.7599907517433167e-02" rms="4.5504420995712280e-01" purity="6.9919174909591675e-01" nType="0">
                  <Node pos="l" depth="6" NCoef="0" IVar="-1" Cut="0.0000000000000000e+00" cType="1" res="4.0939678438007832e-03" rms="4.7010174393653870e-01" purity="6.6408598423004150e-01" nType="-99"/>
                  <Node pos="r" depth="6" NCoef="0" IVar="-1" Cut="0.0000000000000000e+00" cType="1" res="7.4339704588055611e-03" rms="4.3877947330474854e-01" purity="7.3421448469161987e-01" nType="-99"/>
                </Node>
              </Node>
            </Node>
            <Node pos="r" depth="3" NCoef="0" IVar="1" Cut="7.9699051380157471e-01" cType="1" res="6.8955235183238983e-02" rms="4.5240762829780579e-01" purity="6.8876934051513672e-01" nType="0">
              <Node pos="l" depth="4" NCoef="0" IVar="5" Cut="-6.2561458349227905e-01" cType="1" res="8.1920653581619263e-02" rms="4.4369122385978699e-01" purity="7.1801030635833740e-01" nType="0">
                <Node pos="l" depth="5" NCoef="0" IVar="4" Cut="-3.5087510943412781e-01" cType="1" res="9.0598165988922119e-02" rms="4.3430593609809875e-01" purity="7.4234008789062500e-01" nType="0">
                  <Node pos="l" depth="6" NCoef="0" IVar="1" Cut="1.2654064595699310e-01" cType="1" res="7.6817356050014496e-02" rms="4.4235485792160034e-01" purity="7.2790849208831787e-01" nType="0">
                    <Node pos="l" depth="7" NCoef="0" IVar="-1" Cut="0.0000000000000000e+00" cType="1" res="7.9233832657337189e-03" rms="4.3029007315635681e-01" purity="7.5170671939849854e-01" nType="-99"/>
                    <Node pos="r" depth="7" NCoef="0" IVar="-1" Cut="0.0000000000000000e+00" cType="1" res="4.4792951084673405e-03" rms="4.6222451329231262e-01" purity="6.8513715267181396e-01" nType="-99"/>
                  </Node>
                  <Node pos="r" depth="6" NCoef="0" IVar="1" Cut="7.1574419736862183e-02" cType="1" res="1.1007092893123627e-01" rms="4.2190459370613098e-01" purity="7.6273244619369507e-01" nType="0">
                    <Node pos="l" depth="7" NCoef="0" IVar="-1" Cut="0.0000000000000000e+00" cType="1" res="1.1257736012339592e-02" rms="4.0463504195213318e-01" purity="7.8979402780532837e-01" nType="-99"/>
                    <Node pos="r" depth="7" NCoef="0" IVar="-1" Cut="0.0000000000000000e+00" cType="1" res="7.8552505001425743e-03" rms="4.4612538814544678e-01" purity="7.2137159109115601e-01" nType="-99"/>
                  </Node>
                </Node>
                <Node pos="r" depth="5" NCoef="0" IVar="-1" Cut="0.0000000000000000e+00" cType="1" res="2.7193671558052301e-03" rms="4.9171498417854309e-01" purity="5.7657045125961304e-01" nType="-99"/>
              </Node>
              <Node pos="r" depth="4" NCoef="0" IVar="-1" Cut="0.0000000000000000e+00" cType="1" res="3.7294477806426585e-04" rms="4.8843827843666077e-01" purity="5.4311090707778931e-01" nType="-99"/>
            </Node>
          </Node>
        </Node>
        <Node pos="r" depth="1" NCoef="0" IVar="3" Cut="5.8636254072189331e-01" cType="1" res="-6.4672149717807770e-02" rms="3.8452297449111938e-01" purity="2.4302306771278381e-01" nType="0">
          <Node pos="l" depth="2" NCoef="0" IVar="5" Cut="-1.2603518962860107e+00" cType="1" res="-9.3087375164031982e-02" rms="3.2010439038276672e-01" purity="1.3131593167781830e-01" nType="0">
            <Node pos="l" depth="3" NCoef="0" IVar="5" Cut="-3.1145758628845215e+00" cType="1" res="-7.9940073192119598e-02" rms="3.5805952548980713e-01" purity="1.6980211436748505e-01" nType="0">
              <Node pos="l" depth="4" NCoef="0" IVar="6" Cut="7.6816014945507050e-02" cType="1" res="-1.1895515769720078e-01" rms="2.8659409284591675e-01" purity="9.7403071820735931e-02" nType="0">
                <Node pos="l" depth="5" NCoef="0" IVar="3" Cut="4.0453526377677917e-01" cType="1" res="-1.3255670666694641e-01" rms="2.6825061440467834e-01" purity="8.4277316927909851e-02" nType="0">
                  <Node pos="l" depth="6" NCoef="0" IVar="-1" Cut="0.0000000000000000e+00" cType="1" res="-2.6692485436797142e-02" rms="1.8883112072944641e-01" purity="3.6958571523427963e-02" nType="-99"/>
                  <Node pos="r" depth="6" NCoef="0" IVar="-1" Cut="0.0000000000000000e+00" cType="1" res="-1.8490759655833244e-02" rms="3.3037742972373962e-01" purity="1.3281293213367462e-01" nType="-99"/>
                </Node>
                <Node pos="r" depth="5" NCoef="0" IVar="-1" Cut="0.0000000000000000e+00" cType="1" res="-1.6864905133843422e-02" rms="3.1035438179969788e-01" purity="1.1655079573392868e-01" nType="-99"/>
              </Node>
              <Node pos="r" depth="4" NCoef="0" IVar="1" Cut="1.6120046377182007e-01" cType="1" res="-7.1156270802021027e-02" rms="3.7169748544692993e-01" purity="1.8610195815563202e-01" nType="0">
                <Node pos="l" depth="5" NCoef="0" IVar="6" Cut="1.2610833346843719e-01" cType="1" res="-3.3649027347564697e-02" rms="4.2655694484710693e-01" purity="2.6849609613418579e-01" nType="0">
                  <Node pos="l" depth="6" NCoef="0" IVar="2" Cut="1.6370954895019531e+02" cType="1" res="-5.0526253879070282e-02" rms="4.1173097491264343e-01" purity="2.4303984642028809e-01" nType="0">
                    <Node pos="l" depth="7" NCoef="0" IVar="-1" Cut="0.0000000000000000e+00" cType="1" res="-2.0016804337501526e-03" rms="4.3190515041351318e-01" purity="2.8454160690307617e-01" nType="-99"/>
                    <Node pos="r" depth="7" NCoef="0" IVar="-1" Cut="0.0000000000000000e+00" cType="1" res="-1.0020269080996513e-02" rms="3.9229056239128113e-01" purity="2.0899741351604462e-01" nType="-99"/>
                  </Node>
                  <Node pos="r" depth="6" NCoef="0" IVar="-1" Cut="0.0000000000000000e+00" cType="1" res="-7.3480268474668264e-04" rms="4.4808611273765564e-01" purity="3.0952027440071106e-01" nType="-99"/>
                </Node>
                <Node pos="r" depth="5" NCoef="0" IVar="3" Cut="4.7604244947433472e-01" cType="1" res="-8.3914756774902344e-02" rms="3.5017344355583191e-01" purity="1.5807472169399261e-01" nType="0">
                  <Node pos="l" depth="6" NCoef="0" IVar="6" Cut="2.0523238182067871e-01" cType="1" res="-9.5893196761608124e-02" rms="3.1040424108505249e-01" purity="1.1467386037111282e-01" nType="0">
                    <Node pos="l" depth="7" NCoef="0" IVar="-1" Cut="0.0000000000000000e+00" cType="1" res="-1.8378293141722679e-02" rms="2.8919887542724609e-01" purity="9.6395403146743774e-02" nType="-99"/>
                    <Node pos="r" depth="7" NCoef="0" IVar="-1" Cut="0.0000000000000000e+00" cType="1" res="-6.9858687929809093e-03" rms="4.0492752194404602e-01" purity="2.1513852477073669e-01" nType="-99"/>
                  </Node>
                  <Node pos="r" depth="6" NCoef="0" IVar="1" Cut="1.1129516363143921e+00" cType="1" res="-5.1414642482995987e-02" rms="4.3869566917419434e-01" purity="2.7583068609237671e-01" nType="0">
                    <Node pos="l" depth="7" NCoef="0" IVar="-1" Cut="0.0000000000000000e+00" cType="1" res="-3.8637202233076096e-03" rms="4.5124635100364685e-01" purity="3.0236777663230896e-01" nType="-99"/>
                    <Node pos="r" depth="7" NCoef="0" IVar="-1" Cut="0.0000000000000000e+00" cType="1" res="-9.7878994420170784e-03" rms="4.1092950105667114e-01" purity="2.2306333482265472e-01" nType="-99"/>
                  </Node>
                </Node>
              </Node>
            </Node>
            <Node pos="r" depth="3" NCoef="0" IVar="4" Cut="-3.1070431694388390e-02" cType="1" res="-1.1353641748428345e-01" rms="2.4848471581935883e-01" purity="7.1455299854278564e-02" nType="0">
              <Node pos="l" depth="4" NCoef="0" IVar="-1" Cut="0.0000000000000000e+00" cType="1" res="-1.1683136224746704e-02" rms="3.5693132877349854e-01" purity="1.5806525945663452e-01" nType="-99"/>
              <Node pos="r" depth="4" NCoef="0" IVar="6" Cut="2.1778492629528046e-01" cType="1" res="-1.1774037033319473e-01" rms="2.3271603882312775e-01" purity="6.1675414443016052e-02" nType="0">
                <Node pos="l" depth="5" NCoef="0" IVar="5" Cut="9.4706654548645020e-01" cType="1" res="-1.2105215340852737e-01" rms="2.2044180333614349e-01" purity="5.5407136678695679e-02" nType="0">
                  <Node pos="l" depth="6" NCoef="0" IVar="6" Cut="9.8916925489902496e-02" cType="1" res="-1.1380524188280106e-01" rms="2.6751559972763062e-01" purity="8.3173207938671112e-02" nType="0">
                    <Node pos="l" depth="7" NCoef="0" IVar="-1" Cut="0.0000000000000000e+00" cType="1" res="-2.2781580686569214e-02" rms="2.3444406688213348e-01" purity="6.3311107456684113e-02" nType="-99"/>
                    <Node pos="r" depth="7" NCoef="0" IVar="-1" Cut="0.0000000000000000e+00" cType="1" res="-1.7583165317773819e-02" rms="2.9213020205497742e-01" purity="9.9987082183361053e-02" nType="-99"/>
                  </Node>
                  <Node pos="r" depth="6" NCoef="0" IVar="0" Cut="1.2587578296661377e+00" cType="1" res="-1.3108347356319427e-01" rms="1.2894079089164734e-01" purity="1.6972789540886879e-02" nType="0">
                    <Node pos="l" depth="7" NCoef="0" IVar="-1" Cut="0.0000000000000000e+00" cType="1" res="-2.7360109612345695e-02" rms="1.6484062373638153e-01" purity="2.8157005086541176e-02" nType="-99"/>
                    <Node pos="r" depth="7" NCoef="0" IVar="-1" Cut="0.0000000000000000e+00" cType="1" res="-3.0367482453584671e-02" rms="1.1378624290227890e-01" purity="1.3240084052085876e-02" nType="-99"/>
                  </Node>
                </Node>
                <Node pos="r" depth="5" NCoef="0" IVar="-1" Cut="0.0000000000000000e+00" cType="1" res="-1.5896556898951530e-02" rms="3.1099951267242432e-01" purity="1.1048866808414459e-01" nType="-99"/>
              </Node>
            </Node>
          </Node>
          <Node pos="r" depth="2" NCoef="0" IVar="5" Cut="-9.0808767080307007e-01" cType="1" res="-1.1532005853950977e-02" rms="4.7792392969131470e-01" purity="4.5192980766296387e-01" nType="0">
            <Node pos="l" depth="3" NCoef="0" IVar="1" Cut="1.2501233816146851e+00" cType="1" res="4.1342345066368580e-03" rms="4.8458325862884521e-01" purity="4.8522916436195374e-01" nType="0">
              <Node pos="l" depth="4" NCoef="0" IVar="2" Cut="1.1550106048583984e+02" cType="1" res="1.8394034355878830e-02" rms="4.8709997534751892e-01" purity="5.1791572570800781e-01" nType="0">
                <Node pos="l" depth="5" NCoef="0" IVar="1" Cut="7.4356906116008759e-02" cType="1" res="4.4428724795579910e-02" rms="4.8413801193237305e-01" purity="5.5989503860473633e-01" nType="0">
                  <Node pos="l" depth="6" NCoef="0" IVar="3" Cut="7.7047085762023926e-01" cType="1" res="7.1514248847961426e-02" rms="4.7715613245964050e-01" purity="6.1233037710189819e-01" nType="0">
                    <Node pos="l" depth="7" NCoef="0" IVar="-1" Cut="0.0000000000000000e+00" cType="1" res="4.1305744089186192e-03" rms="4.8941156268119812e-01" purity="5.5756890773773193e-01" nType="-99"/>
                    <Node pos="r" depth="7" NCoef="0" IVar="-1" Cut="0.0000000000000000e+00" cType="1" res="6.9475607015192509e-03" rms="4.6679896116256714e-01" purity="6.5498137474060059e-01" nType="-99"/>
                  </Node>
                  <Node pos="r" depth="6" NCoef="0" IVar="3" Cut="6.9683134555816650e-01" cType="1" res="2.5115454569458961e-02" rms="4.8813852667808533e-01" purity="5.2250617742538452e-01" nType="0">
                    <Node pos="l" depth="7" NCoef="0" IVar="-1" Cut="0.0000000000000000e+00" cType="1" res="-7.3793652700260282e-04" rms="4.8648911714553833e-01" purity="4.1536068916320801e-01" nType="-99"/>
                    <Node pos="r" depth="7" NCoef="0" IVar="-1" Cut="0.0000000000000000e+00" cType="1" res="3.2424714881926775e-03" rms="4.8814916610717773e-01" purity="5.6804311275482178e-01" nType="-99"/>
                  </Node>
                </Node>
                <Node pos="r" depth="5" NCoef="0" IVar="6" Cut="6.9388411939144135e-02" cType="1" res="-1.4122591353952885e-02" rms="4.8883074522018433e-01" purity="4.6548467874526978e-01" nType="0">
                  <Node pos="l" depth="6" NCoef="0" IVar="-1" Cut="0.0000000000000000e+00" cType="1" res="-5.1144147291779518e-03" rms="4.8124563694000244e-01" purity="4.1909214854240417e-01" nType="-99"/>
                  <Node pos="r" depth="6" NCoef="0" IVar="2" Cut="2.7757632446289062e+02" cType="1" res="8.6814481765031815e-03" rms="4.9162861704826355e-01" purity="4.9183228611946106e-01" nType="0">
                    <Node pos="l" depth="7" NCoef="0" IVar="-1" Cut="0.0000000000000000e+00" cType="1" res="3.2454307656735182e-03" rms="4.9148720502853394e-01" purity="5.2685618400573730e-01" nType="-99"/>
                    <Node pos="r" depth="7" NCoef="0" IVar="-1" Cut="0.0000000000000000e+00" cType="1" res="-2.0646008197218180e-03" rms="4.8987677693367004e-01" purity="4.5513510704040527e-01" nType="-99"/>
                  </Node>
                </Node>
              </Node>
              <Node pos="r" depth="4" NCoef="0" IVar="3" Cut="7.2103816270828247e-01" cType="1" res="-5.2928540855646133e-02" rms="4.7006943821907043e-01" purity="3.5442879796028137e-01" nType="0">
                <Node pos="l" depth="5" NCoef="0" IVar="-1" Cut="0.0000000000000000e+00" cType="1" res="-8.0718724057078362e-03" rms="4.4547730684280396e-01" purity="2.8298166394233704e-01" nType="-99"/>
                <Node pos="r" depth="5" NCoef="0" IVar="-1" Cut="0.0000000000000000e+00" cType="1" res="-3.2727671787142754e-03" rms="4.8618015646934509e-01" purity="4.0556347370147705e-01" nType="-99"/>
              </Node>
            </Node>
            <Node pos="r" depth="3" NCoef="0" IVar="5" Cut="7.1448564529418945e-02" cType="1" res="-8.8195584714412689e-02" rms="4.3585187196731567e-01" purity="2.8897774219512939e-01" nType="0">
              <Node pos="l" depth="4" NCoef="0" IVar="-1" Cut="0.0000000000000000e+00" cType="1" res="-5.2815321832895279e-03" rms="4.6479058265686035e-01" purity="3.5124552249908447e-01" nType="-99"/>
              <Node pos="r" depth="4" NCoef="0" IVar="-1" Cut="0.0000000000000000e+00" cType="1" res="-1.6141014173626900e-02" rms="3.7945929169654846e-01" purity="1.9048932194709778e-01" nType="-99"/>
            </Node>
          </Node>
        </Node>
      </Node>
    </BinaryTree>
    <BinaryTree type="DecisionTree" boostWeight="1.0000000000000000e+00" itree="26">
      <Node pos="s" depth="0" NCoef="0" IVar="0" Cut="3.2245385646820068e-01" cType="1" res="1.5066795982420444e-02" rms="4.1268637776374817e-01" purity="4.9930146336555481e-01" nType="0">
        <Node pos="l" depth="1" NCoef="0" IVar="3" Cut="8.4406012296676636e-01" cType="1" res="8.3755970001220703e-02" rms="4.2536467313766479e-01" purity="7.2867816686630249e-01" nType="0">
          <Node pos="l" depth="2" NCoef="0" IVar="1" Cut="4.6560409665107727e-01" cType="1" res="3.1610090285539627e-02" rms="4.7443732619285583e-01" purity="5.8853715658187866e-01" nType="0">
            <Node pos="l" depth="3" NCoef="0" IVar="4" Cut="3.4819304943084717e-01" cType="1" res="5.2259072661399841e-02" rms="4.6796903014183044e-01" purity="6.3739138841629028e-01" nType="0">
              <Node pos="l" depth="4" NCoef="0" IVar="0" Cut="2.4964113533496857e-01" cType="1" res="6.2186259776353836e-02" rms="4.6549904346466064e-01" purity="6.6097229719161987e-01" nType="0">
                <Node pos="l" depth="5" NCoef="0" IVar="6" Cut="4.5555204153060913e-02" cType="1" res="7.1693219244480133e-02" rms="4.6019104123115540e-01" purity="6.7789524793624878e-01" nType="0">
                  <Node pos="l" depth="6" NCoef="0" IVar="5" Cut="-2.5430443286895752e+00" cType="1" res="5.5960875004529953e-02" rms="4.6289849281311035e-01" purity="6.7180258035659790e-01" nType="0">
                    <Node pos="l" depth="7" NCoef="0" IVar="-1" Cut="0.0000000000000000e+00" cType="1" res="7.2092544287443161e-03" rms="4.4645762443542480e-01" purity="7.0807832479476929e-01" nType="-99"/>
                    <Node pos="r" depth="7" NCoef="0" IVar="-1" Cut="0.0000000000000000e+00" cType="1" res="2.5342281442135572e-03" rms="4.7704452276229858e-01" purity="6.3604271411895752e-01" nType="-99"/>
                  </Node>
                  <Node pos="r" depth="6" NCoef="0" IVar="2" Cut="1.7221371459960938e+02" cType="1" res="8.4888108074665070e-02" rms="4.5749095082283020e-01" purity="6.8300527334213257e-01" nType="0">
                    <Node pos="l" depth="7" NCoef="0" IVar="-1" Cut="0.0000000000000000e+00" cType="1" res="8.3933705464005470e-03" rms="4.4483044743537903e-01" purity="7.1647888422012329e-01" nType="-99"/>
                    <Node pos="r" depth="7" NCoef="0" IVar="-1" Cut="0.0000000000000000e+00" cType="1" res="5.0011253915727139e-03" rms="4.7106683254241943e-01" purity="6.4173024892807007e-01" nType="-99"/>
                  </Node>
                </Node>
                <Node pos="r" depth="5" NCoef="0" IVar="3" Cut="7.4000012874603271e-01" cType="1" res="3.1980909407138824e-02" rms="4.8072981834411621e-01" purity="6.0720479488372803e-01" nType="0">
                  <Node pos="l" depth="6" NCoef="0" IVar="-1" Cut="0.0000000000000000e+00" cType="1" res="1.0485433740541339e-03" rms="4.9229857325553894e-01" purity="5.4272854328155518e-01" nType="-99"/>
                  <Node pos="r" depth="6" NCoef="0" IVar="-1" Cut="0.0000000000000000e+00" cType="1" res="4.5865494757890701e-03" rms="4.6901470422744751e-01" purity="6.6667193174362183e-01" nType="-99"/>
                </Node>
              </Node>
              <Node pos="r" depth="4" NCoef="0" IVar="-1" Cut="0.0000000000000000e+00" cType="1" res="-1.8497458659112453e-03" rms="4.7942760586738586e-01" purity="4.6538347005844116e-01" nType="-99"/>
            </Node>
            <Node pos="r" depth="3" NCoef="0" IVar="5" Cut="-1.4283081293106079e+00" cType="1" res="-1.4483327046036720e-02" rms="4.8540866374969482e-01" purity="4.7948303818702698e-01" nType="0">
              <Node pos="l" depth="4" NCoef="0" IVar="6" Cut="3.6734644323587418e-02" cType="1" res="4.6379487030208111e-03" rms="4.8987007141113281e-01" purity="5.1649063825607300e-01" nType="0">
                <Node pos="l" depth="5" NCoef="0" IVar="-1" Cut="0.0000000000000000e+00" cType="1" res="-3.0979819130152464e-03" rms="4.9213218688964844e-01" purity="4.8862579464912415e-01" nType="-99"/>
                <Node pos="r" depth="5" NCoef="0" IVar="3" Cut="7.3669636249542236e-01" cType="1" res="2.1091181784868240e-02" rms="4.8798397183418274e-01" purity="5.2803081274032593e-01" nType="0">
                  <Node pos="l" depth="6" NCoef="0" IVar="-1" Cut="0.0000000000000000e+00" cType="1" res="-4.9517414299771190e-04" rms="4.8613885045051575e-01" purity="4.4272351264953613e-01" nType="-99"/>
                  <Node pos="r" depth="6" NCoef="0" IVar="-1" Cut="0.0000000000000000e+00" cType="1" res="3.3546325284987688e-03" rms="4.8841345310211182e-01" purity="5.9376704692840576e-01" nType="-99"/>
                </Node>
              </Node>
              <Node pos="r" depth="4" NCoef="0" IVar="-1" Cut="0.0000000000000000e+00" cType="1" res="-7.2913933545351028e-03" rms="4.6522596478462219e-01" purity="3.5923385620117188e-01" nType="-99"/>
            </Node>
          </Node>
          <Node pos="r" depth="2" NCoef="0" IVar="5" Cut="-2.0338079929351807e+00" cType="1" res="1.0423309355974197e-01" rms="4.0262705087661743e-01" purity="7.8370988368988037e-01" nType="0">
            <Node pos="l" depth="3" NCoef="0" IVar="1" Cut="7.4559003114700317e-01" cType="1" res="1.1688127368688583e-01" rms="3.8419017195701599e-01" purity="8.1460207700729370e-01" nType="0">
              <Node pos="l" depth="4" NCoef="0" IVar="4" Cut="-8.8218384981155396e-01" cType="1" res="1.2416664510965347e-01" rms="3.6951303482055664e-01" purity="8.3495819568634033e-01" nType="0">
                <Node pos="l" depth="5" NCoef="0" IVar="1" Cut="2.9130613803863525e-01" cType="1" res="1.1175696551799774e-01" rms="3.9104726910591125e-01" purity="8.0976080894470215e-01" nType="0">
                  <Node pos="l" depth="6" NCoef="0" IVar="4" Cut="-2.5210270881652832e+00" cType="1" res="1.1935068666934967e-01" rms="3.8028183579444885e-01" purity="8.2374417781829834e-01" nType="0">
                    <Node pos="l" depth="7" NCoef="0" IVar="-1" Cut="0.0000000000000000e+00" cType="1" res="1.3939372263848782e-02" rms="3.6382347345352173e-01" purity="8.4215193986892700e-01" nType="-99"/>
                    <Node pos="r" depth="7" NCoef="0" IVar="-1" Cut="0.0000000000000000e+00" cType="1" res="9.7777033224701881e-03" rms="3.8582235574722290e-01" purity="8.1694167852401733e-01" nType="-99"/>
                  </Node>
                  <Node pos="r" depth="6" NCoef="0" IVar="-1" Cut="0.0000000000000000e+00" cType="1" res="7.0993592962622643e-03" rms="4.2986720800399780e-01" purity="7.5417530536651611e-01" nType="-99"/>
                </Node>
                <Node pos="r" depth="5" NCoef="0" IVar="5" Cut="-3.1906363964080811e+00" cType="1" res="1.3402254879474640e-01" rms="3.5115921497344971e-01" purity="8.5497015714645386e-01" nType="0">
                  <Node pos="l" depth="6" NCoef="0" IVar="1" Cut="-2.8515299782156944e-02" cType="1" res="1.5752318501472473e-01" rms="3.1602132320404053e-01" purity="8.8693040609359741e-01" nType="0">
                    <Node pos="l" depth="7" NCoef="0" IVar="-1" Cut="0.0000000000000000e+00" cType="1" res="1.6062986105680466e-02" rms="3.0209800601005554e-01" purity="8.9836257696151733e-01" nType="-99"/>
                    <Node pos="r" depth="7" NCoef="0" IVar="-1" Cut="0.0000000000000000e+00" cType="1" res="1.4670087024569511e-02" rms="3.3047214150428772e-01" purity="8.7442392110824585e-01" nType="-99"/>
                  </Node>
                  <Node pos="r" depth="6" NCoef="0" IVar="5" Cut="-2.6682083606719971e+00" cType="1" res="1.2849000096321106e-01" rms="3.5870769619941711e-01" purity="8.4744602441787720e-01" nType="0">
                    <Node pos="l" depth="7" NCoef="0" IVar="-1" Cut="0.0000000000000000e+00" cType="1" res="1.3066337443888187e-02" rms="3.4632766246795654e-01" purity="8.6016529798507690e-01" nType="-99"/>
                    <Node pos="r" depth="7" NCoef="0" IVar="-1" Cut="0.0000000000000000e+00" cType="1" res="1.1492797173559666e-02" rms="3.7424346804618835e-01" purity="8.3071738481521606e-01" nType="-99"/>
                  </Node>
                </Node>
              </Node>
              <Node pos="r" depth="4" NCoef="0" IVar="3" Cut="9.8577219247817993e-01" cType="1" res="8.1043519079685211e-02" rms="4.4774231314659119e-01" purity="7.1446770429611206e-01" nType="0">
                <Node pos="l" depth="5" NCoef="0" IVar="-1" Cut="0.0000000000000000e+00" cType="1" res="3.7024049088358879e-03" rms="4.7501993179321289e-01" purity="6.4886593818664551e-01" nType="-99"/>
                <Node pos="r" depth="5" NCoef="0" IVar="5" Cut="-2.9525475502014160e+00" cType="1" res="9.9697649478912354e-02" rms="4.3257272243499756e-01" purity="7.4650812149047852e-01" nType="0">
                  <Node pos="l" depth="6" NCoef="0" IVar="-1" Cut="0.0000000000000000e+00" cType="1" res="1.0050872340798378e-02" rms="4.1498282551765442e-01" purity="7.7671992778778076e-01" nType="-99"/>
                  <Node pos="r" depth="6" NCoef="0" IVar="-1" Cut="0.0000000000000000e+00" cType="1" res="6.6594784148037434e-03" rms="4.4497609138488770e-01" purity="7.2303605079650879e-01" nType="-99"/>
                </Node>
              </Node>
            </Node>
            <Node pos="r" depth="3" NCoef="0" IVar="1" Cut="9.2930102348327637e-01" cType="1" res="6.5902635455131531e-02" rms="4.5179250836372375e-01" purity="6.9009101390838623e-01" nType="0">
              <Node pos="l" depth="4" NCoef="0" IVar="3" Cut="9.9268549680709839e-01" cType="1" res="8.0367870628833771e-02" rms="4.4357141852378845e-01" purity="7.1847712993621826e-01" nType="0">
                <Node pos="l" depth="5" NCoef="0" IVar="5" Cut="-1.2510721683502197e+00" cType="1" res="5.7786423712968826e-02" rms="4.5869523286819458e-01" purity="6.8452703952789307e-01" nType="0">
                  <Node pos="l" depth="6" NCoef="0" IVar="1" Cut="-1.2664825655519962e-02" cType="1" res="7.3775283992290497e-02" rms="4.4235968589782715e-01" purity="7.2989869117736816e-01" nType="0">
                    <Node pos="l" depth="7" NCoef="0" IVar="-1" Cut="0.0000000000000000e+00" cType="1" res="8.2387514412403107e-03" rms="4.2614972591400146e-01" purity="7.5997799634933472e-01" nType="-99"/>
                    <Node pos="r" depth="7" NCoef="0" IVar="-1" Cut="0.0000000000000000e+00" cType="1" res="5.3395857103168964e-03" rms="4.5652553439140320e-01" purity="7.0175921916961670e-01" nType="-99"/>
                  </Node>
                  <Node pos="r" depth="6" NCoef="0" IVar="-1" Cut="0.0000000000000000e+00" cType="1" res="2.7044154703617096e-03" rms="4.8417928814888000e-01" purity="6.0679775476455688e-01" nType="-99"/>
                </Node>
                <Node pos="r" depth="5" NCoef="0" IVar="5" Cut="-1.1817860603332520e+00" cType="1" res="1.0229926556348801e-01" rms="4.2723119258880615e-01" purity="7.5144982337951660e-01" nType="0">
                  <Node pos="l" depth="6" NCoef="0" IVar="4" Cut="-4.3657615780830383e-01" cType="1" res="1.1345466226339340e-01" rms="4.0818700194358826e-01" purity="7.8645330667495728e-01" nType="0">
                    <Node pos="l" depth="7" NCoef="0" IVar="-1" Cut="0.0000000000000000e+00" cType="1" res="7.9841557890176773e-03" rms="4.2045095562934875e-01" purity="7.6750558614730835e-01" nType="-99"/>
                    <Node pos="r" depth="7" NCoef="0" IVar="-1" Cut="0.0000000000000000e+00" cType="1" res="1.1471703648567200e-02" rms="3.9789262413978577e-01" purity="8.0130499601364136e-01" nType="-99"/>
                  </Node>
                  <Node pos="r" depth="6" NCoef="0" IVar="-1" Cut="0.0000000000000000e+00" cType="1" res="6.5623247064650059e-03" rms="4.6598449349403381e-01" purity="6.7331755161285400e-01" nType="-99"/>
                </Node>
              </Node>
              <Node pos="r" depth="4" NCoef="0" IVar="-1" Cut="0.0000000000000000e+00" cType="1" res="-2.2926547098904848e-03" rms="4.9127373099327087e-01" purity="5.0820571184158325e-01" nType="-99"/>
            </Node>
          </Node>
        </Node>
        <Node pos="r" depth="1" NCoef="0" IVar="3" Cut="5.8502650260925293e-01" cType="1" res="-6.1827257275581360e-02" rms="3.8369435071945190e-01" purity="2.4252587556838989e-01" nType="0">
          <Node pos="l" depth="2" NCoef="0" IVar="3" Cut="4.7406810522079468e-01" cType="1" res="-8.8325746357440948e-02" rms="3.1954988837242126e-01" purity="1.3113546371459961e-01" nType="0">
            <Node pos="l" depth="3" NCoef="0" IVar="6" Cut="2.5542584061622620e-01" cType="1" res="-9.7840599715709686e-02" rms="2.7715665102005005e-01" purity="9.0205244719982147e-02" nType="0">
              <Node pos="l" depth="4" NCoef="0" IVar="1" Cut="-2.3929460346698761e-01" cType="1" res="-1.0132116824388504e-01" rms="2.6708957552909851e-01" purity="8.2925528287887573e-02" nType="0">
                <Node pos="l" depth="5" NCoef="0" IVar="-1" Cut="0.0000000000000000e+00" cType="1" res="-1.0966827161610126e-02" rms="3.4260421991348267e-01" purity="1.4571692049503326e-01" nType="-99"/>
                <Node pos="r" depth="5" NCoef="0" IVar="5" Cut="-1.3303630352020264e+00" cType="1" res="-1.0421007126569748e-01" rms="2.5962463021278381e-01" purity="7.7711589634418488e-02" nType="0">
                  <Node pos="l" depth="6" NCoef="0" IVar="6" Cut="1.5664899349212646e-01" cType="1" res="-9.7064368426799774e-02" rms="2.9584148526191711e-01" purity="1.0284432768821716e-01" nType="0">
                    <Node pos="l" depth="7" NCoef="0" IVar="-1" Cut="0.0000000000000000e+00" cType="1" res="-1.9452191889286041e-02" rms="2.6935008168220520e-01" purity="8.1799596548080444e-02" nType="-99"/>
                    <Node pos="r" depth="7" NCoef="0" IVar="-1" Cut="0.0000000000000000e+00" cType="1" res="-1.1011613532900810e-02" rms="3.7238717079162598e-01" purity="1.7552843689918518e-01" nType="-99"/>
                  </Node>
                  <Node pos="r" depth="6" NCoef="0" IVar="4" Cut="2.5997909903526306e-01" cType="1" res="-1.1361094564199448e-01" rms="2.0194849371910095e-01" purity="4.4647004455327988e-02" nType="0">
                    <Node pos="l" depth="7" NCoef="0" IVar="-1" Cut="0.0000000000000000e+00" cType="1" res="-1.6842627897858620e-02" rms="2.9920157790184021e-01" purity="1.0221884399652481e-01" nType="-99"/>
                    <Node pos="r" depth="7" NCoef="0" IVar="-1" Cut="0.0000000000000000e+00" cType="1" res="-2.5970440357923508e-02" rms="1.7930530011653900e-01" purity="3.4553147852420807e-02" nType="-99"/>
                  </Node>
                </Node>
              </Node>
              <Node pos="r" depth="4" NCoef="0" IVar="-1" Cut="0.0000000000000000e+00" cType="1" res="-7.3287901468575001e-03" rms="3.8689589500427246e-01" purity="1.9029279053211212e-01" nType="-99"/>
            </Node>
            <Node pos="r" depth="3" NCoef="0" IVar="4" Cut="1.0567493438720703e+00" cType="1" res="-6.0898676514625549e-02" rms="4.1715329885482788e-01" purity="2.4911893904209137e-01" nType="0">
              <Node pos="l" depth="4" NCoef="0" IVar="1" Cut="3.8586400449275970e-02" cType="1" res="-4.8443235456943512e-02" rms="4.3900567293167114e-01" purity="2.8145691752433777e-01" nType="0">
                <Node pos="l" depth="5" NCoef="0" IVar="-1" Cut="0.0000000000000000e+00" cType="1" res="-9.5947342924773693e-04" rms="4.7205880284309387e-01" purity="3.5801157355308533e-01" nType="-99"/>
                <Node pos="r" depth="5" NCoef="0" IVar="6" Cut="8.8844493031501770e-02" cType="1" res="-6.3591413199901581e-02" rms="4.2444825172424316e-01" purity="2.5158038735389709e-01" nType="0">
                  <Node pos="l" depth="6" NCoef="0" IVar="7" Cut="4.0000000000000000e+00" cType="1" res="-8.2839094102382660e-02" rms="3.9605817198753357e-01" purity="2.0613317191600800e-01" nType="0">
                    <Node pos="l" depth="7" NCoef="0" IVar="-1" Cut="0.0000000000000000e+00" cType="1" res="-1.3876728713512421e-02" rms="3.7425532937049866e-01" purity="1.7420038580894470e-01" nType="-99"/>
                    <Node pos="r" depth="7" NCoef="0" IVar="-1" Cut="0.0000000000000000e+00" cType="1" res="-7.6411464251577854e-03" rms="4.1639158129692078e-01" purity="2.3445469141006470e-01" nType="-99"/>
                  </Node>
                  <Node pos="r" depth="6" NCoef="0" IVar="5" Cut="-2.2239780426025391e+00" cType="1" res="-3.9174675941467285e-02" rms="4.5195403695106506e-01" purity="3.0367767810821533e-01" nType="0">
                    <Node pos="l" depth="7" NCoef="0" IVar="-1" Cut="0.0000000000000000e+00" cType="1" res="-9.8207837436348200e-04" rms="4.6830511093139648e-01" purity="3.4432160854339600e-01" nType="-99"/>
                    <Node pos="r" depth="7" NCoef="0" IVar="-1" Cut="0.0000000000000000e+00" cType="1" res="-7.3446505703032017e-03" rms="4.3483763933181763e-01" purity="2.6676082611083984e-01" nType="-99"/>
                  </Node>
                </Node>
              </Node>
              <Node pos="r" depth="4" NCoef="0" IVar="-1" Cut="0.0000000000000000e+00" cType="1" res="-1.8448367714881897e-02" rms="2.8614571690559387e-01" purity="9.7053229808807373e-02" nType="-99"/>
            </Node>
          </Node>
          <Node pos="r" depth="2" NCoef="0" IVar="4" Cut="1.1947243213653564e+00" cType="1" res="-1.2546936050057411e-02" rms="4.7684213519096375e-01" purity="4.4968321919441223e-01" nType="0">
            <Node pos="l" depth="3" NCoef="0" IVar="0" Cut="1.5690424442291260e+00" cType="1" res="-1.7775142332538962e-03" rms="4.8284029960632324e-01" purity="4.7157803177833557e-01" nType="0">
              <Node pos="l" depth="4" NCoef="0" IVar="2" Cut="1.0808892059326172e+02" cType="1" res="8.7837018072605133e-03" rms="4.8474037647247314e-01" purity="4.8981043696403503e-01" nType="0">
                <Node pos="l" depth="5" NCoef="0" IVar="1" Cut="8.0032283067703247e-01" cType="1" res="3.5423163324594498e-02" rms="4.8394638299942017e-01" purity="5.3655475378036499e-01" nType="0">
                  <Node pos="l" depth="6" NCoef="0" IVar="6" Cut="5.4297957569360733e-02" cType="1" res="5.5734340101480484e-02" rms="4.8228392004966736e-01" purity="5.8166921138763428e-01" nType="0">
                    <Node pos="l" depth="7" NCoef="0" IVar="-1" Cut="0.0000000000000000e+00" cType="1" res="3.6768030840903521e-03" rms="4.8165410757064819e-01" purity="5.7705211639404297e-01" nType="-99"/>
                    <Node pos="r" depth="7" NCoef="0" IVar="-1" Cut="0.0000000000000000e+00" cType="1" res="7.1570412255823612e-03" rms="4.8233616352081299e-01" purity="5.9746462106704712e-01" nType="-99"/>
                  </Node>
                  <Node pos="r" depth="6" NCoef="0" IVar="3" Cut="8.4756892919540405e-01" cType="1" res="-1.4700535684823990e-02" rms="4.8439419269561768e-01" purity="4.2522197961807251e-01" nType="0">
                    <Node pos="l" depth="7" NCoef="0" IVar="-1" Cut="0.0000000000000000e+00" cType="1" res="-5.0763734616339207e-03" rms="4.6961894631385803e-01" purity="3.4742239117622375e-01" nType="-99"/>
                    <Node pos="r" depth="7" NCoef="0" IVar="-1" Cut="0.0000000000000000e+00" cType="1" res="2.1240056958049536e-03" rms="4.9604216217994690e-01" purity="5.0543272495269775e-01" nType="-99"/>
                  </Node>
                </Node>
                <Node pos="r" depth="5" NCoef="0" IVar="6" Cut="8.0584332346916199e-02" cType="1" res="-2.0736016333103180e-02" rms="4.8390877246856689e-01" purity="4.3801209330558777e-01" nType="0">
                  <Node pos="l" depth="6" NCoef="0" IVar="3" Cut="6.9616961479187012e-01" cType="1" res="-5.2247457206249237e-02" rms="4.7739017009735107e-01" purity="4.0532052516937256e-01" nType="0">
                    <Node pos="l" depth="7" NCoef="0" IVar="-1" Cut="0.0000000000000000e+00" cType="1" res="-8.2932589575648308e-03" rms="4.6275129914283752e-01" purity="3.3553779125213623e-01" nType="-99"/>
                    <Node pos="r" depth="7" NCoef="0" IVar="-1" Cut="0.0000000000000000e+00" cType="1" res="-1.9981525838375092e-03" rms="4.8935905098915100e-01" purity="4.7339835762977600e-01" nType="-99"/>
                  </Node>
                  <Node pos="r" depth="6" NCoef="0" IVar="5" Cut="-1.7088205814361572e+00" cType="1" res="1.1200634762644768e-02" rms="4.8835667967796326e-01" purity="4.7114476561546326e-01" nType="0">
                    <Node pos="l" depth="7" NCoef="0" IVar="-1" Cut="0.0000000000000000e+00" cType="1" res="2.6957718655467033e-03" rms="4.9110043048858643e-01" purity="5.0488305091857910e-01" nType="-99"/>
                    <Node pos="r" depth="7" NCoef="0" IVar="-1" Cut="0.0000000000000000e+00" cType="1" res="-2.4582589976489544e-03" rms="4.8087605834007263e-01" purity="4.0714418888092041e-01" nType="-99"/>
                  </Node>
                </Node>
              </Node>
              <Node pos="r" depth="4" NCoef="0" IVar="-1" Cut="0.0000000000000000e+00" cType="1" res="-9.9630793556571007e-03" rms="4.5426490902900696e-01" purity="3.0659684538841248e-01" nType="-99"/>
            </Node>
            <Node pos="r" depth="3" NCoef="0" IVar="-1" Cut="0.0000000000000000e+00" cType="1" res="-1.6877174377441406e-02" rms="3.7094196677207947e-01" purity="1.8036583065986633e-01" nType="-99"/>
          </Node>
        </Node>
      </Node>
    </BinaryTree>
    <BinaryTree type="DecisionTree" boostWeight="1.0000000000000000e+00" itree="27">
      <Node pos="s" depth="0" NCoef="0" IVar="0" Cut="3.2253021001815796e-01" cType="1" res="1.6145024448633194e-02" rms="4.1164994239807129e-01" purity="5.0052583217620850e-01" nType="0">
        <Node pos="l" depth="1" NCoef="0" IVar="0" Cut="1.7686520516872406e-01" cType="1" res="8.3390176296234131e-02" rms="4.2391714453697205e-01" purity="7.3121601343154907e-01" nType="0">
          <Node pos="l" depth="2" NCoef="0" IVar="5" Cut="-2.0338079929351807e+00" cType="1" res="9.6460863947868347e-02" rms="4.1293749213218689e-01" purity="7.5987195968627930e-01" nType="0">
            <Node pos="l" depth="3" NCoef="0" IVar="1" Cut="1.1285052299499512e+00" cType="1" res="1.1034750193357468e-01" rms="3.9446860551834106e-01" purity="7.9501640796661377e-01" nType="0">
              <Node pos="l" depth="4" NCoef="0" IVar="3" Cut="8.9958208799362183e-01" cType="1" res="1.1582107841968536e-01" rms="3.8497337698936462e-01" purity="8.1074041128158569e-01" nType="0">
                <Node pos="l" depth="5" NCoef="0" IVar="4" Cut="-2.7368569374084473e+00" cType="1" res="9.2554457485675812e-02" rms="4.3283927440643311e-01" purity="7.3503690958023071e-01" nType="0">
                  <Node pos="l" depth="6" NCoef="0" IVar="-1" Cut="0.0000000000000000e+00" cType="1" res="1.1008950881659985e-02" rms="4.0991052985191345e-01" purity="7.7670973539352417e-01" nType="-99"/>
                  <Node pos="r" depth="6" NCoef="0" IVar="3" Cut="7.5882595777511597e-01" cType="1" res="8.5683263838291168e-02" rms="4.3813833594322205e-01" purity="7.2457587718963623e-01" nType="0">
                    <Node pos="l" depth="7" NCoef="0" IVar="-1" Cut="0.0000000000000000e+00" cType="1" res="4.9458285793662071e-03" rms="4.7378647327423096e-01" purity="6.1618489027023315e-01" nType="-99"/>
                    <Node pos="r" depth="7" NCoef="0" IVar="-1" Cut="0.0000000000000000e+00" cType="1" res="7.9983146861195564e-03" rms="4.2696031928062439e-01" purity="7.5614309310913086e-01" nType="-99"/>
                  </Node>
                </Node>
                <Node pos="r" depth="5" NCoef="0" IVar="1" Cut="3.4250873327255249e-01" cType="1" res="1.2555694580078125e-01" rms="3.6263331770896912e-01" purity="8.4241837263107300e-01" nType="0">
                  <Node pos="l" depth="6" NCoef="0" IVar="4" Cut="-1.1089856624603271e+00" cType="1" res="1.3103927671909332e-01" rms="3.4970209002494812e-01" purity="8.5671067237854004e-01" nType="0">
                    <Node pos="l" depth="7" NCoef="0" IVar="-1" Cut="0.0000000000000000e+00" cType="1" res="1.0354931466281414e-02" rms="3.7670904397964478e-01" purity="8.2849061489105225e-01" nType="-99"/>
                    <Node pos="r" depth="7" NCoef="0" IVar="-1" Cut="0.0000000000000000e+00" cType="1" res="1.3301513157784939e-02" rms="3.3901771903038025e-01" purity="8.6717343330383301e-01" nType="-99"/>
                  </Node>
                  <Node pos="r" depth="6" NCoef="0" IVar="4" Cut="-8.7631261348724365e-01" cType="1" res="1.0737671703100204e-01" rms="4.0201860666275024e-01" purity="7.9502320289611816e-01" nType="0">
                    <Node pos="l" depth="7" NCoef="0" IVar="-1" Cut="0.0000000000000000e+00" cType="1" res="6.4811608754098415e-03" rms="4.3175792694091797e-01" purity="7.5064307451248169e-01" nType="-99"/>
                    <Node pos="r" depth="7" NCoef="0" IVar="-1" Cut="0.0000000000000000e+00" cType="1" res="1.0984398424625397e-02" rms="3.8515922427177429e-01" purity="8.1777256727218628e-01" nType="-99"/>
                  </Node>
                </Node>
              </Node>
              <Node pos="r" depth="4" NCoef="0" IVar="5" Cut="-2.9364295005798340e+00" cType="1" res="6.3536323606967926e-02" rms="4.6524462103843689e-01" purity="6.6054069995880127e-01" nType="0">
                <Node pos="l" depth="5" NCoef="0" IVar="-1" Cut="0.0000000000000000e+00" cType="1" res="7.8139863908290863e-03" rms="4.4162207841873169e-01" purity="7.1632474660873413e-01" nType="-99"/>
                <Node pos="r" depth="5" NCoef="0" IVar="-1" Cut="0.0000000000000000e+00" cType="1" res="3.7182953674346209e-03" rms="4.7686430811882019e-01" purity="6.2967103719711304e-01" nType="-99"/>
              </Node>
            </Node>
            <Node pos="r" depth="3" NCoef="0" IVar="1" Cut="2.1825313568115234e-01" cType="1" res="5.8630529791116714e-02" rms="4.5736667513847351e-01" purity="6.6413080692291260e-01" nType="0">
              <Node pos="l" depth="4" NCoef="0" IVar="3" Cut="8.4170669317245483e-01" cType="1" res="8.3994641900062561e-02" rms="4.4058004021644592e-01" purity="7.1836847066879272e-01" nType="0">
                <Node pos="l" depth="5" NCoef="0" IVar="-1" Cut="0.0000000000000000e+00" cType="1" res="4.1801175102591515e-03" rms="4.7590231895446777e-01" purity="6.2157458066940308e-01" nType="-99"/>
                <Node pos="r" depth="5" NCoef="0" IVar="5" Cut="-1.1536527872085571e+00" cType="1" res="9.4201892614364624e-02" rms="4.2843654751777649e-01" purity="7.4861335754394531e-01" nType="0">
                  <Node pos="l" depth="6" NCoef="0" IVar="4" Cut="-2.5984922051429749e-01" cType="1" res="1.0510224103927612e-01" rms="4.0958017110824585e-01" purity="7.8488200902938843e-01" nType="0">
                    <Node pos="l" depth="7" NCoef="0" IVar="-1" Cut="0.0000000000000000e+00" cType="1" res="8.3296494558453560e-03" rms="4.1971522569656372e-01" purity="7.7002727985382080e-01" nType="-99"/>
                    <Node pos="r" depth="7" NCoef="0" IVar="-1" Cut="0.0000000000000000e+00" cType="1" res="1.1414782144129276e-02" rms="3.9019036293029785e-01" purity="8.1128627061843872e-01" nType="-99"/>
                  </Node>
                  <Node pos="r" depth="6" NCoef="0" IVar="-1" Cut="0.0000000000000000e+00" cType="1" res="5.9186075814068317e-03" rms="4.6928858757019043e-01" purity="6.6224360466003418e-01" nType="-99"/>
                </Node>
              </Node>
              <Node pos="r" depth="4" NCoef="0" IVar="1" Cut="1.1616926193237305e+00" cType="1" res="2.1791994571685791e-02" rms="4.7831520438194275e-01" purity="5.8535653352737427e-01" nType="0">
                <Node pos="l" depth="5" NCoef="0" IVar="5" Cut="-1.2671519517898560e+00" cType="1" res="3.9032083004713058e-02" rms="4.7284889221191406e-01" purity="6.2495708465576172e-01" nType="0">
                  <Node pos="l" depth="6" NCoef="0" IVar="3" Cut="9.1666591167449951e-01" cType="1" res="5.6499511003494263e-02" rms="4.6407166123390198e-01" purity="6.7103153467178345e-01" nType="0">
                    <Node pos="l" depth="7" NCoef="0" IVar="-1" Cut="0.0000000000000000e+00" cType="1" res="3.6116482224315405e-03" rms="4.7613584995269775e-01" purity="6.2627917528152466e-01" nType="-99"/>
                    <Node pos="r" depth="7" NCoef="0" IVar="-1" Cut="0.0000000000000000e+00" cType="1" res="5.8911577798426151e-03" rms="4.5218649506568909e-01" purity="7.1273493766784668e-01" nType="-99"/>
                  </Node>
                  <Node pos="r" depth="6" NCoef="0" IVar="-1" Cut="0.0000000000000000e+00" cType="1" res="7.6409080065786839e-04" rms="4.8614737391471863e-01" purity="5.4546660184860229e-01" nType="-99"/>
                </Node>
                <Node pos="r" depth="5" NCoef="0" IVar="-1" Cut="0.0000000000000000e+00" cType="1" res="-2.1582469344139099e-03" rms="4.8984807729721069e-01" purity="4.7727143764495850e-01" nType="-99"/>
              </Node>
            </Node>
          </Node>
          <Node pos="r" depth="2" NCoef="0" IVar="1" Cut="2.6368159055709839e-01" cType="1" res="1.4760592021048069e-02" rms="4.7153326869010925e-01" purity="5.8075368404388428e-01" nType="0">
            <Node pos="l" depth="3" NCoef="0" IVar="2" Cut="1.7844099426269531e+02" cType="1" res="4.4136576354503632e-02" rms="4.6326622366905212e-01" purity="6.4189636707305908e-01" nType="0">
              <Node pos="l" depth="4" NCoef="0" IVar="5" Cut="-2.1989703178405762e+00" cType="1" res="5.7560887187719345e-02" rms="4.5742043852806091e-01" purity="6.7070382833480835e-01" nType="0">
                <Node pos="l" depth="5" NCoef="0" IVar="-1" Cut="0.0000000000000000e+00" cType="1" res="7.5025823898613453e-03" rms="4.4057312607765198e-01" purity="7.2137194871902466e-01" nType="-99"/>
                <Node pos="r" depth="5" NCoef="0" IVar="-1" Cut="0.0000000000000000e+00" cType="1" res="3.0520749278366566e-03" rms="4.7626426815986633e-01" purity="6.0797286033630371e-01" nType="-99"/>
              </Node>
              <Node pos="r" depth="4" NCoef="0" IVar="-1" Cut="0.0000000000000000e+00" cType="1" res="1.2338869273662567e-03" rms="4.7513812780380249e-01" purity="5.7478475570678711e-01" nType="-99"/>
            </Node>
            <Node pos="r" depth="3" NCoef="0" IVar="5" Cut="-2.2726578712463379e+00" cType="1" res="-2.6966009289026260e-02" rms="4.7995197772979736e-01" purity="4.9390456080436707e-01" nType="0">
              <Node pos="l" depth="4" NCoef="0" IVar="-1" Cut="0.0000000000000000e+00" cType="1" res="5.9168389998376369e-04" rms="4.8196822404861450e-01" purity="5.6091409921646118e-01" nType="-99"/>
              <Node pos="r" depth="4" NCoef="0" IVar="-1" Cut="0.0000000000000000e+00" cType="1" res="-5.3994930349290371e-03" rms="4.7628873586654663e-01" purity="4.3531486392021179e-01" nType="-99"/>
            </Node>
          </Node>
        </Node>
        <Node pos="r" depth="1" NCoef="0" IVar="0" Cut="6.3466000556945801e-01" cType="1" res="-5.9381969273090363e-02" rms="3.8361445069313049e-01" purity="2.4142417311668396e-01" nType="0">
          <Node pos="l" depth="2" NCoef="0" IVar="3" Cut="7.8488647937774658e-01" cType="1" res="-6.4337048679590225e-03" rms="4.7339576482772827e-01" purity="4.5242550969123840e-01" nType="0">
            <Node pos="l" depth="3" NCoef="0" IVar="5" Cut="-4.3063303828239441e-01" cType="1" res="-2.5120737031102180e-02" rms="4.7092950344085693e-01" purity="4.0470844507217407e-01" nType="0">
              <Node pos="l" depth="4" NCoef="0" IVar="6" Cut="6.3478723168373108e-02" cType="1" res="-1.4211940579116344e-02" rms="4.8122030496597290e-01" purity="4.3404191732406616e-01" nType="0">
                <Node pos="l" depth="5" NCoef="0" IVar="2" Cut="9.6296272277832031e+01" cType="1" res="-4.9763247370719910e-02" rms="4.7406131029129028e-01" purity="3.9239725470542908e-01" nType="0">
                  <Node pos="l" depth="6" NCoef="0" IVar="-1" Cut="0.0000000000000000e+00" cType="1" res="-2.4334855843335390e-03" rms="4.7868248820304871e-01" purity="4.1900274157524109e-01" nType="-99"/>
                  <Node pos="r" depth="6" NCoef="0" IVar="-1" Cut="0.0000000000000000e+00" cType="1" res="-7.7294940128922462e-03" rms="4.6625116467475891e-01" purity="3.5765564441680908e-01" nType="-99"/>
                </Node>
                <Node pos="r" depth="5" NCoef="0" IVar="3" Cut="6.6179299354553223e-01" cType="1" res="7.1283914148807526e-03" rms="4.8421487212181091e-01" purity="4.5903992652893066e-01" nType="0">
                  <Node pos="l" depth="6" NCoef="0" IVar="2" Cut="1.5575268554687500e+02" cType="1" res="-1.7188692465424538e-02" rms="4.7985017299652100e-01" purity="4.0000608563423157e-01" nType="0">
                    <Node pos="l" depth="7" NCoef="0" IVar="-1" Cut="0.0000000000000000e+00" cType="1" res="1.2985940556973219e-03" rms="4.8567196726799011e-01" purity="4.3841004371643066e-01" nType="-99"/>
                    <Node pos="r" depth="7" NCoef="0" IVar="-1" Cut="0.0000000000000000e+00" cType="1" res="-3.0227527022361755e-03" rms="4.7657826542854309e-01" purity="3.8309213519096375e-01" nType="-99"/>
                  </Node>
                  <Node pos="r" depth="6" NCoef="0" IVar="-1" Cut="0.0000000000000000e+00" cType="1" res="3.9249798282980919e-03" rms="4.8872631788253784e-01" purity="5.5758661031723022e-01" nType="-99"/>
                </Node>
              </Node>
              <Node pos="r" depth="4" NCoef="0" IVar="-1" Cut="0.0000000000000000e+00" cType="1" res="-1.2630209326744080e-02" rms="3.7952885031700134e-01" purity="1.9310878217220306e-01" nType="-99"/>
            </Node>
            <Node pos="r" depth="3" NCoef="0" IVar="5" Cut="-2.0764875411987305e+00" cType="1" res="6.1727423220872879e-02" rms="4.7610801458358765e-01" purity="6.2647378444671631e-01" nType="0">
              <Node pos="l" depth="4" NCoef="0" IVar="-1" Cut="0.0000000000000000e+00" cType="1" res="6.1916802078485489e-03" rms="4.6678456664085388e-01" purity="6.6469198465347290e-01" nType="-99"/>
              <Node pos="r" depth="4" NCoef="0" IVar="-1" Cut="0.0000000000000000e+00" cType="1" res="3.2794717699289322e-03" rms="4.8914921283721924e-01" purity="5.6800627708435059e-01" nType="-99"/>
            </Node>
          </Node>
          <Node pos="r" depth="2" NCoef="0" IVar="4" Cut="1.6656231880187988e+00" cType="1" res="-7.8890033066272736e-02" rms="3.4263357520103455e-01" purity="1.6368359327316284e-01" nType="0">
            <Node pos="l" depth="3" NCoef="0" IVar="2" Cut="6.8414207458496094e+01" cType="1" res="-7.0341713726520538e-02" rms="3.7021049857139587e-01" purity="1.9425582885742188e-01" nType="0">
              <Node pos="l" depth="4" NCoef="0" IVar="1" Cut="6.6123771667480469e-01" cType="1" res="-3.1095210462808609e-02" rms="4.2839786410331726e-01" purity="3.1086114048957825e-01" nType="0">
                <Node pos="l" depth="5" NCoef="0" IVar="3" Cut="6.7109370231628418e-01" cType="1" res="2.8474756982177496e-03" rms="4.5542949438095093e-01" purity="3.8966211676597595e-01" nType="0">
                  <Node pos="l" depth="6" NCoef="0" IVar="-1" Cut="0.0000000000000000e+00" cType="1" res="-2.9307920485734940e-03" rms="4.0576052665710449e-01" purity="2.3513543605804443e-01" nType="-99"/>
                  <Node pos="r" depth="6" NCoef="0" IVar="-1" Cut="0.0000000000000000e+00" cType="1" res="2.0671023521572351e-03" rms="4.9358117580413818e-01" purity="5.2416473627090454e-01" nType="-99"/>
                </Node>
                <Node pos="r" depth="5" NCoef="0" IVar="2" Cut="3.7517433166503906e+01" cType="1" res="-5.8200500905513763e-02" rms="4.0347409248352051e-01" purity="2.4793377518653870e-01" nType="0">
                  <Node pos="l" depth="6" NCoef="0" IVar="-1" Cut="0.0000000000000000e+00" cType="1" res="-4.2806998826563358e-03" rms="4.4495385885238647e-01" purity="3.1724560260772705e-01" nType="-99"/>
                  <Node pos="r" depth="6" NCoef="0" IVar="-1" Cut="0.0000000000000000e+00" cType="1" res="-1.2800870463252068e-02" rms="3.3890694379806519e-01" purity="1.5571855008602142e-01" nType="-99"/>
                </Node>
              </Node>
              <Node pos="r" depth="4" NCoef="0" IVar="1" Cut="-2.3116573691368103e-01" cType="1" res="-7.9325005412101746e-02" rms="3.5494521260261536e-01" purity="1.6756558418273926e-01" nType="0">
                <Node pos="l" depth="5" NCoef="0" IVar="0" Cut="1.2384048700332642e+00" cType="1" res="-2.9463853687047958e-02" rms="4.2291295528411865e-01" purity="2.7142265439033508e-01" nType="0">
                  <Node pos="l" depth="6" NCoef="0" IVar="-1" Cut="0.0000000000000000e+00" cType="1" res="-7.1791029768064618e-04" rms="4.5899701118469238e-01" purity="3.4403818845748901e-01" nType="-99"/>
                  <Node pos="r" depth="6" NCoef="0" IVar="-1" Cut="0.0000000000000000e+00" cType="1" res="-8.8812597095966339e-03" rms="3.6898648738861084e-01" purity="1.7747105658054352e-01" nType="-99"/>
                </Node>
                <Node pos="r" depth="5" NCoef="0" IVar="6" Cut="1.3653133809566498e-01" cType="1" res="-8.5285209119319916e-02" rms="3.4544697403907776e-01" purity="1.5515093505382538e-01" nType="0">
                  <Node pos="l" depth="6" NCoef="0" IVar="6" Cut="6.8490482866764069e-02" cType="1" res="-9.5938108861446381e-02" rms="3.3035078644752502e-01" purity="1.4288246631622314e-01" nType="0">
                    <Node pos="l" depth="7" NCoef="0" IVar="-1" Cut="0.0000000000000000e+00" cType="1" res="-1.6805797815322876e-02" rms="3.1987982988357544e-01" purity="1.3519549369812012e-01" nType="-99"/>
                    <Node pos="r" depth="7" NCoef="0" IVar="-1" Cut="0.0000000000000000e+00" cType="1" res="-1.3404889963567257e-02" rms="3.3550569415092468e-01" purity="1.4704993367195129e-01" nType="-99"/>
                  </Node>
                  <Node pos="r" depth="6" NCoef="0" IVar="2" Cut="2.0592184448242188e+02" cType="1" res="-6.2433332204818726e-02" rms="3.7476992607116699e-01" purity="1.8146838247776031e-01" nType="0">
                    <Node pos="l" depth="7" NCoef="0" IVar="-1" Cut="0.0000000000000000e+00" cType="1" res="-1.7187258927151561e-03" rms="4.0656474232673645e-01" purity="2.3597814142704010e-01" nType="-99"/>
                    <Node pos="r" depth="7" NCoef="0" IVar="-1" Cut="0.0000000000000000e+00" cType="1" res="-1.0657274164259434e-02" rms="3.6761924624443054e-01" purity="1.7106285691261292e-01" nType="-99"/>
                  </Node>
                </Node>
              </Node>
            </Node>
            <Node pos="r" depth="3" NCoef="0" IVar="3" Cut="4.6125271916389465e-01" cType="1" res="-1.1426299065351486e-01" rms="1.8573936820030212e-01" purity="3.7175688892602921e-02" nType="0">
              <Node pos="l" depth="4" NCoef="0" IVar="6" Cut="1.6724126040935516e-01" cType="1" res="-1.0750193148851395e-01" rms="1.6730549931526184e-01" purity="3.0166473239660263e-02" nType="0">
                <Node pos="l" depth="5" NCoef="0" IVar="2" Cut="2.2494352722167969e+02" cType="1" res="-1.1336655169725418e-01" rms="1.1660474538803101e-01" purity="1.4040943235158920e-02" nType="0">
                  <Node pos="l" depth="6" NCoef="0" IVar="6" Cut="7.0706434547901154e-02" cType="1" res="-1.1115778982639313e-01" rms="1.2136681377887726e-01" purity="1.5328591689467430e-02" nType="0">
                    <Node pos="l" depth="7" NCoef="0" IVar="-1" Cut="0.0000000000000000e+00" cType="1" res="-3.0159587040543556e-02" rms="9.9117375910282135e-02" purity="9.9882502108812332e-03" nType="-99"/>
                    <Node pos="r" depth="7" NCoef="0" IVar="-1" Cut="0.0000000000000000e+00" cType="1" res="-2.9239572584629059e-02" rms="1.4048668742179871e-01" purity="2.0801361650228500e-02" nType="-99"/>
                  </Node>
                  <Node pos="r" depth="6" NCoef="0" IVar="-1" Cut="0.0000000000000000e+00" cType="1" res="-2.8240846469998360e-02" rms="1.1045131832361221e-01" purity="1.2468433007597923e-02" nType="-99"/>
                </Node>
                <Node pos="r" depth="5" NCoef="0" IVar="-1" Cut="0.0000000000000000e+00" cType="1" res="-1.9656900316476822e-02" rms="2.5030520558357239e-01" purity="6.9317072629928589e-02" nType="-99"/>
              </Node>
              <Node pos="r" depth="4" NCoef="0" IVar="-1" Cut="0.0000000000000000e+00" cType="1" res="-2.3320687934756279e-02" rms="2.4795454740524292e-01" purity="6.7361272871494293e-02" nType="-99"/>
            </Node>
          </Node>
        </Node>
      </Node>
    </BinaryTree>
    <BinaryTree type="DecisionTree" boostWeight="1.0000000000000000e+00" itree="28">
      <Node pos="s" depth="0" NCoef="0" IVar="0" Cut="3.2240584492683411e-01" cType="1" res="1.6887051984667778e-02" rms="4.1102007031440735e-01" purity="5.0140362977981567e-01" nType="0">
        <Node pos="l" depth="1" NCoef="0" IVar="3" Cut="8.4406012296676636e-01" cType="1" res="8.0187723040580750e-02" rms="4.2379006743431091e-01" purity="7.3130869865417480e-01" nType="0">
          <Node pos="l" depth="2" NCoef="0" IVar="4" Cut="7.0792734622955322e-01" cType="1" res="3.4812808036804199e-02" rms="4.7259998321533203e-01" purity="5.9461325407028198e-01" nType="0">
            <Node pos="l" depth="3" NCoef="0" IVar="1" Cut="1.0352293252944946e+00" cType="1" res="4.2561724781990051e-02" rms="4.7251826524734497e-01" purity="6.1360388994216919e-01" nType="0">
              <Node pos="l" depth="4" NCoef="0" IVar="1" Cut="2.0750944316387177e-01" cType="1" res="5.2391938865184784e-02" rms="4.6900877356529236e-01" purity="6.3923853635787964e-01" nType="0">
                <Node pos="l" depth="5" NCoef="0" IVar="0" Cut="2.2878798842430115e-01" cType="1" res="6.8033568561077118e-02" rms="4.6030282974243164e-01" purity="6.7458355426788330e-01" nType="0">
                  <Node pos="l" depth="6" NCoef="0" IVar="2" Cut="1.8223190307617188e+02" cType="1" res="8.0118939280509949e-02" rms="4.5227390527725220e-01" purity="6.9616663455963135e-01" nType="0">
                    <Node pos="l" depth="7" NCoef="0" IVar="-1" Cut="0.0000000000000000e+00" cType="1" res="7.3529663495719433e-03" rms="4.4656479358673096e-01" purity="7.1272623538970947e-01" nType="-99"/>
                    <Node pos="r" depth="7" NCoef="0" IVar="-1" Cut="0.0000000000000000e+00" cType="1" res="4.1503515094518661e-03" rms="4.7011953592300415e-01" purity="6.3833236694335938e-01" nType="-99"/>
                  </Node>
                  <Node pos="r" depth="6" NCoef="0" IVar="6" Cut="6.0230374336242676e-02" cType="1" res="4.0068000555038452e-02" rms="4.7719314694404602e-01" purity="6.2464016675949097e-01" nType="0">
                    <Node pos="l" depth="7" NCoef="0" IVar="-1" Cut="0.0000000000000000e+00" cType="1" res="1.9334816606715322e-03" rms="4.8190650343894958e-01" purity="6.1494112014770508e-01" nType="-99"/>
                    <Node pos="r" depth="7" NCoef="0" IVar="-1" Cut="0.0000000000000000e+00" cType="1" res="5.4925414733588696e-03" rms="4.7139477729797363e-01" purity="6.3474869728088379e-01" nType="-99"/>
                  </Node>
                </Node>
                <Node pos="r" depth="5" NCoef="0" IVar="0" Cut="1.7680047452449799e-01" cType="1" res="2.3895159363746643e-02" rms="4.8316785693168640e-01" purity="5.7484507560729980e-01" nType="0">
                  <Node pos="l" depth="6" NCoef="0" IVar="5" Cut="-2.4109206199645996e+00" cType="1" res="4.7106154263019562e-02" rms="4.7697308659553528e-01" purity="6.1348265409469604e-01" nType="0">
                    <Node pos="l" depth="7" NCoef="0" IVar="-1" Cut="0.0000000000000000e+00" cType="1" res="4.7374684363603592e-03" rms="4.7013139724731445e-01" purity="6.3504439592361450e-01" nType="-99"/>
                    <Node pos="r" depth="7" NCoef="0" IVar="-1" Cut="0.0000000000000000e+00" cType="1" res="2.9733714181929827e-03" rms="4.8270788788795471e-01" purity="5.9444218873977661e-01" nType="-99"/>
                  </Node>
                  <Node pos="r" depth="6" NCoef="0" IVar="-1" Cut="0.0000000000000000e+00" cType="1" res="-4.7952009481377900e-04" rms="4.8925468325614929e-01" purity="5.2655416727066040e-01" nType="-99"/>
                </Node>
              </Node>
              <Node pos="r" depth="4" NCoef="0" IVar="-1" Cut="0.0000000000000000e+00" cType="1" res="-1.4757536118850112e-03" rms="4.8902973532676697e-01" purity="4.5842236280441284e-01" nType="-99"/>
            </Node>
            <Node pos="r" depth="3" NCoef="0" IVar="-1" Cut="0.0000000000000000e+00" cType="1" res="-5.1405183039605618e-03" rms="4.6453773975372314e-01" purity="3.7885293364524841e-01" nType="-99"/>
          </Node>
          <Node pos="r" depth="2" NCoef="0" IVar="5" Cut="-1.5086820125579834e+00" cType="1" res="9.8028749227523804e-02" rms="4.0158060193061829e-01" purity="7.8505623340606689e-01" nType="0">
            <Node pos="l" depth="3" NCoef="0" IVar="1" Cut="4.7053411602973938e-01" cType="1" res="1.0539629310369492e-01" rms="3.9035218954086304e-01" purity="8.0574357509613037e-01" nType="0">
              <Node pos="l" depth="4" NCoef="0" IVar="5" Cut="-2.9026558399200439e+00" cType="1" res="1.1478404700756073e-01" rms="3.7064388394355774e-01" purity="8.3344030380249023e-01" nType="0">
                <Node pos="l" depth="5" NCoef="0" IVar="3" Cut="1.0016894340515137e+00" cType="1" res="1.3013297319412231e-01" rms="3.4284830093383789e-01" purity="8.6287182569503784e-01" nType="0">
                  <Node pos="l" depth="6" NCoef="0" IVar="4" Cut="-1.0507464408874512e+00" cType="1" res="1.2186551094055176e-01" rms="3.5369119048118591e-01" purity="8.5219419002532959e-01" nType="0">
                    <Node pos="l" depth="7" NCoef="0" IVar="-1" Cut="0.0000000000000000e+00" cType="1" res="9.8694320768117905e-03" rms="3.8389867544174194e-01" purity="8.1952542066574097e-01" nType="-99"/>
                    <Node pos="r" depth="7" NCoef="0" IVar="-1" Cut="0.0000000000000000e+00" cType="1" res="1.3495889492332935e-02" rms="3.3173954486846924e-01" purity="8.7386387586593628e-01" nType="-99"/>
                  </Node>
                  <Node pos="r" depth="6" NCoef="0" IVar="1" Cut="-2.7426728978753090e-02" cType="1" res="1.4859755337238312e-01" rms="3.1651794910430908e-01" purity="8.8671928644180298e-01" nType="0">
                    <Node pos="l" depth="7" NCoef="0" IVar="-1" Cut="0.0000000000000000e+00" cType="1" res="1.4325475320219994e-02" rms="3.1081405282020569e-01" purity="8.9141350984573364e-01" nType="-99"/>
                    <Node pos="r" depth="7" NCoef="0" IVar="-1" Cut="0.0000000000000000e+00" cType="1" res="1.3879510574042797e-02" rms="3.2374826073646545e-01" purity="8.8062685728073120e-01" nType="-99"/>
                  </Node>
                </Node>
                <Node pos="r" depth="5" NCoef="0" IVar="4" Cut="-4.6113586425781250e-01" cType="1" res="1.0526967793703079e-01" rms="3.8656640052795410e-01" purity="8.1519651412963867e-01" nType="0">
                  <Node pos="l" depth="6" NCoef="0" IVar="5" Cut="-2.2732012271881104e+00" cType="1" res="9.7575619816780090e-02" rms="3.9701867103576660e-01" purity="8.0214691162109375e-01" nType="0">
                    <Node pos="l" depth="7" NCoef="0" IVar="-1" Cut="0.0000000000000000e+00" cType="1" res="9.8112393170595169e-03" rms="3.8458797335624695e-01" purity="8.1856375932693481e-01" nType="-99"/>
                    <Node pos="r" depth="7" NCoef="0" IVar="-1" Cut="0.0000000000000000e+00" cType="1" res="7.5569138862192631e-03" rms="4.1817709803581238e-01" purity="7.7253174781799316e-01" nType="-99"/>
                  </Node>
                  <Node pos="r" depth="6" NCoef="0" IVar="3" Cut="9.9674630165100098e-01" cType="1" res="1.1850353330373764e-01" rms="3.6751776933670044e-01" purity="8.3764189481735229e-01" nType="0">
                    <Node pos="l" depth="7" NCoef="0" IVar="-1" Cut="0.0000000000000000e+00" cType="1" res="1.0603490285575390e-02" rms="3.8193061947822571e-01" purity="8.2100886106491089e-01" nType="-99"/>
                    <Node pos="r" depth="7" NCoef="0" IVar="-1" Cut="0.0000000000000000e+00" cType="1" res="1.2300265952944756e-02" rms="3.5812446475028992e-01" purity="8.4793281555175781e-01" nType="-99"/>
                  </Node>
                </Node>
              </Node>
              <Node pos="r" depth="4" NCoef="0" IVar="5" Cut="-2.4278397560119629e+00" cType="1" res="7.8145183622837067e-02" rms="4.4148945808410645e-01" purity="7.2534465789794922e-01" nType="0">
                <Node pos="l" depth="5" NCoef="0" IVar="4" Cut="-8.4071737527847290e-01" cType="1" res="9.1521352529525757e-02" rms="4.2913404107093811e-01" purity="7.5082921981811523e-01" nType="0">
                  <Node pos="l" depth="6" NCoef="0" IVar="4" Cut="-1.8854588270187378e+00" cType="1" res="7.5085416436195374e-02" rms="4.5041495561599731e-01" purity="7.1208697557449341e-01" nType="0">
                    <Node pos="l" depth="7" NCoef="0" IVar="-1" Cut="0.0000000000000000e+00" cType="1" res="7.1696923114359379e-03" rms="4.5036014914512634e-01" purity="7.1294683218002319e-01" nType="-99"/>
                    <Node pos="r" depth="7" NCoef="0" IVar="-1" Cut="0.0000000000000000e+00" cType="1" res="5.2666496485471725e-03" rms="4.5033919811248779e-01" purity="7.1126544475555420e-01" nType="-99"/>
                  </Node>
                  <Node pos="r" depth="6" NCoef="0" IVar="3" Cut="9.9735403060913086e-01" cType="1" res="1.0448376089334488e-01" rms="4.1111201047897339e-01" purity="7.8138375282287598e-01" nType="0">
                    <Node pos="l" depth="7" NCoef="0" IVar="-1" Cut="0.0000000000000000e+00" cType="1" res="7.1982895024120808e-03" rms="4.2883193492889404e-01" purity="7.5195151567459106e-01" nType="-99"/>
                    <Node pos="r" depth="7" NCoef="0" IVar="-1" Cut="0.0000000000000000e+00" cType="1" res="1.0472565889358521e-02" rms="3.9824396371841431e-01" purity="8.0075246095657349e-01" nType="-99"/>
                  </Node>
                </Node>
                <Node pos="r" depth="5" NCoef="0" IVar="4" Cut="-6.6360515356063843e-01" cType="1" res="5.0082687288522720e-02" rms="4.6509945392608643e-01" purity="6.7187952995300293e-01" nType="0">
                  <Node pos="l" depth="6" NCoef="0" IVar="-1" Cut="0.0000000000000000e+00" cType="1" res="2.0572519861161709e-03" rms="4.7913986444473267e-01" purity="6.3330090045928955e-01" nType="-99"/>
                  <Node pos="r" depth="6" NCoef="0" IVar="-1" Cut="0.0000000000000000e+00" cType="1" res="6.5223332494497299e-03" rms="4.4886261224746704e-01" purity="7.1124207973480225e-01" nType="-99"/>
                </Node>
              </Node>
            </Node>
            <Node pos="r" depth="3" NCoef="0" IVar="1" Cut="5.5900532007217407e-01" cType="1" res="4.6496003866195679e-02" rms="4.6949806809425354e-01" purity="6.4035689830780029e-01" nType="0">
              <Node pos="l" depth="4" NCoef="0" IVar="3" Cut="9.1837984323501587e-01" cType="1" res="6.5342441201210022e-02" rms="4.6109864115715027e-01" purity="6.8032538890838623e-01" nType="0">
                <Node pos="l" depth="5" NCoef="0" IVar="-1" Cut="0.0000000000000000e+00" cType="1" res="3.5757143050432205e-03" rms="4.7641134262084961e-01" purity="6.3234430551528931e-01" nType="-99"/>
                <Node pos="r" depth="5" NCoef="0" IVar="1" Cut="-8.0446645617485046e-02" cType="1" res="7.6838925480842590e-02" rms="4.5359456539154053e-01" purity="7.0183950662612915e-01" nType="0">
                  <Node pos="l" depth="6" NCoef="0" IVar="-1" Cut="0.0000000000000000e+00" cType="1" res="7.5612571090459824e-03" rms="4.4396474957466125e-01" purity="7.2418409585952759e-01" nType="-99"/>
                  <Node pos="r" depth="6" NCoef="0" IVar="-1" Cut="0.0000000000000000e+00" cType="1" res="5.8223949745297432e-03" rms="4.6204832196235657e-01" purity="6.8135195970535278e-01" nType="-99"/>
                </Node>
              </Node>
              <Node pos="r" depth="4" NCoef="0" IVar="-1" Cut="0.0000000000000000e+00" cType="1" res="-1.1541009880602360e-03" rms="4.9042427539825439e-01" purity="5.1362228393554688e-01" nType="-99"/>
            </Node>
          </Node>
        </Node>
        <Node pos="r" depth="1" NCoef="0" IVar="3" Cut="5.8878165483474731e-01" cType="1" res="-5.4248116910457611e-02" rms="3.8391983509063721e-01" purity="2.4304389953613281e-01" nType="0">
          <Node pos="l" depth="2" NCoef="0" IVar="5" Cut="-4.3230959773063660e-01" cType="1" res="-7.7583000063896179e-02" rms="3.2213762402534485e-01" purity="1.3370671868324280e-01" nType="0">
            <Node pos="l" depth="3" NCoef="0" IVar="3" Cut="4.2155981063842773e-01" cType="1" res="-6.9156229496002197e-02" rms="3.5333171486854553e-01" purity="1.6411596536636353e-01" nType="0">
              <Node pos="l" depth="4" NCoef="0" IVar="6" Cut="2.2983685135841370e-01" cType="1" res="-8.3497591316699982e-02" rms="2.9266050457954407e-01" purity="1.0053963959217072e-01" nType="0">
                <Node pos="l" depth="5" NCoef="0" IVar="3" Cut="3.4243968129158020e-01" cType="1" res="-8.9676693081855774e-02" rms="2.7330452203750610e-01" purity="8.5253730416297913e-02" nType="0">
                  <Node pos="l" depth="6" NCoef="0" IVar="2" Cut="2.1937818908691406e+02" cType="1" res="-9.8439827561378479e-02" rms="2.3739260435104370e-01" purity="6.1408475041389465e-02" nType="0">
                    <Node pos="l" depth="7" NCoef="0" IVar="-1" Cut="0.0000000000000000e+00" cType="1" res="-2.1144164726138115e-02" rms="2.3586091399192810e-01" purity="6.0580175369977951e-02" nType="-99"/>
                    <Node pos="r" depth="7" NCoef="0" IVar="-1" Cut="0.0000000000000000e+00" cType="1" res="-2.2142224013805389e-02" rms="2.3852945864200592e-01" purity="6.2193609774112701e-02" nType="-99"/>
                  </Node>
                  <Node pos="r" depth="6" NCoef="0" IVar="6" Cut="1.0480643063783646e-01" cType="1" res="-7.4554659426212311e-02" rms="3.2554975152015686e-01" purity="1.2640209496021271e-01" nType="0">
                    <Node pos="l" depth="7" NCoef="0" IVar="-1" Cut="0.0000000000000000e+00" cType="1" res="-1.8220266327261925e-02" rms="2.6641455292701721e-01" purity="7.8236654400825500e-02" nType="-99"/>
                    <Node pos="r" depth="7" NCoef="0" IVar="-1" Cut="0.0000000000000000e+00" cType="1" res="-7.5568547472357750e-03" rms="3.8073489069938660e-01" purity="1.8142637610435486e-01" nType="-99"/>
                  </Node>
                </Node>
                <Node pos="r" depth="5" NCoef="0" IVar="-1" Cut="0.0000000000000000e+00" cType="1" res="-5.1197670400142670e-03" rms="4.0777859091758728e-01" purity="2.1652349829673767e-01" nType="-99"/>
              </Node>
              <Node pos="r" depth="4" NCoef="0" IVar="6" Cut="1.4051327109336853e-01" cType="1" res="-5.0089832395315170e-02" rms="4.1989564895629883e-01" purity="2.4863871932029724e-01" nType="0">
                <Node pos="l" depth="5" NCoef="0" IVar="7" Cut="4.0000000000000000e+00" cType="1" res="-6.0208354145288467e-02" rms="4.0727433562278748e-01" purity="2.2886472940444946e-01" nType="0">
                  <Node pos="l" depth="6" NCoef="0" IVar="2" Cut="1.5879850769042969e+02" cType="1" res="-8.5866957902908325e-02" rms="3.9218911528587341e-01" purity="2.0347465574741364e-01" nType="0">
                    <Node pos="l" depth="7" NCoef="0" IVar="-1" Cut="0.0000000000000000e+00" cType="1" res="-8.3984592929482460e-03" rms="4.0086051821708679e-01" purity="2.1766392886638641e-01" nType="-99"/>
                    <Node pos="r" depth="7" NCoef="0" IVar="-1" Cut="0.0000000000000000e+00" cType="1" res="-1.3410579413175583e-02" rms="3.8177341222763062e-01" purity="1.8838493525981903e-01" nType="-99"/>
                  </Node>
                  <Node pos="r" depth="6" NCoef="0" IVar="1" Cut="3.2437342405319214e-01" cType="1" res="-4.3507311493158340e-02" rms="4.1889262199401855e-01" purity="2.4700671434402466e-01" nType="0">
                    <Node pos="l" depth="7" NCoef="0" IVar="-1" Cut="0.0000000000000000e+00" cType="1" res="-2.2402286995202303e-03" rms="4.4631531834602356e-01" purity="3.0066108703613281e-01" nType="-99"/>
                    <Node pos="r" depth="7" NCoef="0" IVar="-1" Cut="0.0000000000000000e+00" cType="1" res="-8.0899838358163834e-03" rms="3.9501807093620300e-01" purity="2.0480135083198547e-01" nType="-99"/>
                  </Node>
                </Node>
                <Node pos="r" depth="5" NCoef="0" IVar="-1" Cut="0.0000000000000000e+00" cType="1" res="4.8554909881204367e-04" rms="4.6833372116088867e-01" purity="3.4639349579811096e-01" nType="-99"/>
              </Node>
            </Node>
            <Node pos="r" depth="3" NCoef="0" IVar="6" Cut="2.1635760366916656e-01" cType="1" res="-1.0014535486698151e-01" rms="2.1600373089313507e-01" purity="5.2287116646766663e-02" nType="0">
              <Node pos="l" depth="4" NCoef="0" IVar="4" Cut="2.3551132678985596e+00" cType="1" res="-1.0486757010221481e-01" rms="1.9590848684310913e-01" purity="4.2731534689664841e-02" nType="0">
                <Node pos="l" depth="5" NCoef="0" IVar="6" Cut="1.3292777538299561e-01" cType="1" res="-9.5073074102401733e-02" rms="2.5544062256813049e-01" purity="7.4674420058727264e-02" nType="0">
                  <Node pos="l" depth="6" NCoef="0" IVar="2" Cut="1.7258901977539062e+02" cType="1" res="-1.0518954694271088e-01" rms="2.3066873848438263e-01" purity="6.0065284371376038e-02" nType="0">
                    <Node pos="l" depth="7" NCoef="0" IVar="-1" Cut="0.0000000000000000e+00" cType="1" res="-1.9653379917144775e-02" rms="2.4668060243129730e-01" purity="6.9846339523792267e-02" nType="-99"/>
                    <Node pos="r" depth="7" NCoef="0" IVar="-1" Cut="0.0000000000000000e+00" cType="1" res="-2.2958779707551003e-02" rms="2.1443401277065277e-01" purity="5.1117494702339172e-02" nType="-99"/>
                  </Node>
                  <Node pos="r" depth="6" NCoef="0" IVar="-1" Cut="0.0000000000000000e+00" cType="1" res="-1.3708676211535931e-02" rms="3.0041292309761047e-01" purity="1.0583152621984482e-01" nType="-99"/>
                </Node>
                <Node pos="r" depth="5" NCoef="0" IVar="3" Cut="3.9489606022834778e-01" cType="1" res="-1.1347468942403793e-01" rms="1.2086930125951767e-01" purity="1.4661068096756935e-02" nType="0">
                  <Node pos="l" depth="6" NCoef="0" IVar="5" Cut="2.3009099960327148e+00" cType="1" res="-1.0538060963153839e-01" rms="1.1138164252042770e-01" purity="1.2610379606485367e-02" nType="0">
                    <Node pos="l" depth="7" NCoef="0" IVar="-1" Cut="0.0000000000000000e+00" cType="1" res="-2.7816222980618477e-02" rms="1.3500432670116425e-01" purity="1.8603317439556122e-02" nType="-99"/>
                    <Node pos="r" depth="7" NCoef="0" IVar="-1" Cut="0.0000000000000000e+00" cType="1" res="-3.0373977497220039e-02" rms="9.0881034731864929e-02" purity="8.3523495122790337e-03" nType="-99"/>
                  </Node>
                  <Node pos="r" depth="6" NCoef="0" IVar="-1" Cut="0.0000000000000000e+00" cType="1" res="-2.7282381430268288e-02" rms="1.3875868916511536e-01" purity="1.9460117444396019e-02" nType="-99"/>
                </Node>
              </Node>
              <Node pos="r" depth="4" NCoef="0" IVar="-1" Cut="0.0000000000000000e+00" cType="1" res="-1.2555072084069252e-02" rms="3.1869757175445557e-01" purity="1.1703255027532578e-01" nType="-99"/>
            </Node>
          </Node>
          <Node pos="r" depth="2" NCoef="0" IVar="5" Cut="-8.5891050100326538e-01" cType="1" res="-9.8099000751972198e-03" rms="4.7692212462425232e-01" purity="4.5126223564147949e-01" nType="0">
            <Node pos="l" depth="3" NCoef="0" IVar="1" Cut="8.8003325462341309e-01" cType="1" res="4.8102620057761669e-03" rms="4.8445847630500793e-01" purity="4.8426681756973267e-01" nType="0">
              <Node pos="l" depth="4" NCoef="0" IVar="3" Cut="7.2322154045104980e-01" cType="1" res="2.1102154627442360e-02" rms="4.8720219731330872e-01" purity="5.2878373861312866e-01" nType="0">
                <Node pos="l" depth="5" NCoef="0" IVar="6" Cut="6.4501978456974030e-02" cType="1" res="1.8152948468923569e-03" rms="4.9052450060844421e-01" purity="4.6841689944267273e-01" nType="0">
                  <Node pos="l" depth="6" NCoef="0" IVar="-1" Cut="0.0000000000000000e+00" cType="1" res="-3.3795323688536882e-03" rms="4.8416024446487427e-01" purity="4.0959399938583374e-01" nType="-99"/>
                  <Node pos="r" depth="6" NCoef="0" IVar="2" Cut="2.2194065856933594e+02" cType="1" res="2.7300758287310600e-02" rms="4.9303641915321350e-01" purity="5.0731778144836426e-01" nType="0">
                    <Node pos="l" depth="7" NCoef="0" IVar="-1" Cut="0.0000000000000000e+00" cType="1" res="5.1554478704929352e-03" rms="4.9104857444763184e-01" purity="5.5063199996948242e-01" nType="-99"/>
                    <Node pos="r" depth="7" NCoef="0" IVar="-1" Cut="0.0000000000000000e+00" cType="1" res="-8.3294755313545465e-04" rms="4.9237319827079773e-01" purity="4.6337652206420898e-01" nType="-99"/>
                  </Node>
                </Node>
                <Node pos="r" depth="5" NCoef="0" IVar="0" Cut="6.3379597663879395e-01" cType="1" res="4.1174162179231644e-02" rms="4.8290315270423889e-01" purity="5.9160804748535156e-01" nType="0">
                  <Node pos="l" depth="6" NCoef="0" IVar="3" Cut="8.0133318901062012e-01" cType="1" res="5.9876058250665665e-02" rms="4.7467836737632751e-01" purity="6.4555537700653076e-01" nType="0">
                    <Node pos="l" depth="7" NCoef="0" IVar="-1" Cut="0.0000000000000000e+00" cType="1" res="3.2854469027370214e-03" rms="4.8767715692520142e-01" purity="5.9854483604431152e-01" nType="-99"/>
                    <Node pos="r" depth="7" NCoef="0" IVar="-1" Cut="0.0000000000000000e+00" cType="1" res="5.9558376669883728e-03" rms="4.6526730060577393e-01" purity="6.7713510990142822e-01" nType="-99"/>
                  </Node>
                  <Node pos="r" depth="6" NCoef="0" IVar="-1" Cut="0.0000000000000000e+00" cType="1" res="1.0219553951174021e-03" rms="4.9409815669059753e-01" purity="5.0704807043075562e-01" nType="-99"/>
                </Node>
              </Node>
              <Node pos="r" depth="4" NCoef="0" IVar="3" Cut="7.7047312259674072e-01" cType="1" res="-3.5122647881507874e-02" rms="4.7531068325042725e-01" purity="3.7515193223953247e-01" nType="0">
                <Node pos="l" depth="5" NCoef="0" IVar="7" Cut="3.0000000000000000e+00" cType="1" res="-5.1494307816028595e-02" rms="4.4711646437644958e-01" purity="3.1916186213493347e-01" nType="0">
                  <Node pos="l" depth="6" NCoef="0" IVar="-1" Cut="0.0000000000000000e+00" cType="1" res="-7.4420864693820477e-03" rms="4.5706006884574890e-01" purity="3.1645253300666809e-01" nType="-99"/>
                  <Node pos="r" depth="6" NCoef="0" IVar="-1" Cut="0.0000000000000000e+00" cType="1" res="-4.0102535858750343e-03" rms="4.6399736404418945e-01" purity="3.2218495011329651e-01" nType="-99"/>
                </Node>
                <Node pos="r" depth="5" NCoef="0" IVar="-1" Cut="0.0000000000000000e+00" cType="1" res="-6.2996021006256342e-04" rms="4.9093630909919739e-01" purity="4.4290274381637573e-01" nType="-99"/>
              </Node>
            </Node>
            <Node pos="r" depth="3" NCoef="0" IVar="5" Cut="1.2199606001377106e-01" cType="1" res="-8.5507042706012726e-02" rms="4.2790731787681580e-01" purity="2.8037795424461365e-01" nType="0">
              <Node pos="l" depth="4" NCoef="0" IVar="-1" Cut="0.0000000000000000e+00" cType="1" res="-4.2185676284134388e-03" rms="4.6406638622283936e-01" purity="3.5387662053108215e-01" nType="-99"/>
              <Node pos="r" depth="4" NCoef="0" IVar="-1" Cut="0.0000000000000000e+00" cType="1" res="-1.8215859308838844e-02" rms="3.5237994790077209e-01" purity="1.6304419934749603e-01" nType="-99"/>
            </Node>
          </Node>
        </Node>
      </Node>
    </BinaryTree>
    <BinaryTree type="DecisionTree" boostWeight="1.0000000000000000e+00" itree="29">
      <Node pos="s" depth="0" NCoef="0" IVar="3" Cut="7.1610695123672485e-01" cType="1" res="1.5040560625493526e-02" rms="4.0995022654533386e-01" purity="4.9990251660346985e-01" nType="0">
        <Node pos="l" depth="1" NCoef="0" IVar="3" Cut="6.0249811410903931e-01" cType="1" res="-5.9128072112798691e-02" rms="3.7037530541419983e-01" purity="2.1276843547821045e-01" nType="0">
          <Node pos="l" depth="2" NCoef="0" IVar="5" Cut="-1.3303630352020264e+00" cType="1" res="-7.4336171150207520e-02" rms="3.2972812652587891e-01" purity="1.4468845725059509e-01" nType="0">
            <Node pos="l" depth="3" NCoef="0" IVar="6" Cut="7.7123358845710754e-02" cType="1" res="-6.2567889690399170e-02" rms="3.6771520972251892e-01" purity="1.8609835207462311e-01" nType="0">
              <Node pos="l" depth="4" NCoef="0" IVar="2" Cut="7.1789199829101562e+01" cType="1" res="-8.9881703257560730e-02" rms="3.2784378528594971e-01" purity="1.3857787847518921e-01" nType="0">
                <Node pos="l" depth="5" NCoef="0" IVar="3" Cut="4.1771623492240906e-01" cType="1" res="-6.3484579324722290e-02" rms="3.6104574799537659e-01" purity="1.7622660100460052e-01" nType="0">
                  <Node pos="l" depth="6" NCoef="0" IVar="-1" Cut="0.0000000000000000e+00" cType="1" res="-1.9263323396444321e-02" rms="2.5283563137054443e-01" purity="6.9983504712581635e-02" nType="-99"/>
                  <Node pos="r" depth="6" NCoef="0" IVar="-1" Cut="0.0000000000000000e+00" cType="1" res="-5.3953886963427067e-03" rms="4.2331892251968384e-01" purity="2.5554230809211731e-01" nType="-99"/>
                </Node>
                <Node pos="r" depth="5" NCoef="0" IVar="7" Cut="4.0000000000000000e+00" cType="1" res="-1.0157150775194168e-01" rms="3.0798053741455078e-01" purity="1.1931766569614410e-01" nType="0">
                  <Node pos="l" depth="6" NCoef="0" IVar="-1" Cut="0.0000000000000000e+00" cType="1" res="-1.8927071243524551e-02" rms="3.1553810834884644e-01" purity="1.1849669367074966e-01" nType="-99"/>
                  <Node pos="r" depth="6" NCoef="0" IVar="3" Cut="4.7149240970611572e-01" cType="1" res="-9.3510881066322327e-02" rms="3.0512028932571411e-01" purity="1.1966205388307571e-01" nType="0">
                    <Node pos="l" depth="7" NCoef="0" IVar="-1" Cut="0.0000000000000000e+00" cType="1" res="-2.1173799410462379e-02" rms="2.2966949641704559e-01" purity="5.7250238955020905e-02" nType="-99"/>
                    <Node pos="r" depth="7" NCoef="0" IVar="-1" Cut="0.0000000000000000e+00" cType="1" res="-8.5401246324181557e-03" rms="4.2055019736289978e-01" purity="2.5003466010093689e-01" nType="-99"/>
                  </Node>
                </Node>
              </Node>
              <Node pos="r" depth="4" NCoef="0" IVar="0" Cut="1.2895607948303223e+00" cType="1" res="-4.6915326267480850e-02" rms="3.8785910606384277e-01" purity="2.1333064138889313e-01" nType="0">
                <Node pos="l" depth="5" NCoef="0" IVar="1" Cut="1.7007397115230560e-01" cType="1" res="-2.3140050470829010e-02" rms="4.4938153028488159e-01" purity="3.1196272373199463e-01" nType="0">
                  <Node pos="l" depth="6" NCoef="0" IVar="4" Cut="-4.4591358304023743e-01" cType="1" res="9.9573321640491486e-03" rms="4.7415062785148621e-01" purity="3.8113746047019958e-01" nType="0">
                    <Node pos="l" depth="7" NCoef="0" IVar="-1" Cut="0.0000000000000000e+00" cType="1" res="-9.6321152523159981e-04" rms="4.7066453099250793e-01" purity="3.6575436592102051e-01" nType="-99"/>
                    <Node pos="r" depth="7" NCoef="0" IVar="-1" Cut="0.0000000000000000e+00" cType="1" res="3.1668581068515778e-03" rms="4.7709754109382629e-01" purity="3.9848968386650085e-01" nType="-99"/>
                  </Node>
                  <Node pos="r" depth="6" NCoef="0" IVar="0" Cut="5.8237159252166748e-01" cType="1" res="-4.2248301208019257e-02" rms="4.3328934907913208e-01" purity="2.7202579379081726e-01" nType="0">
                    <Node pos="l" depth="7" NCoef="0" IVar="-1" Cut="0.0000000000000000e+00" cType="1" res="-8.6715014185756445e-04" rms="4.7693866491317749e-01" purity="3.7803333997726440e-01" nType="-99"/>
                    <Node pos="r" depth="7" NCoef="0" IVar="-1" Cut="0.0000000000000000e+00" cType="1" res="-6.8348161876201630e-03" rms="4.1545996069908142e-01" purity="2.3312591016292572e-01" nType="-99"/>
                  </Node>
                </Node>
                <Node pos="r" depth="5" NCoef="0" IVar="6" Cut="1.9075311720371246e-01" cType="1" res="-6.8490698933601379e-02" rms="3.2048904895782471e-01" purity="1.2382484972476959e-01" nType="0">
                  <Node pos="l" depth="6" NCoef="0" IVar="2" Cut="1.8634925842285156e+02" cType="1" res="-7.9342156648635864e-02" rms="2.8996345400810242e-01" purity="9.7857810556888580e-02" nType="0">
                    <Node pos="l" depth="7" NCoef="0" IVar="-1" Cut="0.0000000000000000e+00" cType="1" res="-1.0903641581535339e-02" rms="3.1528484821319580e-01" purity="1.1978191137313843e-01" nType="-99"/>
                    <Node pos="r" depth="7" NCoef="0" IVar="-1" Cut="0.0000000000000000e+00" cType="1" res="-1.7614021897315979e-02" rms="2.7826330065727234e-01" purity="8.8893041014671326e-02" nType="-99"/>
                  </Node>
                  <Node pos="r" depth="6" NCoef="0" IVar="-1" Cut="0.0000000000000000e+00" cType="1" res="-5.0243930891156197e-03" rms="3.9940983057022095e-01" purity="2.0511838793754578e-01" nType="-99"/>
                </Node>
              </Node>
            </Node>
            <Node pos="r" depth="3" NCoef="0" IVar="4" Cut="-1.7947058379650116e-01" cType="1" res="-9.2623151838779449e-02" rms="2.5884678959846497e-01" purity="8.0340713262557983e-02" nType="0">
              <Node pos="l" depth="4" NCoef="0" IVar="-1" Cut="0.0000000000000000e+00" cType="1" res="-8.3223124966025352e-03" rms="3.7291395664215088e-01" purity="1.7916752398014069e-01" nType="-99"/>
              <Node pos="r" depth="4" NCoef="0" IVar="1" Cut="9.8451986908912659e-02" cType="1" res="-9.6539780497550964e-02" rms="2.4359650909900665e-01" purity="7.0055745542049408e-02" nType="0">
                <Node pos="l" depth="5" NCoef="0" IVar="5" Cut="3.9099320769309998e-01" cType="1" res="-8.1402249634265900e-02" rms="3.0448508262634277e-01" purity="1.1717728525400162e-01" nType="0">
                  <Node pos="l" depth="6" NCoef="0" IVar="-1" Cut="0.0000000000000000e+00" cType="1" res="-8.5694072768092155e-03" rms="3.6721354722976685e-01" purity="1.7809744179248810e-01" nType="-99"/>
                  <Node pos="r" depth="6" NCoef="0" IVar="-1" Cut="0.0000000000000000e+00" cType="1" res="-2.3387402296066284e-02" rms="2.0458182692527771e-01" purity="4.5499127358198166e-02" nType="-99"/>
                </Node>
                <Node pos="r" depth="5" NCoef="0" IVar="6" Cut="2.1621482074260712e-01" cType="1" res="-1.0012909024953842e-01" rms="2.2662548720836639e-01" purity="5.8882594108581543e-02" nType="0">
                  <Node pos="l" depth="6" NCoef="0" IVar="6" Cut="1.2563431262969971e-01" cType="1" res="-1.0300016403198242e-01" rms="2.1400769054889679e-01" purity="5.2742183208465576e-02" nType="0">
                    <Node pos="l" depth="7" NCoef="0" IVar="-1" Cut="0.0000000000000000e+00" cType="1" res="-2.3259593173861504e-02" rms="1.9855520129203796e-01" purity="4.5302648097276688e-02" nType="-99"/>
                    <Node pos="r" depth="7" NCoef="0" IVar="-1" Cut="0.0000000000000000e+00" cType="1" res="-2.0209750160574913e-02" rms="2.3929280042648315e-01" purity="6.6189892590045929e-02" nType="-99"/>
                  </Node>
                  <Node pos="r" depth="6" NCoef="0" IVar="-1" Cut="0.0000000000000000e+00" cType="1" res="-1.4482120051980019e-02" rms="3.0883124470710754e-01" purity="1.0815605521202087e-01" nType="-99"/>
                </Node>
              </Node>
            </Node>
          </Node>
          <Node pos="r" depth="2" NCoef="0" IVar="4" Cut="8.4834742546081543e-01" cType="1" res="-8.7801013141870499e-03" rms="4.7758543491363525e-01" purity="4.3815422058105469e-01" nType="0">
            <Node pos="l" depth="3" NCoef="0" IVar="7" Cut="3.0000000000000000e+00" cType="1" res="4.1609983891248703e-03" rms="4.8071497678756714e-01" purity="4.6509671211242676e-01" nType="0">
              <Node pos="l" depth="4" NCoef="0" IVar="6" Cut="7.6965093612670898e-02" cType="1" res="-3.5122018307447433e-02" rms="4.7830480337142944e-01" purity="4.0704753994941711e-01" nType="0">
                <Node pos="l" depth="5" NCoef="0" IVar="-1" Cut="0.0000000000000000e+00" cType="1" res="-7.8889587894082069e-03" rms="4.6264082193374634e-01" purity="3.4248632192611694e-01" nType="-99"/>
                <Node pos="r" depth="5" NCoef="0" IVar="-1" Cut="0.0000000000000000e+00" cType="1" res="8.0448249354958534e-04" rms="4.8833891749382019e-01" purity="4.6747502684593201e-01" nType="-99"/>
              </Node>
              <Node pos="r" depth="4" NCoef="0" IVar="1" Cut="1.9675347954034805e-02" cType="1" res="1.4752679504454136e-02" rms="4.8763328790664673e-01" purity="4.8734214901924133e-01" nType="0">
                <Node pos="l" depth="5" NCoef="0" IVar="2" Cut="1.4421174621582031e+02" cType="1" res="4.8558071255683899e-02" rms="4.8915317654609680e-01" purity="5.6898438930511475e-01" nType="0">
                  <Node pos="l" depth="6" NCoef="0" IVar="-1" Cut="0.0000000000000000e+00" cType="1" res="6.2917890027165413e-03" rms="4.8397430777549744e-01" purity="6.0320943593978882e-01" nType="-99"/>
                  <Node pos="r" depth="6" NCoef="0" IVar="-1" Cut="0.0000000000000000e+00" cType="1" res="2.0114451181143522e-03" rms="4.9242100119590759e-01" purity="5.3776234388351440e-01" nType="-99"/>
                </Node>
                <Node pos="r" depth="5" NCoef="0" IVar="6" Cut="6.5491765737533569e-02" cType="1" res="-5.4415022023022175e-03" rms="4.8560157418251038e-01" purity="4.3857178092002869e-01" nType="0">
                  <Node pos="l" depth="6" NCoef="0" IVar="-1" Cut="0.0000000000000000e+00" cType="1" res="-3.0089034698903561e-03" rms="4.8113828897476196e-01" purity="4.0023672580718994e-01" nType="-99"/>
                  <Node pos="r" depth="6" NCoef="0" IVar="6" Cut="9.1809496283531189e-02" cType="1" res="1.9449053332209587e-02" rms="4.8849409818649292e-01" purity="4.7491520643234253e-01" nType="0">
                    <Node pos="l" depth="7" NCoef="0" IVar="-1" Cut="0.0000000000000000e+00" cType="1" res="1.5962723409757018e-03" rms="4.8835691809654236e-01" purity="4.7227081656455994e-01" nType="-99"/>
                    <Node pos="r" depth="7" NCoef="0" IVar="-1" Cut="0.0000000000000000e+00" cType="1" res="1.8971015233546495e-03" rms="4.8862639069557190e-01" purity="4.7759312391281128e-01" nType="-99"/>
                  </Node>
                </Node>
              </Node>
            </Node>
            <Node pos="r" depth="3" NCoef="0" IVar="-1" Cut="0.0000000000000000e+00" cType="1" res="-9.0772444382309914e-03" rms="4.0657830238342285e-01" purity="2.3897476494312286e-01" nType="-99"/>
          </Node>
        </Node>
        <Node pos="r" depth="1" NCoef="0" IVar="0" Cut="6.4409762620925903e-01" cType="1" res="7.1070030331611633e-02" rms="4.2906066775321960e-01" purity="7.1681314706802368e-01" nType="0">
          <Node pos="l" depth="2" NCoef="0" IVar="5" Cut="-2.0338079929351807e+00" cType="1" res="7.8581497073173523e-02" rms="4.2403444647789001e-01" purity="7.3859006166458130e-01" nType="0">
            <Node pos="l" depth="3" NCoef="0" IVar="1" Cut="7.6739120483398438e-01" cType="1" res="9.3702331185340881e-02" rms="4.0500864386558533e-01" purity="7.7926993370056152e-01" nType="0">
              <Node pos="l" depth="4" NCoef="0" IVar="3" Cut="8.8079732656478882e-01" cType="1" res="1.0244023054838181e-01" rms="3.9088252186775208e-01" purity="8.0432170629501343e-01" nType="0">
                <Node pos="l" depth="5" NCoef="0" IVar="1" Cut="1.6562654078006744e-01" cType="1" res="7.5457461178302765e-02" rms="4.4383028149604797e-01" purity="7.2225612401962280e-01" nType="0">
                  <Node pos="l" depth="6" NCoef="0" IVar="6" Cut="3.1339567154645920e-02" cType="1" res="8.6906500160694122e-02" rms="4.3272680044174194e-01" purity="7.4530047178268433e-01" nType="0">
                    <Node pos="l" depth="7" NCoef="0" IVar="-1" Cut="0.0000000000000000e+00" cType="1" res="6.2285689637064934e-03" rms="4.3880417943000793e-01" purity="7.3413002490997314e-01" nType="-99"/>
                    <Node pos="r" depth="7" NCoef="0" IVar="-1" Cut="0.0000000000000000e+00" cType="1" res="8.2207396626472473e-03" rms="4.2966777086257935e-01" purity="7.5038087368011475e-01" nType="-99"/>
                  </Node>
                  <Node pos="r" depth="6" NCoef="0" IVar="6" Cut="4.7026187181472778e-02" cType="1" res="5.1946245133876801e-02" rms="4.6491968631744385e-01" purity="6.7493343353271484e-01" nType="0">
                    <Node pos="l" depth="7" NCoef="0" IVar="-1" Cut="0.0000000000000000e+00" cType="1" res="3.1778020784258842e-03" rms="4.6812847256660461e-01" purity="6.6482186317443848e-01" nType="-99"/>
                    <Node pos="r" depth="7" NCoef="0" IVar="-1" Cut="0.0000000000000000e+00" cType="1" res="6.1945049092173576e-03" rms="4.5945113897323608e-01" purity="6.8901115655899048e-01" nType="-99"/>
                  </Node>
                </Node>
                <Node pos="r" depth="5" NCoef="0" IVar="5" Cut="-2.6948535442352295e+00" cType="1" res="1.1327367275953293e-01" rms="3.6692631244659424e-01" purity="8.3727055788040161e-01" nType="0">
                  <Node pos="l" depth="6" NCoef="0" IVar="4" Cut="-1.1419150829315186e+00" cType="1" res="1.2120832502841949e-01" rms="3.5384243726730347e-01" purity="8.5156315565109253e-01" nType="0">
                    <Node pos="l" depth="7" NCoef="0" IVar="-1" Cut="0.0000000000000000e+00" cType="1" res="9.7089186310768127e-03" rms="3.8316562771797180e-01" purity="8.1980401277542114e-01" nType="-99"/>
                    <Node pos="r" depth="7" NCoef="0" IVar="-1" Cut="0.0000000000000000e+00" cType="1" res="1.2613962404429913e-02" rms="3.4097617864608765e-01" purity="8.6454331874847412e-01" nType="-99"/>
                  </Node>
                  <Node pos="r" depth="6" NCoef="0" IVar="4" Cut="-7.8429675102233887e-01" cType="1" res="9.9643588066101074e-02" rms="3.8799557089805603e-01" purity="8.1271898746490479e-01" nType="0">
                    <Node pos="l" depth="7" NCoef="0" IVar="-1" Cut="0.0000000000000000e+00" cType="1" res="8.0816671252250671e-03" rms="4.0395858883857727e-01" purity="7.9155480861663818e-01" nType="-99"/>
                    <Node pos="r" depth="7" NCoef="0" IVar="-1" Cut="0.0000000000000000e+00" cType="1" res="1.0439043864607811e-02" rms="3.7586167454719543e-01" purity="8.2797920703887939e-01" nType="-99"/>
                  </Node>
                </Node>
              </Node>
              <Node pos="r" depth="4" NCoef="0" IVar="3" Cut="9.5987474918365479e-01" cType="1" res="5.2175603806972504e-02" rms="4.6408638358116150e-01" purity="6.6021215915679932e-01" nType="0">
                <Node pos="l" depth="5" NCoef="0" IVar="6" Cut="3.0096532776951790e-02" cType="1" res="1.8727751448750496e-02" rms="4.8904529213905334e-01" purity="5.7578879594802856e-01" nType="0">
                  <Node pos="l" depth="6" NCoef="0" IVar="-1" Cut="0.0000000000000000e+00" cType="1" res="-1.1502559063956141e-03" rms="4.9110221862792969e-01" purity="5.5966788530349731e-01" nType="-99"/>
                  <Node pos="r" depth="6" NCoef="0" IVar="-1" Cut="0.0000000000000000e+00" cType="1" res="3.1066252849996090e-03" rms="4.8687234520912170e-01" purity="5.8525145053863525e-01" nType="-99"/>
                </Node>
                <Node pos="r" depth="5" NCoef="0" IVar="4" Cut="-6.6685980558395386e-01" cType="1" res="7.7250562608242035e-02" rms="4.4280320405960083e-01" purity="7.2350203990936279e-01" nType="0">
                  <Node pos="l" depth="6" NCoef="0" IVar="-1" Cut="0.0000000000000000e+00" cType="1" res="3.8616617675870657e-03" rms="4.6291497349739075e-01" purity="6.7852956056594849e-01" nType="-99"/>
                  <Node pos="r" depth="6" NCoef="0" IVar="-1" Cut="0.0000000000000000e+00" cType="1" res="8.3903167396783829e-03" rms="4.2780154943466187e-01" purity="7.5368344783782959e-01" nType="-99"/>
                </Node>
              </Node>
            </Node>
            <Node pos="r" depth="3" NCoef="0" IVar="4" Cut="1.0193259716033936e+00" cType="1" res="4.2001333087682724e-02" rms="4.6483588218688965e-01" purity="6.4017766714096069e-01" nType="0">
              <Node pos="l" depth="4" NCoef="0" IVar="1" Cut="6.8399065732955933e-01" cType="1" res="5.0575014203786850e-02" rms="4.6266081929206848e-01" purity="6.5713298320770264e-01" nType="0">
                <Node pos="l" depth="5" NCoef="0" IVar="0" Cut="1.8690739572048187e-01" cType="1" res="6.3638724386692047e-02" rms="4.5411288738250732e-01" purity="6.9176524877548218e-01" nType="0">
                  <Node pos="l" depth="6" NCoef="0" IVar="1" Cut="-1.8560440838336945e-01" cType="1" res="7.4137181043624878e-02" rms="4.4320636987686157e-01" purity="7.2033417224884033e-01" nType="0">
                    <Node pos="l" depth="7" NCoef="0" IVar="-1" Cut="0.0000000000000000e+00" cType="1" res="7.9852966591715813e-03" rms="4.2784532904624939e-01" purity="7.5111317634582520e-01" nType="-99"/>
                    <Node pos="r" depth="7" NCoef="0" IVar="-1" Cut="0.0000000000000000e+00" cType="1" res="5.6404168717563152e-03" rms="4.5130333304405212e-01" purity="7.0301127433776855e-01" nType="-99"/>
                  </Node>
                  <Node pos="r" depth="6" NCoef="0" IVar="3" Cut="7.9867595434188843e-01" cType="1" res="3.2287202775478363e-02" rms="4.8387220501899719e-01" purity="6.0644984245300293e-01" nType="0">
                    <Node pos="l" depth="7" NCoef="0" IVar="-1" Cut="0.0000000000000000e+00" cType="1" res="1.7479833913967013e-03" rms="4.8870000243186951e-01" purity="5.7498550415039062e-01" nType="-99"/>
                    <Node pos="r" depth="7" NCoef="0" IVar="-1" Cut="0.0000000000000000e+00" cType="1" res="3.9007649756968021e-03" rms="4.7918555140495300e-01" purity="6.3493275642395020e-01" nType="-99"/>
                  </Node>
                </Node>
                <Node pos="r" depth="5" NCoef="0" IVar="1" Cut="1.5823687314987183e+00" cType="1" res="1.4913791092112660e-03" rms="4.9035534262657166e-01" purity="5.2701097726821899e-01" nType="0">
                  <Node pos="l" depth="6" NCoef="0" IVar="-1" Cut="0.0000000000000000e+00" cType="1" res="1.7275102436542511e-03" rms="4.8809823393821716e-01" purity="5.6108552217483521e-01" nType="-99"/>
                  <Node pos="r" depth="6" NCoef="0" IVar="-1" Cut="0.0000000000000000e+00" cType="1" res="-2.9842080548405647e-03" rms="4.9261501431465149e-01" purity="4.6240529417991638e-01" nType="-99"/>
                </Node>
              </Node>
              <Node pos="r" depth="4" NCoef="0" IVar="-1" Cut="0.0000000000000000e+00" cType="1" res="-5.8255884796380997e-03" rms="4.7839897871017456e-01" purity="4.3103766441345215e-01" nType="-99"/>
            </Node>
          </Node>
          <Node pos="r" depth="2" NCoef="0" IVar="2" Cut="5.7858306884765625e+01" cType="1" res="-3.2121520489454269e-02" rms="4.8122248053550720e-01" purity="4.1764491796493530e-01" nType="0">
            <Node pos="l" depth="3" NCoef="0" IVar="4" Cut="-5.1914560794830322e-01" cType="1" res="-9.0660853311419487e-04" rms="4.8967021703720093e-01" purity="4.6547302603721619e-01" nType="0">
              <Node pos="l" depth="4" NCoef="0" IVar="-1" Cut="0.0000000000000000e+00" cType="1" res="9.5478084404021502e-05" rms="4.9246430397033691e-01" purity="4.7404497861862183e-01" nType="-99"/>
              <Node pos="r" depth="4" NCoef="0" IVar="-1" Cut="0.0000000000000000e+00" cType="1" res="-2.7947494527325034e-04" rms="4.8660695552825928e-01" purity="4.5616021752357483e-01" nType="-99"/>
            </Node>
            <Node pos="r" depth="3" NCoef="0" IVar="-1" Cut="0.0000000000000000e+00" cType="1" res="-7.6146274805068970e-03" rms="4.6472385525703430e-01" purity="3.4728890657424927e-01" nType="-99"/>
          </Node>
        </Node>
      </Node>
    </BinaryTree>
    <BinaryTree type="DecisionTree" boostWeight="1.0000000000000000e+00" itree="30">
      <Node pos="s" depth="0" NCoef="0" IVar="3" Cut="7.7810263633728027e-01" cType="1" res="1.5198756940662861e-02" rms="4.0931442379951477e-01" purity="4.9979820847511292e-01" nType="0">
        <Node pos="l" depth="1" NCoef="0" IVar="3" Cut="6.0491538047790527e-01" cType="1" res="-4.7432385385036469e-02" rms="3.8704162836074829e-01" purity="2.5700810551643372e-01" nType="0">
          <Node pos="l" depth="2" NCoef="0" IVar="4" Cut="1.6150026321411133e+00" cType="1" res="-6.9545909762382507e-02" rms="3.3158123493194580e-01" purity="1.4661115407943726e-01" nType="0">
            <Node pos="l" depth="3" NCoef="0" IVar="1" Cut="-2.3116573691368103e-01" cType="1" res="-6.2414094805717468e-02" rms="3.6041542887687683e-01" purity="1.7579765617847443e-01" nType="0">
              <Node pos="l" depth="4" NCoef="0" IVar="6" Cut="1.0062301158905029e-01" cType="1" res="-1.8687434494495392e-02" rms="4.2957377433776855e-01" purity="2.8410807251930237e-01" nType="0">
                <Node pos="l" depth="5" NCoef="0" IVar="-1" Cut="0.0000000000000000e+00" cType="1" res="-5.0257765688002110e-03" rms="4.1269853711128235e-01" purity="2.5445246696472168e-01" nType="-99"/>
                <Node pos="r" depth="5" NCoef="0" IVar="-1" Cut="0.0000000000000000e+00" cType="1" res="5.0444778025848791e-06" rms="4.4282421469688416e-01" purity="3.0980330705642700e-01" nType="-99"/>
              </Node>
              <Node pos="r" depth="4" NCoef="0" IVar="1" Cut="7.5875312089920044e-01" cType="1" res="-6.7826583981513977e-02" rms="3.5052916407585144e-01" purity="1.6239099204540253e-01" nType="0">
                <Node pos="l" depth="5" NCoef="0" IVar="6" Cut="1.1393849551677704e-01" cType="1" res="-5.2205853164196014e-02" rms="3.8442897796630859e-01" purity="2.0840513706207275e-01" nType="0">
                  <Node pos="l" depth="6" NCoef="0" IVar="2" Cut="1.2977668762207031e+02" cType="1" res="-6.8565264344215393e-02" rms="3.6475777626037598e-01" purity="1.8187086284160614e-01" nType="0">
                    <Node pos="l" depth="7" NCoef="0" IVar="-1" Cut="0.0000000000000000e+00" cType="1" res="-6.1424202285706997e-03" rms="3.9061695337295532e-01" purity="2.1910081803798676e-01" nType="-99"/>
                    <Node pos="r" depth="7" NCoef="0" IVar="-1" Cut="0.0000000000000000e+00" cType="1" res="-1.2662581168115139e-02" rms="3.4226685762405396e-01" purity="1.5289843082427979e-01" nType="-99"/>
                  </Node>
                  <Node pos="r" depth="6" NCoef="0" IVar="2" Cut="2.6139718627929688e+02" cType="1" res="-2.8888860717415810e-02" rms="4.0971410274505615e-01" purity="2.4622437357902527e-01" nType="0">
                    <Node pos="l" depth="7" NCoef="0" IVar="-1" Cut="0.0000000000000000e+00" cType="1" res="2.2772992961108685e-03" rms="4.4133147597312927e-01" purity="3.1533417105674744e-01" nType="-99"/>
                    <Node pos="r" depth="7" NCoef="0" IVar="-1" Cut="0.0000000000000000e+00" cType="1" res="-6.4831972122192383e-03" rms="3.9507409930229187e-01" purity="2.1920792758464813e-01" nType="-99"/>
                  </Node>
                </Node>
                <Node pos="r" depth="5" NCoef="0" IVar="2" Cut="1.3989646911621094e+02" cType="1" res="-8.1730626523494720e-02" rms="3.1667542457580566e-01" purity="1.2143370509147644e-01" nType="0">
                  <Node pos="l" depth="6" NCoef="0" IVar="6" Cut="8.3686523139476776e-02" cType="1" res="-6.8727090954780579e-02" rms="3.2202881574630737e-01" purity="1.2669888138771057e-01" nType="0">
                    <Node pos="l" depth="7" NCoef="0" IVar="-1" Cut="0.0000000000000000e+00" cType="1" res="-1.4437760226428509e-02" rms="3.0513992905616760e-01" purity="1.1031054705381393e-01" nType="-99"/>
                    <Node pos="r" depth="7" NCoef="0" IVar="-1" Cut="0.0000000000000000e+00" cType="1" res="-7.0889554917812347e-03" rms="3.6012554168701172e-01" purity="1.6833309829235077e-01" nType="-99"/>
                  </Node>
                  <Node pos="r" depth="6" NCoef="0" IVar="6" Cut="1.3305950164794922e-01" cType="1" res="-8.8405534625053406e-02" rms="3.1368270516395569e-01" purity="1.1873100697994232e-01" nType="0">
                    <Node pos="l" depth="7" NCoef="0" IVar="-1" Cut="0.0000000000000000e+00" cType="1" res="-1.8557077273726463e-02" rms="2.7587074041366577e-01" purity="8.8598094880580902e-02" nType="-99"/>
                    <Node pos="r" depth="7" NCoef="0" IVar="-1" Cut="0.0000000000000000e+00" cType="1" res="-1.1836406774818897e-02" rms="3.5038530826568604e-01" purity="1.5217649936676025e-01" nType="-99"/>
                  </Node>
                </Node>
              </Node>
            </Node>
            <Node pos="r" depth="3" NCoef="0" IVar="6" Cut="1.1610652506351471e-01" cType="1" res="-9.6087828278541565e-02" rms="1.8653187155723572e-01" purity="3.7989962846040726e-02" nType="0">
              <Node pos="l" depth="4" NCoef="0" IVar="0" Cut="1.2898216247558594e+00" cType="1" res="-1.0429248213768005e-01" rms="1.3958123326301575e-01" purity="2.0752772688865662e-02" nType="0">
                <Node pos="l" depth="5" NCoef="0" IVar="-1" Cut="0.0000000000000000e+00" cType="1" res="-2.3066397756338120e-02" rms="1.9663676619529724e-01" purity="4.2508762329816818e-02" nType="-99"/>
                <Node pos="r" depth="5" NCoef="0" IVar="2" Cut="1.3303794860839844e+02" cType="1" res="-9.8222061991691589e-02" rms="1.0247233510017395e-01" purity="1.0697913356125355e-02" nType="0">
                  <Node pos="l" depth="6" NCoef="0" IVar="-1" Cut="0.0000000000000000e+00" cType="1" res="-2.9680103063583374e-02" rms="1.0975555330514908e-01" purity="1.2439592741429806e-02" nType="-99"/>
                  <Node pos="r" depth="6" NCoef="0" IVar="-1" Cut="0.0000000000000000e+00" cType="1" res="-2.8450358659029007e-02" rms="9.6644289791584015e-02" purity="9.3965558335185051e-03" nType="-99"/>
                </Node>
              </Node>
              <Node pos="r" depth="4" NCoef="0" IVar="5" Cut="1.3996984958648682e+00" cType="1" res="-8.7879382073879242e-02" rms="2.2355695068836212e-01" purity="5.5235125124454498e-02" nType="0">
                <Node pos="l" depth="5" NCoef="0" IVar="-1" Cut="0.0000000000000000e+00" cType="1" res="-1.6465047374367714e-02" rms="2.6287651062011719e-01" purity="7.8118816018104553e-02" nType="-99"/>
                <Node pos="r" depth="5" NCoef="0" IVar="-1" Cut="0.0000000000000000e+00" cType="1" res="-2.3933926597237587e-02" rms="1.8548595905303955e-01" purity="3.6834970116615295e-02" nType="-99"/>
              </Node>
            </Node>
          </Node>
          <Node pos="r" depth="2" NCoef="0" IVar="5" Cut="-7.1163868904113770e-01" cType="1" res="-1.6552719753235579e-03" rms="4.7874557971954346e-01" purity="4.8554036021232605e-01" nType="0">
            <Node pos="l" depth="3" NCoef="0" IVar="1" Cut="4.4938945770263672e-01" cType="1" res="1.0729481466114521e-02" rms="4.8408856987953186e-01" purity="5.1615977287292480e-01" nType="0">
              <Node pos="l" depth="4" NCoef="0" IVar="6" Cut="8.5104256868362427e-02" cType="1" res="3.4124203026294708e-02" rms="4.8437213897705078e-01" purity="5.7823163270950317e-01" nType="0">
                <Node pos="l" depth="5" NCoef="0" IVar="2" Cut="7.9948501586914062e+01" cType="1" res="2.2604376077651978e-02" rms="4.8450440168380737e-01" purity="5.7088869810104370e-01" nType="0">
                  <Node pos="l" depth="6" NCoef="0" IVar="6" Cut="3.3261965960264206e-02" cType="1" res="4.7292087227106094e-02" rms="4.7962561249732971e-01" purity="6.0318040847778320e-01" nType="0">
                    <Node pos="l" depth="7" NCoef="0" IVar="-1" Cut="0.0000000000000000e+00" cType="1" res="5.3879572078585625e-04" rms="4.8592159152030945e-01" purity="5.6012761592864990e-01" nType="-99"/>
                    <Node pos="r" depth="7" NCoef="0" IVar="-1" Cut="0.0000000000000000e+00" cType="1" res="6.3516777008771896e-03" rms="4.7181376814842224e-01" purity="6.3817566633224487e-01" nType="-99"/>
                  </Node>
                  <Node pos="r" depth="6" NCoef="0" IVar="3" Cut="7.3899006843566895e-01" cType="1" res="6.2697497196495533e-03" rms="4.8701813817024231e-01" purity="5.4952293634414673e-01" nType="0">
                    <Node pos="l" depth="7" NCoef="0" IVar="-1" Cut="0.0000000000000000e+00" cType="1" res="-5.5164023069664836e-04" rms="4.9138954281806946e-01" purity="5.1156598329544067e-01" nType="-99"/>
                    <Node pos="r" depth="7" NCoef="0" IVar="-1" Cut="0.0000000000000000e+00" cType="1" res="3.0046030879020691e-03" rms="4.7604656219482422e-01" purity="6.3363230228424072e-01" nType="-99"/>
                  </Node>
                </Node>
                <Node pos="r" depth="5" NCoef="0" IVar="3" Cut="6.7196398973464966e-01" cType="1" res="6.5372139215469360e-02" rms="4.8263072967529297e-01" purity="5.9814959764480591e-01" nType="0">
                  <Node pos="l" depth="6" NCoef="0" IVar="-1" Cut="0.0000000000000000e+00" cType="1" res="3.3867643214762211e-03" rms="4.9238514900207520e-01" purity="5.4190361499786377e-01" nType="-99"/>
                  <Node pos="r" depth="6" NCoef="0" IVar="-1" Cut="0.0000000000000000e+00" cType="1" res="7.2529506869614124e-03" rms="4.7266599535942078e-01" purity="6.4796364307403564e-01" nType="-99"/>
                </Node>
              </Node>
              <Node pos="r" depth="4" NCoef="0" IVar="6" Cut="7.6479136943817139e-02" cType="1" res="-2.8416732326149940e-02" rms="4.8107585310935974e-01" purity="4.1229540109634399e-01" nType="0">
                <Node pos="l" depth="5" NCoef="0" IVar="4" Cut="-6.3688063621520996e-01" cType="1" res="-4.8839781433343887e-02" rms="4.7642186284065247e-01" purity="3.9219993352890015e-01" nType="0">
                  <Node pos="l" depth="6" NCoef="0" IVar="6" Cut="4.4679220765829086e-02" cType="1" res="-2.8926987200975418e-02" rms="4.8338562250137329e-01" purity="4.2320185899734497e-01" nType="0">
                    <Node pos="l" depth="7" NCoef="0" IVar="-1" Cut="0.0000000000000000e+00" cType="1" res="-4.8684738576412201e-03" rms="4.7965776920318604e-01" purity="4.0015903115272522e-01" nType="-99"/>
                    <Node pos="r" depth="7" NCoef="0" IVar="-1" Cut="0.0000000000000000e+00" cType="1" res="-6.0565699823200703e-04" rms="4.8593148589134216e-01" purity="4.4547641277313232e-01" nType="-99"/>
                  </Node>
                  <Node pos="r" depth="6" NCoef="0" IVar="-1" Cut="0.0000000000000000e+00" cType="1" res="-7.7407308854162693e-03" rms="4.6383580565452576e-01" purity="3.4449443221092224e-01" nType="-99"/>
                </Node>
                <Node pos="r" depth="5" NCoef="0" IVar="-1" Cut="0.0000000000000000e+00" cType="1" res="8.2827761070802808e-04" rms="4.8730382323265076e-01" purity="4.4936135411262512e-01" nType="-99"/>
              </Node>
            </Node>
            <Node pos="r" depth="3" NCoef="0" IVar="3" Cut="6.8873172998428345e-01" cType="1" res="-8.7206147611141205e-02" rms="4.3044432997703552e-01" purity="2.7402928471565247e-01" nType="0">
              <Node pos="l" depth="4" NCoef="0" IVar="-1" Cut="0.0000000000000000e+00" cType="1" res="-9.3243392184376717e-03" rms="4.0460774302482605e-01" purity="2.2858813405036926e-01" nType="-99"/>
              <Node pos="r" depth="4" NCoef="0" IVar="-1" Cut="0.0000000000000000e+00" cType="1" res="-9.3663735315203667e-03" rms="4.5522794127464294e-01" purity="3.2046595215797424e-01" nType="-99"/>
            </Node>
          </Node>
        </Node>
        <Node pos="r" depth="1" NCoef="0" IVar="0" Cut="6.2814217805862427e-01" cType="1" res="7.6423496007919312e-02" rms="4.2106297612190247e-01" purity="7.3713630437850952e-01" nType="0">
          <Node pos="l" depth="2" NCoef="0" IVar="5" Cut="-1.6947140693664551e+00" cType="1" res="8.3239719271659851e-02" rms="4.1561079025268555e-01" purity="7.5809466838836670e-01" nType="0">
            <Node pos="l" depth="3" NCoef="0" IVar="1" Cut="4.9003392457962036e-01" cType="1" res="9.3296766281127930e-02" rms="4.0153276920318604e-01" purity="7.8728556632995605e-01" nType="0">
              <Node pos="l" depth="4" NCoef="0" IVar="3" Cut="8.9562571048736572e-01" cType="1" res="1.0267078876495361e-01" rms="3.8239207863807678e-01" purity="8.1755423545837402e-01" nType="0">
                <Node pos="l" depth="5" NCoef="0" IVar="6" Cut="3.3292848616838455e-02" cType="1" res="8.1130400300025940e-02" rms="4.2668765783309937e-01" purity="7.5634765625000000e-01" nType="0">
                  <Node pos="l" depth="6" NCoef="0" IVar="4" Cut="-2.4326152801513672e+00" cType="1" res="6.5576061606407166e-02" rms="4.3187391757965088e-01" purity="7.4621516466140747e-01" nType="0">
                    <Node pos="l" depth="7" NCoef="0" IVar="-1" Cut="0.0000000000000000e+00" cType="1" res="8.0634830519556999e-03" rms="4.1848781704902649e-01" purity="7.7012085914611816e-01" nType="-99"/>
                    <Node pos="r" depth="7" NCoef="0" IVar="-1" Cut="0.0000000000000000e+00" cType="1" res="4.7860699705779552e-03" rms="4.4158551096916199e-01" purity="7.2738456726074219e-01" nType="-99"/>
                  </Node>
                  <Node pos="r" depth="6" NCoef="0" IVar="2" Cut="9.7503440856933594e+01" cType="1" res="9.1852046549320221e-02" rms="4.2274266481399536e-01" purity="7.6333206892013550e-01" nType="0">
                    <Node pos="l" depth="7" NCoef="0" IVar="-1" Cut="0.0000000000000000e+00" cType="1" res="9.7303241491317749e-03" rms="4.0382373332977295e-01" purity="7.9149013757705688e-01" nType="-99"/>
                    <Node pos="r" depth="7" NCoef="0" IVar="-1" Cut="0.0000000000000000e+00" cType="1" res="6.7660235799849033e-03" rms="4.3499195575714111e-01" purity="7.4278783798217773e-01" nType="-99"/>
                  </Node>
                </Node>
                <Node pos="r" depth="5" NCoef="0" IVar="0" Cut="2.0257771015167236e-01" cType="1" res="1.1084409058094025e-01" rms="3.6384364962577820e-01" purity="8.4077852964401245e-01" nType="0">
                  <Node pos="l" depth="6" NCoef="0" IVar="4" Cut="-9.3666821718215942e-01" cType="1" res="1.1361176520586014e-01" rms="3.5804587602615356e-01" purity="8.4772574901580811e-01" nType="0">
                    <Node pos="l" depth="7" NCoef="0" IVar="-1" Cut="0.0000000000000000e+00" cType="1" res="9.1343112289905548e-03" rms="3.8160768151283264e-01" purity="8.2189720869064331e-01" nType="-99"/>
                    <Node pos="r" depth="7" NCoef="0" IVar="-1" Cut="0.0000000000000000e+00" cType="1" res="1.2131491675972939e-02" rms="3.4513711929321289e-01" purity="8.6099284887313843e-01" nType="-99"/>
                  </Node>
                  <Node pos="r" depth="6" NCoef="0" IVar="-1" Cut="0.0000000000000000e+00" cType="1" res="6.6860159859061241e-03" rms="4.3277329206466675e-01" purity="7.4715316295623779e-01" nType="-99"/>
                </Node>
              </Node>
              <Node pos="r" depth="4" NCoef="0" IVar="4" Cut="-9.2197668552398682e-01" cType="1" res="6.6106557846069336e-02" rms="4.5139482617378235e-01" purity="6.9948852062225342e-01" nType="0">
                <Node pos="l" depth="5" NCoef="0" IVar="1" Cut="1.7154035568237305e+00" cType="1" res="4.7810297459363937e-02" rms="4.7037258744239807e-01" purity="6.5588533878326416e-01" nType="0">
                  <Node pos="l" depth="6" NCoef="0" IVar="6" Cut="3.3956699073314667e-02" cType="1" res="5.8304198086261749e-02" rms="4.6387109160423279e-01" purity="6.7782753705978394e-01" nType="0">
                    <Node pos="l" depth="7" NCoef="0" IVar="-1" Cut="0.0000000000000000e+00" cType="1" res="3.9242915809154510e-03" rms="4.6313101053237915e-01" purity="6.7797535657882690e-01" nType="-99"/>
                    <Node pos="r" depth="7" NCoef="0" IVar="-1" Cut="0.0000000000000000e+00" cType="1" res="6.7617981694638729e-03" rms="4.6460920572280884e-01" purity="6.7750704288482666e-01" nType="-99"/>
                  </Node>
                  <Node pos="r" depth="6" NCoef="0" IVar="-1" Cut="0.0000000000000000e+00" cType="1" res="1.2557363370433450e-03" rms="4.8837625980377197e-01" purity="5.8856517076492310e-01" nType="-99"/>
                </Node>
                <Node pos="r" depth="5" NCoef="0" IVar="5" Cut="-2.6081738471984863e+00" cType="1" res="8.3063416182994843e-02" rms="4.3237373232841492e-01" purity="7.3989975452423096e-01" nType="0">
                  <Node pos="l" depth="6" NCoef="0" IVar="1" Cut="1.1032521724700928e+00" cType="1" res="1.0004708170890808e-01" rms="4.1556057333946228e-01" purity="7.7314746379852295e-01" nType="0">
                    <Node pos="l" depth="7" NCoef="0" IVar="-1" Cut="0.0000000000000000e+00" cType="1" res="9.6537098288536072e-03" rms="3.9697033166885376e-01" purity="8.0131477117538452e-01" nType="-99"/>
                    <Node pos="r" depth="7" NCoef="0" IVar="-1" Cut="0.0000000000000000e+00" cType="1" res="7.6706679537892342e-03" rms="4.3904897570610046e-01" purity="7.3544585704803467e-01" nType="-99"/>
                  </Node>
                  <Node pos="r" depth="6" NCoef="0" IVar="-1" Cut="0.0000000000000000e+00" cType="1" res="5.0708632916212082e-03" rms="4.5430544018745422e-01" purity="6.9219845533370972e-01" nType="-99"/>
                </Node>
              </Node>
            </Node>
            <Node pos="r" depth="3" NCoef="0" IVar="1" Cut="7.4974572658538818e-01" cType="1" res="3.8047663867473602e-02" rms="4.7109290957450867e-01" purity="6.2692302465438843e-01" nType="0">
              <Node pos="l" depth="4" NCoef="0" IVar="1" Cut="2.6152160018682480e-02" cType="1" res="5.4254561662673950e-02" rms="4.6436369419097900e-01" purity="6.6404533386230469e-01" nType="0">
                <Node pos="l" depth="5" NCoef="0" IVar="4" Cut="-4.2779061198234558e-01" cType="1" res="7.4374757707118988e-02" rms="4.5355471968650818e-01" purity="6.9782173633575439e-01" nType="0">
                  <Node pos="l" depth="6" NCoef="0" IVar="-1" Cut="0.0000000000000000e+00" cType="1" res="5.2958847954869270e-03" rms="4.5666691660881042e-01" purity="6.9712233543395996e-01" nType="-99"/>
                  <Node pos="r" depth="6" NCoef="0" IVar="-1" Cut="0.0000000000000000e+00" cType="1" res="7.6008969917893410e-03" rms="4.5055451989173889e-01" purity="6.9841736555099487e-01" nType="-99"/>
                </Node>
                <Node pos="r" depth="5" NCoef="0" IVar="3" Cut="9.2657595872879028e-01" cType="1" res="2.9968339949846268e-02" rms="4.7595304250717163e-01" purity="6.2327522039413452e-01" nType="0">
                  <Node pos="l" depth="6" NCoef="0" IVar="-1" Cut="0.0000000000000000e+00" cType="1" res="6.7797146039083600e-04" rms="4.8679056763648987e-01" purity="5.7436066865921021e-01" nType="-99"/>
                  <Node pos="r" depth="6" NCoef="0" IVar="-1" Cut="0.0000000000000000e+00" cType="1" res="4.4121760874986649e-03" rms="4.6452927589416504e-01" purity="6.6937416791915894e-01" nType="-99"/>
                </Node>
              </Node>
              <Node pos="r" depth="4" NCoef="0" IVar="-1" Cut="0.0000000000000000e+00" cType="1" res="-2.5719248224049807e-03" rms="4.9249339103698730e-01" purity="4.7179257869720459e-01" nType="-99"/>
            </Node>
          </Node>
          <Node pos="r" depth="2" NCoef="0" IVar="5" Cut="-1.7821694612503052e+00" cType="1" res="-2.3429159075021744e-02" rms="4.8318585753440857e-01" purity="4.3011271953582764e-01" nType="0">
            <Node pos="l" depth="3" NCoef="0" IVar="4" Cut="-9.2399513721466064e-01" cType="1" res="3.7577429320663214e-03" rms="4.9260139465332031e-01" purity="4.7829282283782959e-01" nType="0">
              <Node pos="l" depth="4" NCoef="0" IVar="-1" Cut="0.0000000000000000e+00" cType="1" res="-1.6004476929083467e-03" rms="4.9211081862449646e-01" purity="4.5199480652809143e-01" nType="-99"/>
              <Node pos="r" depth="4" NCoef="0" IVar="-1" Cut="0.0000000000000000e+00" cType="1" res="2.2930565755814314e-03" rms="4.9210020899772644e-01" purity="5.0520861148834229e-01" nType="-99"/>
            </Node>
            <Node pos="r" depth="3" NCoef="0" IVar="-1" Cut="0.0000000000000000e+00" cType="1" res="-7.2836154140532017e-03" rms="4.6066197752952576e-01" purity="3.3959275484085083e-01" nType="-99"/>
          </Node>
        </Node>
      </Node>
    </BinaryTree>
    <BinaryTree type="DecisionTree" boostWeight="1.0000000000000000e+00" itree="31">
      <Node pos="s" depth="0" NCoef="0" IVar="0" Cut="3.2243603467941284e-01" cType="1" res="1.5207531861960888e-02" rms="4.0885651111602783e-01" purity="5.0081282854080200e-01" nType="0">
        <Node pos="l" depth="1" NCoef="0" IVar="3" Cut="8.4648001194000244e-01" cType="1" res="7.0699729025363922e-02" rms="4.2335900664329529e-01" purity="7.3080772161483765e-01" nType="0">
          <Node pos="l" depth="2" NCoef="0" IVar="1" Cut="5.9289205074310303e-01" cType="1" res="3.0992843210697174e-02" rms="4.7143340110778809e-01" purity="5.9630876779556274e-01" nType="0">
            <Node pos="l" depth="3" NCoef="0" IVar="4" Cut="6.4143382012844086e-02" cType="1" res="4.7667484730482101e-02" rms="4.6534189581871033e-01" purity="6.4055633544921875e-01" nType="0">
              <Node pos="l" depth="4" NCoef="0" IVar="3" Cut="6.6060930490493774e-01" cType="1" res="5.7368922978639603e-02" rms="4.6125835180282593e-01" purity="6.6933220624923706e-01" nType="0">
                <Node pos="l" depth="5" NCoef="0" IVar="-1" Cut="0.0000000000000000e+00" cType="1" res="1.0660093976184726e-03" rms="4.8530936241149902e-01" purity="5.0405782461166382e-01" nType="-99"/>
                <Node pos="r" depth="5" NCoef="0" IVar="6" Cut="5.3873620927333832e-02" cType="1" res="6.3414081931114197e-02" rms="4.5758867263793945e-01" purity="6.9157451391220093e-01" nType="0">
                  <Node pos="l" depth="6" NCoef="0" IVar="0" Cut="1.9760707020759583e-01" cType="1" res="4.9326989799737930e-02" rms="4.6142518520355225e-01" purity="6.8048548698425293e-01" nType="0">
                    <Node pos="l" depth="7" NCoef="0" IVar="-1" Cut="0.0000000000000000e+00" cType="1" res="5.5042505264282227e-03" rms="4.5277899503707886e-01" purity="7.0451021194458008e-01" nType="-99"/>
                    <Node pos="r" depth="7" NCoef="0" IVar="-1" Cut="0.0000000000000000e+00" cType="1" res="1.0458953911438584e-03" rms="4.7952988743782043e-01" purity="6.2239575386047363e-01" nType="-99"/>
                  </Node>
                  <Node pos="r" depth="6" NCoef="0" IVar="2" Cut="1.4042201232910156e+02" cType="1" res="8.3490490913391113e-02" rms="4.5130550861358643e-01" purity="7.0737820863723755e-01" nType="0">
                    <Node pos="l" depth="7" NCoef="0" IVar="-1" Cut="0.0000000000000000e+00" cType="1" res="9.0710734948515892e-03" rms="4.3083465099334717e-01" purity="7.4725860357284546e-01" nType="-99"/>
                    <Node pos="r" depth="7" NCoef="0" IVar="-1" Cut="0.0000000000000000e+00" cType="1" res="5.6472565047442913e-03" rms="4.6207988262176514e-01" purity="6.8347954750061035e-01" nType="-99"/>
                  </Node>
                </Node>
              </Node>
              <Node pos="r" depth="4" NCoef="0" IVar="0" Cut="2.1842162311077118e-01" cType="1" res="6.6623347811400890e-03" rms="4.8005923628807068e-01" purity="5.1892918348312378e-01" nType="0">
                <Node pos="l" depth="5" NCoef="0" IVar="-1" Cut="0.0000000000000000e+00" cType="1" res="2.7691705618053675e-03" rms="4.7827303409576416e-01" purity="5.6023967266082764e-01" nType="-99"/>
                <Node pos="r" depth="5" NCoef="0" IVar="-1" Cut="0.0000000000000000e+00" cType="1" res="-2.0248999353498220e-03" rms="4.8049366474151611e-01" purity="4.7327870130538940e-01" nType="-99"/>
              </Node>
            </Node>
            <Node pos="r" depth="3" NCoef="0" IVar="6" Cut="3.7199914455413818e-02" cType="1" res="-1.7146525904536247e-02" rms="4.8539006710052490e-01" purity="4.6856680512428284e-01" nType="0">
              <Node pos="l" depth="4" NCoef="0" IVar="-1" Cut="0.0000000000000000e+00" cType="1" res="-5.7588284835219383e-03" rms="4.8499172925949097e-01" purity="4.4040936231613159e-01" nType="-99"/>
              <Node pos="r" depth="4" NCoef="0" IVar="4" Cut="-1.4356378316879272e+00" cType="1" res="2.3213566746562719e-03" rms="4.8421692848205566e-01" purity="4.8019096255302429e-01" nType="0">
                <Node pos="l" depth="5" NCoef="0" IVar="-1" Cut="0.0000000000000000e+00" cType="1" res="2.4969961959868670e-03" rms="4.8860350251197815e-01" purity="5.4164886474609375e-01" nType="-99"/>
                <Node pos="r" depth="5" NCoef="0" IVar="-1" Cut="0.0000000000000000e+00" cType="1" res="-1.5352425398305058e-03" rms="4.8024711012840271e-01" purity="4.3798360228538513e-01" nType="-99"/>
              </Node>
            </Node>
          </Node>
          <Node pos="r" depth="2" NCoef="0" IVar="5" Cut="-2.0338079929351807e+00" cType="1" res="8.6710482835769653e-02" rms="4.0124237537384033e-01" purity="7.8504091501235962e-01" nType="0">
            <Node pos="l" depth="3" NCoef="0" IVar="1" Cut="1.4938616752624512e+00" cType="1" res="9.7195319831371307e-02" rms="3.8307827711105347e-01" purity="8.1559967994689941e-01" nType="0">
              <Node pos="l" depth="4" NCoef="0" IVar="5" Cut="-2.9359531402587891e+00" cType="1" res="1.0099232941865921e-01" rms="3.7594336271286011e-01" purity="8.2612144947052002e-01" nType="0">
                <Node pos="l" depth="5" NCoef="0" IVar="4" Cut="-1.0690530538558960e+00" cType="1" res="1.1358974128961563e-01" rms="3.5543018579483032e-01" purity="8.4916055202484131e-01" nType="0">
                  <Node pos="l" depth="6" NCoef="0" IVar="4" Cut="-2.4025993347167969e+00" cType="1" res="9.6788711845874786e-02" rms="3.8952803611755371e-01" purity="8.1079709529876709e-01" nType="0">
                    <Node pos="l" depth="7" NCoef="0" IVar="-1" Cut="0.0000000000000000e+00" cType="1" res="1.1356133967638016e-02" rms="3.7682473659515381e-01" purity="8.2628983259201050e-01" nType="-99"/>
                    <Node pos="r" depth="7" NCoef="0" IVar="-1" Cut="0.0000000000000000e+00" cType="1" res="7.6192892156541348e-03" rms="3.9561963081359863e-01" purity="8.0277645587921143e-01" nType="-99"/>
                  </Node>
                  <Node pos="r" depth="6" NCoef="0" IVar="1" Cut="2.4850021302700043e-01" cType="1" res="1.2168379873037338e-01" rms="3.3747845888137817e-01" purity="8.6764252185821533e-01" nType="0">
                    <Node pos="l" depth="7" NCoef="0" IVar="-1" Cut="0.0000000000000000e+00" cType="1" res="1.3110299594700336e-02" rms="3.2069507241249084e-01" purity="8.8348841667175293e-01" nType="-99"/>
                    <Node pos="r" depth="7" NCoef="0" IVar="-1" Cut="0.0000000000000000e+00" cType="1" res="1.0829846374690533e-02" rms="3.7223404645919800e-01" purity="8.3213168382644653e-01" nType="-99"/>
                  </Node>
                </Node>
                <Node pos="r" depth="5" NCoef="0" IVar="1" Cut="5.2225668914616108e-03" cType="1" res="9.2235095798969269e-02" rms="3.8932731747627258e-01" purity="8.1010550260543823e-01" nType="0">
                  <Node pos="l" depth="6" NCoef="0" IVar="5" Cut="-2.4121756553649902e+00" cType="1" res="1.0439864546060562e-01" rms="3.6797940731048584e-01" purity="8.3766609430313110e-01" nType="0">
                    <Node pos="l" depth="7" NCoef="0" IVar="-1" Cut="0.0000000000000000e+00" cType="1" res="1.0710392147302628e-02" rms="3.6042329668998718e-01" purity="8.4599769115447998e-01" nType="-99"/>
                    <Node pos="r" depth="7" NCoef="0" IVar="-1" Cut="0.0000000000000000e+00" cType="1" res="9.1389846056699753e-03" rms="3.8310581445693970e-01" purity="8.2026857137680054e-01" nType="-99"/>
                  </Node>
                  <Node pos="r" depth="6" NCoef="0" IVar="3" Cut="9.9211823940277100e-01" cType="1" res="8.0673135817050934e-02" rms="4.0825086832046509e-01" purity="7.8390806913375854e-01" nType="0">
                    <Node pos="l" depth="7" NCoef="0" IVar="-1" Cut="0.0000000000000000e+00" cType="1" res="6.1901491135358810e-03" rms="4.2659717798233032e-01" purity="7.5601851940155029e-01" nType="-99"/>
                    <Node pos="r" depth="7" NCoef="0" IVar="-1" Cut="0.0000000000000000e+00" cType="1" res="8.7327733635902405e-03" rms="3.9141464233398438e-01" purity="8.0771189928054810e-01" nType="-99"/>
                  </Node>
                </Node>
              </Node>
              <Node pos="r" depth="4" NCoef="0" IVar="-1" Cut="0.0000000000000000e+00" cType="1" res="3.9627291262149811e-03" rms="4.6403208374977112e-01" purity="6.7714470624923706e-01" nType="-99"/>
            </Node>
            <Node pos="r" depth="3" NCoef="0" IVar="1" Cut="9.2170184850692749e-01" cType="1" res="5.4772123694419861e-02" rms="4.5059669017791748e-01" purity="6.9195413589477539e-01" nType="0">
              <Node pos="l" depth="4" NCoef="0" IVar="3" Cut="9.5770984888076782e-01" cType="1" res="6.4087897539138794e-02" rms="4.4335210323333740e-01" purity="7.1751052141189575e-01" nType="0">
                <Node pos="l" depth="5" NCoef="0" IVar="5" Cut="-1.3532625436782837e+00" cType="1" res="3.7853274494409561e-02" rms="4.6265518665313721e-01" purity="6.7063939571380615e-01" nType="0">
                  <Node pos="l" depth="6" NCoef="0" IVar="-1" Cut="0.0000000000000000e+00" cType="1" res="5.3141932003200054e-03" rms="4.4465014338493347e-01" purity="7.2521185874938965e-01" nType="-99"/>
                  <Node pos="r" depth="6" NCoef="0" IVar="-1" Cut="0.0000000000000000e+00" cType="1" res="1.1407299898564816e-03" rms="4.8516139388084412e-01" purity="5.9567338228225708e-01" nType="-99"/>
                </Node>
                <Node pos="r" depth="5" NCoef="0" IVar="1" Cut="-1.0302047012373805e-03" cType="1" res="7.7403381466865540e-02" rms="4.3261760473251343e-01" purity="7.4130016565322876e-01" nType="0">
                  <Node pos="l" depth="6" NCoef="0" IVar="4" Cut="-4.2779061198234558e-01" cType="1" res="9.2054024338722229e-02" rms="4.1605409979820251e-01" purity="7.7259093523025513e-01" nType="0">
                    <Node pos="l" depth="7" NCoef="0" IVar="-1" Cut="0.0000000000000000e+00" cType="1" res="6.8974005989730358e-03" rms="4.2326459288597107e-01" purity="7.6148414611816406e-01" nType="-99"/>
                    <Node pos="r" depth="7" NCoef="0" IVar="-1" Cut="0.0000000000000000e+00" cType="1" res="9.3523589894175529e-03" rms="4.1027209162712097e-01" purity="7.8104084730148315e-01" nType="-99"/>
                  </Node>
                  <Node pos="r" depth="6" NCoef="0" IVar="4" Cut="-2.0560495555400848e-01" cType="1" res="6.1498794704675674e-02" rms="4.4936859607696533e-01" purity="7.0733129978179932e-01" nType="0">
                    <Node pos="l" depth="7" NCoef="0" IVar="-1" Cut="0.0000000000000000e+00" cType="1" res="4.2523494921624660e-03" rms="4.5471349358558655e-01" purity="6.9934511184692383e-01" nType="-99"/>
                    <Node pos="r" depth="7" NCoef="0" IVar="-1" Cut="0.0000000000000000e+00" cType="1" res="6.9035841152071953e-03" rms="4.4211471080780029e-01" purity="7.1741700172424316e-01" nType="-99"/>
                  </Node>
                </Node>
              </Node>
              <Node pos="r" depth="4" NCoef="0" IVar="-1" Cut="0.0000000000000000e+00" cType="1" res="-4.8078276449814439e-04" rms="4.9074316024780273e-01" purity="5.2619570493698120e-01" nType="-99"/>
            </Node>
          </Node>
        </Node>
        <Node pos="r" depth="1" NCoef="0" IVar="3" Cut="5.1977330446243286e-01" cType="1" res="-4.7009442001581192e-02" rms="3.8250276446342468e-01" purity="2.4294611811637878e-01" nType="0">
          <Node pos="l" depth="2" NCoef="0" IVar="6" Cut="1.6686302423477173e-01" cType="1" res="-7.1837767958641052e-02" rms="2.9607880115509033e-01" purity="1.0716827213764191e-01" nType="0">
            <Node pos="l" depth="3" NCoef="0" IVar="5" Cut="-1.3858550786972046e+00" cType="1" res="-7.8514948487281799e-02" rms="2.7445745468139648e-01" purity="8.9935973286628723e-02" nType="0">
              <Node pos="l" depth="4" NCoef="0" IVar="5" Cut="-3.2320864200592041e+00" cType="1" res="-7.1246065199375153e-02" rms="3.1149247288703918e-01" purity="1.1820230633020401e-01" nType="0">
                <Node pos="l" depth="5" NCoef="0" IVar="6" Cut="5.9452664107084274e-02" cType="1" res="-1.0664265602827072e-01" rms="2.2528779506683350e-01" purity="5.5437978357076645e-02" nType="0">
                  <Node pos="l" depth="6" NCoef="0" IVar="-1" Cut="0.0000000000000000e+00" cType="1" res="-2.6018142700195312e-02" rms="1.9395537674427032e-01" purity="3.9724417030811310e-02" nType="-99"/>
                  <Node pos="r" depth="6" NCoef="0" IVar="-1" Cut="0.0000000000000000e+00" cType="1" res="-1.8805084750056267e-02" rms="2.5033712387084961e-01" purity="7.0521704852581024e-02" nType="-99"/>
                </Node>
                <Node pos="r" depth="5" NCoef="0" IVar="2" Cut="1.5318693542480469e+02" cType="1" res="-6.3372805714607239e-02" rms="3.2707703113555908e-01" purity="1.3216297328472137e-01" nType="0">
                  <Node pos="l" depth="6" NCoef="0" IVar="6" Cut="7.0274628698825836e-02" cType="1" res="-4.6041712164878845e-02" rms="3.3928039669990540e-01" purity="1.4390151202678680e-01" nType="0">
                    <Node pos="l" depth="7" NCoef="0" IVar="-1" Cut="0.0000000000000000e+00" cType="1" res="-1.3110538013279438e-02" rms="3.0482885241508484e-01" purity="1.0946717113256454e-01" nType="-99"/>
                    <Node pos="r" depth="7" NCoef="0" IVar="-1" Cut="0.0000000000000000e+00" cType="1" res="-2.7775049675256014e-03" rms="3.7697860598564148e-01" purity="1.8815505504608154e-01" nType="-99"/>
                  </Node>
                  <Node pos="r" depth="6" NCoef="0" IVar="6" Cut="1.0833771526813507e-01" cType="1" res="-7.4689209461212158e-02" rms="3.1834805011749268e-01" purity="1.2449824810028076e-01" nType="0">
                    <Node pos="l" depth="7" NCoef="0" IVar="-1" Cut="0.0000000000000000e+00" cType="1" res="-1.6641482710838318e-02" rms="2.7762639522552490e-01" purity="8.8286742568016052e-02" nType="-99"/>
                    <Node pos="r" depth="7" NCoef="0" IVar="-1" Cut="0.0000000000000000e+00" cType="1" res="-9.9898902699351311e-03" rms="3.5304388403892517e-01" purity="1.5976843237876892e-01" nType="-99"/>
                  </Node>
                </Node>
              </Node>
              <Node pos="r" depth="4" NCoef="0" IVar="4" Cut="1.8586792051792145e-01" cType="1" res="-8.9099720120429993e-02" rms="2.0865751802921295e-01" purity="4.8775263130664825e-02" nType="0">
                <Node pos="l" depth="5" NCoef="0" IVar="-1" Cut="0.0000000000000000e+00" cType="1" res="-1.2545221485197544e-02" rms="3.1383976340293884e-01" purity="1.1610313504934311e-01" nType="-99"/>
                <Node pos="r" depth="5" NCoef="0" IVar="2" Cut="1.5774073791503906e+02" cType="1" res="-9.2588178813457489e-02" rms="1.8603827059268951e-01" purity="3.7945579737424850e-02" nType="0">
                  <Node pos="l" depth="6" NCoef="0" IVar="7" Cut="6.0000000000000000e+00" cType="1" res="-8.4465637803077698e-02" rms="1.9508469104766846e-01" purity="4.3032560497522354e-02" nType="0">
                    <Node pos="l" depth="7" NCoef="0" IVar="-1" Cut="0.0000000000000000e+00" cType="1" res="-1.9647555425763130e-02" rms="2.2559046745300293e-01" purity="5.7178840041160583e-02" nType="-99"/>
                    <Node pos="r" depth="7" NCoef="0" IVar="-1" Cut="0.0000000000000000e+00" cType="1" res="-2.7530087158083916e-02" rms="1.3897997140884399e-01" purity="2.1032257005572319e-02" nType="-99"/>
                  </Node>
                  <Node pos="r" depth="6" NCoef="0" IVar="7" Cut="5.0000000000000000e+00" cType="1" res="-9.4120487570762634e-02" rms="1.7716005444526672e-01" purity="3.4726090729236603e-02" nType="0">
                    <Node pos="l" depth="7" NCoef="0" IVar="-1" Cut="0.0000000000000000e+00" cType="1" res="-2.4101223796606064e-02" rms="1.8873259425163269e-01" purity="3.8943111896514893e-02" nType="-99"/>
                    <Node pos="r" depth="7" NCoef="0" IVar="-1" Cut="0.0000000000000000e+00" cType="1" res="-2.3136399686336517e-02" rms="1.7295512557029724e-01" purity="3.2262235879898071e-02" nType="-99"/>
                  </Node>
                </Node>
              </Node>
            </Node>
            <Node pos="r" depth="3" NCoef="0" IVar="3" Cut="3.8830095529556274e-01" cType="1" res="-5.0914876163005829e-02" rms="3.5459715127944946e-01" purity="1.6116552054882050e-01" nType="0">
              <Node pos="l" depth="4" NCoef="0" IVar="6" Cut="2.6344218850135803e-01" cType="1" res="-6.1852902173995972e-02" rms="3.3553048968315125e-01" purity="1.3639871776103973e-01" nType="0">
                <Node pos="l" depth="5" NCoef="0" IVar="2" Cut="3.2315530395507812e+02" cType="1" res="-7.2710812091827393e-02" rms="3.1304466724395752e-01" purity="1.1643652617931366e-01" nType="0">
                  <Node pos="l" depth="6" NCoef="0" IVar="-1" Cut="0.0000000000000000e+00" cType="1" res="-8.3700912073254585e-03" rms="3.3961322903633118e-01" purity="1.4295601844787598e-01" nType="-99"/>
                  <Node pos="r" depth="6" NCoef="0" IVar="3" Cut="2.4432738125324249e-01" cType="1" res="-8.3603009581565857e-02" rms="3.0116218328475952e-01" purity="1.0591344535350800e-01" nType="0">
                    <Node pos="l" depth="7" NCoef="0" IVar="-1" Cut="0.0000000000000000e+00" cType="1" res="-1.9506733864545822e-02" rms="2.6774221658706665e-01" purity="7.9511627554893494e-02" nType="-99"/>
                    <Node pos="r" depth="7" NCoef="0" IVar="-1" Cut="0.0000000000000000e+00" cType="1" res="-1.3052713125944138e-02" rms="3.2059067487716675e-01" purity="1.2297675013542175e-01" nType="-99"/>
                  </Node>
                </Node>
                <Node pos="r" depth="5" NCoef="0" IVar="-1" Cut="0.0000000000000000e+00" cType="1" res="-4.6147848479449749e-03" rms="3.9259874820709229e-01" purity="1.9514922797679901e-01" nType="-99"/>
              </Node>
              <Node pos="r" depth="4" NCoef="0" IVar="-1" Cut="0.0000000000000000e+00" cType="1" res="-5.1738019101321697e-04" rms="4.2339089512825012e-01" purity="2.6697427034378052e-01" nType="-99"/>
            </Node>
          </Node>
          <Node pos="r" depth="2" NCoef="0" IVar="5" Cut="3.5677805542945862e-01" cType="1" res="-1.6360953450202942e-02" rms="4.6583399176597595e-01" purity="4.1055250167846680e-01" nType="0">
            <Node pos="l" depth="3" NCoef="0" IVar="1" Cut="1.5659838914871216e+00" cType="1" res="-8.5279727354645729e-03" rms="4.7315219044685364e-01" purity="4.2944148182868958e-01" nType="0">
              <Node pos="l" depth="4" NCoef="0" IVar="2" Cut="1.7325155639648438e+02" cType="1" res="5.9452885761857033e-04" rms="4.7665965557098389e-01" purity="4.5052665472030640e-01" nType="0">
                <Node pos="l" depth="5" NCoef="0" IVar="1" Cut="-2.6997375488281250e-01" cType="1" res="1.7941849306225777e-02" rms="4.7901165485382080e-01" purity="4.8542374372482300e-01" nType="0">
                  <Node pos="l" depth="6" NCoef="0" IVar="-1" Cut="0.0000000000000000e+00" cType="1" res="5.3943046368658543e-03" rms="4.7942620515823364e-01" purity="5.7789385318756104e-01" nType="-99"/>
                  <Node pos="r" depth="6" NCoef="0" IVar="1" Cut="3.2228252291679382e-01" cType="1" res="7.8357066959142685e-03" rms="4.7830778360366821e-01" purity="4.6609526872634888e-01" nType="0">
                    <Node pos="l" depth="7" NCoef="0" IVar="-1" Cut="0.0000000000000000e+00" cType="1" res="2.9190555214881897e-03" rms="4.8120242357254028e-01" purity="5.2704596519470215e-01" nType="-99"/>
                    <Node pos="r" depth="7" NCoef="0" IVar="-1" Cut="0.0000000000000000e+00" cType="1" res="-1.2405627639964223e-03" rms="4.7487452626228333e-01" purity="4.1592228412628174e-01" nType="-99"/>
                  </Node>
                </Node>
                <Node pos="r" depth="5" NCoef="0" IVar="1" Cut="5.7330435514450073e-01" cType="1" res="-3.0858829617500305e-02" rms="4.7073769569396973e-01" purity="3.8725289702415466e-01" nType="0">
                  <Node pos="l" depth="6" NCoef="0" IVar="0" Cut="6.2331968545913696e-01" cType="1" res="-1.6871029511094093e-02" rms="4.7879326343536377e-01" purity="4.2057457566261292e-01" nType="0">
                    <Node pos="l" depth="7" NCoef="0" IVar="-1" Cut="0.0000000000000000e+00" cType="1" res="-9.4536240794695914e-05" rms="4.8913636803627014e-01" purity="4.7950375080108643e-01" nType="-99"/>
                    <Node pos="r" depth="7" NCoef="0" IVar="-1" Cut="0.0000000000000000e+00" cType="1" res="-4.1943592950701714e-03" rms="4.6219736337661743e-01" purity="3.3400610089302063e-01" nType="-99"/>
                  </Node>
                  <Node pos="r" depth="6" NCoef="0" IVar="-1" Cut="0.0000000000000000e+00" cType="1" res="-6.9794789887964725e-03" rms="4.4786271452903748e-01" purity="3.0327504873275757e-01" nType="-99"/>
                </Node>
              </Node>
              <Node pos="r" depth="4" NCoef="0" IVar="3" Cut="7.9995083808898926e-01" cType="1" res="-6.1003487557172775e-02" rms="4.4886213541030884e-01" purity="3.0815276503562927e-01" nType="0">
                <Node pos="l" depth="5" NCoef="0" IVar="-1" Cut="0.0000000000000000e+00" cType="1" res="-8.6607011035084724e-03" rms="4.2847532033920288e-01" purity="2.5599622726440430e-01" nType="-99"/>
                <Node pos="r" depth="5" NCoef="0" IVar="-1" Cut="0.0000000000000000e+00" cType="1" res="-2.8124274685978889e-03" rms="4.8119798302650452e-01" purity="4.0013962984085083e-01" nType="-99"/>
              </Node>
            </Node>
            <Node pos="r" depth="3" NCoef="0" IVar="-1" Cut="0.0000000000000000e+00" cType="1" res="-1.9415905699133873e-02" rms="3.0571398138999939e-01" purity="1.1491740494966507e-01" nType="-99"/>
          </Node>
        </Node>
      </Node>
    </BinaryTree>
    <BinaryTree type="DecisionTree" boostWeight="1.0000000000000000e+00" itree="32">
      <Node pos="s" depth="0" NCoef="0" IVar="3" Cut="7.7316254377365112e-01" cType="1" res="1.5464937314391136e-02" rms="4.0821820497512817e-01" purity="5.0087898969650269e-01" nType="0">
        <Node pos="l" depth="1" NCoef="0" IVar="3" Cut="6.0133421421051025e-01" cType="1" res="-4.2120095342397690e-02" rms="3.8574659824371338e-01" purity="2.5485128164291382e-01" nType="0">
          <Node pos="l" depth="2" NCoef="0" IVar="3" Cut="4.4930052757263184e-01" cType="1" res="-6.2920525670051575e-02" rms="3.2934105396270752e-01" purity="1.4462181925773621e-01" nType="0">
            <Node pos="l" depth="3" NCoef="0" IVar="6" Cut="1.6690042614936829e-01" cType="1" res="-7.3922023177146912e-02" rms="2.7176240086555481e-01" purity="8.7411724030971527e-02" nType="0">
              <Node pos="l" depth="4" NCoef="0" IVar="2" Cut="2.8257247924804688e+02" cType="1" res="-8.1361047923564911e-02" rms="2.3658744990825653e-01" purity="6.2869466841220856e-02" nType="0">
                <Node pos="l" depth="5" NCoef="0" IVar="6" Cut="9.7087658941745758e-02" cType="1" res="-7.4917525053024292e-02" rms="2.4311278760433197e-01" purity="6.6850855946540833e-02" nType="0">
                  <Node pos="l" depth="6" NCoef="0" IVar="2" Cut="6.4225891113281250e+01" cType="1" res="-8.1959061324596405e-02" rms="2.2219662368297577e-01" purity="5.4107464849948883e-02" nType="0">
                    <Node pos="l" depth="7" NCoef="0" IVar="-1" Cut="0.0000000000000000e+00" cType="1" res="-1.4385480433702469e-02" rms="2.6832562685012817e-01" purity="8.1595569849014282e-02" nType="-99"/>
                    <Node pos="r" depth="7" NCoef="0" IVar="-1" Cut="0.0000000000000000e+00" cType="1" res="-2.1997883915901184e-02" rms="2.0559889078140259e-01" purity="4.5711115002632141e-02" nType="-99"/>
                  </Node>
                  <Node pos="r" depth="6" NCoef="0" IVar="3" Cut="2.9703679680824280e-01" cType="1" res="-5.8343231678009033e-02" rms="2.8569325804710388e-01" purity="9.6846073865890503e-02" nType="0">
                    <Node pos="l" depth="7" NCoef="0" IVar="-1" Cut="0.0000000000000000e+00" cType="1" res="-2.3837460204958916e-02" rms="2.0379532873630524e-01" purity="4.5040402561426163e-02" nType="-99"/>
                    <Node pos="r" depth="7" NCoef="0" IVar="-1" Cut="0.0000000000000000e+00" cType="1" res="-8.0023175105452538e-03" rms="3.2928103208541870e-01" purity="1.3240227103233337e-01" nType="-99"/>
                  </Node>
                </Node>
                <Node pos="r" depth="5" NCoef="0" IVar="7" Cut="5.0000000000000000e+00" cType="1" res="-9.2654578387737274e-02" rms="2.2019127011299133e-01" purity="5.4684903472661972e-02" nType="0">
                  <Node pos="l" depth="6" NCoef="0" IVar="-1" Cut="0.0000000000000000e+00" cType="1" res="-2.0999427884817123e-02" rms="2.4080038070678711e-01" purity="6.4337372779846191e-02" nType="-99"/>
                  <Node pos="r" depth="6" NCoef="0" IVar="3" Cut="3.2512852549552917e-01" cType="1" res="-9.1484405100345612e-02" rms="2.1212665736675262e-01" purity="4.9972660839557648e-02" nType="0">
                    <Node pos="l" depth="7" NCoef="0" IVar="-1" Cut="0.0000000000000000e+00" cType="1" res="-2.5860518217086792e-02" rms="1.5735308825969696e-01" purity="2.5593208149075508e-02" nType="-99"/>
                    <Node pos="r" depth="7" NCoef="0" IVar="-1" Cut="0.0000000000000000e+00" cType="1" res="-1.6119901090860367e-02" rms="2.6815971732139587e-01" purity="8.2519970834255219e-02" nType="-99"/>
                  </Node>
                </Node>
              </Node>
              <Node pos="r" depth="4" NCoef="0" IVar="5" Cut="-1.6929932832717896e+00" cType="1" res="-5.4829262197017670e-02" rms="3.4531360864639282e-01" purity="1.5040108561515808e-01" nType="0">
                <Node pos="l" depth="5" NCoef="0" IVar="3" Cut="2.5387957692146301e-01" cType="1" res="-3.0176961794495583e-02" rms="4.0187475085258484e-01" purity="2.1619863808155060e-01" nType="0">
                  <Node pos="l" depth="6" NCoef="0" IVar="-1" Cut="0.0000000000000000e+00" cType="1" res="-8.2251625135540962e-03" rms="3.6918979883193970e-01" purity="1.7552402615547180e-01" nType="-99"/>
                  <Node pos="r" depth="6" NCoef="0" IVar="-1" Cut="0.0000000000000000e+00" cType="1" res="-1.0168495355173945e-03" rms="4.3009838461875916e-01" purity="2.5575116276741028e-01" nType="-99"/>
                </Node>
                <Node pos="r" depth="5" NCoef="0" IVar="6" Cut="2.3380461335182190e-01" cType="1" res="-7.4343688786029816e-02" rms="2.9142016172409058e-01" purity="9.8316602408885956e-02" nType="0">
                  <Node pos="l" depth="6" NCoef="0" IVar="3" Cut="2.9926046729087830e-01" cType="1" res="-8.4315836429595947e-02" rms="2.5967946648597717e-01" purity="7.6610021293163300e-02" nType="0">
                    <Node pos="l" depth="7" NCoef="0" IVar="-1" Cut="0.0000000000000000e+00" cType="1" res="-2.2667041048407555e-02" rms="2.1875962615013123e-01" purity="5.2531372755765915e-02" nType="-99"/>
                    <Node pos="r" depth="7" NCoef="0" IVar="-1" Cut="0.0000000000000000e+00" cType="1" res="-1.4391586184501648e-02" rms="2.9371643066406250e-01" purity="9.9989891052246094e-02" nType="-99"/>
                  </Node>
                  <Node pos="r" depth="6" NCoef="0" IVar="-1" Cut="0.0000000000000000e+00" cType="1" res="-1.0256455279886723e-02" rms="3.3753013610839844e-01" purity="1.3486202061176300e-01" nType="-99"/>
                </Node>
              </Node>
            </Node>
            <Node pos="r" depth="3" NCoef="0" IVar="6" Cut="1.2775965034961700e-01" cType="1" res="-4.2722057551145554e-02" rms="4.1398042440414429e-01" purity="2.4965812265872955e-01" nType="0">
              <Node pos="l" depth="4" NCoef="0" IVar="7" Cut="3.0000000000000000e+00" cType="1" res="-5.3235676139593124e-02" rms="4.0123653411865234e-01" purity="2.2849293053150177e-01" nType="0">
                <Node pos="l" depth="5" NCoef="0" IVar="-1" Cut="0.0000000000000000e+00" cType="1" res="-1.4199755154550076e-02" rms="3.5962519049644470e-01" purity="1.6213981807231903e-01" nType="-99"/>
                <Node pos="r" depth="5" NCoef="0" IVar="4" Cut="9.8956519365310669e-01" cType="1" res="-4.7163147479295731e-02" rms="4.0762063860893250e-01" purity="2.3731815814971924e-01" nType="0">
                  <Node pos="l" depth="6" NCoef="0" IVar="2" Cut="1.4167974853515625e+02" cType="1" res="-3.8549371063709259e-02" rms="4.2990499734878540e-01" purity="2.6849606633186340e-01" nType="0">
                    <Node pos="l" depth="7" NCoef="0" IVar="-1" Cut="0.0000000000000000e+00" cType="1" res="-2.1292811725288630e-03" rms="4.3964943289756775e-01" purity="2.9167485237121582e-01" nType="-99"/>
                    <Node pos="r" depth="7" NCoef="0" IVar="-1" Cut="0.0000000000000000e+00" cType="1" res="-6.7052668891847134e-03" rms="4.2026588320732117e-01" purity="2.4785724282264709e-01" nType="-99"/>
                  </Node>
                  <Node pos="r" depth="6" NCoef="0" IVar="-1" Cut="0.0000000000000000e+00" cType="1" res="-1.5109213069081306e-02" rms="2.8388142585754395e-01" purity="9.7430877387523651e-02" nType="-99"/>
                </Node>
              </Node>
              <Node pos="r" depth="4" NCoef="0" IVar="5" Cut="-2.0483324527740479e+00" cType="1" res="-6.1858478002250195e-03" rms="4.4693341851234436e-01" purity="3.1887835264205933e-01" nType="0">
                <Node pos="l" depth="5" NCoef="0" IVar="-1" Cut="0.0000000000000000e+00" cType="1" res="2.2919699549674988e-03" rms="4.8241540789604187e-01" purity="4.0210098028182983e-01" nType="-99"/>
                <Node pos="r" depth="5" NCoef="0" IVar="-1" Cut="0.0000000000000000e+00" cType="1" res="-3.5189073532819748e-03" rms="4.1695719957351685e-01" purity="2.5642436742782593e-01" nType="-99"/>
              </Node>
            </Node>
          </Node>
          <Node pos="r" depth="2" NCoef="0" IVar="4" Cut="9.2179369926452637e-01" cType="1" res="1.1440111557021737e-03" rms="4.7950369119644165e-01" purity="4.8412436246871948e-01" nType="0">
            <Node pos="l" depth="3" NCoef="0" IVar="1" Cut="4.6184721589088440e-01" cType="1" res="9.2536052688956261e-03" rms="4.8451754450798035e-01" purity="5.0718766450881958e-01" nType="0">
              <Node pos="l" depth="4" NCoef="0" IVar="0" Cut="5.2378123998641968e-01" cType="1" res="2.8886629268527031e-02" rms="4.8539468646049500e-01" purity="5.6679672002792358e-01" nType="0">
                <Node pos="l" depth="5" NCoef="0" IVar="6" Cut="5.7861912995576859e-02" cType="1" res="3.8073159754276276e-02" rms="4.8349902033805847e-01" purity="5.9755373001098633e-01" nType="0">
                  <Node pos="l" depth="6" NCoef="0" IVar="2" Cut="7.6505477905273438e+01" cType="1" res="1.6259204596281052e-02" rms="4.8638236522674561e-01" purity="5.7771015167236328e-01" nType="0">
                    <Node pos="l" depth="7" NCoef="0" IVar="-1" Cut="0.0000000000000000e+00" cType="1" res="3.7377520930022001e-03" rms="4.7990238666534424e-01" purity="6.1291038990020752e-01" nType="-99"/>
                    <Node pos="r" depth="7" NCoef="0" IVar="-1" Cut="0.0000000000000000e+00" cType="1" res="-1.5532703837379813e-03" rms="4.9171537160873413e-01" purity="5.3687244653701782e-01" nType="-99"/>
                  </Node>
                  <Node pos="r" depth="6" NCoef="0" IVar="2" Cut="1.6913806152343750e+02" cType="1" res="5.5607262998819351e-02" rms="4.8045140504837036e-01" purity="6.1350405216217041e-01" nType="0">
                    <Node pos="l" depth="7" NCoef="0" IVar="-1" Cut="0.0000000000000000e+00" cType="1" res="7.5016142800450325e-03" rms="4.6590378880500793e-01" purity="6.6551053524017334e-01" nType="-99"/>
                    <Node pos="r" depth="7" NCoef="0" IVar="-1" Cut="0.0000000000000000e+00" cType="1" res="2.3749538231641054e-03" rms="4.8852100968360901e-01" purity="5.7643997669219971e-01" nType="-99"/>
                  </Node>
                </Node>
                <Node pos="r" depth="5" NCoef="0" IVar="-1" Cut="0.0000000000000000e+00" cType="1" res="-6.9422466913238168e-04" rms="4.9116030335426331e-01" purity="4.4458097219467163e-01" nType="-99"/>
              </Node>
              <Node pos="r" depth="4" NCoef="0" IVar="6" Cut="7.5802229344844818e-02" cType="1" res="-2.4102523922920227e-02" rms="4.8119053244590759e-01" purity="4.0591302514076233e-01" nType="0">
                <Node pos="l" depth="5" NCoef="0" IVar="7" Cut="3.0000000000000000e+00" cType="1" res="-3.9871606975793839e-02" rms="4.6857118606567383e-01" purity="3.8378727436065674e-01" nType="0">
                  <Node pos="l" depth="6" NCoef="0" IVar="-1" Cut="0.0000000000000000e+00" cType="1" res="-8.2339793443679810e-03" rms="4.6190679073333740e-01" purity="3.3792209625244141e-01" nType="-99"/>
                  <Node pos="r" depth="6" NCoef="0" IVar="2" Cut="9.8112434387207031e+01" cType="1" res="-2.0625988021492958e-02" rms="4.8303535580635071e-01" purity="4.1104567050933838e-01" nType="0">
                    <Node pos="l" depth="7" NCoef="0" IVar="-1" Cut="0.0000000000000000e+00" cType="1" res="-3.4866252099163830e-04" rms="4.8975268006324768e-01" purity="4.3242898583412170e-01" nType="-99"/>
                    <Node pos="r" depth="7" NCoef="0" IVar="-1" Cut="0.0000000000000000e+00" cType="1" res="-3.7924302741885185e-03" rms="4.7502782940864563e-01" purity="3.8801509141921997e-01" nType="-99"/>
                  </Node>
                </Node>
                <Node pos="r" depth="5" NCoef="0" IVar="-1" Cut="0.0000000000000000e+00" cType="1" res="9.7500020638108253e-04" rms="4.8721697926521301e-01" purity="4.4283738732337952e-01" nType="-99"/>
              </Node>
            </Node>
            <Node pos="r" depth="3" NCoef="0" IVar="-1" Cut="0.0000000000000000e+00" cType="1" res="-8.3714593201875687e-03" rms="4.2121854424476624e-01" purity="2.6494488120079041e-01" nType="-99"/>
          </Node>
        </Node>
        <Node pos="r" depth="1" NCoef="0" IVar="0" Cut="6.4365410804748535e-01" cType="1" res="7.0372514426708221e-02" rms="4.2128080129623413e-01" purity="7.3546749353408813e-01" nType="0">
          <Node pos="l" depth="2" NCoef="0" IVar="5" Cut="-2.0338079929351807e+00" cType="1" res="7.6266847550868988e-02" rms="4.1614374518394470e-01" purity="7.5599670410156250e-01" nType="0">
            <Node pos="l" depth="3" NCoef="0" IVar="1" Cut="7.7388006448745728e-01" cType="1" res="8.7731316685676575e-02" rms="3.9781993627548218e-01" purity="7.9236310720443726e-01" nType="0">
              <Node pos="l" depth="4" NCoef="0" IVar="0" Cut="1.8684355914592743e-01" cType="1" res="9.4066463410854340e-02" rms="3.8383576273918152e-01" purity="8.1512826681137085e-01" nType="0">
                <Node pos="l" depth="5" NCoef="0" IVar="4" Cut="-1.0448856353759766e+00" cType="1" res="9.8220780491828918e-02" rms="3.7480407953262329e-01" purity="8.2749712467193604e-01" nType="0">
                  <Node pos="l" depth="6" NCoef="0" IVar="1" Cut="3.4616383910179138e-01" cType="1" res="8.5237577557563782e-02" rms="4.0311214327812195e-01" purity="7.9242205619812012e-01" nType="0">
                    <Node pos="l" depth="7" NCoef="0" IVar="-1" Cut="0.0000000000000000e+00" cType="1" res="8.4433602169156075e-03" rms="3.9410611987113953e-01" purity="8.0559504032135010e-01" nType="-99"/>
                    <Node pos="r" depth="7" NCoef="0" IVar="-1" Cut="0.0000000000000000e+00" cType="1" res="4.9166576936841011e-03" rms="4.4246912002563477e-01" purity="7.2951608896255493e-01" nType="-99"/>
                  </Node>
                  <Node pos="r" depth="6" NCoef="0" IVar="1" Cut="1.0529762506484985e-01" cType="1" res="1.0798650979995728e-01" rms="3.5169860720634460e-01" purity="8.5387998819351196e-01" nType="0">
                    <Node pos="l" depth="7" NCoef="0" IVar="-1" Cut="0.0000000000000000e+00" cType="1" res="1.1851979419589043e-02" rms="3.3756887912750244e-01" purity="8.6820226907730103e-01" nType="-99"/>
                    <Node pos="r" depth="7" NCoef="0" IVar="-1" Cut="0.0000000000000000e+00" cType="1" res="9.3992268666625023e-03" rms="3.7506651878356934e-01" purity="8.2852172851562500e-01" nType="-99"/>
                  </Node>
                </Node>
                <Node pos="r" depth="5" NCoef="0" IVar="6" Cut="3.8689266890287399e-02" cType="1" res="6.2698587775230408e-02" rms="4.4491723179817200e-01" purity="7.2173482179641724e-01" nType="0">
                  <Node pos="l" depth="6" NCoef="0" IVar="0" Cut="3.0472096800804138e-01" cType="1" res="5.2549049258232117e-02" rms="4.4521903991699219e-01" purity="7.1996247768402100e-01" nType="0">
                    <Node pos="l" depth="7" NCoef="0" IVar="-1" Cut="0.0000000000000000e+00" cType="1" res="3.9748977869749069e-03" rms="4.3654063344001770e-01" purity="7.3498481512069702e-01" nType="-99"/>
                    <Node pos="r" depth="7" NCoef="0" IVar="-1" Cut="0.0000000000000000e+00" cType="1" res="5.7403747923672199e-03" rms="4.5300510525703430e-01" purity="7.0535373687744141e-01" nType="-99"/>
                  </Node>
                  <Node pos="r" depth="6" NCoef="0" IVar="-1" Cut="0.0000000000000000e+00" cType="1" res="7.7776922844350338e-03" rms="4.4358932971954346e-01" purity="7.2533482313156128e-01" nType="-99"/>
                </Node>
              </Node>
              <Node pos="r" depth="4" NCoef="0" IVar="3" Cut="9.6705102920532227e-01" cType="1" res="5.7217415422201157e-02" rms="4.5802360773086548e-01" purity="6.8271243572235107e-01" nType="0">
                <Node pos="l" depth="5" NCoef="0" IVar="6" Cut="3.2076232135295868e-02" cType="1" res="2.5629717856645584e-02" rms="4.8470374941825867e-01" purity="6.0403954982757568e-01" nType="0">
                  <Node pos="l" depth="6" NCoef="0" IVar="-1" Cut="0.0000000000000000e+00" cType="1" res="-2.1069834474474192e-04" rms="4.8871707916259766e-01" purity="5.8380287885665894e-01" nType="-99"/>
                  <Node pos="r" depth="6" NCoef="0" IVar="-1" Cut="0.0000000000000000e+00" cType="1" res="4.2260200716555119e-03" rms="4.7949558496475220e-01" purity="6.2278997898101807e-01" nType="-99"/>
                </Node>
                <Node pos="r" depth="5" NCoef="0" IVar="5" Cut="-2.9033405780792236e+00" cType="1" res="7.6988227665424347e-02" rms="4.3934893608093262e-01" purity="7.3195391893386841e-01" nType="0">
                  <Node pos="l" depth="6" NCoef="0" IVar="-1" Cut="0.0000000000000000e+00" cType="1" res="8.1402007490396500e-03" rms="4.2320099472999573e-01" purity="7.6049047708511353e-01" nType="-99"/>
                  <Node pos="r" depth="6" NCoef="0" IVar="-1" Cut="0.0000000000000000e+00" cType="1" res="4.8601613380014896e-03" rms="4.5295378565788269e-01" purity="7.0565164089202881e-01" nType="-99"/>
                </Node>
              </Node>
            </Node>
            <Node pos="r" depth="3" NCoef="0" IVar="1" Cut="8.3070808649063110e-01" cType="1" res="4.6538438647985458e-02" rms="4.5894089341163635e-01" purity="6.6169524192810059e-01" nType="0">
              <Node pos="l" depth="4" NCoef="0" IVar="1" Cut="1.0832963883876801e-01" cType="1" res="5.7779461145401001e-02" rms="4.5142805576324463e-01" purity="6.9307428598403931e-01" nType="0">
                <Node pos="l" depth="5" NCoef="0" IVar="5" Cut="-7.2776019573211670e-01" cType="1" res="7.3822706937789917e-02" rms="4.3894413113594055e-01" purity="7.2398501634597778e-01" nType="0">
                  <Node pos="l" depth="6" NCoef="0" IVar="3" Cut="8.6242312192916870e-01" cType="1" res="8.1288442015647888e-02" rms="4.2723706364631653e-01" purity="7.5361555814743042e-01" nType="0">
                    <Node pos="l" depth="7" NCoef="0" IVar="-1" Cut="0.0000000000000000e+00" cType="1" res="4.8808385618031025e-03" rms="4.6181088685989380e-01" purity="6.8742990493774414e-01" nType="-99"/>
                    <Node pos="r" depth="7" NCoef="0" IVar="-1" Cut="0.0000000000000000e+00" cType="1" res="8.3024138584733009e-03" rms="4.1316631436347961e-01" purity="7.7843332290649414e-01" nType="-99"/>
                  </Node>
                  <Node pos="r" depth="6" NCoef="0" IVar="-1" Cut="0.0000000000000000e+00" cType="1" res="3.5485709086060524e-03" rms="4.8517829179763794e-01" purity="5.9536260366439819e-01" nType="-99"/>
                </Node>
                <Node pos="r" depth="5" NCoef="0" IVar="3" Cut="9.6579700708389282e-01" cType="1" res="3.2226227223873138e-02" rms="4.6949818730354309e-01" purity="6.4384061098098755e-01" nType="0">
                  <Node pos="l" depth="6" NCoef="0" IVar="6" Cut="3.8096897304058075e-02" cType="1" res="7.3877270333468914e-03" rms="4.8228746652603149e-01" purity="5.9400331974029541e-01" nType="0">
                    <Node pos="l" depth="7" NCoef="0" IVar="-1" Cut="0.0000000000000000e+00" cType="1" res="-1.6118147177621722e-03" rms="4.8443296551704407e-01" purity="5.7994216680526733e-01" nType="-99"/>
                    <Node pos="r" depth="7" NCoef="0" IVar="-1" Cut="0.0000000000000000e+00" cType="1" res="2.6861729566007853e-03" rms="4.7903749346733093e-01" purity="6.0738307237625122e-01" nType="-99"/>
                  </Node>
                  <Node pos="r" depth="6" NCoef="0" IVar="-1" Cut="0.0000000000000000e+00" cType="1" res="5.1364479586482048e-03" rms="4.5405843853950500e-01" purity="6.9670104980468750e-01" nType="-99"/>
                </Node>
              </Node>
              <Node pos="r" depth="4" NCoef="0" IVar="1" Cut="1.4216985702514648e+00" cType="1" res="-7.7064507640898228e-03" rms="4.8997864127159119e-01" purity="5.1027208566665649e-01" nType="0">
                <Node pos="l" depth="5" NCoef="0" IVar="-1" Cut="0.0000000000000000e+00" cType="1" res="2.3488106671720743e-03" rms="4.8693719506263733e-01" purity="5.6498152017593384e-01" nType="-99"/>
                <Node pos="r" depth="5" NCoef="0" IVar="-1" Cut="0.0000000000000000e+00" cType="1" res="-3.6726717371493578e-03" rms="4.9038475751876831e-01" purity="4.5588961243629456e-01" nType="-99"/>
              </Node>
            </Node>
          </Node>
          <Node pos="r" depth="2" NCoef="0" IVar="0" Cut="1.5468649864196777e+00" cType="1" res="-1.6399264335632324e-02" rms="4.8245817422866821e-01" purity="4.3325197696685791e-01" nType="0">
            <Node pos="l" depth="3" NCoef="0" IVar="0" Cut="9.0579253435134888e-01" cType="1" res="1.0454508475959301e-02" rms="4.9003261327743530e-01" purity="4.8373207449913025e-01" nType="0">
              <Node pos="l" depth="4" NCoef="0" IVar="-1" Cut="0.0000000000000000e+00" cType="1" res="1.3038838515058160e-03" rms="4.9061241745948792e-01" purity="5.2554386854171753e-01" nType="-99"/>
              <Node pos="r" depth="4" NCoef="0" IVar="-1" Cut="0.0000000000000000e+00" cType="1" res="5.1175587577745318e-04" rms="4.8941770195960999e-01" purity="4.4289582967758179e-01" nType="-99"/>
            </Node>
            <Node pos="r" depth="3" NCoef="0" IVar="-1" Cut="0.0000000000000000e+00" cType="1" res="-6.9521483965218067e-03" rms="4.6244406700134277e-01" purity="3.3297124505043030e-01" nType="-99"/>
          </Node>
        </Node>
      </Node>
    </BinaryTree>
    <BinaryTree type="DecisionTree" boostWeight="1.0000000000000000e+00" itree="33">
      <Node pos="s" depth="0" NCoef="0" IVar="0" Cut="3.2243508100509644e-01" cType="1" res="1.4720741659402847e-02" rms="4.0729317069053650e-01" purity="4.9994984269142151e-01" nType="0">
        <Node pos="l" depth="1" NCoef="0" IVar="0" Cut="1.7681767046451569e-01" cType="1" res="6.5943039953708649e-02" rms="4.2309382557868958e-01" purity="7.3056554794311523e-01" nType="0">
          <Node pos="l" depth="2" NCoef="0" IVar="5" Cut="-2.0338079929351807e+00" cType="1" res="7.5987175107002258e-02" rms="4.1294273734092712e-01" purity="7.5816375017166138e-01" nType="0">
            <Node pos="l" depth="3" NCoef="0" IVar="1" Cut="2.5616866350173950e-01" cType="1" res="8.7281830608844757e-02" rms="3.9461472630500793e-01" purity="7.9360997676849365e-01" nType="0">
              <Node pos="l" depth="4" NCoef="0" IVar="3" Cut="8.8318526744842529e-01" cType="1" res="9.7756266593933105e-02" rms="3.7121909856796265e-01" purity="8.2892090082168579e-01" nType="0">
                <Node pos="l" depth="5" NCoef="0" IVar="2" Cut="1.0105899047851562e+02" cType="1" res="7.7443286776542664e-02" rms="4.2773100733757019e-01" purity="7.4673312902450562e-01" nType="0">
                  <Node pos="l" depth="6" NCoef="0" IVar="6" Cut="2.6528503745794296e-02" cType="1" res="8.4975399076938629e-02" rms="4.2177826166152954e-01" purity="7.6110273599624634e-01" nType="0">
                    <Node pos="l" depth="7" NCoef="0" IVar="-1" Cut="0.0000000000000000e+00" cType="1" res="5.6070690043270588e-03" rms="4.3164980411529541e-01" purity="7.4236607551574707e-01" nType="-99"/>
                    <Node pos="r" depth="7" NCoef="0" IVar="-1" Cut="0.0000000000000000e+00" cType="1" res="8.1770271062850952e-03" rms="4.1467088460922241e-01" purity="7.7301734685897827e-01" nType="-99"/>
                  </Node>
                  <Node pos="r" depth="6" NCoef="0" IVar="-1" Cut="0.0000000000000000e+00" cType="1" res="5.9480634517967701e-03" rms="4.3671163916587830e-01" purity="7.2401547431945801e-01" nType="-99"/>
                </Node>
                <Node pos="r" depth="5" NCoef="0" IVar="3" Cut="1.0020278692245483e+00" cType="1" res="1.0439221560955048e-01" rms="3.5053512454032898e-01" purity="8.5577046871185303e-01" nType="0">
                  <Node pos="l" depth="6" NCoef="0" IVar="1" Cut="-5.1555866003036499e-01" cType="1" res="9.7935006022453308e-02" rms="3.5872051119804382e-01" purity="8.4761154651641846e-01" nType="0">
                    <Node pos="l" depth="7" NCoef="0" IVar="-1" Cut="0.0000000000000000e+00" cType="1" res="8.0333342775702477e-03" rms="3.7237161397933960e-01" purity="8.3341240882873535e-01" nType="-99"/>
                    <Node pos="r" depth="7" NCoef="0" IVar="-1" Cut="0.0000000000000000e+00" cType="1" res="1.0495398193597794e-02" rms="3.5583385825157166e-01" purity="8.5046207904815674e-01" nType="-99"/>
                  </Node>
                  <Node pos="r" depth="6" NCoef="0" IVar="5" Cut="-2.8817565441131592e+00" cType="1" res="1.1892002820968628e-01" rms="3.3092054724693298e-01" purity="8.7412667274475098e-01" nType="0">
                    <Node pos="l" depth="7" NCoef="0" IVar="-1" Cut="0.0000000000000000e+00" cType="1" res="1.3326831161975861e-02" rms="3.0702006816864014e-01" purity="8.9443266391754150e-01" nType="-99"/>
                    <Node pos="r" depth="7" NCoef="0" IVar="-1" Cut="0.0000000000000000e+00" cType="1" res="1.0293484665453434e-02" rms="3.5401877760887146e-01" purity="8.5255032777786255e-01" nType="-99"/>
                  </Node>
                </Node>
              </Node>
              <Node pos="r" depth="4" NCoef="0" IVar="3" Cut="9.6568644046783447e-01" cType="1" res="6.9089606404304504e-02" rms="4.3164590001106262e-01" purity="7.3228126764297485e-01" nType="0">
                <Node pos="l" depth="5" NCoef="0" IVar="6" Cut="2.3402038961648941e-02" cType="1" res="4.9760937690734863e-02" rms="4.6295943856239319e-01" purity="6.5687114000320435e-01" nType="0">
                  <Node pos="l" depth="6" NCoef="0" IVar="-1" Cut="0.0000000000000000e+00" cType="1" res="1.7908903537318110e-03" rms="4.6523204445838928e-01" purity="6.5709108114242554e-01" nType="-99"/>
                  <Node pos="r" depth="6" NCoef="0" IVar="3" Cut="8.4263092279434204e-01" cType="1" res="6.3272871077060699e-02" rms="4.6129661798477173e-01" purity="6.5677231550216675e-01" nType="0">
                    <Node pos="l" depth="7" NCoef="0" IVar="-1" Cut="0.0000000000000000e+00" cType="1" res="3.4417912829667330e-03" rms="4.8022532463073730e-01" purity="5.8850806951522827e-01" nType="-99"/>
                    <Node pos="r" depth="7" NCoef="0" IVar="-1" Cut="0.0000000000000000e+00" cType="1" res="7.9193310812115669e-03" rms="4.3624216318130493e-01" purity="7.3861682415008545e-01" nType="-99"/>
                  </Node>
                </Node>
                <Node pos="r" depth="5" NCoef="0" IVar="1" Cut="1.1965216398239136e+00" cType="1" res="8.1618733704090118e-02" rms="4.0958565473556519e-01" purity="7.8116315603256226e-01" nType="0">
                  <Node pos="l" depth="6" NCoef="0" IVar="4" Cut="-8.7631261348724365e-01" cType="1" res="8.9530020952224731e-02" rms="3.9295384287834167e-01" purity="8.0656564235687256e-01" nType="0">
                    <Node pos="l" depth="7" NCoef="0" IVar="-1" Cut="0.0000000000000000e+00" cType="1" res="5.5897189304232597e-03" rms="4.2293590307235718e-01" purity="7.6432287693023682e-01" nType="-99"/>
                    <Node pos="r" depth="7" NCoef="0" IVar="-1" Cut="0.0000000000000000e+00" cType="1" res="9.3925949186086655e-03" rms="3.8085666298866272e-01" purity="8.2234817743301392e-01" nType="-99"/>
                  </Node>
                  <Node pos="r" depth="6" NCoef="0" IVar="-1" Cut="0.0000000000000000e+00" cType="1" res="4.8930123448371887e-03" rms="4.5102307200431824e-01" purity="7.1209025382995605e-01" nType="-99"/>
                </Node>
              </Node>
            </Node>
            <Node pos="r" depth="3" NCoef="0" IVar="1" Cut="2.2444722056388855e-01" cType="1" res="4.5267697423696518e-02" rms="4.5769748091697693e-01" purity="6.6175627708435059e-01" nType="0">
              <Node pos="l" depth="4" NCoef="0" IVar="5" Cut="-1.6779059171676636e+00" cType="1" res="6.3915424048900604e-02" rms="4.4251510500907898e-01" purity="7.1466195583343506e-01" nType="0">
                <Node pos="l" depth="5" NCoef="0" IVar="3" Cut="9.3474519252777100e-01" cType="1" res="8.0685794353485107e-02" rms="4.1398853063583374e-01" purity="7.7289563417434692e-01" nType="0">
                  <Node pos="l" depth="6" NCoef="0" IVar="-1" Cut="0.0000000000000000e+00" cType="1" res="5.2796537056565285e-03" rms="4.4316539168357849e-01" purity="7.2178393602371216e-01" nType="-99"/>
                  <Node pos="r" depth="6" NCoef="0" IVar="-1" Cut="0.0000000000000000e+00" cType="1" res="9.1714533045887947e-03" rms="3.8646689057350159e-01" purity="8.1651496887207031e-01" nType="-99"/>
                </Node>
                <Node pos="r" depth="5" NCoef="0" IVar="1" Cut="-3.2355958223342896e-01" cType="1" res="5.3639069199562073e-02" rms="4.5881754159927368e-01" purity="6.7897814512252808e-01" nType="0">
                  <Node pos="l" depth="6" NCoef="0" IVar="-1" Cut="0.0000000000000000e+00" cType="1" res="6.0980492271482944e-03" rms="4.5069637894630432e-01" purity="7.0281523466110229e-01" nType="-99"/>
                  <Node pos="r" depth="6" NCoef="0" IVar="5" Cut="-1.0228711366653442e+00" cType="1" res="4.5016232877969742e-02" rms="4.6253019571304321e-01" purity="6.6721284389495850e-01" nType="0">
                    <Node pos="l" depth="7" NCoef="0" IVar="-1" Cut="0.0000000000000000e+00" cType="1" res="4.8428499139845371e-03" rms="4.4879761338233948e-01" purity="7.1315705776214600e-01" nType="-99"/>
                    <Node pos="r" depth="7" NCoef="0" IVar="-1" Cut="0.0000000000000000e+00" cType="1" res="2.9064996633678675e-03" rms="4.8027297854423523e-01" purity="6.0489255189895630e-01" nType="-99"/>
                  </Node>
                </Node>
              </Node>
              <Node pos="r" depth="4" NCoef="0" IVar="5" Cut="-1.0922602415084839e+00" cType="1" res="1.8389113247394562e-02" rms="4.7745496034622192e-01" purity="5.8549875020980835e-01" nType="0">
                <Node pos="l" depth="5" NCoef="0" IVar="3" Cut="9.5598012208938599e-01" cType="1" res="3.7443138659000397e-02" rms="4.7264087200164795e-01" purity="6.3364350795745850e-01" nType="0">
                  <Node pos="l" depth="6" NCoef="0" IVar="-1" Cut="0.0000000000000000e+00" cType="1" res="1.4639315195381641e-03" rms="4.8364630341529846e-01" purity="5.8276188373565674e-01" nType="-99"/>
                  <Node pos="r" depth="6" NCoef="0" IVar="-1" Cut="0.0000000000000000e+00" cType="1" res="5.0405836664140224e-03" rms="4.5970374345779419e-01" purity="6.8763500452041626e-01" nType="-99"/>
                </Node>
                <Node pos="r" depth="5" NCoef="0" IVar="-1" Cut="0.0000000000000000e+00" cType="1" res="-2.0883481483906507e-03" rms="4.8529356718063354e-01" purity="4.7883924841880798e-01" nType="-99"/>
              </Node>
            </Node>
          </Node>
          <Node pos="r" depth="2" NCoef="0" IVar="1" Cut="-7.5413979589939117e-02" cType="1" res="1.3729365542531013e-02" rms="4.6890842914581299e-01" purity="5.8709859848022461e-01" nType="0">
            <Node pos="l" depth="3" NCoef="0" IVar="5" Cut="-2.2487957477569580e+00" cType="1" res="5.5797103792428970e-02" rms="4.5346143841743469e-01" purity="6.7288923263549805e-01" nType="0">
              <Node pos="l" depth="4" NCoef="0" IVar="-1" Cut="0.0000000000000000e+00" cType="1" res="7.3016323149204254e-03" rms="4.3501111865043640e-01" purity="7.2735977172851562e-01" nType="-99"/>
              <Node pos="r" depth="4" NCoef="0" IVar="-1" Cut="0.0000000000000000e+00" cType="1" res="3.5928785800933838e-03" rms="4.7033855319023132e-01" purity="6.1892604827880859e-01" nType="-99"/>
            </Node>
            <Node pos="r" depth="3" NCoef="0" IVar="5" Cut="-2.1640655994415283e+00" cType="1" res="-7.6899221166968346e-03" rms="4.7515228390693665e-01" purity="5.4341733455657959e-01" nType="0">
              <Node pos="l" depth="4" NCoef="0" IVar="6" Cut="3.8362041115760803e-02" cType="1" res="1.9475078210234642e-02" rms="4.7104391455650330e-01" purity="6.0867369174957275e-01" nType="0">
                <Node pos="l" depth="5" NCoef="0" IVar="-1" Cut="0.0000000000000000e+00" cType="1" res="-8.7159732356667519e-04" rms="4.6726065874099731e-01" purity="6.1627531051635742e-01" nType="-99"/>
                <Node pos="r" depth="5" NCoef="0" IVar="-1" Cut="0.0000000000000000e+00" cType="1" res="4.1755698621273041e-03" rms="4.7297215461730957e-01" purity="6.0197222232818604e-01" nType="-99"/>
              </Node>
              <Node pos="r" depth="4" NCoef="0" IVar="1" Cut="5.5200302600860596e-01" cType="1" res="-3.7649258971214294e-02" rms="4.7785511612892151e-01" purity="4.7144827246665955e-01" nType="0">
                <Node pos="l" depth="5" NCoef="0" IVar="-1" Cut="0.0000000000000000e+00" cType="1" res="-1.8222391372546554e-03" rms="4.8018124699592590e-01" purity="5.2531099319458008e-01" nType="-99"/>
                <Node pos="r" depth="5" NCoef="0" IVar="-1" Cut="0.0000000000000000e+00" cType="1" res="-6.3109016045928001e-03" rms="4.7322776913642883e-01" purity="3.9453923702239990e-01" nType="-99"/>
              </Node>
            </Node>
          </Node>
        </Node>
        <Node pos="r" depth="1" NCoef="0" IVar="3" Cut="5.8514899015426636e-01" cType="1" res="-4.2701613157987595e-02" rms="3.8071021437644958e-01" purity="2.4141991138458252e-01" nType="0">
          <Node pos="l" depth="2" NCoef="0" IVar="3" Cut="4.3701806664466858e-01" cType="1" res="-6.1483792960643768e-02" rms="3.1714871525764465e-01" purity="1.2982562184333801e-01" nType="0">
            <Node pos="l" depth="3" NCoef="0" IVar="6" Cut="2.4371546506881714e-01" cType="1" res="-7.0573627948760986e-02" rms="2.6425936818122864e-01" purity="8.1601262092590332e-02" nType="0">
              <Node pos="l" depth="4" NCoef="0" IVar="3" Cut="3.4201729297637939e-01" cType="1" res="-7.4990607798099518e-02" rms="2.4786145985126495e-01" purity="7.0375293493270874e-02" nType="0">
                <Node pos="l" depth="5" NCoef="0" IVar="7" Cut="4.0000000000000000e+00" cType="1" res="-8.0522947013378143e-02" rms="2.0673991739749908e-01" purity="4.8015370965003967e-02" nType="0">
                  <Node pos="l" depth="6" NCoef="0" IVar="-1" Cut="0.0000000000000000e+00" cType="1" res="-1.2268927879631519e-02" rms="2.8525149822235107e-01" purity="9.3720674514770508e-02" nType="-99"/>
                  <Node pos="r" depth="6" NCoef="0" IVar="3" Cut="2.4748270213603973e-01" cType="1" res="-8.5188329219818115e-02" rms="1.9973252713680267e-01" purity="4.3061967939138412e-02" nType="0">
                    <Node pos="l" depth="7" NCoef="0" IVar="-1" Cut="0.0000000000000000e+00" cType="1" res="-2.6539964601397514e-02" rms="1.7301759123802185e-01" purity="3.1246243044734001e-02" nType="-99"/>
                    <Node pos="r" depth="7" NCoef="0" IVar="-1" Cut="0.0000000000000000e+00" cType="1" res="-1.9886035472154617e-02" rms="2.1829952299594879e-01" purity="5.2405398339033127e-02" nType="-99"/>
                  </Node>
                </Node>
                <Node pos="r" depth="5" NCoef="0" IVar="6" Cut="1.3384537398815155e-01" cType="1" res="-6.3800066709518433e-02" rms="2.9838570952415466e-01" purity="1.0611825436353683e-01" nType="0">
                  <Node pos="l" depth="6" NCoef="0" IVar="2" Cut="1.4932913208007812e+02" cType="1" res="-7.3545306921005249e-02" rms="2.6198336482048035e-01" purity="7.6910071074962616e-02" nType="0">
                    <Node pos="l" depth="7" NCoef="0" IVar="-1" Cut="0.0000000000000000e+00" cType="1" res="-1.3349439017474651e-02" rms="2.8209480643272400e-01" purity="9.0355545282363892e-02" nType="-99"/>
                    <Node pos="r" depth="7" NCoef="0" IVar="-1" Cut="0.0000000000000000e+00" cType="1" res="-1.7867092043161392e-02" rms="2.4450910091400146e-01" purity="6.6288501024246216e-02" nType="-99"/>
                  </Node>
                  <Node pos="r" depth="6" NCoef="0" IVar="5" Cut="-1.5889855623245239e+00" cType="1" res="-4.3652459979057312e-02" rms="3.6139282584190369e-01" purity="1.6650412976741791e-01" nType="0">
                    <Node pos="l" depth="7" NCoef="0" IVar="-1" Cut="0.0000000000000000e+00" cType="1" res="-2.1006609313189983e-03" rms="4.2540714144706726e-01" purity="2.4322204291820526e-01" nType="-99"/>
                    <Node pos="r" depth="7" NCoef="0" IVar="-1" Cut="0.0000000000000000e+00" cType="1" res="-1.3722375035285950e-02" rms="2.8729143738746643e-01" purity="9.5379143953323364e-02" nType="-99"/>
                  </Node>
                </Node>
              </Node>
              <Node pos="r" depth="4" NCoef="0" IVar="-1" Cut="0.0000000000000000e+00" cType="1" res="-4.3899179436266422e-03" rms="3.8581091165542603e-01" purity="1.8990960717201233e-01" nType="-99"/>
            </Node>
            <Node pos="r" depth="3" NCoef="0" IVar="6" Cut="1.2675301730632782e-01" cType="1" res="-4.4094707816839218e-02" rms="3.9868402481079102e-01" purity="2.2208003699779510e-01" nType="0">
              <Node pos="l" depth="4" NCoef="0" IVar="4" Cut="9.8343604803085327e-01" cType="1" res="-5.5079773068428040e-02" rms="3.8470920920372009e-01" purity="1.9972793757915497e-01" nType="0">
                <Node pos="l" depth="5" NCoef="0" IVar="1" Cut="7.8624701499938965e-01" cType="1" res="-4.6769622713327408e-02" rms="4.0868812799453735e-01" purity="2.2852410376071930e-01" nType="0">
                  <Node pos="l" depth="6" NCoef="0" IVar="2" Cut="2.0930854797363281e+02" cType="1" res="-3.2955601811408997e-02" rms="4.2973408102989197e-01" purity="2.6330712437629700e-01" nType="0">
                    <Node pos="l" depth="7" NCoef="0" IVar="-1" Cut="0.0000000000000000e+00" cType="1" res="-1.9080681959167123e-03" rms="4.3791952729225159e-01" purity="2.8147944808006287e-01" nType="-99"/>
                    <Node pos="r" depth="7" NCoef="0" IVar="-1" Cut="0.0000000000000000e+00" cType="1" res="-7.3062730953097343e-03" rms="4.1456523537635803e-01" purity="2.3352029919624329e-01" nType="-99"/>
                  </Node>
                  <Node pos="r" depth="6" NCoef="0" IVar="2" Cut="1.3990911865234375e+02" cType="1" res="-7.1502767503261566e-02" rms="3.6671465635299683e-01" purity="1.6624727845191956e-01" nType="0">
                    <Node pos="l" depth="7" NCoef="0" IVar="-1" Cut="0.0000000000000000e+00" cType="1" res="-8.3458106964826584e-03" rms="3.8117906451225281e-01" purity="1.8202987313270569e-01" nType="-99"/>
                    <Node pos="r" depth="7" NCoef="0" IVar="-1" Cut="0.0000000000000000e+00" cType="1" res="-1.2512279674410820e-02" rms="3.5036170482635498e-01" purity="1.4965176582336426e-01" nType="-99"/>
                  </Node>
                </Node>
                <Node pos="r" depth="5" NCoef="0" IVar="-1" Cut="0.0000000000000000e+00" cType="1" res="-1.7293546348810196e-02" rms="2.5471389293670654e-01" purity="7.6282478868961334e-02" nType="-99"/>
              </Node>
              <Node pos="r" depth="4" NCoef="0" IVar="5" Cut="-1.5059347152709961e+00" cType="1" res="-1.0950705036520958e-02" rms="4.3648347258567810e-01" purity="2.8952050209045410e-01" nType="0">
                <Node pos="l" depth="5" NCoef="0" IVar="-1" Cut="0.0000000000000000e+00" cType="1" res="1.4789070701226592e-03" rms="4.7659787535667419e-01" purity="3.6830621957778931e-01" nType="-99"/>
                <Node pos="r" depth="5" NCoef="0" IVar="-1" Cut="0.0000000000000000e+00" cType="1" res="-6.9792363792657852e-03" rms="3.7028068304061890e-01" purity="1.7932094633579254e-01" nType="-99"/>
              </Node>
            </Node>
          </Node>
          <Node pos="r" depth="2" NCoef="0" IVar="4" Cut="1.0057311058044434e+00" cType="1" res="-7.7227628789842129e-03" rms="4.7504487633705139e-01" purity="4.4924670457839966e-01" nType="0">
            <Node pos="l" depth="3" NCoef="0" IVar="1" Cut="4.6736621856689453e-01" cType="1" res="9.3381438637152314e-04" rms="4.8170369863510132e-01" purity="4.7190490365028381e-01" nType="0">
              <Node pos="l" depth="4" NCoef="0" IVar="2" Cut="9.5253623962402344e+01" cType="1" res="2.5474324822425842e-02" rms="4.8542812466621399e-01" purity="5.3694128990173340e-01" nType="0">
                <Node pos="l" depth="5" NCoef="0" IVar="6" Cut="4.1073862463235855e-02" cType="1" res="4.9081776291131973e-02" rms="4.7981849312782288e-01" purity="5.8811712265014648e-01" nType="0">
                  <Node pos="l" depth="6" NCoef="0" IVar="3" Cut="8.6070889234542847e-01" cType="1" res="3.4867998212575912e-02" rms="4.7973462939262390e-01" purity="5.8170586824417114e-01" nType="0">
                    <Node pos="l" depth="7" NCoef="0" IVar="-1" Cut="0.0000000000000000e+00" cType="1" res="-5.0714297685772181e-04" rms="4.9094945192337036e-01" purity="4.9369424581527710e-01" nType="-99"/>
                    <Node pos="r" depth="7" NCoef="0" IVar="-1" Cut="0.0000000000000000e+00" cType="1" res="4.7068111598491669e-03" rms="4.7213080525398254e-01" purity="6.2914186716079712e-01" nType="-99"/>
                  </Node>
                  <Node pos="r" depth="6" NCoef="0" IVar="-1" Cut="0.0000000000000000e+00" cType="1" res="6.5583777613937855e-03" rms="4.7802636027336121e-01" purity="6.0497558116912842e-01" nType="-99"/>
                </Node>
                <Node pos="r" depth="5" NCoef="0" IVar="6" Cut="7.8617140650749207e-02" cType="1" res="3.8472930900752544e-03" rms="4.8951265215873718e-01" purity="4.9005863070487976e-01" nType="0">
                  <Node pos="l" depth="6" NCoef="0" IVar="6" Cut="5.6742064654827118e-02" cType="1" res="-1.9913153722882271e-02" rms="4.8805150389671326e-01" purity="4.6315681934356689e-01" nType="0">
                    <Node pos="l" depth="7" NCoef="0" IVar="-1" Cut="0.0000000000000000e+00" cType="1" res="-3.1728548929095268e-03" rms="4.8628622293472290e-01" purity="4.4631555676460266e-01" nType="-99"/>
                    <Node pos="r" depth="7" NCoef="0" IVar="-1" Cut="0.0000000000000000e+00" cType="1" res="-5.5989262182265520e-04" rms="4.8939755558967590e-01" purity="4.7973766922950745e-01" nType="-99"/>
                  </Node>
                  <Node pos="r" depth="6" NCoef="0" IVar="2" Cut="2.7347616577148438e+02" cType="1" res="2.7305893599987030e-02" rms="4.8982155323028564e-01" purity="5.1661872863769531e-01" nType="0">
                    <Node pos="l" depth="7" NCoef="0" IVar="-1" Cut="0.0000000000000000e+00" cType="1" res="3.9577116258442402e-03" rms="4.8889699578285217e-01" purity="5.4566514492034912e-01" nType="-99"/>
                    <Node pos="r" depth="7" NCoef="0" IVar="-1" Cut="0.0000000000000000e+00" cType="1" res="7.3550239903852344e-04" rms="4.8997169733047485e-01" purity="4.8806867003440857e-01" nType="-99"/>
                  </Node>
                </Node>
              </Node>
              <Node pos="r" depth="4" NCoef="0" IVar="2" Cut="1.8170187377929688e+02" cType="1" res="-2.9558235779404640e-02" rms="4.7527343034744263e-01" purity="3.9109593629837036e-01" nType="0">
                <Node pos="l" depth="5" NCoef="0" IVar="1" Cut="2.3122038841247559e+00" cType="1" res="-1.5901293605566025e-02" rms="4.8058629035949707e-01" purity="4.1655352711677551e-01" nType="0">
                  <Node pos="l" depth="6" NCoef="0" IVar="6" Cut="5.6745070964097977e-02" cType="1" res="-5.9601725079119205e-03" rms="4.8424118757247925e-01" purity="4.3565544486045837e-01" nType="0">
                    <Node pos="l" depth="7" NCoef="0" IVar="-1" Cut="0.0000000000000000e+00" cType="1" res="-1.6394699923694134e-03" rms="4.8210242390632629e-01" purity="4.3231064081192017e-01" nType="-99"/>
                    <Node pos="r" depth="7" NCoef="0" IVar="-1" Cut="0.0000000000000000e+00" cType="1" res="2.3325008805841208e-03" rms="4.8849678039550781e-01" purity="4.4467809796333313e-01" nType="-99"/>
                  </Node>
                  <Node pos="r" depth="6" NCoef="0" IVar="-1" Cut="0.0000000000000000e+00" cType="1" res="-5.3260885179042816e-03" rms="4.6436277031898499e-01" purity="3.4340906143188477e-01" nType="-99"/>
                </Node>
                <Node pos="r" depth="5" NCoef="0" IVar="-1" Cut="0.0000000000000000e+00" cType="1" res="-6.6974717192351818e-03" rms="4.5912027359008789e-01" purity="3.2431888580322266e-01" nType="-99"/>
              </Node>
            </Node>
            <Node pos="r" depth="3" NCoef="0" IVar="-1" Cut="0.0000000000000000e+00" cType="1" res="-1.1564536951482296e-02" rms="3.8855418562889099e-01" purity="2.1486930549144745e-01" nType="-99"/>
          </Node>
        </Node>
      </Node>
    </BinaryTree>
    <BinaryTree type="DecisionTree" boostWeight="1.0000000000000000e+00" itree="34">
      <Node pos="s" depth="0" NCoef="0" IVar="0" Cut="3.2244518399238586e-01" cType="1" res="1.4860991388559341e-02" rms="4.0724605321884155e-01" purity="5.0085759162902832e-01" nType="0">
        <Node pos="l" depth="1" NCoef="0" IVar="0" Cut="1.7682085931301117e-01" cType="1" res="6.3364595174789429e-02" rms="4.2283910512924194e-01" purity="7.3071956634521484e-01" nType="0">
          <Node pos="l" depth="2" NCoef="0" IVar="5" Cut="-1.6947140693664551e+00" cType="1" res="7.4271529912948608e-02" rms="4.1260313987731934e-01" purity="7.5957608222961426e-01" nType="0">
            <Node pos="l" depth="3" NCoef="0" IVar="1" Cut="7.7272325754165649e-02" cType="1" res="8.1463970243930817e-02" rms="4.0041413903236389e-01" purity="7.8564888238906860e-01" nType="0">
              <Node pos="l" depth="4" NCoef="0" IVar="3" Cut="8.8425904512405396e-01" cType="1" res="9.2908672988414764e-02" rms="3.7488859891891479e-01" purity="8.2490313053131104e-01" nType="0">
                <Node pos="l" depth="5" NCoef="0" IVar="5" Cut="-2.6079132556915283e+00" cType="1" res="7.1605466306209564e-02" rms="4.3023636937141418e-01" purity="7.4490761756896973e-01" nType="0">
                  <Node pos="l" depth="6" NCoef="0" IVar="-1" Cut="0.0000000000000000e+00" cType="1" res="7.5934561900794506e-03" rms="4.1590392589569092e-01" purity="7.6622867584228516e-01" nType="-99"/>
                  <Node pos="r" depth="6" NCoef="0" IVar="1" Cut="-2.9121237993240356e-01" cType="1" res="6.0665134340524673e-02" rms="4.4113737344741821e-01" purity="7.2773587703704834e-01" nType="0">
                    <Node pos="l" depth="7" NCoef="0" IVar="-1" Cut="0.0000000000000000e+00" cType="1" res="4.2936825193464756e-03" rms="4.4622147083282471e-01" purity="7.1779072284698486e-01" nType="-99"/>
                    <Node pos="r" depth="7" NCoef="0" IVar="-1" Cut="0.0000000000000000e+00" cType="1" res="5.9761600568890572e-03" rms="4.3678110837936401e-01" purity="7.3586046695709229e-01" nType="-99"/>
                  </Node>
                </Node>
                <Node pos="r" depth="5" NCoef="0" IVar="5" Cut="-2.7240598201751709e+00" cType="1" res="1.0043557733297348e-01" rms="3.5295858979225159e-01" purity="8.5316729545593262e-01" nType="0">
                  <Node pos="l" depth="6" NCoef="0" IVar="3" Cut="1.0027977228164673e+00" cType="1" res="1.0714831948280334e-01" rms="3.3651974797248840e-01" purity="8.6931860446929932e-01" nType="0">
                    <Node pos="l" depth="7" NCoef="0" IVar="-1" Cut="0.0000000000000000e+00" cType="1" res="1.0814156383275986e-02" rms="3.4308627247810364e-01" purity="8.6322712898254395e-01" nType="-99"/>
                    <Node pos="r" depth="7" NCoef="0" IVar="-1" Cut="0.0000000000000000e+00" cType="1" res="1.2012278661131859e-02" rms="3.1911846995353699e-01" purity="8.8465058803558350e-01" nType="-99"/>
                  </Node>
                  <Node pos="r" depth="6" NCoef="0" IVar="4" Cut="-1.6030621528625488e-01" cType="1" res="9.1985747218132019e-02" rms="3.7244984507560730e-01" purity="8.3283650875091553e-01" nType="0">
                    <Node pos="l" depth="7" NCoef="0" IVar="-1" Cut="0.0000000000000000e+00" cType="1" res="8.3008315414190292e-03" rms="3.8068515062332153e-01" purity="8.2339137792587280e-01" nType="-99"/>
                    <Node pos="r" depth="7" NCoef="0" IVar="-1" Cut="0.0000000000000000e+00" cType="1" res="1.1249780654907227e-02" rms="3.5069346427917480e-01" purity="8.5624063014984131e-01" nType="-99"/>
                  </Node>
                </Node>
              </Node>
              <Node pos="r" depth="4" NCoef="0" IVar="4" Cut="-9.5570784807205200e-01" cType="1" res="6.9537132978439331e-02" rms="4.2506051063537598e-01" purity="7.4474108219146729e-01" nType="0">
                <Node pos="l" depth="5" NCoef="0" IVar="4" Cut="-2.5283772945404053e+00" cType="1" res="5.6119259446859360e-02" rms="4.4801425933837891e-01" purity="7.0224153995513916e-01" nType="0">
                  <Node pos="l" depth="6" NCoef="0" IVar="5" Cut="-2.6909539699554443e+00" cType="1" res="8.1425100564956665e-02" rms="4.3683344125747681e-01" purity="7.2567063570022583e-01" nType="0">
                    <Node pos="l" depth="7" NCoef="0" IVar="-1" Cut="0.0000000000000000e+00" cType="1" res="9.0556452050805092e-03" rms="4.2158100008964539e-01" purity="7.5049257278442383e-01" nType="-99"/>
                    <Node pos="r" depth="7" NCoef="0" IVar="-1" Cut="0.0000000000000000e+00" cType="1" res="5.3934552706778049e-03" rms="4.5342567563056946e-01" purity="6.9611084461212158e-01" nType="-99"/>
                  </Node>
                  <Node pos="r" depth="6" NCoef="0" IVar="1" Cut="3.9640370011329651e-01" cType="1" res="4.6109411865472794e-02" rms="4.5196971297264099e-01" purity="6.9297409057617188e-01" nType="0">
                    <Node pos="l" depth="7" NCoef="0" IVar="-1" Cut="0.0000000000000000e+00" cType="1" res="5.0748405046761036e-03" rms="4.2605659365653992e-01" purity="7.5169938802719116e-01" nType="-99"/>
                    <Node pos="r" depth="7" NCoef="0" IVar="-1" Cut="0.0000000000000000e+00" cType="1" res="3.1958264298737049e-03" rms="4.6762588620185852e-01" purity="6.5553742647171021e-01" nType="-99"/>
                  </Node>
                </Node>
                <Node pos="r" depth="5" NCoef="0" IVar="3" Cut="9.4510018825531006e-01" cType="1" res="8.2237884402275085e-02" rms="4.0171563625335693e-01" purity="7.8496915102005005e-01" nType="0">
                  <Node pos="l" depth="6" NCoef="0" IVar="-1" Cut="0.0000000000000000e+00" cType="1" res="4.2031528428196907e-03" rms="4.6121695637702942e-01" purity="6.4486986398696899e-01" nType="-99"/>
                  <Node pos="r" depth="6" NCoef="0" IVar="1" Cut="1.3564485311508179e+00" cType="1" res="8.6958535015583038e-02" rms="3.9234358072280884e-01" purity="8.0478417873382568e-01" nType="0">
                    <Node pos="l" depth="7" NCoef="0" IVar="-1" Cut="0.0000000000000000e+00" cType="1" res="9.0475352481007576e-03" rms="3.8041776418685913e-01" purity="8.2206207513809204e-01" nType="-99"/>
                    <Node pos="r" depth="7" NCoef="0" IVar="-1" Cut="0.0000000000000000e+00" cType="1" res="5.2090440876781940e-03" rms="4.4967320561408997e-01" purity="7.1262407302856445e-01" nType="-99"/>
                  </Node>
                </Node>
              </Node>
            </Node>
            <Node pos="r" depth="3" NCoef="0" IVar="1" Cut="9.9965113401412964e-01" cType="1" res="3.9873644709587097e-02" rms="4.6497818827629089e-01" purity="6.3488233089447021e-01" nType="0">
              <Node pos="l" depth="4" NCoef="0" IVar="1" Cut="3.5442490130662918e-02" cType="1" res="5.3194992244243622e-02" rms="4.6006122231483459e-01" purity="6.6651511192321777e-01" nType="0">
                <Node pos="l" depth="5" NCoef="0" IVar="3" Cut="9.8409104347229004e-01" cType="1" res="7.3582939803600311e-02" rms="4.4696861505508423e-01" purity="7.0743882656097412e-01" nType="0">
                  <Node pos="l" depth="6" NCoef="0" IVar="-1" Cut="0.0000000000000000e+00" cType="1" res="5.0280871801078320e-03" rms="4.6497201919555664e-01" purity="6.6540288925170898e-01" nType="-99"/>
                  <Node pos="r" depth="6" NCoef="0" IVar="-1" Cut="0.0000000000000000e+00" cType="1" res="8.1630544736981392e-03" rms="4.2210951447486877e-01" purity="7.6116341352462769e-01" nType="-99"/>
                </Node>
                <Node pos="r" depth="5" NCoef="0" IVar="5" Cut="-1.1855642795562744e+00" cType="1" res="2.9847612604498863e-02" rms="4.7353395819664001e-01" purity="6.1965101957321167e-01" nType="0">
                  <Node pos="l" depth="6" NCoef="0" IVar="-1" Cut="0.0000000000000000e+00" cType="1" res="4.5998138375580311e-03" rms="4.5851027965545654e-01" purity="6.8333041667938232e-01" nType="-99"/>
                  <Node pos="r" depth="6" NCoef="0" IVar="-1" Cut="0.0000000000000000e+00" cType="1" res="7.1409938391298056e-04" rms="4.8607224225997925e-01" purity="5.6051796674728394e-01" nType="-99"/>
                </Node>
              </Node>
              <Node pos="r" depth="4" NCoef="0" IVar="-1" Cut="0.0000000000000000e+00" cType="1" res="-3.8318170700222254e-03" rms="4.8641219735145569e-01" purity="4.3709373474121094e-01" nType="-99"/>
            </Node>
          </Node>
          <Node pos="r" depth="2" NCoef="0" IVar="1" Cut="3.7850570678710938e-01" cType="1" res="5.3869374096393585e-03" rms="4.6931478381156921e-01" purity="5.7732778787612915e-01" nType="0">
            <Node pos="l" depth="3" NCoef="0" IVar="3" Cut="7.7791827917098999e-01" cType="1" res="2.9735013842582703e-02" rms="4.6235913038253784e-01" purity="6.3563835620880127e-01" nType="0">
              <Node pos="l" depth="4" NCoef="0" IVar="2" Cut="1.1662355804443359e+02" cType="1" res="5.3122239187359810e-03" rms="4.8136705160140991e-01" purity="5.5156981945037842e-01" nType="0">
                <Node pos="l" depth="5" NCoef="0" IVar="-1" Cut="0.0000000000000000e+00" cType="1" res="2.6107691228389740e-03" rms="4.8102852702140808e-01" purity="5.8895319700241089e-01" nType="-99"/>
                <Node pos="r" depth="5" NCoef="0" IVar="-1" Cut="0.0000000000000000e+00" cType="1" res="-1.1421998497098684e-03" rms="4.8089960217475891e-01" purity="5.2362525463104248e-01" nType="-99"/>
              </Node>
              <Node pos="r" depth="4" NCoef="0" IVar="5" Cut="-2.2025032043457031e+00" cType="1" res="5.2546225488185883e-02" rms="4.4265553355216980e-01" purity="7.1415936946868896e-01" nType="0">
                <Node pos="l" depth="5" NCoef="0" IVar="-1" Cut="0.0000000000000000e+00" cType="1" res="7.2687617503106594e-03" rms="4.1865691542625427e-01" purity="7.6832330226898193e-01" nType="-99"/>
                <Node pos="r" depth="5" NCoef="0" IVar="-1" Cut="0.0000000000000000e+00" cType="1" res="3.1070199329406023e-03" rms="4.6883428096771240e-01" purity="6.4965969324111938e-01" nType="-99"/>
              </Node>
            </Node>
            <Node pos="r" depth="3" NCoef="0" IVar="4" Cut="-8.4854203462600708e-01" cType="1" res="-3.9100237190723419e-02" rms="4.7857561707496643e-01" purity="4.7078672051429749e-01" nType="0">
              <Node pos="l" depth="4" NCoef="0" IVar="-1" Cut="0.0000000000000000e+00" cType="1" res="-1.7738437745720148e-03" rms="4.8885074257850647e-01" purity="5.0952911376953125e-01" nType="-99"/>
              <Node pos="r" depth="4" NCoef="0" IVar="-1" Cut="0.0000000000000000e+00" cType="1" res="-5.5045206099748611e-03" rms="4.6935337781906128e-01" purity="4.3912348151206970e-01" nType="-99"/>
            </Node>
          </Node>
        </Node>
        <Node pos="r" depth="1" NCoef="0" IVar="0" Cut="9.4653648138046265e-01" cType="1" res="-3.9675850421190262e-02" rms="3.8167563080787659e-01" purity="2.4240376055240631e-01" nType="0">
          <Node pos="l" depth="2" NCoef="0" IVar="4" Cut="1.7309404611587524e+00" cType="1" res="-1.2053420767188072e-02" rms="4.5554384589195251e-01" purity="3.9202210307121277e-01" nType="0">
            <Node pos="l" depth="3" NCoef="0" IVar="3" Cut="6.4904099702835083e-01" cType="1" res="-4.7038579359650612e-03" rms="4.6542298793792725e-01" purity="4.1486361622810364e-01" nType="0">
              <Node pos="l" depth="4" NCoef="0" IVar="1" Cut="6.7945504188537598e-01" cType="1" res="-2.8862573206424713e-02" rms="4.4630143046379089e-01" purity="3.0706208944320679e-01" nType="0">
                <Node pos="l" depth="5" NCoef="0" IVar="2" Cut="1.2433193969726562e+02" cType="1" res="-1.3911716639995575e-02" rms="4.6167808771133423e-01" purity="3.4572282433509827e-01" nType="0">
                  <Node pos="l" depth="6" NCoef="0" IVar="6" Cut="5.0510890781879425e-02" cType="1" res="1.2430910021066666e-02" rms="4.7352331876754761e-01" purity="3.7929672002792358e-01" nType="0">
                    <Node pos="l" depth="7" NCoef="0" IVar="-1" Cut="0.0000000000000000e+00" cType="1" res="-2.4631782434880733e-03" rms="4.6082851290702820e-01" purity="3.2727548480033875e-01" nType="-99"/>
                    <Node pos="r" depth="7" NCoef="0" IVar="-1" Cut="0.0000000000000000e+00" cType="1" res="4.1146841831505299e-03" rms="4.8213189840316772e-01" purity="4.2484298348426819e-01" nType="-99"/>
                  </Node>
                  <Node pos="r" depth="6" NCoef="0" IVar="6" Cut="1.0516571998596191e-01" cType="1" res="-2.6332201436161995e-02" rms="4.5545810461044312e-01" purity="3.2989281415939331e-01" nType="0">
                    <Node pos="l" depth="7" NCoef="0" IVar="-1" Cut="0.0000000000000000e+00" cType="1" res="-5.6783207692205906e-03" rms="4.4119682908058167e-01" purity="2.9554200172424316e-01" nType="-99"/>
                    <Node pos="r" depth="7" NCoef="0" IVar="-1" Cut="0.0000000000000000e+00" cType="1" res="-1.2662667722906917e-04" rms="4.6756255626678467e-01" purity="3.6333739757537842e-01" nType="-99"/>
                  </Node>
                </Node>
                <Node pos="r" depth="5" NCoef="0" IVar="6" Cut="8.9726559817790985e-02" cType="1" res="-5.8376304805278778e-02" rms="4.1268822550773621e-01" purity="2.3074387013912201e-01" nType="0">
                  <Node pos="l" depth="6" NCoef="0" IVar="-1" Cut="0.0000000000000000e+00" cType="1" res="-1.0388039052486420e-02" rms="3.8840091228485107e-01" purity="1.9228804111480713e-01" nType="-99"/>
                  <Node pos="r" depth="6" NCoef="0" IVar="-1" Cut="0.0000000000000000e+00" cType="1" res="-3.8721994496881962e-03" rms="4.3708181381225586e-01" purity="2.7398681640625000e-01" nType="-99"/>
                </Node>
              </Node>
              <Node pos="r" depth="4" NCoef="0" IVar="2" Cut="1.0823083496093750e+02" cType="1" res="2.2487690672278404e-02" rms="4.8460754752159119e-01" purity="5.3619837760925293e-01" nType="0">
                <Node pos="l" depth="5" NCoef="0" IVar="3" Cut="8.9708513021469116e-01" cType="1" res="4.1601166129112244e-02" rms="4.8221197724342346e-01" purity="5.7617235183715820e-01" nType="0">
                  <Node pos="l" depth="6" NCoef="0" IVar="6" Cut="3.1671062111854553e-02" cType="1" res="2.6042558252811432e-02" rms="4.8757162690162659e-01" purity="5.3104990720748901e-01" nType="0">
                    <Node pos="l" depth="7" NCoef="0" IVar="-1" Cut="0.0000000000000000e+00" cType="1" res="-1.5948531217873096e-03" rms="4.8810416460037231e-01" purity="4.9235975742340088e-01" nType="-99"/>
                    <Node pos="r" depth="7" NCoef="0" IVar="-1" Cut="0.0000000000000000e+00" cType="1" res="4.0441355668008327e-03" rms="4.8562121391296387e-01" purity="5.5192595720291138e-01" nType="-99"/>
                  </Node>
                  <Node pos="r" depth="6" NCoef="0" IVar="0" Cut="5.0360822677612305e-01" cType="1" res="6.1955161392688751e-02" rms="4.7433924674987793e-01" purity="6.3520222902297974e-01" nType="0">
                    <Node pos="l" depth="7" NCoef="0" IVar="-1" Cut="0.0000000000000000e+00" cType="1" res="7.4392352253198624e-03" rms="4.5711722970008850e-01" purity="6.9021922349929810e-01" nType="-99"/>
                    <Node pos="r" depth="7" NCoef="0" IVar="-1" Cut="0.0000000000000000e+00" cType="1" res="2.4620618205517530e-03" rms="4.8933556675910950e-01" purity="5.7875013351440430e-01" nType="-99"/>
                  </Node>
                </Node>
                <Node pos="r" depth="5" NCoef="0" IVar="1" Cut="4.6021923422813416e-01" cType="1" res="-4.1105318814516068e-03" rms="4.8667407035827637e-01" purity="4.8057070374488831e-01" nType="0">
                  <Node pos="l" depth="6" NCoef="0" IVar="6" Cut="8.0513000488281250e-02" cType="1" res="2.3759288713335991e-02" rms="4.9069443345069885e-01" purity="5.4050362110137939e-01" nType="0">
                    <Node pos="l" depth="7" NCoef="0" IVar="-1" Cut="0.0000000000000000e+00" cType="1" res="-2.4668406695127487e-04" rms="4.9342969059944153e-01" purity="5.1163685321807861e-01" nType="-99"/>
                    <Node pos="r" depth="7" NCoef="0" IVar="-1" Cut="0.0000000000000000e+00" cType="1" res="4.7142924740910530e-03" rms="4.8546272516250610e-01" purity="5.7526051998138428e-01" nType="-99"/>
                  </Node>
                  <Node pos="r" depth="6" NCoef="0" IVar="-1" Cut="0.0000000000000000e+00" cType="1" res="-4.8188767395913601e-03" rms="4.7616326808929443e-01" purity="3.7970572710037231e-01" nType="-99"/>
                </Node>
              </Node>
            </Node>
            <Node pos="r" depth="3" NCoef="0" IVar="-1" Cut="0.0000000000000000e+00" cType="1" res="-1.8474224954843521e-02" rms="2.7589187026023865e-01" purity="8.7966211140155792e-02" nType="-99"/>
          </Node>
          <Node pos="r" depth="2" NCoef="0" IVar="5" Cut="-1.5441930294036865e+00" cType="1" res="-6.1154607683420181e-02" rms="3.1069734692573547e-01" purity="1.2606298923492432e-01" nType="0">
            <Node pos="l" depth="3" NCoef="0" IVar="5" Cut="-3.3801269531250000e+00" cType="1" res="-5.1899608224630356e-02" rms="3.4738570451736450e-01" purity="1.6369539499282837e-01" nType="0">
              <Node pos="l" depth="4" NCoef="0" IVar="-1" Cut="0.0000000000000000e+00" cType="1" res="-1.8378071486949921e-02" rms="2.4795861542224884e-01" purity="7.4810139834880829e-02" nType="-99"/>
              <Node pos="r" depth="4" NCoef="0" IVar="0" Cut="1.5303999185562134e+00" cType="1" res="-4.7700945287942886e-02" rms="3.5766866803169250e-01" purity="1.7482008039951324e-01" nType="0">
                <Node pos="l" depth="5" NCoef="0" IVar="3" Cut="5.0440454483032227e-01" cType="1" res="-3.2069135457277298e-02" rms="4.0352538228034973e-01" purity="2.3328745365142822e-01" nType="0">
                  <Node pos="l" depth="6" NCoef="0" IVar="6" Cut="7.5701542198657990e-02" cType="1" res="-4.4415120035409927e-02" rms="3.6313998699188232e-01" purity="1.6352580487728119e-01" nType="0">
                    <Node pos="l" depth="7" NCoef="0" IVar="-1" Cut="0.0000000000000000e+00" cType="1" res="-1.2355091050267220e-02" rms="3.0668029189109802e-01" purity="1.0706157982349396e-01" nType="-99"/>
                    <Node pos="r" depth="7" NCoef="0" IVar="-1" Cut="0.0000000000000000e+00" cType="1" res="-5.1838192157447338e-03" rms="3.8665208220481873e-01" purity="1.9033163785934448e-01" nType="-99"/>
                  </Node>
                  <Node pos="r" depth="6" NCoef="0" IVar="-1" Cut="0.0000000000000000e+00" cType="1" res="-6.6009559668600559e-04" rms="4.7494995594024658e-01" purity="3.7681990861892700e-01" nType="-99"/>
                </Node>
                <Node pos="r" depth="5" NCoef="0" IVar="2" Cut="6.4438865661621094e+01" cType="1" res="-5.8056335896253586e-02" rms="3.2331740856170654e-01" purity="1.3608801364898682e-01" nType="0">
                  <Node pos="l" depth="6" NCoef="0" IVar="-1" Cut="0.0000000000000000e+00" cType="1" res="-3.5075629130005836e-03" rms="4.0110304951667786e-01" purity="2.6176735758781433e-01" nType="-99"/>
                  <Node pos="r" depth="6" NCoef="0" IVar="6" Cut="2.1072678267955780e-01" cType="1" res="-6.3609346747398376e-02" rms="3.0724996328353882e-01" purity="1.1395017057657242e-01" nType="0">
                    <Node pos="l" depth="7" NCoef="0" IVar="-1" Cut="0.0000000000000000e+00" cType="1" res="-1.4801059849560261e-02" rms="2.8543335199356079e-01" purity="9.6751451492309570e-02" nType="-99"/>
                    <Node pos="r" depth="7" NCoef="0" IVar="-1" Cut="0.0000000000000000e+00" cType="1" res="-3.8217776454985142e-03" rms="4.0525197982788086e-01" purity="2.0907936990261078e-01" nType="-99"/>
                  </Node>
                </Node>
              </Node>
            </Node>
            <Node pos="r" depth="3" NCoef="0" IVar="3" Cut="5.8756864070892334e-01" cType="1" res="-7.2486221790313721e-02" rms="2.5833734869956970e-01" purity="7.9986721277236938e-02" nType="0">
              <Node pos="l" depth="4" NCoef="0" IVar="6" Cut="2.3070625960826874e-01" cType="1" res="-6.9947943091392517e-02" rms="2.3503842949867249e-01" purity="6.2831431627273560e-02" nType="0">
                <Node pos="l" depth="5" NCoef="0" IVar="5" Cut="1.0784810781478882e+00" cType="1" res="-7.3385506868362427e-02" rms="2.1872776746749878e-01" purity="5.3885482251644135e-02" nType="0">
                  <Node pos="l" depth="6" NCoef="0" IVar="7" Cut="4.0000000000000000e+00" cType="1" res="-6.7420385777950287e-02" rms="2.5413355231285095e-01" purity="7.4825532734394073e-02" nType="0">
                    <Node pos="l" depth="7" NCoef="0" IVar="-1" Cut="0.0000000000000000e+00" cType="1" res="-9.7968215122818947e-03" rms="3.2023251056671143e-01" purity="1.2203515321016312e-01" nType="-99"/>
                    <Node pos="r" depth="7" NCoef="0" IVar="-1" Cut="0.0000000000000000e+00" cType="1" res="-1.7718426883220673e-02" rms="2.3603408038616180e-01" purity="6.2276683747768402e-02" nType="-99"/>
                  </Node>
                  <Node pos="r" depth="6" NCoef="0" IVar="3" Cut="3.4332671761512756e-01" cType="1" res="-8.2341529428958893e-02" rms="1.2134704738855362e-01" purity="1.5045113861560822e-02" nType="0">
                    <Node pos="l" depth="7" NCoef="0" IVar="-1" Cut="0.0000000000000000e+00" cType="1" res="-2.8029110282659531e-02" rms="1.1389519274234772e-01" purity="1.3277530670166016e-02" nType="-99"/>
                    <Node pos="r" depth="7" NCoef="0" IVar="-1" Cut="0.0000000000000000e+00" cType="1" res="-2.5273140519857407e-02" rms="1.3265240192413330e-01" purity="1.7990069463849068e-02" nType="-99"/>
                  </Node>
                </Node>
                <Node pos="r" depth="5" NCoef="0" IVar="-1" Cut="0.0000000000000000e+00" cType="1" res="-7.5553706847131252e-03" rms="3.4365686774253845e-01" purity="1.3999322056770325e-01" nType="-99"/>
              </Node>
              <Node pos="r" depth="4" NCoef="0" IVar="-1" Cut="0.0000000000000000e+00" cType="1" res="-1.0796907357871532e-02" rms="4.1792187094688416e-01" purity="2.4199530482292175e-01" nType="-99"/>
            </Node>
          </Node>
        </Node>
      </Node>
    </BinaryTree>
    <BinaryTree type="DecisionTree" boostWeight="1.0000000000000000e+00" itree="35">
      <Node pos="s" depth="0" NCoef="0" IVar="0" Cut="3.2240542769432068e-01" cType="1" res="1.3849375769495964e-02" rms="4.0646687150001526e-01" purity="5.0043731927871704e-01" nType="0">
        <Node pos="l" depth="1" NCoef="0" IVar="3" Cut="8.1698596477508545e-01" cType="1" res="6.1014022678136826e-02" rms="4.2298722267150879e-01" purity="7.3053741455078125e-01" nType="0">
          <Node pos="l" depth="2" NCoef="0" IVar="5" Cut="-1.0671212673187256e+00" cType="1" res="1.9240599125623703e-02" rms="4.7503349184989929e-01" purity="5.7214397192001343e-01" nType="0">
            <Node pos="l" depth="3" NCoef="0" IVar="3" Cut="6.3526225090026855e-01" cType="1" res="2.9126936569809914e-02" rms="4.7519785165786743e-01" purity="6.0237556695938110e-01" nType="0">
              <Node pos="l" depth="4" NCoef="0" IVar="-1" Cut="0.0000000000000000e+00" cType="1" res="-1.5790344914421439e-03" rms="4.7949960827827454e-01" purity="4.2220720648765564e-01" nType="-99"/>
              <Node pos="r" depth="4" NCoef="0" IVar="6" Cut="6.7216329276561737e-02" cType="1" res="3.6733064800500870e-02" rms="4.7405281662940979e-01" purity="6.3217556476593018e-01" nType="0">
                <Node pos="l" depth="5" NCoef="0" IVar="1" Cut="-4.7861330211162567e-02" cType="1" res="2.2520469501614571e-02" rms="4.7602179646492004e-01" purity="6.1974531412124634e-01" nType="0">
                  <Node pos="l" depth="6" NCoef="0" IVar="2" Cut="8.5900009155273438e+01" cType="1" res="5.1936797797679901e-02" rms="4.5909532904624939e-01" purity="6.9151538610458374e-01" nType="0">
                    <Node pos="l" depth="7" NCoef="0" IVar="-1" Cut="0.0000000000000000e+00" cType="1" res="6.1277607455849648e-03" rms="4.4985923171043396e-01" purity="7.1265077590942383e-01" nType="-99"/>
                    <Node pos="r" depth="7" NCoef="0" IVar="-1" Cut="0.0000000000000000e+00" cType="1" res="2.7755640912801027e-03" rms="4.6751070022583008e-01" purity="6.6962945461273193e-01" nType="-99"/>
                  </Node>
                  <Node pos="r" depth="6" NCoef="0" IVar="0" Cut="1.7680086195468903e-01" cType="1" res="5.0282576121389866e-03" rms="4.8496222496032715e-01" purity="5.7706779241561890e-01" nType="0">
                    <Node pos="l" depth="7" NCoef="0" IVar="-1" Cut="0.0000000000000000e+00" cType="1" res="2.1580460015684366e-03" rms="4.8012533783912659e-01" purity="6.1234217882156372e-01" nType="-99"/>
                    <Node pos="r" depth="7" NCoef="0" IVar="-1" Cut="0.0000000000000000e+00" cType="1" res="-1.9517284817993641e-03" rms="4.8958098888397217e-01" purity="5.3397941589355469e-01" nType="-99"/>
                  </Node>
                </Node>
                <Node pos="r" depth="5" NCoef="0" IVar="2" Cut="1.9354556274414062e+02" cType="1" res="7.0543989539146423e-02" rms="4.6760252118110657e-01" purity="6.6174650192260742e-01" nType="0">
                  <Node pos="l" depth="6" NCoef="0" IVar="-1" Cut="0.0000000000000000e+00" cType="1" res="7.6487399637699127e-03" rms="4.5583212375640869e-01" purity="6.9224917888641357e-01" nType="-99"/>
                  <Node pos="r" depth="6" NCoef="0" IVar="-1" Cut="0.0000000000000000e+00" cType="1" res="4.0350519120693207e-03" rms="4.7747850418090820e-01" purity="6.3198417425155640e-01" nType="-99"/>
                </Node>
              </Node>
            </Node>
            <Node pos="r" depth="3" NCoef="0" IVar="-1" Cut="0.0000000000000000e+00" cType="1" res="-3.2806303352117538e-03" rms="4.7051262855529785e-01" purity="4.0766048431396484e-01" nType="-99"/>
          </Node>
          <Node pos="r" depth="2" NCoef="0" IVar="5" Cut="-2.5105400085449219e+00" cType="1" res="7.3188789188861847e-02" rms="4.0575793385505676e-01" purity="7.7670085430145264e-01" nType="0">
            <Node pos="l" depth="3" NCoef="0" IVar="1" Cut="3.5617929697036743e-01" cType="1" res="8.7622113525867462e-02" rms="3.7900930643081665e-01" purity="8.2026576995849609e-01" nType="0">
              <Node pos="l" depth="4" NCoef="0" IVar="3" Cut="1.0008455514907837e+00" cType="1" res="9.5865808427333832e-02" rms="3.5600155591964722e-01" purity="8.4959822893142700e-01" nType="0">
                <Node pos="l" depth="5" NCoef="0" IVar="4" Cut="-2.5032336711883545e+00" cType="1" res="8.9978277683258057e-02" rms="3.6680316925048828e-01" purity="8.3822631835937500e-01" nType="0">
                  <Node pos="l" depth="6" NCoef="0" IVar="-1" Cut="0.0000000000000000e+00" cType="1" res="1.0896285064518452e-02" rms="3.7144556641578674e-01" purity="8.3367329835891724e-01" nType="-99"/>
                  <Node pos="r" depth="6" NCoef="0" IVar="4" Cut="-1.5061850547790527e+00" cType="1" res="8.6505427956581116e-02" rms="3.6570885777473450e-01" purity="8.3920025825500488e-01" nType="0">
                    <Node pos="l" depth="7" NCoef="0" IVar="-1" Cut="0.0000000000000000e+00" cType="1" res="5.9082238003611565e-03" rms="4.0820723772048950e-01" purity="7.8795814514160156e-01" nType="-99"/>
                    <Node pos="r" depth="7" NCoef="0" IVar="-1" Cut="0.0000000000000000e+00" cType="1" res="1.0041750967502594e-02" rms="3.5114836692810059e-01" purity="8.5509341955184937e-01" nType="-99"/>
                  </Node>
                </Node>
                <Node pos="r" depth="5" NCoef="0" IVar="5" Cut="-2.9161825180053711e+00" cType="1" res="1.0898370295763016e-01" rms="3.3029097318649292e-01" purity="8.7493580579757690e-01" nType="0">
                  <Node pos="l" depth="6" NCoef="0" IVar="5" Cut="-3.1794588565826416e+00" cType="1" res="1.1584494262933731e-01" rms="3.1832697987556458e-01" purity="8.8522309064865112e-01" nType="0">
                    <Node pos="l" depth="7" NCoef="0" IVar="-1" Cut="0.0000000000000000e+00" cType="1" res="1.2488299049437046e-02" rms="3.1265971064567566e-01" purity="8.8980907201766968e-01" nType="-99"/>
                    <Node pos="r" depth="7" NCoef="0" IVar="-1" Cut="0.0000000000000000e+00" cType="1" res="1.1533912271261215e-02" rms="3.2282319664955139e-01" purity="8.8149577379226685e-01" nType="-99"/>
                  </Node>
                  <Node pos="r" depth="6" NCoef="0" IVar="-1" Cut="0.0000000000000000e+00" cType="1" res="9.7788274288177490e-03" rms="3.4900155663490295e-01" purity="8.5780978202819824e-01" nType="-99"/>
                </Node>
              </Node>
              <Node pos="r" depth="4" NCoef="0" IVar="4" Cut="-1.0176445245742798e+00" cType="1" res="6.8887583911418915e-02" rms="4.2611527442932129e-01" purity="7.5360512733459473e-01" nType="0">
                <Node pos="l" depth="5" NCoef="0" IVar="6" Cut="1.1372479610145092e-02" cType="1" res="5.3128443658351898e-02" rms="4.5197087526321411e-01" purity="7.0699232816696167e-01" nType="0">
                  <Node pos="l" depth="6" NCoef="0" IVar="-1" Cut="0.0000000000000000e+00" cType="1" res="3.4668173175305128e-03" rms="4.4908428192138672e-01" purity="7.1192616224288940e-01" nType="-99"/>
                  <Node pos="r" depth="6" NCoef="0" IVar="-1" Cut="0.0000000000000000e+00" cType="1" res="5.7632541283965111e-03" rms="4.5501217246055603e-01" purity="7.0129150152206421e-01" nType="-99"/>
                </Node>
                <Node pos="r" depth="5" NCoef="0" IVar="5" Cut="-2.8826298713684082e+00" cType="1" res="8.0113716423511505e-02" rms="4.0632298588752747e-01" purity="7.8681010007858276e-01" nType="0">
                  <Node pos="l" depth="6" NCoef="0" IVar="5" Cut="-3.1295614242553711e+00" cType="1" res="9.3065179884433746e-02" rms="3.9391022920608521e-01" purity="8.0480480194091797e-01" nType="0">
                    <Node pos="l" depth="7" NCoef="0" IVar="-1" Cut="0.0000000000000000e+00" cType="1" res="9.3895783647894859e-03" rms="3.8767445087432861e-01" purity="8.1326240301132202e-01" nType="-99"/>
                    <Node pos="r" depth="7" NCoef="0" IVar="-1" Cut="0.0000000000000000e+00" cType="1" res="8.1110224127769470e-03" rms="4.0032827854156494e-01" purity="7.9579222202301025e-01" nType="-99"/>
                  </Node>
                  <Node pos="r" depth="6" NCoef="0" IVar="-1" Cut="0.0000000000000000e+00" cType="1" res="5.3591257892549038e-03" rms="4.2574176192283630e-01" purity="7.5613796710968018e-01" nType="-99"/>
                </Node>
              </Node>
            </Node>
            <Node pos="r" depth="3" NCoef="0" IVar="1" Cut="4.8753246665000916e-01" cType="1" res="5.5713173002004623e-02" rms="4.3531364202499390e-01" purity="7.2395324707031250e-01" nType="0">
              <Node pos="l" depth="4" NCoef="0" IVar="3" Cut="9.9323582649230957e-01" cType="1" res="6.7688338458538055e-02" rms="4.2025533318519592e-01" purity="7.6035374402999878e-01" nType="0">
                <Node pos="l" depth="5" NCoef="0" IVar="5" Cut="-1.0901937484741211e+00" cType="1" res="5.5927075445652008e-02" rms="4.3618929386138916e-01" purity="7.3267608880996704e-01" nType="0">
                  <Node pos="l" depth="6" NCoef="0" IVar="5" Cut="-2.1898112297058105e+00" cType="1" res="6.1343453824520111e-02" rms="4.2508351802825928e-01" purity="7.5909304618835449e-01" nType="0">
                    <Node pos="l" depth="7" NCoef="0" IVar="-1" Cut="0.0000000000000000e+00" cType="1" res="7.0992354303598404e-03" rms="4.0393775701522827e-01" purity="7.9233533143997192e-01" nType="-99"/>
                    <Node pos="r" depth="7" NCoef="0" IVar="-1" Cut="0.0000000000000000e+00" cType="1" res="5.1677944138646126e-03" rms="4.3655794858932495e-01" purity="7.4013084173202515e-01" nType="-99"/>
                  </Node>
                  <Node pos="r" depth="6" NCoef="0" IVar="-1" Cut="0.0000000000000000e+00" cType="1" res="2.7164684142917395e-03" rms="4.8366722464561462e-01" purity="6.0993427038192749e-01" nType="-99"/>
                </Node>
                <Node pos="r" depth="5" NCoef="0" IVar="5" Cut="-1.8829956054687500e+00" cType="1" res="8.1426344811916351e-02" rms="4.0040490031242371e-01" purity="7.9268318414688110e-01" nType="0">
                  <Node pos="l" depth="6" NCoef="0" IVar="4" Cut="-6.2143713235855103e-01" cType="1" res="9.2426516115665436e-02" rms="3.7220469117164612e-01" purity="8.3295631408691406e-01" nType="0">
                    <Node pos="l" depth="7" NCoef="0" IVar="-1" Cut="0.0000000000000000e+00" cType="1" res="6.8442588672041893e-03" rms="3.9382520318031311e-01" purity="8.0695545673370361e-01" nType="-99"/>
                    <Node pos="r" depth="7" NCoef="0" IVar="-1" Cut="0.0000000000000000e+00" cType="1" res="1.0458050295710564e-02" rms="3.5881760716438293e-01" purity="8.4794950485229492e-01" nType="-99"/>
                  </Node>
                  <Node pos="r" depth="6" NCoef="0" IVar="1" Cut="-1.0588491708040237e-01" cType="1" res="6.7802689969539642e-02" rms="4.3240332603454590e-01" purity="7.4280518293380737e-01" nType="0">
                    <Node pos="l" depth="7" NCoef="0" IVar="-1" Cut="0.0000000000000000e+00" cType="1" res="7.4382107704877853e-03" rms="4.1785147786140442e-01" purity="7.6869189739227295e-01" nType="-99"/>
                    <Node pos="r" depth="7" NCoef="0" IVar="-1" Cut="0.0000000000000000e+00" cType="1" res="4.8683257773518562e-03" rms="4.4588831067085266e-01" purity="7.1711206436157227e-01" nType="-99"/>
                  </Node>
                </Node>
              </Node>
              <Node pos="r" depth="4" NCoef="0" IVar="1" Cut="1.7137798070907593e+00" cType="1" res="2.2001815959811211e-02" rms="4.7352504730224609e-01" purity="6.2148207426071167e-01" nType="0">
                <Node pos="l" depth="5" NCoef="0" IVar="3" Cut="9.9671268463134766e-01" cType="1" res="3.8627795875072479e-02" rms="4.6726167201995850e-01" purity="6.5125697851181030e-01" nType="0">
                  <Node pos="l" depth="6" NCoef="0" IVar="5" Cut="-1.8726072311401367e+00" cType="1" res="1.4544442296028137e-02" rms="4.7850149869918823e-01" purity="6.1271595954895020e-01" nType="0">
                    <Node pos="l" depth="7" NCoef="0" IVar="-1" Cut="0.0000000000000000e+00" cType="1" res="2.3966508451849222e-03" rms="4.6906724572181702e-01" purity="6.6651898622512817e-01" nType="-99"/>
                    <Node pos="r" depth="7" NCoef="0" IVar="-1" Cut="0.0000000000000000e+00" cType="1" res="1.2309259909670800e-04" rms="4.8775771260261536e-01" purity="5.5685031414031982e-01" nType="-99"/>
                  </Node>
                  <Node pos="r" depth="6" NCoef="0" IVar="-1" Cut="0.0000000000000000e+00" cType="1" res="6.3086440786719322e-03" rms="4.4711515307426453e-01" purity="7.0996397733688354e-01" nType="-99"/>
                </Node>
                <Node pos="r" depth="5" NCoef="0" IVar="-1" Cut="0.0000000000000000e+00" cType="1" res="-3.0647036619484425e-03" rms="4.9034368991851807e-01" purity="5.1774722337722778e-01" nType="-99"/>
              </Node>
            </Node>
          </Node>
        </Node>
        <Node pos="r" depth="1" NCoef="0" IVar="0" Cut="9.4642311334609985e-01" cType="1" res="-3.9292477071285248e-02" rms="3.8005977869033813e-01" purity="2.4117642641067505e-01" nType="0">
          <Node pos="l" depth="2" NCoef="0" IVar="4" Cut="1.8623832464218140e+00" cType="1" res="-1.1446880176663399e-02" rms="4.5545169711112976e-01" purity="3.9272883534431458e-01" nType="0">
            <Node pos="l" depth="3" NCoef="0" IVar="3" Cut="6.5488046407699585e-01" cType="1" res="-5.0062211230397224e-03" rms="4.6475544571876526e-01" purity="4.1354385018348694e-01" nType="0">
              <Node pos="l" depth="4" NCoef="0" IVar="7" Cut="3.0000000000000000e+00" cType="1" res="-3.5719149746000767e-03" rms="2.8313744068145752e-01" purity="3.1034785509109497e-01" nType="0">
                <Node pos="l" depth="5" NCoef="0" IVar="-1" Cut="0.0000000000000000e+00" cType="1" res="-7.6924436725676060e-03" rms="4.3426910042762756e-01" purity="2.8306916356086731e-01" nType="-99"/>
                <Node pos="r" depth="5" NCoef="0" IVar="1" Cut="-5.4835718125104904e-02" cType="1" res="-1.8303830176591873e-02" rms="4.4860434532165527e-01" purity="3.1486853957176208e-01" nType="0">
                  <Node pos="l" depth="6" NCoef="0" IVar="2" Cut="2.2251701354980469e+02" cType="1" res="1.7455743625760078e-02" rms="4.7691854834556580e-01" purity="3.9877003431320190e-01" nType="0">
                    <Node pos="l" depth="7" NCoef="0" IVar="-1" Cut="0.0000000000000000e+00" cType="1" res="3.3807503059506416e-03" rms="4.8226574063301086e-01" purity="4.2144590616226196e-01" nType="-99"/>
                    <Node pos="r" depth="7" NCoef="0" IVar="-1" Cut="0.0000000000000000e+00" cType="1" res="-2.6965540018863976e-04" rms="4.7010797262191772e-01" purity="3.7364593148231506e-01" nType="-99"/>
                  </Node>
                  <Node pos="r" depth="6" NCoef="0" IVar="6" Cut="8.7175019085407257e-02" cType="1" res="-3.0984211713075638e-02" rms="4.3742328882217407e-01" purity="2.8511697053909302e-01" nType="0">
                    <Node pos="l" depth="7" NCoef="0" IVar="-1" Cut="0.0000000000000000e+00" cType="1" res="-5.4771346040070057e-03" rms="4.2529833316802979e-01" purity="2.5725057721138000e-01" nType="-99"/>
                    <Node pos="r" depth="7" NCoef="0" IVar="-1" Cut="0.0000000000000000e+00" cType="1" res="-1.7042345134541392e-03" rms="4.4858497381210327e-01" purity="3.1273624300956726e-01" nType="-99"/>
                  </Node>
                </Node>
              </Node>
              <Node pos="r" depth="4" NCoef="0" IVar="3" Cut="8.2747566699981689e-01" cType="1" res="1.9997045397758484e-02" rms="4.8413276672363281e-01" purity="5.3784316778182983e-01" nType="0">
                <Node pos="l" depth="5" NCoef="0" IVar="6" Cut="4.7918509691953659e-02" cType="1" res="4.1452287696301937e-03" rms="4.8734158277511597e-01" purity="4.9303746223449707e-01" nType="0">
                  <Node pos="l" depth="6" NCoef="0" IVar="-1" Cut="0.0000000000000000e+00" cType="1" res="-4.0932721458375454e-03" rms="4.8426285386085510e-01" purity="4.3887162208557129e-01" nType="-99"/>
                  <Node pos="r" depth="6" NCoef="0" IVar="1" Cut="1.8233324587345123e-01" cType="1" res="2.4542238563299179e-02" rms="4.8715025186538696e-01" purity="5.1542347669601440e-01" nType="0">
                    <Node pos="l" depth="7" NCoef="0" IVar="-1" Cut="0.0000000000000000e+00" cType="1" res="4.3082218617200851e-03" rms="4.8574128746986389e-01" purity="5.8190864324569702e-01" nType="-99"/>
                    <Node pos="r" depth="7" NCoef="0" IVar="-1" Cut="0.0000000000000000e+00" cType="1" res="7.0869675255380571e-05" rms="4.8713555932044983e-01" purity="4.5741403102874756e-01" nType="-99"/>
                  </Node>
                </Node>
                <Node pos="r" depth="5" NCoef="0" IVar="1" Cut="3.3658003807067871e-01" cType="1" res="4.6421103179454803e-02" rms="4.7756788134574890e-01" purity="6.1253172159194946e-01" nType="0">
                  <Node pos="l" depth="6" NCoef="0" IVar="-1" Cut="0.0000000000000000e+00" cType="1" res="5.8809909969568253e-03" rms="4.6300047636032104e-01" purity="6.7357015609741211e-01" nType="-99"/>
                  <Node pos="r" depth="6" NCoef="0" IVar="-1" Cut="0.0000000000000000e+00" cType="1" res="1.5509329969063401e-03" rms="4.9188166856765747e-01" purity="5.4415392875671387e-01" nType="-99"/>
                </Node>
              </Node>
            </Node>
            <Node pos="r" depth="3" NCoef="0" IVar="-1" Cut="0.0000000000000000e+00" cType="1" res="-1.9150996580719948e-02" rms="2.6159641146659851e-01" purity="7.9178139567375183e-02" nType="-99"/>
          </Node>
          <Node pos="r" depth="2" NCoef="0" IVar="5" Cut="-1.2603518962860107e+00" cType="1" res="-6.1050105839967728e-02" rms="3.0683419108390808e-01" purity="1.2275839596986771e-01" nType="0">
            <Node pos="l" depth="3" NCoef="0" IVar="3" Cut="7.8013855218887329e-01" cType="1" res="-5.2398376166820526e-02" rms="3.4429174661636353e-01" purity="1.5963473916053772e-01" nType="0">
              <Node pos="l" depth="4" NCoef="0" IVar="6" Cut="8.9603185653686523e-02" cType="1" res="-5.6243270635604858e-02" rms="3.2516112923622131e-01" purity="1.3277004659175873e-01" nType="0">
                <Node pos="l" depth="5" NCoef="0" IVar="2" Cut="1.0300334167480469e+02" cType="1" res="-7.0618905127048492e-02" rms="2.9213899374008179e-01" purity="1.0550189763307571e-01" nType="0">
                  <Node pos="l" depth="6" NCoef="0" IVar="6" Cut="4.9255046993494034e-02" cType="1" res="-5.5761504918336868e-02" rms="3.1524333357810974e-01" purity="1.2783490121364594e-01" nType="0">
                    <Node pos="l" depth="7" NCoef="0" IVar="-1" Cut="0.0000000000000000e+00" cType="1" res="-1.4144167304039001e-02" rms="2.9839679598808289e-01" purity="1.0995186865329742e-01" nType="-99"/>
                    <Node pos="r" depth="7" NCoef="0" IVar="-1" Cut="0.0000000000000000e+00" cType="1" res="-4.8525440506637096e-03" rms="3.3814963698387146e-01" purity="1.5618135035037994e-01" nType="-99"/>
                  </Node>
                  <Node pos="r" depth="6" NCoef="0" IVar="7" Cut="4.0000000000000000e+00" cType="1" res="-8.0530710518360138e-02" rms="2.6945680379867554e-01" purity="8.8546670973300934e-02" nType="0">
                    <Node pos="l" depth="7" NCoef="0" IVar="-1" Cut="0.0000000000000000e+00" cType="1" res="-1.6173277050256729e-02" rms="3.2046857476234436e-01" purity="1.2827293574810028e-01" nType="-99"/>
                    <Node pos="r" depth="7" NCoef="0" IVar="-1" Cut="0.0000000000000000e+00" cType="1" res="-1.6565481200814247e-02" rms="2.4650214612483978e-01" purity="6.9745950400829315e-02" nType="-99"/>
                  </Node>
                </Node>
                <Node pos="r" depth="5" NCoef="0" IVar="2" Cut="2.4713723754882812e+02" cType="1" res="-4.4695269316434860e-02" rms="3.4900632500648499e-01" purity="1.5467464923858643e-01" nType="0">
                  <Node pos="l" depth="6" NCoef="0" IVar="0" Cut="1.8216401338577271e+00" cType="1" res="-1.6515385359525681e-02" rms="3.6736482381820679e-01" purity="1.7956617474555969e-01" nType="0">
                    <Node pos="l" depth="7" NCoef="0" IVar="-1" Cut="0.0000000000000000e+00" cType="1" res="1.0010869009420276e-03" rms="4.1421431303024292e-01" purity="2.4298791587352753e-01" nType="-99"/>
                    <Node pos="r" depth="7" NCoef="0" IVar="-1" Cut="0.0000000000000000e+00" cType="1" res="-9.3924710527062416e-03" rms="3.0868524312973022e-01" purity="1.1292373389005661e-01" nType="-99"/>
                  </Node>
                  <Node pos="r" depth="6" NCoef="0" IVar="6" Cut="1.7849415540695190e-01" cType="1" res="-5.8318953961133957e-02" rms="3.3893620967864990e-01" purity="1.4264072477817535e-01" nType="0">
                    <Node pos="l" depth="7" NCoef="0" IVar="-1" Cut="0.0000000000000000e+00" cType="1" res="-1.2518710456788540e-02" rms="3.1280556321144104e-01" purity="1.1949396878480911e-01" nType="-99"/>
                    <Node pos="r" depth="7" NCoef="0" IVar="-1" Cut="0.0000000000000000e+00" cType="1" res="-6.7517044954001904e-03" rms="3.7831836938858032e-01" purity="1.8152967095375061e-01" nType="-99"/>
                  </Node>
                </Node>
              </Node>
              <Node pos="r" depth="4" NCoef="0" IVar="-1" Cut="0.0000000000000000e+00" cType="1" res="-1.5212629223242402e-03" rms="4.8750787973403931e-01" purity="4.1256248950958252e-01" nType="-99"/>
            </Node>
            <Node pos="r" depth="3" NCoef="0" IVar="3" Cut="5.1686960458755493e-01" cType="1" res="-7.4299529194831848e-02" rms="2.3771065473556519e-01" purity="6.6285237669944763e-02" nType="0">
              <Node pos="l" depth="4" NCoef="0" IVar="0" Cut="4.1531352996826172e+00" cType="1" res="-7.1947172284126282e-02" rms="2.1018610894680023e-01" purity="4.9041744321584702e-02" nType="0">
                <Node pos="l" depth="5" NCoef="0" IVar="5" Cut="5.4131999611854553e-02" cType="1" res="-7.4977561831474304e-02" rms="2.0462919771671295e-01" purity="4.6206437051296234e-02" nType="0">
                  <Node pos="l" depth="6" NCoef="0" IVar="6" Cut="1.5214647352695465e-01" cType="1" res="-6.9153301417827606e-02" rms="2.5828674435615540e-01" purity="7.4824869632720947e-02" nType="0">
                    <Node pos="l" depth="7" NCoef="0" IVar="-1" Cut="0.0000000000000000e+00" cType="1" res="-1.8415419384837151e-02" rms="2.2864305973052979e-01" purity="5.7448145002126694e-02" nType="-99"/>
                    <Node pos="r" depth="7" NCoef="0" IVar="-1" Cut="0.0000000000000000e+00" cType="1" res="-1.1129117570817471e-02" rms="3.1274479627609253e-01" purity="1.1259511113166809e-01" nType="-99"/>
                  </Node>
                  <Node pos="r" depth="6" NCoef="0" IVar="3" Cut="2.9079598188400269e-01" cType="1" res="-7.8923463821411133e-02" rms="1.5813387930393219e-01" purity="2.6817614212632179e-02" nType="0">
                    <Node pos="l" depth="7" NCoef="0" IVar="-1" Cut="0.0000000000000000e+00" cType="1" res="-2.3447383195161819e-02" rms="1.6986268758773804e-01" purity="3.1481388956308365e-02" nType="-99"/>
                    <Node pos="r" depth="7" NCoef="0" IVar="-1" Cut="0.0000000000000000e+00" cType="1" res="-2.4243254214525223e-02" rms="1.4958602190017700e-01" purity="2.3661989718675613e-02" nType="-99"/>
                  </Node>
                </Node>
                <Node pos="r" depth="5" NCoef="0" IVar="-1" Cut="0.0000000000000000e+00" cType="1" res="-1.3399002142250538e-02" rms="2.4973782896995544e-01" purity="7.2267226874828339e-02" nType="-99"/>
              </Node>
              <Node pos="r" depth="4" NCoef="0" IVar="-1" Cut="0.0000000000000000e+00" cType="1" res="-1.1431172490119934e-02" rms="3.8941609859466553e-01" purity="1.9988083839416504e-01" nType="-99"/>
            </Node>
          </Node>
        </Node>
      </Node>
    </BinaryTree>
    <BinaryTree type="DecisionTree" boostWeight="1.0000000000000000e+00" itree="36">
      <Node pos="s" depth="0" NCoef="0" IVar="0" Cut="3.2245293259620667e-01" cType="1" res="1.3661521486938000e-02" rms="4.0637272596359253e-01" purity="4.9909126758575439e-01" nType="0">
        <Node pos="l" depth="1" NCoef="0" IVar="3" Cut="8.2964831590652466e-01" cType="1" res="5.7987976819276810e-02" rms="4.2312055826187134e-01" purity="7.2969079017639160e-01" nType="0">
          <Node pos="l" depth="2" NCoef="0" IVar="1" Cut="4.6743294596672058e-01" cType="1" res="1.9046636298298836e-02" rms="4.7356063127517700e-01" purity="5.7974570989608765e-01" nType="0">
            <Node pos="l" depth="3" NCoef="0" IVar="5" Cut="-1.0042350292205811e+00" cType="1" res="3.5114586353302002e-02" rms="4.6810966730117798e-01" purity="6.3095718622207642e-01" nType="0">
              <Node pos="l" depth="4" NCoef="0" IVar="6" Cut="5.8993641287088394e-02" cType="1" res="4.2073544114828110e-02" rms="4.6547347307205200e-01" purity="6.5795111656188965e-01" nType="0">
                <Node pos="l" depth="5" NCoef="0" IVar="0" Cut="2.0802074670791626e-01" cType="1" res="3.0019339174032211e-02" rms="4.6738731861114502e-01" purity="6.5618848800659180e-01" nType="0">
                  <Node pos="l" depth="6" NCoef="0" IVar="2" Cut="5.3619758605957031e+01" cType="1" res="4.4512171298265457e-02" rms="4.5901653170585632e-01" purity="6.8275058269500732e-01" nType="0">
                    <Node pos="l" depth="7" NCoef="0" IVar="-1" Cut="0.0000000000000000e+00" cType="1" res="5.2847550250589848e-03" rms="4.5157319307327271e-01" purity="7.0279914140701294e-01" nType="-99"/>
                    <Node pos="r" depth="7" NCoef="0" IVar="-1" Cut="0.0000000000000000e+00" cType="1" res="2.4742227979004383e-03" rms="4.6435847878456116e-01" purity="6.6634196043014526e-01" nType="-99"/>
                  </Node>
                  <Node pos="r" depth="6" NCoef="0" IVar="-1" Cut="0.0000000000000000e+00" cType="1" res="4.2241028859280050e-04" rms="4.8075190186500549e-01" purity="6.0926973819732666e-01" nType="-99"/>
                </Node>
                <Node pos="r" depth="5" NCoef="0" IVar="2" Cut="1.4727439880371094e+02" cType="1" res="5.8625675737857819e-02" rms="4.6232077479362488e-01" purity="6.6037130355834961e-01" nType="0">
                  <Node pos="l" depth="6" NCoef="0" IVar="-1" Cut="0.0000000000000000e+00" cType="1" res="7.6907724142074585e-03" rms="4.4222959876060486e-01" purity="7.1490824222564697e-01" nType="-99"/>
                  <Node pos="r" depth="6" NCoef="0" IVar="-1" Cut="0.0000000000000000e+00" cType="1" res="3.1848321668803692e-03" rms="4.7284811735153198e-01" purity="6.2660402059555054e-01" nType="-99"/>
                </Node>
              </Node>
              <Node pos="r" depth="4" NCoef="0" IVar="-1" Cut="0.0000000000000000e+00" cType="1" res="-8.7008503032848239e-04" rms="4.8227694630622864e-01" purity="4.5809519290924072e-01" nType="-99"/>
            </Node>
            <Node pos="r" depth="3" NCoef="0" IVar="6" Cut="3.7368647754192352e-02" cType="1" res="-1.6386810690164566e-02" rms="4.8348137736320496e-01" purity="4.6681287884712219e-01" nType="0">
              <Node pos="l" depth="4" NCoef="0" IVar="-1" Cut="0.0000000000000000e+00" cType="1" res="-5.9225666336715221e-03" rms="4.8510468006134033e-01" purity="4.3439525365829468e-01" nType="-99"/>
              <Node pos="r" depth="4" NCoef="0" IVar="3" Cut="6.9779831171035767e-01" cType="1" res="7.9171481775119901e-04" rms="4.8173364996910095e-01" purity="4.7822251915931702e-01" nType="0">
                <Node pos="l" depth="5" NCoef="0" IVar="-1" Cut="0.0000000000000000e+00" cType="1" res="-3.2207844778895378e-03" rms="4.6565312147140503e-01" purity="3.6275377869606018e-01" nType="-99"/>
                <Node pos="r" depth="5" NCoef="0" IVar="-1" Cut="0.0000000000000000e+00" cType="1" res="1.7100276891142130e-03" rms="4.8978406190872192e-01" purity="5.4538220167160034e-01" nType="-99"/>
              </Node>
            </Node>
          </Node>
          <Node pos="r" depth="2" NCoef="0" IVar="1" Cut="1.8164764642715454e+00" cType="1" res="7.1108236908912659e-02" rms="4.0386795997619629e-01" purity="7.8021079301834106e-01" nType="0">
            <Node pos="l" depth="3" NCoef="0" IVar="5" Cut="-1.8219672441482544e+00" cType="1" res="7.4479125440120697e-02" rms="3.9936962723731995e-01" purity="7.8937166929244995e-01" nType="0">
              <Node pos="l" depth="4" NCoef="0" IVar="4" Cut="-1.0341894626617432e+00" cType="1" res="8.0789841711521149e-02" rms="3.8402259349822998e-01" purity="8.1508374214172363e-01" nType="0">
                <Node pos="l" depth="5" NCoef="0" IVar="4" Cut="-2.4860103130340576e+00" cType="1" res="6.9428831338882446e-02" rms="4.0936374664306641e-01" purity="7.8190016746520996e-01" nType="0">
                  <Node pos="l" depth="6" NCoef="0" IVar="3" Cut="8.8277578353881836e-01" cType="1" res="8.6251989006996155e-02" rms="3.9626598358154297e-01" purity="7.9933017492294312e-01" nType="0">
                    <Node pos="l" depth="7" NCoef="0" IVar="-1" Cut="0.0000000000000000e+00" cType="1" res="6.5546398982405663e-03" rms="4.2126971483230591e-01" purity="7.6282775402069092e-01" nType="-99"/>
                    <Node pos="r" depth="7" NCoef="0" IVar="-1" Cut="0.0000000000000000e+00" cType="1" res="1.0307773016393185e-02" rms="3.7715518474578857e-01" purity="8.2501929998397827e-01" nType="-99"/>
                  </Node>
                  <Node pos="r" depth="6" NCoef="0" IVar="1" Cut="6.9032746553421021e-01" cType="1" res="6.1560362577438354e-02" rms="4.1511410474777222e-01" purity="7.7374786138534546e-01" nType="0">
                    <Node pos="l" depth="7" NCoef="0" IVar="-1" Cut="0.0000000000000000e+00" cType="1" res="6.0555473901331425e-03" rms="4.0569883584976196e-01" purity="7.9043948650360107e-01" nType="-99"/>
                    <Node pos="r" depth="7" NCoef="0" IVar="-1" Cut="0.0000000000000000e+00" cType="1" res="3.1995340250432491e-03" rms="4.6522572636604309e-01" purity="6.7734819650650024e-01" nType="-99"/>
                  </Node>
                </Node>
                <Node pos="r" depth="5" NCoef="0" IVar="5" Cut="-2.7309515476226807e+00" cType="1" res="8.8659830391407013e-02" rms="3.6523231863975525e-01" purity="8.3807063102722168e-01" nType="0">
                  <Node pos="l" depth="6" NCoef="0" IVar="1" Cut="1.1347950249910355e-01" cType="1" res="9.6673727035522461e-02" rms="3.4707602858543396e-01" purity="8.5804516077041626e-01" nType="0">
                    <Node pos="l" depth="7" NCoef="0" IVar="-1" Cut="0.0000000000000000e+00" cType="1" res="1.1380931362509727e-02" rms="3.2594612240791321e-01" purity="8.7902849912643433e-01" nType="-99"/>
                    <Node pos="r" depth="7" NCoef="0" IVar="-1" Cut="0.0000000000000000e+00" cType="1" res="9.0068196877837181e-03" rms="3.7384867668151855e-01" purity="8.2942777872085571e-01" nType="-99"/>
                  </Node>
                  <Node pos="r" depth="6" NCoef="0" IVar="3" Cut="9.9283087253570557e-01" cType="1" res="7.8515723347663879e-02" rms="3.8675713539123535e-01" purity="8.1278657913208008e-01" nType="0">
                    <Node pos="l" depth="7" NCoef="0" IVar="-1" Cut="0.0000000000000000e+00" cType="1" res="5.9569110162556171e-03" rms="4.0796571969985962e-01" purity="7.8255784511566162e-01" nType="-99"/>
                    <Node pos="r" depth="7" NCoef="0" IVar="-1" Cut="0.0000000000000000e+00" cType="1" res="8.7607735767960548e-03" rms="3.7640205025672913e-01" purity="8.2655590772628784e-01" nType="-99"/>
                  </Node>
                </Node>
              </Node>
              <Node pos="r" depth="4" NCoef="0" IVar="5" Cut="-7.3110818862915039e-01" cType="1" res="4.8342145979404449e-02" rms="4.5655503869056702e-01" purity="6.8288046121597290e-01" nType="0">
                <Node pos="l" depth="5" NCoef="0" IVar="4" Cut="-2.5254693627357483e-01" cType="1" res="5.7513885200023651e-02" rms="4.4600689411163330e-01" purity="7.1610957384109497e-01" nType="0">
                  <Node pos="l" depth="6" NCoef="0" IVar="1" Cut="-1.9758354872465134e-02" cType="1" res="4.7198664397001266e-02" rms="4.5278874039649963e-01" purity="7.0382148027420044e-01" nType="0">
                    <Node pos="l" depth="7" NCoef="0" IVar="-1" Cut="0.0000000000000000e+00" cType="1" res="5.1883705891668797e-03" rms="4.3472337722778320e-01" purity="7.4408298730850220e-01" nType="-99"/>
                    <Node pos="r" depth="7" NCoef="0" IVar="-1" Cut="0.0000000000000000e+00" cType="1" res="3.4425430931150913e-03" rms="4.6641951799392700e-01" purity="6.7201244831085205e-01" nType="-99"/>
                  </Node>
                  <Node pos="r" depth="6" NCoef="0" IVar="-1" Cut="0.0000000000000000e+00" cType="1" res="6.7865285091102123e-03" rms="4.3495902419090271e-01" purity="7.3490059375762939e-01" nType="-99"/>
                </Node>
                <Node pos="r" depth="5" NCoef="0" IVar="-1" Cut="0.0000000000000000e+00" cType="1" res="1.6823342302814126e-03" rms="4.8739346861839294e-01" purity="5.7738620042800903e-01" nType="-99"/>
              </Node>
            </Node>
            <Node pos="r" depth="3" NCoef="0" IVar="-1" Cut="0.0000000000000000e+00" cType="1" res="8.6680060485377908e-04" rms="4.7390705347061157e-01" purity="6.1437815427780151e-01" nType="-99"/>
          </Node>
        </Node>
        <Node pos="r" depth="1" NCoef="0" IVar="0" Cut="9.4656139612197876e-01" cType="1" res="-3.5722397267818451e-02" rms="3.8083294034004211e-01" purity="2.4218133091926575e-01" nType="0">
          <Node pos="l" depth="2" NCoef="0" IVar="4" Cut="2.1532073020935059e+00" cType="1" res="-1.0031383484601974e-02" rms="4.5549067854881287e-01" purity="3.9348879456520081e-01" nType="0">
            <Node pos="l" depth="3" NCoef="0" IVar="0" Cut="4.8351189494132996e-01" cType="1" res="-4.6063829213380814e-03" rms="4.6328797936439514e-01" purity="4.1046336293220520e-01" nType="0">
              <Node pos="l" depth="4" NCoef="0" IVar="1" Cut="6.8912041187286377e-01" cType="1" res="2.3327458649873734e-02" rms="4.7973355650901794e-01" purity="5.0737452507019043e-01" nType="0">
                <Node pos="l" depth="5" NCoef="0" IVar="2" Cut="6.0923263549804688e+01" cType="1" res="3.8987800478935242e-02" rms="4.8145246505737305e-01" purity="5.5067163705825806e-01" nType="0">
                  <Node pos="l" depth="6" NCoef="0" IVar="-1" Cut="0.0000000000000000e+00" cType="1" res="5.8043282479047775e-03" rms="4.6708005666732788e-01" purity="6.4058911800384521e-01" nType="-99"/>
                  <Node pos="r" depth="6" NCoef="0" IVar="6" Cut="7.4227429926395416e-02" cType="1" res="2.4366149678826332e-02" rms="4.8683086037635803e-01" purity="5.1166194677352905e-01" nType="0">
                    <Node pos="l" depth="7" NCoef="0" IVar="-1" Cut="0.0000000000000000e+00" cType="1" res="-6.2545569380745292e-04" rms="4.8787119984626770e-01" purity="4.8826098442077637e-01" nType="-99"/>
                    <Node pos="r" depth="7" NCoef="0" IVar="-1" Cut="0.0000000000000000e+00" cType="1" res="4.1463137604296207e-03" rms="4.8461991548538208e-01" purity="5.2984565496444702e-01" nType="-99"/>
                  </Node>
                </Node>
                <Node pos="r" depth="5" NCoef="0" IVar="6" Cut="6.2071260064840317e-02" cType="1" res="-1.8546663224697113e-02" rms="4.7256460785865784e-01" purity="3.9160239696502686e-01" nType="0">
                  <Node pos="l" depth="6" NCoef="0" IVar="-1" Cut="0.0000000000000000e+00" cType="1" res="-4.2276987805962563e-03" rms="4.6937057375907898e-01" purity="3.8792172074317932e-01" nType="-99"/>
                  <Node pos="r" depth="6" NCoef="0" IVar="-1" Cut="0.0000000000000000e+00" cType="1" res="7.9858722165226936e-04" rms="4.7430825233459473e-01" purity="3.9539632201194763e-01" nType="-99"/>
                </Node>
              </Node>
              <Node pos="r" depth="4" NCoef="0" IVar="2" Cut="6.2839271545410156e+01" cType="1" res="-2.2154316306114197e-02" rms="4.5176902413368225e-01" purity="3.4958422183990479e-01" nType="0">
                <Node pos="l" depth="5" NCoef="0" IVar="3" Cut="8.2990944385528564e-01" cType="1" res="1.0529736988246441e-02" rms="4.7132763266563416e-01" purity="4.6358126401901245e-01" nType="0">
                  <Node pos="l" depth="6" NCoef="0" IVar="-1" Cut="0.0000000000000000e+00" cType="1" res="-1.0019250912591815e-03" rms="4.5535999536514282e-01" purity="3.4448316693305969e-01" nType="-99"/>
                  <Node pos="r" depth="6" NCoef="0" IVar="-1" Cut="0.0000000000000000e+00" cType="1" res="2.6173407677561045e-03" rms="4.8642569780349731e-01" purity="5.8677852153778076e-01" nType="-99"/>
                </Node>
                <Node pos="r" depth="5" NCoef="0" IVar="6" Cut="9.6931934356689453e-02" cType="1" res="-3.2256077975034714e-02" rms="4.4506502151489258e-01" purity="3.1435075402259827e-01" nType="0">
                  <Node pos="l" depth="6" NCoef="0" IVar="3" Cut="6.6333013772964478e-01" cType="1" res="-4.9764320254325867e-02" rms="4.3657693266868591e-01" purity="3.0121555924415588e-01" nType="0">
                    <Node pos="l" depth="7" NCoef="0" IVar="-1" Cut="0.0000000000000000e+00" cType="1" res="-7.3637305758893490e-03" rms="4.1543096303939819e-01" purity="2.4284771084785461e-01" nType="-99"/>
                    <Node pos="r" depth="7" NCoef="0" IVar="-1" Cut="0.0000000000000000e+00" cType="1" res="-1.8006345489993691e-03" rms="4.8740035295486450e-01" purity="4.5746949315071106e-01" nType="-99"/>
                  </Node>
                  <Node pos="r" depth="6" NCoef="0" IVar="2" Cut="3.6715676879882812e+02" cType="1" res="-9.6512343734502792e-03" rms="4.5479449629783630e-01" purity="3.3130955696105957e-01" nType="0">
                    <Node pos="l" depth="7" NCoef="0" IVar="-1" Cut="0.0000000000000000e+00" cType="1" res="9.6547196153551340e-04" rms="4.6114695072174072e-01" purity="3.5775047540664673e-01" nType="-99"/>
                    <Node pos="r" depth="7" NCoef="0" IVar="-1" Cut="0.0000000000000000e+00" cType="1" res="-3.8117857184261084e-03" rms="4.4549015164375305e-01" purity="2.9794228076934814e-01" nType="-99"/>
                  </Node>
                </Node>
              </Node>
            </Node>
            <Node pos="r" depth="3" NCoef="0" IVar="-1" Cut="0.0000000000000000e+00" cType="1" res="-2.1517669782042503e-02" rms="2.3365485668182373e-01" purity="5.9607926756143570e-02" nType="-99"/>
          </Node>
          <Node pos="r" depth="2" NCoef="0" IVar="5" Cut="-1.3629549741744995e+00" cType="1" res="-5.5700059980154037e-02" rms="3.0914199352264404e-01" purity="1.2452270835638046e-01" nType="0">
            <Node pos="l" depth="3" NCoef="0" IVar="5" Cut="-3.2105178833007812e+00" cType="1" res="-4.7587573528289795e-02" rms="3.4627744555473328e-01" purity="1.6189116239547729e-01" nType="0">
              <Node pos="l" depth="4" NCoef="0" IVar="4" Cut="-7.7274805307388306e-01" cType="1" res="-7.5326502323150635e-02" rms="2.7177780866622925e-01" purity="9.3498207628726959e-02" nType="0">
                <Node pos="l" depth="5" NCoef="0" IVar="-1" Cut="0.0000000000000000e+00" cType="1" res="-1.8376808613538742e-02" rms="2.5959140062332153e-01" purity="8.3096519112586975e-02" nType="-99"/>
                <Node pos="r" depth="5" NCoef="0" IVar="-1" Cut="0.0000000000000000e+00" cType="1" res="-1.1835626326501369e-02" rms="2.8615778684616089e-01" purity="1.0733887553215027e-01" nType="-99"/>
              </Node>
              <Node pos="r" depth="4" NCoef="0" IVar="0" Cut="1.8208733797073364e+00" cType="1" res="-4.2324081063270569e-02" rms="3.5842913389205933e-01" purity="1.7486877739429474e-01" nType="0">
                <Node pos="l" depth="5" NCoef="0" IVar="3" Cut="4.6003964543342590e-01" cType="1" res="-2.9191115871071815e-02" rms="3.9359325170516968e-01" purity="2.1942745149135590e-01" nType="0">
                  <Node pos="l" depth="6" NCoef="0" IVar="6" Cut="1.1299254000186920e-01" cType="1" res="-4.2647771537303925e-02" rms="3.4143906831741333e-01" purity="1.4153294265270233e-01" nType="0">
                    <Node pos="l" depth="7" NCoef="0" IVar="-1" Cut="0.0000000000000000e+00" cType="1" res="-1.2223172932863235e-02" rms="2.9103216528892517e-01" purity="9.5573529601097107e-02" nType="-99"/>
                    <Node pos="r" depth="7" NCoef="0" IVar="-1" Cut="0.0000000000000000e+00" cType="1" res="-4.0583298541605473e-03" rms="3.8881832361221313e-01" purity="1.9214892387390137e-01" nType="-99"/>
                  </Node>
                  <Node pos="r" depth="6" NCoef="0" IVar="2" Cut="1.6213505554199219e+02" cType="1" res="-1.0750202462077141e-02" rms="4.5482027530670166e-01" purity="3.2617360353469849e-01" nType="0">
                    <Node pos="l" depth="7" NCoef="0" IVar="-1" Cut="0.0000000000000000e+00" cType="1" res="6.6039228113368154e-04" rms="4.6853169798851013e-01" purity="3.6976516246795654e-01" nType="-99"/>
                    <Node pos="r" depth="7" NCoef="0" IVar="-1" Cut="0.0000000000000000e+00" cType="1" res="-4.0657166391611099e-03" rms="4.3451061844825745e-01" purity="2.6722434163093567e-01" nType="-99"/>
                  </Node>
                </Node>
                <Node pos="r" depth="5" NCoef="0" IVar="6" Cut="1.6569590568542480e-01" cType="1" res="-5.7248987257480621e-02" rms="3.1304994225502014e-01" purity="1.2423027306795120e-01" nType="0">
                  <Node pos="l" depth="6" NCoef="0" IVar="2" Cut="9.1171852111816406e+01" cType="1" res="-6.3580863177776337e-02" rms="2.8914564847946167e-01" purity="1.0818022489547729e-01" nType="0">
                    <Node pos="l" depth="7" NCoef="0" IVar="-1" Cut="0.0000000000000000e+00" cType="1" res="-5.9167277067899704e-03" rms="3.6731141805648804e-01" purity="1.9990372657775879e-01" nType="-99"/>
                    <Node pos="r" depth="7" NCoef="0" IVar="-1" Cut="0.0000000000000000e+00" cType="1" res="-1.7331628128886223e-02" rms="2.5437733530998230e-01" purity="7.5001850724220276e-02" nType="-99"/>
                  </Node>
                  <Node pos="r" depth="6" NCoef="0" IVar="-1" Cut="0.0000000000000000e+00" cType="1" res="-6.5880403853952885e-03" rms="3.7158846855163574e-01" purity="1.6939547657966614e-01" nType="-99"/>
                </Node>
              </Node>
            </Node>
            <Node pos="r" depth="3" NCoef="0" IVar="3" Cut="5.2787828445434570e-01" cType="1" res="-6.7212767899036407e-02" rms="2.4658080935478210e-01" purity="7.1491867303848267e-02" nType="0">
              <Node pos="l" depth="4" NCoef="0" IVar="6" Cut="2.1803887188434601e-01" cType="1" res="-6.4416691660881042e-02" rms="2.2117155790328979e-01" purity="5.4547466337680817e-02" nType="0">
                <Node pos="l" depth="5" NCoef="0" IVar="3" Cut="4.1551274061203003e-01" cType="1" res="-6.8274922668933868e-02" rms="1.9990293681621552e-01" purity="4.3815430253744125e-02" nType="0">
                  <Node pos="l" depth="6" NCoef="0" IVar="4" Cut="5.7185494899749756e-01" cType="1" res="-7.1463167667388916e-02" rms="1.7434521019458771e-01" purity="3.2340638339519501e-02" nType="0">
                    <Node pos="l" depth="7" NCoef="0" IVar="-1" Cut="0.0000000000000000e+00" cType="1" res="-1.5401724725961685e-02" rms="2.5659310817718506e-01" purity="7.2026215493679047e-02" nType="-99"/>
                    <Node pos="r" depth="7" NCoef="0" IVar="-1" Cut="0.0000000000000000e+00" cType="1" res="-2.4995399639010429e-02" rms="1.4304828643798828e-01" purity="2.1260423585772514e-02" nType="-99"/>
                  </Node>
                  <Node pos="r" depth="6" NCoef="0" IVar="-1" Cut="0.0000000000000000e+00" cType="1" res="-1.2154480442404747e-02" rms="2.7729290723800659e-01" purity="8.8350608944892883e-02" nType="-99"/>
                </Node>
                <Node pos="r" depth="5" NCoef="0" IVar="-1" Cut="0.0000000000000000e+00" cType="1" res="-7.9712839797139168e-03" rms="3.2648566365242004e-01" purity="1.2453861534595490e-01" nType="-99"/>
              </Node>
              <Node pos="r" depth="4" NCoef="0" IVar="-1" Cut="0.0000000000000000e+00" cType="1" res="-1.1014248244464397e-02" rms="3.9594098925590515e-01" purity="2.0913523435592651e-01" nType="-99"/>
            </Node>
          </Node>
        </Node>
      </Node>
    </BinaryTree>
    <BinaryTree type="DecisionTree" boostWeight="1.0000000000000000e+00" itree="37">
      <Node pos="s" depth="0" NCoef="0" IVar="3" Cut="7.7976024150848389e-01" cType="1" res="1.5552934259176254e-02" rms="4.0619313716888428e-01" purity="5.0183999538421631e-01" nType="0">
        <Node pos="l" depth="1" NCoef="0" IVar="1" Cut="1.1248696595430374e-01" cType="1" res="-2.9706168919801712e-02" rms="3.8742396235466003e-01" purity="2.6102471351623535e-01" nType="0">
          <Node pos="l" depth="2" NCoef="0" IVar="5" Cut="1.0820271819829941e-01" cType="1" res="5.9397188015282154e-03" rms="4.3926185369491577e-01" purity="3.9850962162017822e-01" nType="0">
            <Node pos="l" depth="3" NCoef="0" IVar="3" Cut="6.0758948326110840e-01" cType="1" res="1.4913359656929970e-02" rms="4.5399549603462219e-01" purity="4.3509563803672791e-01" nType="0">
              <Node pos="l" depth="4" NCoef="0" IVar="3" Cut="3.7910166382789612e-01" cType="1" res="-7.8133670613169670e-03" rms="4.2223641276359558e-01" purity="2.7340549230575562e-01" nType="0">
                <Node pos="l" depth="5" NCoef="0" IVar="-1" Cut="0.0000000000000000e+00" cType="1" res="-7.7500632032752037e-03" rms="3.2706737518310547e-01" purity="1.3380265235900879e-01" nType="-99"/>
                <Node pos="r" depth="5" NCoef="0" IVar="2" Cut="2.3832914733886719e+02" cType="1" res="4.4681280851364136e-03" rms="4.5315879583358765e-01" purity="3.2745629549026489e-01" nType="0">
                  <Node pos="l" depth="6" NCoef="0" IVar="6" Cut="6.7439079284667969e-02" cType="1" res="2.3649614304304123e-02" rms="4.6003141999244690e-01" purity="3.4778961539268494e-01" nType="0">
                    <Node pos="l" depth="7" NCoef="0" IVar="-1" Cut="0.0000000000000000e+00" cType="1" res="-2.3388087283819914e-03" rms="4.3756878376007080e-01" purity="2.8422018885612488e-01" nType="-99"/>
                    <Node pos="r" depth="7" NCoef="0" IVar="-1" Cut="0.0000000000000000e+00" cType="1" res="6.5258946269750595e-03" rms="4.7689181566238403e-01" purity="4.0871089696884155e-01" nType="-99"/>
                  </Node>
                  <Node pos="r" depth="6" NCoef="0" IVar="0" Cut="8.1525939702987671e-01" cType="1" res="-1.8909085541963577e-02" rms="4.4351905584335327e-01" purity="3.0267536640167236e-01" nType="0">
                    <Node pos="l" depth="7" NCoef="0" IVar="-1" Cut="0.0000000000000000e+00" cType="1" res="-1.0281631257385015e-03" rms="4.7449833154678345e-01" purity="3.7591755390167236e-01" nType="-99"/>
                    <Node pos="r" depth="7" NCoef="0" IVar="-1" Cut="0.0000000000000000e+00" cType="1" res="-3.7085835356265306e-03" rms="4.0993708372116089e-01" purity="2.2925627231597900e-01" nType="-99"/>
                  </Node>
                </Node>
              </Node>
              <Node pos="r" depth="4" NCoef="0" IVar="6" Cut="8.8210105895996094e-02" cType="1" res="3.6537092179059982e-02" rms="4.8128020763397217e-01" purity="5.8893853425979614e-01" nType="0">
                <Node pos="l" depth="5" NCoef="0" IVar="2" Cut="1.7822262573242188e+02" cType="1" res="2.6855722069740295e-02" rms="4.8161751031875610e-01" purity="5.8524739742279053e-01" nType="0">
                  <Node pos="l" depth="6" NCoef="0" IVar="6" Cut="5.7231523096561432e-02" cType="1" res="3.9184175431728363e-02" rms="4.7931459546089172e-01" purity="6.0222631692886353e-01" nType="0">
                    <Node pos="l" depth="7" NCoef="0" IVar="-1" Cut="0.0000000000000000e+00" cType="1" res="2.3603776935487986e-03" rms="4.8127269744873047e-01" purity="5.8802831172943115e-01" nType="-99"/>
                    <Node pos="r" depth="7" NCoef="0" IVar="-1" Cut="0.0000000000000000e+00" cType="1" res="5.3133773617446423e-03" rms="4.7395896911621094e-01" purity="6.3301521539688110e-01" nType="-99"/>
                  </Node>
                  <Node pos="r" depth="6" NCoef="0" IVar="-1" Cut="0.0000000000000000e+00" cType="1" res="-5.5979308672249317e-04" rms="4.8618286848068237e-01" purity="5.3992462158203125e-01" nType="-99"/>
                </Node>
                <Node pos="r" depth="5" NCoef="0" IVar="-1" Cut="0.0000000000000000e+00" cType="1" res="5.5413339287042618e-03" rms="4.7897073626518250e-01" purity="6.0045295953750610e-01" nType="-99"/>
              </Node>
            </Node>
            <Node pos="r" depth="3" NCoef="0" IVar="-1" Cut="0.0000000000000000e+00" cType="1" res="-1.3636543415486813e-02" rms="2.8139254450798035e-01" purity="9.9070996046066284e-02" nType="-99"/>
          </Node>
          <Node pos="r" depth="2" NCoef="0" IVar="0" Cut="6.4506030082702637e-01" cType="1" res="-4.4269457459449768e-02" rms="3.6312264204025269e-01" purity="2.0485463738441467e-01" nType="0">
            <Node pos="l" depth="3" NCoef="0" IVar="4" Cut="9.0559369325637817e-01" cType="1" res="-2.0845778286457062e-02" rms="4.6936509013175964e-01" purity="4.0792074799537659e-01" nType="0">
              <Node pos="l" depth="4" NCoef="0" IVar="6" Cut="4.9876756966114044e-02" cType="1" res="-1.2233438901603222e-02" rms="4.7935658693313599e-01" purity="4.3556785583496094e-01" nType="0">
                <Node pos="l" depth="5" NCoef="0" IVar="4" Cut="-1.3407247066497803e+00" cType="1" res="-4.3653063476085663e-02" rms="4.7425961494445801e-01" purity="4.0953135490417480e-01" nType="0">
                  <Node pos="l" depth="6" NCoef="0" IVar="-1" Cut="0.0000000000000000e+00" cType="1" res="-1.2239029165357351e-03" rms="4.8162642121315002e-01" purity="4.6396270394325256e-01" nType="-99"/>
                  <Node pos="r" depth="6" NCoef="0" IVar="-1" Cut="0.0000000000000000e+00" cType="1" res="-7.0816073566675186e-03" rms="4.6532517671585083e-01" purity="3.5773181915283203e-01" nType="-99"/>
                </Node>
                <Node pos="r" depth="5" NCoef="0" IVar="3" Cut="6.3200283050537109e-01" cType="1" res="2.1399459801614285e-03" rms="4.8098656535148621e-01" purity="4.4747868180274963e-01" nType="0">
                  <Node pos="l" depth="6" NCoef="0" IVar="2" Cut="2.0325349426269531e+02" cType="1" res="-2.1742630749940872e-02" rms="4.6664112806320190e-01" purity="3.5068342089653015e-01" nType="0">
                    <Node pos="l" depth="7" NCoef="0" IVar="-1" Cut="0.0000000000000000e+00" cType="1" res="9.4139162683859468e-05" rms="4.7440201044082642e-01" purity="3.8160651922225952e-01" nType="-99"/>
                    <Node pos="r" depth="7" NCoef="0" IVar="-1" Cut="0.0000000000000000e+00" cType="1" res="-4.0564402006566525e-03" rms="4.5973306894302368e-01" purity="3.2661366462707520e-01" nType="-99"/>
                  </Node>
                  <Node pos="r" depth="6" NCoef="0" IVar="6" Cut="7.0382744073867798e-02" cType="1" res="1.8813243135809898e-02" rms="4.9006369709968567e-01" purity="5.1505500078201294e-01" nType="0">
                    <Node pos="l" depth="7" NCoef="0" IVar="-1" Cut="0.0000000000000000e+00" cType="1" res="-6.2077090842649341e-04" rms="4.8901879787445068e-01" purity="4.8775559663772583e-01" nType="-99"/>
                    <Node pos="r" depth="7" NCoef="0" IVar="-1" Cut="0.0000000000000000e+00" cType="1" res="2.9333988204598427e-03" rms="4.9004402756690979e-01" purity="5.3129637241363525e-01" nType="-99"/>
                  </Node>
                </Node>
              </Node>
              <Node pos="r" depth="4" NCoef="0" IVar="-1" Cut="0.0000000000000000e+00" cType="1" res="-1.1156645603477955e-02" rms="3.7610286474227905e-01" purity="1.9273339211940765e-01" nType="-99"/>
            </Node>
            <Node pos="r" depth="3" NCoef="0" IVar="6" Cut="1.0274068266153336e-01" cType="1" res="-5.4335158318281174e-02" rms="3.0580034852027893e-01" purity="1.1759240925312042e-01" nType="0">
              <Node pos="l" depth="4" NCoef="0" IVar="2" Cut="7.8595512390136719e+01" cType="1" res="-6.2698341906070709e-02" rms="2.8927442431449890e-01" purity="1.0534157603979111e-01" nType="0">
                <Node pos="l" depth="5" NCoef="0" IVar="3" Cut="4.6607735753059387e-01" cType="1" res="-4.4280786067247391e-02" rms="3.2175481319427490e-01" purity="1.3674041628837585e-01" nType="0">
                  <Node pos="l" depth="6" NCoef="0" IVar="6" Cut="3.9931342005729675e-02" cType="1" res="-5.7037133723497391e-02" rms="2.4048663675785065e-01" purity="6.3815109431743622e-02" nType="0">
                    <Node pos="l" depth="7" NCoef="0" IVar="-1" Cut="0.0000000000000000e+00" cType="1" res="-1.6591381281614304e-02" rms="2.3104576766490936e-01" purity="5.8646827936172485e-02" nType="-99"/>
                    <Node pos="r" depth="7" NCoef="0" IVar="-1" Cut="0.0000000000000000e+00" cType="1" res="-1.4893376268446445e-02" rms="2.5050261616706848e-01" purity="6.9565132260322571e-02" nType="-99"/>
                  </Node>
                  <Node pos="r" depth="6" NCoef="0" IVar="-1" Cut="0.0000000000000000e+00" cType="1" res="-3.0500143766403198e-03" rms="4.1763752698898315e-01" purity="2.5093266367912292e-01" nType="-99"/>
                </Node>
                <Node pos="r" depth="5" NCoef="0" IVar="6" Cut="5.4212272167205811e-02" cType="1" res="-6.9939531385898590e-02" rms="2.7511981129646301e-01" purity="9.2996552586555481e-02" nType="0">
                  <Node pos="l" depth="6" NCoef="0" IVar="3" Cut="4.3758150935173035e-01" cType="1" res="-8.9327462017536163e-02" rms="2.5205022096633911e-01" purity="7.3084428906440735e-02" nType="0">
                    <Node pos="l" depth="7" NCoef="0" IVar="-1" Cut="0.0000000000000000e+00" cType="1" res="-2.0583963021636009e-02" rms="1.8383055925369263e-01" purity="3.5485979169607162e-02" nType="-99"/>
                    <Node pos="r" depth="7" NCoef="0" IVar="-1" Cut="0.0000000000000000e+00" cType="1" res="-1.6901975497603416e-02" rms="3.1739193201065063e-01" purity="1.2135653197765350e-01" nType="-99"/>
                  </Node>
                  <Node pos="r" depth="6" NCoef="0" IVar="2" Cut="1.1273435974121094e+02" cType="1" res="-6.3217788934707642e-02" rms="2.8236818313598633e-01" purity="9.9900037050247192e-02" nType="0">
                    <Node pos="l" depth="7" NCoef="0" IVar="-1" Cut="0.0000000000000000e+00" cType="1" res="-7.9933507367968559e-03" rms="3.1677752733230591e-01" purity="1.3496173918247223e-01" nType="-99"/>
                    <Node pos="r" depth="7" NCoef="0" IVar="-1" Cut="0.0000000000000000e+00" cType="1" res="-1.4235245063900948e-02" rms="2.7423334121704102e-01" purity="9.2419080436229706e-02" nType="-99"/>
                  </Node>
                </Node>
              </Node>
              <Node pos="r" depth="4" NCoef="0" IVar="2" Cut="3.1508041381835938e+02" cType="1" res="-4.5538470149040222e-02" rms="3.2203543186187744e-01" purity="1.3047827780246735e-01" nType="0">
                <Node pos="l" depth="5" NCoef="0" IVar="3" Cut="3.3519420027732849e-01" cType="1" res="-3.0683288350701332e-02" rms="3.3558207750320435e-01" purity="1.4782826602458954e-01" nType="0">
                  <Node pos="l" depth="6" NCoef="0" IVar="5" Cut="-1.6420339345932007e+00" cType="1" res="-5.4816398769617081e-02" rms="2.5114238262176514e-01" purity="7.1330085396766663e-02" nType="0">
                    <Node pos="l" depth="7" NCoef="0" IVar="-1" Cut="0.0000000000000000e+00" cType="1" res="-1.0739634744822979e-02" rms="2.9487156867980957e-01" purity="1.0134784132242203e-01" nType="-99"/>
                    <Node pos="r" depth="7" NCoef="0" IVar="-1" Cut="0.0000000000000000e+00" cType="1" res="-2.0422715693712234e-02" rms="2.0825634896755219e-01" purity="4.6757616102695465e-02" nType="-99"/>
                  </Node>
                  <Node pos="r" depth="6" NCoef="0" IVar="5" Cut="-1.8400526046752930e+00" cType="1" res="-1.0594431310892105e-02" rms="3.9111039042472839e-01" purity="2.1150679886341095e-01" nType="0">
                    <Node pos="l" depth="7" NCoef="0" IVar="-1" Cut="0.0000000000000000e+00" cType="1" res="1.6673862701281905e-03" rms="4.3806970119476318e-01" purity="2.7977010607719421e-01" nType="-99"/>
                    <Node pos="r" depth="7" NCoef="0" IVar="-1" Cut="0.0000000000000000e+00" cType="1" res="-5.7081300765275955e-03" rms="3.4316405653953552e-01" purity="1.5141242742538452e-01" nType="-99"/>
                  </Node>
                </Node>
                <Node pos="r" depth="5" NCoef="0" IVar="6" Cut="1.8832679092884064e-01" cType="1" res="-5.5942706763744354e-02" rms="3.1177666783332825e-01" purity="1.1832673102617264e-01" nType="0">
                  <Node pos="l" depth="6" NCoef="0" IVar="2" Cut="4.1547235107421875e+02" cType="1" res="-6.3917078077793121e-02" rms="2.8916826844215393e-01" purity="1.0258709639310837e-01" nType="0">
                    <Node pos="l" depth="7" NCoef="0" IVar="-1" Cut="0.0000000000000000e+00" cType="1" res="-1.0461213067173958e-02" rms="3.0143088102340698e-01" purity="1.1542943865060806e-01" nType="-99"/>
                    <Node pos="r" depth="7" NCoef="0" IVar="-1" Cut="0.0000000000000000e+00" cType="1" res="-1.3937581330537796e-02" rms="2.8385484218597412e-01" purity="9.7362376749515533e-02" nType="-99"/>
                  </Node>
                  <Node pos="r" depth="6" NCoef="0" IVar="7" Cut="7.0000000000000000e+00" cType="1" res="-4.2378839105367661e-02" rms="3.4342458844184875e-01" purity="1.4360919594764709e-01" nType="0">
                    <Node pos="l" depth="7" NCoef="0" IVar="-1" Cut="0.0000000000000000e+00" cType="1" res="-6.4498130232095718e-03" rms="3.5648790001869202e-01" purity="1.5789146721363068e-01" nType="-99"/>
                    <Node pos="r" depth="7" NCoef="0" IVar="-1" Cut="0.0000000000000000e+00" cType="1" res="-9.7118103876709938e-03" rms="3.2921952009201050e-01" purity="1.2600593268871307e-01" nType="-99"/>
                  </Node>
                </Node>
              </Node>
            </Node>
          </Node>
        </Node>
        <Node pos="r" depth="1" NCoef="0" IVar="0" Cut="6.3818293809890747e-01" cType="1" res="6.0111820697784424e-02" rms="4.1911303997039795e-01" purity="7.3892951011657715e-01" nType="0">
          <Node pos="l" depth="2" NCoef="0" IVar="5" Cut="-2.0338079929351807e+00" cType="1" res="6.5195545554161072e-02" rms="4.1397505998611450e-01" purity="7.5963920354843140e-01" nType="0">
            <Node pos="l" depth="3" NCoef="0" IVar="0" Cut="1.8525227904319763e-01" cType="1" res="7.4650704860687256e-02" rms="3.9557164907455444e-01" purity="7.9526764154434204e-01" nType="0">
              <Node pos="l" depth="4" NCoef="0" IVar="1" Cut="3.1231880187988281e-01" cType="1" res="7.8957028687000275e-02" rms="3.8636282086372375e-01" purity="8.0996102094650269e-01" nType="0">
                <Node pos="l" depth="5" NCoef="0" IVar="4" Cut="-1.1023212671279907e+00" cType="1" res="8.7245486676692963e-02" rms="3.6362552642822266e-01" purity="8.4088009595870972e-01" nType="0">
                  <Node pos="l" depth="6" NCoef="0" IVar="4" Cut="-2.4316949844360352e+00" cType="1" res="7.7399097383022308e-02" rms="3.9251300692558289e-01" purity="8.0778771638870239e-01" nType="0">
                    <Node pos="l" depth="7" NCoef="0" IVar="-1" Cut="0.0000000000000000e+00" cType="1" res="9.0990206226706505e-03" rms="3.8353219628334045e-01" purity="8.1856226921081543e-01" nType="-99"/>
                    <Node pos="r" depth="7" NCoef="0" IVar="-1" Cut="0.0000000000000000e+00" cType="1" res="6.4046764746308327e-03" rms="3.9784282445907593e-01" purity="8.0104488134384155e-01" nType="-99"/>
                  </Node>
                  <Node pos="r" depth="6" NCoef="0" IVar="5" Cut="-2.9359707832336426e+00" cType="1" res="9.4187468290328979e-02" rms="3.4162420034408569e-01" purity="8.6421108245849609e-01" nType="0">
                    <Node pos="l" depth="7" NCoef="0" IVar="-1" Cut="0.0000000000000000e+00" cType="1" res="1.1433792300522327e-02" rms="3.2095807790756226e-01" purity="8.8315898180007935e-01" nType="-99"/>
                    <Node pos="r" depth="7" NCoef="0" IVar="-1" Cut="0.0000000000000000e+00" cType="1" res="9.2667834833264351e-03" rms="3.5691425204277039e-01" purity="8.4931188821792603e-01" nType="-99"/>
                  </Node>
                </Node>
                <Node pos="r" depth="5" NCoef="0" IVar="5" Cut="-2.9359531402587891e+00" cType="1" res="6.1920549720525742e-02" rms="4.2883068323135376e-01" purity="7.4640846252441406e-01" nType="0">
                  <Node pos="l" depth="6" NCoef="0" IVar="4" Cut="-8.1311726570129395e-01" cType="1" res="8.0518469214439392e-02" rms="4.0713673830032349e-01" purity="7.8324234485626221e-01" nType="0">
                    <Node pos="l" depth="7" NCoef="0" IVar="-1" Cut="0.0000000000000000e+00" cType="1" res="5.2605369128286839e-03" rms="4.3705761432647705e-01" purity="7.3567152023315430e-01" nType="-99"/>
                    <Node pos="r" depth="7" NCoef="0" IVar="-1" Cut="0.0000000000000000e+00" cType="1" res="9.2812608927488327e-03" rms="3.8014486432075500e-01" purity="8.2232242822647095e-01" nType="-99"/>
                  </Node>
                  <Node pos="r" depth="6" NCoef="0" IVar="5" Cut="-2.4412324428558350e+00" cType="1" res="5.0291154533624649e-02" rms="4.4145718216896057e-01" purity="7.2337597608566284e-01" nType="0">
                    <Node pos="l" depth="7" NCoef="0" IVar="-1" Cut="0.0000000000000000e+00" cType="1" res="5.6802467443048954e-03" rms="4.3152853846549988e-01" purity="7.4301964044570923e-01" nType="-99"/>
                    <Node pos="r" depth="7" NCoef="0" IVar="-1" Cut="0.0000000000000000e+00" cType="1" res="2.2657383233308792e-03" rms="4.5756593346595764e-01" purity="6.8840217590332031e-01" nType="-99"/>
                  </Node>
                </Node>
              </Node>
              <Node pos="r" depth="4" NCoef="0" IVar="0" Cut="3.1672796607017517e-01" cType="1" res="4.3664414435625076e-02" rms="4.5518791675567627e-01" purity="6.8954128026962280e-01" nType="0">
                <Node pos="l" depth="5" NCoef="0" IVar="0" Cut="2.4886570870876312e-01" cType="1" res="3.0622880905866623e-02" rms="4.4783204793930054e-01" purity="7.0327556133270264e-01" nType="0">
                  <Node pos="l" depth="6" NCoef="0" IVar="-1" Cut="0.0000000000000000e+00" cType="1" res="4.8317573964595795e-03" rms="4.4025278091430664e-01" purity="7.1752899885177612e-01" nType="-99"/>
                  <Node pos="r" depth="6" NCoef="0" IVar="-1" Cut="0.0000000000000000e+00" cType="1" res="1.4836607733741403e-03" rms="4.5518460869789124e-01" purity="6.8818223476409912e-01" nType="-99"/>
                </Node>
                <Node pos="r" depth="5" NCoef="0" IVar="-1" Cut="0.0000000000000000e+00" cType="1" res="5.0708912312984467e-03" rms="4.6457251906394958e-01" purity="6.7053389549255371e-01" nType="-99"/>
              </Node>
            </Node>
            <Node pos="r" depth="3" NCoef="0" IVar="1" Cut="8.3070808649063110e-01" cType="1" res="4.0208909660577774e-02" rms="4.5813316106796265e-01" purity="6.6548585891723633e-01" nType="0">
              <Node pos="l" depth="4" NCoef="0" IVar="1" Cut="1.0823498666286469e-01" cType="1" res="4.9298092722892761e-02" rms="4.5112660527229309e-01" purity="6.9585752487182617e-01" nType="0">
                <Node pos="l" depth="5" NCoef="0" IVar="2" Cut="9.4553062438964844e+01" cType="1" res="6.0369960963726044e-02" rms="4.4046071171760559e-01" purity="7.2324395179748535e-01" nType="0">
                  <Node pos="l" depth="6" NCoef="0" IVar="3" Cut="9.9201887845993042e-01" cType="1" res="6.6443786025047302e-02" rms="4.3310552835464478e-01" purity="7.3928284645080566e-01" nType="0">
                    <Node pos="l" depth="7" NCoef="0" IVar="-1" Cut="0.0000000000000000e+00" cType="1" res="5.0247348845005035e-03" rms="4.4923621416091919e-01" purity="7.0794481039047241e-01" nType="-99"/>
                    <Node pos="r" depth="7" NCoef="0" IVar="-1" Cut="0.0000000000000000e+00" cType="1" res="6.9581712596118450e-03" rms="4.1801869869232178e-01" purity="7.6714783906936646e-01" nType="-99"/>
                  </Node>
                  <Node pos="r" depth="6" NCoef="0" IVar="-1" Cut="0.0000000000000000e+00" cType="1" res="3.6269640550017357e-03" rms="4.6411243081092834e-01" purity="6.6844862699508667e-01" nType="-99"/>
                </Node>
                <Node pos="r" depth="5" NCoef="0" IVar="7" Cut="2.0000000000000000e+00" cType="1" res="2.9785711318254471e-02" rms="4.0854141116142273e-01" purity="6.5160346031188965e-01" nType="0">
                  <Node pos="l" depth="6" NCoef="0" IVar="-1" Cut="0.0000000000000000e+00" cType="1" res="4.2438488453626633e-03" rms="4.5503535866737366e-01" purity="6.9507932662963867e-01" nType="-99"/>
                  <Node pos="r" depth="6" NCoef="0" IVar="-1" Cut="0.0000000000000000e+00" cType="1" res="1.1010952293872833e-03" rms="4.8001822829246521e-01" purity="6.0261988639831543e-01" nType="-99"/>
                </Node>
              </Node>
              <Node pos="r" depth="4" NCoef="0" IVar="5" Cut="-1.4062227010726929e+00" cType="1" res="-4.6274317428469658e-03" rms="4.8876854777336121e-01" purity="5.1566421985626221e-01" nType="0">
                <Node pos="l" depth="5" NCoef="0" IVar="-1" Cut="0.0000000000000000e+00" cType="1" res="2.3561834823340178e-03" rms="4.8630639910697937e-01" purity="5.8959180116653442e-01" nType="-99"/>
                <Node pos="r" depth="5" NCoef="0" IVar="-1" Cut="0.0000000000000000e+00" cType="1" res="-3.6035103257745504e-03" rms="4.8887819051742554e-01" purity="4.3371778726577759e-01" nType="-99"/>
              </Node>
            </Node>
          </Node>
          <Node pos="r" depth="2" NCoef="0" IVar="0" Cut="1.5337249040603638e+00" cType="1" res="-1.5862904489040375e-02" rms="4.8318403959274292e-01" purity="4.2942917346954346e-01" nType="0">
            <Node pos="l" depth="3" NCoef="0" IVar="-1" Cut="0.0000000000000000e+00" cType="1" res="1.4681505854241550e-04" rms="4.9137273430824280e-01" purity="4.7472897171974182e-01" nType="-99"/>
            <Node pos="r" depth="3" NCoef="0" IVar="-1" Cut="0.0000000000000000e+00" cType="1" res="-4.9937409348785877e-03" rms="4.6502947807312012e-01" purity="3.4164446592330933e-01" nType="-99"/>
          </Node>
        </Node>
      </Node>
    </BinaryTree>
    <BinaryTree type="DecisionTree" boostWeight="1.0000000000000000e+00" itree="38">
      <Node pos="s" depth="0" NCoef="0" IVar="3" Cut="7.7875840663909912e-01" cType="1" res="1.2514315545558929e-02" rms="4.0536636114120483e-01" purity="4.9855470657348633e-01" nType="0">
        <Node pos="l" depth="1" NCoef="0" IVar="3" Cut="5.0675433874130249e-01" cType="1" res="-3.1087756156921387e-02" rms="3.8493266701698303e-01" purity="2.5746828317642212e-01" nType="0">
          <Node pos="l" depth="2" NCoef="0" IVar="6" Cut="1.1557672917842865e-01" cType="1" res="-5.1820859313011169e-02" rms="2.9117166996002197e-01" purity="1.0381252318620682e-01" nType="0">
            <Node pos="l" depth="3" NCoef="0" IVar="2" Cut="6.6107360839843750e+01" cType="1" res="-6.2589175999164581e-02" rms="2.4861104786396027e-01" purity="7.0711255073547363e-02" nType="0">
              <Node pos="l" depth="4" NCoef="0" IVar="3" Cut="3.5114616155624390e-01" cType="1" res="-4.6666696667671204e-02" rms="2.8435066342353821e-01" purity="9.5506750047206879e-02" nType="0">
                <Node pos="l" depth="5" NCoef="0" IVar="-1" Cut="0.0000000000000000e+00" cType="1" res="-2.1097837015986443e-02" rms="1.9945740699768066e-01" purity="4.2154137045145035e-02" nType="-99"/>
                <Node pos="r" depth="5" NCoef="0" IVar="-1" Cut="0.0000000000000000e+00" cType="1" res="-5.9199337847530842e-03" rms="3.3940967917442322e-01" purity="1.4080265164375305e-01" nType="-99"/>
              </Node>
              <Node pos="r" depth="4" NCoef="0" IVar="6" Cut="9.2066034674644470e-02" cType="1" res="-6.5855145454406738e-02" rms="2.4049480259418488e-01" purity="6.5625280141830444e-02" nType="0">
                <Node pos="l" depth="5" NCoef="0" IVar="0" Cut="9.6733754873275757e-01" cType="1" res="-7.0219814777374268e-02" rms="2.2753213346004486e-01" purity="5.7578887790441513e-02" nType="0">
                  <Node pos="l" depth="6" NCoef="0" IVar="-1" Cut="0.0000000000000000e+00" cType="1" res="-1.3348885811865330e-02" rms="3.3039852976799011e-01" purity="1.2905026972293854e-01" nType="-99"/>
                  <Node pos="r" depth="6" NCoef="0" IVar="2" Cut="2.5144456481933594e+02" cType="1" res="-6.8233683705329895e-02" rms="2.0766764879226685e-01" purity="4.6850778162479401e-02" nType="0">
                    <Node pos="l" depth="7" NCoef="0" IVar="-1" Cut="0.0000000000000000e+00" cType="1" res="-1.8472786992788315e-02" rms="2.1296221017837524e-01" purity="4.9528796225786209e-02" nType="-99"/>
                    <Node pos="r" depth="7" NCoef="0" IVar="-1" Cut="0.0000000000000000e+00" cType="1" res="-2.0090829581022263e-02" rms="1.8934847414493561e-01" purity="3.8198325783014297e-02" nType="-99"/>
                  </Node>
                </Node>
                <Node pos="r" depth="5" NCoef="0" IVar="2" Cut="1.8520271301269531e+02" cType="1" res="-5.5784184485673904e-02" rms="2.6775169372558594e-01" purity="8.4191359579563141e-02" nType="0">
                  <Node pos="l" depth="6" NCoef="0" IVar="-1" Cut="0.0000000000000000e+00" cType="1" res="-7.5657553970813751e-03" rms="3.0347949266433716e-01" purity="1.1474143713712692e-01" nType="-99"/>
                  <Node pos="r" depth="6" NCoef="0" IVar="2" Cut="3.2921331787109375e+02" cType="1" res="-6.7155301570892334e-02" rms="2.4691209197044373e-01" purity="6.8712003529071808e-02" nType="0">
                    <Node pos="l" depth="7" NCoef="0" IVar="-1" Cut="0.0000000000000000e+00" cType="1" res="-1.4479282312095165e-02" rms="2.6031959056854248e-01" purity="7.8288257122039795e-02" nType="-99"/>
                    <Node pos="r" depth="7" NCoef="0" IVar="-1" Cut="0.0000000000000000e+00" cType="1" res="-1.7421752214431763e-02" rms="2.3480434715747833e-01" purity="6.0604047030210495e-02" nType="-99"/>
                  </Node>
                </Node>
              </Node>
            </Node>
            <Node pos="r" depth="3" NCoef="0" IVar="6" Cut="2.7918630838394165e-01" cType="1" res="-4.0198758244514465e-02" rms="3.3062922954559326e-01" purity="1.3953830301761627e-01" nType="0">
              <Node pos="l" depth="4" NCoef="0" IVar="5" Cut="-6.7606967687606812e-01" cType="1" res="-4.4411778450012207e-02" rms="3.2223674654960632e-01" purity="1.3249011337757111e-01" nType="0">
                <Node pos="l" depth="5" NCoef="0" IVar="3" Cut="3.4720012545585632e-01" cType="1" res="-3.2904863357543945e-02" rms="3.6624777317047119e-01" purity="1.7633378505706787e-01" nType="0">
                  <Node pos="l" depth="6" NCoef="0" IVar="7" Cut="8.0000000000000000e+00" cType="1" res="-4.8489283770322800e-02" rms="3.0879956483840942e-01" purity="1.1644916981458664e-01" nType="0">
                    <Node pos="l" depth="7" NCoef="0" IVar="-1" Cut="0.0000000000000000e+00" cType="1" res="-8.6940741166472435e-03" rms="3.2584002614021301e-01" purity="1.2964081764221191e-01" nType="-99"/>
                    <Node pos="r" depth="7" NCoef="0" IVar="-1" Cut="0.0000000000000000e+00" cType="1" res="-1.6619449481368065e-02" rms="2.6250451803207397e-01" purity="7.7745787799358368e-02" nType="-99"/>
                  </Node>
                  <Node pos="r" depth="6" NCoef="0" IVar="2" Cut="2.3883985900878906e+02" cType="1" res="-1.1439122259616852e-02" rms="4.2183831334114075e-01" purity="2.4811707437038422e-01" nType="0">
                    <Node pos="l" depth="7" NCoef="0" IVar="-1" Cut="0.0000000000000000e+00" cType="1" res="2.1171609405428171e-03" rms="4.4047668576240540e-01" purity="2.7833276987075806e-01" nType="-99"/>
                    <Node pos="r" depth="7" NCoef="0" IVar="-1" Cut="0.0000000000000000e+00" cType="1" res="-3.1826386693865061e-03" rms="4.1278299689292908e-01" purity="2.3484170436859131e-01" nType="-99"/>
                  </Node>
                </Node>
                <Node pos="r" depth="5" NCoef="0" IVar="5" Cut="9.7964577376842499e-02" cType="1" res="-6.4889788627624512e-02" rms="2.2193969786167145e-01" purity="5.4464753717184067e-02" nType="0">
                  <Node pos="l" depth="6" NCoef="0" IVar="-1" Cut="0.0000000000000000e+00" cType="1" res="-1.0125486180186272e-02" rms="2.9867780208587646e-01" purity="1.0369488596916199e-01" nType="-99"/>
                  <Node pos="r" depth="6" NCoef="0" IVar="5" Cut="1.5460851192474365e+00" cType="1" res="-7.1822419762611389e-02" rms="1.8538233637809753e-01" purity="3.6335740238428116e-02" nType="0">
                    <Node pos="l" depth="7" NCoef="0" IVar="-1" Cut="0.0000000000000000e+00" cType="1" res="-1.7216766253113747e-02" rms="2.3000395298004150e-01" purity="5.7178858667612076e-02" nType="-99"/>
                    <Node pos="r" depth="7" NCoef="0" IVar="-1" Cut="0.0000000000000000e+00" cType="1" res="-2.5678403675556183e-02" rms="1.3964502513408661e-01" purity="1.9726807251572609e-02" nType="-99"/>
                  </Node>
                </Node>
              </Node>
              <Node pos="r" depth="4" NCoef="0" IVar="-1" Cut="0.0000000000000000e+00" cType="1" res="1.1838679201900959e-03" rms="4.1092896461486816e-01" purity="2.1932098269462585e-01" nType="-99"/>
            </Node>
          </Node>
          <Node pos="r" depth="2" NCoef="0" IVar="5" Cut="2.6221957802772522e-01" cType="1" res="-8.6969770491123199e-03" rms="4.6440091729164124e-01" purity="4.2340925335884094e-01" nType="0">
            <Node pos="l" depth="3" NCoef="0" IVar="1" Cut="7.8488165140151978e-01" cType="1" res="-2.6283261831849813e-03" rms="4.7198459506034851e-01" purity="4.4309291243553162e-01" nType="0">
              <Node pos="l" depth="4" NCoef="0" IVar="6" Cut="6.3977338373661041e-02" cType="1" res="1.1482921428978443e-02" rms="4.7915732860565186e-01" purity="4.9012428522109985e-01" nType="0">
                <Node pos="l" depth="5" NCoef="0" IVar="2" Cut="6.1808990478515625e+01" cType="1" res="-8.3172051236033440e-03" rms="4.7705200314521790e-01" purity="4.8093816637992859e-01" nType="0">
                  <Node pos="l" depth="6" NCoef="0" IVar="6" Cut="2.5009322911500931e-02" cType="1" res="2.5392949581146240e-02" rms="4.8164719343185425e-01" purity="5.3224408626556396e-01" nType="0">
                    <Node pos="l" depth="7" NCoef="0" IVar="-1" Cut="0.0000000000000000e+00" cType="1" res="-1.6116992337629199e-03" rms="4.8040464520454407e-01" purity="4.8985382914543152e-01" nType="-99"/>
                    <Node pos="r" depth="7" NCoef="0" IVar="-1" Cut="0.0000000000000000e+00" cType="1" res="4.6088197268545628e-03" rms="4.8033550381660461e-01" purity="5.6054735183715820e-01" nType="-99"/>
                  </Node>
                  <Node pos="r" depth="6" NCoef="0" IVar="7" Cut="3.0000000000000000e+00" cType="1" res="-2.8729710727930069e-02" rms="4.7160905599594116e-01" purity="4.4856575131416321e-01" nType="0">
                    <Node pos="l" depth="7" NCoef="0" IVar="-1" Cut="0.0000000000000000e+00" cType="1" res="-6.8330359645187855e-03" rms="4.7205635905265808e-01" purity="4.2272818088531494e-01" nType="-99"/>
                    <Node pos="r" depth="7" NCoef="0" IVar="-1" Cut="0.0000000000000000e+00" cType="1" res="-1.5938783762976527e-03" rms="4.7236669063568115e-01" purity="4.5655146241188049e-01" nType="-99"/>
                  </Node>
                </Node>
                <Node pos="r" depth="5" NCoef="0" IVar="2" Cut="2.2052420043945312e+02" cType="1" res="2.7396233752369881e-02" rms="4.8025137186050415e-01" purity="4.9750712513923645e-01" nType="0">
                  <Node pos="l" depth="6" NCoef="0" IVar="3" Cut="6.7345845699310303e-01" cType="1" res="5.4728168994188309e-02" rms="4.7951492667198181e-01" purity="5.4082369804382324e-01" nType="0">
                    <Node pos="l" depth="7" NCoef="0" IVar="-1" Cut="0.0000000000000000e+00" cType="1" res="3.2381629571318626e-03" rms="4.8560038208961487e-01" purity="4.6383041143417358e-01" nType="-99"/>
                    <Node pos="r" depth="7" NCoef="0" IVar="-1" Cut="0.0000000000000000e+00" cType="1" res="6.3581089489161968e-03" rms="4.7007080912590027e-01" purity="6.4409732818603516e-01" nType="-99"/>
                  </Node>
                  <Node pos="r" depth="6" NCoef="0" IVar="6" Cut="9.5970526337623596e-02" cType="1" res="4.0614751924294978e-05" rms="4.7942963242530823e-01" purity="4.5415306091308594e-01" nType="0">
                    <Node pos="l" depth="7" NCoef="0" IVar="-1" Cut="0.0000000000000000e+00" cType="1" res="-2.1247442346066236e-03" rms="4.7391051054000854e-01" purity="4.5319610834121704e-01" nType="-99"/>
                    <Node pos="r" depth="7" NCoef="0" IVar="-1" Cut="0.0000000000000000e+00" cType="1" res="1.5906065236777067e-03" rms="4.8296302556991577e-01" purity="4.5488908886909485e-01" nType="-99"/>
                  </Node>
                </Node>
              </Node>
              <Node pos="r" depth="4" NCoef="0" IVar="1" Cut="1.3788449764251709e+00" cType="1" res="-4.2079411447048187e-02" rms="4.4898015260696411e-01" purity="3.1160640716552734e-01" nType="0">
                <Node pos="l" depth="5" NCoef="0" IVar="6" Cut="6.0066871345043182e-02" cType="1" res="-1.5839297324419022e-02" rms="4.6379804611206055e-01" purity="3.5214272141456604e-01" nType="0">
                  <Node pos="l" depth="6" NCoef="0" IVar="-1" Cut="0.0000000000000000e+00" cType="1" res="-5.5715227499604225e-03" rms="4.5286861062049866e-01" purity="3.1772351264953613e-01" nType="-99"/>
                  <Node pos="r" depth="6" NCoef="0" IVar="-1" Cut="0.0000000000000000e+00" cType="1" res="9.7868416924029589e-04" rms="4.6929240226745605e-01" purity="3.7534981966018677e-01" nType="-99"/>
                </Node>
                <Node pos="r" depth="5" NCoef="0" IVar="7" Cut="3.0000000000000000e+00" cType="1" res="-6.3541762530803680e-02" rms="4.1851001977920532e-01" purity="2.6988181471824646e-01" nType="0">
                  <Node pos="l" depth="6" NCoef="0" IVar="-1" Cut="0.0000000000000000e+00" cType="1" res="-1.2122731655836105e-02" rms="4.1490525007247925e-01" purity="2.3995244503021240e-01" nType="-99"/>
                  <Node pos="r" depth="6" NCoef="0" IVar="-1" Cut="0.0000000000000000e+00" cType="1" res="-4.7178030945360661e-03" rms="4.4002217054367065e-01" purity="2.8948101401329041e-01" nType="-99"/>
                </Node>
              </Node>
            </Node>
            <Node pos="r" depth="3" NCoef="0" IVar="-1" Cut="0.0000000000000000e+00" cType="1" res="-1.6086412593722343e-02" rms="3.0929771065711975e-01" purity="1.1708869785070419e-01" nType="-99"/>
          </Node>
        </Node>
        <Node pos="r" depth="1" NCoef="0" IVar="5" Cut="-2.1259143352508545e+00" cType="1" res="5.5485915392637253e-02" rms="4.2013910412788391e-01" purity="7.3615509271621704e-01" nType="0">
          <Node pos="l" depth="2" NCoef="0" IVar="1" Cut="8.7604594230651855e-01" cType="1" res="6.9336362183094025e-02" rms="4.0051907300949097e-01" purity="7.8164523839950562e-01" nType="0">
            <Node pos="l" depth="3" NCoef="0" IVar="5" Cut="-3.0251164436340332e+00" cType="1" res="7.5105816125869751e-02" rms="3.8685107231140137e-01" purity="8.0748468637466431e-01" nType="0">
              <Node pos="l" depth="4" NCoef="0" IVar="4" Cut="-1.0769491195678711e+00" cType="1" res="8.7541617453098297e-02" rms="3.6267963051795959e-01" purity="8.3681595325469971e-01" nType="0">
                <Node pos="l" depth="5" NCoef="0" IVar="4" Cut="-2.1445538997650146e+00" cType="1" res="7.5138874351978302e-02" rms="3.9692804217338562e-01" purity="7.9450744390487671e-01" nType="0">
                  <Node pos="l" depth="6" NCoef="0" IVar="-1" Cut="0.0000000000000000e+00" cType="1" res="8.9139984920620918e-03" rms="3.9173072576522827e-01" purity="8.0117774009704590e-01" nType="-99"/>
                  <Node pos="r" depth="6" NCoef="0" IVar="-1" Cut="0.0000000000000000e+00" cType="1" res="5.9262705035507679e-03" rms="4.0031704306602478e-01" purity="7.8974920511245728e-01" nType="-99"/>
                </Node>
                <Node pos="r" depth="5" NCoef="0" IVar="4" Cut="-1.3434998691082001e-01" cType="1" res="9.4078354537487030e-02" rms="3.4307661652565002e-01" purity="8.5911422967910767e-01" nType="0">
                  <Node pos="l" depth="6" NCoef="0" IVar="3" Cut="9.9863648414611816e-01" cType="1" res="9.3013696372509003e-02" rms="3.4369114041328430e-01" purity="8.5879415273666382e-01" nType="0">
                    <Node pos="l" depth="7" NCoef="0" IVar="-1" Cut="0.0000000000000000e+00" cType="1" res="8.9692845940589905e-03" rms="3.5520526766777039e-01" purity="8.4520894289016724e-01" nType="-99"/>
                    <Node pos="r" depth="7" NCoef="0" IVar="-1" Cut="0.0000000000000000e+00" cType="1" res="1.1153264902532101e-02" rms="3.2902067899703979e-01" purity="8.7498134374618530e-01" nType="-99"/>
                  </Node>
                  <Node pos="r" depth="6" NCoef="0" IVar="-1" Cut="0.0000000000000000e+00" cType="1" res="1.0986840352416039e-02" rms="3.4141144156455994e-01" purity="8.5997033119201660e-01" nType="-99"/>
                </Node>
              </Node>
              <Node pos="r" depth="4" NCoef="0" IVar="0" Cut="3.1688821315765381e-01" cType="1" res="6.9492518901824951e-02" rms="3.9715269207954407e-01" purity="7.9424500465393066e-01" nType="0">
                <Node pos="l" depth="5" NCoef="0" IVar="0" Cut="1.9416859745979309e-01" cType="1" res="7.2266675531864166e-02" rms="3.8937428593635559e-01" purity="8.0969154834747314e-01" nType="0">
                  <Node pos="l" depth="6" NCoef="0" IVar="1" Cut="3.6659562587738037e-01" cType="1" res="7.4499830603599548e-02" rms="3.8518634438514709e-01" purity="8.1560015678405762e-01" nType="0">
                    <Node pos="l" depth="7" NCoef="0" IVar="-1" Cut="0.0000000000000000e+00" cType="1" res="7.9341083765029907e-03" rms="3.7592753767967224e-01" purity="8.2745212316513062e-01" nType="-99"/>
                    <Node pos="r" depth="7" NCoef="0" IVar="-1" Cut="0.0000000000000000e+00" cType="1" res="5.5152834393084049e-03" rms="4.2252901196479797e-01" purity="7.6438760757446289e-01" nType="-99"/>
                  </Node>
                  <Node pos="r" depth="6" NCoef="0" IVar="-1" Cut="0.0000000000000000e+00" cType="1" res="4.5263748615980148e-03" rms="4.3838441371917725e-01" purity="7.3419785499572754e-01" nType="-99"/>
                </Node>
                <Node pos="r" depth="5" NCoef="0" IVar="-1" Cut="0.0000000000000000e+00" cType="1" res="3.1839024741202593e-03" rms="4.7567620873451233e-01" purity="6.1846333742141724e-01" nType="-99"/>
              </Node>
            </Node>
            <Node pos="r" depth="3" NCoef="0" IVar="3" Cut="9.9141842126846313e-01" cType="1" res="3.9521563798189163e-02" rms="4.6364650130271912e-01" purity="6.4811533689498901e-01" nType="0">
              <Node pos="l" depth="4" NCoef="0" IVar="6" Cut="2.2676672786474228e-02" cType="1" res="2.2842030972242355e-02" rms="4.8159071803092957e-01" purity="5.9550422430038452e-01" nType="0">
                <Node pos="l" depth="5" NCoef="0" IVar="-1" Cut="0.0000000000000000e+00" cType="1" res="-1.2748401786666363e-04" rms="4.8180499672889709e-01" purity="5.9170782566070557e-01" nType="-99"/>
                <Node pos="r" depth="5" NCoef="0" IVar="-1" Cut="0.0000000000000000e+00" cType="1" res="3.7343392614275217e-03" rms="4.8039981722831726e-01" purity="5.9881681203842163e-01" nType="-99"/>
              </Node>
              <Node pos="r" depth="4" NCoef="0" IVar="5" Cut="-2.8428523540496826e+00" cType="1" res="5.4418239742517471e-02" rms="4.4648531079292297e-01" purity="6.9510293006896973e-01" nType="0">
                <Node pos="l" depth="5" NCoef="0" IVar="-1" Cut="0.0000000000000000e+00" cType="1" res="6.1275926418602467e-03" rms="4.3576878309249878e-01" purity="7.2325128316879272e-01" nType="-99"/>
                <Node pos="r" depth="5" NCoef="0" IVar="-1" Cut="0.0000000000000000e+00" cType="1" res="2.9486401472240686e-03" rms="4.5815590023994446e-01" purity="6.6148251295089722e-01" nType="-99"/>
              </Node>
            </Node>
          </Node>
          <Node pos="r" depth="2" NCoef="0" IVar="0" Cut="6.3840800523757935e-01" cType="1" res="2.5831345468759537e-02" rms="4.5793083310127258e-01" purity="6.3875812292098999e-01" nType="0">
            <Node pos="l" depth="3" NCoef="0" IVar="1" Cut="1.3343517780303955e+00" cType="1" res="3.4239344298839569e-02" rms="4.5661431550979614e-01" purity="6.6759568452835083e-01" nType="0">
              <Node pos="l" depth="4" NCoef="0" IVar="1" Cut="1.6988681256771088e-01" cType="1" res="4.1391339153051376e-02" rms="4.5231112837791443e-01" purity="6.8772989511489868e-01" nType="0">
                <Node pos="l" depth="5" NCoef="0" IVar="4" Cut="4.4077691435813904e-01" cType="1" res="5.4386802017688751e-02" rms="4.3888831138610840e-01" purity="7.2452002763748169e-01" nType="0">
                  <Node pos="l" depth="6" NCoef="0" IVar="4" Cut="-2.7096900343894958e-01" cType="1" res="5.9057172387838364e-02" rms="4.3399345874786377e-01" purity="7.3967772722244263e-01" nType="0">
                    <Node pos="l" depth="7" NCoef="0" IVar="-1" Cut="0.0000000000000000e+00" cType="1" res="4.7965068370103836e-03" rms="4.3895655870437622e-01" purity="7.3216313123703003e-01" nType="-99"/>
                    <Node pos="r" depth="7" NCoef="0" IVar="-1" Cut="0.0000000000000000e+00" cType="1" res="6.9586108438670635e-03" rms="4.2300942540168762e-01" purity="7.5552153587341309e-01" nType="-99"/>
                  </Node>
                  <Node pos="r" depth="6" NCoef="0" IVar="-1" Cut="0.0000000000000000e+00" cType="1" res="2.3266142234206200e-03" rms="4.6747547388076782e-01" purity="6.2904179096221924e-01" nType="-99"/>
                </Node>
                <Node pos="r" depth="5" NCoef="0" IVar="3" Cut="9.7245424985885620e-01" cType="1" res="2.0798707380890846e-02" rms="4.7206926345825195e-01" purity="6.2943226099014282e-01" nType="0">
                  <Node pos="l" depth="6" NCoef="0" IVar="6" Cut="3.8066800683736801e-02" cType="1" res="-1.0557508794590831e-03" rms="4.8400357365608215e-01" purity="5.7950776815414429e-01" nType="0">
                    <Node pos="l" depth="7" NCoef="0" IVar="-1" Cut="0.0000000000000000e+00" cType="1" res="-2.1159932948648930e-03" rms="4.8602092266082764e-01" purity="5.6801217794418335e-01" nType="-99"/>
                    <Node pos="r" depth="7" NCoef="0" IVar="-1" Cut="0.0000000000000000e+00" cType="1" res="1.8585531506687403e-03" rms="4.8086225986480713e-01" purity="5.9131455421447754e-01" nType="-99"/>
                  </Node>
                  <Node pos="r" depth="6" NCoef="0" IVar="5" Cut="-1.5418851375579834e+00" cType="1" res="4.4977493584156036e-02" rms="4.5728847384452820e-01" purity="6.8466645479202271e-01" nType="0">
                    <Node pos="l" depth="7" NCoef="0" IVar="-1" Cut="0.0000000000000000e+00" cType="1" res="4.5510358177125454e-03" rms="4.4140875339508057e-01" purity="7.2810381650924683e-01" nType="-99"/>
                    <Node pos="r" depth="7" NCoef="0" IVar="-1" Cut="0.0000000000000000e+00" cType="1" res="3.2903654500842094e-03" rms="4.7534176707267761e-01" purity="6.3320392370223999e-01" nType="-99"/>
                  </Node>
                </Node>
              </Node>
              <Node pos="r" depth="4" NCoef="0" IVar="-1" Cut="0.0000000000000000e+00" cType="1" res="-3.0060485005378723e-03" rms="4.9094319343566895e-01" purity="4.7300797700881958e-01" nType="-99"/>
            </Node>
            <Node pos="r" depth="3" NCoef="0" IVar="-1" Cut="0.0000000000000000e+00" cType="1" res="-5.6786783970892429e-03" rms="4.6257245540618896e-01" purity="3.5129544138908386e-01" nType="-99"/>
          </Node>
        </Node>
      </Node>
    </BinaryTree>
    <BinaryTree type="DecisionTree" boostWeight="1.0000000000000000e+00" itree="39">
      <Node pos="s" depth="0" NCoef="0" IVar="0" Cut="3.2252842187881470e-01" cType="1" res="1.1600449681282043e-02" rms="4.0492969751358032e-01" purity="4.9849125742912292e-01" nType="0">
        <Node pos="l" depth="1" NCoef="0" IVar="0" Cut="1.7686438560485840e-01" cType="1" res="5.1240898668766022e-02" rms="4.2287653684616089e-01" purity="7.2986084222793579e-01" nType="0">
          <Node pos="l" depth="2" NCoef="0" IVar="1" Cut="1.5051686763763428e+00" cType="1" res="5.9608917683362961e-02" rms="4.1312158107757568e-01" purity="7.5754398107528687e-01" nType="0">
            <Node pos="l" depth="3" NCoef="0" IVar="5" Cut="-1.1602361202239990e+00" cType="1" res="6.3964098691940308e-02" rms="4.0742182731628418e-01" purity="7.7099096775054932e-01" nType="0">
              <Node pos="l" depth="4" NCoef="0" IVar="2" Cut="1.0061106872558594e+02" cType="1" res="6.8088844418525696e-02" rms="3.9993408322334290e-01" purity="7.8765439987182617e-01" nType="0">
                <Node pos="l" depth="5" NCoef="0" IVar="1" Cut="1.2589180469512939e-01" cType="1" res="7.1944601833820343e-02" rms="3.9126822352409363e-01" purity="8.0287533998489380e-01" nType="0">
                  <Node pos="l" depth="6" NCoef="0" IVar="1" Cut="-7.6942688226699829e-01" cType="1" res="7.9165197908878326e-02" rms="3.7216293811798096e-01" purity="8.2992440462112427e-01" nType="0">
                    <Node pos="l" depth="7" NCoef="0" IVar="-1" Cut="0.0000000000000000e+00" cType="1" res="4.6523809432983398e-03" rms="3.9792075753211975e-01" purity="7.9981702566146851e-01" nType="-99"/>
                    <Node pos="r" depth="7" NCoef="0" IVar="-1" Cut="0.0000000000000000e+00" cType="1" res="8.3408476784825325e-03" rms="3.6979275941848755e-01" purity="8.3247089385986328e-01" nType="-99"/>
                  </Node>
                  <Node pos="r" depth="6" NCoef="0" IVar="3" Cut="9.8840814828872681e-01" cType="1" res="6.1590738594532013e-02" rms="4.1692155599594116e-01" purity="7.6408880949020386e-01" nType="0">
                    <Node pos="l" depth="7" NCoef="0" IVar="-1" Cut="0.0000000000000000e+00" cType="1" res="4.3559735640883446e-03" rms="4.4176450371742249e-01" purity="7.1637213230133057e-01" nType="-99"/>
                    <Node pos="r" depth="7" NCoef="0" IVar="-1" Cut="0.0000000000000000e+00" cType="1" res="6.7722890526056290e-03" rms="3.9816153049468994e-01" purity="7.9784995317459106e-01" nType="-99"/>
                  </Node>
                </Node>
                <Node pos="r" depth="5" NCoef="0" IVar="3" Cut="8.3363193273544312e-01" cType="1" res="4.5493870973587036e-02" rms="4.4668653607368469e-01" purity="6.9845885038375854e-01" nType="0">
                  <Node pos="l" depth="6" NCoef="0" IVar="6" Cut="6.1954323202371597e-02" cType="1" res="3.0984150245785713e-02" rms="4.7096830606460571e-01" purity="6.3146668672561646e-01" nType="0">
                    <Node pos="l" depth="7" NCoef="0" IVar="-1" Cut="0.0000000000000000e+00" cType="1" res="1.5631533460691571e-03" rms="4.7044917941093445e-01" purity="6.4139908552169800e-01" nType="-99"/>
                    <Node pos="r" depth="7" NCoef="0" IVar="-1" Cut="0.0000000000000000e+00" cType="1" res="3.4343509469181299e-03" rms="4.7110894322395325e-01" purity="6.2362545728683472e-01" nType="-99"/>
                  </Node>
                  <Node pos="r" depth="6" NCoef="0" IVar="1" Cut="-1.0418159514665604e-01" cType="1" res="5.9078395366668701e-02" rms="4.2223894596099854e-01" purity="7.6117932796478271e-01" nType="0">
                    <Node pos="l" depth="7" NCoef="0" IVar="-1" Cut="0.0000000000000000e+00" cType="1" res="7.5600715354084969e-03" rms="3.9988565444946289e-01" purity="7.9777890443801880e-01" nType="-99"/>
                    <Node pos="r" depth="7" NCoef="0" IVar="-1" Cut="0.0000000000000000e+00" cType="1" res="4.9244654364883900e-03" rms="4.3713557720184326e-01" purity="7.3523777723312378e-01" nType="-99"/>
                  </Node>
                </Node>
              </Node>
              <Node pos="r" depth="4" NCoef="0" IVar="1" Cut="-1.3987046480178833e-01" cType="1" res="1.9569950178265572e-02" rms="4.7843819856643677e-01" purity="5.9164398908615112e-01" nType="0">
                <Node pos="l" depth="5" NCoef="0" IVar="-1" Cut="0.0000000000000000e+00" cType="1" res="4.6068639494478703e-03" rms="4.6805226802825928e-01" purity="6.6034382581710815e-01" nType="-99"/>
                <Node pos="r" depth="5" NCoef="0" IVar="5" Cut="-6.2350541353225708e-01" cType="1" res="2.1416393574327230e-03" rms="4.8270410299301147e-01" purity="5.5669391155242920e-01" nType="0">
                  <Node pos="l" depth="6" NCoef="0" IVar="-1" Cut="0.0000000000000000e+00" cType="1" res="2.1903715096414089e-03" rms="4.7802123427391052e-01" purity="6.1215162277221680e-01" nType="-99"/>
                  <Node pos="r" depth="6" NCoef="0" IVar="-1" Cut="0.0000000000000000e+00" cType="1" res="-2.4060998111963272e-03" rms="4.8693072795867920e-01" purity="4.8792371153831482e-01" nType="-99"/>
                </Node>
              </Node>
            </Node>
            <Node pos="r" depth="3" NCoef="0" IVar="5" Cut="-2.2661099433898926e+00" cType="1" res="3.5527914296835661e-03" rms="4.7694864869117737e-01" purity="5.8446615934371948e-01" nType="0">
              <Node pos="l" depth="4" NCoef="0" IVar="-1" Cut="0.0000000000000000e+00" cType="1" res="2.0598231349140406e-03" rms="4.6921217441558838e-01" purity="6.4482808113098145e-01" nType="-99"/>
              <Node pos="r" depth="4" NCoef="0" IVar="-1" Cut="0.0000000000000000e+00" cType="1" res="-2.7995770797133446e-03" rms="4.8802635073661804e-01" purity="4.7936215996742249e-01" nType="-99"/>
            </Node>
          </Node>
          <Node pos="r" depth="2" NCoef="0" IVar="1" Cut="7.9818266630172729e-01" cType="1" res="6.8621952086687088e-03" rms="4.6875727176666260e-01" purity="5.8304709196090698e-01" nType="0">
            <Node pos="l" depth="3" NCoef="0" IVar="1" Cut="1.8484178185462952e-01" cType="1" res="1.9849652424454689e-02" rms="4.6573573350906372e-01" purity="6.1858266592025757e-01" nType="0">
              <Node pos="l" depth="4" NCoef="0" IVar="0" Cut="2.6614865660667419e-01" cType="1" res="4.0070306509733200e-02" rms="4.5778787136077881e-01" purity="6.5925240516662598e-01" nType="0">
                <Node pos="l" depth="5" NCoef="0" IVar="6" Cut="5.1205810159444809e-02" cType="1" res="5.3939737379550934e-02" rms="4.4900798797607422e-01" purity="6.8484073877334595e-01" nType="0">
                  <Node pos="l" depth="6" NCoef="0" IVar="-1" Cut="0.0000000000000000e+00" cType="1" res="4.1528907604515553e-03" rms="4.4690889120101929e-01" purity="6.9693368673324585e-01" nType="-99"/>
                  <Node pos="r" depth="6" NCoef="0" IVar="-1" Cut="0.0000000000000000e+00" cType="1" res="7.2081582620739937e-03" rms="4.5111253857612610e-01" purity="6.6857886314392090e-01" nType="-99"/>
                </Node>
                <Node pos="r" depth="5" NCoef="0" IVar="-1" Cut="0.0000000000000000e+00" cType="1" res="2.0346748642623425e-03" rms="4.6861580014228821e-01" purity="6.2508499622344971e-01" nType="-99"/>
              </Node>
              <Node pos="r" depth="4" NCoef="0" IVar="3" Cut="7.7415776252746582e-01" cType="1" res="-1.8730981275439262e-02" rms="4.7816926240921021e-01" purity="5.4098558425903320e-01" nType="0">
                <Node pos="l" depth="5" NCoef="0" IVar="-1" Cut="0.0000000000000000e+00" cType="1" res="-3.2839246559888124e-03" rms="4.7988650202751160e-01" purity="4.5838302373886108e-01" nType="-99"/>
                <Node pos="r" depth="5" NCoef="0" IVar="-1" Cut="0.0000000000000000e+00" cType="1" res="-3.3479294506832957e-04" rms="4.7596496343612671e-01" purity="6.2292057275772095e-01" nType="-99"/>
              </Node>
            </Node>
            <Node pos="r" depth="3" NCoef="0" IVar="-1" Cut="0.0000000000000000e+00" cType="1" res="-4.7752456739544868e-03" rms="4.7750136256217957e-01" purity="4.3092793226242065e-01" nType="-99"/>
          </Node>
        </Node>
        <Node pos="r" depth="1" NCoef="0" IVar="3" Cut="5.8804380893707275e-01" cType="1" res="-3.2750047743320465e-02" rms="3.7897396087646484e-01" purity="2.3963047564029694e-01" nType="0">
          <Node pos="l" depth="2" NCoef="0" IVar="4" Cut="2.0516242980957031e+00" cType="1" res="-4.6057127416133881e-02" rms="3.1676059961318970e-01" purity="1.3016904890537262e-01" nType="0">
            <Node pos="l" depth="3" NCoef="0" IVar="3" Cut="4.0214094519615173e-01" cType="1" res="-4.1443929076194763e-02" rms="3.4071481227874756e-01" purity="1.5197324752807617e-01" nType="0">
              <Node pos="l" depth="4" NCoef="0" IVar="6" Cut="2.0442251861095428e-01" cType="1" res="-5.2474606782197952e-02" rms="2.7410134673118591e-01" purity="8.7301790714263916e-02" nType="0">
                <Node pos="l" depth="5" NCoef="0" IVar="1" Cut="3.1700329780578613e+00" cType="1" res="-5.9454474598169327e-02" rms="2.4178999662399292e-01" purity="6.4588688313961029e-02" nType="0">
                  <Node pos="l" depth="6" NCoef="0" IVar="3" Cut="3.0139610171318054e-01" cType="1" res="-6.1869718134403229e-02" rms="2.3934701085090637e-01" purity="6.3400097191333771e-02" nType="0">
                    <Node pos="l" depth="7" NCoef="0" IVar="-1" Cut="0.0000000000000000e+00" cType="1" res="-2.1810606122016907e-02" rms="1.9625344872474670e-01" purity="4.0665958076715469e-02" nType="-99"/>
                    <Node pos="r" depth="7" NCoef="0" IVar="-1" Cut="0.0000000000000000e+00" cType="1" res="-1.2808723375201225e-02" rms="2.7280235290527344e-01" purity="8.4308393299579620e-02" nType="-99"/>
                  </Node>
                  <Node pos="r" depth="6" NCoef="0" IVar="-1" Cut="0.0000000000000000e+00" cType="1" res="-1.0747397318482399e-02" rms="2.6166352629661560e-01" purity="7.5232081115245819e-02" nType="-99"/>
                </Node>
                <Node pos="r" depth="5" NCoef="0" IVar="7" Cut="6.0000000000000000e+00" cType="1" res="-2.2303817793726921e-02" rms="3.7857753038406372e-01" purity="1.8704745173454285e-01" nType="0">
                  <Node pos="l" depth="6" NCoef="0" IVar="-1" Cut="0.0000000000000000e+00" cType="1" res="2.7855536900460720e-03" rms="4.2314293980598450e-01" purity="2.4208168685436249e-01" nType="-99"/>
                  <Node pos="r" depth="6" NCoef="0" IVar="-1" Cut="0.0000000000000000e+00" cType="1" res="-8.9164590463042259e-03" rms="3.4918591380119324e-01" purity="1.4698927104473114e-01" nType="-99"/>
                </Node>
              </Node>
              <Node pos="r" depth="4" NCoef="0" IVar="6" Cut="1.5198543667793274e-01" cType="1" res="-2.9088174924254417e-02" rms="4.0208518505096436e-01" purity="2.2441349923610687e-01" nType="0">
                <Node pos="l" depth="5" NCoef="0" IVar="6" Cut="4.9177959561347961e-02" cType="1" res="-3.5730533301830292e-02" rms="3.9312505722045898e-01" purity="2.1050405502319336e-01" nType="0">
                  <Node pos="l" depth="6" NCoef="0" IVar="2" Cut="7.4212104797363281e+01" cType="1" res="-6.3648514449596405e-02" rms="3.5886734724044800e-01" purity="1.6360081732273102e-01" nType="0">
                    <Node pos="l" depth="7" NCoef="0" IVar="-1" Cut="0.0000000000000000e+00" cType="1" res="-4.6753110364079475e-03" rms="3.9345383644104004e-01" purity="2.0654988288879395e-01" nType="-99"/>
                    <Node pos="r" depth="7" NCoef="0" IVar="-1" Cut="0.0000000000000000e+00" cType="1" res="-1.5392796136438847e-02" rms="3.1397858262062073e-01" purity="1.1723878234624863e-01" nType="-99"/>
                  </Node>
                  <Node pos="r" depth="6" NCoef="0" IVar="2" Cut="1.6609455871582031e+02" cType="1" res="-2.8026783838868141e-02" rms="4.0172326564788818e-01" purity="2.2344665229320526e-01" nType="0">
                    <Node pos="l" depth="7" NCoef="0" IVar="-1" Cut="0.0000000000000000e+00" cType="1" res="2.7501030126586556e-04" rms="4.2169353365898132e-01" purity="2.5903344154357910e-01" nType="-99"/>
                    <Node pos="r" depth="7" NCoef="0" IVar="-1" Cut="0.0000000000000000e+00" cType="1" res="-6.4951013773679733e-03" rms="3.8794326782226562e-01" purity="2.0181727409362793e-01" nType="-99"/>
                  </Node>
                </Node>
                <Node pos="r" depth="5" NCoef="0" IVar="-1" Cut="0.0000000000000000e+00" cType="1" res="1.7140023410320282e-03" rms="4.5468917489051819e-01" purity="3.1676536798477173e-01" nType="-99"/>
              </Node>
            </Node>
            <Node pos="r" depth="3" NCoef="0" IVar="3" Cut="2.8317794203758240e-01" cType="1" res="-6.7928515374660492e-02" rms="1.5839727222919464e-01" purity="2.6794195175170898e-02" nType="0">
              <Node pos="l" depth="4" NCoef="0" IVar="3" Cut="2.1837662160396576e-01" cType="1" res="-5.6178048253059387e-02" rms="1.7707705497741699e-01" purity="3.4591838717460632e-02" nType="0">
                <Node pos="l" depth="5" NCoef="0" IVar="-1" Cut="0.0000000000000000e+00" cType="1" res="-1.6530882567167282e-02" rms="2.1044309437274933e-01" purity="5.0276316702365875e-02" nType="-99"/>
                <Node pos="r" depth="5" NCoef="0" IVar="-1" Cut="0.0000000000000000e+00" cType="1" res="-2.4764731526374817e-02" rms="1.3589829206466675e-01" purity="1.9103175029158592e-02" nType="-99"/>
              </Node>
              <Node pos="r" depth="4" NCoef="0" IVar="3" Cut="4.3070867657661438e-01" cType="1" res="-7.5352065265178680e-02" rms="1.4487351477146149e-01" purity="2.1867906674742699e-02" nType="0">
                <Node pos="l" depth="5" NCoef="0" IVar="2" Cut="2.8135031127929688e+02" cType="1" res="-7.0344746112823486e-02" rms="1.2504729628562927e-01" purity="1.6088863834738731e-02" nType="0">
                  <Node pos="l" depth="6" NCoef="0" IVar="-1" Cut="0.0000000000000000e+00" cType="1" res="-2.5432854890823364e-02" rms="1.2087665498256683e-01" purity="1.5182508155703545e-02" nType="-99"/>
                  <Node pos="r" depth="6" NCoef="0" IVar="-1" Cut="0.0000000000000000e+00" cType="1" res="-2.4039739742875099e-02" rms="1.2919412553310394e-01" purity="1.7050011083483696e-02" nType="-99"/>
                </Node>
                <Node pos="r" depth="5" NCoef="0" IVar="-1" Cut="0.0000000000000000e+00" cType="1" res="-2.1876683458685875e-02" rms="1.7771913111209869e-01" purity="3.3473748713731766e-02" nType="-99"/>
              </Node>
            </Node>
          </Node>
          <Node pos="r" depth="2" NCoef="0" IVar="5" Cut="-9.7360891103744507e-01" cType="1" res="-7.5790011323988438e-03" rms="4.7384247183799744e-01" purity="4.4668263196945190e-01" nType="0">
            <Node pos="l" depth="3" NCoef="0" IVar="1" Cut="8.8003325462341309e-01" cType="1" res="2.4020792916417122e-03" rms="4.8222592473030090e-01" purity="4.8036241531372070e-01" nType="0">
              <Node pos="l" depth="4" NCoef="0" IVar="5" Cut="-1.9102965593338013e+00" cType="1" res="1.4432951807975769e-02" rms="4.8647254705429077e-01" purity="5.2630311250686646e-01" nType="0">
                <Node pos="l" depth="5" NCoef="0" IVar="4" Cut="-1.2203834056854248e+00" cType="1" res="2.4068998172879219e-02" rms="4.8505651950836182e-01" purity="5.4241567850112915e-01" nType="0">
                  <Node pos="l" depth="6" NCoef="0" IVar="5" Cut="-2.8310732841491699e+00" cType="1" res="4.7331517562270164e-03" rms="4.8660981655120850e-01" purity="5.2108412981033325e-01" nType="0">
                    <Node pos="l" depth="7" NCoef="0" IVar="-1" Cut="0.0000000000000000e+00" cType="1" res="-2.0244834013283253e-03" rms="4.8382684588432312e-01" purity="4.8653283715248108e-01" nType="-99"/>
                    <Node pos="r" depth="7" NCoef="0" IVar="-1" Cut="0.0000000000000000e+00" cType="1" res="1.8673971062526107e-03" rms="4.8755374550819397e-01" purity="5.4265439510345459e-01" nType="-99"/>
                  </Node>
                  <Node pos="r" depth="6" NCoef="0" IVar="2" Cut="1.2872932434082031e+02" cType="1" res="3.8496635854244232e-02" rms="4.8339068889617920e-01" purity="5.5833244323730469e-01" nType="0">
                    <Node pos="l" depth="7" NCoef="0" IVar="-1" Cut="0.0000000000000000e+00" cType="1" res="4.5130858197808266e-03" rms="4.7857177257537842e-01" purity="5.9559637308120728e-01" nType="-99"/>
                    <Node pos="r" depth="7" NCoef="0" IVar="-1" Cut="0.0000000000000000e+00" cType="1" res="6.8352441303431988e-04" rms="4.9110198020935059e-01" purity="4.8611027002334595e-01" nType="-99"/>
                  </Node>
                </Node>
                <Node pos="r" depth="5" NCoef="0" IVar="2" Cut="1.0823337554931641e+02" cType="1" res="-1.1728389188647270e-02" rms="4.8934030532836914e-01" purity="4.8255828022956848e-01" nType="0">
                  <Node pos="l" depth="6" NCoef="0" IVar="-1" Cut="0.0000000000000000e+00" cType="1" res="6.5189076121896505e-04" rms="4.9175447225570679e-01" purity="5.2282410860061646e-01" nType="-99"/>
                  <Node pos="r" depth="6" NCoef="0" IVar="-1" Cut="0.0000000000000000e+00" cType="1" res="-2.6525196153670549e-03" rms="4.8656252026557922e-01" purity="4.4701406359672546e-01" nType="-99"/>
                </Node>
              </Node>
              <Node pos="r" depth="4" NCoef="0" IVar="1" Cut="2.0567681789398193e+00" cType="1" res="-2.7077468112111092e-02" rms="4.7035968303680420e-01" purity="3.6779290437698364e-01" nType="0">
                <Node pos="l" depth="5" NCoef="0" IVar="0" Cut="6.3025617599487305e-01" cType="1" res="-1.1252452619373798e-02" rms="4.7633340954780579e-01" purity="3.9063179492950439e-01" nType="0">
                  <Node pos="l" depth="6" NCoef="0" IVar="-1" Cut="0.0000000000000000e+00" cType="1" res="8.0192345194518566e-04" rms="4.8467057943344116e-01" purity="4.3046855926513672e-01" nType="-99"/>
                  <Node pos="r" depth="6" NCoef="0" IVar="-1" Cut="0.0000000000000000e+00" cType="1" res="-3.3592744730412960e-03" rms="4.6609556674957275e-01" purity="3.4721764922142029e-01" nType="-99"/>
                </Node>
                <Node pos="r" depth="5" NCoef="0" IVar="-1" Cut="0.0000000000000000e+00" cType="1" res="-5.5124154314398766e-03" rms="4.5846089720726013e-01" purity="3.2799351215362549e-01" nType="-99"/>
              </Node>
            </Node>
            <Node pos="r" depth="3" NCoef="0" IVar="5" Cut="3.4845874179154634e-03" cType="1" res="-5.2549663931131363e-02" rms="4.3121057748794556e-01" purity="2.9493537545204163e-01" nType="0">
              <Node pos="l" depth="4" NCoef="0" IVar="-1" Cut="0.0000000000000000e+00" cType="1" res="-2.2015313152223825e-03" rms="4.6653383970260620e-01" purity="3.6841517686843872e-01" nType="-99"/>
              <Node pos="r" depth="4" NCoef="0" IVar="-1" Cut="0.0000000000000000e+00" cType="1" res="-1.2688111513853073e-02" rms="3.6459481716156006e-01" purity="1.8052960932254791e-01" nType="-99"/>
            </Node>
          </Node>
        </Node>
      </Node>
    </BinaryTree>
    <BinaryTree type="DecisionTree" boostWeight="1.0000000000000000e+00" itree="40">
      <Node pos="s" depth="0" NCoef="0" IVar="0" Cut="3.2245382666587830e-01" cType="1" res="1.3465164229273796e-02" rms="4.0509998798370361e-01" purity="5.0085091590881348e-01" nType="0">
        <Node pos="l" depth="1" NCoef="0" IVar="0" Cut="1.0400056838989258e-02" cType="1" res="5.0802808254957199e-02" rms="4.2244178056716919e-01" purity="7.3089700937271118e-01" nType="0">
          <Node pos="l" depth="2" NCoef="0" IVar="1" Cut="5.0749367475509644e-01" cType="1" res="5.8703068643808365e-02" rms="4.1259312629699707e-01" purity="7.5859922170639038e-01" nType="0">
            <Node pos="l" depth="3" NCoef="0" IVar="5" Cut="-2.3553473949432373e+00" cType="1" res="6.6270075738430023e-02" rms="3.9625120162963867e-01" purity="7.9135322570800781e-01" nType="0">
              <Node pos="l" depth="4" NCoef="0" IVar="4" Cut="-1.4757651090621948e+00" cType="1" res="7.5486637651920319e-02" rms="3.7117537856101990e-01" purity="8.2896476984024048e-01" nType="0">
                <Node pos="l" depth="5" NCoef="0" IVar="4" Cut="-2.6511921882629395e+00" cType="1" res="6.4046964049339294e-02" rms="4.0612196922302246e-01" purity="7.8406918048858643e-01" nType="0">
                  <Node pos="l" depth="6" NCoef="0" IVar="5" Cut="-2.8577070236206055e+00" cType="1" res="8.9342981576919556e-02" rms="3.8384473323822021e-01" purity="8.1520223617553711e-01" nType="0">
                    <Node pos="l" depth="7" NCoef="0" IVar="-1" Cut="0.0000000000000000e+00" cType="1" res="1.0153940878808498e-02" rms="3.7035083770751953e-01" purity="8.2967102527618408e-01" nType="-99"/>
                    <Node pos="r" depth="7" NCoef="0" IVar="-1" Cut="0.0000000000000000e+00" cType="1" res="8.2981633022427559e-03" rms="3.9681357145309448e-01" purity="8.0063712596893311e-01" nType="-99"/>
                  </Node>
                  <Node pos="r" depth="6" NCoef="0" IVar="6" Cut="1.9061245024204254e-02" cType="1" res="5.1069665700197220e-02" rms="4.1649320721626282e-01" purity="7.6809740066528320e-01" nType="0">
                    <Node pos="l" depth="7" NCoef="0" IVar="-1" Cut="0.0000000000000000e+00" cType="1" res="3.7412189412862062e-03" rms="4.0910410881042480e-01" purity="7.8349912166595459e-01" nType="-99"/>
                    <Node pos="r" depth="7" NCoef="0" IVar="-1" Cut="0.0000000000000000e+00" cType="1" res="5.4609542712569237e-03" rms="4.2196977138519287e-01" purity="7.5616037845611572e-01" nType="-99"/>
                  </Node>
                </Node>
                <Node pos="r" depth="5" NCoef="0" IVar="5" Cut="-3.2471158504486084e+00" cType="1" res="8.1640295684337616e-02" rms="3.5078600049018860e-01" purity="8.5311508178710938e-01" nType="0">
                  <Node pos="l" depth="6" NCoef="0" IVar="-1" Cut="0.0000000000000000e+00" cType="1" res="1.0727917775511742e-02" rms="3.2222568988800049e-01" purity="8.7979364395141602e-01" nType="-99"/>
                  <Node pos="r" depth="6" NCoef="0" IVar="5" Cut="-2.8443667888641357e+00" cType="1" res="7.9197779297828674e-02" rms="3.5578331351280212e-01" purity="8.4816139936447144e-01" nType="0">
                    <Node pos="l" depth="7" NCoef="0" IVar="-1" Cut="0.0000000000000000e+00" cType="1" res="9.5235863700509071e-03" rms="3.3950191736221313e-01" purity="8.6567002534866333e-01" nType="-99"/>
                    <Node pos="r" depth="7" NCoef="0" IVar="-1" Cut="0.0000000000000000e+00" cType="1" res="7.4988771229982376e-03" rms="3.7276220321655273e-01" purity="8.2887268066406250e-01" nType="-99"/>
                  </Node>
                </Node>
              </Node>
              <Node pos="r" depth="4" NCoef="0" IVar="3" Cut="9.5702213048934937e-01" cType="1" res="5.2013713866472244e-02" rms="4.3179529905319214e-01" purity="7.3317492008209229e-01" nType="0">
                <Node pos="l" depth="5" NCoef="0" IVar="1" Cut="-2.0479893684387207e-01" cType="1" res="3.7772811949253082e-02" rms="4.5487660169601440e-01" purity="6.8253284692764282e-01" nType="0">
                  <Node pos="l" depth="6" NCoef="0" IVar="3" Cut="8.4129148721694946e-01" cType="1" res="5.7166717946529388e-02" rms="4.4413977861404419e-01" purity="7.1383005380630493e-01" nType="0">
                    <Node pos="l" depth="7" NCoef="0" IVar="-1" Cut="0.0000000000000000e+00" cType="1" res="3.7748373579233885e-03" rms="4.6352967619895935e-01" purity="6.6751343011856079e-01" nType="-99"/>
                    <Node pos="r" depth="7" NCoef="0" IVar="-1" Cut="0.0000000000000000e+00" cType="1" res="6.5485979430377483e-03" rms="4.2362612485885620e-01" purity="7.6008373498916626e-01" nType="-99"/>
                  </Node>
                  <Node pos="r" depth="6" NCoef="0" IVar="6" Cut="4.2186077684164047e-02" cType="1" res="2.6668896898627281e-02" rms="4.6054384112358093e-01" purity="6.6461372375488281e-01" nType="0">
                    <Node pos="l" depth="7" NCoef="0" IVar="-1" Cut="0.0000000000000000e+00" cType="1" res="9.3646615277975798e-04" rms="4.6219098567962646e-01" purity="6.6672259569168091e-01" nType="-99"/>
                    <Node pos="r" depth="7" NCoef="0" IVar="-1" Cut="0.0000000000000000e+00" cType="1" res="4.0625273250043392e-03" rms="4.5754516124725342e-01" purity="6.6193354129791260e-01" nType="-99"/>
                  </Node>
                </Node>
                <Node pos="r" depth="5" NCoef="0" IVar="1" Cut="8.8240005075931549e-02" cType="1" res="0.0000000000000000e+00" rms="0.0000000000000000e+00" purity="7.8098797798156738e-01" nType="0">
                  <Node pos="l" depth="6" NCoef="0" IVar="5" Cut="-1.9469447135925293e+00" cType="1" res="0.0000000000000000e+00" rms="0.0000000000000000e+00" purity="7.9773271083831787e-01" nType="0">
                    <Node pos="l" depth="7" NCoef="0" IVar="-1" Cut="0.0000000000000000e+00" cType="1" res="8.6703738197684288e-03" rms="3.6237129569053650e-01" purity="8.4433782100677490e-01" nType="-99"/>
                    <Node pos="r" depth="7" NCoef="0" IVar="-1" Cut="0.0000000000000000e+00" cType="1" res="6.0246367938816547e-03" rms="4.2002660036087036e-01" purity="7.6475012302398682e-01" nType="-99"/>
                  </Node>
                  <Node pos="r" depth="6" NCoef="0" IVar="-1" Cut="0.0000000000000000e+00" cType="1" res="4.4581433758139610e-03" rms="4.3179276585578918e-01" purity="7.4306613206863403e-01" nType="-99"/>
                </Node>
              </Node>
            </Node>
            <Node pos="r" depth="3" NCoef="0" IVar="5" Cut="-2.0338079929351807e+00" cType="1" res="3.6110375076532364e-02" rms="4.5718339085578918e-01" purity="6.6080611944198608e-01" nType="0">
              <Node pos="l" depth="4" NCoef="0" IVar="4" Cut="-8.0456489324569702e-01" cType="1" res="4.8824016004800797e-02" rms="4.4597223401069641e-01" purity="7.0451331138610840e-01" nType="0">
                <Node pos="l" depth="5" NCoef="0" IVar="5" Cut="-2.7006988525390625e+00" cType="1" res="3.6796875298023224e-02" rms="4.6637511253356934e-01" purity="6.5838074684143066e-01" nType="0">
                  <Node pos="l" depth="6" NCoef="0" IVar="-1" Cut="0.0000000000000000e+00" cType="1" res="4.1384566575288773e-03" rms="4.5669767260551453e-01" purity="6.8332868814468384e-01" nType="-99"/>
                  <Node pos="r" depth="6" NCoef="0" IVar="-1" Cut="0.0000000000000000e+00" cType="1" res="1.8015028908848763e-03" rms="4.7717860341072083e-01" purity="6.2876731157302856e-01" nType="-99"/>
                </Node>
                <Node pos="r" depth="5" NCoef="0" IVar="5" Cut="-2.9359531402587891e+00" cType="1" res="6.2076900154352188e-02" rms="4.2195332050323486e-01" purity="7.5534749031066895e-01" nType="0">
                  <Node pos="l" depth="6" NCoef="0" IVar="-1" Cut="0.0000000000000000e+00" cType="1" res="7.4394033290445805e-03" rms="4.0049058198928833e-01" purity="7.9398488998413086e-01" nType="-99"/>
                  <Node pos="r" depth="6" NCoef="0" IVar="-1" Cut="0.0000000000000000e+00" cType="1" res="4.6371314674615860e-03" rms="4.3565976619720459e-01" purity="7.2898298501968384e-01" nType="-99"/>
                </Node>
              </Node>
              <Node pos="r" depth="4" NCoef="0" IVar="5" Cut="-1.4062227010726929e+00" cType="1" res="3.2308856025338173e-03" rms="4.8342889547348022e-01" purity="5.4777252674102783e-01" nType="0">
                <Node pos="l" depth="5" NCoef="0" IVar="-1" Cut="0.0000000000000000e+00" cType="1" res="1.9412575056776404e-03" rms="4.7914627194404602e-01" purity="6.0903561115264893e-01" nType="-99"/>
                <Node pos="r" depth="5" NCoef="0" IVar="-1" Cut="0.0000000000000000e+00" cType="1" res="-1.8272905144840479e-03" rms="4.8749661445617676e-01" purity="4.7335815429687500e-01" nType="-99"/>
              </Node>
            </Node>
          </Node>
          <Node pos="r" depth="2" NCoef="0" IVar="1" Cut="4.8926278948783875e-01" cType="1" res="1.0029120370745659e-02" rms="4.6788546442985535e-01" purity="5.8792459964752197e-01" nType="0">
            <Node pos="l" depth="3" NCoef="0" IVar="5" Cut="-2.0872328281402588e+00" cType="1" res="2.7914702892303467e-02" rms="4.6186363697052002e-01" purity="6.3876068592071533e-01" nType="0">
              <Node pos="l" depth="4" NCoef="0" IVar="6" Cut="3.8362085819244385e-02" cType="1" res="4.3600961565971375e-02" rms="4.4930529594421387e-01" purity="6.9380652904510498e-01" nType="0">
                <Node pos="l" depth="5" NCoef="0" IVar="-1" Cut="0.0000000000000000e+00" cType="1" res="2.6503894478082657e-03" rms="4.4043970108032227e-01" purity="7.0849525928497314e-01" nType="-99"/>
                <Node pos="r" depth="5" NCoef="0" IVar="-1" Cut="0.0000000000000000e+00" cType="1" res="5.6865676306188107e-03" rms="4.5617055892944336e-01" purity="6.8123316764831543e-01" nType="-99"/>
              </Node>
              <Node pos="r" depth="4" NCoef="0" IVar="3" Cut="7.4552023410797119e-01" cType="1" res="8.1790797412395477e-03" rms="4.7646155953407288e-01" purity="5.6950485706329346e-01" nType="0">
                <Node pos="l" depth="5" NCoef="0" IVar="-1" Cut="0.0000000000000000e+00" cType="1" res="-1.6972736921161413e-03" rms="4.8233100771903992e-01" purity="4.7161182761192322e-01" nType="-99"/>
                <Node pos="r" depth="5" NCoef="0" IVar="-1" Cut="0.0000000000000000e+00" cType="1" res="2.4009395856410265e-03" rms="4.7183799743652344e-01" purity="6.3333570957183838e-01" nType="-99"/>
              </Node>
            </Node>
            <Node pos="r" depth="3" NCoef="0" IVar="4" Cut="-8.4854203462600708e-01" cType="1" res="-3.3065721392631531e-02" rms="4.7935274243354797e-01" purity="4.6543663740158081e-01" nType="0">
              <Node pos="l" depth="4" NCoef="0" IVar="-1" Cut="0.0000000000000000e+00" cType="1" res="-6.3588790362700820e-04" rms="4.8799675703048706e-01" purity="5.1086169481277466e-01" nType="-99"/>
              <Node pos="r" depth="4" NCoef="0" IVar="-1" Cut="0.0000000000000000e+00" cType="1" res="-5.4867095313966274e-03" rms="4.7079032659530640e-01" purity="4.2710325121879578e-01" nType="-99"/>
            </Node>
          </Node>
        </Node>
        <Node pos="r" depth="1" NCoef="0" IVar="0" Cut="9.4656777381896973e-01" cType="1" res="-2.8482638299465179e-02" rms="3.8033816218376160e-01" purity="2.4240040779113770e-01" nType="0">
          <Node pos="l" depth="2" NCoef="0" IVar="4" Cut="1.6825857162475586e+00" cType="1" res="-7.9412665218114853e-03" rms="4.5481190085411072e-01" purity="3.9304137229919434e-01" nType="0">
            <Node pos="l" depth="3" NCoef="0" IVar="3" Cut="7.1219444274902344e-01" cType="1" res="-1.9191782921552658e-03" rms="4.6527311205863953e-01" purity="4.1664382815361023e-01" nType="0">
              <Node pos="l" depth="4" NCoef="0" IVar="1" Cut="5.9559559822082520e-01" cType="1" res="-1.5428793616592884e-02" rms="4.5575594902038574e-01" purity="3.4232199192047119e-01" nType="0">
                <Node pos="l" depth="5" NCoef="0" IVar="1" Cut="-4.3114942312240601e-01" cType="1" res="-1.4335142623167485e-04" rms="4.7041147947311401e-01" purity="3.8958403468132019e-01" nType="0">
                  <Node pos="l" depth="6" NCoef="0" IVar="-1" Cut="0.0000000000000000e+00" cType="1" res="2.9327096417546272e-03" rms="4.8409703373908997e-01" purity="4.4745153188705444e-01" nType="-99"/>
                  <Node pos="r" depth="6" NCoef="0" IVar="6" Cut="4.8876810818910599e-02" cType="1" res="-6.1876187101006508e-03" rms="4.6753522753715515e-01" purity="3.7865173816680908e-01" nType="0">
                    <Node pos="l" depth="7" NCoef="0" IVar="-1" Cut="0.0000000000000000e+00" cType="1" res="-3.9425538852810860e-03" rms="4.5642152428627014e-01" purity="3.3481881022453308e-01" nType="-99"/>
                    <Node pos="r" depth="7" NCoef="0" IVar="-1" Cut="0.0000000000000000e+00" cType="1" res="2.3401953512802720e-04" rms="4.7008955478668213e-01" purity="3.9034983515739441e-01" nType="-99"/>
                  </Node>
                </Node>
                <Node pos="r" depth="5" NCoef="0" IVar="6" Cut="5.1700167357921600e-02" cType="1" res="-4.2059808969497681e-02" rms="4.2772525548934937e-01" purity="2.5997981429100037e-01" nType="0">
                  <Node pos="l" depth="6" NCoef="0" IVar="-1" Cut="0.0000000000000000e+00" cType="1" res="-8.9900931343436241e-03" rms="4.0130627155303955e-01" purity="2.1103006601333618e-01" nType="-99"/>
                  <Node pos="r" depth="6" NCoef="0" IVar="5" Cut="-1.5167870521545410e+00" cType="1" res="-3.1969070434570312e-02" rms="4.3546247482299805e-01" purity="2.7583625912666321e-01" nType="0">
                    <Node pos="l" depth="7" NCoef="0" IVar="-1" Cut="0.0000000000000000e+00" cType="1" res="-2.2836143616586924e-03" rms="4.4827151298522949e-01" purity="3.0179062485694885e-01" nType="-99"/>
                    <Node pos="r" depth="7" NCoef="0" IVar="-1" Cut="0.0000000000000000e+00" cType="1" res="-7.7539496123790741e-03" rms="4.0121388435363770e-01" purity="2.1258728206157684e-01" nType="-99"/>
                  </Node>
                </Node>
              </Node>
              <Node pos="r" depth="4" NCoef="0" IVar="2" Cut="1.2118647766113281e+02" cType="1" res="2.6555459946393967e-02" rms="4.8348632454872131e-01" purity="5.7329428195953369e-01" nType="0">
                <Node pos="l" depth="5" NCoef="0" IVar="4" Cut="-1.1099696159362793e+00" cType="1" res="3.6391496658325195e-02" rms="4.8075759410858154e-01" purity="5.9736609458923340e-01" nType="0">
                  <Node pos="l" depth="6" NCoef="0" IVar="-1" Cut="0.0000000000000000e+00" cType="1" res="9.1764825629070401e-04" rms="4.8506283760070801e-01" purity="5.7666087150573730e-01" nType="-99"/>
                  <Node pos="r" depth="6" NCoef="0" IVar="0" Cut="4.2310383915901184e-01" cType="1" res="5.0644427537918091e-02" rms="4.7772336006164551e-01" purity="6.0904234647750854e-01" nType="0">
                    <Node pos="l" depth="7" NCoef="0" IVar="-1" Cut="0.0000000000000000e+00" cType="1" res="5.7209618389606476e-03" rms="4.6520346403121948e-01" purity="6.4579153060913086e-01" nType="-99"/>
                    <Node pos="r" depth="7" NCoef="0" IVar="-1" Cut="0.0000000000000000e+00" cType="1" res="2.9864786192774773e-03" rms="4.8562413454055786e-01" purity="5.8357357978820801e-01" nType="-99"/>
                  </Node>
                </Node>
                <Node pos="r" depth="5" NCoef="0" IVar="-1" Cut="0.0000000000000000e+00" cType="1" res="1.8129052477888763e-04" rms="4.8935943841934204e-01" purity="5.1332330703735352e-01" nType="-99"/>
              </Node>
            </Node>
            <Node pos="r" depth="3" NCoef="0" IVar="-1" Cut="0.0000000000000000e+00" cType="1" res="-1.5842227265238762e-02" rms="2.7833482623100281e-01" purity="9.1430917382240295e-02" nType="-99"/>
          </Node>
          <Node pos="r" depth="2" NCoef="0" IVar="5" Cut="-1.2603518962860107e+00" cType="1" res="-4.4404834508895874e-02" rms="3.0962246656417847e-01" purity="1.2563435733318329e-01" nType="0">
            <Node pos="l" depth="3" NCoef="0" IVar="3" Cut="7.5621211528778076e-01" cType="1" res="-3.6525197327136993e-02" rms="3.4670993685722351e-01" purity="1.6276699304580688e-01" nType="0">
              <Node pos="l" depth="4" NCoef="0" IVar="6" Cut="1.4037750661373138e-01" cType="1" res="-4.0362525731325150e-02" rms="3.2628181576728821e-01" purity="1.3316528499126434e-01" nType="0">
                <Node pos="l" depth="5" NCoef="0" IVar="5" Cut="-3.1145758628845215e+00" cType="1" res="-4.8823874443769455e-02" rms="3.0227023363113403e-01" purity="1.1258543282747269e-01" nType="0">
                  <Node pos="l" depth="6" NCoef="0" IVar="4" Cut="-6.9474411010742188e-01" cType="1" res="-6.9644808769226074e-02" rms="2.4254831671714783e-01" purity="6.6273033618927002e-02" nType="0">
                    <Node pos="l" depth="7" NCoef="0" IVar="-1" Cut="0.0000000000000000e+00" cType="1" res="-2.0289883017539978e-02" rms="2.2733928263187408e-01" purity="5.6474871933460236e-02" nType="-99"/>
                    <Node pos="r" depth="7" NCoef="0" IVar="-1" Cut="0.0000000000000000e+00" cType="1" res="-1.3270079158246517e-02" rms="2.5992450118064880e-01" purity="7.8803732991218567e-02" nType="-99"/>
                  </Node>
                  <Node pos="r" depth="6" NCoef="0" IVar="2" Cut="1.0575390625000000e+02" cType="1" res="-4.2216680943965912e-02" rms="3.1860849261283875e-01" purity="1.2728194892406464e-01" nType="0">
                    <Node pos="l" depth="7" NCoef="0" IVar="-1" Cut="0.0000000000000000e+00" cType="1" res="-4.4333976693451405e-03" rms="3.4370103478431702e-01" purity="1.5239861607551575e-01" nType="-99"/>
                    <Node pos="r" depth="7" NCoef="0" IVar="-1" Cut="0.0000000000000000e+00" cType="1" res="-1.0175744071602821e-02" rms="3.0775421857833862e-01" purity="1.1732283234596252e-01" nType="-99"/>
                  </Node>
                </Node>
                <Node pos="r" depth="5" NCoef="0" IVar="7" Cut="5.0000000000000000e+00" cType="1" res="-1.8597228452563286e-02" rms="3.7608283758163452e-01" purity="1.8479174375534058e-01" nType="0">
                  <Node pos="l" depth="6" NCoef="0" IVar="-1" Cut="0.0000000000000000e+00" cType="1" res="-2.2887722298037261e-04" rms="4.2186290025711060e-01" purity="2.4438023567199707e-01" nType="-99"/>
                  <Node pos="r" depth="6" NCoef="0" IVar="3" Cut="2.3167189955711365e-01" cType="1" res="-2.9264280572533607e-02" rms="3.5155323147773743e-01" purity="1.5033476054668427e-01" nType="0">
                    <Node pos="l" depth="7" NCoef="0" IVar="-1" Cut="0.0000000000000000e+00" cType="1" res="-1.0174144990742207e-02" rms="3.1866404414176941e-01" purity="1.1973839253187180e-01" nType="-99"/>
                    <Node pos="r" depth="7" NCoef="0" IVar="-1" Cut="0.0000000000000000e+00" cType="1" res="-2.1247174590826035e-03" rms="3.7604403495788574e-01" purity="1.7596626281738281e-01" nType="-99"/>
                  </Node>
                </Node>
              </Node>
              <Node pos="r" depth="4" NCoef="0" IVar="-1" Cut="0.0000000000000000e+00" cType="1" res="-2.8413636027835310e-04" rms="4.8878121376037598e-01" purity="4.2103701829910278e-01" nType="-99"/>
            </Node>
            <Node pos="r" depth="3" NCoef="0" IVar="3" Cut="5.1938420534133911e-01" cType="1" res="-5.6386936455965042e-02" rms="2.4210141599178314e-01" purity="6.9168932735919952e-02" nType="0">
              <Node pos="l" depth="4" NCoef="0" IVar="6" Cut="2.3081171512603760e-01" cType="1" res="-5.3363990038633347e-02" rms="2.1631495654582977e-01" purity="5.2020717412233353e-02" nType="0">
                <Node pos="l" depth="5" NCoef="0" IVar="5" Cut="9.4706654548645020e-01" cType="1" res="-5.6169245392084122e-02" rms="1.9775126874446869e-01" purity="4.2853023856878281e-02" nType="0">
                  <Node pos="l" depth="6" NCoef="0" IVar="0" Cut="2.1142539978027344e+00" cType="1" res="-5.1165875047445297e-02" rms="2.4042227864265442e-01" purity="6.4129233360290527e-02" nType="0">
                    <Node pos="l" depth="7" NCoef="0" IVar="-1" Cut="0.0000000000000000e+00" cType="1" res="-1.1014277115464211e-02" rms="2.6928105950355530e-01" purity="8.1745341420173645e-02" nType="-99"/>
                    <Node pos="r" depth="7" NCoef="0" IVar="-1" Cut="0.0000000000000000e+00" cType="1" res="-2.0630545914173126e-02" rms="1.9022430479526520e-01" purity="3.8437694311141968e-02" nType="-99"/>
                  </Node>
                  <Node pos="r" depth="6" NCoef="0" IVar="3" Cut="3.0597263574600220e-01" cType="1" res="-6.2925502657890320e-02" rms="1.1738125979900360e-01" purity="1.4122877269983292e-02" nType="0">
                    <Node pos="l" depth="7" NCoef="0" IVar="-1" Cut="0.0000000000000000e+00" cType="1" res="-2.5792179629206657e-02" rms="1.2106894701719284e-01" purity="1.5011181123554707e-02" nType="-99"/>
                    <Node pos="r" depth="7" NCoef="0" IVar="-1" Cut="0.0000000000000000e+00" cType="1" res="-2.5133982300758362e-02" rms="1.1328873783349991e-01" purity="1.3227790594100952e-02" nType="-99"/>
                  </Node>
                </Node>
                <Node pos="r" depth="5" NCoef="0" IVar="-1" Cut="0.0000000000000000e+00" cType="1" res="-6.4176581799983978e-03" rms="3.3069977164268494e-01" purity="1.2735824286937714e-01" nType="-99"/>
              </Node>
              <Node pos="r" depth="4" NCoef="0" IVar="-1" Cut="0.0000000000000000e+00" cType="1" res="-1.0167386382818222e-02" rms="3.8669496774673462e-01" purity="2.0196081697940826e-01" nType="-99"/>
            </Node>
          </Node>
        </Node>
      </Node>
    </BinaryTree>
    <BinaryTree type="DecisionTree" boostWeight="1.0000000000000000e+00" itree="41">
      <Node pos="s" depth="0" NCoef="0" IVar="0" Cut="3.2243424654006958e-01" cType="1" res="1.1374982073903084e-02" rms="4.0445530414581299e-01" purity="4.9870067834854126e-01" nType="0">
        <Node pos="l" depth="1" NCoef="0" IVar="0" Cut="1.7681622505187988e-01" cType="1" res="4.7509465366601944e-02" rms="4.2255157232284546e-01" purity="7.2933191061019897e-01" nType="0">
          <Node pos="l" depth="2" NCoef="0" IVar="5" Cut="-9.2420095205307007e-01" cType="1" res="5.5549215525388718e-02" rms="4.1253912448883057e-01" purity="7.5756186246871948e-01" nType="0">
            <Node pos="l" depth="3" NCoef="0" IVar="3" Cut="9.5870268344879150e-01" cType="1" res="5.9535842388868332e-02" rms="4.0719226002693176e-01" purity="7.7218049764633179e-01" nType="0">
              <Node pos="l" depth="4" NCoef="0" IVar="1" Cut="1.6285091638565063e+00" cType="1" res="4.4313173741102219e-02" rms="4.4213294982910156e-01" purity="7.0624279975891113e-01" nType="0">
                <Node pos="l" depth="5" NCoef="0" IVar="5" Cut="-2.8001255989074707e+00" cType="1" res="4.8219420015811920e-02" rms="4.3820872902870178e-01" purity="7.1977078914642334e-01" nType="0">
                  <Node pos="l" depth="6" NCoef="0" IVar="1" Cut="9.6481233835220337e-02" cType="1" res="6.6650554537773132e-02" rms="4.1009387373924255e-01" purity="7.6608735322952271e-01" nType="0">
                    <Node pos="l" depth="7" NCoef="0" IVar="-1" Cut="0.0000000000000000e+00" cType="1" res="8.0216741189360619e-03" rms="3.8601669669151306e-01" purity="8.0698823928833008e-01" nType="-99"/>
                    <Node pos="r" depth="7" NCoef="0" IVar="-1" Cut="0.0000000000000000e+00" cType="1" res="4.8400643281638622e-03" rms="4.3748039007186890e-01" purity="7.1567422151565552e-01" nType="-99"/>
                  </Node>
                  <Node pos="r" depth="6" NCoef="0" IVar="5" Cut="-2.4974935054779053e+00" cType="1" res="4.1691686958074570e-02" rms="4.4756102561950684e-01" purity="7.0336693525314331e-01" nType="0">
                    <Node pos="l" depth="7" NCoef="0" IVar="-1" Cut="0.0000000000000000e+00" cType="1" res="5.8004027232527733e-03" rms="4.2575630545616150e-01" purity="7.4764406681060791e-01" nType="-99"/>
                    <Node pos="r" depth="7" NCoef="0" IVar="-1" Cut="0.0000000000000000e+00" cType="1" res="2.9489963781088591e-03" rms="4.5597416162490845e-01" purity="6.8509215116500854e-01" nType="-99"/>
                  </Node>
                </Node>
                <Node pos="r" depth="5" NCoef="0" IVar="-1" Cut="0.0000000000000000e+00" cType="1" res="-9.3229435151442885e-04" rms="4.9086469411849976e-01" purity="5.1547592878341675e-01" nType="-99"/>
              </Node>
              <Node pos="r" depth="4" NCoef="0" IVar="1" Cut="6.2084132432937622e-01" cType="1" res="6.9623365998268127e-02" rms="3.8194891810417175e-01" purity="8.1587505340576172e-01" nType="0">
                <Node pos="l" depth="5" NCoef="0" IVar="5" Cut="-2.8318064212799072e+00" cType="1" res="7.4346162378787994e-02" rms="3.6544480919837952e-01" purity="8.3883637189865112e-01" nType="0">
                  <Node pos="l" depth="6" NCoef="0" IVar="4" Cut="-1.5723167657852173e+00" cType="1" res="8.3603121340274811e-02" rms="3.3925175666809082e-01" purity="8.6636322736740112e-01" nType="0">
                    <Node pos="l" depth="7" NCoef="0" IVar="-1" Cut="0.0000000000000000e+00" cType="1" res="5.6802919134497643e-03" rms="3.8380980491638184e-01" purity="8.1904166936874390e-01" nType="-99"/>
                    <Node pos="r" depth="7" NCoef="0" IVar="-1" Cut="0.0000000000000000e+00" cType="1" res="9.9552776664495468e-03" rms="3.3063566684722900e-01" purity="8.7471061944961548e-01" nType="-99"/>
                  </Node>
                  <Node pos="r" depth="6" NCoef="0" IVar="5" Cut="-1.6011079549789429e+00" cType="1" res="6.6750161349773407e-02" rms="3.8544538617134094e-01" purity="8.1624871492385864e-01" nType="0">
                    <Node pos="l" depth="7" NCoef="0" IVar="-1" Cut="0.0000000000000000e+00" cType="1" res="7.0946924388408661e-03" rms="3.7752607464790344e-01" purity="8.2675826549530029e-01" nType="-99"/>
                    <Node pos="r" depth="7" NCoef="0" IVar="-1" Cut="0.0000000000000000e+00" cType="1" res="4.7962218523025513e-03" rms="4.3195495009422302e-01" purity="7.4969142675399780e-01" nType="-99"/>
                  </Node>
                </Node>
                <Node pos="r" depth="5" NCoef="0" IVar="4" Cut="-3.4531569480895996e-01" cType="1" res="5.1134459674358368e-02" rms="4.4016519188880920e-01" purity="7.2598558664321899e-01" nType="0">
                  <Node pos="l" depth="6" NCoef="0" IVar="5" Cut="-2.8003835678100586e+00" cType="1" res="3.8538720458745956e-02" rms="4.5015439391136169e-01" purity="7.0509219169616699e-01" nType="0">
                    <Node pos="l" depth="7" NCoef="0" IVar="-1" Cut="0.0000000000000000e+00" cType="1" res="4.5632929541170597e-03" rms="4.3219658732414246e-01" purity="7.4629074335098267e-01" nType="-99"/>
                    <Node pos="r" depth="7" NCoef="0" IVar="-1" Cut="0.0000000000000000e+00" cType="1" res="1.8281576922163367e-03" rms="4.6598830819129944e-01" purity="6.6605556011199951e-01" nType="-99"/>
                  </Node>
                  <Node pos="r" depth="6" NCoef="0" IVar="-1" Cut="0.0000000000000000e+00" cType="1" res="6.2913028523325920e-03" rms="4.2665666341781616e-01" purity="7.5242578983306885e-01" nType="-99"/>
                </Node>
              </Node>
            </Node>
            <Node pos="r" depth="3" NCoef="0" IVar="1" Cut="1.0294117778539658e-01" cType="1" res="-4.4605452567338943e-03" rms="4.8200052976608276e-01" purity="5.3751033544540405e-01" nType="0">
              <Node pos="l" depth="4" NCoef="0" IVar="-1" Cut="0.0000000000000000e+00" cType="1" res="2.3974252399057150e-03" rms="4.7816377878189087e-01" purity="6.1156976222991943e-01" nType="-99"/>
              <Node pos="r" depth="4" NCoef="0" IVar="-1" Cut="0.0000000000000000e+00" cType="1" res="-3.2684234902262688e-03" rms="4.8371860384941101e-01" purity="4.6435695886611938e-01" nType="-99"/>
            </Node>
          </Node>
          <Node pos="r" depth="2" NCoef="0" IVar="1" Cut="-2.5536119937896729e-01" cType="1" res="5.2609932608902454e-03" rms="4.6942871809005737e-01" purity="5.8098506927490234e-01" nType="0">
            <Node pos="l" depth="3" NCoef="0" IVar="-1" Cut="0.0000000000000000e+00" cType="1" res="4.6254349872469902e-03" rms="4.5617631077766418e-01" purity="6.7194545269012451e-01" nType="-99"/>
            <Node pos="r" depth="3" NCoef="0" IVar="5" Cut="-1.7879440784454346e+00" cType="1" res="-5.7615106925368309e-03" rms="4.7220152616500854e-01" purity="5.5726784467697144e-01" nType="0">
              <Node pos="l" depth="4" NCoef="0" IVar="1" Cut="6.6373452544212341e-02" cType="1" res="1.1061355471611023e-02" rms="4.6984058618545532e-01" purity="6.1095702648162842e-01" nType="0">
                <Node pos="l" depth="5" NCoef="0" IVar="-1" Cut="0.0000000000000000e+00" cType="1" res="4.6098120510578156e-03" rms="4.4779103994369507e-01" purity="7.0484983921051025e-01" nType="-99"/>
                <Node pos="r" depth="5" NCoef="0" IVar="6" Cut="5.0492182374000549e-02" cType="1" res="-3.8606156595051289e-03" rms="4.7823894023895264e-01" purity="5.7057231664657593e-01" nType="0">
                  <Node pos="l" depth="6" NCoef="0" IVar="-1" Cut="0.0000000000000000e+00" cType="1" res="-1.8767213914543390e-03" rms="4.7555121779441833e-01" purity="5.8074456453323364e-01" nType="-99"/>
                  <Node pos="r" depth="6" NCoef="0" IVar="-1" Cut="0.0000000000000000e+00" cType="1" res="1.6706307651475072e-03" rms="4.8123902082443237e-01" purity="5.5603414773941040e-01" nType="-99"/>
                </Node>
              </Node>
              <Node pos="r" depth="4" NCoef="0" IVar="1" Cut="3.8755664229393005e-01" cType="1" res="-3.6571931093931198e-02" rms="4.7495263814926147e-01" purity="4.5893821120262146e-01" nType="0">
                <Node pos="l" depth="5" NCoef="0" IVar="-1" Cut="0.0000000000000000e+00" cType="1" res="-1.3461281778290868e-03" rms="4.8015537858009338e-01" purity="5.2578288316726685e-01" nType="-99"/>
                <Node pos="r" depth="5" NCoef="0" IVar="-1" Cut="0.0000000000000000e+00" cType="1" res="-6.3164890743792057e-03" rms="4.6729946136474609e-01" purity="3.7973198294639587e-01" nType="-99"/>
              </Node>
            </Node>
          </Node>
        </Node>
        <Node pos="r" depth="1" NCoef="0" IVar="0" Cut="1.2585437297821045e+00" cType="1" res="-2.9260462149977684e-02" rms="3.7899157404899597e-01" purity="2.3934169113636017e-01" nType="0">
          <Node pos="l" depth="2" NCoef="0" IVar="4" Cut="1.6967039108276367e+00" cType="1" res="-1.4515860006213188e-02" rms="4.3806108832359314e-01" purity="3.4749075770378113e-01" nType="0">
            <Node pos="l" depth="3" NCoef="0" IVar="0" Cut="4.7341778874397278e-01" cType="1" res="-8.5236020386219025e-03" rms="4.5206099748611450e-01" purity="3.7485837936401367e-01" nType="0">
              <Node pos="l" depth="4" NCoef="0" IVar="1" Cut="8.8080430030822754e-01" cType="1" res="1.8149996176362038e-02" rms="4.8028019070625305e-01" purity="5.0814837217330933e-01" nType="0">
                <Node pos="l" depth="5" NCoef="0" IVar="5" Cut="-1.5167870521545410e+00" cType="1" res="2.7840035036206245e-02" rms="4.8254188895225525e-01" purity="5.4315793514251709e-01" nType="0">
                  <Node pos="l" depth="6" NCoef="0" IVar="3" Cut="7.2387790679931641e-01" cType="1" res="3.8049478083848953e-02" rms="4.8083910346031189e-01" purity="5.7428467273712158e-01" nType="0">
                    <Node pos="l" depth="7" NCoef="0" IVar="-1" Cut="0.0000000000000000e+00" cType="1" res="2.1037301048636436e-03" rms="4.9094566702842712e-01" purity="5.0381749868392944e-01" nType="-99"/>
                    <Node pos="r" depth="7" NCoef="0" IVar="-1" Cut="0.0000000000000000e+00" cType="1" res="4.5835385099053383e-03" rms="4.6639847755432129e-01" purity="6.6822183132171631e-01" nType="-99"/>
                  </Node>
                  <Node pos="r" depth="6" NCoef="0" IVar="-1" Cut="0.0000000000000000e+00" cType="1" res="-3.1860754825174809e-04" rms="4.8639282584190369e-01" purity="4.4768545031547546e-01" nType="-99"/>
                </Node>
                <Node pos="r" depth="5" NCoef="0" IVar="-1" Cut="0.0000000000000000e+00" cType="1" res="-1.6401187749579549e-03" rms="4.7016799449920654e-01" purity="3.7954586744308472e-01" nType="-99"/>
              </Node>
              <Node pos="r" depth="4" NCoef="0" IVar="5" Cut="-3.1590781211853027e+00" cType="1" res="-1.9497519358992577e-02" rms="4.3945613503456116e-01" purity="3.2002088427543640e-01" nType="0">
                <Node pos="l" depth="5" NCoef="0" IVar="-1" Cut="0.0000000000000000e+00" cType="1" res="-9.0809315443038940e-03" rms="3.9376887679100037e-01" purity="2.3964264988899231e-01" nType="-99"/>
                <Node pos="r" depth="5" NCoef="0" IVar="5" Cut="-1.8963865041732788e+00" cType="1" res="-1.3629931025207043e-02" rms="4.4384226202964783e-01" purity="3.2892978191375732e-01" nType="0">
                  <Node pos="l" depth="6" NCoef="0" IVar="3" Cut="5.4871964454650879e-01" cType="1" res="-1.0549301514402032e-03" rms="4.5585691928863525e-01" purity="3.6340919137001038e-01" nType="0">
                    <Node pos="l" depth="7" NCoef="0" IVar="-1" Cut="0.0000000000000000e+00" cType="1" res="-2.2032060660421848e-03" rms="4.1780877113342285e-01" purity="2.4218945205211639e-01" nType="-99"/>
                    <Node pos="r" depth="7" NCoef="0" IVar="-1" Cut="0.0000000000000000e+00" cType="1" res="1.0559738148003817e-03" rms="4.8371234536170959e-01" purity="4.6011871099472046e-01" nType="-99"/>
                  </Node>
                  <Node pos="r" depth="6" NCoef="0" IVar="2" Cut="2.3483744812011719e+02" cType="1" res="-3.0961390584707260e-02" rms="4.2612132430076599e-01" purity="2.8140866756439209e-01" nType="0">
                    <Node pos="l" depth="7" NCoef="0" IVar="-1" Cut="0.0000000000000000e+00" cType="1" res="-1.9257449312135577e-03" rms="4.4042837619781494e-01" purity="3.1827551126480103e-01" nType="-99"/>
                    <Node pos="r" depth="7" NCoef="0" IVar="-1" Cut="0.0000000000000000e+00" cType="1" res="-6.7664426751434803e-03" rms="4.0184819698333740e-01" purity="2.2389489412307739e-01" nType="-99"/>
                  </Node>
                </Node>
              </Node>
            </Node>
            <Node pos="r" depth="3" NCoef="0" IVar="5" Cut="1.2149667739868164e+00" cType="1" res="-7.4864648282527924e-02" rms="2.4978248775005341e-01" purity="7.1867592632770538e-02" nType="0">
              <Node pos="l" depth="4" NCoef="0" IVar="-1" Cut="0.0000000000000000e+00" cType="1" res="-1.0950103402137756e-02" rms="2.9905429482460022e-01" purity="1.0881095379590988e-01" nType="-99"/>
              <Node pos="r" depth="4" NCoef="0" IVar="-1" Cut="0.0000000000000000e+00" cType="1" res="-2.4144480004906654e-02" rms="1.7391721904277802e-01" purity="2.9209746047854424e-02" nType="-99"/>
            </Node>
          </Node>
          <Node pos="r" depth="2" NCoef="0" IVar="6" Cut="2.6844096183776855e-01" cType="1" res="-4.7783654183149338e-02" rms="2.8703168034553528e-01" purity="1.0347735136747360e-01" nType="0">
            <Node pos="l" depth="3" NCoef="0" IVar="5" Cut="-1.8129684925079346e+00" cType="1" res="-4.9819231033325195e-02" rms="2.7998432517051697e-01" purity="9.8662577569484711e-02" nType="0">
              <Node pos="l" depth="4" NCoef="0" IVar="2" Cut="4.7941917419433594e+01" cType="1" res="-4.1716966778039932e-02" rms="3.2188850641250610e-01" purity="1.3483557105064392e-01" nType="0">
                <Node pos="l" depth="5" NCoef="0" IVar="-1" Cut="0.0000000000000000e+00" cType="1" res="-1.9430601969361305e-03" rms="4.1449287533760071e-01" purity="2.8166681528091431e-01" nType="-99"/>
                <Node pos="r" depth="5" NCoef="0" IVar="0" Cut="3.5132787227630615e+00" cType="1" res="-4.5603454113006592e-02" rms="3.0582267045974731e-01" purity="1.1337628215551376e-01" nType="0">
                  <Node pos="l" depth="6" NCoef="0" IVar="6" Cut="1.3446162641048431e-01" cType="1" res="-4.1299983859062195e-02" rms="3.1603685021400452e-01" purity="1.2240098416805267e-01" nType="0">
                    <Node pos="l" depth="7" NCoef="0" IVar="-1" Cut="0.0000000000000000e+00" cType="1" res="-1.0910384356975555e-02" rms="2.9207682609558105e-01" purity="1.0372316837310791e-01" nType="-99"/>
                    <Node pos="r" depth="7" NCoef="0" IVar="-1" Cut="0.0000000000000000e+00" cType="1" res="-4.1446983814239502e-03" rms="3.6763033270835876e-01" purity="1.6821120679378510e-01" nType="-99"/>
                  </Node>
                  <Node pos="r" depth="6" NCoef="0" IVar="-1" Cut="0.0000000000000000e+00" cType="1" res="-1.7204526811838150e-02" rms="2.5139817595481873e-01" purity="7.0991992950439453e-02" nType="-99"/>
                </Node>
              </Node>
              <Node pos="r" depth="4" NCoef="0" IVar="0" Cut="1.5401870012283325e+00" cType="1" res="-5.7379908859729767e-02" rms="2.3396089673042297e-01" purity="6.4907543361186981e-02" nType="0">
                <Node pos="l" depth="5" NCoef="0" IVar="-1" Cut="0.0000000000000000e+00" cType="1" res="-9.5096854493021965e-03" rms="2.9215228557586670e-01" purity="1.0778605192899704e-01" nType="-99"/>
                <Node pos="r" depth="5" NCoef="0" IVar="3" Cut="4.0302377939224243e-01" cType="1" res="-6.0304235666990280e-02" rms="2.1858666837215424e-01" purity="5.5228073149919510e-02" nType="0">
                  <Node pos="l" depth="6" NCoef="0" IVar="7" Cut="5.0000000000000000e+00" cType="1" res="-5.6927736848592758e-02" rms="1.8187004327774048e-01" purity="3.7727959454059601e-02" nType="0">
                    <Node pos="l" depth="7" NCoef="0" IVar="-1" Cut="0.0000000000000000e+00" cType="1" res="-1.5179944224655628e-02" rms="2.2474798560142517e-01" purity="5.6721679866313934e-02" nType="-99"/>
                    <Node pos="r" depth="7" NCoef="0" IVar="-1" Cut="0.0000000000000000e+00" cType="1" res="-2.1485015749931335e-02" rms="1.6951832175254822e-01" purity="3.0529294162988663e-02" nType="-99"/>
                  </Node>
                  <Node pos="r" depth="6" NCoef="0" IVar="-1" Cut="0.0000000000000000e+00" cType="1" res="-1.2213249690830708e-02" rms="3.4772089123725891e-01" purity="1.5394207835197449e-01" nType="-99"/>
                </Node>
              </Node>
            </Node>
            <Node pos="r" depth="3" NCoef="0" IVar="-1" Cut="0.0000000000000000e+00" cType="1" res="-1.7047860892489552e-03" rms="3.9338162541389465e-01" purity="1.9246454536914825e-01" nType="-99"/>
          </Node>
        </Node>
      </Node>
    </BinaryTree>
    <BinaryTree type="DecisionTree" boostWeight="1.0000000000000000e+00" itree="42">
      <Node pos="s" depth="0" NCoef="0" IVar="0" Cut="3.2253021001815796e-01" cType="1" res="1.2477940879762173e-02" rms="4.0430945158004761e-01" purity="4.9973493814468384e-01" nType="0">
        <Node pos="l" depth="1" NCoef="0" IVar="4" Cut="7.4003976583480835e-01" cType="1" res="4.6353645622730255e-02" rms="4.2205551266670227e-01" purity="7.3021203279495239e-01" nType="0">
          <Node pos="l" depth="2" NCoef="0" IVar="3" Cut="8.3772104978561401e-01" cType="1" res="4.9859602004289627e-02" rms="4.1986775398254395e-01" purity="7.4106556177139282e-01" nType="0">
            <Node pos="l" depth="3" NCoef="0" IVar="3" Cut="5.9926676750183105e-01" cType="1" res="2.4349151179194450e-02" rms="4.7196340560913086e-01" purity="6.0809570550918579e-01" nType="0">
              <Node pos="l" depth="4" NCoef="0" IVar="-1" Cut="0.0000000000000000e+00" cType="1" res="-3.1412243843078613e-03" rms="4.6373930573463440e-01" purity="3.7043014168739319e-01" nType="-99"/>
              <Node pos="r" depth="4" NCoef="0" IVar="6" Cut="3.6564644426107407e-02" cType="1" res="2.9242767021059990e-02" rms="4.7234347462654114e-01" purity="6.2852424383163452e-01" nType="0">
                <Node pos="l" depth="5" NCoef="0" IVar="2" Cut="4.8450206756591797e+01" cType="1" res="2.7317660860717297e-03" rms="4.7746506333351135e-01" purity="6.0530090332031250e-01" nType="0">
                  <Node pos="l" depth="6" NCoef="0" IVar="-1" Cut="0.0000000000000000e+00" cType="1" res="2.3719263263046741e-03" rms="4.6986952424049377e-01" purity="6.3153010606765747e-01" nType="-99"/>
                  <Node pos="r" depth="6" NCoef="0" IVar="-1" Cut="0.0000000000000000e+00" cType="1" res="-2.6132292114198208e-03" rms="4.8498022556304932e-01" purity="5.7285773754119873e-01" nType="-99"/>
                </Node>
                <Node pos="r" depth="5" NCoef="0" IVar="0" Cut="2.4966512620449066e-01" cType="1" res="4.0174137800931931e-02" rms="4.6977999806404114e-01" purity="6.3810002803802490e-01" nType="0">
                  <Node pos="l" depth="6" NCoef="0" IVar="1" Cut="2.4198564887046814e-01" cType="1" res="4.8148024827241898e-02" rms="4.6512955427169800e-01" purity="6.5813058614730835e-01" nType="0">
                    <Node pos="l" depth="7" NCoef="0" IVar="-1" Cut="0.0000000000000000e+00" cType="1" res="5.1862634718418121e-03" rms="4.4956693053245544e-01" purity="7.0838201045989990e-01" nType="-99"/>
                    <Node pos="r" depth="7" NCoef="0" IVar="-1" Cut="0.0000000000000000e+00" cType="1" res="2.5018418673425913e-03" rms="4.8619985580444336e-01" purity="5.8547955751419067e-01" nType="-99"/>
                  </Node>
                  <Node pos="r" depth="6" NCoef="0" IVar="6" Cut="6.6297076642513275e-02" cType="1" res="1.9405663013458252e-02" rms="4.8106157779693604e-01" purity="5.8592915534973145e-01" nType="0">
                    <Node pos="l" depth="7" NCoef="0" IVar="-1" Cut="0.0000000000000000e+00" cType="1" res="-3.0853820499032736e-04" rms="4.8366042971611023e-01" purity="5.6142944097518921e-01" nType="-99"/>
                    <Node pos="r" depth="7" NCoef="0" IVar="-1" Cut="0.0000000000000000e+00" cType="1" res="3.8239434361457825e-03" rms="4.7743323445320129e-01" purity="6.1005800962448120e-01" nType="-99"/>
                  </Node>
                </Node>
              </Node>
            </Node>
            <Node pos="r" depth="3" NCoef="0" IVar="1" Cut="1.8185304403305054e+00" cType="1" res="5.8697782456874847e-02" rms="3.9986115694046021e-01" purity="7.8713339567184448e-01" nType="0">
              <Node pos="l" depth="4" NCoef="0" IVar="4" Cut="-8.6930966377258301e-01" cType="1" res="6.1617892235517502e-02" rms="3.9522197842597961e-01" purity="7.9622942209243774e-01" nType="0">
                <Node pos="l" depth="5" NCoef="0" IVar="1" Cut="2.2924405336380005e-01" cType="1" res="5.1039222627878189e-02" rms="4.1422882676124573e-01" purity="7.7098995447158813e-01" nType="0">
                  <Node pos="l" depth="6" NCoef="0" IVar="5" Cut="-1.8512619733810425e+00" cType="1" res="6.0125101357698441e-02" rms="3.9445650577545166e-01" purity="8.0337923765182495e-01" nType="0">
                    <Node pos="l" depth="7" NCoef="0" IVar="-1" Cut="0.0000000000000000e+00" cType="1" res="6.5896818414330482e-03" rms="3.8352912664413452e-01" purity="8.1950801610946655e-01" nType="-99"/>
                    <Node pos="r" depth="7" NCoef="0" IVar="-1" Cut="0.0000000000000000e+00" cType="1" res="3.5540619865059853e-03" rms="4.4535687565803528e-01" purity="7.2121602296829224e-01" nType="-99"/>
                  </Node>
                  <Node pos="r" depth="6" NCoef="0" IVar="6" Cut="1.7766309902071953e-02" cType="1" res="3.3372022211551666e-02" rms="4.4967117905616760e-01" purity="7.0800995826721191e-01" nType="0">
                    <Node pos="l" depth="7" NCoef="0" IVar="-1" Cut="0.0000000000000000e+00" cType="1" res="2.1059543360024691e-03" rms="4.4865211844444275e-01" purity="7.0884859561920166e-01" nType="-99"/>
                    <Node pos="r" depth="7" NCoef="0" IVar="-1" Cut="0.0000000000000000e+00" cType="1" res="4.4908272102475166e-03" rms="4.5086562633514404e-01" purity="7.0671004056930542e-01" nType="-99"/>
                  </Node>
                </Node>
                <Node pos="r" depth="5" NCoef="0" IVar="5" Cut="-1.5490832328796387e+00" cType="1" res="7.0150777697563171e-02" rms="3.7898221611976624e-01" purity="8.1658798456192017e-01" nType="0">
                  <Node pos="l" depth="6" NCoef="0" IVar="5" Cut="-3.1631326675415039e+00" cType="1" res="7.4626564979553223e-02" rms="3.6502572894096375e-01" purity="8.3787274360656738e-01" nType="0">
                    <Node pos="l" depth="7" NCoef="0" IVar="-1" Cut="0.0000000000000000e+00" cType="1" res="1.0290287435054779e-02" rms="3.2929340004920959e-01" purity="8.7484669685363770e-01" nType="-99"/>
                    <Node pos="r" depth="7" NCoef="0" IVar="-1" Cut="0.0000000000000000e+00" cType="1" res="7.6327440328896046e-03" rms="3.7256082892417908e-01" purity="8.2949703931808472e-01" nType="-99"/>
                  </Node>
                  <Node pos="r" depth="6" NCoef="0" IVar="3" Cut="9.9141907691955566e-01" cType="1" res="3.9847694337368011e-02" rms="4.6138492226600647e-01" purity="6.7248106002807617e-01" nType="0">
                    <Node pos="l" depth="7" NCoef="0" IVar="-1" Cut="0.0000000000000000e+00" cType="1" res="2.1458675619214773e-03" rms="4.7282937169075012e-01" purity="6.3477671146392822e-01" nType="-99"/>
                    <Node pos="r" depth="7" NCoef="0" IVar="-1" Cut="0.0000000000000000e+00" cType="1" res="4.7320737503468990e-03" rms="4.5193940401077271e-01" purity="7.0164781808853149e-01" nType="-99"/>
                  </Node>
                </Node>
              </Node>
              <Node pos="r" depth="4" NCoef="0" IVar="-1" Cut="0.0000000000000000e+00" cType="1" res="4.6717617078684270e-04" rms="4.7352555394172668e-01" purity="6.2108331918716431e-01" nType="-99"/>
            </Node>
          </Node>
          <Node pos="r" depth="2" NCoef="0" IVar="-1" Cut="0.0000000000000000e+00" cType="1" res="-4.2678518220782280e-03" rms="4.6609601378440857e-01" purity="4.4935584068298340e-01" nType="-99"/>
        </Node>
        <Node pos="r" depth="1" NCoef="0" IVar="0" Cut="9.4678747653961182e-01" cType="1" res="-2.5482891127467155e-02" rms="3.7987628579139709e-01" purity="2.4146419763565063e-01" nType="0">
          <Node pos="l" depth="2" NCoef="0" IVar="4" Cut="1.8010938167572021e+00" cType="1" res="-6.8380609154701233e-03" rms="4.5507815480232239e-01" purity="3.9167401194572449e-01" nType="0">
            <Node pos="l" depth="3" NCoef="0" IVar="0" Cut="4.0307739377021790e-01" cType="1" res="-1.3337342534214258e-03" rms="4.6543195843696594e-01" purity="4.1427403688430786e-01" nType="0">
              <Node pos="l" depth="4" NCoef="0" IVar="3" Cut="7.4666732549667358e-01" cType="1" res="3.3669248223304749e-02" rms="4.8188188672065735e-01" purity="5.3680294752120972e-01" nType="0">
                <Node pos="l" depth="5" NCoef="0" IVar="6" Cut="6.3852012157440186e-02" cType="1" res="2.3746250197291374e-02" rms="4.8637798428535461e-01" purity="4.8619538545608521e-01" nType="0">
                  <Node pos="l" depth="6" NCoef="0" IVar="-1" Cut="0.0000000000000000e+00" cType="1" res="-3.5244855098426342e-05" rms="4.8469361662864685e-01" purity="4.5857158303260803e-01" nType="-99"/>
                  <Node pos="r" depth="6" NCoef="0" IVar="-1" Cut="0.0000000000000000e+00" cType="1" res="3.5482835955917835e-03" rms="4.8683997988700867e-01" purity="5.0535196065902710e-01" nType="-99"/>
                </Node>
                <Node pos="r" depth="5" NCoef="0" IVar="-1" Cut="0.0000000000000000e+00" cType="1" res="4.2081787250936031e-03" rms="4.7299146652221680e-01" purity="6.2954688072204590e-01" nType="-99"/>
              </Node>
              <Node pos="r" depth="4" NCoef="0" IVar="5" Cut="-3.1590781211853027e+00" cType="1" res="-1.1265586130321026e-02" rms="4.6017280220985413e-01" purity="3.7950730323791504e-01" nType="0">
                <Node pos="l" depth="5" NCoef="0" IVar="-1" Cut="0.0000000000000000e+00" cType="1" res="-6.4196046441793442e-03" rms="4.3039590120315552e-01" purity="3.1524139642715454e-01" nType="-99"/>
                <Node pos="r" depth="5" NCoef="0" IVar="5" Cut="-1.8963075876235962e+00" cType="1" res="-6.2727550975978374e-03" rms="4.6289873123168945e-01" purity="3.8624212145805359e-01" nType="0">
                  <Node pos="l" depth="6" NCoef="0" IVar="2" Cut="1.8023114013671875e+02" cType="1" res="8.6417272686958313e-03" rms="4.7238114476203918e-01" purity="4.2566105723381042e-01" nType="0">
                    <Node pos="l" depth="7" NCoef="0" IVar="-1" Cut="0.0000000000000000e+00" cType="1" res="2.0452430471777916e-03" rms="4.7607493400573730e-01" purity="4.6696257591247559e-01" nType="-99"/>
                    <Node pos="r" depth="7" NCoef="0" IVar="-1" Cut="0.0000000000000000e+00" cType="1" res="-1.0327124036848545e-03" rms="4.6653401851654053e-01" purity="3.6793562769889832e-01" nType="-99"/>
                  </Node>
                  <Node pos="r" depth="6" NCoef="0" IVar="1" Cut="-9.7420014441013336e-02" cType="1" res="-2.7073223143815994e-02" rms="4.4851261377334595e-01" purity="3.3126664161682129e-01" nType="0">
                    <Node pos="l" depth="7" NCoef="0" IVar="-1" Cut="0.0000000000000000e+00" cType="1" res="1.0891420533880591e-03" rms="4.7664624452590942e-01" purity="4.1689580678939819e-01" nType="-99"/>
                    <Node pos="r" depth="7" NCoef="0" IVar="-1" Cut="0.0000000000000000e+00" cType="1" res="-4.2520374990999699e-03" rms="4.3898171186447144e-01" purity="3.0532932281494141e-01" nType="-99"/>
                  </Node>
                </Node>
              </Node>
            </Node>
            <Node pos="r" depth="3" NCoef="0" IVar="-1" Cut="0.0000000000000000e+00" cType="1" res="-1.6128534451127052e-02" rms="2.6490345597267151e-01" purity="8.1513360142707825e-02" nType="-99"/>
          </Node>
          <Node pos="r" depth="2" NCoef="0" IVar="5" Cut="-1.2460906505584717e+00" cType="1" res="-3.9886135607957840e-02" rms="3.0874624848365784e-01" purity="1.2542618811130524e-01" nType="0">
            <Node pos="l" depth="3" NCoef="0" IVar="0" Cut="1.8225364685058594e+00" cType="1" res="-3.2504778355360031e-02" rms="3.4602957963943481e-01" purity="1.6330631077289581e-01" nType="0">
              <Node pos="l" depth="4" NCoef="0" IVar="2" Cut="1.9418354797363281e+02" cType="1" res="-1.9903931766748428e-02" rms="3.8486051559448242e-01" purity="2.0935422182083130e-01" nType="0">
                <Node pos="l" depth="5" NCoef="0" IVar="1" Cut="4.2022693157196045e-01" cType="1" res="-5.8163939975202084e-03" rms="3.9889958500862122e-01" purity="2.4183809757232666e-01" nType="0">
                  <Node pos="l" depth="6" NCoef="0" IVar="-1" Cut="0.0000000000000000e+00" cType="1" res="2.7965046465396881e-03" rms="4.2863652110099792e-01" purity="3.0189502239227295e-01" nType="-99"/>
                  <Node pos="r" depth="6" NCoef="0" IVar="3" Cut="4.6549201011657715e-01" cType="1" res="-2.1790860220789909e-02" rms="3.8004454970359802e-01" purity="2.0771311223506927e-01" nType="0">
                    <Node pos="l" depth="7" NCoef="0" IVar="-1" Cut="0.0000000000000000e+00" cType="1" res="-8.0273784697055817e-03" rms="3.0508768558502197e-01" purity="1.0848376154899597e-01" nType="-99"/>
                    <Node pos="r" depth="7" NCoef="0" IVar="-1" Cut="0.0000000000000000e+00" cType="1" res="-7.1559648495167494e-04" rms="4.5024496316909790e-01" purity="3.2119253277778625e-01" nType="-99"/>
                  </Node>
                </Node>
                <Node pos="r" depth="5" NCoef="0" IVar="6" Cut="1.5097287297248840e-01" cType="1" res="-3.5918634384870529e-02" rms="3.6759629845619202e-01" purity="1.7242659628391266e-01" nType="0">
                  <Node pos="l" depth="6" NCoef="0" IVar="4" Cut="-9.4071120023727417e-01" cType="1" res="-4.3570332229137421e-02" rms="3.4655213356018066e-01" purity="1.4973440766334534e-01" nType="0">
                    <Node pos="l" depth="7" NCoef="0" IVar="-1" Cut="0.0000000000000000e+00" cType="1" res="-1.0872178710997105e-02" rms="3.4002617001533508e-01" purity="1.4151115715503693e-01" nType="-99"/>
                    <Node pos="r" depth="7" NCoef="0" IVar="-1" Cut="0.0000000000000000e+00" cType="1" res="-5.3991782478988171e-03" rms="3.5013425350189209e-01" purity="1.5509003400802612e-01" nType="-99"/>
                  </Node>
                  <Node pos="r" depth="6" NCoef="0" IVar="-1" Cut="0.0000000000000000e+00" cType="1" res="-2.7944105677306652e-03" rms="4.0835288166999817e-01" purity="2.2076764702796936e-01" nType="-99"/>
                </Node>
              </Node>
              <Node pos="r" depth="4" NCoef="0" IVar="7" Cut="3.0000000000000000e+00" cType="1" res="-4.5581489801406860e-02" rms="2.9474812746047974e-01" purity="1.1379965394735336e-01" nType="0">
                <Node pos="l" depth="5" NCoef="0" IVar="-1" Cut="0.0000000000000000e+00" cType="1" res="-1.9635052885860205e-03" rms="4.3449079990386963e-01" purity="2.9112654924392700e-01" nType="-99"/>
                <Node pos="r" depth="5" NCoef="0" IVar="6" Cut="1.7963944375514984e-01" cType="1" res="-5.1430262625217438e-02" rms="2.6609218120574951e-01" purity="8.2077234983444214e-02" nType="0">
                  <Node pos="l" depth="6" NCoef="0" IVar="4" Cut="-7.4340057373046875e-01" cType="1" res="-5.6614730507135391e-02" rms="2.3200917243957520e-01" purity="6.0562517493963242e-02" nType="0">
                    <Node pos="l" depth="7" NCoef="0" IVar="-1" Cut="0.0000000000000000e+00" cType="1" res="-1.9596168771386147e-02" rms="2.1731178462505341e-01" purity="5.3551219403743744e-02" nType="-99"/>
                    <Node pos="r" depth="7" NCoef="0" IVar="-1" Cut="0.0000000000000000e+00" cType="1" res="-1.4714741148054600e-02" rms="2.3949645459651947e-01" purity="6.4405612647533417e-02" nType="-99"/>
                  </Node>
                  <Node pos="r" depth="6" NCoef="0" IVar="-1" Cut="0.0000000000000000e+00" cType="1" res="-5.7715144939720631e-03" rms="3.6349710822105408e-01" purity="1.6036963462829590e-01" nType="-99"/>
                </Node>
              </Node>
            </Node>
            <Node pos="r" depth="3" NCoef="0" IVar="3" Cut="5.2390009164810181e-01" cType="1" res="-5.1163323223590851e-02" rms="2.4045170843601227e-01" purity="6.7553199827671051e-02" nType="0">
              <Node pos="l" depth="4" NCoef="0" IVar="1" Cut="1.7201304435729980e+00" cType="1" res="-4.8072412610054016e-02" rms="2.1516102552413940e-01" purity="5.1370780915021896e-02" nType="0">
                <Node pos="l" depth="5" NCoef="0" IVar="6" Cut="1.4139582216739655e-01" cType="1" res="-5.2415695041418076e-02" rms="2.0478336513042450e-01" purity="4.6452246606349945e-02" nType="0">
                  <Node pos="l" depth="6" NCoef="0" IVar="4" Cut="1.4433251619338989e+00" cType="1" res="-5.7609375566244125e-02" rms="1.6737388074398041e-01" purity="3.0282381922006607e-02" nType="0">
                    <Node pos="l" depth="7" NCoef="0" IVar="-1" Cut="0.0000000000000000e+00" cType="1" res="-1.3665460981428623e-02" rms="2.4562551081180573e-01" purity="6.6680431365966797e-02" nType="-99"/>
                    <Node pos="r" depth="7" NCoef="0" IVar="-1" Cut="0.0000000000000000e+00" cType="1" res="-2.5490252301096916e-02" rms="1.0508856177330017e-01" purity="1.1221454478800297e-02" nType="-99"/>
                  </Node>
                  <Node pos="r" depth="6" NCoef="0" IVar="2" Cut="4.4913375854492188e+02" cType="1" res="-4.3609894812107086e-02" rms="2.5576910376548767e-01" purity="7.3868006467819214e-02" nType="0">
                    <Node pos="l" depth="7" NCoef="0" IVar="-1" Cut="0.0000000000000000e+00" cType="1" res="-9.3185007572174072e-03" rms="2.6500648260116577e-01" purity="8.0206103622913361e-02" nType="-99"/>
                    <Node pos="r" depth="7" NCoef="0" IVar="-1" Cut="0.0000000000000000e+00" cType="1" res="-1.3663580641150475e-02" rms="2.4837434291839600e-01" purity="6.9193266332149506e-02" nType="-99"/>
                  </Node>
                </Node>
                <Node pos="r" depth="5" NCoef="0" IVar="-1" Cut="0.0000000000000000e+00" cType="1" res="-1.0202466510236263e-02" rms="2.5024157762527466e-01" purity="7.0190310478210449e-02" nType="-99"/>
              </Node>
              <Node pos="r" depth="4" NCoef="0" IVar="-1" Cut="0.0000000000000000e+00" cType="1" res="-9.8754446953535080e-03" rms="3.8652926683425903e-01" purity="1.9714598357677460e-01" nType="-99"/>
            </Node>
          </Node>
        </Node>
      </Node>
    </BinaryTree>
    <BinaryTree type="DecisionTree" boostWeight="1.0000000000000000e+00" itree="43">
      <Node pos="s" depth="0" NCoef="0" IVar="3" Cut="7.7976024150848389e-01" cType="1" res="1.1825134046375751e-02" rms="4.0418452024459839e-01" purity="4.9933430552482605e-01" nType="0">
        <Node pos="l" depth="1" NCoef="0" IVar="3" Cut="5.0702184438705444e-01" cType="1" res="-2.3424496874213219e-02" rms="3.8429570198059082e-01" purity="2.5871467590332031e-01" nType="0">
          <Node pos="l" depth="2" NCoef="0" IVar="6" Cut="1.6678580641746521e-01" cType="1" res="-3.9709750562906265e-02" rms="2.9148638248443604e-01" purity="1.0444173216819763e-01" nType="0">
            <Node pos="l" depth="3" NCoef="0" IVar="3" Cut="3.7921184301376343e-01" cType="1" res="-4.5169293880462646e-02" rms="2.6785224676132202e-01" purity="8.5449464619159698e-02" nType="0">
              <Node pos="l" depth="4" NCoef="0" IVar="1" Cut="3.1758863925933838e+00" cType="1" res="-5.2111797034740448e-02" rms="2.0426872372627258e-01" purity="4.4949244707822800e-02" nType="0">
                <Node pos="l" depth="5" NCoef="0" IVar="3" Cut="2.8438371419906616e-01" cType="1" res="-5.4443474858999252e-02" rms="1.9891645014286041e-01" purity="4.2411696165800095e-02" nType="0">
                  <Node pos="l" depth="6" NCoef="0" IVar="0" Cut="2.5772426128387451e+00" cType="1" res="-5.9269126504659653e-02" rms="1.6958606243133545e-01" purity="3.0108837410807610e-02" nType="0">
                    <Node pos="l" depth="7" NCoef="0" IVar="-1" Cut="0.0000000000000000e+00" cType="1" res="-2.2393502295017242e-02" rms="1.8785840272903442e-01" purity="3.7425532937049866e-02" nType="-99"/>
                    <Node pos="r" depth="7" NCoef="0" IVar="-1" Cut="0.0000000000000000e+00" cType="1" res="-2.2458501160144806e-02" rms="1.6169123351573944e-01" purity="2.7285061776638031e-02" nType="-99"/>
                  </Node>
                  <Node pos="r" depth="6" NCoef="0" IVar="7" Cut="5.0000000000000000e+00" cType="1" res="-4.9717292189598083e-02" rms="2.2155284881591797e-01" purity="5.3626939654350281e-02" nType="0">
                    <Node pos="l" depth="7" NCoef="0" IVar="-1" Cut="0.0000000000000000e+00" cType="1" res="-1.8203955143690109e-02" rms="2.1540905535221100e-01" purity="4.9541812390089035e-02" nType="-99"/>
                    <Node pos="r" depth="7" NCoef="0" IVar="-1" Cut="0.0000000000000000e+00" cType="1" res="-1.4001158066093922e-02" rms="2.2547246515750885e-01" purity="5.5727265775203705e-02" nType="-99"/>
                  </Node>
                </Node>
                <Node pos="r" depth="5" NCoef="0" IVar="-1" Cut="0.0000000000000000e+00" cType="1" res="-9.6752410754561424e-03" rms="2.4839743971824646e-01" purity="6.9077372550964355e-02" nType="-99"/>
              </Node>
              <Node pos="r" depth="4" NCoef="0" IVar="7" Cut="4.0000000000000000e+00" cType="1" res="-3.5548552870750427e-02" rms="3.3166170120239258e-01" purity="1.3878771662712097e-01" nType="0">
                <Node pos="l" depth="5" NCoef="0" IVar="0" Cut="1.2188767194747925e+00" cType="1" res="-5.4372727870941162e-02" rms="3.1199827790260315e-01" purity="1.1636774986982346e-01" nType="0">
                  <Node pos="l" depth="6" NCoef="0" IVar="-1" Cut="0.0000000000000000e+00" cType="1" res="-1.2088806368410587e-02" rms="3.2530078291893005e-01" purity="1.2857174873352051e-01" nType="-99"/>
                  <Node pos="r" depth="6" NCoef="0" IVar="-1" Cut="0.0000000000000000e+00" cType="1" res="-9.1520715504884720e-03" rms="2.9813557863235474e-01" purity="1.0475698858499527e-01" nType="-99"/>
                </Node>
                <Node pos="r" depth="5" NCoef="0" IVar="1" Cut="3.7225171923637390e-01" cType="1" res="-2.8544537723064423e-02" rms="3.4141260385513306e-01" purity="1.4793036878108978e-01" nType="0">
                  <Node pos="l" depth="6" NCoef="0" IVar="2" Cut="1.8952482604980469e+02" cType="1" res="-7.3428889736533165e-03" rms="3.7935465574264526e-01" purity="1.9340623915195465e-01" nType="0">
                    <Node pos="l" depth="7" NCoef="0" IVar="-1" Cut="0.0000000000000000e+00" cType="1" res="2.1397068630903959e-03" rms="3.9494085311889648e-01" purity="2.1813027560710907e-01" nType="-99"/>
                    <Node pos="r" depth="7" NCoef="0" IVar="-1" Cut="0.0000000000000000e+00" cType="1" res="-4.0753525681793690e-03" rms="3.6534860730171204e-01" purity="1.7337630689144135e-01" nType="-99"/>
                  </Node>
                  <Node pos="r" depth="6" NCoef="0" IVar="3" Cut="4.4519248604774475e-01" cType="1" res="-4.3699473142623901e-02" rms="3.1058603525161743e-01" purity="1.1542422324419022e-01" nType="0">
                    <Node pos="l" depth="7" NCoef="0" IVar="-1" Cut="0.0000000000000000e+00" cType="1" res="-1.2138371355831623e-02" rms="2.7559715509414673e-01" purity="8.5084564983844757e-02" nType="-99"/>
                    <Node pos="r" depth="7" NCoef="0" IVar="-1" Cut="0.0000000000000000e+00" cType="1" res="-5.7694190181791782e-03" rms="3.5108461976051331e-01" purity="1.5531677007675171e-01" nType="-99"/>
                  </Node>
                </Node>
              </Node>
            </Node>
            <Node pos="r" depth="3" NCoef="0" IVar="7" Cut="4.0000000000000000e+00" cType="1" res="-2.4055790156126022e-02" rms="3.4896621108055115e-01" purity="1.6157050430774689e-01" nType="0">
              <Node pos="l" depth="4" NCoef="0" IVar="-1" Cut="0.0000000000000000e+00" cType="1" res="2.6299303863197565e-03" rms="4.1427528858184814e-01" purity="2.4651437997817993e-01" nType="-99"/>
              <Node pos="r" depth="4" NCoef="0" IVar="3" Cut="3.3287850022315979e-01" cType="1" res="-3.1199367716908455e-02" rms="3.3898216485977173e-01" purity="1.4526362717151642e-01" nType="0">
                <Node pos="l" depth="5" NCoef="0" IVar="6" Cut="2.7091142535209656e-01" cType="1" res="-4.2891737073659897e-02" rms="3.1293252110481262e-01" purity="1.1531665921211243e-01" nType="0">
                  <Node pos="l" depth="6" NCoef="0" IVar="3" Cut="2.3078127205371857e-01" cType="1" res="-5.2802979946136475e-02" rms="2.8218585252761841e-01" purity="9.1388635337352753e-02" nType="0">
                    <Node pos="l" depth="7" NCoef="0" IVar="-1" Cut="0.0000000000000000e+00" cType="1" res="-1.7416121438145638e-02" rms="2.5540491938591003e-01" purity="7.1268811821937561e-02" nType="-99"/>
                    <Node pos="r" depth="7" NCoef="0" IVar="-1" Cut="0.0000000000000000e+00" cType="1" res="-9.2781018465757370e-03" rms="3.0083131790161133e-01" purity="1.0703818500041962e-01" nType="-99"/>
                  </Node>
                  <Node pos="r" depth="6" NCoef="0" IVar="-1" Cut="0.0000000000000000e+00" cType="1" res="-2.6457030326128006e-03" rms="3.8403353095054626e-01" purity="1.8145586550235748e-01" nType="-99"/>
                </Node>
                <Node pos="r" depth="5" NCoef="0" IVar="-1" Cut="0.0000000000000000e+00" cType="1" res="-2.5427245418541133e-04" rms="3.9565178751945496e-01" purity="2.2082102298736572e-01" nType="-99"/>
              </Node>
            </Node>
          </Node>
          <Node pos="r" depth="2" NCoef="0" IVar="5" Cut="3.5677805542945862e-01" cType="1" res="-5.8858310803771019e-03" rms="4.6328830718994141e-01" purity="4.2486143112182617e-01" nType="0">
            <Node pos="l" depth="3" NCoef="0" IVar="1" Cut="7.9199075698852539e-01" cType="1" res="-1.1374615132808685e-03" rms="4.7055670619010925e-01" purity="4.4336372613906860e-01" nType="0">
              <Node pos="l" depth="4" NCoef="0" IVar="6" Cut="7.6329484581947327e-02" cType="1" res="8.9155351743102074e-03" rms="4.7735738754272461e-01" purity="4.8831367492675781e-01" nType="0">
                <Node pos="l" depth="5" NCoef="0" IVar="2" Cut="8.6599029541015625e+01" cType="1" res="-3.4541497007012367e-03" rms="4.7490480542182922e-01" purity="4.8816761374473572e-01" nType="0">
                  <Node pos="l" depth="6" NCoef="0" IVar="6" Cut="3.7110172212123871e-02" cType="1" res="1.9283646717667580e-02" rms="4.7677749395370483e-01" purity="5.2810341119766235e-01" nType="0">
                    <Node pos="l" depth="7" NCoef="0" IVar="-1" Cut="0.0000000000000000e+00" cType="1" res="-2.4378074158448726e-04" rms="4.7425395250320435e-01" purity="5.0516885519027710e-01" nType="-99"/>
                    <Node pos="r" depth="7" NCoef="0" IVar="-1" Cut="0.0000000000000000e+00" cType="1" res="3.5740118473768234e-03" rms="4.7831162810325623e-01" purity="5.5171889066696167e-01" nType="-99"/>
                  </Node>
                  <Node pos="r" depth="6" NCoef="0" IVar="4" Cut="2.0929552614688873e-02" cType="1" res="-2.2909685969352722e-02" rms="4.7242856025695801e-01" purity="4.5399659872055054e-01" nType="0">
                    <Node pos="l" depth="7" NCoef="0" IVar="-1" Cut="0.0000000000000000e+00" cType="1" res="-1.1574049713090062e-03" rms="4.7737991809844971e-01" purity="4.8611205816268921e-01" nType="-99"/>
                    <Node pos="r" depth="7" NCoef="0" IVar="-1" Cut="0.0000000000000000e+00" cType="1" res="-6.2199602834880352e-03" rms="4.5323240756988525e-01" purity="3.4455814957618713e-01" nType="-99"/>
                  </Node>
                </Node>
                <Node pos="r" depth="5" NCoef="0" IVar="2" Cut="1.3367970275878906e+02" cType="1" res="2.5869097560644150e-02" rms="4.8018115758895874e-01" purity="4.8851382732391357e-01" nType="0">
                  <Node pos="l" depth="6" NCoef="0" IVar="-1" Cut="0.0000000000000000e+00" cType="1" res="5.7266508229076862e-03" rms="4.7962620854377747e-01" purity="5.6469118595123291e-01" nType="-99"/>
                  <Node pos="r" depth="6" NCoef="0" IVar="1" Cut="-1.9499897956848145e-01" cType="1" res="1.2540619820356369e-02" rms="4.7953605651855469e-01" purity="4.6593445539474487e-01" nType="0">
                    <Node pos="l" depth="7" NCoef="0" IVar="-1" Cut="0.0000000000000000e+00" cType="1" res="3.5637360997498035e-03" rms="4.8325663805007935e-01" purity="5.2369362115859985e-01" nType="-99"/>
                    <Node pos="r" depth="7" NCoef="0" IVar="-1" Cut="0.0000000000000000e+00" cType="1" res="-5.2213954404578544e-06" rms="4.7729364037513733e-01" purity="4.3947944045066833e-01" nType="-99"/>
                  </Node>
                </Node>
              </Node>
              <Node pos="r" depth="4" NCoef="0" IVar="1" Cut="2.5741388797760010e+00" cType="1" res="-2.9342357069253922e-02" rms="4.4973120093345642e-01" purity="3.1725126504898071e-01" nType="0">
                <Node pos="l" depth="5" NCoef="0" IVar="6" Cut="4.9382235854864120e-02" cType="1" res="-1.9456781446933746e-02" rms="4.5558506250381470e-01" purity="3.3190566301345825e-01" nType="0">
                  <Node pos="l" depth="6" NCoef="0" IVar="-1" Cut="0.0000000000000000e+00" cType="1" res="-5.2164332009851933e-03" rms="4.4685554504394531e-01" purity="3.0396351218223572e-01" nType="-99"/>
                  <Node pos="r" depth="6" NCoef="0" IVar="3" Cut="6.1260008811950684e-01" cType="1" res="-6.6019180230796337e-03" rms="4.5878890156745911e-01" purity="3.4421321749687195e-01" nType="0">
                    <Node pos="l" depth="7" NCoef="0" IVar="-1" Cut="0.0000000000000000e+00" cType="1" res="-3.4977919422090054e-03" rms="4.2492404580116272e-01" purity="2.5181695818901062e-01" nType="-99"/>
                    <Node pos="r" depth="7" NCoef="0" IVar="-1" Cut="0.0000000000000000e+00" cType="1" res="8.9751958148553967e-04" rms="4.8177999258041382e-01" purity="4.1286927461624146e-01" nType="-99"/>
                  </Node>
                </Node>
                <Node pos="r" depth="5" NCoef="0" IVar="-1" Cut="0.0000000000000000e+00" cType="1" res="-8.4754070267081261e-03" rms="4.2000493407249451e-01" purity="2.5227129459381104e-01" nType="-99"/>
              </Node>
            </Node>
            <Node pos="r" depth="3" NCoef="0" IVar="-1" Cut="0.0000000000000000e+00" cType="1" res="-1.4453601092100143e-02" rms="3.0565711855888367e-01" purity="1.1295524239540100e-01" nType="-99"/>
          </Node>
        </Node>
        <Node pos="r" depth="1" NCoef="0" IVar="5" Cut="-2.3907339572906494e+00" cType="1" res="4.6623807400465012e-02" rms="4.2001056671142578e-01" purity="7.3687559366226196e-01" nType="0">
          <Node pos="l" depth="2" NCoef="0" IVar="0" Cut="6.3646537065505981e-01" cType="1" res="5.9385627508163452e-02" rms="3.9645084738731384e-01" purity="7.8759503364562988e-01" nType="0">
            <Node pos="l" depth="3" NCoef="0" IVar="0" Cut="1.8477623164653778e-01" cType="1" res="6.1988584697246552e-02" rms="3.9084050059318542e-01" purity="8.0243694782257080e-01" nType="0">
              <Node pos="l" depth="4" NCoef="0" IVar="1" Cut="7.6178856194019318e-02" cType="1" res="6.4733877778053284e-02" rms="3.8230103254318237e-01" purity="8.1599658727645874e-01" nType="0">
                <Node pos="l" depth="5" NCoef="0" IVar="1" Cut="-7.0221346616744995e-01" cType="1" res="7.2759479284286499e-02" rms="3.5622730851173401e-01" purity="8.4917104244232178e-01" nType="0">
                  <Node pos="l" depth="6" NCoef="0" IVar="-1" Cut="0.0000000000000000e+00" cType="1" res="5.1307370886206627e-03" rms="3.7851157784461975e-01" purity="8.2459169626235962e-01" nType="-99"/>
                  <Node pos="r" depth="6" NCoef="0" IVar="3" Cut="9.9479413032531738e-01" cType="1" res="7.5244911015033722e-02" rms="3.5352560877799988e-01" purity="8.5195863246917725e-01" nType="0">
                    <Node pos="l" depth="7" NCoef="0" IVar="-1" Cut="0.0000000000000000e+00" cType="1" res="7.5567169114947319e-03" rms="3.7153825163841248e-01" purity="8.3292502164840698e-01" nType="-99"/>
                    <Node pos="r" depth="7" NCoef="0" IVar="-1" Cut="0.0000000000000000e+00" cType="1" res="9.1032516211271286e-03" rms="3.3449587225914001e-01" purity="8.7095236778259277e-01" nType="-99"/>
                  </Node>
                </Node>
                <Node pos="r" depth="5" NCoef="0" IVar="1" Cut="1.3549572229385376e+00" cType="1" res="5.6152883917093277e-02" rms="4.0816706418991089e-01" purity="7.8052645921707153e-01" nType="0">
                  <Node pos="l" depth="6" NCoef="0" IVar="4" Cut="-2.4591964483261108e-01" cType="1" res="5.9766918420791626e-02" rms="3.9699128270149231e-01" purity="7.9912412166595459e-01" nType="0">
                    <Node pos="l" depth="7" NCoef="0" IVar="-1" Cut="0.0000000000000000e+00" cType="1" res="5.3837536834180355e-03" rms="4.0547290444374084e-01" purity="7.8748071193695068e-01" nType="-99"/>
                    <Node pos="r" depth="7" NCoef="0" IVar="-1" Cut="0.0000000000000000e+00" cType="1" res="8.2487519830465317e-03" rms="3.6790624260902405e-01" purity="8.3672964572906494e-01" nType="-99"/>
                  </Node>
                  <Node pos="r" depth="6" NCoef="0" IVar="-1" Cut="0.0000000000000000e+00" cType="1" res="3.1955502927303314e-03" rms="4.5982018113136292e-01" purity="6.8704539537429810e-01" nType="-99"/>
                </Node>
              </Node>
              <Node pos="r" depth="4" NCoef="0" IVar="2" Cut="4.5537155151367188e+01" cType="1" res="4.0634825825691223e-02" rms="4.5121589303016663e-01" purity="6.9696551561355591e-01" nType="0">
                <Node pos="l" depth="5" NCoef="0" IVar="-1" Cut="0.0000000000000000e+00" cType="1" res="4.5743254013359547e-03" rms="4.4245126843452454e-01" purity="7.1821945905685425e-01" nType="-99"/>
                <Node pos="r" depth="5" NCoef="0" IVar="-1" Cut="0.0000000000000000e+00" cType="1" res="2.6644298341125250e-03" rms="4.6367317438125610e-01" purity="6.6521263122558594e-01" nType="-99"/>
              </Node>
            </Node>
            <Node pos="r" depth="3" NCoef="0" IVar="-1" Cut="0.0000000000000000e+00" cType="1" res="5.3947936976328492e-04" rms="4.9466153979301453e-01" purity="4.8349675536155701e-01" nType="-99"/>
          </Node>
          <Node pos="r" depth="2" NCoef="0" IVar="1" Cut="1.4445713758468628e+00" cType="1" res="2.9459476470947266e-02" rms="4.4918438792228699e-01" purity="6.6865915060043335e-01" nType="0">
            <Node pos="l" depth="3" NCoef="0" IVar="5" Cut="-1.0462659597396851e+00" cType="1" res="3.6097813397645950e-02" rms="4.4527846574783325e-01" purity="6.9307804107666016e-01" nType="0">
              <Node pos="l" depth="4" NCoef="0" IVar="0" Cut="3.0272957682609558e-01" cType="1" res="4.1841447353363037e-02" rms="4.3572157621383667e-01" purity="7.2567701339721680e-01" nType="0">
                <Node pos="l" depth="5" NCoef="0" IVar="1" Cut="-1.7239880561828613e-01" cType="1" res="4.5945707708597183e-02" rms="4.2834883928298950e-01" purity="7.4880075454711914e-01" nType="0">
                  <Node pos="l" depth="6" NCoef="0" IVar="4" Cut="-4.1851153969764709e-01" cType="1" res="6.1268139630556107e-02" rms="4.0355166792869568e-01" purity="7.9154539108276367e-01" nType="0">
                    <Node pos="l" depth="7" NCoef="0" IVar="-1" Cut="0.0000000000000000e+00" cType="1" res="5.1589184440672398e-03" rms="4.1470548510551453e-01" purity="7.7688312530517578e-01" nType="-99"/>
                    <Node pos="r" depth="7" NCoef="0" IVar="-1" Cut="0.0000000000000000e+00" cType="1" res="7.3127066716551781e-03" rms="3.8573718070983887e-01" purity="8.1390047073364258e-01" nType="-99"/>
                  </Node>
                  <Node pos="r" depth="6" NCoef="0" IVar="4" Cut="-1.4341230690479279e-01" cType="1" res="3.8612961769104004e-02" rms="4.3953242897987366e-01" purity="7.2834479808807373e-01" nType="0">
                    <Node pos="l" depth="7" NCoef="0" IVar="-1" Cut="0.0000000000000000e+00" cType="1" res="3.0298267956823111e-03" rms="4.4439616799354553e-01" purity="7.1983921527862549e-01" nType="-99"/>
                    <Node pos="r" depth="7" NCoef="0" IVar="-1" Cut="0.0000000000000000e+00" cType="1" res="5.4675233550369740e-03" rms="4.2522925138473511e-01" purity="7.5205230712890625e-01" nType="-99"/>
                  </Node>
                </Node>
                <Node pos="r" depth="5" NCoef="0" IVar="-1" Cut="0.0000000000000000e+00" cType="1" res="1.0213090572506189e-03" rms="4.8531076312065125e-01" purity="5.5615872144699097e-01" nType="-99"/>
              </Node>
              <Node pos="r" depth="4" NCoef="0" IVar="7" Cut="2.0000000000000000e+00" cType="1" res="1.6526825726032257e-02" rms="4.7577524185180664e-01" purity="5.6289106607437134e-01" nType="0">
                <Node pos="l" depth="5" NCoef="0" IVar="-1" Cut="0.0000000000000000e+00" cType="1" res="3.0846188310533762e-03" rms="4.7421136498451233e-01" purity="6.1621314287185669e-01" nType="-99"/>
                <Node pos="r" depth="5" NCoef="0" IVar="-1" Cut="0.0000000000000000e+00" cType="1" res="-8.8583893375471234e-04" rms="4.8656696081161499e-01" purity="5.0804179906845093e-01" nType="-99"/>
              </Node>
            </Node>
            <Node pos="r" depth="3" NCoef="0" IVar="5" Cut="-1.6620106697082520e+00" cType="1" res="-2.9922625049948692e-02" rms="4.7864243388175964e-01" purity="4.5022413134574890e-01" nType="0">
              <Node pos="l" depth="4" NCoef="0" IVar="-1" Cut="0.0000000000000000e+00" cType="1" res="8.2493736408650875e-04" rms="4.8822602629661560e-01" purity="5.4501181840896606e-01" nType="-99"/>
              <Node pos="r" depth="4" NCoef="0" IVar="-1" Cut="0.0000000000000000e+00" cType="1" res="-7.1540502831339836e-03" rms="4.6389269828796387e-01" purity="3.4545266628265381e-01" nType="-99"/>
            </Node>
          </Node>
        </Node>
      </Node>
    </BinaryTree>
    <BinaryTree type="DecisionTree" boostWeight="1.0000000000000000e+00" itree="44">
      <Node pos="s" depth="0" NCoef="0" IVar="3" Cut="7.7782690525054932e-01" cType="1" res="1.2729560956358910e-02" rms="4.0450695157051086e-01" purity="5.0064009428024292e-01" nType="0">
        <Node pos="l" depth="1" NCoef="0" IVar="1" Cut="-5.9348661452531815e-02" cType="1" res="-1.9899945706129074e-02" rms="3.8558438420295715e-01" purity="2.5964495539665222e-01" nType="0">
          <Node pos="l" depth="2" NCoef="0" IVar="2" Cut="1.3615702819824219e+02" cType="1" res="1.2739836238324642e-02" rms="4.4024071097373962e-01" purity="4.0928888320922852e-01" nType="0">
            <Node pos="l" depth="3" NCoef="0" IVar="6" Cut="3.9146799594163895e-02" cType="1" res="4.1529059410095215e-02" rms="4.5914921164512634e-01" purity="5.0897872447967529e-01" nType="0">
              <Node pos="l" depth="4" NCoef="0" IVar="-1" Cut="0.0000000000000000e+00" cType="1" res="-2.3276814317796379e-04" rms="4.5379319787025452e-01" purity="4.6690392494201660e-01" nType="-99"/>
              <Node pos="r" depth="4" NCoef="0" IVar="6" Cut="6.5135829150676727e-02" cType="1" res="7.0285126566886902e-02" rms="4.6036458015441895e-01" purity="5.3656327724456787e-01" nType="0">
                <Node pos="l" depth="5" NCoef="0" IVar="-1" Cut="0.0000000000000000e+00" cType="1" res="5.0440565682947636e-03" rms="4.5508554577827454e-01" purity="5.2267134189605713e-01" nType="-99"/>
                <Node pos="r" depth="5" NCoef="0" IVar="-1" Cut="0.0000000000000000e+00" cType="1" res="7.6919784769415855e-03" rms="4.6505102515220642e-01" purity="5.5075579881668091e-01" nType="-99"/>
              </Node>
            </Node>
            <Node pos="r" depth="3" NCoef="0" IVar="5" Cut="-1.8915459513664246e-01" cType="1" res="-3.3044917508959770e-03" rms="4.2850321531295776e-01" purity="3.5373139381408691e-01" nType="0">
              <Node pos="l" depth="4" NCoef="0" IVar="0" Cut="1.2831089496612549e+00" cType="1" res="5.9158923104405403e-03" rms="4.4931972026824951e-01" purity="4.0057545900344849e-01" nType="0">
                <Node pos="l" depth="5" NCoef="0" IVar="3" Cut="6.8074607849121094e-01" cType="1" res="1.4558329246938229e-02" rms="4.7328388690948486e-01" purity="4.6712395548820496e-01" nType="0">
                  <Node pos="l" depth="6" NCoef="0" IVar="6" Cut="1.1662375926971436e-01" cType="1" res="4.6948790550231934e-03" rms="4.6973362565040588e-01" purity="3.9396163821220398e-01" nType="0">
                    <Node pos="l" depth="7" NCoef="0" IVar="-1" Cut="0.0000000000000000e+00" cType="1" res="-1.2574959546327591e-03" rms="4.6399399638175964e-01" purity="3.8178253173828125e-01" nType="-99"/>
                    <Node pos="r" depth="7" NCoef="0" IVar="-1" Cut="0.0000000000000000e+00" cType="1" res="2.8943116776645184e-03" rms="4.7690275311470032e-01" purity="4.1164088249206543e-01" nType="-99"/>
                  </Node>
                  <Node pos="r" depth="6" NCoef="0" IVar="-1" Cut="0.0000000000000000e+00" cType="1" res="3.1431277748197317e-03" rms="4.8009216785430908e-01" purity="6.2317389249801636e-01" nType="-99"/>
                </Node>
                <Node pos="r" depth="5" NCoef="0" IVar="-1" Cut="0.0000000000000000e+00" cType="1" res="-5.3004119545221329e-03" rms="3.4065783023834229e-01" purity="1.4633904397487640e-01" nType="-99"/>
              </Node>
              <Node pos="r" depth="4" NCoef="0" IVar="-1" Cut="0.0000000000000000e+00" cType="1" res="-1.1019567959010601e-02" rms="2.9124462604522705e-01" purity="1.0763552039861679e-01" nType="-99"/>
            </Node>
          </Node>
          <Node pos="r" depth="2" NCoef="0" IVar="3" Cut="6.3008427619934082e-01" cType="1" res="-2.8505234047770500e-02" rms="3.6935132741928101e-01" purity="2.2019217908382416e-01" nType="0">
            <Node pos="l" depth="3" NCoef="0" IVar="6" Cut="6.4275830984115601e-02" cType="1" res="-3.5517696291208267e-02" rms="3.2631647586822510e-01" purity="1.4139537513256073e-01" nType="0">
              <Node pos="l" depth="4" NCoef="0" IVar="2" Cut="4.9537807464599609e+01" cType="1" res="-5.0697661936283112e-02" rms="3.0385535955429077e-01" purity="1.1701347678899765e-01" nType="0">
                <Node pos="l" depth="5" NCoef="0" IVar="-1" Cut="0.0000000000000000e+00" cType="1" res="-3.9219353348016739e-03" rms="3.4971734881401062e-01" purity="1.6421836614608765e-01" nType="-99"/>
                <Node pos="r" depth="5" NCoef="0" IVar="7" Cut="4.0000000000000000e+00" cType="1" res="-5.9784907847642899e-02" rms="2.8340187668800354e-01" purity="1.0085721313953400e-01" nType="0">
                  <Node pos="l" depth="6" NCoef="0" IVar="-1" Cut="0.0000000000000000e+00" cType="1" res="-1.4004819095134735e-02" rms="3.1596025824546814e-01" purity="1.1959369480609894e-01" nType="-99"/>
                  <Node pos="r" depth="6" NCoef="0" IVar="6" Cut="4.1348394006490707e-02" cType="1" res="-5.2146784961223602e-02" rms="2.7164214849472046e-01" purity="9.2955760657787323e-02" nType="0">
                    <Node pos="l" depth="7" NCoef="0" IVar="-1" Cut="0.0000000000000000e+00" cType="1" res="-1.4390445314347744e-02" rms="2.5915008783340454e-01" purity="8.1090115010738373e-02" nType="-99"/>
                    <Node pos="r" depth="7" NCoef="0" IVar="-1" Cut="0.0000000000000000e+00" cType="1" res="-1.0267562232911587e-02" rms="2.7836310863494873e-01" purity="9.9782951176166534e-02" nType="-99"/>
                  </Node>
                </Node>
              </Node>
              <Node pos="r" depth="4" NCoef="0" IVar="2" Cut="1.7235240173339844e+02" cType="1" res="-3.0315147712826729e-02" rms="3.3350780606269836e-01" purity="1.4975167810916901e-01" nType="0">
                <Node pos="l" depth="5" NCoef="0" IVar="1" Cut="5.8896255493164062e-01" cType="1" res="-9.6482299268245697e-03" rms="3.5783931612968445e-01" purity="1.8391449749469757e-01" nType="0">
                  <Node pos="l" depth="6" NCoef="0" IVar="-1" Cut="0.0000000000000000e+00" cType="1" res="4.3455353006720543e-03" rms="4.2611601948738098e-01" purity="2.9422867298126221e-01" nType="-99"/>
                  <Node pos="r" depth="6" NCoef="0" IVar="6" Cut="1.1984013766050339e-01" cType="1" res="-2.9304044321179390e-02" rms="3.1946438550949097e-01" purity="1.3286419212818146e-01" nType="0">
                    <Node pos="l" depth="7" NCoef="0" IVar="-1" Cut="0.0000000000000000e+00" cType="1" res="-8.0618271604180336e-03" rms="3.0516886711120605e-01" purity="1.2008272111415863e-01" nType="-99"/>
                    <Node pos="r" depth="7" NCoef="0" IVar="-1" Cut="0.0000000000000000e+00" cType="1" res="-1.6342854360118508e-03" rms="3.5290762782096863e-01" purity="1.6591843962669373e-01" nType="-99"/>
                  </Node>
                </Node>
                <Node pos="r" depth="5" NCoef="0" IVar="7" Cut="3.0000000000000000e+00" cType="1" res="-3.7657693028450012e-02" rms="3.2342535257339478e-01" purity="1.3754267990589142e-01" nType="0">
                  <Node pos="l" depth="6" NCoef="0" IVar="-1" Cut="0.0000000000000000e+00" cType="1" res="-2.7213254361413419e-04" rms="4.0153998136520386e-01" purity="2.2805848717689514e-01" nType="-99"/>
                  <Node pos="r" depth="6" NCoef="0" IVar="6" Cut="1.5023031830787659e-01" cType="1" res="-4.0578473359346390e-02" rms="3.1684032082557678e-01" purity="1.3028326630592346e-01" nType="0">
                    <Node pos="l" depth="7" NCoef="0" IVar="-1" Cut="0.0000000000000000e+00" cType="1" res="-9.6677588298916817e-03" rms="2.9993382096290588e-01" purity="1.1770725250244141e-01" nType="-99"/>
                    <Node pos="r" depth="7" NCoef="0" IVar="-1" Cut="0.0000000000000000e+00" cType="1" res="-6.1571788974106312e-03" rms="3.3768758177757263e-01" purity="1.4687870442867279e-01" nType="-99"/>
                  </Node>
                </Node>
              </Node>
            </Node>
            <Node pos="r" depth="3" NCoef="0" IVar="6" Cut="3.9031784981489182e-02" cType="1" res="-6.7835636436939240e-03" rms="4.7804966568946838e-01" purity="4.6427160501480103e-01" nType="0">
              <Node pos="l" depth="4" NCoef="0" IVar="2" Cut="4.5679512023925781e+01" cType="1" res="-4.5583590865135193e-02" rms="4.7668892145156860e-01" purity="4.2988085746765137e-01" nType="0">
                <Node pos="l" depth="5" NCoef="0" IVar="-1" Cut="0.0000000000000000e+00" cType="1" res="-1.6260828124359250e-03" rms="4.7896203398704529e-01" purity="4.7039875388145447e-01" nType="-99"/>
                <Node pos="r" depth="5" NCoef="0" IVar="-1" Cut="0.0000000000000000e+00" cType="1" res="-7.0346263237297535e-03" rms="4.7305849194526672e-01" purity="3.9173445105552673e-01" nType="-99"/>
              </Node>
              <Node pos="r" depth="4" NCoef="0" IVar="5" Cut="-9.9870622158050537e-01" cType="1" res="4.7696833498775959e-03" rms="4.7784578800201416e-01" purity="4.7451195120811462e-01" nType="0">
                <Node pos="l" depth="5" NCoef="0" IVar="2" Cut="1.1720340728759766e+02" cType="1" res="1.5478428453207016e-02" rms="4.8473018407821655e-01" purity="5.1219284534454346e-01" nType="0">
                  <Node pos="l" depth="6" NCoef="0" IVar="6" Cut="6.1280123889446259e-02" cType="1" res="4.4238954782485962e-02" rms="4.8186811804771423e-01" purity="5.5780500173568726e-01" nType="0">
                    <Node pos="l" depth="7" NCoef="0" IVar="-1" Cut="0.0000000000000000e+00" cType="1" res="1.9593723118305206e-03" rms="4.8271313309669495e-01" purity="5.2504146099090576e-01" nType="-99"/>
                    <Node pos="r" depth="7" NCoef="0" IVar="-1" Cut="0.0000000000000000e+00" cType="1" res="5.0880466587841511e-03" rms="4.8021149635314941e-01" purity="5.8802044391632080e-01" nType="-99"/>
                  </Node>
                  <Node pos="r" depth="6" NCoef="0" IVar="6" Cut="7.3434241116046906e-02" cType="1" res="-1.9704874139279127e-03" rms="4.8562893271446228e-01" purity="4.8452010750770569e-01" nType="0">
                    <Node pos="l" depth="7" NCoef="0" IVar="-1" Cut="0.0000000000000000e+00" cType="1" res="-3.4316359087824821e-03" rms="4.8008087277412415e-01" purity="4.4174978137016296e-01" nType="-99"/>
                    <Node pos="r" depth="7" NCoef="0" IVar="-1" Cut="0.0000000000000000e+00" cType="1" res="1.9713537767529488e-03" rms="4.8807942867279053e-01" purity="5.1456767320632935e-01" nType="-99"/>
                  </Node>
                </Node>
                <Node pos="r" depth="5" NCoef="0" IVar="-1" Cut="0.0000000000000000e+00" cType="1" res="-4.3669603765010834e-03" rms="4.4436964392662048e-01" purity="3.1363725662231445e-01" nType="-99"/>
              </Node>
            </Node>
          </Node>
        </Node>
        <Node pos="r" depth="1" NCoef="0" IVar="1" Cut="8.8003325462341309e-01" cType="1" res="4.4640175998210907e-02" rms="4.1974696516990662e-01" purity="7.3632562160491943e-01" nType="0">
          <Node pos="l" depth="2" NCoef="0" IVar="5" Cut="-2.3906702995300293e+00" cType="1" res="5.1250435411930084e-02" rms="4.0845641493797302e-01" purity="7.6796281337738037e-01" nType="0">
            <Node pos="l" depth="3" NCoef="0" IVar="2" Cut="9.6283401489257812e+01" cType="1" res="6.1710722744464874e-02" rms="3.8243475556373596e-01" purity="8.1273335218429565e-01" nType="0">
              <Node pos="l" depth="4" NCoef="0" IVar="3" Cut="1.0016740560531616e+00" cType="1" res="6.5173968672752380e-02" rms="3.7559950351715088e-01" purity="8.2255637645721436e-01" nType="0">
                <Node pos="l" depth="5" NCoef="0" IVar="6" Cut="2.8667118400335312e-02" cType="1" res="5.9456858783960342e-02" rms="3.8575249910354614e-01" purity="8.1034421920776367e-01" nType="0">
                  <Node pos="l" depth="6" NCoef="0" IVar="4" Cut="-1.0518822669982910e+00" cType="1" res="5.4568834602832794e-02" rms="3.8394346833229065e-01" purity="8.1216973066329956e-01" nType="0">
                    <Node pos="l" depth="7" NCoef="0" IVar="-1" Cut="0.0000000000000000e+00" cType="1" res="4.3309251777827740e-03" rms="4.1025030612945557e-01" purity="7.7674895524978638e-01" nType="-99"/>
                    <Node pos="r" depth="7" NCoef="0" IVar="-1" Cut="0.0000000000000000e+00" cType="1" res="7.0053101517260075e-03" rms="3.6548930406570435e-01" purity="8.3541661500930786e-01" nType="-99"/>
                  </Node>
                  <Node pos="r" depth="6" NCoef="0" IVar="-1" Cut="0.0000000000000000e+00" cType="1" res="8.3271134644746780e-03" rms="3.9573475718498230e-01" purity="7.9862457513809204e-01" nType="-99"/>
                </Node>
                <Node pos="r" depth="5" NCoef="0" IVar="5" Cut="-2.6619038581848145e+00" cType="1" res="7.9594172537326813e-02" rms="3.4826326370239258e-01" purity="8.5335892438888550e-01" nType="0">
                  <Node pos="l" depth="6" NCoef="0" IVar="4" Cut="-6.1507052183151245e-01" cType="1" res="8.2398019731044769e-02" rms="3.4196323156356812e-01" purity="8.6001986265182495e-01" nType="0">
                    <Node pos="l" depth="7" NCoef="0" IVar="-1" Cut="0.0000000000000000e+00" cType="1" res="8.6930785328149796e-03" rms="3.4405970573425293e-01" purity="8.5760581493377686e-01" nType="-99"/>
                    <Node pos="r" depth="7" NCoef="0" IVar="-1" Cut="0.0000000000000000e+00" cType="1" res="9.1092241927981377e-03" rms="3.3982419967651367e-01" purity="8.6242282390594482e-01" nType="-99"/>
                  </Node>
                  <Node pos="r" depth="6" NCoef="0" IVar="-1" Cut="0.0000000000000000e+00" cType="1" res="6.9986395537853241e-03" rms="3.7310096621513367e-01" purity="8.2565540075302124e-01" nType="-99"/>
                </Node>
              </Node>
              <Node pos="r" depth="4" NCoef="0" IVar="1" Cut="3.4834269434213638e-02" cType="1" res="3.4256782382726669e-02" rms="4.3183490633964539e-01" purity="7.3486411571502686e-01" nType="0">
                <Node pos="l" depth="5" NCoef="0" IVar="-1" Cut="0.0000000000000000e+00" cType="1" res="4.9025812186300755e-03" rms="4.1604125499725342e-01" purity="7.6624619960784912e-01" nType="-99"/>
                <Node pos="r" depth="5" NCoef="0" IVar="-1" Cut="0.0000000000000000e+00" cType="1" res="1.9311336800456047e-03" rms="4.5089769363403320e-01" purity="6.9447326660156250e-01" nType="-99"/>
              </Node>
            </Node>
            <Node pos="r" depth="3" NCoef="0" IVar="0" Cut="3.1228297948837280e-01" cType="1" res="3.6632027477025986e-02" rms="4.4184985756874084e-01" purity="7.0539528131484985e-01" nType="0">
              <Node pos="l" depth="4" NCoef="0" IVar="0" Cut="2.2160769999027252e-01" cType="1" res="4.1302379220724106e-02" rms="4.3513229489326477e-01" purity="7.2994714975357056e-01" nType="0">
                <Node pos="l" depth="5" NCoef="0" IVar="1" Cut="-1.9102600216865540e-01" cType="1" res="4.4822156429290771e-02" rms="4.3140375614166260e-01" purity="7.3899239301681519e-01" nType="0">
                  <Node pos="l" depth="6" NCoef="0" IVar="4" Cut="-2.3595798015594482e-01" cType="1" res="6.0645867139101028e-02" rms="4.1134625673294067e-01" purity="7.7655631303787231e-01" nType="0">
                    <Node pos="l" depth="7" NCoef="0" IVar="-1" Cut="0.0000000000000000e+00" cType="1" res="4.8688957467675209e-03" rms="4.1801542043685913e-01" purity="7.6966571807861328e-01" nType="-99"/>
                    <Node pos="r" depth="7" NCoef="0" IVar="-1" Cut="0.0000000000000000e+00" cType="1" res="7.4534867890179157e-03" rms="3.9956730604171753e-01" purity="7.8802794218063354e-01" nType="-99"/>
                  </Node>
                  <Node pos="r" depth="6" NCoef="0" IVar="5" Cut="-1.1719262599945068e+00" cType="1" res="3.6969982087612152e-02" rms="4.4080755114555359e-01" purity="7.2035211324691772e-01" nType="0">
                    <Node pos="l" depth="7" NCoef="0" IVar="-1" Cut="0.0000000000000000e+00" cType="1" res="4.0966840460896492e-03" rms="4.2890799045562744e-01" purity="7.5078183412551880e-01" nType="-99"/>
                    <Node pos="r" depth="7" NCoef="0" IVar="-1" Cut="0.0000000000000000e+00" cType="1" res="1.4770278939977288e-03" rms="4.8221033811569214e-01" purity="6.0646265745162964e-01" nType="-99"/>
                  </Node>
                </Node>
                <Node pos="r" depth="5" NCoef="0" IVar="-1" Cut="0.0000000000000000e+00" cType="1" res="2.3808392870705575e-04" rms="4.7262865304946899e-01" purity="6.3004040718078613e-01" nType="-99"/>
              </Node>
              <Node pos="r" depth="4" NCoef="0" IVar="4" Cut="-4.2944169044494629e-01" cType="1" res="3.3656856976449490e-03" rms="4.8572763800621033e-01" purity="5.3051614761352539e-01" nType="0">
                <Node pos="l" depth="5" NCoef="0" IVar="-1" Cut="0.0000000000000000e+00" cType="1" res="-5.5336486548185349e-04" rms="4.8749640583992004e-01" purity="5.3778773546218872e-01" nType="-99"/>
                <Node pos="r" depth="5" NCoef="0" IVar="-1" Cut="0.0000000000000000e+00" cType="1" res="1.1894335038959980e-03" rms="4.8370102047920227e-01" purity="5.2306067943572998e-01" nType="-99"/>
              </Node>
            </Node>
          </Node>
          <Node pos="r" depth="2" NCoef="0" IVar="5" Cut="-2.1259143352508545e+00" cType="1" res="1.2210342101752758e-02" rms="4.6989017724990845e-01" purity="5.8111387491226196e-01" nType="0">
            <Node pos="l" depth="3" NCoef="0" IVar="4" Cut="-8.0116045475006104e-01" cType="1" res="3.0805291607975960e-02" rms="4.6390500664710999e-01" purity="6.4590752124786377e-01" nType="0">
              <Node pos="l" depth="4" NCoef="0" IVar="4" Cut="-2.2471885681152344e+00" cType="1" res="1.1227020062506199e-02" rms="4.7967624664306641e-01" purity="5.9629994630813599e-01" nType="0">
                <Node pos="l" depth="5" NCoef="0" IVar="-1" Cut="0.0000000000000000e+00" cType="1" res="2.8043703641742468e-03" rms="4.7597205638885498e-01" purity="6.1160433292388916e-01" nType="-99"/>
                <Node pos="r" depth="5" NCoef="0" IVar="-1" Cut="0.0000000000000000e+00" cType="1" res="-1.5611301932949573e-04" rms="4.8147392272949219e-01" purity="5.8687359094619751e-01" nType="-99"/>
              </Node>
              <Node pos="r" depth="4" NCoef="0" IVar="4" Cut="-2.5035166740417480e-01" cType="1" res="5.1637914031744003e-02" rms="4.4556829333305359e-01" purity="6.9869345426559448e-01" nType="0">
                <Node pos="l" depth="5" NCoef="0" IVar="-1" Cut="0.0000000000000000e+00" cType="1" res="3.8972939364612103e-03" rms="4.5020985603332520e-01" purity="6.8412172794342041e-01" nType="-99"/>
                <Node pos="r" depth="5" NCoef="0" IVar="-1" Cut="0.0000000000000000e+00" cType="1" res="5.3189028985798359e-03" rms="4.4186523556709290e-01" purity="7.0998972654342651e-01" nType="-99"/>
              </Node>
            </Node>
            <Node pos="r" depth="3" NCoef="0" IVar="5" Cut="-1.3900729417800903e+00" cType="1" res="-2.1721940487623215e-02" rms="4.7876212000846863e-01" purity="4.6287763118743896e-01" nType="0">
              <Node pos="l" depth="4" NCoef="0" IVar="-1" Cut="0.0000000000000000e+00" cType="1" res="6.4267643028870225e-04" rms="4.8661503195762634e-01" purity="5.4095423221588135e-01" nType="-99"/>
              <Node pos="r" depth="4" NCoef="0" IVar="-1" Cut="0.0000000000000000e+00" cType="1" res="-5.3901500068604946e-03" rms="4.6663978695869446e-01" purity="3.6838909983634949e-01" nType="-99"/>
            </Node>
          </Node>
        </Node>
      </Node>
    </BinaryTree>
    <BinaryTree type="DecisionTree" boostWeight="1.0000000000000000e+00" itree="45">
      <Node pos="s" depth="0" NCoef="0" IVar="3" Cut="7.7976024150848389e-01" cType="1" res="1.1331734247505665e-02" rms="4.0402826666831970e-01" purity="4.9987363815307617e-01" nType="0">
        <Node pos="l" depth="1" NCoef="0" IVar="1" Cut="1.1248696595430374e-01" cType="1" res="-2.0410256460309029e-02" rms="3.8499152660369873e-01" purity="2.5981450080871582e-01" nType="0">
          <Node pos="l" depth="2" NCoef="0" IVar="5" Cut="-1.8915459513664246e-01" cType="1" res="6.1934166587889194e-03" rms="4.3647226691246033e-01" purity="3.9615648984909058e-01" nType="0">
            <Node pos="l" depth="3" NCoef="0" IVar="3" Cut="4.6074008941650391e-01" cType="1" res="1.3943183235824108e-02" rms="4.5296955108642578e-01" purity="4.3820723891258240e-01" nType="0">
              <Node pos="l" depth="4" NCoef="0" IVar="6" Cut="1.5277552604675293e-01" cType="1" res="-1.7772531136870384e-02" rms="3.5638046264648438e-01" purity="1.6226923465728760e-01" nType="0">
                <Node pos="l" depth="5" NCoef="0" IVar="-1" Cut="0.0000000000000000e+00" cType="1" res="-8.5280789062380791e-03" rms="3.0960130691528320e-01" purity="1.1258361488580704e-01" nType="-99"/>
                <Node pos="r" depth="5" NCoef="0" IVar="-1" Cut="0.0000000000000000e+00" cType="1" res="3.0807342845946550e-03" rms="4.2664319276809692e-01" purity="2.5378236174583435e-01" nType="-99"/>
              </Node>
              <Node pos="r" depth="4" NCoef="0" IVar="6" Cut="5.0349976867437363e-02" cType="1" res="2.3231299594044685e-02" rms="4.7717329859733582e-01" purity="5.1901710033416748e-01" nType="0">
                <Node pos="l" depth="5" NCoef="0" IVar="2" Cut="5.6287227630615234e+01" cType="1" res="-2.7886233292520046e-03" rms="4.7556009888648987e-01" purity="5.1468259096145630e-01" nType="0">
                  <Node pos="l" depth="6" NCoef="0" IVar="-1" Cut="0.0000000000000000e+00" cType="1" res="2.9537745285779238e-03" rms="4.7594150900840759e-01" purity="5.7303702831268311e-01" nType="-99"/>
                  <Node pos="r" depth="6" NCoef="0" IVar="-1" Cut="0.0000000000000000e+00" cType="1" res="-2.9410182032734156e-03" rms="4.7344306111335754e-01" purity="4.7059857845306396e-01" nType="-99"/>
                </Node>
                <Node pos="r" depth="5" NCoef="0" IVar="2" Cut="1.2016442871093750e+02" cType="1" res="3.4442197531461716e-02" rms="4.7742974758148193e-01" purity="5.2088469266891479e-01" nType="0">
                  <Node pos="l" depth="6" NCoef="0" IVar="-1" Cut="0.0000000000000000e+00" cType="1" res="7.3174396529793739e-03" rms="4.7026351094245911e-01" purity="6.2252014875411987e-01" nType="-99"/>
                  <Node pos="r" depth="6" NCoef="0" IVar="6" Cut="9.3846820294857025e-02" cType="1" res="1.5820896252989769e-02" rms="4.7827574610710144e-01" purity="4.8770150542259216e-01" nType="0">
                    <Node pos="l" depth="7" NCoef="0" IVar="-1" Cut="0.0000000000000000e+00" cType="1" res="-1.0436293086968362e-04" rms="4.7405707836151123e-01" purity="4.9082615971565247e-01" nType="-99"/>
                    <Node pos="r" depth="7" NCoef="0" IVar="-1" Cut="0.0000000000000000e+00" cType="1" res="3.1531110871583223e-03" rms="4.8207738995552063e-01" purity="4.8437255620956421e-01" nType="-99"/>
                  </Node>
                </Node>
              </Node>
            </Node>
            <Node pos="r" depth="3" NCoef="0" IVar="-1" Cut="0.0000000000000000e+00" cType="1" res="-9.3365721404552460e-03" rms="3.0081471800804138e-01" purity="1.1818371713161469e-01" nType="-99"/>
          </Node>
          <Node pos="r" depth="2" NCoef="0" IVar="4" Cut="-1.6672791242599487e+00" cType="1" res="-3.1385716050863266e-02" rms="3.6105298995971680e-01" purity="2.0356604456901550e-01" nType="0">
            <Node pos="l" depth="3" NCoef="0" IVar="0" Cut="6.4489156007766724e-01" cType="1" res="-3.8449151907116175e-03" rms="4.3226906657218933e-01" purity="3.3813360333442688e-01" nType="0">
              <Node pos="l" depth="4" NCoef="0" IVar="6" Cut="5.9647742658853531e-02" cType="1" res="1.4603137969970703e-02" rms="4.8541513085365295e-01" purity="4.8715984821319580e-01" nType="0">
                <Node pos="l" depth="5" NCoef="0" IVar="-1" Cut="0.0000000000000000e+00" cType="1" res="-5.9009913820773363e-04" rms="4.7980028390884399e-01" purity="4.7607055306434631e-01" nType="-99"/>
                <Node pos="r" depth="5" NCoef="0" IVar="-1" Cut="0.0000000000000000e+00" cType="1" res="3.2477432396262884e-03" rms="4.9035400152206421e-01" purity="4.9901831150054932e-01" nType="-99"/>
              </Node>
              <Node pos="r" depth="4" NCoef="0" IVar="6" Cut="1.0086406767368317e-01" cType="1" res="-2.4083377793431282e-02" rms="3.6410024762153625e-01" purity="1.7464412748813629e-01" nType="0">
                <Node pos="l" depth="5" NCoef="0" IVar="-1" Cut="0.0000000000000000e+00" cType="1" res="-6.2741823494434357e-03" rms="3.4862443804740906e-01" purity="1.5953694283962250e-01" nType="-99"/>
                <Node pos="r" depth="5" NCoef="0" IVar="-1" Cut="0.0000000000000000e+00" cType="1" res="-2.0774998702108860e-03" rms="3.8054022192955017e-01" purity="1.9176420569419861e-01" nType="-99"/>
              </Node>
            </Node>
            <Node pos="r" depth="3" NCoef="0" IVar="6" Cut="5.1537897437810898e-02" cType="1" res="-3.6322876811027527e-02" rms="3.4651237726211548e-01" purity="1.7944251000881195e-01" nType="0">
              <Node pos="l" depth="4" NCoef="0" IVar="7" Cut="3.0000000000000000e+00" cType="1" res="-5.6225802749395370e-02" rms="3.4774500131607056e-01" purity="1.8276831507682800e-01" nType="0">
                <Node pos="l" depth="5" NCoef="0" IVar="-1" Cut="0.0000000000000000e+00" cType="1" res="-1.0288145393133163e-02" rms="4.1303899884223938e-01" purity="2.6103144884109497e-01" nType="-99"/>
                <Node pos="r" depth="5" NCoef="0" IVar="2" Cut="6.9508148193359375e+01" cType="1" res="-4.9154598265886307e-02" rms="3.3402982354164124e-01" purity="1.6591867804527283e-01" nType="0">
                  <Node pos="l" depth="6" NCoef="0" IVar="3" Cut="4.9073722958564758e-01" cType="1" res="-3.5952653735876083e-02" rms="3.5420405864715576e-01" purity="1.9327779114246368e-01" nType="0">
                    <Node pos="l" depth="7" NCoef="0" IVar="-1" Cut="0.0000000000000000e+00" cType="1" res="-1.4431982301175594e-02" rms="2.3119151592254639e-01" purity="5.8857254683971405e-02" nType="-99"/>
                    <Node pos="r" depth="7" NCoef="0" IVar="-1" Cut="0.0000000000000000e+00" cType="1" res="-2.5334076490253210e-03" rms="4.5085909962654114e-01" purity="3.3909067511558533e-01" nType="-99"/>
                  </Node>
                  <Node pos="r" depth="6" NCoef="0" IVar="2" Cut="1.3848667907714844e+02" cType="1" res="-6.2262184917926788e-02" rms="3.1216299533843994e-01" purity="1.3875509798526764e-01" nType="0">
                    <Node pos="l" depth="7" NCoef="0" IVar="-1" Cut="0.0000000000000000e+00" cType="1" res="-1.0210919193923473e-02" rms="3.1533643603324890e-01" purity="1.4379440248012543e-01" nType="-99"/>
                    <Node pos="r" depth="7" NCoef="0" IVar="-1" Cut="0.0000000000000000e+00" cType="1" res="-1.2460378929972649e-02" rms="3.0761545896530151e-01" purity="1.3191097974777222e-01" nType="-99"/>
                  </Node>
                </Node>
              </Node>
              <Node pos="r" depth="4" NCoef="0" IVar="2" Cut="1.6387190246582031e+02" cType="1" res="-3.1391326338052750e-02" rms="3.4555131196975708e-01" purity="1.7862540483474731e-01" nType="0">
                <Node pos="l" depth="5" NCoef="0" IVar="5" Cut="-1.4302112162113190e-01" cType="1" res="-1.0519466362893581e-02" rms="3.8064301013946533e-01" purity="2.3972305655479431e-01" nType="0">
                  <Node pos="l" depth="6" NCoef="0" IVar="3" Cut="3.6108714342117310e-01" cType="1" res="-1.0164243867620826e-03" rms="4.0612688660621643e-01" purity="2.7858680486679077e-01" nType="0">
                    <Node pos="l" depth="7" NCoef="0" IVar="-1" Cut="0.0000000000000000e+00" cType="1" res="-1.1885421350598335e-02" rms="2.4941527843475342e-01" purity="6.7401051521301270e-02" nType="-99"/>
                    <Node pos="r" depth="7" NCoef="0" IVar="-1" Cut="0.0000000000000000e+00" cType="1" res="1.1611453955993056e-03" rms="4.4551050662994385e-01" purity="3.4862810373306274e-01" nType="-99"/>
                  </Node>
                  <Node pos="r" depth="6" NCoef="0" IVar="-1" Cut="0.0000000000000000e+00" cType="1" res="-1.7104448750615120e-02" rms="2.1713347733020782e-01" purity="5.5049348622560501e-02" nType="-99"/>
                </Node>
                <Node pos="r" depth="5" NCoef="0" IVar="6" Cut="9.6167519688606262e-02" cType="1" res="-4.1924577206373215e-02" rms="3.2590553164482117e-01" purity="1.4779169857501984e-01" nType="0">
                  <Node pos="l" depth="6" NCoef="0" IVar="2" Cut="3.3232565307617188e+02" cType="1" res="-5.7170603424310684e-02" rms="3.2411009073257446e-01" purity="1.5687093138694763e-01" nType="0">
                    <Node pos="l" depth="7" NCoef="0" IVar="-1" Cut="0.0000000000000000e+00" cType="1" res="-9.1961808502674103e-03" rms="3.2690316438674927e-01" purity="1.6158922016620636e-01" nType="-99"/>
                    <Node pos="r" depth="7" NCoef="0" IVar="-1" Cut="0.0000000000000000e+00" cType="1" res="-1.1977924965322018e-02" rms="3.1583362817764282e-01" purity="1.4378781616687775e-01" nType="-99"/>
                  </Node>
                  <Node pos="r" depth="6" NCoef="0" IVar="5" Cut="-1.8129684925079346e+00" cType="1" res="-3.5493981093168259e-02" rms="3.2644641399383545e-01" purity="1.4396218955516815e-01" nType="0">
                    <Node pos="l" depth="7" NCoef="0" IVar="-1" Cut="0.0000000000000000e+00" cType="1" res="-3.6002530250698328e-03" rms="3.7689110636711121e-01" purity="2.0268729329109192e-01" nType="-99"/>
                    <Node pos="r" depth="7" NCoef="0" IVar="-1" Cut="0.0000000000000000e+00" cType="1" res="-9.8095331341028214e-03" rms="2.8975486755371094e-01" purity="1.0682429373264313e-01" nType="-99"/>
                  </Node>
                </Node>
              </Node>
            </Node>
          </Node>
        </Node>
        <Node pos="r" depth="1" NCoef="0" IVar="5" Cut="-8.5891050100326538e-01" cType="1" res="4.2559932917356491e-02" rms="4.1958272457122803e-01" purity="7.3604708909988403e-01" nType="0">
          <Node pos="l" depth="2" NCoef="0" IVar="1" Cut="1.2501233816146851e+00" cType="1" res="4.6724051237106323e-02" rms="4.1475513577461243e-01" purity="7.5346577167510986e-01" nType="0">
            <Node pos="l" depth="3" NCoef="0" IVar="5" Cut="-2.7390172481536865e+00" cType="1" res="5.1023285835981369e-02" rms="4.0627881884574890e-01" purity="7.7476882934570312e-01" nType="0">
              <Node pos="l" depth="4" NCoef="0" IVar="1" Cut="3.3052340149879456e-01" cType="1" res="6.2606863677501678e-02" rms="3.7757390737533569e-01" purity="8.1736016273498535e-01" nType="0">
                <Node pos="l" depth="5" NCoef="0" IVar="3" Cut="8.5435914993286133e-01" cType="1" res="6.8114869296550751e-02" rms="3.6105418205261230e-01" purity="8.4004658460617065e-01" nType="0">
                  <Node pos="l" depth="6" NCoef="0" IVar="-1" Cut="0.0000000000000000e+00" cType="1" res="4.1126282885670662e-03" rms="4.3290144205093384e-01" purity="7.4026238918304443e-01" nType="-99"/>
                  <Node pos="r" depth="6" NCoef="0" IVar="3" Cut="1.0115246772766113e+00" cType="1" res="7.1116104722023010e-02" rms="3.5132849216461182e-01" purity="8.5201913118362427e-01" nType="0">
                    <Node pos="l" depth="7" NCoef="0" IVar="-1" Cut="0.0000000000000000e+00" cType="1" res="7.7803074382245541e-03" rms="3.5515797138214111e-01" purity="8.4800660610198975e-01" nType="-99"/>
                    <Node pos="r" depth="7" NCoef="0" IVar="-1" Cut="0.0000000000000000e+00" cType="1" res="9.3575930222868919e-03" rms="3.3003035187721252e-01" purity="8.7325185537338257e-01" nType="-99"/>
                  </Node>
                </Node>
                <Node pos="r" depth="5" NCoef="0" IVar="4" Cut="-1.0341894626617432e+00" cType="1" res="4.7221355140209198e-02" rms="4.1990974545478821e-01" purity="7.5399011373519897e-01" nType="0">
                  <Node pos="l" depth="6" NCoef="0" IVar="-1" Cut="0.0000000000000000e+00" cType="1" res="2.9443234670907259e-03" rms="4.4830411672592163e-01" purity="7.0273214578628540e-01" nType="-99"/>
                  <Node pos="r" depth="6" NCoef="0" IVar="5" Cut="-3.0218770503997803e+00" cType="1" res="5.7406496256589890e-02" rms="3.9854037761688232e-01" purity="7.8983122110366821e-01" nType="0">
                    <Node pos="l" depth="7" NCoef="0" IVar="-1" Cut="0.0000000000000000e+00" cType="1" res="6.3751651905477047e-03" rms="3.9106860756874084e-01" purity="8.0013799667358398e-01" nType="-99"/>
                    <Node pos="r" depth="7" NCoef="0" IVar="-1" Cut="0.0000000000000000e+00" cType="1" res="5.1310881972312927e-03" rms="4.0849477052688599e-01" purity="7.7567082643508911e-01" nType="-99"/>
                  </Node>
                </Node>
              </Node>
              <Node pos="r" depth="4" NCoef="0" IVar="0" Cut="6.2516909837722778e-01" cType="1" res="4.2501524090766907e-02" rms="4.2596265673637390e-01" purity="7.4343538284301758e-01" nType="0">
                <Node pos="l" depth="5" NCoef="0" IVar="1" Cut="1.7442324757575989e-01" cType="1" res="4.4866885989904404e-02" rms="4.2191532254219055e-01" purity="7.5761073827743530e-01" nType="0">
                  <Node pos="l" depth="6" NCoef="0" IVar="3" Cut="9.7536629438400269e-01" cType="1" res="5.2408996969461441e-02" rms="4.0627226233482361e-01" purity="7.8556591272354126e-01" nType="0">
                    <Node pos="l" depth="7" NCoef="0" IVar="-1" Cut="0.0000000000000000e+00" cType="1" res="4.3111015111207962e-03" rms="4.2846596240997314e-01" purity="7.5183206796646118e-01" nType="-99"/>
                    <Node pos="r" depth="7" NCoef="0" IVar="-1" Cut="0.0000000000000000e+00" cType="1" res="6.1346669681370258e-03" rms="3.8485285639762878e-01" purity="8.1621724367141724e-01" nType="-99"/>
                  </Node>
                  <Node pos="r" depth="6" NCoef="0" IVar="0" Cut="2.0151374861598015e-02" cType="1" res="3.1929612159729004e-02" rms="4.4718062877655029e-01" purity="7.0965814590454102e-01" nType="0">
                    <Node pos="l" depth="7" NCoef="0" IVar="-1" Cut="0.0000000000000000e+00" cType="1" res="3.5860859788954258e-03" rms="4.3878221511840820e-01" purity="7.3067986965179443e-01" nType="-99"/>
                    <Node pos="r" depth="7" NCoef="0" IVar="-1" Cut="0.0000000000000000e+00" cType="1" res="-2.2381467715604231e-05" rms="4.8450112342834473e-01" purity="6.0789400339126587e-01" nType="-99"/>
                  </Node>
                </Node>
                <Node pos="r" depth="5" NCoef="0" IVar="-1" Cut="0.0000000000000000e+00" cType="1" res="-1.5771269681863487e-04" rms="4.9360278248786926e-01" purity="4.7796371579170227e-01" nType="-99"/>
              </Node>
            </Node>
            <Node pos="r" depth="3" NCoef="0" IVar="3" Cut="9.7606474161148071e-01" cType="1" res="1.1525289155542850e-02" rms="4.7708398103713989e-01" purity="5.7905310392379761e-01" nType="0">
              <Node pos="l" depth="4" NCoef="0" IVar="4" Cut="-1.6406010389328003e+00" cType="1" res="-1.0652672499418259e-02" rms="4.9013200402259827e-01" purity="5.1498609781265259e-01" nType="0">
                <Node pos="l" depth="5" NCoef="0" IVar="-1" Cut="0.0000000000000000e+00" cType="1" res="9.9059753119945526e-04" rms="4.8885774612426758e-01" purity="5.5286461114883423e-01" nType="-99"/>
                <Node pos="r" depth="5" NCoef="0" IVar="-1" Cut="0.0000000000000000e+00" cType="1" res="-3.1000257004052401e-03" rms="4.9037492275238037e-01" purity="4.7374367713928223e-01" nType="-99"/>
              </Node>
              <Node pos="r" depth="4" NCoef="0" IVar="4" Cut="-5.6348794698715210e-01" cType="1" res="2.7758626267313957e-02" rms="4.6663483977317810e-01" purity="6.2594747543334961e-01" nType="0">
                <Node pos="l" depth="5" NCoef="0" IVar="-1" Cut="0.0000000000000000e+00" cType="1" res="4.8114711535163224e-04" rms="4.7337651252746582e-01" purity="5.8696234226226807e-01" nType="-99"/>
                <Node pos="r" depth="5" NCoef="0" IVar="-1" Cut="0.0000000000000000e+00" cType="1" res="4.1158879175782204e-03" rms="4.6015495061874390e-01" purity="6.5840256214141846e-01" nType="-99"/>
              </Node>
            </Node>
          </Node>
          <Node pos="r" depth="2" NCoef="0" IVar="5" Cut="-2.0482324063777924e-01" cType="1" res="-1.3221834786236286e-02" rms="4.7609031200408936e-01" purity="5.0270891189575195e-01" nType="0">
            <Node pos="l" depth="3" NCoef="0" IVar="7" Cut="2.0000000000000000e+00" cType="1" res="1.3119745999574661e-02" rms="4.7391900420188904e-01" purity="5.5221533775329590e-01" nType="0">
              <Node pos="l" depth="4" NCoef="0" IVar="-1" Cut="0.0000000000000000e+00" cType="1" res="2.1086430642753839e-03" rms="4.7346860170364380e-01" purity="5.9567403793334961e-01" nType="-99"/>
              <Node pos="r" depth="4" NCoef="0" IVar="-1" Cut="0.0000000000000000e+00" cType="1" res="-5.8996555162593722e-04" rms="4.8585268855094910e-01" purity="5.0445801019668579e-01" nType="-99"/>
            </Node>
            <Node pos="r" depth="3" NCoef="0" IVar="-1" Cut="0.0000000000000000e+00" cType="1" res="-5.5664880201220512e-03" rms="4.6554210782051086e-01" purity="4.0325859189033508e-01" nType="-99"/>
          </Node>
        </Node>
      </Node>
    </BinaryTree>
    <BinaryTree type="DecisionTree" boostWeight="1.0000000000000000e+00" itree="46">
      <Node pos="s" depth="0" NCoef="0" IVar="3" Cut="7.8013855218887329e-01" cType="1" res="1.2368036434054375e-02" rms="4.0364971756935120e-01" purity="5.0060838460922241e-01" nType="0">
        <Node pos="l" depth="1" NCoef="0" IVar="3" Cut="5.0748562812805176e-01" cType="1" res="-1.8173083662986755e-02" rms="3.8546836376190186e-01" purity="2.6029974222183228e-01" nType="0">
          <Node pos="l" depth="2" NCoef="0" IVar="6" Cut="1.0270782560110092e-01" cType="1" res="-3.2759599387645721e-02" rms="2.9403960704803467e-01" purity="1.0656882822513580e-01" nType="0">
            <Node pos="l" depth="3" NCoef="0" IVar="2" Cut="5.9444839477539062e+01" cType="1" res="-4.5405492186546326e-02" rms="2.4569447338581085e-01" purity="6.8820573389530182e-02" nType="0">
              <Node pos="l" depth="4" NCoef="0" IVar="-1" Cut="0.0000000000000000e+00" cType="1" res="-6.8149054422974586e-03" rms="2.8982385993003845e-01" purity="1.0042393207550049e-01" nType="-99"/>
              <Node pos="r" depth="4" NCoef="0" IVar="0" Cut="9.6733754873275757e-01" cType="1" res="-4.9069363623857498e-02" rms="2.3577484488487244e-01" purity="6.2541902065277100e-02" nType="0">
                <Node pos="l" depth="5" NCoef="0" IVar="-1" Cut="0.0000000000000000e+00" cType="1" res="-1.1382691562175751e-02" rms="3.3428597450256348e-01" purity="1.3367237150669098e-01" nType="-99"/>
                <Node pos="r" depth="5" NCoef="0" IVar="4" Cut="7.4167257547378540e-01" cType="1" res="-4.6107843518257141e-02" rms="2.1643021702766418e-01" purity="5.1544737070798874e-02" nType="0">
                  <Node pos="l" depth="6" NCoef="0" IVar="5" Cut="-3.0274736881256104e+00" cType="1" res="-4.2702641338109970e-02" rms="2.4787183105945587e-01" purity="6.8085163831710815e-02" nType="0">
                    <Node pos="l" depth="7" NCoef="0" IVar="-1" Cut="0.0000000000000000e+00" cType="1" res="-1.8276350572705269e-02" rms="2.0545993745326996e-01" purity="4.4801469892263412e-02" nType="-99"/>
                    <Node pos="r" depth="7" NCoef="0" IVar="-1" Cut="0.0000000000000000e+00" cType="1" res="-9.8019493743777275e-03" rms="2.6399409770965576e-01" purity="7.8295081853866577e-02" nType="-99"/>
                  </Node>
                  <Node pos="r" depth="6" NCoef="0" IVar="6" Cut="7.9358272254467010e-02" cType="1" res="-5.2800275385379791e-02" rms="1.3447454571723938e-01" purity="1.9036924466490746e-02" nType="0">
                    <Node pos="l" depth="7" NCoef="0" IVar="-1" Cut="0.0000000000000000e+00" cType="1" res="-2.3803737014532089e-02" rms="1.1715695261955261e-01" purity="1.4215338043868542e-02" nType="-99"/>
                    <Node pos="r" depth="7" NCoef="0" IVar="-1" Cut="0.0000000000000000e+00" cType="1" res="-1.9520461559295654e-02" rms="1.5876561403274536e-01" purity="2.6975208893418312e-02" nType="-99"/>
                  </Node>
                </Node>
              </Node>
            </Node>
            <Node pos="r" depth="3" NCoef="0" IVar="2" Cut="1.8859780883789062e+02" cType="1" res="-2.2357452660799026e-02" rms="3.2815134525299072e-01" purity="1.3761946558952332e-01" nType="0">
              <Node pos="l" depth="4" NCoef="0" IVar="1" Cut="8.2373362779617310e-01" cType="1" res="5.1422384567558765e-03" rms="3.4963688254356384e-01" purity="1.6414524614810944e-01" nType="0">
                <Node pos="l" depth="5" NCoef="0" IVar="-1" Cut="0.0000000000000000e+00" cType="1" res="6.6394065506756306e-03" rms="4.0369921922683716e-01" purity="2.3764155805110931e-01" nType="-99"/>
                <Node pos="r" depth="5" NCoef="0" IVar="-1" Cut="0.0000000000000000e+00" cType="1" res="-5.0260163843631744e-03" rms="3.0400270223617554e-01" purity="1.1299183964729309e-01" nType="-99"/>
              </Node>
              <Node pos="r" depth="4" NCoef="0" IVar="6" Cut="1.6924424469470978e-01" cType="1" res="-2.8073241934180260e-02" rms="3.2321295142173767e-01" purity="1.3210609555244446e-01" nType="0">
                <Node pos="l" depth="5" NCoef="0" IVar="1" Cut="9.4984978437423706e-02" cType="1" res="-4.0684111416339874e-02" rms="2.8505617380142212e-01" purity="9.9304772913455963e-02" nType="0">
                  <Node pos="l" depth="6" NCoef="0" IVar="-1" Cut="0.0000000000000000e+00" cType="1" res="-3.6523172166198492e-03" rms="3.4835016727447510e-01" purity="1.6120871901512146e-01" nType="-99"/>
                  <Node pos="r" depth="6" NCoef="0" IVar="2" Cut="5.2606445312500000e+02" cType="1" res="-4.6466048806905746e-02" rms="2.6480871438980103e-01" purity="8.2353964447975159e-02" nType="0">
                    <Node pos="l" depth="7" NCoef="0" IVar="-1" Cut="0.0000000000000000e+00" cType="1" res="-1.1259200051426888e-02" rms="2.6772701740264893e-01" purity="8.4640666842460632e-02" nType="-99"/>
                    <Node pos="r" depth="7" NCoef="0" IVar="-1" Cut="0.0000000000000000e+00" cType="1" res="-1.3131407089531422e-02" rms="2.5637885928153992e-01" purity="7.6074197888374329e-02" nType="-99"/>
                  </Node>
                </Node>
                <Node pos="r" depth="5" NCoef="0" IVar="5" Cut="-2.4550457000732422e+00" cType="1" res="-1.5506677329540253e-02" rms="3.5676082968711853e-01" purity="1.6479215025901794e-01" nType="0">
                  <Node pos="l" depth="6" NCoef="0" IVar="-1" Cut="0.0000000000000000e+00" cType="1" res="1.4409933937713504e-03" rms="4.1364318132400513e-01" purity="2.3953481018543243e-01" nType="-99"/>
                  <Node pos="r" depth="6" NCoef="0" IVar="2" Cut="4.2310662841796875e+02" cType="1" res="-2.3921821266412735e-02" rms="3.3527761697769165e-01" purity="1.3991868495941162e-01" nType="0">
                    <Node pos="l" depth="7" NCoef="0" IVar="-1" Cut="0.0000000000000000e+00" cType="1" res="-1.0746044572442770e-03" rms="3.4905186295509338e-01" purity="1.5737909078598022e-01" nType="-99"/>
                    <Node pos="r" depth="7" NCoef="0" IVar="-1" Cut="0.0000000000000000e+00" cType="1" res="-6.6615110263228416e-03" rms="3.2811474800109863e-01" purity="1.3157555460929871e-01" nType="-99"/>
                  </Node>
                </Node>
              </Node>
            </Node>
          </Node>
          <Node pos="r" depth="2" NCoef="0" IVar="5" Cut="3.5677805542945862e-01" cType="1" res="-2.4106919299811125e-03" rms="4.6394217014312744e-01" purity="4.2642349004745483e-01" nType="0">
            <Node pos="l" depth="3" NCoef="0" IVar="6" Cut="6.3906051218509674e-02" cType="1" res="1.8829007167369127e-03" rms="4.7109487652778625e-01" purity="4.4459605216979980e-01" nType="0">
              <Node pos="l" depth="4" NCoef="0" IVar="7" Cut="3.0000000000000000e+00" cType="1" res="-1.4091950841248035e-02" rms="4.6447002887725830e-01" purity="4.3475413322448730e-01" nType="0">
                <Node pos="l" depth="5" NCoef="0" IVar="3" Cut="7.4495291709899902e-01" cType="1" res="-4.8820424824953079e-02" rms="4.6291902661323547e-01" purity="4.1114842891693115e-01" nType="0">
                  <Node pos="l" depth="6" NCoef="0" IVar="-1" Cut="0.0000000000000000e+00" cType="1" res="-7.2504552081227303e-03" rms="4.4869872927665710e-01" purity="3.3175706863403320e-01" nType="-99"/>
                  <Node pos="r" depth="6" NCoef="0" IVar="-1" Cut="0.0000000000000000e+00" cType="1" res="-1.0320844594389200e-03" rms="4.8251876235008240e-01" purity="5.3819423913955688e-01" nType="-99"/>
                </Node>
                <Node pos="r" depth="5" NCoef="0" IVar="2" Cut="7.2202789306640625e+01" cType="1" res="-1.1989597696810961e-03" rms="4.6816447377204895e-01" purity="4.4422224164009094e-01" nType="0">
                  <Node pos="l" depth="6" NCoef="0" IVar="4" Cut="-3.2291266322135925e-01" cType="1" res="2.4390036240220070e-02" rms="4.7329846024513245e-01" purity="4.8482963442802429e-01" nType="0">
                    <Node pos="l" depth="7" NCoef="0" IVar="-1" Cut="0.0000000000000000e+00" cType="1" res="3.4538700710982084e-03" rms="4.7633430361747742e-01" purity="5.3265959024429321e-01" nType="-99"/>
                    <Node pos="r" depth="7" NCoef="0" IVar="-1" Cut="0.0000000000000000e+00" cType="1" res="2.9575487133115530e-04" rms="4.6782171726226807e-01" purity="4.1189807653427124e-01" nType="-99"/>
                  </Node>
                  <Node pos="r" depth="6" NCoef="0" IVar="3" Cut="6.3940632343292236e-01" cType="1" res="-2.1472243592143059e-02" rms="4.6305379271507263e-01" purity="4.1205048561096191e-01" nType="0">
                    <Node pos="l" depth="7" NCoef="0" IVar="-1" Cut="0.0000000000000000e+00" cType="1" res="-5.1745483651757240e-03" rms="4.3088722229003906e-01" purity="2.7053987979888916e-01" nType="-99"/>
                    <Node pos="r" depth="7" NCoef="0" IVar="-1" Cut="0.0000000000000000e+00" cType="1" res="-5.9812428662553430e-04" rms="4.8261043429374695e-01" purity="5.0589519739151001e-01" nType="-99"/>
                  </Node>
                </Node>
              </Node>
              <Node pos="r" depth="4" NCoef="0" IVar="2" Cut="2.2430407714843750e+02" cType="1" res="1.5153010375797749e-02" rms="4.7377189993858337e-01" purity="4.5240980386734009e-01" nType="0">
                <Node pos="l" depth="5" NCoef="0" IVar="6" Cut="1.0429186373949051e-01" cType="1" res="3.5938266664743423e-02" rms="4.7658327221870422e-01" purity="4.9097815155982971e-01" nType="0">
                  <Node pos="l" depth="6" NCoef="0" IVar="3" Cut="6.7459672689437866e-01" cType="1" res="2.5616334751248360e-02" rms="4.7463771700859070e-01" purity="4.9085134267807007e-01" nType="0">
                    <Node pos="l" depth="7" NCoef="0" IVar="-1" Cut="0.0000000000000000e+00" cType="1" res="9.4296049792319536e-04" rms="4.7353991866111755e-01" purity="4.0238952636718750e-01" nType="-99"/>
                    <Node pos="r" depth="7" NCoef="0" IVar="-1" Cut="0.0000000000000000e+00" cType="1" res="3.6232417915016413e-03" rms="4.7522741556167603e-01" purity="5.9073686599731445e-01" nType="-99"/>
                  </Node>
                  <Node pos="r" depth="6" NCoef="0" IVar="-1" Cut="0.0000000000000000e+00" cType="1" res="5.8313831686973572e-03" rms="4.8093783855438232e-01" purity="4.9134677648544312e-01" nType="-99"/>
                </Node>
                <Node pos="r" depth="5" NCoef="0" IVar="6" Cut="9.6005447208881378e-02" cType="1" res="-6.3389264978468418e-03" rms="4.6988141536712646e-01" purity="4.1253021359443665e-01" nType="0">
                  <Node pos="l" depth="6" NCoef="0" IVar="3" Cut="6.6584712266921997e-01" cType="1" res="-2.6327999308705330e-02" rms="4.6401026844978333e-01" purity="4.0707296133041382e-01" nType="0">
                    <Node pos="l" depth="7" NCoef="0" IVar="-1" Cut="0.0000000000000000e+00" cType="1" res="-6.4158942550420761e-03" rms="4.3850558996200562e-01" purity="2.8864318132400513e-01" nType="-99"/>
                    <Node pos="r" depth="7" NCoef="0" IVar="-1" Cut="0.0000000000000000e+00" cType="1" res="2.0181699073873460e-04" rms="4.8510804772377014e-01" purity="5.1870018243789673e-01" nType="-99"/>
                  </Node>
                  <Node pos="r" depth="6" NCoef="0" IVar="5" Cut="-1.9699052572250366e+00" cType="1" res="9.1768279671669006e-03" rms="4.7380757331848145e-01" purity="4.1676616668701172e-01" nType="0">
                    <Node pos="l" depth="7" NCoef="0" IVar="-1" Cut="0.0000000000000000e+00" cType="1" res="2.7847392484545708e-03" rms="4.8268085718154907e-01" purity="4.6362441778182983e-01" nType="-99"/>
                    <Node pos="r" depth="7" NCoef="0" IVar="-1" Cut="0.0000000000000000e+00" cType="1" res="-1.4418824575841427e-03" rms="4.6245276927947998e-01" purity="3.6354872584342957e-01" nType="-99"/>
                  </Node>
                </Node>
              </Node>
            </Node>
            <Node pos="r" depth="3" NCoef="0" IVar="-1" Cut="0.0000000000000000e+00" cType="1" res="-1.3153322972357273e-02" rms="3.0778405070304871e-01" purity="1.1458252370357513e-01" nType="-99"/>
          </Node>
        </Node>
        <Node pos="r" depth="1" NCoef="0" IVar="1" Cut="1.1949702501296997e+00" cType="1" res="4.2555358260869980e-02" rms="4.1866561770439148e-01" purity="7.3813319206237793e-01" nType="0">
          <Node pos="l" depth="2" NCoef="0" IVar="5" Cut="-2.0684401988983154e+00" cType="1" res="4.8470109701156616e-02" rms="4.1036325693130493e-01" purity="7.6305371522903442e-01" nType="0">
            <Node pos="l" depth="3" NCoef="0" IVar="2" Cut="8.3283554077148438e+01" cType="1" res="5.4872382432222366e-02" rms="3.9109843969345093e-01" purity="7.9982477426528931e-01" nType="0">
              <Node pos="l" depth="4" NCoef="0" IVar="6" Cut="3.3882293850183487e-02" cType="1" res="5.8648850768804550e-02" rms="3.8302990794181824e-01" purity="8.1194216012954712e-01" nType="0">
                <Node pos="l" depth="5" NCoef="0" IVar="3" Cut="1.0032497644424438e+00" cType="1" res="5.6340664625167847e-02" rms="3.8155719637870789e-01" purity="8.1365191936492920e-01" nType="0">
                  <Node pos="l" depth="6" NCoef="0" IVar="0" Cut="3.0916151404380798e-01" cType="1" res="5.1798701286315918e-02" rms="3.8839077949523926e-01" purity="8.0470299720764160e-01" nType="0">
                    <Node pos="l" depth="7" NCoef="0" IVar="-1" Cut="0.0000000000000000e+00" cType="1" res="5.9034735895693302e-03" rms="3.7972161173820496e-01" purity="8.2115477323532104e-01" nType="-99"/>
                    <Node pos="r" depth="7" NCoef="0" IVar="-1" Cut="0.0000000000000000e+00" cType="1" res="1.8282018136233091e-03" rms="4.7651901841163635e-01" purity="6.1389476060867310e-01" nType="-99"/>
                  </Node>
                  <Node pos="r" depth="6" NCoef="0" IVar="5" Cut="-2.9287407398223877e+00" cType="1" res="6.9574870169162750e-02" rms="3.6058264970779419e-01" purity="8.3972716331481934e-01" nType="0">
                    <Node pos="l" depth="7" NCoef="0" IVar="-1" Cut="0.0000000000000000e+00" cType="1" res="8.9271115139126778e-03" rms="3.3753105998039246e-01" purity="8.6374408006668091e-01" nType="-99"/>
                    <Node pos="r" depth="7" NCoef="0" IVar="-1" Cut="0.0000000000000000e+00" cType="1" res="6.0133733786642551e-03" rms="3.7992385029792786e-01" purity="8.1795024871826172e-01" nType="-99"/>
                  </Node>
                </Node>
                <Node pos="r" depth="5" NCoef="0" IVar="-1" Cut="0.0000000000000000e+00" cType="1" res="7.7814930118620396e-03" rms="4.0089550614356995e-01" purity="7.8912824392318726e-01" nType="-99"/>
              </Node>
              <Node pos="r" depth="4" NCoef="0" IVar="4" Cut="-2.5818495750427246e+00" cType="1" res="3.2207753509283066e-02" rms="4.3571183085441589e-01" purity="7.2710174322128296e-01" nType="0">
                <Node pos="l" depth="5" NCoef="0" IVar="-1" Cut="0.0000000000000000e+00" cType="1" res="5.3959395736455917e-03" rms="4.1586732864379883e-01" purity="7.6657521724700928e-01" nType="-99"/>
                <Node pos="r" depth="5" NCoef="0" IVar="6" Cut="5.0713546574115753e-02" cType="1" res="2.5378698483109474e-02" rms="4.4288516044616699e-01" purity="7.1198689937591553e-01" nType="0">
                  <Node pos="l" depth="6" NCoef="0" IVar="-1" Cut="0.0000000000000000e+00" cType="1" res="1.5408422332257032e-03" rms="4.4351691007614136e-01" purity="7.1211224794387817e-01" nType="-99"/>
                  <Node pos="r" depth="6" NCoef="0" IVar="-1" Cut="0.0000000000000000e+00" cType="1" res="3.9265891537070274e-03" rms="4.4136998057365417e-01" purity="7.1178817749023438e-01" nType="-99"/>
                </Node>
              </Node>
            </Node>
            <Node pos="r" depth="3" NCoef="0" IVar="5" Cut="-5.0143110752105713e-01" cType="1" res="3.3072721213102341e-02" rms="4.5298498868942261e-01" purity="6.7461967468261719e-01" nType="0">
              <Node pos="l" depth="4" NCoef="0" IVar="1" Cut="3.5007035732269287e-01" cType="1" res="3.9152089506387711e-02" rms="4.4744634628295898e-01" purity="6.9944763183593750e-01" nType="0">
                <Node pos="l" depth="5" NCoef="0" IVar="4" Cut="-2.2455026209354401e-01" cType="1" res="4.5531488955020905e-02" rms="4.3666273355484009e-01" purity="7.2793477773666382e-01" nType="0">
                  <Node pos="l" depth="6" NCoef="0" IVar="6" Cut="2.5793235749006271e-02" cType="1" res="3.9953183382749557e-02" rms="4.4009876251220703e-01" purity="7.2385567426681519e-01" nType="0">
                    <Node pos="l" depth="7" NCoef="0" IVar="-1" Cut="0.0000000000000000e+00" cType="1" res="3.0404038261622190e-03" rms="4.3566334247589111e-01" purity="7.3125869035720825e-01" nType="-99"/>
                    <Node pos="r" depth="7" NCoef="0" IVar="-1" Cut="0.0000000000000000e+00" cType="1" res="4.7168112359941006e-03" rms="4.4666510820388794e-01" purity="7.1235108375549316e-01" nType="-99"/>
                  </Node>
                  <Node pos="r" depth="6" NCoef="0" IVar="3" Cut="9.7471165657043457e-01" cType="1" res="5.5398005992174149e-02" rms="4.3034112453460693e-01" purity="7.3514950275421143e-01" nType="0">
                    <Node pos="l" depth="7" NCoef="0" IVar="-1" Cut="0.0000000000000000e+00" cType="1" res="3.6886509042233229e-03" rms="4.6686172485351562e-01" purity="6.6194933652877808e-01" nType="-99"/>
                    <Node pos="r" depth="7" NCoef="0" IVar="-1" Cut="0.0000000000000000e+00" cType="1" res="6.4086918719112873e-03" rms="4.0747812390327454e-01" purity="7.7749735116958618e-01" nType="-99"/>
                  </Node>
                </Node>
                <Node pos="r" depth="5" NCoef="0" IVar="4" Cut="-1.7220667004585266e-01" cType="1" res="2.1952122449874878e-02" rms="4.7487652301788330e-01" purity="6.2264138460159302e-01" nType="0">
                  <Node pos="l" depth="6" NCoef="0" IVar="-1" Cut="0.0000000000000000e+00" cType="1" res="9.1515341773629189e-04" rms="4.7908383607864380e-01" purity="6.1176067590713501e-01" nType="-99"/>
                  <Node pos="r" depth="6" NCoef="0" IVar="-1" Cut="0.0000000000000000e+00" cType="1" res="3.7374012172222137e-03" rms="4.6677225828170776e-01" purity="6.4164847135543823e-01" nType="-99"/>
                </Node>
              </Node>
              <Node pos="r" depth="4" NCoef="0" IVar="-1" Cut="0.0000000000000000e+00" cType="1" res="-8.0686819273978472e-04" rms="4.8753672838211060e-01" purity="5.0274783372879028e-01" nType="-99"/>
            </Node>
          </Node>
          <Node pos="r" depth="2" NCoef="0" IVar="5" Cut="-2.1259143352508545e+00" cType="1" res="-2.1448347251862288e-03" rms="4.7437885403633118e-01" purity="5.4979896545410156e-01" nType="0">
            <Node pos="l" depth="3" NCoef="0" IVar="3" Cut="9.9797737598419189e-01" cType="1" res="1.2780275195837021e-02" rms="4.7243392467498779e-01" purity="6.1351436376571655e-01" nType="0">
              <Node pos="l" depth="4" NCoef="0" IVar="4" Cut="-1.3698384761810303e+00" cType="1" res="-7.5509687885642052e-03" rms="4.8377123475074768e-01" purity="5.7177025079727173e-01" nType="0">
                <Node pos="l" depth="5" NCoef="0" IVar="-1" Cut="0.0000000000000000e+00" cType="1" res="6.0222082538530231e-04" rms="4.8899620771408081e-01" purity="5.6724220514297485e-01" nType="-99"/>
                <Node pos="r" depth="5" NCoef="0" IVar="-1" Cut="0.0000000000000000e+00" cType="1" res="-1.9300804706290364e-03" rms="4.7838124632835388e-01" purity="5.7604366540908813e-01" nType="-99"/>
              </Node>
              <Node pos="r" depth="4" NCoef="0" IVar="-1" Cut="0.0000000000000000e+00" cType="1" res="3.7408380303531885e-03" rms="4.5229959487915039e-01" purity="6.7882287502288818e-01" nType="-99"/>
            </Node>
            <Node pos="r" depth="3" NCoef="0" IVar="1" Cut="2.0458459854125977e+00" cType="1" res="-2.9060665518045425e-02" rms="4.7668650746345520e-01" purity="4.3489509820938110e-01" nType="0">
              <Node pos="l" depth="4" NCoef="0" IVar="-1" Cut="0.0000000000000000e+00" cType="1" res="6.4897228730842471e-04" rms="4.8358154296875000e-01" purity="4.8909655213356018e-01" nType="-99"/>
              <Node pos="r" depth="4" NCoef="0" IVar="-1" Cut="0.0000000000000000e+00" cType="1" res="-6.6156606189906597e-03" rms="4.6591797471046448e-01" purity="3.7630835175514221e-01" nType="-99"/>
            </Node>
          </Node>
        </Node>
      </Node>
    </BinaryTree>
    <BinaryTree type="DecisionTree" boostWeight="1.0000000000000000e+00" itree="47">
      <Node pos="s" depth="0" NCoef="0" IVar="3" Cut="7.7941602468490601e-01" cType="1" res="1.1063937097787857e-02" rms="4.0345686674118042e-01" purity="4.9984219670295715e-01" nType="0">
        <Node pos="l" depth="1" NCoef="0" IVar="1" Cut="-5.9356965124607086e-02" cType="1" res="-1.8836220726370811e-02" rms="3.8486891984939575e-01" purity="2.5875559449195862e-01" nType="0">
          <Node pos="l" depth="2" NCoef="0" IVar="4" Cut="1.6046545505523682e+00" cType="1" res="1.0456700809299946e-02" rms="4.4282186031341553e-01" purity="4.0869945287704468e-01" nType="0">
            <Node pos="l" depth="3" NCoef="0" IVar="3" Cut="6.8129235506057739e-01" cType="1" res="1.6516612842679024e-02" rms="4.5723894238471985e-01" purity="4.4368347525596619e-01" nType="0">
              <Node pos="l" depth="4" NCoef="0" IVar="6" Cut="5.0542745739221573e-02" cType="1" res="7.9155620187520981e-03" rms="4.4725948572158813e-01" purity="3.5261681675910950e-01" nType="0">
                <Node pos="l" depth="5" NCoef="0" IVar="-1" Cut="0.0000000000000000e+00" cType="1" res="-2.5990032590925694e-03" rms="4.3935298919677734e-01" purity="3.3105704188346863e-01" nType="-99"/>
                <Node pos="r" depth="5" NCoef="0" IVar="2" Cut="1.4957273864746094e+02" cType="1" res="1.4967407099902630e-02" rms="4.4874083995819092e-01" purity="3.5752391815185547e-01" nType="0">
                  <Node pos="l" depth="6" NCoef="0" IVar="-1" Cut="0.0000000000000000e+00" cType="1" res="5.3587183356285095e-03" rms="4.7516730427742004e-01" purity="4.6374282240867615e-01" nType="-99"/>
                  <Node pos="r" depth="6" NCoef="0" IVar="6" Cut="1.1572141945362091e-01" cType="1" res="3.2533819321542978e-03" rms="4.4046562910079956e-01" purity="3.2827675342559814e-01" nType="0">
                    <Node pos="l" depth="7" NCoef="0" IVar="-1" Cut="0.0000000000000000e+00" cType="1" res="-1.3289051130414009e-03" rms="4.3622902035713196e-01" purity="3.2763025164604187e-01" nType="-99"/>
                    <Node pos="r" depth="7" NCoef="0" IVar="-1" Cut="0.0000000000000000e+00" cType="1" res="2.1396521478891373e-03" rms="4.4417476654052734e-01" purity="3.2892093062400818e-01" nType="-99"/>
                  </Node>
                </Node>
              </Node>
              <Node pos="r" depth="4" NCoef="0" IVar="6" Cut="5.3398411720991135e-02" cType="1" res="3.3601645380258560e-02" rms="4.7598165273666382e-01" purity="6.2457734346389771e-01" nType="0">
                <Node pos="l" depth="5" NCoef="0" IVar="-1" Cut="0.0000000000000000e+00" cType="1" res="1.5840504784137011e-03" rms="4.7818285226821899e-01" purity="6.1181432008743286e-01" nType="-99"/>
                <Node pos="r" depth="5" NCoef="0" IVar="-1" Cut="0.0000000000000000e+00" cType="1" res="3.8676271215081215e-03" rms="4.7404488921165466e-01" purity="6.3385766744613647e-01" nType="-99"/>
              </Node>
            </Node>
            <Node pos="r" depth="3" NCoef="0" IVar="-1" Cut="0.0000000000000000e+00" cType="1" res="-1.0895623825490475e-02" rms="2.7345573902130127e-01" purity="9.0718090534210205e-02" nType="-99"/>
          </Node>
          <Node pos="r" depth="2" NCoef="0" IVar="5" Cut="-1.2460906505584717e+00" cType="1" res="-2.6528710499405861e-02" rms="3.6775419116020203e-01" purity="2.1937949955463409e-01" nType="0">
            <Node pos="l" depth="3" NCoef="0" IVar="5" Cut="-3.1012327671051025e+00" cType="1" res="-1.8001342192292213e-02" rms="4.0076872706413269e-01" purity="2.7272266149520874e-01" nType="0">
              <Node pos="l" depth="4" NCoef="0" IVar="4" Cut="-8.2074582576751709e-01" cType="1" res="-5.0811033695936203e-02" rms="3.3364087343215942e-01" purity="1.6003721952438354e-01" nType="0">
                <Node pos="l" depth="5" NCoef="0" IVar="0" Cut="1.2835165262222290e+00" cType="1" res="-6.5618351101875305e-02" rms="3.3396869897842407e-01" purity="1.6340194642543793e-01" nType="0">
                  <Node pos="l" depth="6" NCoef="0" IVar="-1" Cut="0.0000000000000000e+00" cType="1" res="-9.9126407876610756e-03" rms="3.9561015367507935e-01" purity="2.4521669745445251e-01" nType="-99"/>
                  <Node pos="r" depth="6" NCoef="0" IVar="-1" Cut="0.0000000000000000e+00" cType="1" res="-1.3729888014495373e-02" rms="2.4212333559989929e-01" purity="6.8237677216529846e-02" nType="-99"/>
                </Node>
                <Node pos="r" depth="5" NCoef="0" IVar="-1" Cut="0.0000000000000000e+00" cType="1" res="-5.5440147407352924e-03" rms="3.3196273446083069e-01" purity="1.5509366989135742e-01" nType="-99"/>
              </Node>
              <Node pos="r" depth="4" NCoef="0" IVar="0" Cut="1.2892082929611206e+00" cType="1" res="-1.1504327878355980e-02" rms="4.1245910525321960e-01" purity="2.9503679275512695e-01" nType="0">
                <Node pos="l" depth="5" NCoef="0" IVar="5" Cut="-2.1438670158386230e+00" cType="1" res="-9.1645075008273125e-04" rms="4.5894166827201843e-01" purity="3.9165481925010681e-01" nType="0">
                  <Node pos="l" depth="6" NCoef="0" IVar="1" Cut="1.2254468202590942e+00" cType="1" res="1.1049854569137096e-02" rms="4.6111008524894714e-01" purity="4.1085132956504822e-01" nType="0">
                    <Node pos="l" depth="7" NCoef="0" IVar="-1" Cut="0.0000000000000000e+00" cType="1" res="1.9702888093888760e-03" rms="4.6612766385078430e-01" purity="4.4022390246391296e-01" nType="-99"/>
                    <Node pos="r" depth="7" NCoef="0" IVar="-1" Cut="0.0000000000000000e+00" cType="1" res="-2.6032144669443369e-03" rms="4.3978321552276611e-01" purity="2.9868355393409729e-01" nType="-99"/>
                  </Node>
                  <Node pos="r" depth="6" NCoef="0" IVar="6" Cut="5.0778165459632874e-02" cType="1" res="-1.9812922924757004e-02" rms="4.5485582947731018e-01" purity="3.6134082078933716e-01" nType="0">
                    <Node pos="l" depth="7" NCoef="0" IVar="-1" Cut="0.0000000000000000e+00" cType="1" res="-5.1957308314740658e-03" rms="4.5210584998130798e-01" purity="3.4392005205154419e-01" nType="-99"/>
                    <Node pos="r" depth="7" NCoef="0" IVar="-1" Cut="0.0000000000000000e+00" cType="1" res="-1.1890641180798411e-03" rms="4.5531016588211060e-01" purity="3.6645874381065369e-01" nType="-99"/>
                  </Node>
                </Node>
                <Node pos="r" depth="5" NCoef="0" IVar="6" Cut="1.2866321206092834e-01" cType="1" res="-3.1270116567611694e-02" rms="3.0644184350967407e-01" purity="1.1466717720031738e-01" nType="0">
                  <Node pos="l" depth="6" NCoef="0" IVar="2" Cut="2.6736483764648438e+02" cType="1" res="-4.0447745472192764e-02" rms="2.7208441495895386e-01" purity="8.8400848209857941e-02" nType="0">
                    <Node pos="l" depth="7" NCoef="0" IVar="-1" Cut="0.0000000000000000e+00" cType="1" res="-8.8034002110362053e-03" rms="2.8201982378959656e-01" purity="9.6986748278141022e-02" nType="-99"/>
                    <Node pos="r" depth="7" NCoef="0" IVar="-1" Cut="0.0000000000000000e+00" cType="1" res="-1.4874986372888088e-02" rms="2.4280308187007904e-01" purity="6.5379627048969269e-02" nType="-99"/>
                  </Node>
                  <Node pos="r" depth="6" NCoef="0" IVar="7" Cut="5.0000000000000000e+00" cType="1" res="-1.6855893656611443e-02" rms="3.4820139408111572e-01" purity="1.5471923351287842e-01" nType="0">
                    <Node pos="l" depth="7" NCoef="0" IVar="-1" Cut="0.0000000000000000e+00" cType="1" res="1.4544255100190639e-03" rms="4.0550798177719116e-01" purity="2.2063419222831726e-01" nType="-99"/>
                    <Node pos="r" depth="7" NCoef="0" IVar="-1" Cut="0.0000000000000000e+00" cType="1" res="-6.9224969483911991e-03" rms="3.1943622231483459e-01" purity="1.2010588496923447e-01" nType="-99"/>
                  </Node>
                </Node>
              </Node>
            </Node>
            <Node pos="r" depth="3" NCoef="0" IVar="4" Cut="-3.6642689257860184e-02" cType="1" res="-4.3111629784107208e-02" rms="2.9237943887710571e-01" purity="1.1564452201128006e-01" nType="0">
              <Node pos="l" depth="4" NCoef="0" IVar="-1" Cut="0.0000000000000000e+00" cType="1" res="-2.7603961061686277e-03" rms="4.0406230092048645e-01" purity="2.5033569335937500e-01" nType="-99"/>
              <Node pos="r" depth="4" NCoef="0" IVar="6" Cut="9.0787701308727264e-02" cType="1" res="-4.6683359891176224e-02" rms="2.7087315917015076e-01" purity="9.4832912087440491e-02" nType="0">
                <Node pos="l" depth="5" NCoef="0" IVar="0" Cut="6.4417833089828491e-01" cType="1" res="-5.8529965579509735e-02" rms="2.7402931451797485e-01" purity="1.0283129662275314e-01" nType="0">
                  <Node pos="l" depth="6" NCoef="0" IVar="-1" Cut="0.0000000000000000e+00" cType="1" res="-8.7134372442960739e-03" rms="4.1520804166793823e-01" purity="2.5682601332664490e-01" nType="-99"/>
                  <Node pos="r" depth="6" NCoef="0" IVar="2" Cut="8.8684112548828125e+01" cType="1" res="-5.2207957953214645e-02" rms="1.9988381862640381e-01" purity="4.7460675239562988e-02" nType="0">
                    <Node pos="l" depth="7" NCoef="0" IVar="-1" Cut="0.0000000000000000e+00" cType="1" res="-1.1363080702722073e-02" rms="2.3787719011306763e-01" purity="7.0817597210407257e-02" nType="-99"/>
                    <Node pos="r" depth="7" NCoef="0" IVar="-1" Cut="0.0000000000000000e+00" cType="1" res="-1.9129820168018341e-02" rms="1.7717662453651428e-01" purity="3.5629592835903168e-02" nType="-99"/>
                  </Node>
                </Node>
                <Node pos="r" depth="5" NCoef="0" IVar="2" Cut="2.3188786315917969e+02" cType="1" res="-3.8308598101139069e-02" rms="2.6830416917800903e-01" purity="8.9178591966629028e-02" nType="0">
                  <Node pos="l" depth="6" NCoef="0" IVar="3" Cut="3.9481738209724426e-01" cType="1" res="-2.3904096335172653e-02" rms="2.9860287904739380e-01" purity="1.1686103790998459e-01" nType="0">
                    <Node pos="l" depth="7" NCoef="0" IVar="-1" Cut="0.0000000000000000e+00" cType="1" res="-1.6246365383267403e-02" rms="1.9813917577266693e-01" purity="4.2121421545743942e-02" nType="-99"/>
                    <Node pos="r" depth="7" NCoef="0" IVar="-1" Cut="0.0000000000000000e+00" cType="1" res="-1.3200313551351428e-03" rms="3.7767186760902405e-01" purity="1.9767680764198303e-01" nType="-99"/>
                  </Node>
                  <Node pos="r" depth="6" NCoef="0" IVar="7" Cut="7.0000000000000000e+00" cType="1" res="-4.5671932399272919e-02" rms="2.4940587580204010e-01" purity="7.6190181076526642e-02" nType="0">
                    <Node pos="l" depth="7" NCoef="0" IVar="-1" Cut="0.0000000000000000e+00" cType="1" res="-1.2398761697113514e-02" rms="2.5642403960227966e-01" purity="8.0132439732551575e-02" nType="-99"/>
                    <Node pos="r" depth="7" NCoef="0" IVar="-1" Cut="0.0000000000000000e+00" cType="1" res="-1.0419695638120174e-02" rms="2.4148474633693695e-01" purity="6.5595306456089020e-02" nType="-99"/>
                  </Node>
                </Node>
              </Node>
            </Node>
          </Node>
        </Node>
        <Node pos="r" depth="1" NCoef="0" IVar="5" Cut="-1.2055054903030396e+00" cType="1" res="4.0544603019952774e-02" rms="4.1889691352844238e-01" purity="7.3754638433456421e-01" nType="0">
          <Node pos="l" depth="2" NCoef="0" IVar="0" Cut="6.4365416765213013e-01" cType="1" res="4.5559410005807877e-02" rms="4.1112273931503296e-01" purity="7.6097017526626587e-01" nType="0">
            <Node pos="l" depth="3" NCoef="0" IVar="3" Cut="8.5767889022827148e-01" cType="1" res="4.8181392252445221e-02" rms="4.0586242079734802e-01" purity="7.7815604209899902e-01" nType="0">
              <Node pos="l" depth="4" NCoef="0" IVar="6" Cut="3.7935167551040649e-02" cType="1" res="2.8020486235618591e-02" rms="4.5551684498786926e-01" purity="6.8658971786499023e-01" nType="0">
                <Node pos="l" depth="5" NCoef="0" IVar="2" Cut="4.2685420989990234e+01" cType="1" res="6.2937540933489799e-03" rms="4.6171453595161438e-01" purity="6.6531425714492798e-01" nType="0">
                  <Node pos="l" depth="6" NCoef="0" IVar="-1" Cut="0.0000000000000000e+00" cType="1" res="2.4549930822104216e-03" rms="4.5336014032363892e-01" purity="6.8910551071166992e-01" nType="-99"/>
                  <Node pos="r" depth="6" NCoef="0" IVar="-1" Cut="0.0000000000000000e+00" cType="1" res="-1.3043847866356373e-03" rms="4.6846809983253479e-01" purity="6.4320421218872070e-01" nType="-99"/>
                </Node>
                <Node pos="r" depth="5" NCoef="0" IVar="1" Cut="4.9807223677635193e-01" cType="1" res="4.2525924742221832e-02" rms="4.5074909925460815e-01" purity="7.0079392194747925e-01" nType="0">
                  <Node pos="l" depth="6" NCoef="0" IVar="6" Cut="5.6723304092884064e-02" cType="1" res="5.0909217447042465e-02" rms="4.3587082624435425e-01" purity="7.4063748121261597e-01" nType="0">
                    <Node pos="l" depth="7" NCoef="0" IVar="-1" Cut="0.0000000000000000e+00" cType="1" res="3.7838069256395102e-03" rms="4.3913710117340088e-01" purity="7.3380684852600098e-01" nType="-99"/>
                    <Node pos="r" depth="7" NCoef="0" IVar="-1" Cut="0.0000000000000000e+00" cType="1" res="5.5743381381034851e-03" rms="4.3145996332168579e-01" purity="7.4918633699417114e-01" nType="-99"/>
                  </Node>
                  <Node pos="r" depth="6" NCoef="0" IVar="-1" Cut="0.0000000000000000e+00" cType="1" res="1.6930657438933849e-03" rms="4.8662975430488586e-01" purity="5.9721928834915161e-01" nType="-99"/>
                </Node>
              </Node>
              <Node pos="r" depth="4" NCoef="0" IVar="1" Cut="7.7680641412734985e-01" cType="1" res="5.2632413804531097e-02" rms="3.9391866326332092e-01" purity="7.9837161302566528e-01" nType="0">
                <Node pos="l" depth="5" NCoef="0" IVar="5" Cut="-2.1345734596252441e+00" cType="1" res="5.5922504514455795e-02" rms="3.8039520382881165e-01" purity="8.1996667385101318e-01" nType="0">
                  <Node pos="l" depth="6" NCoef="0" IVar="4" Cut="-9.9259692430496216e-01" cType="1" res="5.9419799596071243e-02" rms="3.6828228831291199e-01" purity="8.3522278070449829e-01" nType="0">
                    <Node pos="l" depth="7" NCoef="0" IVar="-1" Cut="0.0000000000000000e+00" cType="1" res="5.3999600932002068e-03" rms="3.9157178997993469e-01" purity="8.0798482894897461e-01" nType="-99"/>
                    <Node pos="r" depth="7" NCoef="0" IVar="-1" Cut="0.0000000000000000e+00" cType="1" res="7.4687744490802288e-03" rms="3.5235428810119629e-01" purity="8.5281056165695190e-01" nType="-99"/>
                  </Node>
                  <Node pos="r" depth="6" NCoef="0" IVar="3" Cut="1.0001153945922852e+00" cType="1" res="4.3301068246364594e-02" rms="4.2098113894462585e-01" purity="7.6490867137908936e-01" nType="0">
                    <Node pos="l" depth="7" NCoef="0" IVar="-1" Cut="0.0000000000000000e+00" cType="1" res="3.8217515684664249e-03" rms="4.2704451084136963e-01" purity="7.5497388839721680e-01" nType="-99"/>
                    <Node pos="r" depth="7" NCoef="0" IVar="-1" Cut="0.0000000000000000e+00" cType="1" res="5.2739754319190979e-03" rms="4.0753275156021118e-01" purity="7.8609269857406616e-01" nType="-99"/>
                  </Node>
                </Node>
                <Node pos="r" depth="5" NCoef="0" IVar="3" Cut="9.9616324901580811e-01" cType="1" res="3.6133673042058945e-02" rms="4.5536375045776367e-01" purity="6.9007903337478638e-01" nType="0">
                  <Node pos="l" depth="6" NCoef="0" IVar="1" Cut="1.3705488443374634e+00" cType="1" res="1.6273744404315948e-02" rms="4.7098425030708313e-01" purity="6.5021973848342896e-01" nType="0">
                    <Node pos="l" depth="7" NCoef="0" IVar="-1" Cut="0.0000000000000000e+00" cType="1" res="3.4995358437299728e-03" rms="4.5565459132194519e-01" purity="6.9674521684646606e-01" nType="-99"/>
                    <Node pos="r" depth="7" NCoef="0" IVar="-1" Cut="0.0000000000000000e+00" cType="1" res="-9.1985671315342188e-04" rms="4.8712700605392456e-01" purity="5.9528779983520508e-01" nType="-99"/>
                  </Node>
                  <Node pos="r" depth="6" NCoef="0" IVar="4" Cut="-4.5064479112625122e-01" cType="1" res="5.2709471434354782e-02" rms="4.4121989607810974e-01" purity="7.2334700822830200e-01" nType="0">
                    <Node pos="l" depth="7" NCoef="0" IVar="-1" Cut="0.0000000000000000e+00" cType="1" res="2.8453227132558823e-03" rms="4.5712211728096008e-01" purity="6.8974095582962036e-01" nType="-99"/>
                    <Node pos="r" depth="7" NCoef="0" IVar="-1" Cut="0.0000000000000000e+00" cType="1" res="6.2324781902134418e-03" rms="4.2626917362213135e-01" purity="7.5275069475173950e-01" nType="-99"/>
                  </Node>
                </Node>
              </Node>
            </Node>
            <Node pos="r" depth="3" NCoef="0" IVar="0" Cut="1.2457822561264038e+00" cType="1" res="2.2205569257494062e-04" rms="4.9107921123504639e-01" purity="4.6380630135536194e-01" nType="0">
              <Node pos="l" depth="4" NCoef="0" IVar="-1" Cut="0.0000000000000000e+00" cType="1" res="1.3217130908742547e-03" rms="4.9563056230545044e-01" purity="5.1923412084579468e-01" nType="-99"/>
              <Node pos="r" depth="4" NCoef="0" IVar="-1" Cut="0.0000000000000000e+00" cType="1" res="-1.8713177414610982e-03" rms="4.8453959822654724e-01" purity="3.9346849918365479e-01" nType="-99"/>
            </Node>
          </Node>
          <Node pos="r" depth="2" NCoef="0" IVar="5" Cut="-1.2183818966150284e-01" cType="1" res="-1.2137570884078741e-03" rms="4.7671085596084595e-01" purity="5.4249608516693115e-01" nType="0">
            <Node pos="l" depth="3" NCoef="0" IVar="5" Cut="-7.1619153022766113e-01" cType="1" res="9.8879821598529816e-03" rms="4.7855082154273987e-01" purity="5.7524853944778442e-01" nType="0">
              <Node pos="l" depth="4" NCoef="0" IVar="5" Cut="-9.6874046325683594e-01" cType="1" res="1.8324077129364014e-02" rms="4.7308132052421570e-01" purity="6.0910803079605103e-01" nType="0">
                <Node pos="l" depth="5" NCoef="0" IVar="-1" Cut="0.0000000000000000e+00" cType="1" res="4.5805890113115311e-04" rms="4.7241964936256409e-01" purity="6.0775899887084961e-01" nType="-99"/>
                <Node pos="r" depth="5" NCoef="0" IVar="-1" Cut="0.0000000000000000e+00" cType="1" res="2.9500224627554417e-03" rms="4.7338014841079712e-01" purity="6.1064839363098145e-01" nType="-99"/>
              </Node>
              <Node pos="r" depth="4" NCoef="0" IVar="-1" Cut="0.0000000000000000e+00" cType="1" res="-1.0757319250842556e-04" rms="4.8542472720146179e-01" purity="5.3073441982269287e-01" nType="-99"/>
            </Node>
            <Node pos="r" depth="3" NCoef="0" IVar="-1" Cut="0.0000000000000000e+00" cType="1" res="-4.6161194331943989e-03" rms="4.6591728925704956e-01" purity="4.0380927920341492e-01" nType="-99"/>
          </Node>
        </Node>
      </Node>
    </BinaryTree>
    <BinaryTree type="DecisionTree" boostWeight="1.0000000000000000e+00" itree="48">
      <Node pos="s" depth="0" NCoef="0" IVar="3" Cut="7.7976024150848389e-01" cType="1" res="1.2516312301158905e-02" rms="4.0294095873832703e-01" purity="5.0211507081985474e-01" nType="0">
        <Node pos="l" depth="1" NCoef="0" IVar="3" Cut="5.3181040287017822e-01" cType="1" res="-1.6381029039621353e-02" rms="3.8480922579765320e-01" purity="2.6056563854217529e-01" nType="0">
          <Node pos="l" depth="2" NCoef="0" IVar="6" Cut="1.5394899249076843e-01" cType="1" res="-2.9202008619904518e-02" rms="3.0293744802474976e-01" purity="1.1584592610597610e-01" nType="0">
            <Node pos="l" depth="3" NCoef="0" IVar="2" Cut="1.7453225708007812e+02" cType="1" res="-3.6276079714298248e-02" rms="2.7852326631546021e-01" purity="9.4770029187202454e-02" nType="0">
              <Node pos="l" depth="4" NCoef="0" IVar="6" Cut="7.9561829566955566e-02" cType="1" res="-2.8262993320822716e-02" rms="2.9081955552101135e-01" purity="1.0508750379085541e-01" nType="0">
                <Node pos="l" depth="5" NCoef="0" IVar="2" Cut="4.5193462371826172e+01" cType="1" res="-3.7007670849561691e-02" rms="2.7041518688201904e-01" purity="8.6876444518566132e-02" nType="0">
                  <Node pos="l" depth="6" NCoef="0" IVar="-1" Cut="0.0000000000000000e+00" cType="1" res="-3.1648017466068268e-03" rms="3.1558057665824890e-01" purity="1.2343790382146835e-01" nType="-99"/>
                  <Node pos="r" depth="6" NCoef="0" IVar="6" Cut="4.5402675867080688e-02" cType="1" res="-4.3306987732648849e-02" rms="2.5663807988166809e-01" purity="7.7105574309825897e-02" nType="0">
                    <Node pos="l" depth="7" NCoef="0" IVar="-1" Cut="0.0000000000000000e+00" cType="1" res="-1.4216326177120209e-02" rms="2.4048055708408356e-01" purity="6.5416179597377777e-02" nType="-99"/>
                    <Node pos="r" depth="7" NCoef="0" IVar="-1" Cut="0.0000000000000000e+00" cType="1" res="-9.7023090347647667e-03" rms="2.6791164278984070e-01" purity="8.5887789726257324e-02" nType="-99"/>
                  </Node>
                </Node>
                <Node pos="r" depth="5" NCoef="0" IVar="3" Cut="3.6905315518379211e-01" cType="1" res="-1.1333287693560123e-02" rms="3.2605478167533875e-01" purity="1.4034412801265717e-01" nType="0">
                  <Node pos="l" depth="6" NCoef="0" IVar="-1" Cut="0.0000000000000000e+00" cType="1" res="-1.3737649656832218e-02" rms="2.2265954315662384e-01" purity="5.4044734686613083e-02" nType="-99"/>
                  <Node pos="r" depth="6" NCoef="0" IVar="-1" Cut="0.0000000000000000e+00" cType="1" res="1.6527472762390971e-03" rms="3.9499595761299133e-01" purity="2.1748852729797363e-01" nType="-99"/>
                </Node>
              </Node>
              <Node pos="r" depth="4" NCoef="0" IVar="7" Cut="4.0000000000000000e+00" cType="1" res="-4.3110445141792297e-02" rms="2.6422780752182007e-01" purity="8.5322082042694092e-02" nType="0">
                <Node pos="l" depth="5" NCoef="0" IVar="2" Cut="3.0808499145507812e+02" cType="1" res="-5.9151079505681992e-02" rms="2.8569558262825012e-01" purity="9.6307508647441864e-02" nType="0">
                  <Node pos="l" depth="6" NCoef="0" IVar="-1" Cut="0.0000000000000000e+00" cType="1" res="-1.4350770972669125e-02" rms="2.7271866798400879e-01" purity="8.6304716765880585e-02" nType="-99"/>
                  <Node pos="r" depth="6" NCoef="0" IVar="-1" Cut="0.0000000000000000e+00" cType="1" res="-1.1557533405721188e-02" rms="2.9790878295898438e-01" purity="1.0617900639772415e-01" nType="-99"/>
                </Node>
                <Node pos="r" depth="5" NCoef="0" IVar="3" Cut="3.6436790227890015e-01" cType="1" res="-3.9760109037160873e-02" rms="2.6144850254058838e-01" purity="8.2597352564334869e-02" nType="0">
                  <Node pos="l" depth="6" NCoef="0" IVar="3" Cut="2.6228213310241699e-01" cType="1" res="-4.7671698033809662e-02" rms="1.7690476775169373e-01" purity="3.3034868538379669e-02" nType="0">
                    <Node pos="l" depth="7" NCoef="0" IVar="-1" Cut="0.0000000000000000e+00" cType="1" res="-2.2857444360852242e-02" rms="1.4725226163864136e-01" purity="2.2277384996414185e-02" nType="-99"/>
                    <Node pos="r" depth="7" NCoef="0" IVar="-1" Cut="0.0000000000000000e+00" cType="1" res="-1.5629315748810768e-02" rms="1.9742637872695923e-01" purity="4.1691306978464127e-02" nType="-99"/>
                  </Node>
                  <Node pos="r" depth="6" NCoef="0" IVar="2" Cut="3.3857009887695312e+02" cType="1" res="-3.0793908983469009e-02" rms="3.3197000622749329e-01" purity="1.3876648247241974e-01" nType="0">
                    <Node pos="l" depth="7" NCoef="0" IVar="-1" Cut="0.0000000000000000e+00" cType="1" res="-4.2933216318488121e-03" rms="3.3408084511756897e-01" purity="1.4163994789123535e-01" nType="-99"/>
                    <Node pos="r" depth="7" NCoef="0" IVar="-1" Cut="0.0000000000000000e+00" cType="1" res="-7.6922066509723663e-03" rms="3.2891133427619934e-01" purity="1.3509194552898407e-01" nType="-99"/>
                  </Node>
                </Node>
              </Node>
            </Node>
            <Node pos="r" depth="3" NCoef="0" IVar="7" Cut="4.0000000000000000e+00" cType="1" res="-1.2076523154973984e-02" rms="3.5427227616310120e-01" purity="1.6804488003253937e-01" nType="0">
              <Node pos="l" depth="4" NCoef="0" IVar="-1" Cut="0.0000000000000000e+00" cType="1" res="6.0001639649271965e-03" rms="4.2339551448822021e-01" purity="2.7010318636894226e-01" nType="-99"/>
              <Node pos="r" depth="4" NCoef="0" IVar="3" Cut="3.4823295474052429e-01" cType="1" res="-2.2820021957159042e-02" rms="3.3882611989974976e-01" purity="1.4681543409824371e-01" nType="0">
                <Node pos="l" depth="5" NCoef="0" IVar="6" Cut="2.7172586321830750e-01" cType="1" res="-3.2122734934091568e-02" rms="3.0976289510726929e-01" purity="1.1302984505891800e-01" nType="0">
                  <Node pos="l" depth="6" NCoef="0" IVar="3" Cut="2.0829249918460846e-01" cType="1" res="-4.1757345199584961e-02" rms="2.8126361966133118e-01" purity="9.0776488184928894e-02" nType="0">
                    <Node pos="l" depth="7" NCoef="0" IVar="-1" Cut="0.0000000000000000e+00" cType="1" res="-1.9636450335383415e-02" rms="2.2921325266361237e-01" purity="5.6974224746227264e-02" nType="-99"/>
                    <Node pos="r" depth="7" NCoef="0" IVar="-1" Cut="0.0000000000000000e+00" cType="1" res="-7.0508755743503571e-03" rms="3.0008587241172791e-01" purity="1.0541711747646332e-01" nType="-99"/>
                  </Node>
                  <Node pos="r" depth="6" NCoef="0" IVar="-1" Cut="0.0000000000000000e+00" cType="1" res="2.8347136685624719e-04" rms="3.9170885086059570e-01" purity="1.9090473651885986e-01" nType="-99"/>
                </Node>
                <Node pos="r" depth="5" NCoef="0" IVar="-1" Cut="0.0000000000000000e+00" cType="1" res="7.1670001489110291e-05" rms="4.0159454941749573e-01" purity="2.3147661983966827e-01" nType="-99"/>
              </Node>
            </Node>
          </Node>
          <Node pos="r" depth="2" NCoef="0" IVar="1" Cut="1.5531499385833740e+00" cType="1" res="-4.0218577487394214e-04" rms="4.6668371558189392e-01" purity="4.4093042612075806e-01" nType="0">
            <Node pos="l" depth="3" NCoef="0" IVar="5" Cut="-2.0438539981842041e+00" cType="1" res="6.0430192388594151e-03" rms="4.7074079513549805e-01" purity="4.6185162663459778e-01" nType="0">
              <Node pos="l" depth="4" NCoef="0" IVar="6" Cut="7.5595058500766754e-02" cType="1" res="2.2342642769217491e-02" rms="4.7880744934082031e-01" purity="5.1538187265396118e-01" nType="0">
                <Node pos="l" depth="5" NCoef="0" IVar="2" Cut="8.4891235351562500e+01" cType="1" res="7.5013381429016590e-03" rms="4.7657877206802368e-01" purity="5.0349336862564087e-01" nType="0">
                  <Node pos="l" depth="6" NCoef="0" IVar="6" Cut="2.4466333910822868e-02" cType="1" res="3.0719945207238197e-02" rms="4.7777733206748962e-01" purity="5.4244858026504517e-01" nType="0">
                    <Node pos="l" depth="7" NCoef="0" IVar="-1" Cut="0.0000000000000000e+00" cType="1" res="-5.5862904991954565e-04" rms="4.7803780436515808e-01" purity="4.9810919165611267e-01" nType="-99"/>
                    <Node pos="r" depth="7" NCoef="0" IVar="-1" Cut="0.0000000000000000e+00" cType="1" res="4.1347178630530834e-03" rms="4.7666263580322266e-01" purity="5.6348210573196411e-01" nType="-99"/>
                  </Node>
                  <Node pos="r" depth="6" NCoef="0" IVar="0" Cut="3.1126788258552551e-01" cType="1" res="-1.4090015552937984e-02" rms="4.7444298863410950e-01" purity="4.6726828813552856e-01" nType="0">
                    <Node pos="l" depth="7" NCoef="0" IVar="-1" Cut="0.0000000000000000e+00" cType="1" res="6.5401929896324873e-04" rms="4.8327559232711792e-01" purity="5.9688884019851685e-01" nType="-99"/>
                    <Node pos="r" depth="7" NCoef="0" IVar="-1" Cut="0.0000000000000000e+00" cType="1" res="-2.7666434179991484e-03" rms="4.6823048591613770e-01" purity="3.8468506932258606e-01" nType="-99"/>
                  </Node>
                </Node>
                <Node pos="r" depth="5" NCoef="0" IVar="2" Cut="1.8270584106445312e+02" cType="1" res="4.7162100672721863e-02" rms="4.8149043321609497e-01" purity="5.3526329994201660e-01" nType="0">
                  <Node pos="l" depth="6" NCoef="0" IVar="-1" Cut="0.0000000000000000e+00" cType="1" res="6.5790489315986633e-03" rms="4.7650960087776184e-01" purity="5.9214645624160767e-01" nType="-99"/>
                  <Node pos="r" depth="6" NCoef="0" IVar="6" Cut="1.0604690015316010e-01" cType="1" res="2.5554506108164787e-02" rms="4.8335096240043640e-01" purity="4.9945598840713501e-01" nType="0">
                    <Node pos="l" depth="7" NCoef="0" IVar="-1" Cut="0.0000000000000000e+00" cType="1" res="8.2467222819104791e-04" rms="4.8046094179153442e-01" purity="4.9400720000267029e-01" nType="-99"/>
                    <Node pos="r" depth="7" NCoef="0" IVar="-1" Cut="0.0000000000000000e+00" cType="1" res="4.1547957807779312e-03" rms="4.8603242635726929e-01" purity="5.0601518154144287e-01" nType="-99"/>
                  </Node>
                </Node>
              </Node>
              <Node pos="r" depth="4" NCoef="0" IVar="4" Cut="2.6899656653404236e-01" cType="1" res="-1.3277427293360233e-02" rms="4.6024927496910095e-01" purity="3.9840060472488403e-01" nType="0">
                <Node pos="l" depth="5" NCoef="0" IVar="3" Cut="6.4380502700805664e-01" cType="1" res="2.8419555164873600e-03" rms="4.8207521438598633e-01" purity="4.7643941640853882e-01" nType="0">
                  <Node pos="l" depth="6" NCoef="0" IVar="-1" Cut="0.0000000000000000e+00" cType="1" res="-1.4337647007778287e-03" rms="4.7241526842117310e-01" purity="3.6954358220100403e-01" nType="-99"/>
                  <Node pos="r" depth="6" NCoef="0" IVar="1" Cut="-1.7165509983897209e-02" cType="1" res="1.2116317637264729e-02" rms="4.8693770170211792e-01" purity="5.3391748666763306e-01" nType="0">
                    <Node pos="l" depth="7" NCoef="0" IVar="-1" Cut="0.0000000000000000e+00" cType="1" res="2.4590243119746447e-03" rms="4.8296669125556946e-01" purity="5.9688740968704224e-01" nType="-99"/>
                    <Node pos="r" depth="7" NCoef="0" IVar="-1" Cut="0.0000000000000000e+00" cType="1" res="1.1466888099675998e-04" rms="4.8919296264648438e-01" purity="4.9306741356849670e-01" nType="-99"/>
                  </Node>
                </Node>
                <Node pos="r" depth="5" NCoef="0" IVar="2" Cut="2.2465002441406250e+02" cType="1" res="-3.5388972610235214e-02" rms="4.2751774191856384e-01" purity="2.9135191440582275e-01" nType="0">
                  <Node pos="l" depth="6" NCoef="0" IVar="6" Cut="6.1600591987371445e-02" cType="1" res="-2.1036352962255478e-02" rms="4.4457721710205078e-01" purity="3.2745373249053955e-01" nType="0">
                    <Node pos="l" depth="7" NCoef="0" IVar="-1" Cut="0.0000000000000000e+00" cType="1" res="-6.7550591193139553e-03" rms="4.3028703331947327e-01" purity="2.8659737110137939e-01" nType="-99"/>
                    <Node pos="r" depth="7" NCoef="0" IVar="-1" Cut="0.0000000000000000e+00" cType="1" res="1.0806707432493567e-03" rms="4.5345169305801392e-01" purity="3.6056396365165710e-01" nType="-99"/>
                  </Node>
                  <Node pos="r" depth="6" NCoef="0" IVar="-1" Cut="0.0000000000000000e+00" cType="1" res="-8.6876805871725082e-03" rms="3.8575348258018494e-01" purity="2.1241365373134613e-01" nType="-99"/>
                </Node>
              </Node>
            </Node>
            <Node pos="r" depth="3" NCoef="0" IVar="7" Cut="3.0000000000000000e+00" cType="1" res="-4.6575974673032761e-02" rms="4.1573661565780640e-01" purity="2.6743277907371521e-01" nType="0">
              <Node pos="l" depth="4" NCoef="0" IVar="-1" Cut="0.0000000000000000e+00" cType="1" res="-8.9648906141519547e-03" rms="4.1658994555473328e-01" purity="2.4484923481941223e-01" nType="-99"/>
              <Node pos="r" depth="4" NCoef="0" IVar="-1" Cut="0.0000000000000000e+00" cType="1" res="-3.9620324969291687e-03" rms="4.3536943197250366e-01" purity="2.8497305512428284e-01" nType="-99"/>
            </Node>
          </Node>
        </Node>
        <Node pos="r" depth="1" NCoef="0" IVar="5" Cut="-8.5891050100326538e-01" cType="1" res="4.0873404592275620e-02" rms="4.1803598403930664e-01" purity="7.3914867639541626e-01" nType="0">
          <Node pos="l" depth="2" NCoef="0" IVar="0" Cut="6.4337998628616333e-01" cType="1" res="4.4676814228296280e-02" rms="4.1299590468406677e-01" purity="7.5657552480697632e-01" nType="0">
            <Node pos="l" depth="3" NCoef="0" IVar="3" Cut="9.7258818149566650e-01" cType="1" res="4.7318566590547562e-02" rms="4.0781152248382568e-01" purity="7.7424961328506470e-01" nType="0">
              <Node pos="l" depth="4" NCoef="0" IVar="1" Cut="8.7029260396957397e-01" cType="1" res="3.6965593695640564e-02" rms="4.3706876039505005e-01" purity="7.2501468658447266e-01" nType="0">
                <Node pos="l" depth="5" NCoef="0" IVar="6" Cut="3.7088211625814438e-02" cType="1" res="4.1768804192543030e-02" rms="4.2680338025093079e-01" purity="7.5150716304779053e-01" nType="0">
                  <Node pos="l" depth="6" NCoef="0" IVar="3" Cut="8.5441225767135620e-01" cType="1" res="3.4563820809125900e-02" rms="4.2329034209251404e-01" purity="7.5641983747482300e-01" nType="0">
                    <Node pos="l" depth="7" NCoef="0" IVar="-1" Cut="0.0000000000000000e+00" cType="1" res="1.1123586446046829e-03" rms="4.5991867780685425e-01" purity="6.8637454509735107e-01" nType="-99"/>
                    <Node pos="r" depth="7" NCoef="0" IVar="-1" Cut="0.0000000000000000e+00" cType="1" res="4.6002105809748173e-03" rms="4.0871694684028625e-01" purity="7.8211992979049683e-01" nType="-99"/>
                  </Node>
                  <Node pos="r" depth="6" NCoef="0" IVar="2" Cut="1.0234709930419922e+02" cType="1" res="5.2018757909536362e-02" rms="4.3154463171958923e-01" purity="7.4451839923858643e-01" nType="0">
                    <Node pos="l" depth="7" NCoef="0" IVar="-1" Cut="0.0000000000000000e+00" cType="1" res="5.9764492325484753e-03" rms="4.1940468549728394e-01" purity="7.6544076204299927e-01" nType="-99"/>
                    <Node pos="r" depth="7" NCoef="0" IVar="-1" Cut="0.0000000000000000e+00" cType="1" res="4.0037515573203564e-03" rms="4.3941846489906311e-01" purity="7.3006105422973633e-01" nType="-99"/>
                  </Node>
                </Node>
                <Node pos="r" depth="5" NCoef="0" IVar="6" Cut="2.9201252385973930e-02" cType="1" res="1.1314154602587223e-02" rms="4.8744955658912659e-01" purity="5.8353227376937866e-01" nType="0">
                  <Node pos="l" depth="6" NCoef="0" IVar="-1" Cut="0.0000000000000000e+00" cType="1" res="-2.0527059677988291e-03" rms="4.8935663700103760e-01" purity="5.6075012683868408e-01" nType="-99"/>
                  <Node pos="r" depth="6" NCoef="0" IVar="-1" Cut="0.0000000000000000e+00" cType="1" res="3.0051283538341522e-03" rms="4.8457771539688110e-01" purity="5.9978401660919189e-01" nType="-99"/>
                </Node>
              </Node>
              <Node pos="r" depth="4" NCoef="0" IVar="5" Cut="-2.7391576766967773e+00" cType="1" res="5.4470203816890717e-02" rms="3.8614732027053833e-01" purity="8.0826008319854736e-01" nType="0">
                <Node pos="l" depth="5" NCoef="0" IVar="3" Cut="1.0043990612030029e+00" cType="1" res="6.3152492046356201e-02" rms="3.6223554611206055e-01" purity="8.3977735042572021e-01" nType="0">
                  <Node pos="l" depth="6" NCoef="0" IVar="3" Cut="9.9926984310150146e-01" cType="1" res="5.8178525418043137e-02" rms="3.6838459968566895e-01" purity="8.3296138048171997e-01" nType="0">
                    <Node pos="l" depth="7" NCoef="0" IVar="-1" Cut="0.0000000000000000e+00" cType="1" res="5.5253291502594948e-03" rms="3.7547686696052551e-01" purity="8.2418519258499146e-01" nType="-99"/>
                    <Node pos="r" depth="7" NCoef="0" IVar="-1" Cut="0.0000000000000000e+00" cType="1" res="7.8959222882986069e-03" rms="3.5375258326530457e-01" purity="8.4979319572448730e-01" nType="-99"/>
                  </Node>
                  <Node pos="r" depth="6" NCoef="0" IVar="4" Cut="-4.1795253753662109e-01" cType="1" res="7.4751541018486023e-02" rms="3.4719702601432800e-01" purity="8.5567188262939453e-01" nType="0">
                    <Node pos="l" depth="7" NCoef="0" IVar="-1" Cut="0.0000000000000000e+00" cType="1" res="7.4049462564289570e-03" rms="3.5334038734436035e-01" purity="8.4807223081588745e-01" nType="-99"/>
                    <Node pos="r" depth="7" NCoef="0" IVar="-1" Cut="0.0000000000000000e+00" cType="1" res="9.6434568986296654e-03" rms="3.3475691080093384e-01" purity="8.7040507793426514e-01" nType="-99"/>
                  </Node>
                </Node>
                <Node pos="r" depth="5" NCoef="0" IVar="0" Cut="2.0747872069478035e-02" cType="1" res="4.6000912785530090e-02" rms="4.0794685482978821e-01" purity="7.7751606702804565e-01" nType="0">
                  <Node pos="l" depth="6" NCoef="0" IVar="4" Cut="-4.1967087984085083e-01" cType="1" res="4.9715183675289154e-02" rms="4.0132182836532593e-01" purity="7.8953170776367188e-01" nType="0">
                    <Node pos="l" depth="7" NCoef="0" IVar="-1" Cut="0.0000000000000000e+00" cType="1" res="3.7969134282320738e-03" rms="4.1173857450485229e-01" purity="7.7417725324630737e-01" nType="-99"/>
                    <Node pos="r" depth="7" NCoef="0" IVar="-1" Cut="0.0000000000000000e+00" cType="1" res="6.2957205809652805e-03" rms="3.9064857363700867e-01" purity="8.0453568696975708e-01" nType="-99"/>
                  </Node>
                  <Node pos="r" depth="6" NCoef="0" IVar="-1" Cut="0.0000000000000000e+00" cType="1" res="1.0311682708561420e-03" rms="4.6414315700531006e-01" purity="6.6466414928436279e-01" nType="-99"/>
                </Node>
              </Node>
            </Node>
            <Node pos="r" depth="3" NCoef="0" IVar="0" Cut="1.2454315423965454e+00" cType="1" res="4.6804617159068584e-04" rms="4.8959830403327942e-01" purity="4.6080690622329712e-01" nType="0">
              <Node pos="l" depth="4" NCoef="0" IVar="-1" Cut="0.0000000000000000e+00" cType="1" res="1.0162933031097054e-03" rms="4.9410396814346313e-01" purity="5.1406997442245483e-01" nType="-99"/>
              <Node pos="r" depth="4" NCoef="0" IVar="-1" Cut="0.0000000000000000e+00" cType="1" res="-1.3432023115456104e-03" rms="4.8344320058822632e-01" purity="3.9330217242240906e-01" nType="-99"/>
            </Node>
          </Node>
          <Node pos="r" depth="2" NCoef="0" IVar="4" Cut="5.3057748079299927e-01" cType="1" res="-1.0468912310898304e-02" rms="4.7797784209251404e-01" purity="5.0390201807022095e-01" nType="0">
            <Node pos="l" depth="3" NCoef="0" IVar="4" Cut="-2.9870539903640747e-01" cType="1" res="5.7095172815024853e-03" rms="4.8198366165161133e-01" purity="5.4175740480422974e-01" nType="0">
              <Node pos="l" depth="4" NCoef="0" IVar="-1" Cut="0.0000000000000000e+00" cType="1" res="1.6829834203235805e-04" rms="4.8474898934364319e-01" purity="5.4188424348831177e-01" nType="-99"/>
              <Node pos="r" depth="4" NCoef="0" IVar="-1" Cut="0.0000000000000000e+00" cType="1" res="8.8956439867615700e-04" rms="4.7888624668121338e-01" purity="5.4161775112152100e-01" nType="-99"/>
            </Node>
            <Node pos="r" depth="3" NCoef="0" IVar="-1" Cut="0.0000000000000000e+00" cType="1" res="-3.8080881349742413e-03" rms="4.6906813979148865e-01" purity="4.3428915739059448e-01" nType="-99"/>
          </Node>
        </Node>
      </Node>
    </BinaryTree>
    <BinaryTree type="DecisionTree" boostWeight="1.0000000000000000e+00" itree="49">
      <Node pos="s" depth="0" NCoef="0" IVar="3" Cut="7.1790844202041626e-01" cType="1" res="1.1194297112524509e-02" rms="4.0254658460617065e-01" purity="5.0049316883087158e-01" nType="0">
        <Node pos="l" depth="1" NCoef="0" IVar="3" Cut="5.3639531135559082e-01" cType="1" res="-2.0147977396845818e-02" rms="3.6817491054534912e-01" purity="2.1467578411102295e-01" nType="0">
          <Node pos="l" depth="2" NCoef="0" IVar="6" Cut="1.4115174114704132e-01" cType="1" res="-2.8536798432469368e-02" rms="3.0358874797821045e-01" purity="1.1637116968631744e-01" nType="0">
            <Node pos="l" depth="3" NCoef="0" IVar="2" Cut="1.0740449523925781e+02" cType="1" res="-3.6317709833383560e-02" rms="2.7501663565635681e-01" purity="9.1513775289058685e-02" nType="0">
              <Node pos="l" depth="4" NCoef="0" IVar="6" Cut="5.0293873995542526e-02" cType="1" res="-2.7175480499863625e-02" rms="2.9403206706047058e-01" purity="1.0659061372280121e-01" nType="0">
                <Node pos="l" depth="5" NCoef="0" IVar="2" Cut="4.5508098602294922e+01" cType="1" res="-4.4191997498273849e-02" rms="2.6547715067863464e-01" purity="8.2052730023860931e-02" nType="0">
                  <Node pos="l" depth="6" NCoef="0" IVar="-1" Cut="0.0000000000000000e+00" cType="1" res="-8.2928594201803207e-03" rms="2.8922620415687561e-01" purity="1.0047903656959534e-01" nType="-99"/>
                  <Node pos="r" depth="6" NCoef="0" IVar="-1" Cut="0.0000000000000000e+00" cType="1" res="-1.3915857300162315e-02" rms="2.4623118340969086e-01" purity="6.8468026816844940e-02" nType="-99"/>
                </Node>
                <Node pos="r" depth="5" NCoef="0" IVar="3" Cut="3.8539606332778931e-01" cType="1" res="-8.8671185076236725e-03" rms="3.2093265652656555e-01" purity="1.3299135863780975e-01" nType="0">
                  <Node pos="l" depth="6" NCoef="0" IVar="-1" Cut="0.0000000000000000e+00" cType="1" res="-1.1988746933639050e-02" rms="2.2520175576210022e-01" purity="5.5651765316724777e-02" nType="-99"/>
                  <Node pos="r" depth="6" NCoef="0" IVar="-1" Cut="0.0000000000000000e+00" cType="1" res="2.0949698518961668e-03" rms="3.9367079734802246e-01" purity="2.1128168702125549e-01" nType="-99"/>
                </Node>
              </Node>
              <Node pos="r" depth="4" NCoef="0" IVar="7" Cut="4.0000000000000000e+00" cType="1" res="-3.9864100515842438e-02" rms="2.6492610573768616e-01" purity="8.5252568125724792e-02" nType="0">
                <Node pos="l" depth="5" NCoef="0" IVar="3" Cut="4.0509542822837830e-01" cType="1" res="-5.3589999675750732e-02" rms="2.8708371520042419e-01" purity="9.5761120319366455e-02" nType="0">
                  <Node pos="l" depth="6" NCoef="0" IVar="-1" Cut="0.0000000000000000e+00" cType="1" res="-1.2942676432430744e-02" rms="2.4302086234092712e-01" purity="6.4038462936878204e-02" nType="-99"/>
                  <Node pos="r" depth="6" NCoef="0" IVar="-1" Cut="0.0000000000000000e+00" cType="1" res="-1.1664927005767822e-02" rms="3.1009078025817871e-01" purity="1.1460327357053757e-01" nType="-99"/>
                </Node>
                <Node pos="r" depth="5" NCoef="0" IVar="3" Cut="3.8597002625465393e-01" cType="1" res="-3.6605000495910645e-02" rms="2.6092576980590820e-01" purity="8.2515917718410492e-02" nType="0">
                  <Node pos="l" depth="6" NCoef="0" IVar="3" Cut="2.5550320744514465e-01" cType="1" res="-4.4423647224903107e-02" rms="1.8143871426582336e-01" purity="3.4734368324279785e-02" nType="0">
                    <Node pos="l" depth="7" NCoef="0" IVar="-1" Cut="0.0000000000000000e+00" cType="1" res="-2.3553699254989624e-02" rms="1.4018492400646210e-01" purity="2.0083598792552948e-02" nType="-99"/>
                    <Node pos="r" depth="7" NCoef="0" IVar="-1" Cut="0.0000000000000000e+00" cType="1" res="-1.4914396218955517e-02" rms="2.0147514343261719e-01" purity="4.3258696794509888e-02" nType="-99"/>
                  </Node>
                  <Node pos="r" depth="6" NCoef="0" IVar="1" Cut="1.1209122091531754e-01" cType="1" res="-2.5375029072165489e-02" rms="3.4405243396759033e-01" purity="1.5114484727382660e-01" nType="0">
                    <Node pos="l" depth="7" NCoef="0" IVar="-1" Cut="0.0000000000000000e+00" cType="1" res="-9.5311802579089999e-04" rms="3.9068713784217834e-01" purity="2.0745424926280975e-01" nType="-99"/>
                    <Node pos="r" depth="7" NCoef="0" IVar="-1" Cut="0.0000000000000000e+00" cType="1" res="-6.6079096868634224e-03" rms="3.2233023643493652e-01" purity="1.2771537899971008e-01" nType="-99"/>
                  </Node>
                </Node>
              </Node>
            </Node>
            <Node pos="r" depth="3" NCoef="0" IVar="2" Cut="3.4504867553710938e+02" cType="1" res="-1.3564829714596272e-02" rms="3.5161939263343811e-01" purity="1.6420157253742218e-01" nType="0">
              <Node pos="l" depth="4" NCoef="0" IVar="3" Cut="3.5479900240898132e-01" cType="1" res="7.6138209551572800e-03" rms="3.6737540364265442e-01" purity="1.8811747431755066e-01" nType="0">
                <Node pos="l" depth="5" NCoef="0" IVar="-1" Cut="0.0000000000000000e+00" cType="1" res="-2.9657767154276371e-03" rms="3.1520527601242065e-01" purity="1.2169428169727325e-01" nType="-99"/>
                <Node pos="r" depth="5" NCoef="0" IVar="-1" Cut="0.0000000000000000e+00" cType="1" res="4.5452252961695194e-03" rms="4.2666834592819214e-01" purity="2.7820315957069397e-01" nType="-99"/>
              </Node>
              <Node pos="r" depth="4" NCoef="0" IVar="7" Cut="4.0000000000000000e+00" cType="1" res="-2.4782035499811172e-02" rms="3.3969521522521973e-01" purity="1.5214867889881134e-01" nType="0">
                <Node pos="l" depth="5" NCoef="0" IVar="-1" Cut="0.0000000000000000e+00" cType="1" res="7.7149673597887158e-04" rms="4.0268799662590027e-01" purity="2.3380723595619202e-01" nType="-99"/>
                <Node pos="r" depth="5" NCoef="0" IVar="6" Cut="2.6503178477287292e-01" cType="1" res="-3.0324567109346390e-02" rms="3.2885602116584778e-01" purity="1.3524790108203888e-01" nType="0">
                  <Node pos="l" depth="6" NCoef="0" IVar="3" Cut="2.5016295909881592e-01" cType="1" res="-3.4377560019493103e-02" rms="3.1521618366241455e-01" purity="1.2560538947582245e-01" nType="0">
                    <Node pos="l" depth="7" NCoef="0" IVar="-1" Cut="0.0000000000000000e+00" cType="1" res="-1.5123892575502396e-02" rms="2.4516049027442932e-01" purity="6.4829468727111816e-02" nType="-99"/>
                    <Node pos="r" depth="7" NCoef="0" IVar="-1" Cut="0.0000000000000000e+00" cType="1" res="-4.8507926985621452e-03" rms="3.4182864427566528e-01" purity="1.5301403403282166e-01" nType="-99"/>
                  </Node>
                  <Node pos="r" depth="6" NCoef="0" IVar="-1" Cut="0.0000000000000000e+00" cType="1" res="-2.4708071723580360e-03" rms="3.7924313545227051e-01" purity="1.7478665709495544e-01" nType="-99"/>
                </Node>
              </Node>
            </Node>
          </Node>
          <Node pos="r" depth="2" NCoef="0" IVar="5" Cut="-9.6265369653701782e-01" cType="1" res="-4.8366282135248184e-03" rms="4.6301135420799255e-01" purity="3.9410218596458435e-01" nType="0">
            <Node pos="l" depth="3" NCoef="0" IVar="6" Cut="5.1275465637445450e-02" cType="1" res="2.3389481939375401e-03" rms="4.7642257809638977e-01" purity="4.3265858292579651e-01" nType="0">
              <Node pos="l" depth="4" NCoef="0" IVar="2" Cut="4.9452144622802734e+01" cType="1" res="-2.4041084572672844e-02" rms="4.6570488810539246e-01" purity="3.8380080461502075e-01" nType="0">
                <Node pos="l" depth="5" NCoef="0" IVar="-1" Cut="0.0000000000000000e+00" cType="1" res="8.1327283987775445e-04" rms="4.7587800025939941e-01" purity="4.3312039971351624e-01" nType="-99"/>
                <Node pos="r" depth="5" NCoef="0" IVar="3" Cut="6.4766687154769897e-01" cType="1" res="-4.4760640710592270e-02" rms="4.5794615149497986e-01" purity="3.5260781645774841e-01" nType="0">
                  <Node pos="l" depth="6" NCoef="0" IVar="-1" Cut="0.0000000000000000e+00" cType="1" res="-8.0549567937850952e-03" rms="4.3404585123062134e-01" purity="2.6692137122154236e-01" nType="-99"/>
                  <Node pos="r" depth="6" NCoef="0" IVar="-1" Cut="0.0000000000000000e+00" cType="1" res="-1.6978434287011623e-03" rms="4.7993719577789307e-01" purity="4.4117209315299988e-01" nType="-99"/>
                </Node>
              </Node>
              <Node pos="r" depth="4" NCoef="0" IVar="2" Cut="2.1294944763183594e+02" cType="1" res="1.3242560438811779e-02" rms="4.8035976290702820e-01" purity="4.5285290479660034e-01" nType="0">
                <Node pos="l" depth="5" NCoef="0" IVar="1" Cut="4.1241338849067688e-01" cType="1" res="2.8228320181369781e-02" rms="4.8200890421867371e-01" purity="4.8106053471565247e-01" nType="0">
                  <Node pos="l" depth="6" NCoef="0" IVar="2" Cut="1.2293610382080078e+02" cType="1" res="4.5631680637598038e-02" rms="4.8665440082550049e-01" purity="5.5096721649169922e-01" nType="0">
                    <Node pos="l" depth="7" NCoef="0" IVar="-1" Cut="0.0000000000000000e+00" cType="1" res="5.4269200190901756e-03" rms="4.8475593328475952e-01" purity="5.8569324016571045e-01" nType="-99"/>
                    <Node pos="r" depth="7" NCoef="0" IVar="-1" Cut="0.0000000000000000e+00" cType="1" res="1.9720385316759348e-03" rms="4.8761716485023499e-01" purity="5.1351147890090942e-01" nType="-99"/>
                  </Node>
                  <Node pos="r" depth="6" NCoef="0" IVar="-1" Cut="0.0000000000000000e+00" cType="1" res="4.8050345503725111e-04" rms="4.7472241520881653e-01" purity="3.8749068975448608e-01" nType="-99"/>
                </Node>
                <Node pos="r" depth="5" NCoef="0" IVar="6" Cut="1.0681826621294022e-01" cType="1" res="-3.2124661374837160e-03" rms="4.7800156474113464e-01" purity="4.2187964916229248e-01" nType="0">
                  <Node pos="l" depth="6" NCoef="0" IVar="6" Cut="8.1735283136367798e-02" cType="1" res="-2.1385194733738899e-02" rms="4.7264540195465088e-01" purity="3.9639928936958313e-01" nType="0">
                    <Node pos="l" depth="7" NCoef="0" IVar="-1" Cut="0.0000000000000000e+00" cType="1" res="-3.8642224390059710e-03" rms="4.6383082866668701e-01" purity="3.6683097481727600e-01" nType="-99"/>
                    <Node pos="r" depth="7" NCoef="0" IVar="-1" Cut="0.0000000000000000e+00" cType="1" res="-7.8369589755311608e-04" rms="4.7979396581649780e-01" purity="4.2217698693275452e-01" nType="-99"/>
                  </Node>
                  <Node pos="r" depth="6" NCoef="0" IVar="-1" Cut="0.0000000000000000e+00" cType="1" res="2.0439838990569115e-03" rms="4.8414862155914307e-01" purity="4.5685976743698120e-01" nType="-99"/>
                </Node>
              </Node>
            </Node>
            <Node pos="r" depth="3" NCoef="0" IVar="5" Cut="1.4803232625126839e-02" cType="1" res="-3.5122334957122803e-02" rms="4.0008622407913208e-01" purity="2.3136860132217407e-01" nType="0">
              <Node pos="l" depth="4" NCoef="0" IVar="-1" Cut="0.0000000000000000e+00" cType="1" res="-2.2143414244055748e-03" rms="4.4679364562034607e-01" purity="3.0479994416236877e-01" nType="-99"/>
              <Node pos="r" depth="4" NCoef="0" IVar="-1" Cut="0.0000000000000000e+00" cType="1" res="-9.4561586156487465e-03" rms="3.2653295993804932e-01" purity="1.3347911834716797e-01" nType="-99"/>
            </Node>
          </Node>
        </Node>
        <Node pos="r" depth="1" NCoef="0" IVar="4" Cut="1.0596297979354858e+00" cType="1" res="3.5104252398014069e-02" rms="4.2536073923110962e-01" purity="7.1853351593017578e-01" nType="0">
          <Node pos="l" depth="2" NCoef="0" IVar="1" Cut="1.2517392635345459e+00" cType="1" res="3.7744216620922089e-02" rms="4.2423623800277710e-01" purity="7.2668373584747314e-01" nType="0">
            <Node pos="l" depth="3" NCoef="0" IVar="5" Cut="-2.5238091945648193e+00" cType="1" res="4.2241044342517853e-02" rms="4.1676825284957886e-01" purity="7.4994927644729614e-01" nType="0">
              <Node pos="l" depth="4" NCoef="0" IVar="4" Cut="-9.4821596145629883e-01" cType="1" res="5.2740879356861115e-02" rms="3.8914385437965393e-01" purity="7.9902327060699463e-01" nType="0">
                <Node pos="l" depth="5" NCoef="0" IVar="4" Cut="-2.5881190299987793e+00" cType="1" res="4.3767370283603668e-02" rms="4.1451609134674072e-01" purity="7.6177448034286499e-01" nType="0">
                  <Node pos="l" depth="6" NCoef="0" IVar="3" Cut="8.9084899425506592e-01" cType="1" res="6.8885535001754761e-02" rms="3.9846932888031006e-01" purity="7.9121702909469604e-01" nType="0">
                    <Node pos="l" depth="7" NCoef="0" IVar="-1" Cut="0.0000000000000000e+00" cType="1" res="5.7385112158954144e-03" rms="4.2081907391548157e-01" purity="7.5864064693450928e-01" nType="-99"/>
                    <Node pos="r" depth="7" NCoef="0" IVar="-1" Cut="0.0000000000000000e+00" cType="1" res="9.3502122908830643e-03" rms="3.6332258582115173e-01" purity="8.3808630704879761e-01" nType="-99"/>
                  </Node>
                  <Node pos="r" depth="6" NCoef="0" IVar="0" Cut="2.7076712250709534e-01" cType="1" res="3.4681092947721481e-02" rms="4.1979995369911194e-01" purity="7.5112384557723999e-01" nType="0">
                    <Node pos="l" depth="7" NCoef="0" IVar="-1" Cut="0.0000000000000000e+00" cType="1" res="4.2497375980019569e-03" rms="4.0678951144218445e-01" purity="7.8369158506393433e-01" nType="-99"/>
                    <Node pos="r" depth="7" NCoef="0" IVar="-1" Cut="0.0000000000000000e+00" cType="1" res="-1.1149711208418012e-03" rms="4.8232489824295044e-01" purity="5.7226252555847168e-01" nType="-99"/>
                  </Node>
                </Node>
                <Node pos="r" depth="5" NCoef="0" IVar="4" Cut="1.5221938490867615e-01" cType="1" res="6.1100341379642487e-02" rms="3.6372062563896179e-01" purity="8.3372306823730469e-01" nType="0">
                  <Node pos="l" depth="6" NCoef="0" IVar="3" Cut="1.0127234458923340e+00" cType="1" res="5.9977304190397263e-02" rms="3.6276012659072876e-01" purity="8.3466863632202148e-01" nType="0">
                    <Node pos="l" depth="7" NCoef="0" IVar="-1" Cut="0.0000000000000000e+00" cType="1" res="6.6443704999983311e-03" rms="3.6670011281967163e-01" purity="8.2969290018081665e-01" nType="-99"/>
                    <Node pos="r" depth="7" NCoef="0" IVar="-1" Cut="0.0000000000000000e+00" cType="1" res="7.9720849171280861e-03" rms="3.4176316857337952e-01" purity="8.6004352569580078e-01" nType="-99"/>
                  </Node>
                  <Node pos="r" depth="6" NCoef="0" IVar="-1" Cut="0.0000000000000000e+00" cType="1" res="7.9573653638362885e-03" rms="3.7203788757324219e-01" purity="8.2527923583984375e-01" nType="-99"/>
                </Node>
              </Node>
              <Node pos="r" depth="4" NCoef="0" IVar="2" Cut="1.7357304382324219e+02" cType="1" res="3.1323581933975220e-02" rms="4.4340756535530090e-01" purity="6.9892346858978271e-01" nType="0">
                <Node pos="l" depth="5" NCoef="0" IVar="1" Cut="2.0014436542987823e-01" cType="1" res="3.4954201430082321e-02" rms="4.3910643458366394e-01" purity="7.1208691596984863e-01" nType="0">
                  <Node pos="l" depth="6" NCoef="0" IVar="5" Cut="-1.4299559593200684e+00" cType="1" res="4.2443975806236267e-02" rms="4.2468655109405518e-01" purity="7.4644869565963745e-01" nType="0">
                    <Node pos="l" depth="7" NCoef="0" IVar="-1" Cut="0.0000000000000000e+00" cType="1" res="4.6900208108127117e-03" rms="4.0944918990135193e-01" purity="7.7653837203979492e-01" nType="-99"/>
                    <Node pos="r" depth="7" NCoef="0" IVar="-1" Cut="0.0000000000000000e+00" cType="1" res="2.6036701165139675e-03" rms="4.6730896830558777e-01" purity="6.5585803985595703e-01" nType="-99"/>
                  </Node>
                  <Node pos="r" depth="6" NCoef="0" IVar="3" Cut="8.8537478446960449e-01" cType="1" res="2.2146293893456459e-02" rms="4.6244415640830994e-01" purity="6.5332639217376709e-01" nType="0">
                    <Node pos="l" depth="7" NCoef="0" IVar="-1" Cut="0.0000000000000000e+00" cType="1" res="6.5753248054534197e-04" rms="4.8097610473632812e-01" purity="5.8506959676742554e-01" nType="-99"/>
                    <Node pos="r" depth="7" NCoef="0" IVar="-1" Cut="0.0000000000000000e+00" cType="1" res="2.9133581556379795e-03" rms="4.5021414756774902e-01" purity="6.9606661796569824e-01" nType="-99"/>
                  </Node>
                </Node>
                <Node pos="r" depth="5" NCoef="0" IVar="4" Cut="-1.7352679967880249e+00" cType="1" res="5.3146239370107651e-03" rms="4.7226223349571228e-01" purity="6.0462355613708496e-01" nType="0">
                  <Node pos="l" depth="6" NCoef="0" IVar="-1" Cut="0.0000000000000000e+00" cType="1" res="2.6778732426464558e-03" rms="4.6016183495521545e-01" purity="6.6917341947555542e-01" nType="-99"/>
                  <Node pos="r" depth="6" NCoef="0" IVar="-1" Cut="0.0000000000000000e+00" cType="1" res="-9.5441332086920738e-04" rms="4.7954234480857849e-01" purity="5.6159412860870361e-01" nType="-99"/>
                </Node>
              </Node>
            </Node>
            <Node pos="r" depth="3" NCoef="0" IVar="5" Cut="-2.4588742256164551e+00" cType="1" res="2.5622609537094831e-03" rms="4.7719836235046387e-01" purity="5.4466021060943604e-01" nType="0">
              <Node pos="l" depth="4" NCoef="0" IVar="3" Cut="9.9799108505249023e-01" cType="1" res="1.8420152366161346e-02" rms="4.7036367654800415e-01" purity="6.1421024799346924e-01" nType="0">
                <Node pos="l" depth="5" NCoef="0" IVar="-1" Cut="0.0000000000000000e+00" cType="1" res="6.7555479472503066e-04" rms="4.8030301928520203e-01" purity="5.7209044694900513e-01" nType="-99"/>
                <Node pos="r" depth="5" NCoef="0" IVar="-1" Cut="0.0000000000000000e+00" cType="1" res="3.1464477069675922e-03" rms="4.5255836844444275e-01" purity="6.8513530492782593e-01" nType="-99"/>
              </Node>
              <Node pos="r" depth="4" NCoef="0" IVar="1" Cut="2.0985312461853027e+00" cType="1" res="-1.3768204487860203e-02" rms="4.8359274864196777e-01" purity="4.7303754091262817e-01" nType="0">
                <Node pos="l" depth="5" NCoef="0" IVar="-1" Cut="0.0000000000000000e+00" cType="1" res="8.6399732390418649e-04" rms="4.8574677109718323e-01" purity="5.1151400804519653e-01" nType="-99"/>
                <Node pos="r" depth="5" NCoef="0" IVar="-1" Cut="0.0000000000000000e+00" cType="1" res="-3.6424573045223951e-03" rms="4.7989970445632935e-01" purity="4.3115168809890747e-01" nType="-99"/>
              </Node>
            </Node>
          </Node>
          <Node pos="r" depth="2" NCoef="0" IVar="-1" Cut="0.0000000000000000e+00" cType="1" res="-7.0291883312165737e-03" rms="4.5592701435089111e-01" purity="3.8930827379226685e-01" nType="-99"/>
        </Node>
      </Node>
    </BinaryTree>
    <BinaryTree type="DecisionTree" boostWeight="1.0000000000000000e+00" itree="50">
      <Node pos="s" depth="0" NCoef="0" IVar="0" Cut="3.2253021001815796e-01" cType="1" res="1.1587238870561123e-02" rms="4.0258881449699402e-01" purity="5.0130385160446167e-01" nType="0">
        <Node pos="l" depth="1" NCoef="0" IVar="5" Cut="-8.1788671016693115e-01" cType="1" res="3.6522068083286285e-02" rms="4.2037907242774963e-01" purity="7.3225766420364380e-01" nType="0">
          <Node pos="l" depth="2" NCoef="0" IVar="3" Cut="8.4737235307693481e-01" cType="1" res="4.0571309626102448e-02" rms="4.1579625010490417e-01" purity="7.5043797492980957e-01" nType="0">
            <Node pos="l" depth="3" NCoef="0" IVar="6" Cut="3.6964952945709229e-02" cType="1" res="2.3578630760312080e-02" rms="4.6804663538932800e-01" purity="6.2457072734832764e-01" nType="0">
              <Node pos="l" depth="4" NCoef="0" IVar="4" Cut="-2.0937736034393311e+00" cType="1" res="-2.1392319467850029e-04" rms="4.7138291597366333e-01" purity="6.1185908317565918e-01" nType="0">
                <Node pos="l" depth="5" NCoef="0" IVar="-1" Cut="0.0000000000000000e+00" cType="1" res="1.8306851852685213e-03" rms="4.6392643451690674e-01" purity="6.5317440032958984e-01" nType="-99"/>
                <Node pos="r" depth="5" NCoef="0" IVar="-1" Cut="0.0000000000000000e+00" cType="1" res="-1.8276746850460768e-03" rms="4.7766551375389099e-01" purity="5.7194560766220093e-01" nType="-99"/>
              </Node>
              <Node pos="r" depth="4" NCoef="0" IVar="2" Cut="1.3790106201171875e+02" cType="1" res="3.3761993050575256e-02" rms="4.6624049544334412e-01" purity="6.3001137971878052e-01" nType="0">
                <Node pos="l" depth="5" NCoef="0" IVar="6" Cut="6.4400501549243927e-02" cType="1" res="4.8783946782350540e-02" rms="4.5775386691093445e-01" purity="6.6366475820541382e-01" nType="0">
                  <Node pos="l" depth="6" NCoef="0" IVar="2" Cut="8.4760276794433594e+01" cType="1" res="4.0068861097097397e-02" rms="4.6002435684204102e-01" purity="6.6137611865997314e-01" nType="0">
                    <Node pos="l" depth="7" NCoef="0" IVar="-1" Cut="0.0000000000000000e+00" cType="1" res="4.2207231745123863e-03" rms="4.5637828111648560e-01" purity="6.6960912942886353e-01" nType="-99"/>
                    <Node pos="r" depth="7" NCoef="0" IVar="-1" Cut="0.0000000000000000e+00" cType="1" res="1.9509985577315092e-03" rms="4.6592766046524048e-01" purity="6.4665549993515015e-01" nType="-99"/>
                  </Node>
                  <Node pos="r" depth="6" NCoef="0" IVar="-1" Cut="0.0000000000000000e+00" cType="1" res="5.4965442977845669e-03" rms="4.5222252607345581e-01" purity="6.6862112283706665e-01" nType="-99"/>
                </Node>
                <Node pos="r" depth="5" NCoef="0" IVar="3" Cut="6.8681728839874268e-01" cType="1" res="2.0452417433261871e-02" rms="4.7323444485664368e-01" purity="6.0019427537918091e-01" nType="0">
                  <Node pos="l" depth="6" NCoef="0" IVar="-1" Cut="0.0000000000000000e+00" cType="1" res="1.1144088784931228e-04" rms="4.8095059394836426e-01" purity="4.7317433357238770e-01" nType="-99"/>
                  <Node pos="r" depth="6" NCoef="0" IVar="6" Cut="6.1916232109069824e-02" cType="1" res="2.8227942064404488e-02" rms="4.6985891461372375e-01" purity="6.5148907899856567e-01" nType="0">
                    <Node pos="l" depth="7" NCoef="0" IVar="-1" Cut="0.0000000000000000e+00" cType="1" res="9.1531506041064858e-04" rms="4.7202599048614502e-01" purity="6.3659131526947021e-01" nType="-99"/>
                    <Node pos="r" depth="7" NCoef="0" IVar="-1" Cut="0.0000000000000000e+00" cType="1" res="3.8729102816432714e-03" rms="4.6755725145339966e-01" purity="6.6356879472732544e-01" nType="-99"/>
                  </Node>
                </Node>
              </Node>
            </Node>
            <Node pos="r" depth="3" NCoef="0" IVar="0" Cut="1.9767363369464874e-01" cType="1" res="4.7036997973918915e-02" rms="3.9390736818313599e-01" purity="7.9833024740219116e-01" nType="0">
              <Node pos="l" depth="4" NCoef="0" IVar="1" Cut="8.6773328483104706e-02" cType="1" res="4.8691291362047195e-02" rms="3.9170092344284058e-01" purity="8.0161041021347046e-01" nType="0">
                <Node pos="l" depth="5" NCoef="0" IVar="5" Cut="-2.9953246116638184e+00" cType="1" res="5.6196458637714386e-02" rms="3.6614048480987549e-01" purity="8.3784198760986328e-01" nType="0">
                  <Node pos="l" depth="6" NCoef="0" IVar="1" Cut="-3.6507347226142883e-01" cType="1" res="6.7376472055912018e-02" rms="3.3078220486640930e-01" purity="8.7427961826324463e-01" nType="0">
                    <Node pos="l" depth="7" NCoef="0" IVar="-1" Cut="0.0000000000000000e+00" cType="1" res="6.0975360684096813e-03" rms="3.4756994247436523e-01" purity="8.5893106460571289e-01" nType="-99"/>
                    <Node pos="r" depth="7" NCoef="0" IVar="-1" Cut="0.0000000000000000e+00" cType="1" res="9.1651147231459618e-03" rms="3.2251632213592529e-01" purity="8.8133662939071655e-01" nType="-99"/>
                  </Node>
                  <Node pos="r" depth="6" NCoef="0" IVar="5" Cut="-1.7310012578964233e+00" cType="1" res="5.1736127585172653e-02" rms="3.7923628091812134e-01" purity="8.2330507040023804e-01" nType="0">
                    <Node pos="l" depth="7" NCoef="0" IVar="-1" Cut="0.0000000000000000e+00" cType="1" res="6.1275241896510124e-03" rms="3.6905661225318909e-01" purity="8.3633846044540405e-01" nType="-99"/>
                    <Node pos="r" depth="7" NCoef="0" IVar="-1" Cut="0.0000000000000000e+00" cType="1" res="3.7872940301895142e-03" rms="4.2709025740623474e-01" purity="7.5690448284149170e-01" nType="-99"/>
                  </Node>
                </Node>
                <Node pos="r" depth="5" NCoef="0" IVar="4" Cut="-5.6369626522064209e-01" cType="1" res="4.0481574833393097e-02" rms="4.1771972179412842e-01" purity="7.6197761297225952e-01" nType="0">
                  <Node pos="l" depth="6" NCoef="0" IVar="5" Cut="-2.7009413242340088e+00" cType="1" res="3.2539341598749161e-02" rms="4.2873260378837585e-01" purity="7.4400031566619873e-01" nType="0">
                    <Node pos="l" depth="7" NCoef="0" IVar="-1" Cut="0.0000000000000000e+00" cType="1" res="4.2387098073959351e-03" rms="4.0763244032859802e-01" purity="7.8217065334320068e-01" nType="-99"/>
                    <Node pos="r" depth="7" NCoef="0" IVar="-1" Cut="0.0000000000000000e+00" cType="1" res="2.0111834164708853e-03" rms="4.4879728555679321e-01" purity="7.0542132854461670e-01" nType="-99"/>
                  </Node>
                  <Node pos="r" depth="6" NCoef="0" IVar="3" Cut="9.9389874935150146e-01" cType="1" res="5.1535893231630325e-02" rms="4.0162819623947144e-01" purity="7.8699916601181030e-01" nType="0">
                    <Node pos="l" depth="7" NCoef="0" IVar="-1" Cut="0.0000000000000000e+00" cType="1" res="2.4460875429213047e-03" rms="4.3267691135406494e-01" purity="7.3314338922500610e-01" nType="-99"/>
                    <Node pos="r" depth="7" NCoef="0" IVar="-1" Cut="0.0000000000000000e+00" cType="1" res="6.3751265406608582e-03" rms="3.9039766788482666e-01" purity="8.0481112003326416e-01" nType="-99"/>
                  </Node>
                </Node>
              </Node>
              <Node pos="r" depth="4" NCoef="0" IVar="-1" Cut="0.0000000000000000e+00" cType="1" res="9.6924987155944109e-04" rms="4.4006398320198059e-01" purity="7.2260826826095581e-01" nType="-99"/>
            </Node>
          </Node>
          <Node pos="r" depth="2" NCoef="0" IVar="1" Cut="4.8758634924888611e-01" cType="1" res="-2.0137215033173561e-02" rms="4.7633907198905945e-01" purity="4.7786873579025269e-01" nType="0">
            <Node pos="l" depth="3" NCoef="0" IVar="3" Cut="8.5744804143905640e-01" cType="1" res="6.1813853681087494e-03" rms="4.8136007785797119e-01" purity="5.3636968135833740e-01" nType="0">
              <Node pos="l" depth="4" NCoef="0" IVar="-1" Cut="0.0000000000000000e+00" cType="1" res="-1.3932720758020878e-03" rms="4.8280823230743408e-01" purity="4.3992722034454346e-01" nType="-99"/>
              <Node pos="r" depth="4" NCoef="0" IVar="-1" Cut="0.0000000000000000e+00" cType="1" res="2.3368624970316887e-03" rms="4.7914162278175354e-01" purity="6.2746495008468628e-01" nType="-99"/>
            </Node>
            <Node pos="r" depth="3" NCoef="0" IVar="-1" Cut="0.0000000000000000e+00" cType="1" res="-8.0573130398988724e-03" rms="4.5850265026092529e-01" purity="3.4091994166374207e-01" nType="-99"/>
          </Node>
        </Node>
        <Node pos="r" depth="1" NCoef="0" IVar="1" Cut="-6.0149379074573517e-02" cType="1" res="-1.6367489472031593e-02" rms="3.7971732020378113e-01" purity="2.4237884581089020e-01" nType="0">
          <Node pos="l" depth="2" NCoef="0" IVar="4" Cut="1.4014518260955811e+00" cType="1" res="1.2092610821127892e-02" rms="4.3534117937088013e-01" purity="3.7680360674858093e-01" nType="0">
            <Node pos="l" depth="3" NCoef="0" IVar="2" Cut="1.2023311614990234e+02" cType="1" res="1.9506007432937622e-02" rms="4.5337980985641479e-01" purity="4.1615656018257141e-01" nType="0">
              <Node pos="l" depth="4" NCoef="0" IVar="6" Cut="2.6324432343244553e-02" cType="1" res="4.2053513228893280e-02" rms="4.6896681189537048e-01" purity="5.2715730667114258e-01" nType="0">
                <Node pos="l" depth="5" NCoef="0" IVar="-1" Cut="0.0000000000000000e+00" cType="1" res="1.2403649743646383e-03" rms="4.6705558896064758e-01" purity="5.5316799879074097e-01" nType="-99"/>
                <Node pos="r" depth="5" NCoef="0" IVar="-1" Cut="0.0000000000000000e+00" cType="1" res="5.8876518160104752e-03" rms="4.6927237510681152e-01" purity="5.0601315498352051e-01" nType="-99"/>
              </Node>
              <Node pos="r" depth="4" NCoef="0" IVar="0" Cut="1.2395929098129272e+00" cType="1" res="6.0452274046838284e-03" rms="4.4326716661453247e-01" purity="3.4988948702812195e-01" nType="0">
                <Node pos="l" depth="5" NCoef="0" IVar="2" Cut="2.2992060852050781e+02" cType="1" res="1.5812635421752930e-02" rms="4.7314280271530151e-01" purity="4.2368307709693909e-01" nType="0">
                  <Node pos="l" depth="6" NCoef="0" IVar="-1" Cut="0.0000000000000000e+00" cType="1" res="2.8329826891422272e-03" rms="4.7534951567649841e-01" purity="4.5528393983840942e-01" nType="-99"/>
                  <Node pos="r" depth="6" NCoef="0" IVar="6" Cut="1.1030834168195724e-01" cType="1" res="5.5575147271156311e-03" rms="4.7125768661499023e-01" purity="4.0056151151657104e-01" nType="0">
                    <Node pos="l" depth="7" NCoef="0" IVar="-1" Cut="0.0000000000000000e+00" cType="1" res="9.8163734946865588e-05" rms="4.7253814339637756e-01" purity="4.1963970661163330e-01" nType="-99"/>
                    <Node pos="r" depth="7" NCoef="0" IVar="-1" Cut="0.0000000000000000e+00" cType="1" res="1.0467268293723464e-03" rms="4.6995300054550171e-01" purity="3.8182473182678223e-01" nType="-99"/>
                  </Node>
                </Node>
                <Node pos="r" depth="5" NCoef="0" IVar="-1" Cut="0.0000000000000000e+00" cType="1" res="-3.7101400084793568e-03" rms="3.5285910964012146e-01" purity="1.5829111635684967e-01" nType="-99"/>
              </Node>
            </Node>
            <Node pos="r" depth="3" NCoef="0" IVar="-1" Cut="0.0000000000000000e+00" cType="1" res="-1.0693519376218319e-02" rms="2.6090204715728760e-01" purity="8.6979605257511139e-02" nType="-99"/>
          </Node>
          <Node pos="r" depth="2" NCoef="0" IVar="5" Cut="-1.3629549741744995e+00" cType="1" res="-2.2931976243853569e-02" rms="3.6537399888038635e-01" purity="2.1137300133705139e-01" nType="0">
            <Node pos="l" depth="3" NCoef="0" IVar="1" Cut="9.1330265998840332e-01" cType="1" res="-1.5126346610486507e-02" rms="3.9881211519241333e-01" purity="2.6310420036315918e-01" nType="0">
              <Node pos="l" depth="4" NCoef="0" IVar="5" Cut="-3.2105569839477539e+00" cType="1" res="-4.4494490139186382e-03" rms="4.2372581362724304e-01" purity="3.2126197218894958e-01" nType="0">
                <Node pos="l" depth="5" NCoef="0" IVar="-1" Cut="0.0000000000000000e+00" cType="1" res="-5.8843097649514675e-03" rms="3.5666432976722717e-01" purity="2.1468812227249146e-01" nType="-99"/>
                <Node pos="r" depth="5" NCoef="0" IVar="2" Cut="6.2491157531738281e+01" cType="1" res="3.8874961319379508e-04" rms="4.3223825097084045e-01" purity="3.3648136258125305e-01" nType="0">
                  <Node pos="l" depth="6" NCoef="0" IVar="6" Cut="1.8912263214588165e-02" cType="1" res="2.6786526665091515e-02" rms="4.6781200170516968e-01" purity="4.9395066499710083e-01" nType="0">
                    <Node pos="l" depth="7" NCoef="0" IVar="-1" Cut="0.0000000000000000e+00" cType="1" res="6.9997779792174697e-04" rms="4.7241911292076111e-01" purity="5.3899580240249634e-01" nType="-99"/>
                    <Node pos="r" depth="7" NCoef="0" IVar="-1" Cut="0.0000000000000000e+00" cType="1" res="4.8529943451285362e-03" rms="4.6152752637863159e-01" purity="4.4249084591865540e-01" nType="-99"/>
                  </Node>
                  <Node pos="r" depth="6" NCoef="0" IVar="6" Cut="7.3066174983978271e-02" cType="1" res="-6.4097112044692039e-03" rms="4.2232486605644226e-01" purity="2.9592686891555786e-01" nType="0">
                    <Node pos="l" depth="7" NCoef="0" IVar="-1" Cut="0.0000000000000000e+00" cType="1" res="-4.4919732026755810e-03" rms="4.1196143627166748e-01" purity="2.8488591313362122e-01" nType="-99"/>
                    <Node pos="r" depth="7" NCoef="0" IVar="-1" Cut="0.0000000000000000e+00" cType="1" res="8.3902542246505618e-04" rms="4.2623484134674072e-01" purity="3.0086621642112732e-01" nType="-99"/>
                  </Node>
                </Node>
              </Node>
              <Node pos="r" depth="4" NCoef="0" IVar="0" Cut="6.3457572460174561e-01" cType="1" res="-2.7561575174331665e-02" rms="3.6728250980377197e-01" purity="1.9536875188350677e-01" nType="0">
                <Node pos="l" depth="5" NCoef="0" IVar="0" Cut="4.5338872075080872e-01" cType="1" res="-6.7141354084014893e-03" rms="4.7007039189338684e-01" purity="3.8130083680152893e-01" nType="0">
                  <Node pos="l" depth="6" NCoef="0" IVar="-1" Cut="0.0000000000000000e+00" cType="1" res="8.8689144467934966e-04" rms="4.8240432143211365e-01" purity="4.1564527153968811e-01" nType="-99"/>
                  <Node pos="r" depth="6" NCoef="0" IVar="-1" Cut="0.0000000000000000e+00" cType="1" res="-2.3727214429527521e-03" rms="4.5688435435295105e-01" purity="3.4714969992637634e-01" nType="-99"/>
                </Node>
                <Node pos="r" depth="5" NCoef="0" IVar="4" Cut="-1.3880234956741333e+00" cType="1" res="-3.2338008284568787e-02" rms="3.3919656276702881e-01" purity="1.5276916325092316e-01" nType="0">
                  <Node pos="l" depth="6" NCoef="0" IVar="5" Cut="-2.7069821357727051e+00" cType="1" res="-2.0290805026888847e-02" rms="3.7347152829170227e-01" purity="1.9198778271675110e-01" nType="0">
                    <Node pos="l" depth="7" NCoef="0" IVar="-1" Cut="0.0000000000000000e+00" cType="1" res="-7.4785756878554821e-03" rms="3.3215597271919250e-01" purity="1.4951166510581970e-01" nType="-99"/>
                    <Node pos="r" depth="7" NCoef="0" IVar="-1" Cut="0.0000000000000000e+00" cType="1" res="2.4057831615209579e-04" rms="4.1473340988159180e-01" purity="2.4068610370159149e-01" nType="-99"/>
                  </Node>
                  <Node pos="r" depth="6" NCoef="0" IVar="2" Cut="6.4903984069824219e+01" cType="1" res="-3.6280225962400436e-02" rms="3.2710564136505127e-01" purity="1.3993562757968903e-01" nType="0">
                    <Node pos="l" depth="7" NCoef="0" IVar="-1" Cut="0.0000000000000000e+00" cType="1" res="-3.1326229218393564e-03" rms="3.9089354872703552e-01" purity="2.3431400954723358e-01" nType="-99"/>
                    <Node pos="r" depth="7" NCoef="0" IVar="-1" Cut="0.0000000000000000e+00" cType="1" res="-8.6729200556874275e-03" rms="3.0939140915870667e-01" purity="1.1684325337409973e-01" nType="-99"/>
                  </Node>
                </Node>
              </Node>
            </Node>
            <Node pos="r" depth="3" NCoef="0" IVar="4" Cut="-4.7219735383987427e-01" cType="1" res="-3.6532640457153320e-02" rms="2.9779708385467529e-01" purity="1.2123560905456543e-01" nType="0">
              <Node pos="l" depth="4" NCoef="0" IVar="-1" Cut="0.0000000000000000e+00" cType="1" res="9.7354168246965855e-05" rms="4.2493131756782532e-01" purity="2.8602674603462219e-01" nType="-99"/>
              <Node pos="r" depth="4" NCoef="0" IVar="5" Cut="8.3657604455947876e-01" cType="1" res="-4.0430344641208649e-02" rms="2.8092545270919800e-01" purity="1.0401202738285065e-01" nType="0">
                <Node pos="l" depth="5" NCoef="0" IVar="2" Cut="6.9252883911132812e+01" cType="1" res="-3.4593477845191956e-02" rms="3.2712933421134949e-01" purity="1.4582142233848572e-01" nType="0">
                  <Node pos="l" depth="6" NCoef="0" IVar="-1" Cut="0.0000000000000000e+00" cType="1" res="-1.5066892374306917e-03" rms="3.9587801694869995e-01" purity="2.5446692109107971e-01" nType="-99"/>
                  <Node pos="r" depth="6" NCoef="0" IVar="6" Cut="6.2860026955604553e-02" cType="1" res="-3.8866560906171799e-02" rms="3.1286415457725525e-01" purity="1.2612621486186981e-01" nType="0">
                    <Node pos="l" depth="7" NCoef="0" IVar="-1" Cut="0.0000000000000000e+00" cType="1" res="-1.1350740678608418e-02" rms="3.0162927508354187e-01" purity="1.2303034961223602e-01" nType="-99"/>
                    <Node pos="r" depth="7" NCoef="0" IVar="-1" Cut="0.0000000000000000e+00" cType="1" res="-7.2709484957158566e-03" rms="3.1476792693138123e-01" purity="1.2670931220054626e-01" nType="-99"/>
                  </Node>
                </Node>
                <Node pos="r" depth="5" NCoef="0" IVar="3" Cut="4.5964831113815308e-01" cType="1" res="-5.0236556679010391e-02" rms="1.7766724526882172e-01" purity="3.3770274370908737e-02" nType="0">
                  <Node pos="l" depth="6" NCoef="0" IVar="3" Cut="2.3086693882942200e-01" cType="1" res="-3.8850873708724976e-02" rms="1.6126914322376251e-01" purity="2.8229609131813049e-02" nType="0">
                    <Node pos="l" depth="7" NCoef="0" IVar="-1" Cut="0.0000000000000000e+00" cType="1" res="-9.0596517547965050e-03" rms="2.1652638912200928e-01" purity="5.3760193288326263e-02" nType="-99"/>
                    <Node pos="r" depth="7" NCoef="0" IVar="-1" Cut="0.0000000000000000e+00" cType="1" res="-2.1574761718511581e-02" rms="1.3277685642242432e-01" purity="1.8202204257249832e-02" nType="-99"/>
                  </Node>
                  <Node pos="r" depth="6" NCoef="0" IVar="-1" Cut="0.0000000000000000e+00" cType="1" res="-2.0412178710103035e-02" rms="2.2306077182292938e-01" purity="5.4122719913721085e-02" nType="-99"/>
                </Node>
              </Node>
            </Node>
          </Node>
        </Node>
      </Node>
    </BinaryTree>
    <BinaryTree type="DecisionTree" boostWeight="1.0000000000000000e+00" itree="51">
      <Node pos="s" depth="0" NCoef="0" IVar="0" Cut="3.2252842187881470e-01" cType="1" res="1.0578867979347706e-02" rms="4.0219232439994812e-01" purity="5.0058996677398682e-01" nType="0">
        <Node pos="l" depth="1" NCoef="0" IVar="3" Cut="8.4021311998367310e-01" cType="1" res="3.4762203693389893e-02" rms="4.2098796367645264e-01" purity="7.3159223794937134e-01" nType="0">
          <Node pos="l" depth="2" NCoef="0" IVar="4" Cut="1.3280536234378815e-01" cType="1" res="1.3988372869789600e-02" rms="4.7022449970245361e-01" purity="5.9074902534484863e-01" nType="0">
            <Node pos="l" depth="3" NCoef="0" IVar="6" Cut="3.5851981490850449e-02" cType="1" res="2.0311843603849411e-02" rms="4.6962326765060425e-01" purity="6.1942368745803833e-01" nType="0">
              <Node pos="l" depth="4" NCoef="0" IVar="0" Cut="1.8726603686809540e-01" cType="1" res="-1.6511533176526427e-03" rms="4.7326391935348511e-01" purity="6.0525035858154297e-01" nType="0">
                <Node pos="l" depth="5" NCoef="0" IVar="-1" Cut="0.0000000000000000e+00" cType="1" res="1.0649089235812426e-03" rms="4.6645340323448181e-01" purity="6.3746976852416992e-01" nType="-99"/>
                <Node pos="r" depth="5" NCoef="0" IVar="-1" Cut="0.0000000000000000e+00" cType="1" res="-2.8665061108767986e-03" rms="4.8558408021926880e-01" purity="5.3987830877304077e-01" nType="-99"/>
              </Node>
              <Node pos="r" depth="4" NCoef="0" IVar="2" Cut="1.4041471862792969e+02" cType="1" res="2.8830582275986671e-02" rms="4.6792617440223694e-01" purity="6.2492102384567261e-01" nType="0">
                <Node pos="l" depth="5" NCoef="0" IVar="5" Cut="-2.0475811958312988e+00" cType="1" res="4.4897835701704025e-02" rms="4.5790016651153564e-01" purity="6.6406291723251343e-01" nType="0">
                  <Node pos="l" depth="6" NCoef="0" IVar="7" Cut="3.0000000000000000e+00" cType="1" res="3.5479113459587097e-02" rms="3.6180418729782104e-01" purity="6.8784081935882568e-01" nType="0">
                    <Node pos="l" depth="7" NCoef="0" IVar="-1" Cut="0.0000000000000000e+00" cType="1" res="3.9232214912772179e-03" rms="4.4166937470436096e-01" purity="7.1427404880523682e-01" nType="-99"/>
                    <Node pos="r" depth="7" NCoef="0" IVar="-1" Cut="0.0000000000000000e+00" cType="1" res="5.5113318376243114e-03" rms="4.5608991384506226e-01" purity="6.6090548038482666e-01" nType="-99"/>
                  </Node>
                  <Node pos="r" depth="6" NCoef="0" IVar="-1" Cut="0.0000000000000000e+00" cType="1" res="1.7996515380218625e-03" rms="4.7561496496200562e-01" purity="6.1343610286712646e-01" nType="-99"/>
                </Node>
                <Node pos="r" depth="5" NCoef="0" IVar="6" Cut="8.9191876351833344e-02" cType="1" res="1.4934478327631950e-02" rms="4.7599008679389954e-01" purity="5.9106838703155518e-01" nType="0">
                  <Node pos="l" depth="6" NCoef="0" IVar="3" Cut="7.6246613264083862e-01" cType="1" res="4.7566671855747700e-03" rms="4.7465103864669800e-01" purity="6.0548919439315796e-01" nType="0">
                    <Node pos="l" depth="7" NCoef="0" IVar="-1" Cut="0.0000000000000000e+00" cType="1" res="-1.8275077454745770e-03" rms="4.8372870683670044e-01" purity="5.2763140201568604e-01" nType="-99"/>
                    <Node pos="r" depth="7" NCoef="0" IVar="-1" Cut="0.0000000000000000e+00" cType="1" res="1.9411762477830052e-03" rms="4.6786847710609436e-01" purity="6.5692347288131714e-01" nType="-99"/>
                  </Node>
                  <Node pos="r" depth="6" NCoef="0" IVar="-1" Cut="0.0000000000000000e+00" cType="1" res="3.8070953451097012e-03" rms="4.7851356863975525e-01" purity="5.5197554826736450e-01" nType="-99"/>
                </Node>
              </Node>
            </Node>
            <Node pos="r" depth="3" NCoef="0" IVar="5" Cut="-1.0671212673187256e+00" cType="1" res="-1.4405815862119198e-02" rms="4.7187143564224243e-01" purity="4.6199154853820801e-01" nType="0">
              <Node pos="l" depth="4" NCoef="0" IVar="-1" Cut="0.0000000000000000e+00" cType="1" res="3.9599768933840096e-04" rms="4.7851032018661499e-01" purity="5.5530077219009399e-01" nType="-99"/>
              <Node pos="r" depth="4" NCoef="0" IVar="-1" Cut="0.0000000000000000e+00" cType="1" res="-3.2149266917258501e-03" rms="4.6478381752967834e-01" purity="3.7342262268066406e-01" nType="-99"/>
            </Node>
          </Node>
          <Node pos="r" depth="2" NCoef="0" IVar="3" Cut="9.8663443326950073e-01" cType="1" res="4.2633358389139175e-02" rms="4.0047383308410645e-01" purity="7.8495740890502930e-01" nType="0">
            <Node pos="l" depth="3" NCoef="0" IVar="1" Cut="7.1647280454635620e-01" cType="1" res="3.2331310212612152e-02" rms="4.2277088761329651e-01" purity="7.4835461378097534e-01" nType="0">
              <Node pos="l" depth="4" NCoef="0" IVar="5" Cut="-1.8219672441482544e+00" cType="1" res="3.7370190024375916e-02" rms="4.1030725836753845e-01" purity="7.7565199136734009e-01" nType="0">
                <Node pos="l" depth="5" NCoef="0" IVar="1" Cut="2.6328101754188538e-01" cType="1" res="4.2098678648471832e-02" rms="3.9410948753356934e-01" purity="8.0482876300811768e-01" nType="0">
                  <Node pos="l" depth="6" NCoef="0" IVar="4" Cut="-2.5356492996215820e+00" cType="1" res="4.6191014349460602e-02" rms="3.8432106375694275e-01" purity="8.1808972358703613e-01" nType="0">
                    <Node pos="l" depth="7" NCoef="0" IVar="-1" Cut="0.0000000000000000e+00" cType="1" res="7.1542989462614059e-03" rms="3.7569862604141235e-01" purity="8.2835656404495239e-01" nType="-99"/>
                    <Node pos="r" depth="7" NCoef="0" IVar="-1" Cut="0.0000000000000000e+00" cType="1" res="4.6448977664113045e-03" rms="3.8694605231285095e-01" purity="8.1477659940719604e-01" nType="-99"/>
                  </Node>
                  <Node pos="r" depth="6" NCoef="0" IVar="-1" Cut="0.0000000000000000e+00" cType="1" res="2.8750142082571983e-03" rms="4.2586049437522888e-01" purity="7.5907075405120850e-01" nType="-99"/>
                </Node>
                <Node pos="r" depth="5" NCoef="0" IVar="1" Cut="-6.2571726739406586e-03" cType="1" res="2.0725782960653305e-02" rms="4.6245145797729492e-01" purity="6.7294901609420776e-01" nType="0">
                  <Node pos="l" depth="6" NCoef="0" IVar="-1" Cut="0.0000000000000000e+00" cType="1" res="3.0804586131125689e-03" rms="4.5210891962051392e-01" purity="7.0487564802169800e-01" nType="-99"/>
                  <Node pos="r" depth="6" NCoef="0" IVar="-1" Cut="0.0000000000000000e+00" cType="1" res="8.0171326408162713e-04" rms="4.7305560111999512e-01" purity="6.3851064443588257e-01" nType="-99"/>
                </Node>
              </Node>
              <Node pos="r" depth="4" NCoef="0" IVar="6" Cut="2.6699505746364594e-02" cType="1" res="8.8398465886712074e-03" rms="4.7589063644409180e-01" purity="6.2109339237213135e-01" nType="0">
                <Node pos="l" depth="5" NCoef="0" IVar="-1" Cut="0.0000000000000000e+00" cType="1" res="-2.1706377156078815e-03" rms="4.7753494977951050e-01" purity="5.9974563121795654e-01" nType="-99"/>
                <Node pos="r" depth="5" NCoef="0" IVar="-1" Cut="0.0000000000000000e+00" cType="1" res="4.1765314526855946e-03" rms="4.7098648548126221e-01" purity="6.4636856317520142e-01" nType="-99"/>
              </Node>
            </Node>
            <Node pos="r" depth="3" NCoef="0" IVar="1" Cut="1.2611601352691650e+00" cType="1" res="4.8893164843320847e-02" rms="3.8616326451301575e-01" purity="8.0719822645187378e-01" nType="0">
              <Node pos="l" depth="4" NCoef="0" IVar="4" Cut="-4.2779061198234558e-01" cType="1" res="5.1221847534179688e-02" rms="3.7802132964134216e-01" purity="8.2069575786590576e-01" nType="0">
                <Node pos="l" depth="5" NCoef="0" IVar="5" Cut="-2.4568986892700195e+00" cType="1" res="4.4750425964593887e-02" rms="3.8623923063278198e-01" purity="8.1154263019561768e-01" nType="0">
                  <Node pos="l" depth="6" NCoef="0" IVar="4" Cut="-1.3943676948547363e+00" cType="1" res="5.0499022006988525e-02" rms="3.6558532714843750e-01" purity="8.3865559101104736e-01" nType="0">
                    <Node pos="l" depth="7" NCoef="0" IVar="-1" Cut="0.0000000000000000e+00" cType="1" res="3.5512824542820454e-03" rms="3.9543545246124268e-01" purity="8.0357158184051514e-01" nType="-99"/>
                    <Node pos="r" depth="7" NCoef="0" IVar="-1" Cut="0.0000000000000000e+00" cType="1" res="6.5810638479888439e-03" rms="3.4998878836631775e-01" purity="8.5571503639221191e-01" nType="-99"/>
                  </Node>
                  <Node pos="r" depth="6" NCoef="0" IVar="4" Cut="-1.0654596090316772e+00" cType="1" res="3.3493507653474808e-02" rms="4.2355224490165710e-01" purity="7.5845003128051758e-01" nType="0">
                    <Node pos="l" depth="7" NCoef="0" IVar="-1" Cut="0.0000000000000000e+00" cType="1" res="3.4932992421090603e-03" rms="4.2657977342605591e-01" purity="7.5526839494705200e-01" nType="-99"/>
                    <Node pos="r" depth="7" NCoef="0" IVar="-1" Cut="0.0000000000000000e+00" cType="1" res="2.7014135848730803e-03" rms="4.2010107636451721e-01" purity="7.6195305585861206e-01" nType="-99"/>
                  </Node>
                </Node>
                <Node pos="r" depth="5" NCoef="0" IVar="1" Cut="3.8810774683952332e-02" cType="1" res="5.7822044938802719e-02" rms="3.6933490633964539e-01" purity="8.3003103733062744e-01" nType="0">
                  <Node pos="l" depth="6" NCoef="0" IVar="3" Cut="9.9996674060821533e-01" cType="1" res="6.4919784665107727e-02" rms="3.4978288412094116e-01" purity="8.5386800765991211e-01" nType="0">
                    <Node pos="l" depth="7" NCoef="0" IVar="-1" Cut="0.0000000000000000e+00" cType="1" res="6.8230382166802883e-03" rms="3.5943615436553955e-01" purity="8.4456026554107666e-01" nType="-99"/>
                    <Node pos="r" depth="7" NCoef="0" IVar="-1" Cut="0.0000000000000000e+00" cType="1" res="8.6033605039119720e-03" rms="3.4003147482872009e-01" purity="8.6280465126037598e-01" nType="-99"/>
                  </Node>
                  <Node pos="r" depth="6" NCoef="0" IVar="5" Cut="-2.9411613941192627e+00" cType="1" res="4.9257263541221619e-02" rms="3.9145943522453308e-01" purity="8.0126702785491943e-01" nType="0">
                    <Node pos="l" depth="7" NCoef="0" IVar="-1" Cut="0.0000000000000000e+00" cType="1" res="8.1537272781133652e-03" rms="3.4345382452011108e-01" purity="8.6224746704101562e-01" nType="-99"/>
                    <Node pos="r" depth="7" NCoef="0" IVar="-1" Cut="0.0000000000000000e+00" cType="1" res="4.4314539991319180e-03" rms="4.1052171587944031e-01" purity="7.7450460195541382e-01" nType="-99"/>
                  </Node>
                </Node>
              </Node>
              <Node pos="r" depth="4" NCoef="0" IVar="-1" Cut="0.0000000000000000e+00" cType="1" res="2.2348454222083092e-03" rms="4.5807930827140808e-01" purity="6.7422980070114136e-01" nType="-99"/>
            </Node>
          </Node>
        </Node>
        <Node pos="r" depth="1" NCoef="0" IVar="1" Cut="1.1248696595430374e-01" cType="1" res="-1.6652695834636688e-02" rms="3.7806898355484009e-01" purity="2.4047060310840607e-01" nType="0">
          <Node pos="l" depth="2" NCoef="0" IVar="2" Cut="1.3524613952636719e+02" cType="1" res="4.7101322561502457e-03" rms="4.2911514639854431e-01" purity="3.5973522067070007e-01" nType="0">
            <Node pos="l" depth="3" NCoef="0" IVar="6" Cut="3.5734098404645920e-02" cType="1" res="3.0032351613044739e-02" rms="4.5697283744812012e-01" purity="4.7705081105232239e-01" nType="0">
              <Node pos="l" depth="4" NCoef="0" IVar="2" Cut="2.6155429840087891e+01" cType="1" res="1.1195141822099686e-02" rms="4.5567241311073303e-01" purity="5.0380235910415649e-01" nType="0">
                <Node pos="l" depth="5" NCoef="0" IVar="-1" Cut="0.0000000000000000e+00" cType="1" res="3.1585441902279854e-03" rms="4.6981102228164673e-01" purity="6.0163205862045288e-01" nType="-99"/>
                <Node pos="r" depth="5" NCoef="0" IVar="-1" Cut="0.0000000000000000e+00" cType="1" res="-2.7728979475796223e-03" rms="4.3241509795188904e-01" purity="3.6579504609107971e-01" nType="-99"/>
              </Node>
              <Node pos="r" depth="4" NCoef="0" IVar="2" Cut="8.2817222595214844e+01" cType="1" res="4.8628244549036026e-02" rms="4.5749279856681824e-01" purity="4.5064193010330200e-01" nType="0">
                <Node pos="l" depth="5" NCoef="0" IVar="-1" Cut="0.0000000000000000e+00" cType="1" res="6.8382481113076210e-03" rms="4.6374937891960144e-01" purity="5.1301246881484985e-01" nType="-99"/>
                <Node pos="r" depth="5" NCoef="0" IVar="-1" Cut="0.0000000000000000e+00" cType="1" res="2.9149332549422979e-03" rms="4.5149025321006775e-01" purity="4.0290531516075134e-01" nType="-99"/>
              </Node>
            </Node>
            <Node pos="r" depth="3" NCoef="0" IVar="5" Cut="1.0820271819829941e-01" cType="1" res="-1.1801740154623985e-02" rms="4.0908813476562500e-01" purity="2.8323718905448914e-01" nType="0">
              <Node pos="l" depth="4" NCoef="0" IVar="0" Cut="1.2582995891571045e+00" cType="1" res="-5.2707586437463760e-03" rms="4.3389275670051575e-01" purity="3.2483783364295959e-01" nType="0">
                <Node pos="l" depth="5" NCoef="0" IVar="6" Cut="1.0554977506399155e-01" cType="1" res="4.6890769153833389e-03" rms="4.6824803948402405e-01" purity="3.9987570047378540e-01" nType="0">
                  <Node pos="l" depth="6" NCoef="0" IVar="3" Cut="6.4329093694686890e-01" cType="1" res="-1.0887638665735722e-02" rms="4.6444523334503174e-01" purity="4.0202945470809937e-01" nType="0">
                    <Node pos="l" depth="7" NCoef="0" IVar="-1" Cut="0.0000000000000000e+00" cType="1" res="-3.2139713875949383e-03" rms="4.3833711743354797e-01" purity="2.9096910357475281e-01" nType="-99"/>
                    <Node pos="r" depth="7" NCoef="0" IVar="-1" Cut="0.0000000000000000e+00" cType="1" res="7.6850736513733864e-04" rms="4.9306222796440125e-01" purity="5.3440761566162109e-01" nType="-99"/>
                  </Node>
                  <Node pos="r" depth="6" NCoef="0" IVar="-1" Cut="0.0000000000000000e+00" cType="1" res="2.6738522574305534e-03" rms="4.7258311510086060e-01" purity="3.9691922068595886e-01" nType="-99"/>
                </Node>
                <Node pos="r" depth="5" NCoef="0" IVar="-1" Cut="0.0000000000000000e+00" cType="1" res="-6.3534579239785671e-03" rms="3.2945013046264648e-01" purity="1.3397893309593201e-01" nType="-99"/>
              </Node>
              <Node pos="r" depth="4" NCoef="0" IVar="-1" Cut="0.0000000000000000e+00" cType="1" res="-1.2553581036627293e-02" rms="2.4178954958915710e-01" purity="6.9277152419090271e-02" nType="-99"/>
            </Node>
          </Node>
          <Node pos="r" depth="2" NCoef="0" IVar="5" Cut="-1.3858550786972046e+00" cType="1" res="-2.4271056056022644e-02" rms="3.5780081152915955e-01" purity="1.9793875515460968e-01" nType="0">
            <Node pos="l" depth="3" NCoef="0" IVar="5" Cut="-3.2319610118865967e+00" cType="1" res="-1.6497481614351273e-02" rms="3.9274823665618896e-01" purity="2.4857208132743835e-01" nType="0">
              <Node pos="l" depth="4" NCoef="0" IVar="4" Cut="-8.6674189567565918e-01" cType="1" res="-4.5719191431999207e-02" rms="3.1975838541984558e-01" purity="1.4942875504493713e-01" nType="0">
                <Node pos="l" depth="5" NCoef="0" IVar="-1" Cut="0.0000000000000000e+00" cType="1" res="-1.1455006897449493e-02" rms="3.1344321370124817e-01" purity="1.3953869044780731e-01" nType="-99"/>
                <Node pos="r" depth="5" NCoef="0" IVar="-1" Cut="0.0000000000000000e+00" cType="1" res="-4.5846612192690372e-03" rms="3.2662048935890198e-01" purity="1.6253781318664551e-01" nType="-99"/>
              </Node>
              <Node pos="r" depth="4" NCoef="0" IVar="2" Cut="1.3238584899902344e+02" cType="1" res="-1.1846245266497135e-02" rms="4.0295335650444031e-01" purity="2.6435276865959167e-01" nType="0">
                <Node pos="l" depth="5" NCoef="0" IVar="6" Cut="4.2622495442628860e-02" cType="1" res="7.1047100936993957e-04" rms="4.3016132712364197e-01" purity="3.3593019843101501e-01" nType="0">
                  <Node pos="l" depth="6" NCoef="0" IVar="3" Cut="8.3813899755477905e-01" cType="1" res="-1.4601322822272778e-02" rms="4.4169080257415771e-01" purity="3.7409785389900208e-01" nType="0">
                    <Node pos="l" depth="7" NCoef="0" IVar="-1" Cut="0.0000000000000000e+00" cType="1" res="-5.7479850947856903e-03" rms="3.9033585786819458e-01" purity="2.2418421506881714e-01" nType="-99"/>
                    <Node pos="r" depth="7" NCoef="0" IVar="-1" Cut="0.0000000000000000e+00" cType="1" res="1.0662990389391780e-03" rms="4.8807319998741150e-01" purity="5.3030437231063843e-01" nType="-99"/>
                  </Node>
                  <Node pos="r" depth="6" NCoef="0" IVar="1" Cut="1.0673459768295288e+00" cType="1" res="1.6152087599039078e-02" rms="4.1764414310455322e-01" purity="2.9743894934654236e-01" nType="0">
                    <Node pos="l" depth="7" NCoef="0" IVar="-1" Cut="0.0000000000000000e+00" cType="1" res="3.7482869811356068e-03" rms="4.4435760378837585e-01" purity="3.7042108178138733e-01" nType="-99"/>
                    <Node pos="r" depth="7" NCoef="0" IVar="-1" Cut="0.0000000000000000e+00" cType="1" res="-1.1046440340578556e-03" rms="3.7932249903678894e-01" purity="2.0361852645874023e-01" nType="-99"/>
                  </Node>
                </Node>
                <Node pos="r" depth="5" NCoef="0" IVar="6" Cut="9.5609441399574280e-02" cType="1" res="-2.0705042406916618e-02" rms="3.8234776258468628e-01" purity="2.1385470032691956e-01" nType="0">
                  <Node pos="l" depth="6" NCoef="0" IVar="3" Cut="6.6356146335601807e-01" cType="1" res="-3.3476058393716812e-02" rms="3.7515246868133545e-01" purity="2.1643753349781036e-01" nType="0">
                    <Node pos="l" depth="7" NCoef="0" IVar="-1" Cut="0.0000000000000000e+00" cType="1" res="-7.6180249452590942e-03" rms="3.2670205831527710e-01" purity="1.3991302251815796e-01" nType="-99"/>
                    <Node pos="r" depth="7" NCoef="0" IVar="-1" Cut="0.0000000000000000e+00" cType="1" res="-1.3500013155862689e-03" rms="4.8465788364410400e-01" purity="4.2948138713836670e-01" nType="-99"/>
                  </Node>
                  <Node pos="r" depth="6" NCoef="0" IVar="0" Cut="1.5706996917724609e+00" cType="1" res="-1.2973864562809467e-02" rms="3.8643351197242737e-01" purity="2.1229115128517151e-01" nType="0">
                    <Node pos="l" depth="7" NCoef="0" IVar="-1" Cut="0.0000000000000000e+00" cType="1" res="6.8144872784614563e-05" rms="4.3814429640769958e-01" purity="2.9462346434593201e-01" nType="-99"/>
                    <Node pos="r" depth="7" NCoef="0" IVar="-1" Cut="0.0000000000000000e+00" cType="1" res="-6.6016828641295433e-03" rms="3.1648924946784973e-01" purity="1.1822360754013062e-01" nType="-99"/>
                  </Node>
                </Node>
              </Node>
            </Node>
            <Node pos="r" depth="3" NCoef="0" IVar="4" Cut="-2.6010128855705261e-01" cType="1" res="-3.7357825785875320e-02" rms="2.8912070393562317e-01" purity="1.1269785463809967e-01" nType="0">
              <Node pos="l" depth="4" NCoef="0" IVar="-1" Cut="0.0000000000000000e+00" cType="1" res="-1.0924871312454343e-03" rms="4.1024202108383179e-01" purity="2.6412919163703918e-01" nType="-99"/>
              <Node pos="r" depth="4" NCoef="0" IVar="3" Cut="5.9877324104309082e-01" cType="1" res="-4.1265286505222321e-02" rms="2.6862463355064392e-01" purity="9.2493578791618347e-02" nType="0">
                <Node pos="l" depth="5" NCoef="0" IVar="1" Cut="2.3415277004241943e+00" cType="1" res="-3.7655524909496307e-02" rms="2.2894302010536194e-01" purity="5.9980634599924088e-02" nType="0">
                  <Node pos="l" depth="6" NCoef="0" IVar="6" Cut="8.9590564370155334e-02" cType="1" res="-4.0525063872337341e-02" rms="2.2336110472679138e-01" purity="5.7159435003995895e-02" nType="0">
                    <Node pos="l" depth="7" NCoef="0" IVar="-1" Cut="0.0000000000000000e+00" cType="1" res="-1.7073657363653183e-02" rms="1.8520754575729370e-01" purity="3.9233736693859100e-02" nType="-99"/>
                    <Node pos="r" depth="7" NCoef="0" IVar="-1" Cut="0.0000000000000000e+00" cType="1" res="-1.0976222343742847e-02" rms="2.4240203201770782e-01" purity="6.7426159977912903e-02" nType="-99"/>
                  </Node>
                  <Node pos="r" depth="6" NCoef="0" IVar="-1" Cut="0.0000000000000000e+00" cType="1" res="-5.5656461045145988e-03" rms="2.6508131623268127e-01" purity="8.0483123660087585e-02" nType="-99"/>
                </Node>
                <Node pos="r" depth="5" NCoef="0" IVar="-1" Cut="0.0000000000000000e+00" cType="1" res="-6.9620199501514435e-03" rms="4.1326898336410522e-01" purity="2.5555840134620667e-01" nType="-99"/>
              </Node>
            </Node>
          </Node>
        </Node>
      </Node>
    </BinaryTree>
    <BinaryTree type="DecisionTree" boostWeight="1.0000000000000000e+00" itree="52">
      <Node pos="s" depth="0" NCoef="0" IVar="3" Cut="7.1270596981048584e-01" cType="1" res="9.3395477160811424e-03" rms="4.0288004279136658e-01" purity="4.9912029504776001e-01" nType="0">
        <Node pos="l" depth="1" NCoef="0" IVar="4" Cut="1.8907402753829956e+00" cType="1" res="-1.6966039314866066e-02" rms="3.6704453825950623e-01" purity="2.1133625507354736e-01" nType="0">
          <Node pos="l" depth="2" NCoef="0" IVar="1" Cut="6.7885851860046387e-01" cType="1" res="-1.2237284332513809e-02" rms="3.9064645767211914e-01" purity="2.4244645237922668e-01" nType="0">
            <Node pos="l" depth="3" NCoef="0" IVar="5" Cut="-3.0133073329925537e+00" cType="1" res="-2.1905256435275078e-03" rms="4.2470875382423401e-01" purity="3.1127786636352539e-01" nType="0">
              <Node pos="l" depth="4" NCoef="0" IVar="7" Cut="4.0000000000000000e+00" cType="1" res="-3.3154115080833435e-02" rms="3.8654881715774536e-01" purity="2.3251934349536896e-01" nType="0">
                <Node pos="l" depth="5" NCoef="0" IVar="-1" Cut="0.0000000000000000e+00" cType="1" res="-6.2938183546066284e-03" rms="4.2071539163589478e-01" purity="2.8576695919036865e-01" nType="-99"/>
                <Node pos="r" depth="5" NCoef="0" IVar="-1" Cut="0.0000000000000000e+00" cType="1" res="-2.3241594899445772e-03" rms="3.5705009102821350e-01" purity="1.8604898452758789e-01" nType="-99"/>
              </Node>
              <Node pos="r" depth="4" NCoef="0" IVar="5" Cut="-1.9976754188537598e+00" cType="1" res="2.6415798347443342e-03" rms="4.3008160591125488e-01" purity="3.2402482628822327e-01" nType="0">
                <Node pos="l" depth="5" NCoef="0" IVar="2" Cut="1.3655026245117188e+02" cType="1" res="1.6113368794322014e-02" rms="4.4783666729927063e-01" purity="3.7500154972076416e-01" nType="0">
                  <Node pos="l" depth="6" NCoef="0" IVar="6" Cut="5.4976172745227814e-02" cType="1" res="3.3717650920152664e-02" rms="4.5919087529182434e-01" purity="4.3897017836570740e-01" nType="0">
                    <Node pos="l" depth="7" NCoef="0" IVar="-1" Cut="0.0000000000000000e+00" cType="1" res="1.3184684794396162e-03" rms="4.5080971717834473e-01" purity="3.9430084824562073e-01" nType="-99"/>
                    <Node pos="r" depth="7" NCoef="0" IVar="-1" Cut="0.0000000000000000e+00" cType="1" res="5.0317030400037766e-03" rms="4.6609938144683838e-01" purity="4.8128846287727356e-01" nType="-99"/>
                  </Node>
                  <Node pos="r" depth="6" NCoef="0" IVar="6" Cut="8.1932730972766876e-02" cType="1" res="7.1064960211515427e-03" rms="4.4164344668388367e-01" purity="3.4227332472801208e-01" nType="0">
                    <Node pos="l" depth="7" NCoef="0" IVar="-1" Cut="0.0000000000000000e+00" cType="1" res="-3.3106720075011253e-03" rms="4.2364349961280823e-01" purity="3.0909574031829834e-01" nType="-99"/>
                    <Node pos="r" depth="7" NCoef="0" IVar="-1" Cut="0.0000000000000000e+00" cType="1" res="2.1858897525817156e-03" rms="4.4703036546707153e-01" purity="3.5361999273300171e-01" nType="-99"/>
                  </Node>
                </Node>
                <Node pos="r" depth="5" NCoef="0" IVar="3" Cut="3.9937832951545715e-01" cType="1" res="-1.0974984616041183e-02" rms="4.1090911626815796e-01" purity="2.7250024676322937e-01" nType="0">
                  <Node pos="l" depth="6" NCoef="0" IVar="6" Cut="1.4044117927551270e-01" cType="1" res="-3.1593773514032364e-02" rms="2.8324541449546814e-01" purity="9.2979289591312408e-02" nType="0">
                    <Node pos="l" depth="7" NCoef="0" IVar="-1" Cut="0.0000000000000000e+00" cType="1" res="-1.3618646189570427e-02" rms="2.2167380154132843e-01" purity="5.2740387618541718e-02" nType="-99"/>
                    <Node pos="r" depth="7" NCoef="0" IVar="-1" Cut="0.0000000000000000e+00" cType="1" res="-4.7029023990035057e-03" rms="3.3819541335105896e-01" purity="1.3736994564533234e-01" nType="-99"/>
                  </Node>
                  <Node pos="r" depth="6" NCoef="0" IVar="6" Cut="9.4823934137821198e-02" cType="1" res="-3.5831832792609930e-03" rms="4.4767040014266968e-01" purity="3.3685824275016785e-01" nType="0">
                    <Node pos="l" depth="7" NCoef="0" IVar="-1" Cut="0.0000000000000000e+00" cType="1" res="-1.7097570234909654e-03" rms="4.4486111402511597e-01" purity="3.3151698112487793e-01" nType="-99"/>
                    <Node pos="r" depth="7" NCoef="0" IVar="-1" Cut="0.0000000000000000e+00" cType="1" res="1.2396583333611488e-03" rms="4.5075893402099609e-01" purity="3.4359142184257507e-01" nType="-99"/>
                  </Node>
                </Node>
              </Node>
            </Node>
            <Node pos="r" depth="3" NCoef="0" IVar="6" Cut="8.9542023837566376e-02" cType="1" res="-2.4271670728921890e-02" rms="3.4506741166114807e-01" purity="1.5999756753444672e-01" nType="0">
              <Node pos="l" depth="4" NCoef="0" IVar="7" Cut="3.0000000000000000e+00" cType="1" res="-3.4908637404441833e-02" rms="3.2959091663360596e-01" purity="1.4695771038532257e-01" nType="0">
                <Node pos="l" depth="5" NCoef="0" IVar="-1" Cut="0.0000000000000000e+00" cType="1" res="-9.9573247134685516e-03" rms="3.5495319962501526e-01" purity="1.6042536497116089e-01" nType="-99"/>
                <Node pos="r" depth="5" NCoef="0" IVar="3" Cut="5.7881504297256470e-01" cType="1" res="-2.9879594221711159e-02" rms="3.2696151733398438e-01" purity="1.4438836276531219e-01" nType="0">
                  <Node pos="l" depth="6" NCoef="0" IVar="0" Cut="9.6731179952621460e-01" cType="1" res="-3.7680212408304214e-02" rms="2.6852872967720032e-01" purity="8.3067551255226135e-02" nType="0">
                    <Node pos="l" depth="7" NCoef="0" IVar="-1" Cut="0.0000000000000000e+00" cType="1" res="-7.8789368271827698e-03" rms="3.6188521981239319e-01" purity="1.6148787736892700e-01" nType="-99"/>
                    <Node pos="r" depth="7" NCoef="0" IVar="-1" Cut="0.0000000000000000e+00" cType="1" res="-1.1418696492910385e-02" rms="2.3466789722442627e-01" purity="6.0438811779022217e-02" nType="-99"/>
                  </Node>
                  <Node pos="r" depth="6" NCoef="0" IVar="-1" Cut="0.0000000000000000e+00" cType="1" res="-5.9994938783347607e-04" rms="4.6269756555557251e-01" purity="3.3464443683624268e-01" nType="-99"/>
                </Node>
              </Node>
              <Node pos="r" depth="4" NCoef="0" IVar="3" Cut="5.3164482116699219e-01" cType="1" res="-1.4527872204780579e-02" rms="3.5595622658729553e-01" purity="1.7141553759574890e-01" nType="0">
                <Node pos="l" depth="5" NCoef="0" IVar="6" Cut="1.5880590677261353e-01" cType="1" res="-2.2129353135824203e-02" rms="3.2480314373970032e-01" purity="1.2908037006855011e-01" nType="0">
                  <Node pos="l" depth="6" NCoef="0" IVar="2" Cut="3.6326022338867188e+02" cType="1" res="-3.1471304595470428e-02" rms="2.8865844011306763e-01" purity="9.8163865506649017e-02" nType="0">
                    <Node pos="l" depth="7" NCoef="0" IVar="-1" Cut="0.0000000000000000e+00" cType="1" res="-6.2258834950625896e-03" rms="2.9974311590194702e-01" purity="1.0672005265951157e-01" nType="-99"/>
                    <Node pos="r" depth="7" NCoef="0" IVar="-1" Cut="0.0000000000000000e+00" cType="1" res="-1.1343080550432205e-02" rms="2.6715704798698425e-01" purity="8.2833513617515564e-02" nType="-99"/>
                  </Node>
                  <Node pos="r" depth="6" NCoef="0" IVar="2" Cut="6.2088934326171875e+02" cType="1" res="-9.6230329945683479e-03" rms="3.6729815602302551e-01" purity="1.7046912014484406e-01" nType="0">
                    <Node pos="l" depth="7" NCoef="0" IVar="-1" Cut="0.0000000000000000e+00" cType="1" res="3.3339750370942056e-04" rms="3.7255540490150452e-01" purity="1.7870645225048065e-01" nType="-99"/>
                    <Node pos="r" depth="7" NCoef="0" IVar="-1" Cut="0.0000000000000000e+00" cType="1" res="-4.9326163716614246e-03" rms="3.5835605859756470e-01" purity="1.5779913961887360e-01" nType="-99"/>
                  </Node>
                </Node>
                <Node pos="r" depth="5" NCoef="0" IVar="-1" Cut="0.0000000000000000e+00" cType="1" res="1.9226737786084414e-03" rms="4.6568408608436584e-01" purity="3.5403147339820862e-01" nType="-99"/>
              </Node>
            </Node>
          </Node>
          <Node pos="r" depth="2" NCoef="0" IVar="0" Cut="9.6646565198898315e-01" cType="1" res="-4.3526176363229752e-02" rms="1.8288485705852509e-01" purity="3.6598708480596542e-02" nType="0">
            <Node pos="l" depth="3" NCoef="0" IVar="-1" Cut="0.0000000000000000e+00" cType="1" res="-1.4476032927632332e-02" rms="2.4808871746063232e-01" purity="6.9476149976253510e-02" nType="-99"/>
            <Node pos="r" depth="3" NCoef="0" IVar="3" Cut="2.8741705417633057e-01" cType="1" res="-3.8687728345394135e-02" rms="1.6149343550205231e-01" purity="2.8113370761275291e-02" nType="0">
              <Node pos="l" depth="4" NCoef="0" IVar="6" Cut="1.4191296696662903e-01" cType="1" res="-3.0924756079912186e-02" rms="1.7856237292289734e-01" purity="3.5039454698562622e-02" nType="0">
                <Node pos="l" depth="5" NCoef="0" IVar="-1" Cut="0.0000000000000000e+00" cType="1" res="-2.4995001032948494e-02" rms="9.8928339779376984e-02" purity="9.9017107859253883e-03" nType="-99"/>
                <Node pos="r" depth="5" NCoef="0" IVar="-1" Cut="0.0000000000000000e+00" cType="1" res="-8.6680967360734940e-03" rms="2.3981529474258423e-01" purity="6.4307495951652527e-02" nType="-99"/>
              </Node>
              <Node pos="r" depth="4" NCoef="0" IVar="5" Cut="2.5982253551483154e+00" cType="1" res="-4.5009136199951172e-02" rms="1.4582376182079315e-01" purity="2.2473450750112534e-02" nType="0">
                <Node pos="l" depth="5" NCoef="0" IVar="-1" Cut="0.0000000000000000e+00" cType="1" res="-1.6854874789714813e-02" rms="1.7141450941562653e-01" purity="3.1500101089477539e-02" nType="-99"/>
                <Node pos="r" depth="5" NCoef="0" IVar="-1" Cut="0.0000000000000000e+00" cType="1" res="-2.5911077857017517e-02" rms="8.4387719631195068e-02" purity="6.8529457785189152e-03" nType="-99"/>
              </Node>
            </Node>
          </Node>
        </Node>
        <Node pos="r" depth="1" NCoef="0" IVar="5" Cut="-2.1259143352508545e+00" cType="1" res="2.9003759846091270e-02" rms="4.2665347456932068e-01" purity="7.1424746513366699e-01" nType="0">
          <Node pos="l" depth="2" NCoef="0" IVar="1" Cut="1.0686829090118408e+00" cType="1" res="3.9670057594776154e-02" rms="4.0779531002044678e-01" purity="7.6414710283279419e-01" nType="0">
            <Node pos="l" depth="3" NCoef="0" IVar="1" Cut="8.2338735461235046e-02" cType="1" res="4.4048156589269638e-02" rms="3.9724785089492798e-01" purity="7.8797858953475952e-01" nType="0">
              <Node pos="l" depth="4" NCoef="0" IVar="4" Cut="-2.7426145076751709e+00" cType="1" res="5.1303531974554062e-02" rms="3.7973877787590027e-01" purity="8.1616634130477905e-01" nType="0">
                <Node pos="l" depth="5" NCoef="0" IVar="-1" Cut="0.0000000000000000e+00" cType="1" res="7.5868535786867142e-03" rms="3.7886828184127808e-01" purity="8.2165205478668213e-01" nType="-99"/>
                <Node pos="r" depth="5" NCoef="0" IVar="2" Cut="6.8083061218261719e+01" cType="1" res="4.9513153731822968e-02" rms="3.7977951765060425e-01" purity="8.1561690568923950e-01" nType="0">
                  <Node pos="l" depth="6" NCoef="0" IVar="3" Cut="1.0006481409072876e+00" cType="1" res="5.3182907402515411e-02" rms="3.6524257063865662e-01" purity="8.3593958616256714e-01" nType="0">
                    <Node pos="l" depth="7" NCoef="0" IVar="-1" Cut="0.0000000000000000e+00" cType="1" res="5.3632580675184727e-03" rms="3.7599259614944458e-01" purity="8.2308644056320190e-01" nType="-99"/>
                    <Node pos="r" depth="7" NCoef="0" IVar="-1" Cut="0.0000000000000000e+00" cType="1" res="7.2009284049272537e-03" rms="3.4312114119529724e-01" purity="8.6099684238433838e-01" nType="-99"/>
                  </Node>
                  <Node pos="r" depth="6" NCoef="0" IVar="3" Cut="8.1148159503936768e-01" cType="1" res="3.4276127815246582e-02" rms="4.3464076519012451e-01" purity="7.3123586177825928e-01" nType="0">
                    <Node pos="l" depth="7" NCoef="0" IVar="-1" Cut="0.0000000000000000e+00" cType="1" res="1.7682253383100033e-03" rms="4.6686762571334839e-01" purity="6.6718906164169312e-01" nType="-99"/>
                    <Node pos="r" depth="7" NCoef="0" IVar="-1" Cut="0.0000000000000000e+00" cType="1" res="4.9774008803069592e-03" rms="4.0523150563240051e-01" purity="7.8494864702224731e-01" nType="-99"/>
                  </Node>
                </Node>
              </Node>
              <Node pos="r" depth="4" NCoef="0" IVar="4" Cut="-1.2432091236114502e+00" cType="1" res="3.4597966820001602e-02" rms="4.1876927018165588e-01" purity="7.5126373767852783e-01" nType="0">
                <Node pos="l" depth="5" NCoef="0" IVar="4" Cut="-2.5846230983734131e+00" cType="1" res="2.1084202453494072e-02" rms="4.4611257314682007e-01" purity="7.0331573486328125e-01" nType="0">
                  <Node pos="l" depth="6" NCoef="0" IVar="-1" Cut="0.0000000000000000e+00" cType="1" res="3.9055710658431053e-03" rms="4.3451252579689026e-01" purity="7.3403126001358032e-01" nType="-99"/>
                  <Node pos="r" depth="6" NCoef="0" IVar="6" Cut="4.0082398802042007e-02" cType="1" res="1.3504434376955032e-02" rms="4.5070078969001770e-01" purity="6.9036108255386353e-01" nType="0">
                    <Node pos="l" depth="7" NCoef="0" IVar="-1" Cut="0.0000000000000000e+00" cType="1" res="6.6074065398424864e-04" rms="4.4659945368766785e-01" purity="7.0006990432739258e-01" nType="-99"/>
                    <Node pos="r" depth="7" NCoef="0" IVar="-1" Cut="0.0000000000000000e+00" cType="1" res="2.5403220206499100e-03" rms="4.5965421199798584e-01" purity="6.6802972555160522e-01" nType="-99"/>
                  </Node>
                </Node>
                <Node pos="r" depth="5" NCoef="0" IVar="5" Cut="-3.0251045227050781e+00" cType="1" res="4.4067133218050003e-02" rms="3.9822015166282654e-01" purity="7.8486114740371704e-01" nType="0">
                  <Node pos="l" depth="6" NCoef="0" IVar="1" Cut="3.3691048622131348e-01" cType="1" res="5.9850685298442841e-02" rms="3.6962822079658508e-01" purity="8.2573479413986206e-01" nType="0">
                    <Node pos="l" depth="7" NCoef="0" IVar="-1" Cut="0.0000000000000000e+00" cType="1" res="8.3406325429677963e-03" rms="3.3839371800422668e-01" purity="8.6190164089202881e-01" nType="-99"/>
                    <Node pos="r" depth="7" NCoef="0" IVar="-1" Cut="0.0000000000000000e+00" cType="1" res="5.5513158440589905e-03" rms="3.9329382777214050e-01" purity="7.9598426818847656e-01" nType="-99"/>
                  </Node>
                  <Node pos="r" depth="6" NCoef="0" IVar="5" Cut="-2.3579361438751221e+00" cType="1" res="3.5978622734546661e-02" rms="4.1187009215354919e-01" purity="7.6391488313674927e-01" nType="0">
                    <Node pos="l" depth="7" NCoef="0" IVar="-1" Cut="0.0000000000000000e+00" cType="1" res="4.3406127952039242e-03" rms="4.0458080172538757e-01" purity="7.7633523941040039e-01" nType="-99"/>
                    <Node pos="r" depth="7" NCoef="0" IVar="-1" Cut="0.0000000000000000e+00" cType="1" res="1.3577613281086087e-03" rms="4.3863791227340698e-01" purity="7.1511137485504150e-01" nType="-99"/>
                  </Node>
                </Node>
              </Node>
            </Node>
            <Node pos="r" depth="3" NCoef="0" IVar="3" Cut="9.9349904060363770e-01" cType="1" res="1.0359052568674088e-02" rms="4.7133547067642212e-01" purity="6.0459786653518677e-01" nType="0">
              <Node pos="l" depth="4" NCoef="0" IVar="2" Cut="4.0298377990722656e+01" cType="1" res="-5.5333920754492283e-03" rms="4.8614162206649780e-01" purity="5.4394990205764771e-01" nType="0">
                <Node pos="l" depth="5" NCoef="0" IVar="-1" Cut="0.0000000000000000e+00" cType="1" res="-2.5224676355719566e-03" rms="4.8383221030235291e-01" purity="5.5708944797515869e-01" nType="-99"/>
                <Node pos="r" depth="5" NCoef="0" IVar="-1" Cut="0.0000000000000000e+00" cType="1" res="9.8315859213471413e-04" rms="4.8710182309150696e-01" purity="5.3462868928909302e-01" nType="-99"/>
              </Node>
              <Node pos="r" depth="4" NCoef="0" IVar="-1" Cut="0.0000000000000000e+00" cType="1" res="2.6065108831971884e-03" rms="4.5172974467277527e-01" purity="6.7906343936920166e-01" nType="-99"/>
            </Node>
          </Node>
          <Node pos="r" depth="2" NCoef="0" IVar="4" Cut="1.0751985311508179e+00" cType="1" res="7.8394683077931404e-03" rms="4.6106785535812378e-01" purity="6.1523550748825073e-01" nType="0">
            <Node pos="l" depth="3" NCoef="0" IVar="1" Cut="1.2082620859146118e+00" cType="1" res="1.3935057446360588e-02" rms="4.6110904216766357e-01" purity="6.3399636745452881e-01" nType="0">
              <Node pos="l" depth="4" NCoef="0" IVar="7" Cut="2.0000000000000000e+00" cType="1" res="1.9698390737175941e-02" rms="4.5555368065834045e-01" purity="6.6322553157806396e-01" nType="0">
                <Node pos="l" depth="5" NCoef="0" IVar="4" Cut="6.6868588328361511e-02" cType="1" res="2.6755228638648987e-02" rms="4.3918621540069580e-01" purity="7.1567678451538086e-01" nType="0">
                  <Node pos="l" depth="6" NCoef="0" IVar="3" Cut="9.9000406265258789e-01" cType="1" res="2.0267637446522713e-02" rms="4.4206571578979492e-01" purity="7.1022760868072510e-01" nType="0">
                    <Node pos="l" depth="7" NCoef="0" IVar="-1" Cut="0.0000000000000000e+00" cType="1" res="5.3544377442449331e-04" rms="4.5597827434539795e-01" purity="6.8186056613922119e-01" nType="-99"/>
                    <Node pos="r" depth="7" NCoef="0" IVar="-1" Cut="0.0000000000000000e+00" cType="1" res="2.3865515831857920e-03" rms="4.3699428439140320e-01" purity="7.2012120485305786e-01" nType="-99"/>
                  </Node>
                  <Node pos="r" depth="6" NCoef="0" IVar="-1" Cut="0.0000000000000000e+00" cType="1" res="4.3159262277185917e-03" rms="4.3134465813636780e-01" purity="7.2952240705490112e-01" nType="-99"/>
                </Node>
                <Node pos="r" depth="5" NCoef="0" IVar="6" Cut="3.9150584489107132e-02" cType="1" res="1.1803121306002140e-02" rms="4.7376060485839844e-01" purity="6.1739200353622437e-01" nType="0">
                  <Node pos="l" depth="6" NCoef="0" IVar="4" Cut="-5.1777625083923340e-01" cType="1" res="-8.6861029267311096e-03" rms="4.7242867946624756e-01" purity="6.1503964662551880e-01" nType="0">
                    <Node pos="l" depth="7" NCoef="0" IVar="-1" Cut="0.0000000000000000e+00" cType="1" res="4.4154067290946841e-04" rms="4.6481877565383911e-01" purity="6.4706766605377197e-01" nType="-99"/>
                    <Node pos="r" depth="7" NCoef="0" IVar="-1" Cut="0.0000000000000000e+00" cType="1" res="-3.5283952020108700e-03" rms="4.8686558008193970e-01" purity="5.4766237735748291e-01" nType="-99"/>
                  </Node>
                  <Node pos="r" depth="6" NCoef="0" IVar="2" Cut="1.8970388793945312e+02" cType="1" res="2.5028157979249954e-02" rms="4.7414836287498474e-01" purity="6.1891037225723267e-01" nType="0">
                    <Node pos="l" depth="7" NCoef="0" IVar="-1" Cut="0.0000000000000000e+00" cType="1" res="2.8511569835245609e-03" rms="4.7094243764877319e-01" purity="6.3846021890640259e-01" nType="-99"/>
                    <Node pos="r" depth="7" NCoef="0" IVar="-1" Cut="0.0000000000000000e+00" cType="1" res="7.9461408313363791e-04" rms="4.7997230291366577e-01" purity="5.8040875196456909e-01" nType="-99"/>
                  </Node>
                </Node>
              </Node>
              <Node pos="r" depth="4" NCoef="0" IVar="1" Cut="2.0590870380401611e+00" cType="1" res="-1.8229428678750992e-02" rms="4.7987312078475952e-01" purity="4.3978172540664673e-01" nType="0">
                <Node pos="l" depth="5" NCoef="0" IVar="-1" Cut="0.0000000000000000e+00" cType="1" res="9.3657971592620015e-04" rms="4.8428586125373840e-01" purity="4.8603487014770508e-01" nType="-99"/>
                <Node pos="r" depth="5" NCoef="0" IVar="-1" Cut="0.0000000000000000e+00" cType="1" res="-4.7605661675333977e-03" rms="4.7282952070236206e-01" purity="3.8829195499420166e-01" nType="-99"/>
              </Node>
            </Node>
            <Node pos="r" depth="3" NCoef="0" IVar="-1" Cut="0.0000000000000000e+00" cType="1" res="-7.1634310297667980e-03" rms="4.5298835635185242e-01" purity="3.6903160810470581e-01" nType="-99"/>
          </Node>
        </Node>
      </Node>
    </BinaryTree>
    <BinaryTree type="DecisionTree" boostWeight="1.0000000000000000e+00" itree="53">
      <Node pos="s" depth="0" NCoef="0" IVar="0" Cut="3.2252842187881470e-01" cType="1" res="8.4599256515502930e-03" rms="4.0247291326522827e-01" purity="4.9892285466194153e-01" nType="0">
        <Node pos="l" depth="1" NCoef="0" IVar="0" Cut="1.0400442406535149e-02" cType="1" res="2.9402397572994232e-02" rms="4.2185258865356445e-01" purity="7.2852319478988647e-01" nType="0">
          <Node pos="l" depth="2" NCoef="0" IVar="1" Cut="1.7608234286308289e-01" cType="1" res="3.5609163343906403e-02" rms="4.1223663091659546e-01" purity="7.5726199150085449e-01" nType="0">
            <Node pos="l" depth="3" NCoef="0" IVar="3" Cut="8.3747130632400513e-01" cType="1" res="4.4297248125076294e-02" rms="3.8987776637077332e-01" purity="8.0057346820831299e-01" nType="0">
              <Node pos="l" depth="4" NCoef="0" IVar="3" Cut="7.3293030261993408e-01" cType="1" res="2.8317540884017944e-02" rms="4.5592322945594788e-01" purity="6.7717015743255615e-01" nType="0">
                <Node pos="l" depth="5" NCoef="0" IVar="-1" Cut="0.0000000000000000e+00" cType="1" res="9.4105245079845190e-04" rms="4.7713991999626160e-01" purity="5.8453506231307983e-01" nType="-99"/>
                <Node pos="r" depth="5" NCoef="0" IVar="5" Cut="-2.2842254638671875e+00" cType="1" res="0.0000000000000000e+00" rms="0.0000000000000000e+00" purity="7.1735185384750366e-01" nType="0">
                  <Node pos="l" depth="6" NCoef="0" IVar="-1" Cut="0.0000000000000000e+00" cType="1" res="3.9689354598522186e-03" rms="4.3005096912384033e-01" purity="7.5359153747558594e-01" nType="-99"/>
                  <Node pos="r" depth="6" NCoef="0" IVar="-1" Cut="0.0000000000000000e+00" cType="1" res="2.2475812584161758e-03" rms="4.6306508779525757e-01" purity="6.7768079042434692e-01" nType="-99"/>
                </Node>
              </Node>
              <Node pos="r" depth="4" NCoef="0" IVar="5" Cut="-1.5057775974273682e+00" cType="1" res="4.7357022762298584e-02" rms="3.7583261728286743e-01" purity="8.2420265674591064e-01" nType="0">
                <Node pos="l" depth="5" NCoef="0" IVar="4" Cut="-6.2587666511535645e-01" cType="1" res="4.9241770058870316e-02" rms="3.6461943387985229e-01" purity="8.4033972024917603e-01" nType="0">
                  <Node pos="l" depth="6" NCoef="0" IVar="6" Cut="2.8512429445981979e-02" cType="1" res="4.4840853661298752e-02" rms="3.7792426347732544e-01" purity="8.2566386461257935e-01" nType="0">
                    <Node pos="l" depth="7" NCoef="0" IVar="-1" Cut="0.0000000000000000e+00" cType="1" res="4.5696981251239777e-03" rms="3.7573584914207458e-01" purity="8.2832282781600952e-01" nType="-99"/>
                    <Node pos="r" depth="7" NCoef="0" IVar="-1" Cut="0.0000000000000000e+00" cType="1" res="6.3051218166947365e-03" rms="3.8566663861274719e-01" purity="8.1578725576400757e-01" nType="-99"/>
                  </Node>
                  <Node pos="r" depth="6" NCoef="0" IVar="5" Cut="-3.1734709739685059e+00" cType="1" res="5.5153407156467438e-02" rms="3.4585487842559814e-01" purity="8.6005336046218872e-01" nType="0">
                    <Node pos="l" depth="7" NCoef="0" IVar="-1" Cut="0.0000000000000000e+00" cType="1" res="9.3171466141939163e-03" rms="3.0739358067512512e-01" purity="8.9430022239685059e-01" nType="-99"/>
                    <Node pos="r" depth="7" NCoef="0" IVar="-1" Cut="0.0000000000000000e+00" cType="1" res="6.4618238247931004e-03" rms="3.5313808917999268e-01" purity="8.5306078195571899e-01" nType="-99"/>
                  </Node>
                </Node>
                <Node pos="r" depth="5" NCoef="0" IVar="1" Cut="-1.5748122334480286e-01" cType="1" res="0.0000000000000000e+00" rms="0.0000000000000000e+00" purity="7.0128208398818970e-01" nType="0">
                  <Node pos="l" depth="6" NCoef="0" IVar="-1" Cut="0.0000000000000000e+00" cType="1" res="4.2778728529810905e-03" rms="4.4413813948631287e-01" purity="7.2250503301620483e-01" nType="-99"/>
                  <Node pos="r" depth="6" NCoef="0" IVar="-1" Cut="0.0000000000000000e+00" cType="1" res="1.7030261224135756e-03" rms="4.6000978350639343e-01" purity="6.7773395776748657e-01" nType="-99"/>
                </Node>
              </Node>
            </Node>
            <Node pos="r" depth="3" NCoef="0" IVar="5" Cut="-1.6947140693664551e+00" cType="1" res="2.3753846064209938e-02" rms="4.4064480066299438e-01" purity="6.9816142320632935e-01" nType="0">
              <Node pos="l" depth="4" NCoef="0" IVar="4" Cut="-8.5418510437011719e-01" cType="1" res="2.9223244637250900e-02" rms="4.3183165788650513e-01" purity="7.2919934988021851e-01" nType="0">
                <Node pos="l" depth="5" NCoef="0" IVar="6" Cut="3.5552445799112320e-02" cType="1" res="1.9017511978745461e-02" rms="4.5462641119956970e-01" purity="6.8435823917388916e-01" nType="0">
                  <Node pos="l" depth="6" NCoef="0" IVar="1" Cut="1.1255798339843750e+00" cType="1" res="1.0487803258001804e-02" rms="4.5051255822181702e-01" purity="6.9869893789291382e-01" nType="0">
                    <Node pos="l" depth="7" NCoef="0" IVar="-1" Cut="0.0000000000000000e+00" cType="1" res="1.4539993135258555e-03" rms="4.3899646401405334e-01" purity="7.2894245386123657e-01" nType="-99"/>
                    <Node pos="r" depth="7" NCoef="0" IVar="-1" Cut="0.0000000000000000e+00" cType="1" res="-3.1937775202095509e-04" rms="4.8261284828186035e-01" purity="6.0944402217864990e-01" nType="-99"/>
                  </Node>
                  <Node pos="r" depth="6" NCoef="0" IVar="4" Cut="-2.2236499786376953e+00" cType="1" res="3.7218924611806870e-02" rms="4.6275740861892700e-01" purity="6.5375685691833496e-01" nType="0">
                    <Node pos="l" depth="7" NCoef="0" IVar="-1" Cut="0.0000000000000000e+00" cType="1" res="4.0553663857281208e-03" rms="4.5893558859825134e-01" purity="6.7119830846786499e-01" nType="-99"/>
                    <Node pos="r" depth="7" NCoef="0" IVar="-1" Cut="0.0000000000000000e+00" cType="1" res="2.2636824287474155e-03" rms="4.6672219038009644e-01" purity="6.3449513912200928e-01" nType="-99"/>
                  </Node>
                </Node>
                <Node pos="r" depth="5" NCoef="0" IVar="3" Cut="9.7277647256851196e-01" cType="1" res="3.9717547595500946e-02" rms="4.0679648518562317e-01" purity="7.7530837059020996e-01" nType="0">
                  <Node pos="l" depth="6" NCoef="0" IVar="-1" Cut="0.0000000000000000e+00" cType="1" res="7.2004529647529125e-04" rms="4.6364769339561462e-01" purity="6.3806873559951782e-01" nType="-99"/>
                  <Node pos="r" depth="6" NCoef="0" IVar="5" Cut="-2.4035840034484863e+00" cType="1" res="4.5579478144645691e-02" rms="3.9514577388763428e-01" purity="8.0060780048370361e-01" nType="0">
                    <Node pos="l" depth="7" NCoef="0" IVar="-1" Cut="0.0000000000000000e+00" cType="1" res="5.8499220758676529e-03" rms="3.7993505597114563e-01" purity="8.2165098190307617e-01" nType="-99"/>
                    <Node pos="r" depth="7" NCoef="0" IVar="-1" Cut="0.0000000000000000e+00" cType="1" res="2.0928923040628433e-03" rms="4.3557897210121155e-01" purity="7.3922747373580933e-01" nType="-99"/>
                  </Node>
                </Node>
              </Node>
              <Node pos="r" depth="4" NCoef="0" IVar="5" Cut="-8.1815361976623535e-01" cType="1" res="-1.1420105583965778e-03" rms="4.7792485356330872e-01" purity="5.5688124895095825e-01" nType="0">
                <Node pos="l" depth="5" NCoef="0" IVar="3" Cut="9.3673425912857056e-01" cType="1" res="1.4099153690040112e-02" rms="4.7554257512092590e-01" purity="6.0708832740783691e-01" nType="0">
                  <Node pos="l" depth="6" NCoef="0" IVar="-1" Cut="0.0000000000000000e+00" cType="1" res="6.6124147269874811e-04" rms="4.8395189642906189e-01" purity="5.6039255857467651e-01" nType="-99"/>
                  <Node pos="r" depth="6" NCoef="0" IVar="-1" Cut="0.0000000000000000e+00" cType="1" res="1.8415676895529032e-03" rms="4.6628502011299133e-01" purity="6.5702670812606812e-01" nType="-99"/>
                </Node>
                <Node pos="r" depth="5" NCoef="0" IVar="-1" Cut="0.0000000000000000e+00" cType="1" res="-3.0647213570773602e-03" rms="4.8135638236999512e-01" purity="4.4982820749282837e-01" nType="-99"/>
              </Node>
            </Node>
          </Node>
          <Node pos="r" depth="2" NCoef="0" IVar="1" Cut="6.0063856840133667e-01" cType="1" res="-2.7601076290011406e-03" rms="4.6721178293228149e-01" purity="5.7960307598114014e-01" nType="0">
            <Node pos="l" depth="3" NCoef="0" IVar="5" Cut="-2.3994350433349609e+00" cType="1" res="7.8453850001096725e-03" rms="4.6323138475418091e-01" purity="6.2277007102966309e-01" nType="0">
              <Node pos="l" depth="4" NCoef="0" IVar="6" Cut="3.5653695464134216e-02" cType="1" res="2.2164713591337204e-02" rms="4.5116257667541504e-01" purity="6.8376225233078003e-01" nType="0">
                <Node pos="l" depth="5" NCoef="0" IVar="-1" Cut="0.0000000000000000e+00" cType="1" res="2.6253340183757246e-04" rms="4.4466719031333923e-01" purity="6.9727480411529541e-01" nType="-99"/>
                <Node pos="r" depth="5" NCoef="0" IVar="-1" Cut="0.0000000000000000e+00" cType="1" res="3.8215366657823324e-03" rms="4.5589664578437805e-01" purity="6.7238211631774902e-01" nType="-99"/>
              </Node>
              <Node pos="r" depth="4" NCoef="0" IVar="3" Cut="8.1412631273269653e-01" cType="1" res="-3.2244666945189238e-03" rms="4.7205254435539246e-01" purity="5.7561874389648438e-01" nType="0">
                <Node pos="l" depth="5" NCoef="0" IVar="6" Cut="6.8365111947059631e-02" cType="1" res="-1.3822612352669239e-02" rms="4.7927460074424744e-01" purity="5.2669769525527954e-01" nType="0">
                  <Node pos="l" depth="6" NCoef="0" IVar="-1" Cut="0.0000000000000000e+00" cType="1" res="-3.0548165086656809e-03" rms="4.8528277873992920e-01" purity="5.2093344926834106e-01" nType="-99"/>
                  <Node pos="r" depth="6" NCoef="0" IVar="-1" Cut="0.0000000000000000e+00" cType="1" res="8.3367864135652781e-04" rms="4.7066166996955872e-01" purity="5.3393489122390747e-01" nType="-99"/>
                </Node>
                <Node pos="r" depth="5" NCoef="0" IVar="-1" Cut="0.0000000000000000e+00" cType="1" res="2.1100826561450958e-03" rms="4.5462107658386230e-01" purity="6.8486249446868896e-01" nType="-99"/>
              </Node>
            </Node>
            <Node pos="r" depth="3" NCoef="0" IVar="0" Cut="2.6780849695205688e-01" cType="1" res="-3.3865820616483688e-02" rms="4.7733825445175171e-01" purity="4.5299524068832397e-01" nType="0">
              <Node pos="l" depth="4" NCoef="0" IVar="-1" Cut="0.0000000000000000e+00" cType="1" res="-4.8550777137279510e-03" rms="4.7753906250000000e-01" purity="4.5111379027366638e-01" nType="-99"/>
              <Node pos="r" depth="4" NCoef="0" IVar="-1" Cut="0.0000000000000000e+00" cType="1" res="-1.5535767888650298e-03" rms="4.7649314999580383e-01" purity="4.5519140362739563e-01" nType="-99"/>
            </Node>
          </Node>
        </Node>
        <Node pos="r" depth="1" NCoef="0" IVar="1" Cut="-5.9356965124607086e-02" cType="1" res="-1.5077472664415836e-02" rms="3.7813082337379456e-01" purity="2.4087341129779816e-01" nType="0">
          <Node pos="l" depth="2" NCoef="0" IVar="2" Cut="6.7623497009277344e+01" cType="1" res="1.0234620422124863e-02" rms="4.3272840976715088e-01" purity="3.7415117025375366e-01" nType="0">
            <Node pos="l" depth="3" NCoef="0" IVar="-1" Cut="0.0000000000000000e+00" cType="1" res="3.8817361928522587e-03" rms="4.6406888961791992e-01" purity="5.5603319406509399e-01" nType="-99"/>
            <Node pos="r" depth="3" NCoef="0" IVar="5" Cut="-4.9948912858963013e-01" cType="1" res="9.2125841183587909e-04" rms="4.2319360375404358e-01" purity="3.2393303513526917e-01" nType="0">
              <Node pos="l" depth="4" NCoef="0" IVar="6" Cut="6.2539651989936829e-02" cType="1" res="1.0194115340709686e-02" rms="4.4765207171440125e-01" purity="3.7446555495262146e-01" nType="0">
                <Node pos="l" depth="5" NCoef="0" IVar="-1" Cut="0.0000000000000000e+00" cType="1" res="-3.1650899909436703e-03" rms="4.4103839993476868e-01" purity="3.5907822847366333e-01" nType="-99"/>
                <Node pos="r" depth="5" NCoef="0" IVar="2" Cut="1.9854136657714844e+02" cType="1" res="2.3128904402256012e-02" rms="4.4909226894378662e-01" purity="3.7959793210029602e-01" nType="0">
                  <Node pos="l" depth="6" NCoef="0" IVar="-1" Cut="0.0000000000000000e+00" cType="1" res="6.2334164977073669e-03" rms="4.6180880069732666e-01" purity="4.7945541143417358e-01" nType="-99"/>
                  <Node pos="r" depth="6" NCoef="0" IVar="2" Cut="3.2097909545898438e+02" cType="1" res="6.1304103583097458e-03" rms="4.4277548789978027e-01" purity="3.3976697921752930e-01" nType="0">
                    <Node pos="l" depth="7" NCoef="0" IVar="-1" Cut="0.0000000000000000e+00" cType="1" res="2.4785131681710482e-03" rms="4.5096269249916077e-01" purity="3.7819060683250427e-01" nType="-99"/>
                    <Node pos="r" depth="7" NCoef="0" IVar="-1" Cut="0.0000000000000000e+00" cType="1" res="-6.6075025824829936e-04" rms="4.3652719259262085e-01" purity="3.1257435679435730e-01" nType="-99"/>
                  </Node>
                </Node>
              </Node>
              <Node pos="r" depth="4" NCoef="0" IVar="-1" Cut="0.0000000000000000e+00" cType="1" res="-8.0824308097362518e-03" rms="3.0007407069206238e-01" purity="1.1692752689123154e-01" nType="-99"/>
            </Node>
          </Node>
          <Node pos="r" depth="2" NCoef="0" IVar="1" Cut="2.6513713598251343e-01" cType="1" res="-2.0970070734620094e-02" rms="3.6399570107460022e-01" purity="2.0984663069248199e-01" nType="0">
            <Node pos="l" depth="3" NCoef="0" IVar="2" Cut="1.9059880065917969e+02" cType="1" res="1.7301623011007905e-03" rms="4.1380563378334045e-01" purity="3.1977233290672302e-01" nType="0">
              <Node pos="l" depth="4" NCoef="0" IVar="6" Cut="7.1603991091251373e-02" cType="1" res="1.7991671338677406e-02" rms="4.3948566913604736e-01" purity="4.0225180983543396e-01" nType="0">
                <Node pos="l" depth="5" NCoef="0" IVar="2" Cut="4.9183082580566406e+01" cType="1" res="2.8247840236872435e-03" rms="4.3514668941497803e-01" purity="4.0177169442176819e-01" nType="0">
                  <Node pos="l" depth="6" NCoef="0" IVar="-1" Cut="0.0000000000000000e+00" cType="1" res="2.8504943475127220e-03" rms="4.6235880255699158e-01" purity="5.2441960573196411e-01" nType="-99"/>
                  <Node pos="r" depth="6" NCoef="0" IVar="-1" Cut="0.0000000000000000e+00" cType="1" res="-2.3738835006952286e-03" rms="4.1135531663894653e-01" purity="3.0608883500099182e-01" nType="-99"/>
                </Node>
                <Node pos="r" depth="5" NCoef="0" IVar="-1" Cut="0.0000000000000000e+00" cType="1" res="5.6999423541128635e-03" rms="4.4731387495994568e-01" purity="4.0334820747375488e-01" nType="-99"/>
              </Node>
              <Node pos="r" depth="4" NCoef="0" IVar="5" Cut="-1.8724814653396606e+00" cType="1" res="-1.7168242484331131e-02" rms="3.8092631101608276e-01" purity="2.2391837835311890e-01" nType="0">
                <Node pos="l" depth="5" NCoef="0" IVar="-1" Cut="0.0000000000000000e+00" cType="1" res="1.4412215386983007e-04" rms="4.2954966425895691e-01" purity="3.0040904879570007e-01" nType="-99"/>
                <Node pos="r" depth="5" NCoef="0" IVar="-1" Cut="0.0000000000000000e+00" cType="1" res="-6.0863229446113110e-03" rms="3.3239820599555969e-01" purity="1.5777568519115448e-01" nType="-99"/>
              </Node>
            </Node>
            <Node pos="r" depth="3" NCoef="0" IVar="5" Cut="-1.2460906505584717e+00" cType="1" res="-2.6175297796726227e-02" rms="3.5137429833412170e-01" purity="1.8464036285877228e-01" nType="0">
              <Node pos="l" depth="4" NCoef="0" IVar="5" Cut="-3.1012341976165771e+00" cType="1" res="-2.1226683631539345e-02" rms="3.8535040616989136e-01" purity="2.3082165420055389e-01" nType="0">
                <Node pos="l" depth="5" NCoef="0" IVar="4" Cut="-4.1934722661972046e-01" cType="1" res="-4.1024833917617798e-02" rms="3.2698401808738708e-01" purity="1.5657244622707367e-01" nType="0">
                  <Node pos="l" depth="6" NCoef="0" IVar="0" Cut="1.2586804628372192e+00" cType="1" res="-5.1208846271038055e-02" rms="3.2696771621704102e-01" purity="1.5282820165157318e-01" nType="0">
                    <Node pos="l" depth="7" NCoef="0" IVar="-1" Cut="0.0000000000000000e+00" cType="1" res="-9.5267305150628090e-03" rms="3.8778778910636902e-01" purity="2.3165909945964813e-01" nType="-99"/>
                    <Node pos="r" depth="7" NCoef="0" IVar="-1" Cut="0.0000000000000000e+00" cType="1" res="-9.3143172562122345e-03" rms="2.6622986793518066e-01" purity="8.8754527270793915e-02" nType="-99"/>
                  </Node>
                  <Node pos="r" depth="6" NCoef="0" IVar="-1" Cut="0.0000000000000000e+00" cType="1" res="-3.5875493194907904e-03" rms="3.2585197687149048e-01" purity="1.6502800583839417e-01" nType="-99"/>
                </Node>
                <Node pos="r" depth="5" NCoef="0" IVar="0" Cut="1.5707085132598877e+00" cType="1" res="-1.6833785921335220e-02" rms="3.9700603485107422e-01" purity="2.4729639291763306e-01" nType="0">
                  <Node pos="l" depth="6" NCoef="0" IVar="6" Cut="1.0285786539316177e-01" cType="1" res="-8.7854200974106789e-03" rms="4.3954268097877502e-01" purity="3.2088404893875122e-01" nType="0">
                    <Node pos="l" depth="7" NCoef="0" IVar="-1" Cut="0.0000000000000000e+00" cType="1" res="-1.7596482066437602e-03" rms="4.4031229615211487e-01" purity="3.3288112282752991e-01" nType="-99"/>
                    <Node pos="r" depth="7" NCoef="0" IVar="-1" Cut="0.0000000000000000e+00" cType="1" res="7.4766104808077216e-04" rms="4.3750086426734924e-01" purity="2.9495140910148621e-01" nType="-99"/>
                  </Node>
                  <Node pos="r" depth="6" NCoef="0" IVar="7" Cut="8.0000000000000000e+00" cType="1" res="-3.0536599457263947e-02" rms="3.0765405297279358e-01" purity="1.1884496361017227e-01" nType="0">
                    <Node pos="l" depth="7" NCoef="0" IVar="-1" Cut="0.0000000000000000e+00" cType="1" res="-5.9637669473886490e-03" rms="3.2263177633285522e-01" purity="1.3191169500350952e-01" nType="-99"/>
                    <Node pos="r" depth="7" NCoef="0" IVar="-1" Cut="0.0000000000000000e+00" cType="1" res="-1.4759480953216553e-02" rms="2.3348447680473328e-01" purity="5.9678275138139725e-02" nType="-99"/>
                  </Node>
                </Node>
              </Node>
              <Node pos="r" depth="4" NCoef="0" IVar="3" Cut="5.2390009164810181e-01" cType="1" res="-3.5291705280542374e-02" rms="2.7789056301116943e-01" purity="9.9564529955387115e-02" nType="0">
                <Node pos="l" depth="5" NCoef="0" IVar="1" Cut="2.4619793891906738e+00" cType="1" res="-3.0891459435224533e-02" rms="2.1949872374534607e-01" purity="5.3760774433612823e-02" nType="0">
                  <Node pos="l" depth="6" NCoef="0" IVar="3" Cut="4.2837178707122803e-01" cType="1" res="-3.4330379217863083e-02" rms="2.1016623079776764e-01" purity="4.9198377877473831e-02" nType="0">
                    <Node pos="l" depth="7" NCoef="0" IVar="-1" Cut="0.0000000000000000e+00" cType="1" res="-1.5415799804031849e-02" rms="1.8858870863914490e-01" purity="3.8505326956510544e-02" nType="-99"/>
                    <Node pos="r" depth="7" NCoef="0" IVar="-1" Cut="0.0000000000000000e+00" cType="1" res="-6.0550011694431305e-03" rms="2.8320503234863281e-01" purity="9.4157733023166656e-02" nType="-99"/>
                  </Node>
                  <Node pos="r" depth="6" NCoef="0" IVar="-1" Cut="0.0000000000000000e+00" cType="1" res="-2.6515093632042408e-03" rms="2.7305120229721069e-01" purity="8.4473185241222382e-02" nType="-99"/>
                </Node>
                <Node pos="r" depth="5" NCoef="0" IVar="5" Cut="-5.7120984792709351e-01" cType="1" res="-4.7749485820531845e-02" rms="3.9904856681823730e-01" purity="2.2924211621284485e-01" nType="0">
                  <Node pos="l" depth="6" NCoef="0" IVar="-1" Cut="0.0000000000000000e+00" cType="1" res="-3.0526709742844105e-03" rms="4.4829845428466797e-01" purity="3.0777963995933533e-01" nType="-99"/>
                  <Node pos="r" depth="6" NCoef="0" IVar="-1" Cut="0.0000000000000000e+00" cType="1" res="-9.3172844499349594e-03" rms="3.5532715916633606e-01" purity="1.6818992793560028e-01" nType="-99"/>
                </Node>
              </Node>
            </Node>
          </Node>
        </Node>
      </Node>
    </BinaryTree>
    <BinaryTree type="DecisionTree" boostWeight="1.0000000000000000e+00" itree="54">
      <Node pos="s" depth="0" NCoef="0" IVar="3" Cut="7.8077578544616699e-01" cType="1" res="1.0127808898687363e-02" rms="4.0154480934143066e-01" purity="5.0137889385223389e-01" nType="0">
        <Node pos="l" depth="1" NCoef="0" IVar="1" Cut="-2.3116573691368103e-01" cType="1" res="-1.3641613535583019e-02" rms="3.8340425491333008e-01" purity="2.5910463929176331e-01" nType="0">
          <Node pos="l" depth="2" NCoef="0" IVar="3" Cut="5.3501355648040771e-01" cType="1" res="1.5068233013153076e-02" rms="4.4115129113197327e-01" purity="4.1726702451705933e-01" nType="0">
            <Node pos="l" depth="3" NCoef="0" IVar="6" Cut="1.1380184441804886e-01" cType="1" res="-1.0792242363095284e-02" rms="3.6624869704246521e-01" purity="1.8558871746063232e-01" nType="0">
              <Node pos="l" depth="4" NCoef="0" IVar="-1" Cut="0.0000000000000000e+00" cType="1" res="-4.3550012633204460e-03" rms="3.3851847052574158e-01" purity="1.5072622895240784e-01" nType="-99"/>
              <Node pos="r" depth="4" NCoef="0" IVar="-1" Cut="0.0000000000000000e+00" cType="1" res="-4.6553996071452275e-05" rms="3.8928118348121643e-01" purity="2.1704548597335815e-01" nType="-99"/>
            </Node>
            <Node pos="r" depth="3" NCoef="0" IVar="2" Cut="1.4350596618652344e+02" cType="1" res="2.9896710067987442e-02" rms="4.7821381688117981e-01" purity="5.5011212825775146e-01" nType="0">
              <Node pos="l" depth="4" NCoef="0" IVar="-1" Cut="0.0000000000000000e+00" cType="1" res="4.0457327850162983e-03" rms="4.7815904021263123e-01" purity="5.9541398286819458e-01" nType="-99"/>
              <Node pos="r" depth="4" NCoef="0" IVar="6" Cut="8.6606912314891815e-02" cType="1" res="1.5551933087408543e-02" rms="4.7777181863784790e-01" purity="5.1404678821563721e-01" nType="0">
                <Node pos="l" depth="5" NCoef="0" IVar="-1" Cut="0.0000000000000000e+00" cType="1" res="5.7332607684656978e-04" rms="4.7470068931579590e-01" purity="5.1981949806213379e-01" nType="-99"/>
                <Node pos="r" depth="5" NCoef="0" IVar="-1" Cut="0.0000000000000000e+00" cType="1" res="2.3052319884300232e-03" rms="4.8066988587379456e-01" purity="5.0820493698120117e-01" nType="-99"/>
              </Node>
            </Node>
          </Node>
          <Node pos="r" depth="2" NCoef="0" IVar="1" Cut="4.2876651883125305e-01" cType="1" res="-1.8228344619274139e-02" rms="3.7314733862876892e-01" purity="2.3383635282516479e-01" nType="0">
            <Node pos="l" depth="3" NCoef="0" IVar="2" Cut="2.0605455017089844e+02" cType="1" res="-4.9370578490197659e-03" rms="4.1711530089378357e-01" purity="3.3792999386787415e-01" nType="0">
              <Node pos="l" depth="4" NCoef="0" IVar="6" Cut="5.2941638976335526e-02" cType="1" res="8.6568128317594528e-03" rms="4.3879795074462891e-01" purity="4.0748915076255798e-01" nType="0">
                <Node pos="l" depth="5" NCoef="0" IVar="2" Cut="7.3694259643554688e+01" cType="1" res="-1.2295919470489025e-02" rms="4.3426483869552612e-01" purity="3.9205136895179749e-01" nType="0">
                  <Node pos="l" depth="6" NCoef="0" IVar="6" Cut="2.7521083131432533e-02" cType="1" res="7.2361477650702000e-03" rms="4.5118719339370728e-01" purity="4.4688981771469116e-01" nType="0">
                    <Node pos="l" depth="7" NCoef="0" IVar="-1" Cut="0.0000000000000000e+00" cType="1" res="-1.2467087944969535e-03" rms="4.4453358650207520e-01" purity="4.1573849320411682e-01" nType="-99"/>
                    <Node pos="r" depth="7" NCoef="0" IVar="-1" Cut="0.0000000000000000e+00" cType="1" res="2.4821241386234760e-03" rms="4.5663988590240479e-01" purity="4.7608652710914612e-01" nType="-99"/>
                  </Node>
                  <Node pos="r" depth="6" NCoef="0" IVar="-1" Cut="0.0000000000000000e+00" cType="1" res="-4.5408778823912144e-03" rms="4.1063174605369568e-01" purity="3.2295036315917969e-01" nType="-99"/>
                </Node>
                <Node pos="r" depth="5" NCoef="0" IVar="2" Cut="1.3674028015136719e+02" cType="1" res="2.5196671485900879e-02" rms="4.4164201617240906e-01" purity="4.1967558860778809e-01" nType="0">
                  <Node pos="l" depth="6" NCoef="0" IVar="5" Cut="-2.2299990653991699e+00" cType="1" res="3.8681637495756149e-02" rms="4.5250040292739868e-01" purity="4.6643841266632080e-01" nType="0">
                    <Node pos="l" depth="7" NCoef="0" IVar="-1" Cut="0.0000000000000000e+00" cType="1" res="5.1588974893093109e-03" rms="4.5955851674079895e-01" purity="5.2452582120895386e-01" nType="-99"/>
                    <Node pos="r" depth="7" NCoef="0" IVar="-1" Cut="0.0000000000000000e+00" cType="1" res="2.7981312014162540e-03" rms="4.4647398591041565e-01" purity="4.2057925462722778e-01" nType="-99"/>
                  </Node>
                  <Node pos="r" depth="6" NCoef="0" IVar="-1" Cut="0.0000000000000000e+00" cType="1" res="5.5144599173218012e-04" rms="4.2363509535789490e-01" purity="3.4802836179733276e-01" nType="-99"/>
                </Node>
              </Node>
              <Node pos="r" depth="4" NCoef="0" IVar="4" Cut="1.5853577852249146e-01" cType="1" res="-2.1652383729815483e-02" rms="3.8814774155616760e-01" purity="2.5239846110343933e-01" nType="0">
                <Node pos="l" depth="5" NCoef="0" IVar="6" Cut="8.2030415534973145e-02" cType="1" res="-1.1143210344016552e-02" rms="4.3293502926826477e-01" purity="3.3364367485046387e-01" nType="0">
                  <Node pos="l" depth="6" NCoef="0" IVar="-1" Cut="0.0000000000000000e+00" cType="1" res="-3.6405723076313734e-03" rms="4.3678885698318481e-01" purity="3.6273235082626343e-01" nType="-99"/>
                  <Node pos="r" depth="6" NCoef="0" IVar="4" Cut="-1.4443403482437134e+00" cType="1" res="-4.1895173490047455e-03" rms="4.3137291073799133e-01" purity="3.2355609536170959e-01" nType="0">
                    <Node pos="l" depth="7" NCoef="0" IVar="-1" Cut="0.0000000000000000e+00" cType="1" res="1.4513408532366157e-03" rms="4.4813805818557739e-01" purity="3.8636982440948486e-01" nType="-99"/>
                    <Node pos="r" depth="7" NCoef="0" IVar="-1" Cut="0.0000000000000000e+00" cType="1" res="-1.6188208246603608e-03" rms="4.2275911569595337e-01" purity="2.9311439394950867e-01" nType="-99"/>
                  </Node>
                </Node>
                <Node pos="r" depth="5" NCoef="0" IVar="6" Cut="1.1786187440156937e-01" cType="1" res="-3.8142740726470947e-02" rms="3.0415424704551697e-01" purity="1.2491338700056076e-01" nType="0">
                  <Node pos="l" depth="6" NCoef="0" IVar="-1" Cut="0.0000000000000000e+00" cType="1" res="-1.0778402909636497e-02" rms="3.0238088965415955e-01" purity="1.2992918491363525e-01" nType="-99"/>
                  <Node pos="r" depth="6" NCoef="0" IVar="-1" Cut="0.0000000000000000e+00" cType="1" res="-5.3261867724359035e-03" rms="3.0470913648605347e-01" purity="1.2103460729122162e-01" nType="-99"/>
                </Node>
              </Node>
            </Node>
            <Node pos="r" depth="3" NCoef="0" IVar="6" Cut="8.9814715087413788e-02" cType="1" res="-2.5838278234004974e-02" rms="3.4523311257362366e-01" purity="1.7423748970031738e-01" nType="0">
              <Node pos="l" depth="4" NCoef="0" IVar="5" Cut="-1.3858550786972046e+00" cType="1" res="-3.4375619143247604e-02" rms="3.5123825073242188e-01" purity="1.8912822008132935e-01" nType="0">
                <Node pos="l" depth="5" NCoef="0" IVar="5" Cut="-3.2321364879608154e+00" cType="1" res="-2.7923831716179848e-02" rms="3.8002058863639832e-01" purity="2.2869622707366943e-01" nType="0">
                  <Node pos="l" depth="6" NCoef="0" IVar="-1" Cut="0.0000000000000000e+00" cType="1" res="-9.6320807933807373e-03" rms="3.0403962731361389e-01" purity="1.2541243433952332e-01" nType="-99"/>
                  <Node pos="r" depth="6" NCoef="0" IVar="1" Cut="1.6610555648803711e+00" cType="1" res="-2.2860707715153694e-02" rms="3.9648231863975525e-01" purity="2.5435325503349304e-01" nType="0">
                    <Node pos="l" depth="7" NCoef="0" IVar="-1" Cut="0.0000000000000000e+00" cType="1" res="-1.9785377662628889e-03" rms="4.0930604934692383e-01" purity="2.8200003504753113e-01" nType="-99"/>
                    <Node pos="r" depth="7" NCoef="0" IVar="-1" Cut="0.0000000000000000e+00" cType="1" res="-7.4200094677507877e-03" rms="3.5647228360176086e-01" purity="1.7541356384754181e-01" nType="-99"/>
                  </Node>
                </Node>
                <Node pos="r" depth="5" NCoef="0" IVar="0" Cut="6.4491045475006104e-01" cType="1" res="-4.8344280570745468e-02" rms="2.7841299772262573e-01" purity="1.0346020013093948e-01" nType="0">
                  <Node pos="l" depth="6" NCoef="0" IVar="-1" Cut="0.0000000000000000e+00" cType="1" res="-8.4398724138736725e-03" rms="4.1545963287353516e-01" purity="2.5100797414779663e-01" nType="-99"/>
                  <Node pos="r" depth="6" NCoef="0" IVar="2" Cut="1.2017379760742188e+02" cType="1" res="-4.0080014616250992e-02" rms="2.1113790571689606e-01" purity="5.2772797644138336e-02" nType="0">
                    <Node pos="l" depth="7" NCoef="0" IVar="-1" Cut="0.0000000000000000e+00" cType="1" res="-9.7512966021895409e-03" rms="2.3690259456634521e-01" purity="6.8963371217250824e-02" nType="-99"/>
                    <Node pos="r" depth="7" NCoef="0" IVar="-1" Cut="0.0000000000000000e+00" cType="1" res="-1.8128518015146255e-02" rms="1.8095152080059052e-01" purity="3.6464169621467590e-02" nType="-99"/>
                  </Node>
                </Node>
              </Node>
              <Node pos="r" depth="4" NCoef="0" IVar="7" Cut="5.0000000000000000e+00" cType="1" res="-1.7464902251958847e-02" rms="3.3865419030189514e-01" purity="1.5980313718318939e-01" nType="0">
                <Node pos="l" depth="5" NCoef="0" IVar="5" Cut="-1.5038059651851654e-01" cType="1" res="-7.9128760844469070e-03" rms="3.8833636045455933e-01" purity="2.2527404129505157e-01" nType="0">
                  <Node pos="l" depth="6" NCoef="0" IVar="0" Cut="1.2872570753097534e+00" cType="1" res="-8.3640456432476640e-04" rms="4.1680049896240234e-01" purity="2.6498675346374512e-01" nType="0">
                    <Node pos="l" depth="7" NCoef="0" IVar="-1" Cut="0.0000000000000000e+00" cType="1" res="8.7472214363515377e-04" rms="4.5648145675659180e-01" purity="3.4077629446983337e-01" nType="-99"/>
                    <Node pos="r" depth="7" NCoef="0" IVar="-1" Cut="0.0000000000000000e+00" cType="1" res="-2.9562846757471561e-03" rms="3.4663090109825134e-01" purity="1.4848175644874573e-01" nType="-99"/>
                  </Node>
                  <Node pos="r" depth="6" NCoef="0" IVar="-1" Cut="0.0000000000000000e+00" cType="1" res="-1.0950055904686451e-02" rms="2.4347606301307678e-01" purity="6.8372853100299835e-02" nType="-99"/>
                </Node>
                <Node pos="r" depth="5" NCoef="0" IVar="2" Cut="1.7688159179687500e+02" cType="1" res="-2.7001082897186279e-02" rms="2.8246027231216431e-01" purity="9.5765464007854462e-02" nType="0">
                  <Node pos="l" depth="6" NCoef="0" IVar="-1" Cut="0.0000000000000000e+00" cType="1" res="-6.4635695889592171e-04" rms="3.0035176873207092e-01" purity="1.1536407470703125e-01" nType="-99"/>
                  <Node pos="r" depth="6" NCoef="0" IVar="6" Cut="1.6919304430484772e-01" cType="1" res="-3.2548788934946060e-02" rms="2.7797994017601013e-01" purity="9.1361299157142639e-02" nType="0">
                    <Node pos="l" depth="7" NCoef="0" IVar="-1" Cut="0.0000000000000000e+00" cType="1" res="-1.2760018929839134e-02" rms="2.3145136237144470e-01" purity="6.3395328819751740e-02" nType="-99"/>
                    <Node pos="r" depth="7" NCoef="0" IVar="-1" Cut="0.0000000000000000e+00" cType="1" res="-5.3141554817557335e-03" rms="3.2035857439041138e-01" purity="1.2147876620292664e-01" nType="-99"/>
                  </Node>
                </Node>
              </Node>
            </Node>
          </Node>
        </Node>
        <Node pos="r" depth="1" NCoef="0" IVar="1" Cut="1.1958446502685547e+00" cType="1" res="3.3585395663976669e-02" rms="4.1735237836837769e-01" purity="7.4047476053237915e-01" nType="0">
          <Node pos="l" depth="2" NCoef="0" IVar="2" Cut="1.8177961730957031e+02" cType="1" res="3.7518013268709183e-02" rms="4.0920105576515198e-01" purity="7.6468861103057861e-01" nType="0">
            <Node pos="l" depth="3" NCoef="0" IVar="5" Cut="-2.8030107021331787e+00" cType="1" res="3.9423964917659760e-02" rms="4.0641996264457703e-01" purity="7.7132314443588257e-01" nType="0">
              <Node pos="l" depth="4" NCoef="0" IVar="3" Cut="9.9539166688919067e-01" cType="1" res="4.7805767506361008e-02" rms="3.7303566932678223e-01" purity="8.2371973991394043e-01" nType="0">
                <Node pos="l" depth="5" NCoef="0" IVar="6" Cut="2.1285647526383400e-02" cType="1" res="3.9303902536630630e-02" rms="3.9372259378433228e-01" purity="7.9700607061386108e-01" nType="0">
                  <Node pos="l" depth="6" NCoef="0" IVar="3" Cut="9.5387339591979980e-01" cType="1" res="3.2167632132768631e-02" rms="3.8790461421012878e-01" purity="8.0502384901046753e-01" nType="0">
                    <Node pos="l" depth="7" NCoef="0" IVar="-1" Cut="0.0000000000000000e+00" cType="1" res="1.4948240714147687e-03" rms="4.2263802886009216e-01" purity="7.5432252883911133e-01" nType="-99"/>
                    <Node pos="r" depth="7" NCoef="0" IVar="-1" Cut="0.0000000000000000e+00" cType="1" res="4.7416086308658123e-03" rms="3.7080678343772888e-01" purity="8.2797706127166748e-01" nType="-99"/>
                  </Node>
                  <Node pos="r" depth="6" NCoef="0" IVar="2" Cut="7.8289566040039062e+01" cType="1" res="5.5887714028358459e-02" rms="4.0643808245658875e-01" purity="7.7837371826171875e-01" nType="0">
                    <Node pos="l" depth="7" NCoef="0" IVar="-1" Cut="0.0000000000000000e+00" cType="1" res="8.1125590950250626e-03" rms="3.8669863343238831e-01" purity="8.0763596296310425e-01" nType="-99"/>
                    <Node pos="r" depth="7" NCoef="0" IVar="-1" Cut="0.0000000000000000e+00" cType="1" res="3.1034215353429317e-03" rms="4.2478740215301514e-01" purity="7.4721777439117432e-01" nType="-99"/>
                  </Node>
                </Node>
                <Node pos="r" depth="5" NCoef="0" IVar="4" Cut="-1.7424932718276978e+00" cType="1" res="5.5694893002510071e-02" rms="3.5257285833358765e-01" purity="8.4850811958312988e-01" nType="0">
                  <Node pos="l" depth="6" NCoef="0" IVar="-1" Cut="0.0000000000000000e+00" cType="1" res="3.3058950211852789e-03" rms="3.9857143163681030e-01" purity="7.9302364587783813e-01" nType="-99"/>
                  <Node pos="r" depth="6" NCoef="0" IVar="5" Cut="-3.2013618946075439e+00" cType="1" res="5.9508532285690308e-02" rms="3.4299728274345398e-01" purity="8.5905766487121582e-01" nType="0">
                    <Node pos="l" depth="7" NCoef="0" IVar="-1" Cut="0.0000000000000000e+00" cType="1" res="8.5785733535885811e-03" rms="3.2956606149673462e-01" purity="8.7131190299987793e-01" nType="-99"/>
                    <Node pos="r" depth="7" NCoef="0" IVar="-1" Cut="0.0000000000000000e+00" cType="1" res="6.4900736324489117e-03" rms="3.4952279925346375e-01" purity="8.5281008481979370e-01" nType="-99"/>
                  </Node>
                </Node>
              </Node>
              <Node pos="r" depth="4" NCoef="0" IVar="1" Cut="1.2417031452059746e-02" cType="1" res="3.4410916268825531e-02" rms="4.2505669593811035e-01" purity="7.3998540639877319e-01" nType="0">
                <Node pos="l" depth="5" NCoef="0" IVar="4" Cut="-1.3027466535568237e+00" cType="1" res="4.1413620114326477e-02" rms="4.0729883313179016e-01" purity="7.7577424049377441e-01" nType="0">
                  <Node pos="l" depth="6" NCoef="0" IVar="4" Cut="-2.1855082511901855e+00" cType="1" res="3.4385114908218384e-02" rms="4.1870135068893433e-01" purity="7.6311659812927246e-01" nType="0">
                    <Node pos="l" depth="7" NCoef="0" IVar="-1" Cut="0.0000000000000000e+00" cType="1" res="4.6326080337166786e-03" rms="4.1083657741546631e-01" purity="7.7592432498931885e-01" nType="-99"/>
                    <Node pos="r" depth="7" NCoef="0" IVar="-1" Cut="0.0000000000000000e+00" cType="1" res="2.1334907505661249e-03" rms="4.2651173472404480e-01" purity="7.4962133169174194e-01" nType="-99"/>
                  </Node>
                  <Node pos="r" depth="6" NCoef="0" IVar="5" Cut="-1.9418305158615112e+00" cType="1" res="4.5210693031549454e-02" rms="4.0095263719558716e-01" purity="7.8261244297027588e-01" nType="0">
                    <Node pos="l" depth="7" NCoef="0" IVar="-1" Cut="0.0000000000000000e+00" cType="1" res="5.6448918767273426e-03" rms="3.7042704224586487e-01" purity="8.3016949892044067e-01" nType="-99"/>
                    <Node pos="r" depth="7" NCoef="0" IVar="-1" Cut="0.0000000000000000e+00" cType="1" res="3.7295704241842031e-03" rms="4.3957164883613586e-01" purity="7.1691685914993286e-01" nType="-99"/>
                  </Node>
                </Node>
                <Node pos="r" depth="5" NCoef="0" IVar="5" Cut="-6.6692012548446655e-01" cType="1" res="2.7691742405295372e-02" rms="4.4132003188133240e-01" purity="7.0564562082290649e-01" nType="0">
                  <Node pos="l" depth="6" NCoef="0" IVar="5" Cut="-2.5963034629821777e+00" cType="1" res="3.0698761343955994e-02" rms="4.3659213185310364e-01" purity="7.2403842210769653e-01" nType="0">
                    <Node pos="l" depth="7" NCoef="0" IVar="-1" Cut="0.0000000000000000e+00" cType="1" res="4.6526594087481499e-03" rms="4.0594145655632019e-01" purity="7.8212493658065796e-01" nType="-99"/>
                    <Node pos="r" depth="7" NCoef="0" IVar="-1" Cut="0.0000000000000000e+00" cType="1" res="2.5372975505888462e-03" rms="4.4406524300575256e-01" purity="7.0906329154968262e-01" nType="-99"/>
                  </Node>
                  <Node pos="r" depth="6" NCoef="0" IVar="-1" Cut="0.0000000000000000e+00" cType="1" res="-5.9210538165643811e-04" rms="4.9072012305259705e-01" purity="4.9595242738723755e-01" nType="-99"/>
                </Node>
              </Node>
            </Node>
            <Node pos="r" depth="3" NCoef="0" IVar="4" Cut="-1.6374565362930298e+00" cType="1" res="2.4092060048133135e-03" rms="4.5599356293678284e-01" purity="6.4247578382492065e-01" nType="0">
              <Node pos="l" depth="4" NCoef="0" IVar="-1" Cut="0.0000000000000000e+00" cType="1" res="2.4239714257419109e-03" rms="4.4265228509902954e-01" purity="7.0795488357543945e-01" nType="-99"/>
              <Node pos="r" depth="4" NCoef="0" IVar="-1" Cut="0.0000000000000000e+00" cType="1" res="-2.0418155472725630e-03" rms="4.6893572807312012e-01" purity="5.7160466909408569e-01" nType="-99"/>
            </Node>
          </Node>
          <Node pos="r" depth="2" NCoef="0" IVar="5" Cut="-2.2356259822845459e+00" cType="1" res="4.2087277397513390e-03" rms="4.7279348969459534e-01" purity="5.5959689617156982e-01" nType="0">
            <Node pos="l" depth="3" NCoef="0" IVar="4" Cut="-6.0915476083755493e-01" cType="1" res="2.0906468853354454e-02" rms="4.6869584918022156e-01" purity="6.3170003890991211e-01" nType="0">
              <Node pos="l" depth="4" NCoef="0" IVar="5" Cut="-2.8122618198394775e+00" cType="1" res="7.6231802813708782e-03" rms="4.7996985912322998e-01" purity="5.9264320135116577e-01" nType="0">
                <Node pos="l" depth="5" NCoef="0" IVar="-1" Cut="0.0000000000000000e+00" cType="1" res="1.9042372005060315e-03" rms="4.7440180182456970e-01" purity="6.2132227420806885e-01" nType="-99"/>
                <Node pos="r" depth="5" NCoef="0" IVar="-1" Cut="0.0000000000000000e+00" cType="1" res="-6.9266249192878604e-04" rms="4.8523756861686707e-01" purity="5.6253677606582642e-01" nType="-99"/>
              </Node>
              <Node pos="r" depth="4" NCoef="0" IVar="-1" Cut="0.0000000000000000e+00" cType="1" res="3.7132366560399532e-03" rms="4.5043781399726868e-01" purity="6.9054895639419556e-01" nType="-99"/>
            </Node>
            <Node pos="r" depth="3" NCoef="0" IVar="1" Cut="2.0478048324584961e+00" cType="1" res="-2.1141661331057549e-02" rms="4.7783336043357849e-01" purity="4.5013043284416199e-01" nType="0">
              <Node pos="l" depth="4" NCoef="0" IVar="-1" Cut="0.0000000000000000e+00" cType="1" res="5.6529365247115493e-04" rms="4.8311313986778259e-01" purity="4.9881276488304138e-01" nType="-99"/>
              <Node pos="r" depth="4" NCoef="0" IVar="-1" Cut="0.0000000000000000e+00" cType="1" res="-4.7567845322191715e-03" rms="4.7054967284202576e-01" purity="3.9941790699958801e-01" nType="-99"/>
            </Node>
          </Node>
        </Node>
      </Node>
    </BinaryTree>
    <BinaryTree type="DecisionTree" boostWeight="1.0000000000000000e+00" itree="55">
      <Node pos="s" depth="0" NCoef="0" IVar="3" Cut="7.1202093362808228e-01" cType="1" res="9.8513783887028694e-03" rms="4.0242582559585571e-01" purity="5.0079506635665894e-01" nType="0">
        <Node pos="l" depth="1" NCoef="0" IVar="4" Cut="1.9043531417846680e+00" cType="1" res="-1.3248196803033352e-02" rms="3.6755964159965515e-01" purity="2.1265839040279388e-01" nType="0">
          <Node pos="l" depth="2" NCoef="0" IVar="1" Cut="2.1032518148422241e-01" cType="1" res="-8.4547139704227448e-03" rms="3.9114829897880554e-01" purity="2.4374116957187653e-01" nType="0">
            <Node pos="l" depth="3" NCoef="0" IVar="6" Cut="6.3462153077125549e-02" cType="1" res="6.5045747905969620e-03" rms="4.3984818458557129e-01" purity="3.5321283340454102e-01" nType="0">
              <Node pos="l" depth="4" NCoef="0" IVar="2" Cut="9.6710632324218750e+01" cType="1" res="-1.3539519160985947e-02" rms="4.4023647904396057e-01" purity="3.5090103745460510e-01" nType="0">
                <Node pos="l" depth="5" NCoef="0" IVar="-1" Cut="0.0000000000000000e+00" cType="1" res="5.3975667105987668e-04" rms="4.5660850405693054e-01" purity="4.0002435445785522e-01" nType="-99"/>
                <Node pos="r" depth="5" NCoef="0" IVar="-1" Cut="0.0000000000000000e+00" cType="1" res="-4.3052271939814091e-03" rms="4.1975834965705872e-01" purity="2.9484125971794128e-01" nType="-99"/>
              </Node>
              <Node pos="r" depth="4" NCoef="0" IVar="2" Cut="2.1454551696777344e+02" cType="1" res="1.5250747092068195e-02" rms="4.3939217925071716e-01" purity="3.5422158241271973e-01" nType="0">
                <Node pos="l" depth="5" NCoef="0" IVar="2" Cut="1.2084719848632812e+02" cType="1" res="4.8184614628553391e-02" rms="4.5914483070373535e-01" purity="4.4317200779914856e-01" nType="0">
                  <Node pos="l" depth="6" NCoef="0" IVar="-1" Cut="0.0000000000000000e+00" cType="1" res="6.2440522015094757e-03" rms="4.6807071566581726e-01" purity="5.0611859560012817e-01" nType="-99"/>
                  <Node pos="r" depth="6" NCoef="0" IVar="-1" Cut="0.0000000000000000e+00" cType="1" res="3.6186627112329006e-03" rms="4.5217835903167725e-01" purity="3.9908805489540100e-01" nType="-99"/>
                </Node>
                <Node pos="r" depth="5" NCoef="0" IVar="6" Cut="9.5079086720943451e-02" cType="1" res="-2.8533020522445440e-03" rms="4.2706558108329773e-01" purity="3.0532473325729370e-01" nType="0">
                  <Node pos="l" depth="6" NCoef="0" IVar="-1" Cut="0.0000000000000000e+00" cType="1" res="-3.4825976472347975e-03" rms="4.2307475209236145e-01" purity="3.0506503582000732e-01" nType="-99"/>
                  <Node pos="r" depth="6" NCoef="0" IVar="3" Cut="5.3386741876602173e-01" cType="1" res="5.0648492760956287e-03" rms="4.2801910638809204e-01" purity="3.0540707707405090e-01" nType="0">
                    <Node pos="l" depth="7" NCoef="0" IVar="-1" Cut="0.0000000000000000e+00" cType="1" res="-1.2135413708165288e-03" rms="3.9216163754463196e-01" purity="2.1130427718162537e-01" nType="-99"/>
                    <Node pos="r" depth="7" NCoef="0" IVar="-1" Cut="0.0000000000000000e+00" cType="1" res="2.7192581910640001e-03" rms="4.8834398388862610e-01" purity="4.8518905043601990e-01" nType="-99"/>
                  </Node>
                </Node>
              </Node>
            </Node>
            <Node pos="r" depth="3" NCoef="0" IVar="6" Cut="8.9948900043964386e-02" cType="1" res="-1.5688141807913780e-02" rms="3.6505866050720215e-01" purity="1.9080713391304016e-01" nType="0">
              <Node pos="l" depth="4" NCoef="0" IVar="2" Cut="1.3751406860351562e+02" cType="1" res="-2.5024237111210823e-02" rms="3.5623270273208618e-01" purity="1.8338993191719055e-01" nType="0">
                <Node pos="l" depth="5" NCoef="0" IVar="6" Cut="5.8153208345174789e-02" cType="1" res="-1.3398017734289169e-02" rms="3.7492537498474121e-01" purity="2.0916017889976501e-01" nType="0">
                  <Node pos="l" depth="6" NCoef="0" IVar="2" Cut="4.4718101501464844e+01" cType="1" res="-2.2399393841624260e-02" rms="3.6560669541358948e-01" purity="1.9205078482627869e-01" nType="0">
                    <Node pos="l" depth="7" NCoef="0" IVar="-1" Cut="0.0000000000000000e+00" cType="1" res="-2.9646887924172916e-05" rms="3.9155134558677673e-01" purity="2.3331727087497711e-01" nType="-99"/>
                    <Node pos="r" depth="7" NCoef="0" IVar="-1" Cut="0.0000000000000000e+00" cType="1" res="-5.9678684920072556e-03" rms="3.5000094771385193e-01" purity="1.6946752369403839e-01" nType="-99"/>
                  </Node>
                  <Node pos="r" depth="6" NCoef="0" IVar="3" Cut="5.1000881195068359e-01" cType="1" res="3.9815371856093407e-03" rms="3.9170697331428528e-01" purity="2.4219444394111633e-01" nType="0">
                    <Node pos="l" depth="7" NCoef="0" IVar="-1" Cut="0.0000000000000000e+00" cType="1" res="-3.6240010522305965e-03" rms="2.9274082183837891e-01" purity="9.9987730383872986e-02" nType="-99"/>
                    <Node pos="r" depth="7" NCoef="0" IVar="-1" Cut="0.0000000000000000e+00" cType="1" res="2.1348386071622372e-03" rms="4.7180947661399841e-01" purity="3.8860896229743958e-01" nType="-99"/>
                  </Node>
                </Node>
                <Node pos="r" depth="5" NCoef="0" IVar="2" Cut="2.5184181213378906e+02" cType="1" res="-4.1810501366853714e-02" rms="3.2663673162460327e-01" purity="1.4618210494518280e-01" nType="0">
                  <Node pos="l" depth="6" NCoef="0" IVar="3" Cut="5.5601054430007935e-01" cType="1" res="-3.2022643834352493e-02" rms="3.3255755901336670e-01" purity="1.5539313852787018e-01" nType="0">
                    <Node pos="l" depth="7" NCoef="0" IVar="-1" Cut="0.0000000000000000e+00" cType="1" res="-1.1736144311726093e-02" rms="2.4436166882514954e-01" purity="6.6623330116271973e-02" nType="-99"/>
                    <Node pos="r" depth="7" NCoef="0" IVar="-1" Cut="0.0000000000000000e+00" cType="1" res="-2.1274422761052847e-03" rms="4.4925984740257263e-01" purity="3.1501966714859009e-01" nType="-99"/>
                  </Node>
                  <Node pos="r" depth="6" NCoef="0" IVar="-1" Cut="0.0000000000000000e+00" cType="1" res="-1.0529691353440285e-02" rms="3.1666466593742371e-01" purity="1.3193342089653015e-01" nType="-99"/>
                </Node>
              </Node>
              <Node pos="r" depth="4" NCoef="0" IVar="0" Cut="1.6126558780670166e+00" cType="1" res="-7.0193391293287277e-03" rms="3.7285766005516052e-01" purity="1.9769418239593506e-01" nType="0">
                <Node pos="l" depth="5" NCoef="0" IVar="5" Cut="-2.0909230709075928e+00" cType="1" res="2.2611015010625124e-03" rms="4.2453724145889282e-01" purity="2.7411663532257080e-01" nType="0">
                  <Node pos="l" depth="6" NCoef="0" IVar="0" Cut="6.7622196674346924e-01" cType="1" res="1.4761030673980713e-02" rms="4.4289162755012512e-01" purity="3.1452682614326477e-01" nType="0">
                    <Node pos="l" depth="7" NCoef="0" IVar="-1" Cut="0.0000000000000000e+00" cType="1" res="3.0551475938409567e-03" rms="4.8403343558311462e-01" purity="4.3922770023345947e-01" nType="-99"/>
                    <Node pos="r" depth="7" NCoef="0" IVar="-1" Cut="0.0000000000000000e+00" cType="1" res="5.3734233370050788e-04" rms="4.1506123542785645e-01" purity="2.3749533295631409e-01" nType="-99"/>
                  </Node>
                  <Node pos="r" depth="6" NCoef="0" IVar="2" Cut="4.5264254760742188e+02" cType="1" res="-8.9893387630581856e-03" rms="4.0698277950286865e-01" purity="2.3774586617946625e-01" nType="0">
                    <Node pos="l" depth="7" NCoef="0" IVar="-1" Cut="0.0000000000000000e+00" cType="1" res="-2.9264938348205760e-05" rms="4.1680863499641418e-01" purity="2.5640773773193359e-01" nType="-99"/>
                    <Node pos="r" depth="7" NCoef="0" IVar="-1" Cut="0.0000000000000000e+00" cType="1" res="-4.4481689110398293e-03" rms="3.8314795494079590e-01" purity="1.9563129544258118e-01" nType="-99"/>
                  </Node>
                </Node>
                <Node pos="r" depth="5" NCoef="0" IVar="6" Cut="1.9896386563777924e-01" cType="1" res="-1.8493495881557465e-02" rms="2.9636910557746887e-01" purity="1.0320694744586945e-01" nType="0">
                  <Node pos="l" depth="6" NCoef="0" IVar="2" Cut="4.0247500610351562e+02" cType="1" res="-2.6906415820121765e-02" rms="2.6159271597862244e-01" purity="7.7140241861343384e-02" nType="0">
                    <Node pos="l" depth="7" NCoef="0" IVar="-1" Cut="0.0000000000000000e+00" cType="1" res="-6.2733027152717113e-03" rms="2.7223947644233704e-01" purity="8.4727406501770020e-02" nType="-99"/>
                    <Node pos="r" depth="7" NCoef="0" IVar="-1" Cut="0.0000000000000000e+00" cType="1" res="-1.2450477108359337e-02" rms="2.4069556593894958e-01" purity="6.3516966998577118e-02" nType="-99"/>
                  </Node>
                  <Node pos="r" depth="6" NCoef="0" IVar="-1" Cut="0.0000000000000000e+00" cType="1" res="6.9631217047572136e-04" rms="3.7146872282028198e-01" purity="1.7148439586162567e-01" nType="-99"/>
                </Node>
              </Node>
            </Node>
          </Node>
          <Node pos="r" depth="2" NCoef="0" IVar="3" Cut="4.6507409214973450e-01" cType="1" res="-4.0713999420404434e-02" rms="1.7795516550540924e-01" purity="3.4559547901153564e-02" nType="0">
            <Node pos="l" depth="3" NCoef="0" IVar="3" Cut="2.1901254355907440e-01" cType="1" res="-3.5153958946466446e-02" rms="1.5791392326354980e-01" purity="2.6838965713977814e-02" nType="0">
              <Node pos="l" depth="4" NCoef="0" IVar="-1" Cut="0.0000000000000000e+00" cType="1" res="-8.5792401805520058e-03" rms="2.1380779147148132e-01" purity="5.1654782146215439e-02" nType="-99"/>
              <Node pos="r" depth="4" NCoef="0" IVar="4" Cut="2.8626661300659180e+00" cType="1" res="-3.9983786642551422e-02" rms="1.3749414682388306e-01" purity="1.9759727641940117e-02" nType="0">
                <Node pos="l" depth="5" NCoef="0" IVar="-1" Cut="0.0000000000000000e+00" cType="1" res="-1.5681101009249687e-02" rms="1.7315661907196045e-01" purity="3.1825229525566101e-02" nType="-99"/>
                <Node pos="r" depth="5" NCoef="0" IVar="0" Cut="1.8684204816818237e+00" cType="1" res="-4.3980937451124191e-02" rms="1.0944765061140060e-01" purity="1.2262294068932533e-02" nType="0">
                  <Node pos="l" depth="6" NCoef="0" IVar="-1" Cut="0.0000000000000000e+00" cType="1" res="-2.2192122414708138e-02" rms="1.2029114365577698e-01" purity="1.4698925428092480e-02" nType="-99"/>
                  <Node pos="r" depth="6" NCoef="0" IVar="-1" Cut="0.0000000000000000e+00" cType="1" res="-2.4117276072502136e-02" rms="9.9318034946918488e-02" purity="1.0219629853963852e-02" nType="-99"/>
                </Node>
              </Node>
            </Node>
            <Node pos="r" depth="3" NCoef="0" IVar="-1" Cut="0.0000000000000000e+00" cType="1" res="-1.5058017335832119e-02" rms="2.3518671095371246e-01" purity="6.2263362109661102e-02" nType="-99"/>
          </Node>
        </Node>
        <Node pos="r" depth="1" NCoef="0" IVar="5" Cut="-8.5891050100326538e-01" cType="1" res="2.7071867138147354e-02" rms="4.2575341463088989e-01" purity="7.1559792757034302e-01" nType="0">
          <Node pos="l" depth="2" NCoef="0" IVar="1" Cut="2.7085335925221443e-02" cType="1" res="3.0632494017481804e-02" rms="4.2122814059257507e-01" purity="7.3579502105712891e-01" nType="0">
            <Node pos="l" depth="3" NCoef="0" IVar="5" Cut="-2.7390172481536865e+00" cType="1" res="4.3230623006820679e-02" rms="3.9359691739082336e-01" purity="7.9534500837326050e-01" nType="0">
              <Node pos="l" depth="4" NCoef="0" IVar="4" Cut="-2.4856081008911133e+00" cType="1" res="5.1665790379047394e-02" rms="3.6319395899772644e-01" purity="8.3598387241363525e-01" nType="0">
                <Node pos="l" depth="5" NCoef="0" IVar="-1" Cut="0.0000000000000000e+00" cType="1" res="7.2742635384202003e-03" rms="3.7577128410339355e-01" purity="8.2245177030563354e-01" nType="-99"/>
                <Node pos="r" depth="5" NCoef="0" IVar="4" Cut="-1.4209253787994385e+00" cType="1" res="4.9256455153226852e-02" rms="3.6095798015594482e-01" purity="8.3828312158584595e-01" nType="0">
                  <Node pos="l" depth="6" NCoef="0" IVar="-1" Cut="0.0000000000000000e+00" cType="1" res="2.8719962574541569e-03" rms="4.1190609335899353e-01" purity="7.7325576543807983e-01" nType="-99"/>
                  <Node pos="r" depth="6" NCoef="0" IVar="4" Cut="-1.2568803131580353e-01" cType="1" res="5.4997216910123825e-02" rms="3.4466800093650818e-01" purity="8.5702264308929443e-01" nType="0">
                    <Node pos="l" depth="7" NCoef="0" IVar="-1" Cut="0.0000000000000000e+00" cType="1" res="6.2895938754081726e-03" rms="3.4816265106201172e-01" purity="8.5262542963027954e-01" nType="-99"/>
                    <Node pos="r" depth="7" NCoef="0" IVar="-1" Cut="0.0000000000000000e+00" cType="1" res="8.3832899108529091e-03" rms="3.3370116353034973e-01" purity="8.7027400732040405e-01" nType="-99"/>
                  </Node>
                </Node>
              </Node>
              <Node pos="r" depth="4" NCoef="0" IVar="5" Cut="-2.2538352012634277e+00" cType="1" res="3.7289168685674667e-02" rms="4.1356942057609558e-01" purity="7.6672035455703735e-01" nType="0">
                <Node pos="l" depth="5" NCoef="0" IVar="2" Cut="7.7327995300292969e+01" cType="1" res="4.4934567064046860e-02" rms="3.9277973771095276e-01" purity="7.9983311891555786e-01" nType="0">
                  <Node pos="l" depth="6" NCoef="0" IVar="3" Cut="9.3269091844558716e-01" cType="1" res="4.8829380422830582e-02" rms="3.7759837508201599e-01" purity="8.2246226072311401e-01" nType="0">
                    <Node pos="l" depth="7" NCoef="0" IVar="-1" Cut="0.0000000000000000e+00" cType="1" res="6.0592498630285263e-03" rms="4.0148907899856567e-01" purity="7.9357910156250000e-01" nType="-99"/>
                    <Node pos="r" depth="7" NCoef="0" IVar="-1" Cut="0.0000000000000000e+00" cType="1" res="4.9775005318224430e-03" rms="3.6786434054374695e-01" purity="8.3357429504394531e-01" nType="-99"/>
                  </Node>
                  <Node pos="r" depth="6" NCoef="0" IVar="-1" Cut="0.0000000000000000e+00" cType="1" res="3.5083859693259001e-03" rms="4.2998558282852173e-01" purity="7.4032276868820190e-01" nType="-99"/>
                </Node>
                <Node pos="r" depth="5" NCoef="0" IVar="6" Cut="5.1507752388715744e-02" cType="1" res="3.1134810298681259e-02" rms="4.2947545647621155e-01" purity="7.4006551504135132e-01" nType="0">
                  <Node pos="l" depth="6" NCoef="0" IVar="3" Cut="9.9411511421203613e-01" cType="1" res="2.6717886328697205e-02" rms="4.2342287302017212e-01" purity="7.5079154968261719e-01" nType="0">
                    <Node pos="l" depth="7" NCoef="0" IVar="-1" Cut="0.0000000000000000e+00" cType="1" res="1.5122570330277085e-03" rms="4.4252973794937134e-01" purity="7.1707516908645630e-01" nType="-99"/>
                    <Node pos="r" depth="7" NCoef="0" IVar="-1" Cut="0.0000000000000000e+00" cType="1" res="4.3155336752533913e-03" rms="3.9668750762939453e-01" purity="7.9466176033020020e-01" nType="-99"/>
                  </Node>
                  <Node pos="r" depth="6" NCoef="0" IVar="-1" Cut="0.0000000000000000e+00" cType="1" res="4.3209516443312168e-03" rms="4.5285224914550781e-01" purity="6.9637095928192139e-01" nType="-99"/>
                </Node>
              </Node>
            </Node>
            <Node pos="r" depth="3" NCoef="0" IVar="3" Cut="9.9788725376129150e-01" cType="1" res="2.0471261814236641e-02" rms="4.4199708104133606e-01" purity="6.8776392936706543e-01" nType="0">
              <Node pos="l" depth="4" NCoef="0" IVar="1" Cut="1.9572817087173462e+00" cType="1" res="1.3400476425886154e-02" rms="4.5474588871002197e-01" purity="6.5755343437194824e-01" nType="0">
                <Node pos="l" depth="5" NCoef="0" IVar="6" Cut="6.1447773128747940e-02" cType="1" res="1.7589397728443146e-02" rms="4.5139297842979431e-01" purity="6.7723000049591064e-01" nType="0">
                  <Node pos="l" depth="6" NCoef="0" IVar="3" Cut="8.3190613985061646e-01" cType="1" res="1.3997112400829792e-02" rms="4.4768100976943970e-01" purity="6.8582993745803833e-01" nType="0">
                    <Node pos="l" depth="7" NCoef="0" IVar="-1" Cut="0.0000000000000000e+00" cType="1" res="-5.1563483430072665e-04" rms="4.8205140233039856e-01" purity="5.7213360071182251e-01" nType="-99"/>
                    <Node pos="r" depth="7" NCoef="0" IVar="-1" Cut="0.0000000000000000e+00" cType="1" res="2.0772235002368689e-03" rms="4.3552440404891968e-01" purity="7.2341883182525635e-01" nType="-99"/>
                  </Node>
                  <Node pos="r" depth="6" NCoef="0" IVar="4" Cut="-1.0806578397750854e+00" cType="1" res="4.1956353932619095e-02" rms="4.7509145736694336e-01" purity="6.1889499425888062e-01" nType="0">
                    <Node pos="l" depth="7" NCoef="0" IVar="-1" Cut="0.0000000000000000e+00" cType="1" res="2.5988915003836155e-03" rms="4.7578132152557373e-01" purity="6.1732602119445801e-01" nType="-99"/>
                    <Node pos="r" depth="7" NCoef="0" IVar="-1" Cut="0.0000000000000000e+00" cType="1" res="4.5469687320291996e-03" rms="4.7416990995407104e-01" purity="6.2038606405258179e-01" nType="-99"/>
                  </Node>
                </Node>
                <Node pos="r" depth="5" NCoef="0" IVar="3" Cut="8.6881476640701294e-01" cType="1" res="-2.2217767313122749e-02" rms="4.8084264993667603e-01" purity="4.9024423956871033e-01" nType="0">
                  <Node pos="l" depth="6" NCoef="0" IVar="-1" Cut="0.0000000000000000e+00" cType="1" res="-3.8488870486617088e-03" rms="4.8134654760360718e-01" purity="4.1711887717247009e-01" nType="-99"/>
                  <Node pos="r" depth="6" NCoef="0" IVar="-1" Cut="0.0000000000000000e+00" cType="1" res="-1.6489870904479176e-04" rms="4.7946733236312866e-01" purity="5.6479346752166748e-01" nType="-99"/>
                </Node>
              </Node>
              <Node pos="r" depth="4" NCoef="0" IVar="0" Cut="3.1920403242111206e-01" cType="1" res="3.5691294819116592e-02" rms="4.1281187534332275e-01" purity="7.5279283523559570e-01" nType="0">
                <Node pos="l" depth="5" NCoef="0" IVar="4" Cut="-8.4008008241653442e-01" cType="1" res="4.1643150150775909e-02" rms="4.0178546309471130e-01" purity="7.8831660747528076e-01" nType="0">
                  <Node pos="l" depth="6" NCoef="0" IVar="-1" Cut="0.0000000000000000e+00" cType="1" res="2.7965940535068512e-03" rms="4.2477557063102722e-01" purity="7.5314098596572876e-01" nType="-99"/>
                  <Node pos="r" depth="6" NCoef="0" IVar="5" Cut="-2.3310782909393311e+00" cType="1" res="4.5948039740324020e-02" rms="3.9116752147674561e-01" purity="8.0378961563110352e-01" nType="0">
                    <Node pos="l" depth="7" NCoef="0" IVar="-1" Cut="0.0000000000000000e+00" cType="1" res="5.7164570316672325e-03" rms="3.7211722135543823e-01" purity="8.3139479160308838e-01" nType="-99"/>
                    <Node pos="r" depth="7" NCoef="0" IVar="-1" Cut="0.0000000000000000e+00" cType="1" res="3.5004050005227327e-03" rms="4.3123090267181396e-01" purity="7.4095189571380615e-01" nType="-99"/>
                  </Node>
                </Node>
                <Node pos="r" depth="5" NCoef="0" IVar="-1" Cut="0.0000000000000000e+00" cType="1" res="-3.9569963701069355e-04" rms="4.7873994708061218e-01" purity="5.1299774646759033e-01" nType="-99"/>
              </Node>
            </Node>
          </Node>
          <Node pos="r" depth="2" NCoef="0" IVar="5" Cut="-2.0495454967021942e-01" cType="1" res="-1.5316483564674854e-02" rms="4.7428601980209351e-01" purity="4.7515684366226196e-01" nType="0">
            <Node pos="l" depth="3" NCoef="0" IVar="4" Cut="-2.2649908065795898e-01" cType="1" res="5.9293131344020367e-03" rms="4.8271897435188293e-01" purity="5.3290641307830811e-01" nType="0">
              <Node pos="l" depth="4" NCoef="0" IVar="-1" Cut="0.0000000000000000e+00" cType="1" res="-5.6293531088158488e-04" rms="4.8314082622528076e-01" purity="5.3983289003372192e-01" nType="-99"/>
              <Node pos="r" depth="4" NCoef="0" IVar="-1" Cut="0.0000000000000000e+00" cType="1" res="1.3516173930838704e-03" rms="4.8222666978836060e-01" purity="5.2797156572341919e-01" nType="-99"/>
            </Node>
            <Node pos="r" depth="3" NCoef="0" IVar="-1" Cut="0.0000000000000000e+00" cType="1" res="-5.1898253150284290e-03" rms="4.5648470520973206e-01" purity="3.7253364920616150e-01" nType="-99"/>
          </Node>
        </Node>
      </Node>
    </BinaryTree>
    <BinaryTree type="DecisionTree" boostWeight="1.0000000000000000e+00" itree="56">
      <Node pos="s" depth="0" NCoef="0" IVar="0" Cut="3.2245385646820068e-01" cType="1" res="8.8359769433736801e-03" rms="4.0171581506729126e-01" purity="4.9883210659027100e-01" nType="0">
        <Node pos="l" depth="1" NCoef="0" IVar="0" Cut="2.0803348720073700e-01" cType="1" res="2.7390461415052414e-02" rms="4.2127013206481934e-01" purity="7.2975599765777588e-01" nType="0">
          <Node pos="l" depth="2" NCoef="0" IVar="1" Cut="2.5251081585884094e-01" cType="1" res="3.2154064625501633e-02" rms="4.1310831904411316e-01" purity="7.5436091423034668e-01" nType="0">
            <Node pos="l" depth="3" NCoef="0" IVar="3" Cut="9.6236246824264526e-01" cType="1" res="3.9569530636072159e-02" rms="3.9232793450355530e-01" purity="7.9609006643295288e-01" nType="0">
              <Node pos="l" depth="4" NCoef="0" IVar="7" Cut="3.0000000000000000e+00" cType="1" res="2.6942629367113113e-02" rms="4.1629606485366821e-01" purity="7.3495119810104370e-01" nType="0">
                <Node pos="l" depth="5" NCoef="0" IVar="3" Cut="8.7219357490539551e-01" cType="1" res="2.5286741554737091e-02" rms="4.1973921656608582e-01" purity="7.5984215736389160e-01" nType="0">
                  <Node pos="l" depth="6" NCoef="0" IVar="6" Cut="2.8022913262248039e-02" cType="1" res="1.6521461308002472e-02" rms="4.4007587432861328e-01" purity="7.2464966773986816e-01" nType="0">
                    <Node pos="l" depth="7" NCoef="0" IVar="-1" Cut="0.0000000000000000e+00" cType="1" res="3.0315999174490571e-04" rms="4.4531187415122986e-01" purity="7.1411216259002686e-01" nType="-99"/>
                    <Node pos="r" depth="7" NCoef="0" IVar="-1" Cut="0.0000000000000000e+00" cType="1" res="1.9382454920560122e-03" rms="4.3806576728820801e-01" purity="7.2846019268035889e-01" nType="-99"/>
                  </Node>
                  <Node pos="r" depth="6" NCoef="0" IVar="6" Cut="2.2055340930819511e-02" cType="1" res="3.3988025039434433e-02" rms="3.9833524823188782e-01" purity="7.9477763175964355e-01" nType="0">
                    <Node pos="l" depth="7" NCoef="0" IVar="-1" Cut="0.0000000000000000e+00" cType="1" res="1.9849650561809540e-03" rms="4.0456229448318481e-01" purity="7.8570848703384399e-01" nType="-99"/>
                    <Node pos="r" depth="7" NCoef="0" IVar="-1" Cut="0.0000000000000000e+00" cType="1" res="5.7589104399085045e-03" rms="3.9219227433204651e-01" purity="8.0272775888442993e-01" nType="-99"/>
                  </Node>
                </Node>
                <Node pos="r" depth="5" NCoef="0" IVar="2" Cut="8.2055465698242188e+01" cType="1" res="4.0415462106466293e-02" rms="4.5722511410713196e-01" purity="6.6609156131744385e-01" nType="0">
                  <Node pos="l" depth="6" NCoef="0" IVar="-1" Cut="0.0000000000000000e+00" cType="1" res="5.4896371439099312e-03" rms="4.4542071223258972e-01" purity="7.0432001352310181e-01" nType="-99"/>
                  <Node pos="r" depth="6" NCoef="0" IVar="-1" Cut="0.0000000000000000e+00" cType="1" res="2.4725398980081081e-03" rms="4.6377387642860413e-01" purity="6.4265251159667969e-01" nType="-99"/>
                </Node>
              </Node>
              <Node pos="r" depth="4" NCoef="0" IVar="4" Cut="-1.6041681766510010e+00" cType="1" res="4.6846177428960800e-02" rms="3.6303931474685669e-01" purity="8.3942568302154541e-01" nType="0">
                <Node pos="l" depth="5" NCoef="0" IVar="-1" Cut="0.0000000000000000e+00" cType="1" res="3.0620447359979153e-03" rms="3.9719009399414062e-01" purity="8.0206537246704102e-01" nType="-99"/>
                <Node pos="r" depth="5" NCoef="0" IVar="5" Cut="-1.3533096313476562e+00" cType="1" res="4.9558583647012711e-02" rms="3.5693410038948059e-01" purity="8.4567713737487793e-01" nType="0">
                  <Node pos="l" depth="6" NCoef="0" IVar="5" Cut="-2.9791705608367920e+00" cType="1" res="5.1537651568651199e-02" rms="3.4678509831428528e-01" purity="8.5897028446197510e-01" nType="0">
                    <Node pos="l" depth="7" NCoef="0" IVar="-1" Cut="0.0000000000000000e+00" cType="1" res="7.6904706656932831e-03" rms="3.1935450434684753e-01" purity="8.8465708494186401e-01" nType="-99"/>
                    <Node pos="r" depth="7" NCoef="0" IVar="-1" Cut="0.0000000000000000e+00" cType="1" res="5.7120779529213905e-03" rms="3.6078169941902161e-01" purity="8.4500443935394287e-01" nType="-99"/>
                  </Node>
                  <Node pos="r" depth="6" NCoef="0" IVar="-1" Cut="0.0000000000000000e+00" cType="1" res="2.5382374878972769e-03" rms="4.5344653725624084e-01" purity="6.9913941621780396e-01" nType="-99"/>
                </Node>
              </Node>
            </Node>
            <Node pos="r" depth="3" NCoef="0" IVar="5" Cut="-8.1788671016693115e-01" cType="1" res="1.9744554534554482e-02" rms="4.4544550776481628e-01" purity="6.8452882766723633e-01" nType="0">
              <Node pos="l" depth="4" NCoef="0" IVar="5" Cut="-2.7010366916656494e+00" cType="1" res="2.3155469447374344e-02" rms="4.4275778532028198e-01" purity="7.0067948102951050e-01" nType="0">
                <Node pos="l" depth="5" NCoef="0" IVar="4" Cut="-6.8337219953536987e-01" cType="1" res="3.6081746220588684e-02" rms="4.1694915294647217e-01" purity="7.5505536794662476e-01" nType="0">
                  <Node pos="l" depth="6" NCoef="0" IVar="4" Cut="-1.9727233648300171e+00" cType="1" res="2.6825126260519028e-02" rms="4.3826082348823547e-01" purity="7.1561616659164429e-01" nType="0">
                    <Node pos="l" depth="7" NCoef="0" IVar="-1" Cut="0.0000000000000000e+00" cType="1" res="3.6166363861411810e-03" rms="4.4602692127227783e-01" purity="6.9478321075439453e-01" nType="-99"/>
                    <Node pos="r" depth="7" NCoef="0" IVar="-1" Cut="0.0000000000000000e+00" cType="1" res="1.6567073762416840e-03" rms="4.3220919370651245e-01" purity="7.3102873563766479e-01" nType="-99"/>
                  </Node>
                  <Node pos="r" depth="6" NCoef="0" IVar="4" Cut="-1.1023797839879990e-01" cType="1" res="4.8788737505674362e-02" rms="3.8541910052299500e-01" purity="8.0919533967971802e-01" nType="0">
                    <Node pos="l" depth="7" NCoef="0" IVar="-1" Cut="0.0000000000000000e+00" cType="1" res="5.8771451003849506e-03" rms="3.7891003489494324e-01" purity="8.1845998764038086e-01" nType="-99"/>
                    <Node pos="r" depth="7" NCoef="0" IVar="-1" Cut="0.0000000000000000e+00" cType="1" res="4.5092008076608181e-03" rms="3.9432621002197266e-01" purity="7.9599285125732422e-01" nType="-99"/>
                  </Node>
                </Node>
                <Node pos="r" depth="5" NCoef="0" IVar="6" Cut="3.7266913801431656e-02" cType="1" res="1.3348779641091824e-02" rms="4.6113410592079163e-01" purity="6.5942645072937012e-01" nType="0">
                  <Node pos="l" depth="6" NCoef="0" IVar="3" Cut="9.4878596067428589e-01" cType="1" res="5.1221298053860664e-03" rms="4.5474335551261902e-01" purity="6.7856431007385254e-01" nType="0">
                    <Node pos="l" depth="7" NCoef="0" IVar="-1" Cut="0.0000000000000000e+00" cType="1" res="-2.8276811353862286e-03" rms="4.7790253162384033e-01" purity="5.8677065372467041e-01" nType="-99"/>
                    <Node pos="r" depth="7" NCoef="0" IVar="-1" Cut="0.0000000000000000e+00" cType="1" res="1.8377858214080334e-03" rms="4.4398963451385498e-01" purity="7.1655589342117310e-01" nType="-99"/>
                  </Node>
                  <Node pos="r" depth="6" NCoef="0" IVar="5" Cut="-2.2153213024139404e+00" cType="1" res="3.2764039933681488e-02" rms="4.7531214356422424e-01" purity="6.1426037549972534e-01" nType="0">
                    <Node pos="l" depth="7" NCoef="0" IVar="-1" Cut="0.0000000000000000e+00" cType="1" res="3.8104664999991655e-03" rms="4.6662545204162598e-01" purity="6.5258437395095825e-01" nType="-99"/>
                    <Node pos="r" depth="7" NCoef="0" IVar="-1" Cut="0.0000000000000000e+00" cType="1" res="1.8913845997303724e-03" rms="4.8181179165840149e-01" purity="5.8401423692703247e-01" nType="-99"/>
                  </Node>
                </Node>
              </Node>
              <Node pos="r" depth="4" NCoef="0" IVar="-1" Cut="0.0000000000000000e+00" cType="1" res="-3.0939124990254641e-03" rms="4.8226013779640198e-01" purity="4.3317803740501404e-01" nType="-99"/>
            </Node>
          </Node>
          <Node pos="r" depth="2" NCoef="0" IVar="6" Cut="6.3936509191989899e-02" cType="1" res="-2.4289193097501993e-03" rms="4.6804597973823547e-01" purity="5.7573312520980835e-01" nType="0">
            <Node pos="l" depth="3" NCoef="0" IVar="1" Cut="3.9809650182723999e-01" cType="1" res="-1.3707488775253296e-02" rms="4.6742436289787292e-01" purity="5.8915162086486816e-01" nType="0">
              <Node pos="l" depth="4" NCoef="0" IVar="2" Cut="4.7733257293701172e+01" cType="1" res="1.5006008325144649e-03" rms="4.6158057451248169e-01" purity="6.4674293994903564e-01" nType="0">
                <Node pos="l" depth="5" NCoef="0" IVar="-1" Cut="0.0000000000000000e+00" cType="1" res="2.0999342668801546e-03" rms="4.4167393445968628e-01" purity="7.1165311336517334e-01" nType="-99"/>
                <Node pos="r" depth="5" NCoef="0" IVar="-1" Cut="0.0000000000000000e+00" cType="1" res="-1.0885309893637896e-03" rms="4.7413712739944458e-01" purity="6.0293745994567871e-01" nType="-99"/>
              </Node>
              <Node pos="r" depth="4" NCoef="0" IVar="-1" Cut="0.0000000000000000e+00" cType="1" res="-4.2364890687167645e-03" rms="4.7711735963821411e-01" purity="4.7819298505783081e-01" nType="-99"/>
            </Node>
            <Node pos="r" depth="3" NCoef="0" IVar="2" Cut="2.1026564025878906e+02" cType="1" res="1.9445329904556274e-02" rms="4.6847593784332275e-01" purity="5.4970860481262207e-01" nType="0">
              <Node pos="l" depth="4" NCoef="0" IVar="-1" Cut="0.0000000000000000e+00" cType="1" res="4.1353073902428150e-03" rms="4.6698099374771118e-01" purity="5.9739947319030762e-01" nType="-99"/>
              <Node pos="r" depth="4" NCoef="0" IVar="-1" Cut="0.0000000000000000e+00" cType="1" res="-2.0773036521859467e-04" rms="4.6872901916503906e-01" purity="5.0778824090957642e-01" nType="-99"/>
            </Node>
          </Node>
        </Node>
        <Node pos="r" depth="1" NCoef="0" IVar="0" Cut="1.2586169242858887e+00" cType="1" res="-1.1838886886835098e-02" rms="3.7766718864440918e-01" purity="2.4151851236820221e-01" nType="0">
          <Node pos="l" depth="2" NCoef="0" IVar="5" Cut="1.3145407438278198e+00" cType="1" res="-2.0569665357470512e-03" rms="4.3613290786743164e-01" purity="3.5033828020095825e-01" nType="0">
            <Node pos="l" depth="3" NCoef="0" IVar="1" Cut="1.5194320678710938e-01" cType="1" res="1.0089601855725050e-03" rms="4.4397211074829102e-01" purity="3.6465644836425781e-01" nType="0">
              <Node pos="l" depth="4" NCoef="0" IVar="3" Cut="5.8341079950332642e-01" cType="1" res="1.7641065642237663e-02" rms="4.6395722031593323e-01" purity="4.4853526353836060e-01" nType="0">
                <Node pos="l" depth="5" NCoef="0" IVar="6" Cut="1.3723184168338776e-01" cType="1" res="8.6166907567530870e-04" rms="4.3376463651657104e-01" purity="2.8407114744186401e-01" nType="0">
                  <Node pos="l" depth="6" NCoef="0" IVar="2" Cut="1.4992214965820312e+02" cType="1" res="-8.9000808075070381e-03" rms="4.2524200677871704e-01" purity="2.6672580838203430e-01" nType="0">
                    <Node pos="l" depth="7" NCoef="0" IVar="-1" Cut="0.0000000000000000e+00" cType="1" res="1.7309259856119752e-03" rms="4.4328188896179199e-01" purity="3.0534228682518005e-01" nType="-99"/>
                    <Node pos="r" depth="7" NCoef="0" IVar="-1" Cut="0.0000000000000000e+00" cType="1" res="-3.3664358779788017e-03" rms="4.1131553053855896e-01" purity="2.3964862525463104e-01" nType="-99"/>
                  </Node>
                  <Node pos="r" depth="6" NCoef="0" IVar="-1" Cut="0.0000000000000000e+00" cType="1" res="3.0892523936927319e-03" rms="4.5449411869049072e-01" purity="3.2986673712730408e-01" nType="-99"/>
                </Node>
                <Node pos="r" depth="5" NCoef="0" IVar="0" Cut="3.8285475969314575e-01" cType="1" res="2.8290342539548874e-02" rms="4.8183658719062805e-01" purity="5.5291473865509033e-01" nType="0">
                  <Node pos="l" depth="6" NCoef="0" IVar="-1" Cut="0.0000000000000000e+00" cType="1" res="4.2908340692520142e-03" rms="4.7136145830154419e-01" purity="6.2754958868026733e-01" nType="-99"/>
                  <Node pos="r" depth="6" NCoef="0" IVar="7" Cut="3.0000000000000000e+00" cType="1" res="1.2373726814985275e-02" rms="3.4678414463996887e-01" purity="5.2936005592346191e-01" nType="0">
                    <Node pos="l" depth="7" NCoef="0" IVar="-1" Cut="0.0000000000000000e+00" cType="1" res="8.6523883510380983e-04" rms="4.8121601343154907e-01" purity="5.5531424283981323e-01" nType="-99"/>
                    <Node pos="r" depth="7" NCoef="0" IVar="-1" Cut="0.0000000000000000e+00" cType="1" res="3.5396083258092403e-03" rms="4.9004277586936951e-01" purity="4.8863613605499268e-01" nType="-99"/>
                  </Node>
                </Node>
              </Node>
              <Node pos="r" depth="4" NCoef="0" IVar="1" Cut="1.7386538982391357e+00" cType="1" res="-9.0832905843853951e-03" rms="4.3108144402503967e-01" purity="3.1375935673713684e-01" nType="0">
                <Node pos="l" depth="5" NCoef="0" IVar="2" Cut="1.2945401000976562e+02" cType="1" res="-4.2598522268235683e-03" rms="4.3411704897880554e-01" purity="3.2451456785202026e-01" nType="0">
                  <Node pos="l" depth="6" NCoef="0" IVar="6" Cut="5.0191290676593781e-02" cType="1" res="9.1600809246301651e-03" rms="4.5173418521881104e-01" purity="3.8981035351753235e-01" nType="0">
                    <Node pos="l" depth="7" NCoef="0" IVar="-1" Cut="0.0000000000000000e+00" cType="1" res="-3.2689695945009589e-04" rms="4.5332193374633789e-01" purity="4.0492767095565796e-01" nType="-99"/>
                    <Node pos="r" depth="7" NCoef="0" IVar="-1" Cut="0.0000000000000000e+00" cType="1" res="3.0188311357051134e-03" rms="4.4862109422683716e-01" purity="3.6656531691551208e-01" nType="-99"/>
                  </Node>
                  <Node pos="r" depth="6" NCoef="0" IVar="6" Cut="9.5546610653400421e-02" cType="1" res="-1.5790343284606934e-02" rms="4.1804429888725281e-01" purity="2.6841205358505249e-01" nType="0">
                    <Node pos="l" depth="7" NCoef="0" IVar="-1" Cut="0.0000000000000000e+00" cType="1" res="-3.6457043606787920e-03" rms="4.1044452786445618e-01" purity="2.6470389962196350e-01" nType="-99"/>
                    <Node pos="r" depth="7" NCoef="0" IVar="-1" Cut="0.0000000000000000e+00" cType="1" res="-6.4804096473380923e-04" rms="4.2407709360122681e-01" purity="2.7155315876007080e-01" nType="-99"/>
                  </Node>
                </Node>
                <Node pos="r" depth="5" NCoef="0" IVar="3" Cut="6.4829117059707642e-01" cType="1" res="-3.5621475428342819e-02" rms="4.1297531127929688e-01" purity="2.5458481907844543e-01" nType="0">
                  <Node pos="l" depth="6" NCoef="0" IVar="-1" Cut="0.0000000000000000e+00" cType="1" res="-7.5981169939041138e-03" rms="3.6383992433547974e-01" purity="1.6702440381050110e-01" nType="-99"/>
                  <Node pos="r" depth="6" NCoef="0" IVar="-1" Cut="0.0000000000000000e+00" cType="1" res="-2.0240561570972204e-03" rms="4.6984979510307312e-01" purity="3.7065401673316956e-01" nType="-99"/>
                </Node>
              </Node>
            </Node>
            <Node pos="r" depth="3" NCoef="0" IVar="-1" Cut="0.0000000000000000e+00" cType="1" res="-2.0727951079607010e-02" rms="1.8214969336986542e-01" purity="3.4376263618469238e-02" nType="-99"/>
          </Node>
          <Node pos="r" depth="2" NCoef="0" IVar="6" Cut="2.6917281746864319e-01" cType="1" res="-2.4141693487763405e-02" rms="2.8726255893707275e-01" purity="1.0465495288372040e-01" nType="0">
            <Node pos="l" depth="3" NCoef="0" IVar="0" Cut="1.8223645687103271e+00" cType="1" res="-2.5753268972039223e-02" rms="2.8068825602531433e-01" purity="1.0023265331983566e-01" nType="0">
              <Node pos="l" depth="4" NCoef="0" IVar="1" Cut="5.7072913646697998e-01" cType="1" res="-1.6474675387144089e-02" rms="3.2167541980743408e-01" purity="1.3771341741085052e-01" nType="0">
                <Node pos="l" depth="5" NCoef="0" IVar="6" Cut="1.2151904404163361e-01" cType="1" res="-3.7756420206278563e-03" rms="3.4394145011901855e-01" purity="1.6267307102680206e-01" nType="0">
                  <Node pos="l" depth="6" NCoef="0" IVar="-1" Cut="0.0000000000000000e+00" cType="1" res="-3.3752948511391878e-03" rms="3.2932820916175842e-01" purity="1.5371240675449371e-01" nType="-99"/>
                  <Node pos="r" depth="6" NCoef="0" IVar="-1" Cut="0.0000000000000000e+00" cType="1" res="3.8519166409969330e-03" rms="3.6718511581420898e-01" purity="1.7849788069725037e-01" nType="-99"/>
                </Node>
                <Node pos="r" depth="5" NCoef="0" IVar="2" Cut="1.9387455749511719e+02" cType="1" res="-2.6324927806854248e-02" rms="3.0291423201560974e-01" purity="1.1835299432277679e-01" nType="0">
                  <Node pos="l" depth="6" NCoef="0" IVar="0" Cut="1.5131798982620239e+00" cType="1" res="-1.6548950225114822e-02" rms="3.2718014717102051e-01" purity="1.4625748991966248e-01" nType="0">
                    <Node pos="l" depth="7" NCoef="0" IVar="-1" Cut="0.0000000000000000e+00" cType="1" res="-4.7601382248103619e-03" rms="3.3307883143424988e-01" purity="1.5144036710262299e-01" nType="-99"/>
                    <Node pos="r" depth="7" NCoef="0" IVar="-1" Cut="0.0000000000000000e+00" cType="1" res="-2.0485236309468746e-03" rms="3.2110923528671265e-01" purity="1.4116501808166504e-01" nType="-99"/>
                  </Node>
                  <Node pos="r" depth="6" NCoef="0" IVar="-1" Cut="0.0000000000000000e+00" cType="1" res="-9.6581773832440376e-03" rms="2.7320647239685059e-01" purity="8.7522625923156738e-02" nType="-99"/>
                </Node>
              </Node>
              <Node pos="r" depth="4" NCoef="0" IVar="3" Cut="5.2499216794967651e-01" cType="1" res="-3.0922327190637589e-02" rms="2.5486662983894348e-01" purity="7.9352289438247681e-02" nType="0">
                <Node pos="l" depth="5" NCoef="0" IVar="7" Cut="4.0000000000000000e+00" cType="1" res="-2.7604550123214722e-02" rms="2.2059723734855652e-01" purity="5.5368606001138687e-02" nType="0">
                  <Node pos="l" depth="6" NCoef="0" IVar="-1" Cut="0.0000000000000000e+00" cType="1" res="1.9308004084450658e-06" rms="3.0288270115852356e-01" purity="1.0867041349411011e-01" nType="-99"/>
                  <Node pos="r" depth="6" NCoef="0" IVar="3" Cut="2.1333859860897064e-01" cType="1" res="-3.2450463622808456e-02" rms="2.0757898688316345e-01" purity="4.7094162553548813e-02" nType="0">
                    <Node pos="l" depth="7" NCoef="0" IVar="-1" Cut="0.0000000000000000e+00" cType="1" res="-1.8002539873123169e-02" rms="1.8339134752750397e-01" purity="3.5802476108074188e-02" nType="-99"/>
                    <Node pos="r" depth="7" NCoef="0" IVar="-1" Cut="0.0000000000000000e+00" cType="1" res="-1.1462126858532429e-02" rms="2.1662496030330658e-01" purity="5.1725197583436966e-02" nType="-99"/>
                  </Node>
                </Node>
                <Node pos="r" depth="5" NCoef="0" IVar="-1" Cut="0.0000000000000000e+00" cType="1" res="-6.3057523220777512e-03" rms="4.2854997515678406e-01" purity="2.6742061972618103e-01" nType="-99"/>
              </Node>
            </Node>
            <Node pos="r" depth="3" NCoef="0" IVar="-1" Cut="0.0000000000000000e+00" cType="1" res="1.1439921800047159e-03" rms="3.8980489969253540e-01" purity="1.8803539872169495e-01" nType="-99"/>
          </Node>
        </Node>
      </Node>
    </BinaryTree>
    <BinaryTree type="DecisionTree" boostWeight="1.0000000000000000e+00" itree="57">
      <Node pos="s" depth="0" NCoef="0" IVar="3" Cut="6.5178853273391724e-01" cType="1" res="8.1562828272581100e-03" rms="4.0202698111534119e-01" purity="5.0009590387344360e-01" nType="0">
        <Node pos="l" depth="1" NCoef="0" IVar="4" Cut="2.0516242980957031e+00" cType="1" res="-1.7228236421942711e-02" rms="3.4578377008438110e-01" purity="1.7251580953598022e-01" nType="0">
          <Node pos="l" depth="2" NCoef="0" IVar="6" Cut="1.2832888960838318e-01" cType="1" res="-1.3640251010656357e-02" rms="3.6905845999717712e-01" purity="1.9847559928894043e-01" nType="0">
            <Node pos="l" depth="3" NCoef="0" IVar="2" Cut="1.2130037689208984e+02" cType="1" res="-1.9582627341151237e-02" rms="3.6035332083702087e-01" purity="1.9103141129016876e-01" nType="0">
              <Node pos="l" depth="4" NCoef="0" IVar="6" Cut="4.1546955704689026e-02" cType="1" res="-6.4475666731595993e-03" rms="3.7862008810043335e-01" purity="2.1912704408168793e-01" nType="0">
                <Node pos="l" depth="5" NCoef="0" IVar="2" Cut="3.9270328521728516e+01" cType="1" res="-2.8539670631289482e-02" rms="3.5610419511795044e-01" purity="1.7875765264034271e-01" nType="0">
                  <Node pos="l" depth="6" NCoef="0" IVar="-1" Cut="0.0000000000000000e+00" cType="1" res="-1.1153850937262177e-03" rms="3.8156023621559143e-01" purity="2.1730659902095795e-01" nType="-99"/>
                  <Node pos="r" depth="6" NCoef="0" IVar="6" Cut="2.9434742406010628e-02" cType="1" res="-4.2180426418781281e-02" rms="3.3822381496429443e-01" purity="1.5425445139408112e-01" nType="0">
                    <Node pos="l" depth="7" NCoef="0" IVar="-1" Cut="0.0000000000000000e+00" cType="1" res="-9.1575495898723602e-03" rms="3.2991680502891541e-01" purity="1.4198096096515656e-01" nType="-99"/>
                    <Node pos="r" depth="7" NCoef="0" IVar="-1" Cut="0.0000000000000000e+00" cType="1" res="-5.8388537727296352e-03" rms="3.4649479389190674e-01" purity="1.6716954112052917e-01" nType="-99"/>
                  </Node>
                </Node>
                <Node pos="r" depth="5" NCoef="0" IVar="3" Cut="3.8868662714958191e-01" cType="1" res="8.0080507323145866e-03" rms="3.9198148250579834e-01" purity="2.4554209411144257e-01" nType="0">
                  <Node pos="l" depth="6" NCoef="0" IVar="-1" Cut="0.0000000000000000e+00" cType="1" res="-1.1251564137637615e-02" rms="2.3073716461658478e-01" purity="5.7755075395107269e-02" nType="-99"/>
                  <Node pos="r" depth="6" NCoef="0" IVar="2" Cut="6.4008125305175781e+01" cType="1" res="2.3292129859328270e-02" rms="4.4134071469306946e-01" purity="3.2395085692405701e-01" nType="0">
                    <Node pos="l" depth="7" NCoef="0" IVar="-1" Cut="0.0000000000000000e+00" cType="1" res="5.4866201244294643e-03" rms="4.5875397324562073e-01" purity="3.5543745756149292e-01" nType="-99"/>
                    <Node pos="r" depth="7" NCoef="0" IVar="-1" Cut="0.0000000000000000e+00" cType="1" res="1.5892392257228494e-03" rms="4.3405756354331970e-01" purity="3.1188791990280151e-01" nType="-99"/>
                  </Node>
                </Node>
              </Node>
              <Node pos="r" depth="4" NCoef="0" IVar="7" Cut="3.0000000000000000e+00" cType="1" res="-2.7815565466880798e-02" rms="3.4669905900955200e-01" purity="1.7259711027145386e-01" nType="0">
                <Node pos="l" depth="5" NCoef="0" IVar="-1" Cut="0.0000000000000000e+00" cType="1" res="-8.1833731383085251e-03" rms="3.6788845062255859e-01" purity="1.8486517667770386e-01" nType="-99"/>
                <Node pos="r" depth="5" NCoef="0" IVar="3" Cut="6.1047863960266113e-01" cType="1" res="-2.5273641571402550e-02" rms="3.4504425525665283e-01" purity="1.7118591070175171e-01" nType="0">
                  <Node pos="l" depth="6" NCoef="0" IVar="7" Cut="4.0000000000000000e+00" cType="1" res="-2.8520567342638969e-02" rms="3.2115849852561951e-01" purity="1.3846912980079651e-01" nType="0">
                    <Node pos="l" depth="7" NCoef="0" IVar="-1" Cut="0.0000000000000000e+00" cType="1" res="-7.1215671487152576e-03" rms="3.5641682147979736e-01" purity="1.6816420853137970e-01" nType="-99"/>
                    <Node pos="r" depth="7" NCoef="0" IVar="-1" Cut="0.0000000000000000e+00" cType="1" res="-5.4558464325964451e-03" rms="3.1170213222503662e-01" purity="1.2972618639469147e-01" nType="-99"/>
                  </Node>
                  <Node pos="r" depth="6" NCoef="0" IVar="-1" Cut="0.0000000000000000e+00" cType="1" res="4.3011986417695880e-04" rms="4.8066887259483337e-01" purity="4.1682791709899902e-01" nType="-99"/>
                </Node>
              </Node>
            </Node>
            <Node pos="r" depth="3" NCoef="0" IVar="2" Cut="2.7072808837890625e+02" cType="1" res="-8.4454799070954323e-04" rms="3.8682943582534790e-01" purity="2.1450516581535339e-01" nType="0">
              <Node pos="l" depth="4" NCoef="0" IVar="1" Cut="5.5180293321609497e-01" cType="1" res="2.1666653454303741e-02" rms="4.0648680925369263e-01" purity="2.5234803557395935e-01" nType="0">
                <Node pos="l" depth="5" NCoef="0" IVar="-1" Cut="0.0000000000000000e+00" cType="1" res="5.9976554475724697e-03" rms="4.5710828900337219e-01" purity="3.5517790913581848e-01" nType="-99"/>
                <Node pos="r" depth="5" NCoef="0" IVar="-1" Cut="0.0000000000000000e+00" cType="1" res="5.4295361042022705e-04" rms="3.7042480707168579e-01" purity="1.8858897686004639e-01" nType="-99"/>
              </Node>
              <Node pos="r" depth="4" NCoef="0" IVar="7" Cut="4.0000000000000000e+00" cType="1" res="-1.0453347116708755e-02" rms="3.7538668513298035e-01" purity="1.9958391785621643e-01" nType="0">
                <Node pos="l" depth="5" NCoef="0" IVar="-1" Cut="0.0000000000000000e+00" cType="1" res="1.6272101784124970e-03" rms="4.3517169356346130e-01" purity="2.8766620159149170e-01" nType="-99"/>
                <Node pos="r" depth="5" NCoef="0" IVar="3" Cut="1.7986267805099487e-01" cType="1" res="-1.6939084976911545e-02" rms="3.5777905583381653e-01" purity="1.7098082602024078e-01" nType="0">
                  <Node pos="l" depth="6" NCoef="0" IVar="-1" Cut="0.0000000000000000e+00" cType="1" res="-1.0982852429151535e-02" rms="3.0060008168220520e-01" purity="1.0351986438035965e-01" nType="-99"/>
                  <Node pos="r" depth="6" NCoef="0" IVar="5" Cut="-1.8206747770309448e+00" cType="1" res="-9.5465518534183502e-03" rms="3.6937227845191956e-01" purity="1.8660822510719299e-01" nType="0">
                    <Node pos="l" depth="7" NCoef="0" IVar="-1" Cut="0.0000000000000000e+00" cType="1" res="8.5558526916429400e-04" rms="3.9998170733451843e-01" purity="2.3007754981517792e-01" nType="-99"/>
                    <Node pos="r" depth="7" NCoef="0" IVar="-1" Cut="0.0000000000000000e+00" cType="1" res="-5.3696339018642902e-03" rms="3.3117416501045227e-01" purity="1.3819493353366852e-01" nType="-99"/>
                  </Node>
                </Node>
              </Node>
            </Node>
          </Node>
          <Node pos="r" depth="2" NCoef="0" IVar="3" Cut="2.2132191061973572e-01" cType="1" res="-3.6951608955860138e-02" rms="1.6627709567546844e-01" purity="2.9813287779688835e-02" nType="0">
            <Node pos="l" depth="3" NCoef="0" IVar="-1" Cut="0.0000000000000000e+00" cType="1" res="-8.0208415165543556e-03" rms="2.1326556801795959e-01" purity="5.1244299858808517e-02" nType="-99"/>
            <Node pos="r" depth="3" NCoef="0" IVar="3" Cut="4.5732104778289795e-01" cType="1" res="-4.1763149201869965e-02" rms="1.5248578786849976e-01" purity="2.4674333631992340e-02" nType="0">
              <Node pos="l" depth="4" NCoef="0" IVar="7" Cut="5.0000000000000000e+00" cType="1" res="-3.7045598030090332e-02" rms="1.3141436874866486e-01" purity="1.7833087593317032e-02" nType="0">
                <Node pos="l" depth="5" NCoef="0" IVar="-1" Cut="0.0000000000000000e+00" cType="1" res="-2.3849144577980042e-02" rms="1.1656500399112701e-01" purity="1.3953018933534622e-02" nType="-99"/>
                <Node pos="r" depth="5" NCoef="0" IVar="3" Cut="3.1265136599540710e-01" cType="1" res="-3.4356813877820969e-02" rms="1.3738594949245453e-01" purity="1.9566515460610390e-02" nType="0">
                  <Node pos="l" depth="6" NCoef="0" IVar="-1" Cut="0.0000000000000000e+00" cType="1" res="-1.7704075202345848e-02" rms="1.4231750369071960e-01" purity="2.1125219762325287e-02" nType="-99"/>
                  <Node pos="r" depth="6" NCoef="0" IVar="-1" Cut="0.0000000000000000e+00" cType="1" res="-1.9626198336482048e-02" rms="1.3149322569370270e-01" purity="1.7831299453973770e-02" nType="-99"/>
                </Node>
              </Node>
              <Node pos="r" depth="4" NCoef="0" IVar="-1" Cut="0.0000000000000000e+00" cType="1" res="-1.6114957630634308e-02" rms="2.0309305191040039e-01" purity="4.5487597584724426e-02" nType="-99"/>
            </Node>
          </Node>
        </Node>
        <Node pos="r" depth="1" NCoef="0" IVar="4" Cut="9.8390144109725952e-01" cType="1" res="2.3167798295617104e-02" rms="4.3115153908729553e-01" purity="6.9381529092788696e-01" nType="0">
          <Node pos="l" depth="2" NCoef="0" IVar="5" Cut="-2.3115954399108887e+00" cType="1" res="2.5431582704186440e-02" rms="4.3046990036964417e-01" purity="7.0505094528198242e-01" nType="0">
            <Node pos="l" depth="3" NCoef="0" IVar="4" Cut="-1.0294450521469116e+00" cType="1" res="3.3407170325517654e-02" rms="4.1050848364830017e-01" purity="7.5300192832946777e-01" nType="0">
              <Node pos="l" depth="4" NCoef="0" IVar="4" Cut="-2.6728031635284424e+00" cType="1" res="2.5779303163290024e-02" rms="4.3409124016761780e-01" purity="7.1115267276763916e-01" nType="0">
                <Node pos="l" depth="5" NCoef="0" IVar="4" Cut="-2.8716363906860352e+00" cType="1" res="5.3410533815622330e-02" rms="4.1241508722305298e-01" purity="7.6424360275268555e-01" nType="0">
                  <Node pos="l" depth="6" NCoef="0" IVar="4" Cut="-3.1746995449066162e+00" cType="1" res="5.9970106929540634e-02" rms="4.0410235524177551e-01" purity="7.8191739320755005e-01" nType="0">
                    <Node pos="l" depth="7" NCoef="0" IVar="-1" Cut="0.0000000000000000e+00" cType="1" res="6.7092673853039742e-03" rms="3.9497780799865723e-01" purity="7.9742252826690674e-01" nType="-99"/>
                    <Node pos="r" depth="7" NCoef="0" IVar="-1" Cut="0.0000000000000000e+00" cType="1" res="5.9138718061149120e-03" rms="4.1251009702682495e-01" purity="7.6728063821792603e-01" nType="-99"/>
                  </Node>
                  <Node pos="r" depth="6" NCoef="0" IVar="-1" Cut="0.0000000000000000e+00" cType="1" res="4.2254873551428318e-03" rms="4.2702901363372803e-01" purity="7.3171454668045044e-01" nType="-99"/>
                </Node>
                <Node pos="r" depth="5" NCoef="0" IVar="0" Cut="3.2182708382606506e-01" cType="1" res="1.8224896863102913e-02" rms="4.3952935934066772e-01" purity="6.9663763046264648e-01" nType="0">
                  <Node pos="l" depth="6" NCoef="0" IVar="3" Cut="8.6051177978515625e-01" cType="1" res="2.2375490516424179e-02" rms="4.2870667576789856e-01" purity="7.3995786905288696e-01" nType="0">
                    <Node pos="l" depth="7" NCoef="0" IVar="-1" Cut="0.0000000000000000e+00" cType="1" res="1.3442656490951777e-03" rms="4.6055755019187927e-01" purity="6.7090427875518799e-01" nType="-99"/>
                    <Node pos="r" depth="7" NCoef="0" IVar="-1" Cut="0.0000000000000000e+00" cType="1" res="2.7585234493017197e-03" rms="4.0676459670066833e-01" purity="7.8450101613998413e-01" nType="-99"/>
                  </Node>
                  <Node pos="r" depth="6" NCoef="0" IVar="6" Cut="3.4618224948644638e-02" cType="1" res="-1.7177427071146667e-04" rms="4.8416933417320251e-01" purity="5.0462901592254639e-01" nType="0">
                    <Node pos="l" depth="7" NCoef="0" IVar="-1" Cut="0.0000000000000000e+00" cType="1" res="-1.8783345585688949e-03" rms="4.8325842618942261e-01" purity="4.9625319242477417e-01" nType="-99"/>
                    <Node pos="r" depth="7" NCoef="0" IVar="-1" Cut="0.0000000000000000e+00" cType="1" res="1.4171217335388064e-03" rms="4.8424640297889709e-01" purity="5.1112467050552368e-01" nType="-99"/>
                  </Node>
                </Node>
              </Node>
              <Node pos="r" depth="4" NCoef="0" IVar="5" Cut="-3.2048194408416748e+00" cType="1" res="4.0384806692600250e-02" rms="3.8755023479461670e-01" purity="7.9128360748291016e-01" nType="0">
                <Node pos="l" depth="5" NCoef="0" IVar="1" Cut="3.5881778597831726e-01" cType="1" res="5.6926421821117401e-02" rms="3.5683211684226990e-01" purity="8.3100897073745728e-01" nType="0">
                  <Node pos="l" depth="6" NCoef="0" IVar="-1" Cut="0.0000000000000000e+00" cType="1" res="7.8494232147932053e-03" rms="3.2906526327133179e-01" purity="8.6779469251632690e-01" nType="-99"/>
                  <Node pos="r" depth="6" NCoef="0" IVar="-1" Cut="0.0000000000000000e+00" cType="1" res="5.1283505745232105e-03" rms="4.0879210829734802e-01" purity="7.5402575731277466e-01" nType="-99"/>
                </Node>
                <Node pos="r" depth="5" NCoef="0" IVar="1" Cut="1.2471638917922974e+00" cType="1" res="3.6512985825538635e-02" rms="3.9429467916488647e-01" purity="7.8198534250259399e-01" nType="0">
                  <Node pos="l" depth="6" NCoef="0" IVar="6" Cut="5.1148883998394012e-02" cType="1" res="3.9680168032646179e-02" rms="3.8512679934501648e-01" purity="8.0161726474761963e-01" nType="0">
                    <Node pos="l" depth="7" NCoef="0" IVar="-1" Cut="0.0000000000000000e+00" cType="1" res="4.3534692376852036e-03" rms="3.7593302130699158e-01" purity="8.1675410270690918e-01" nType="-99"/>
                    <Node pos="r" depth="7" NCoef="0" IVar="-1" Cut="0.0000000000000000e+00" cType="1" res="5.4636723361909389e-03" rms="4.5449885725975037e-01" purity="6.7429399490356445e-01" nType="-99"/>
                  </Node>
                  <Node pos="r" depth="6" NCoef="0" IVar="-1" Cut="0.0000000000000000e+00" cType="1" res="8.5857027443125844e-04" rms="4.6474528312683105e-01" purity="6.1344540119171143e-01" nType="-99"/>
                </Node>
              </Node>
            </Node>
            <Node pos="r" depth="3" NCoef="0" IVar="1" Cut="1.4510110616683960e+00" cType="1" res="1.3622536323964596e-02" rms="4.5817741751670837e-01" purity="6.3405239582061768e-01" nType="0">
              <Node pos="l" depth="4" NCoef="0" IVar="1" Cut="3.0208569765090942e-01" cType="1" res="1.7975131049752235e-02" rms="4.5587688684463501e-01" purity="6.5764778852462769e-01" nType="0">
                <Node pos="l" depth="5" NCoef="0" IVar="0" Cut="3.0272954702377319e-01" cType="1" res="2.4675415828824043e-02" rms="4.4542303681373596e-01" purity="6.9751662015914917e-01" nType="0">
                  <Node pos="l" depth="6" NCoef="0" IVar="4" Cut="-1.3249608874320984e-01" cType="1" res="2.7920812368392944e-02" rms="4.3457689881324768e-01" purity="7.3363775014877319e-01" nType="0">
                    <Node pos="l" depth="7" NCoef="0" IVar="-1" Cut="0.0000000000000000e+00" cType="1" res="2.3305052891373634e-03" rms="4.3692258000373840e-01" purity="7.3347628116607666e-01" nType="-99"/>
                    <Node pos="r" depth="7" NCoef="0" IVar="-1" Cut="0.0000000000000000e+00" cType="1" res="3.8125580176711082e-03" rms="4.2881238460540771e-01" purity="7.3402088880538940e-01" nType="-99"/>
                  </Node>
                  <Node pos="r" depth="6" NCoef="0" IVar="4" Cut="-3.6522233486175537e-01" cType="1" res="1.1512129567563534e-02" rms="4.8672220110893250e-01" purity="5.5100977420806885e-01" nType="0">
                    <Node pos="l" depth="7" NCoef="0" IVar="-1" Cut="0.0000000000000000e+00" cType="1" res="2.0204903557896614e-03" rms="4.8314085602760315e-01" purity="5.7592320442199707e-01" nType="-99"/>
                    <Node pos="r" depth="7" NCoef="0" IVar="-1" Cut="0.0000000000000000e+00" cType="1" res="-2.0851629960816354e-04" rms="4.9026185274124146e-01" purity="5.2356845140457153e-01" nType="-99"/>
                  </Node>
                </Node>
                <Node pos="r" depth="5" NCoef="0" IVar="6" Cut="6.4488291740417480e-02" cType="1" res="4.5821228995919228e-03" rms="4.7580263018608093e-01" purity="5.7795512676239014e-01" nType="0">
                  <Node pos="l" depth="6" NCoef="0" IVar="3" Cut="9.7575092315673828e-01" cType="1" res="-8.1585912266746163e-04" rms="4.7376370429992676e-01" purity="5.9235453605651855e-01" nType="0">
                    <Node pos="l" depth="7" NCoef="0" IVar="-1" Cut="0.0000000000000000e+00" cType="1" res="-1.4028057921677828e-03" rms="4.8474109172821045e-01" purity="5.3507906198501587e-01" nType="-99"/>
                    <Node pos="r" depth="7" NCoef="0" IVar="-1" Cut="0.0000000000000000e+00" cType="1" res="1.6153919277712703e-03" rms="4.5881459116935730e-01" purity="6.6486245393753052e-01" nType="-99"/>
                  </Node>
                  <Node pos="r" depth="6" NCoef="0" IVar="-1" Cut="0.0000000000000000e+00" cType="1" res="2.3462518583983183e-03" rms="4.8356810212135315e-01" purity="5.1786988973617554e-01" nType="-99"/>
                </Node>
              </Node>
              <Node pos="r" depth="4" NCoef="0" IVar="1" Cut="2.2783977985382080e+00" cType="1" res="-2.5105541571974754e-02" rms="4.7641178965568542e-01" purity="4.2410755157470703e-01" nType="0">
                <Node pos="l" depth="5" NCoef="0" IVar="-1" Cut="0.0000000000000000e+00" cType="1" res="-5.1284470828250051e-04" rms="4.8124292492866516e-01" purity="4.5923468470573425e-01" nType="-99"/>
                <Node pos="r" depth="5" NCoef="0" IVar="-1" Cut="0.0000000000000000e+00" cType="1" res="-4.1011092253029346e-03" rms="4.7125956416130066e-01" purity="3.9201080799102783e-01" nType="-99"/>
              </Node>
            </Node>
          </Node>
          <Node pos="r" depth="2" NCoef="0" IVar="-1" Cut="0.0000000000000000e+00" cType="1" res="-4.3262718245387077e-03" rms="4.4537231326103210e-01" purity="3.7224602699279785e-01" nType="-99"/>
        </Node>
      </Node>
    </BinaryTree>
    <BinaryTree type="DecisionTree" boostWeight="1.0000000000000000e+00" itree="58">
      <Node pos="s" depth="0" NCoef="0" IVar="0" Cut="3.2245206832885742e-01" cType="1" res="8.9339967817068100e-03" rms="4.0168330073356628e-01" purity="5.0083386898040771e-01" nType="0">
        <Node pos="l" depth="1" NCoef="0" IVar="0" Cut="1.0398071259260178e-02" cType="1" res="2.6651045307517052e-02" rms="4.2062932252883911e-01" purity="7.3096454143524170e-01" nType="0">
          <Node pos="l" depth="2" NCoef="0" IVar="1" Cut="2.5955814123153687e-01" cType="1" res="3.1750053167343140e-02" rms="4.1102135181427002e-01" purity="7.5951826572418213e-01" nType="0">
            <Node pos="l" depth="3" NCoef="0" IVar="5" Cut="-1.8103104829788208e+00" cType="1" res="3.7983845919370651e-02" rms="3.9080253243446350e-01" purity="7.9947489500045776e-01" nType="0">
              <Node pos="l" depth="4" NCoef="0" IVar="4" Cut="-1.4583915472030640e+00" cType="1" res="4.0964782238006592e-02" rms="3.7482866644859314e-01" purity="8.2435756921768188e-01" nType="0">
                <Node pos="l" depth="5" NCoef="0" IVar="4" Cut="-2.4727277755737305e+00" cType="1" res="3.1982216984033585e-02" rms="4.0809014439582825e-01" purity="7.8164058923721313e-01" nType="0">
                  <Node pos="l" depth="6" NCoef="0" IVar="6" Cut="2.7053382247686386e-02" cType="1" res="4.7598112374544144e-02" rms="3.9416506886482239e-01" purity="8.0190509557723999e-01" nType="0">
                    <Node pos="l" depth="7" NCoef="0" IVar="-1" Cut="0.0000000000000000e+00" cType="1" res="4.1897767223417759e-03" rms="3.9127612113952637e-01" purity="8.0686765909194946e-01" nType="-99"/>
                    <Node pos="r" depth="7" NCoef="0" IVar="-1" Cut="0.0000000000000000e+00" cType="1" res="6.2412731349468231e-03" rms="3.9699375629425049e-01" purity="7.9635602235794067e-01" nType="-99"/>
                  </Node>
                  <Node pos="r" depth="6" NCoef="0" IVar="1" Cut="-3.8256415724754333e-01" cType="1" res="1.9970923662185669e-02" rms="4.1808909177780151e-01" purity="7.6605373620986938e-01" nType="0">
                    <Node pos="l" depth="7" NCoef="0" IVar="-1" Cut="0.0000000000000000e+00" cType="1" res="3.7125602830201387e-04" rms="4.2731600999832153e-01" purity="7.5422161817550659e-01" nType="-99"/>
                    <Node pos="r" depth="7" NCoef="0" IVar="-1" Cut="0.0000000000000000e+00" cType="1" res="2.6456529740244150e-03" rms="4.1401630640029907e-01" purity="7.7096515893936157e-01" nType="-99"/>
                  </Node>
                </Node>
                <Node pos="r" depth="5" NCoef="0" IVar="3" Cut="9.5035886764526367e-01" cType="1" res="4.5920785516500473e-02" rms="3.5504883527755737e-01" purity="8.4792608022689819e-01" nType="0">
                  <Node pos="l" depth="6" NCoef="0" IVar="6" Cut="3.7028864026069641e-02" cType="1" res="3.3461984246969223e-02" rms="4.1549074649810791e-01" purity="7.6557677984237671e-01" nType="0">
                    <Node pos="l" depth="7" NCoef="0" IVar="-1" Cut="0.0000000000000000e+00" cType="1" res="2.3485785350203514e-03" rms="4.0683758258819580e-01" purity="7.8470349311828613e-01" nType="-99"/>
                    <Node pos="r" depth="7" NCoef="0" IVar="-1" Cut="0.0000000000000000e+00" cType="1" res="4.1250921785831451e-03" rms="4.2338880896568298e-01" purity="7.4697965383529663e-01" nType="-99"/>
                  </Node>
                  <Node pos="r" depth="6" NCoef="0" IVar="5" Cut="-2.9095919132232666e+00" cType="1" res="4.8369411379098892e-02" rms="3.4186232089996338e-01" purity="8.6411082744598389e-01" nType="0">
                    <Node pos="l" depth="7" NCoef="0" IVar="-1" Cut="0.0000000000000000e+00" cType="1" res="7.3589342646300793e-03" rms="3.1991598010063171e-01" purity="8.8411974906921387e-01" nType="-99"/>
                    <Node pos="r" depth="7" NCoef="0" IVar="-1" Cut="0.0000000000000000e+00" cType="1" res="5.2676144987344742e-03" rms="3.5889735817909241e-01" purity="8.4759229421615601e-01" nType="-99"/>
                  </Node>
                </Node>
              </Node>
              <Node pos="r" depth="4" NCoef="0" IVar="6" Cut="3.8644734770059586e-02" cType="1" res="2.5721816346049309e-02" rms="4.5038652420043945e-01" purity="6.9712054729461670e-01" nType="0">
                <Node pos="l" depth="5" NCoef="0" IVar="3" Cut="9.2691957950592041e-01" cType="1" res="1.8529025837779045e-02" rms="4.4524103403091431e-01" purity="7.1135461330413818e-01" nType="0">
                  <Node pos="l" depth="6" NCoef="0" IVar="-1" Cut="0.0000000000000000e+00" cType="1" res="-3.2512107281945646e-04" rms="4.7108688950538635e-01" purity="6.4325153827667236e-01" nType="-99"/>
                  <Node pos="r" depth="6" NCoef="0" IVar="5" Cut="-1.2504682540893555e+00" cType="1" res="2.7588397264480591e-02" rms="4.3378418684005737e-01" purity="7.3950713872909546e-01" nType="0">
                    <Node pos="l" depth="7" NCoef="0" IVar="-1" Cut="0.0000000000000000e+00" cType="1" res="3.9371307939291000e-03" rms="4.0692049264907837e-01" purity="7.8975856304168701e-01" nType="-99"/>
                    <Node pos="r" depth="7" NCoef="0" IVar="-1" Cut="0.0000000000000000e+00" cType="1" res="1.3684401055797935e-03" rms="4.6277561783790588e-01" purity="6.8099963665008545e-01" nType="-99"/>
                  </Node>
                </Node>
                <Node pos="r" depth="5" NCoef="0" IVar="-1" Cut="0.0000000000000000e+00" cType="1" res="3.8794660940766335e-03" rms="4.6354857087135315e-01" purity="6.5834468603134155e-01" nType="-99"/>
              </Node>
            </Node>
            <Node pos="r" depth="3" NCoef="0" IVar="5" Cut="-2.0338079929351807e+00" cType="1" res="2.1017627790570259e-02" rms="4.4347238540649414e-01" purity="6.9072675704956055e-01" nType="0">
              <Node pos="l" depth="4" NCoef="0" IVar="4" Cut="-1.0977209806442261e+00" cType="1" res="2.7040565386414528e-02" rms="4.3059900403022766e-01" purity="7.3176515102386475e-01" nType="0">
                <Node pos="l" depth="5" NCoef="0" IVar="4" Cut="-2.6689560413360596e+00" cType="1" res="1.9091475754976273e-02" rms="4.5653927326202393e-01" purity="6.7944777011871338e-01" nType="0">
                  <Node pos="l" depth="6" NCoef="0" IVar="-1" Cut="0.0000000000000000e+00" cType="1" res="4.1553745977580547e-03" rms="4.4442611932754517e-01" purity="7.1145886182785034e-01" nType="-99"/>
                  <Node pos="r" depth="6" NCoef="0" IVar="6" Cut="2.8481373563408852e-02" cType="1" res="1.1640017852187157e-02" rms="4.5993977785110474e-01" purity="6.6961354017257690e-01" nType="0">
                    <Node pos="l" depth="7" NCoef="0" IVar="-1" Cut="0.0000000000000000e+00" cType="1" res="1.8653643201105297e-04" rms="4.5571443438529968e-01" purity="6.8690162897109985e-01" nType="-99"/>
                    <Node pos="r" depth="7" NCoef="0" IVar="-1" Cut="0.0000000000000000e+00" cType="1" res="2.0816545002162457e-03" rms="4.6513101458549500e-01" purity="6.4693295955657959e-01" nType="-99"/>
                  </Node>
                </Node>
                <Node pos="r" depth="5" NCoef="0" IVar="5" Cut="-2.9359750747680664e+00" cType="1" res="3.3452905714511871e-02" rms="4.0836223959922791e-01" purity="7.7396839857101440e-01" nType="0">
                  <Node pos="l" depth="6" NCoef="0" IVar="3" Cut="9.9980109930038452e-01" cType="1" res="4.5701723545789719e-02" rms="3.8498431444168091e-01" purity="8.1153595447540283e-01" nType="0">
                    <Node pos="l" depth="7" NCoef="0" IVar="-1" Cut="0.0000000000000000e+00" cType="1" res="3.7461302708834410e-03" rms="3.9984396100044250e-01" purity="7.8903490304946899e-01" nType="-99"/>
                    <Node pos="r" depth="7" NCoef="0" IVar="-1" Cut="0.0000000000000000e+00" cType="1" res="6.3526965677738190e-03" rms="3.6621719598770142e-01" purity="8.3817994594573975e-01" nType="-99"/>
                  </Node>
                  <Node pos="r" depth="6" NCoef="0" IVar="5" Cut="-2.4121446609497070e+00" cType="1" res="2.4696361273527145e-02" rms="4.2406919598579407e-01" purity="7.4711173772811890e-01" nType="0">
                    <Node pos="l" depth="7" NCoef="0" IVar="-1" Cut="0.0000000000000000e+00" cType="1" res="3.3168247900903225e-03" rms="4.1598480939865112e-01" purity="7.6505672931671143e-01" nType="-99"/>
                    <Node pos="r" depth="7" NCoef="0" IVar="-1" Cut="0.0000000000000000e+00" cType="1" res="8.8010547915473580e-04" rms="4.3892917037010193e-01" purity="7.1223109960556030e-01" nType="-99"/>
                  </Node>
                </Node>
              </Node>
              <Node pos="r" depth="4" NCoef="0" IVar="5" Cut="-1.7200084924697876e+00" cType="1" res="5.4191141389310360e-03" rms="4.7483903169631958e-01" purity="5.8444339036941528e-01" nType="0">
                <Node pos="l" depth="5" NCoef="0" IVar="-1" Cut="0.0000000000000000e+00" cType="1" res="2.8471276164054871e-03" rms="4.6094021201133728e-01" purity="6.6965293884277344e-01" nType="-99"/>
                <Node pos="r" depth="5" NCoef="0" IVar="2" Cut="5.6639091491699219e+01" cType="1" res="-7.9978816211223602e-03" rms="4.8103055357933044e-01" purity="5.4211646318435669e-01" nType="0">
                  <Node pos="l" depth="6" NCoef="0" IVar="-1" Cut="0.0000000000000000e+00" cType="1" res="-1.9157978240400553e-03" rms="4.7990593314170837e-01" purity="5.5485993623733521e-01" nType="-99"/>
                  <Node pos="r" depth="6" NCoef="0" IVar="-1" Cut="0.0000000000000000e+00" cType="1" res="1.3674926012754440e-03" rms="4.8207440972328186e-01" purity="5.2005708217620850e-01" nType="-99"/>
                </Node>
              </Node>
            </Node>
          </Node>
          <Node pos="r" depth="2" NCoef="0" IVar="1" Cut="3.7850570678710938e-01" cType="1" res="4.7984975390136242e-04" rms="4.6596425771713257e-01" purity="5.8440935611724854e-01" nType="0">
            <Node pos="l" depth="3" NCoef="0" IVar="2" Cut="1.1896028137207031e+02" cType="1" res="1.4642696827650070e-02" rms="4.5968353748321533e-01" purity="6.4222359657287598e-01" nType="0">
              <Node pos="l" depth="4" NCoef="0" IVar="6" Cut="3.6379791796207428e-02" cType="1" res="2.7606708928942680e-02" rms="4.4935056567192078e-01" purity="6.8565899133682251e-01" nType="0">
                <Node pos="l" depth="5" NCoef="0" IVar="-1" Cut="0.0000000000000000e+00" cType="1" res="1.1989754857495427e-03" rms="4.4577512145042419e-01" purity="6.9301944971084595e-01" nType="-99"/>
                <Node pos="r" depth="5" NCoef="0" IVar="-1" Cut="0.0000000000000000e+00" cType="1" res="5.2954345010221004e-03" rms="4.5391878485679626e-01" purity="6.7340368032455444e-01" nType="-99"/>
              </Node>
              <Node pos="r" depth="4" NCoef="0" IVar="4" Cut="-8.2063490152359009e-01" cType="1" res="-1.1190439108759165e-03" rms="4.7146189212799072e-01" purity="5.8941453695297241e-01" nType="0">
                <Node pos="l" depth="5" NCoef="0" IVar="-1" Cut="0.0000000000000000e+00" cType="1" res="9.9645671434700489e-04" rms="4.6925723552703857e-01" purity="6.4377897977828979e-01" nType="-99"/>
                <Node pos="r" depth="5" NCoef="0" IVar="-1" Cut="0.0000000000000000e+00" cType="1" res="-1.2512165121734142e-03" rms="4.7345307469367981e-01" purity="5.3328871726989746e-01" nType="-99"/>
              </Node>
            </Node>
            <Node pos="r" depth="3" NCoef="0" IVar="4" Cut="-1.3366231322288513e-01" cType="1" res="-2.5397878140211105e-02" rms="4.7613975405693054e-01" purity="4.7877380251884460e-01" nType="0">
              <Node pos="l" depth="4" NCoef="0" IVar="-1" Cut="0.0000000000000000e+00" cType="1" res="-8.7245594477280974e-04" rms="4.8455190658569336e-01" purity="5.2139824628829956e-01" nType="-99"/>
              <Node pos="r" depth="4" NCoef="0" IVar="-1" Cut="0.0000000000000000e+00" cType="1" res="-5.8660781942307949e-03" rms="4.5781660079956055e-01" purity="3.9648592472076416e-01" nType="-99"/>
            </Node>
          </Node>
        </Node>
        <Node pos="r" depth="1" NCoef="0" IVar="4" Cut="1.6560156345367432e+00" cType="1" res="-1.0972761549055576e-02" rms="3.7827950716018677e-01" purity="2.4226060509681702e-01" nType="0">
          <Node pos="l" depth="2" NCoef="0" IVar="2" Cut="6.9694587707519531e+01" cType="1" res="-6.6443188115954399e-03" rms="4.0293776988983154e-01" purity="2.7925571799278259e-01" nType="0">
            <Node pos="l" depth="3" NCoef="0" IVar="6" Cut="3.8946758955717087e-02" cType="1" res="1.2344493530690670e-02" rms="4.4609540700912476e-01" purity="4.1460129618644714e-01" nType="0">
              <Node pos="l" depth="4" NCoef="0" IVar="3" Cut="8.5306906700134277e-01" cType="1" res="3.8143538404256105e-03" rms="4.5145821571350098e-01" purity="4.3525290489196777e-01" nType="0">
                <Node pos="l" depth="5" NCoef="0" IVar="1" Cut="6.5491807460784912e-01" cType="1" res="-1.5293969772756100e-02" rms="4.1313388943672180e-01" purity="2.8116729855537415e-01" nType="0">
                  <Node pos="l" depth="6" NCoef="0" IVar="-1" Cut="0.0000000000000000e+00" cType="1" res="-1.5990971587598324e-04" rms="4.4826510548591614e-01" purity="3.6633706092834473e-01" nType="-99"/>
                  <Node pos="r" depth="6" NCoef="0" IVar="-1" Cut="0.0000000000000000e+00" cType="1" res="-4.9318810924887657e-03" rms="3.7065023183822632e-01" purity="1.8867412209510803e-01" nType="-99"/>
                </Node>
                <Node pos="r" depth="5" NCoef="0" IVar="0" Cut="6.2434190511703491e-01" cType="1" res="1.9189523532986641e-02" rms="4.7952654957771301e-01" purity="5.5923503637313843e-01" nType="0">
                  <Node pos="l" depth="6" NCoef="0" IVar="-1" Cut="0.0000000000000000e+00" cType="1" res="3.2906993292272091e-03" rms="4.6752664446830750e-01" purity="6.6171002388000488e-01" nType="-99"/>
                  <Node pos="r" depth="6" NCoef="0" IVar="-1" Cut="0.0000000000000000e+00" cType="1" res="1.9595836056396365e-04" rms="4.8889493942260742e-01" purity="4.7176191210746765e-01" nType="-99"/>
                </Node>
              </Node>
              <Node pos="r" depth="4" NCoef="0" IVar="3" Cut="6.0143363475799561e-01" cType="1" res="3.4781411290168762e-02" rms="4.3086612224578857e-01" purity="3.6028134822845459e-01" nType="0">
                <Node pos="l" depth="5" NCoef="0" IVar="-1" Cut="0.0000000000000000e+00" cType="1" res="2.8698858805000782e-03" rms="3.8387754559516907e-01" purity="2.0649498701095581e-01" nType="-99"/>
                <Node pos="r" depth="5" NCoef="0" IVar="-1" Cut="0.0000000000000000e+00" cType="1" res="4.5169820077717304e-03" rms="4.7884482145309448e-01" purity="5.3892493247985840e-01" nType="-99"/>
              </Node>
            </Node>
            <Node pos="r" depth="3" NCoef="0" IVar="6" Cut="6.2128115445375443e-02" cType="1" res="-1.2316868640482426e-02" rms="3.8893797993659973e-01" purity="2.3882374167442322e-01" nType="0">
              <Node pos="l" depth="4" NCoef="0" IVar="5" Cut="-3.2762312889099121e+00" cType="1" res="-3.3563338220119476e-02" rms="3.8593101501464844e-01" purity="2.3971198499202728e-01" nType="0">
                <Node pos="l" depth="5" NCoef="0" IVar="-1" Cut="0.0000000000000000e+00" cType="1" res="-1.0478962212800980e-02" rms="3.1608831882476807e-01" purity="1.4638318121433258e-01" nType="-99"/>
                <Node pos="r" depth="5" NCoef="0" IVar="4" Cut="-1.0033457279205322e+00" cType="1" res="-2.8705399483442307e-02" rms="3.9755210280418396e-01" purity="2.5732591748237610e-01" nType="0">
                  <Node pos="l" depth="6" NCoef="0" IVar="6" Cut="4.4615630060434341e-02" cType="1" res="-1.3649445958435535e-02" rms="4.3883800506591797e-01" purity="3.4582167863845825e-01" nType="0">
                    <Node pos="l" depth="7" NCoef="0" IVar="-1" Cut="0.0000000000000000e+00" cType="1" res="-2.3152283392846584e-03" rms="4.4518247246742249e-01" purity="3.5074326395988464e-01" nType="-99"/>
                    <Node pos="r" depth="7" NCoef="0" IVar="-1" Cut="0.0000000000000000e+00" cType="1" res="-8.9621369261294603e-04" rms="4.3293854594230652e-01" purity="3.4137150645256042e-01" nType="-99"/>
                  </Node>
                  <Node pos="r" depth="6" NCoef="0" IVar="6" Cut="4.1149195283651352e-02" cType="1" res="-3.8385737687349319e-02" rms="3.6824744939804077e-01" purity="2.0042689144611359e-01" nType="0">
                    <Node pos="l" depth="7" NCoef="0" IVar="-1" Cut="0.0000000000000000e+00" cType="1" res="-8.5511263459920883e-03" rms="3.6196947097778320e-01" purity="1.8377792835235596e-01" nType="-99"/>
                    <Node pos="r" depth="7" NCoef="0" IVar="-1" Cut="0.0000000000000000e+00" cType="1" res="-4.6735028736293316e-03" rms="3.7109041213989258e-01" purity="2.0883148908615112e-01" nType="-99"/>
                  </Node>
                </Node>
              </Node>
              <Node pos="r" depth="4" NCoef="0" IVar="0" Cut="9.4550865888595581e-01" cType="1" res="-6.3086152076721191e-03" rms="3.8957399129867554e-01" purity="2.3857255280017853e-01" nType="0">
                <Node pos="l" depth="5" NCoef="0" IVar="5" Cut="-1.9396312236785889e+00" cType="1" res="6.1920015141367912e-03" rms="4.6319201588630676e-01" purity="3.8727262616157532e-01" nType="0">
                  <Node pos="l" depth="6" NCoef="0" IVar="2" Cut="2.0461079406738281e+02" cType="1" res="1.9529955461621284e-02" rms="4.7208020091056824e-01" purity="4.2569181323051453e-01" nType="0">
                    <Node pos="l" depth="7" NCoef="0" IVar="-1" Cut="0.0000000000000000e+00" cType="1" res="3.7947194650769234e-03" rms="4.7521269321441650e-01" purity="4.7401806712150574e-01" nType="-99"/>
                    <Node pos="r" depth="7" NCoef="0" IVar="-1" Cut="0.0000000000000000e+00" cType="1" res="4.6958451275713742e-04" rms="4.6933928132057190e-01" purity="3.9265733957290649e-01" nType="-99"/>
                  </Node>
                  <Node pos="r" depth="6" NCoef="0" IVar="4" Cut="-3.4107151627540588e-01" cType="1" res="-1.1340430006384850e-02" rms="4.5064237713813782e-01" purity="3.3677145838737488e-01" nType="0">
                    <Node pos="l" depth="7" NCoef="0" IVar="-1" Cut="0.0000000000000000e+00" cType="1" res="7.1983970701694489e-04" rms="4.7263962030410767e-01" purity="4.0783065557479858e-01" nType="-99"/>
                    <Node pos="r" depth="7" NCoef="0" IVar="-1" Cut="0.0000000000000000e+00" cType="1" res="-2.2314386442303658e-03" rms="4.4070684909820557e-01" purity="3.0653259158134460e-01" nType="-99"/>
                  </Node>
                </Node>
                <Node pos="r" depth="5" NCoef="0" IVar="6" Cut="1.4864154160022736e-01" cType="1" res="-1.5025239437818527e-02" rms="3.2834047079086304e-01" purity="1.3488467037677765e-01" nType="0">
                  <Node pos="l" depth="6" NCoef="0" IVar="2" Cut="1.2176335144042969e+02" cType="1" res="-2.2464035078883171e-02" rms="3.0256104469299316e-01" purity="1.1436138302087784e-01" nType="0">
                    <Node pos="l" depth="7" NCoef="0" IVar="-1" Cut="0.0000000000000000e+00" cType="1" res="1.4979476109147072e-03" rms="3.4769359230995178e-01" purity="1.6269618272781372e-01" nType="-99"/>
                    <Node pos="r" depth="7" NCoef="0" IVar="-1" Cut="0.0000000000000000e+00" cType="1" res="-7.0204362273216248e-03" rms="2.9264202713966370e-01" purity="1.0496935248374939e-01" nType="-99"/>
                  </Node>
                  <Node pos="r" depth="6" NCoef="0" IVar="2" Cut="3.4094033813476562e+02" cType="1" res="-2.4507816415280104e-03" rms="3.6748984456062317e-01" purity="1.6957698762416840e-01" nType="0">
                    <Node pos="l" depth="7" NCoef="0" IVar="-1" Cut="0.0000000000000000e+00" cType="1" res="4.3058837763965130e-03" rms="3.8690823316574097e-01" purity="1.9672515988349915e-01" nType="-99"/>
                    <Node pos="r" depth="7" NCoef="0" IVar="-1" Cut="0.0000000000000000e+00" cType="1" res="-2.7091230731457472e-03" rms="3.5768136382102966e-01" purity="1.5717087686061859e-01" nType="-99"/>
                  </Node>
                </Node>
              </Node>
            </Node>
          </Node>
          <Node pos="r" depth="2" NCoef="0" IVar="3" Cut="5.2075546979904175e-01" cType="1" res="-3.3997192978858948e-02" rms="1.9999238848686218e-01" purity="4.5471344143152237e-02" nType="0">
            <Node pos="l" depth="3" NCoef="0" IVar="6" Cut="1.7962381243705750e-01" cType="1" res="-2.9114695265889168e-02" rms="1.7386245727539062e-01" purity="3.2779339700937271e-02" nType="0">
              <Node pos="l" depth="4" NCoef="0" IVar="0" Cut="1.2613177299499512e+00" cType="1" res="-3.3846370875835419e-02" rms="1.3719899952411652e-01" purity="1.9854241982102394e-02" nType="0">
                <Node pos="l" depth="5" NCoef="0" IVar="-1" Cut="0.0000000000000000e+00" cType="1" res="-1.6167037189006805e-02" rms="1.7510624229907990e-01" purity="3.3367149531841278e-02" nType="-99"/>
                <Node pos="r" depth="5" NCoef="0" IVar="6" Cut="8.1792309880256653e-02" cType="1" res="-3.1527347862720490e-02" rms="1.2314486503601074e-01" purity="1.5703996643424034e-02" nType="0">
                  <Node pos="l" depth="6" NCoef="0" IVar="-1" Cut="0.0000000000000000e+00" cType="1" res="-2.5429379194974899e-02" rms="8.1633865833282471e-02" purity="6.7164427600800991e-03" nType="-99"/>
                  <Node pos="r" depth="6" NCoef="0" IVar="5" Cut="1.6663655042648315e+00" cType="1" res="-2.8039868921041489e-02" rms="1.4339838922023773e-01" purity="2.1444698795676231e-02" nType="0">
                    <Node pos="l" depth="7" NCoef="0" IVar="-1" Cut="0.0000000000000000e+00" cType="1" res="-1.2658524326980114e-02" rms="1.7738595604896545e-01" purity="3.3300276845693588e-02" nType="-99"/>
                    <Node pos="r" depth="7" NCoef="0" IVar="-1" Cut="0.0000000000000000e+00" cType="1" res="-2.2398632019758224e-02" rms="1.0535380244255066e-01" purity="1.1191355064511299e-02" nType="-99"/>
                  </Node>
                </Node>
              </Node>
              <Node pos="r" depth="4" NCoef="0" IVar="-1" Cut="0.0000000000000000e+00" cType="1" res="-4.8652733676135540e-03" rms="2.5872150063514709e-01" purity="7.4731834232807159e-02" nType="-99"/>
            </Node>
            <Node pos="r" depth="3" NCoef="0" IVar="-1" Cut="0.0000000000000000e+00" cType="1" res="-1.1181868612766266e-02" rms="2.9390609264373779e-01" purity="1.0660272836685181e-01" nType="-99"/>
          </Node>
        </Node>
      </Node>
    </BinaryTree>
    <BinaryTree type="DecisionTree" boostWeight="1.0000000000000000e+00" itree="59">
      <Node pos="s" depth="0" NCoef="0" IVar="0" Cut="3.2222989201545715e-01" cType="1" res="7.2098015807569027e-03" rms="4.0134885907173157e-01" purity="4.9911591410636902e-01" nType="0">
        <Node pos="l" depth="1" NCoef="0" IVar="0" Cut="1.9749291241168976e-01" cType="1" res="2.4505084380507469e-02" rms="4.2115840315818787e-01" purity="7.2970324754714966e-01" nType="0">
          <Node pos="l" depth="2" NCoef="0" IVar="1" Cut="4.9025794863700867e-01" cType="1" res="2.8977500274777412e-02" rms="4.1219529509544373e-01" purity="7.5590509176254272e-01" nType="0">
            <Node pos="l" depth="3" NCoef="0" IVar="5" Cut="-2.0872328281402588e+00" cType="1" res="3.3662822097539902e-02" rms="3.9615520834922791e-01" purity="7.8970044851303101e-01" nType="0">
              <Node pos="l" depth="4" NCoef="0" IVar="5" Cut="-2.9876525402069092e+00" cType="1" res="3.7516914308071136e-02" rms="3.7597301602363586e-01" purity="8.2191932201385498e-01" nType="0">
                <Node pos="l" depth="5" NCoef="0" IVar="1" Cut="-3.1492152810096741e-01" cType="1" res="4.4949639588594437e-02" rms="3.4699305891990662e-01" purity="8.5402512550354004e-01" nType="0">
                  <Node pos="l" depth="6" NCoef="0" IVar="-1" Cut="0.0000000000000000e+00" cType="1" res="4.4038048945367336e-03" rms="3.5130879282951355e-01" purity="8.5081505775451660e-01" nType="-99"/>
                  <Node pos="r" depth="6" NCoef="0" IVar="1" Cut="2.0459835231304169e-01" cType="1" res="4.8102870583534241e-02" rms="3.4546077251434326e-01" purity="8.5511350631713867e-01" nType="0">
                    <Node pos="l" depth="7" NCoef="0" IVar="-1" Cut="0.0000000000000000e+00" cType="1" res="6.6399667412042618e-03" rms="3.3662453293800354e-01" purity="8.6494445800781250e-01" nType="-99"/>
                    <Node pos="r" depth="7" NCoef="0" IVar="-1" Cut="0.0000000000000000e+00" cType="1" res="4.4332901015877724e-03" rms="3.6930298805236816e-01" purity="8.2708108425140381e-01" nType="-99"/>
                  </Node>
                </Node>
                <Node pos="r" depth="5" NCoef="0" IVar="4" Cut="-1.2129439115524292e+00" cType="1" res="3.3756099641323090e-02" rms="3.8976234197616577e-01" purity="8.0567443370819092e-01" nType="0">
                  <Node pos="l" depth="6" NCoef="0" IVar="4" Cut="-2.7728605270385742e+00" cType="1" res="2.7334304526448250e-02" rms="4.1416633129119873e-01" purity="7.7153855562210083e-01" nType="0">
                    <Node pos="l" depth="7" NCoef="0" IVar="-1" Cut="0.0000000000000000e+00" cType="1" res="5.2065299823880196e-03" rms="3.9106953144073486e-01" purity="8.0606180429458618e-01" nType="-99"/>
                    <Node pos="r" depth="7" NCoef="0" IVar="-1" Cut="0.0000000000000000e+00" cType="1" res="2.2143325768411160e-03" rms="4.1984280943870544e-01" purity="7.6251083612442017e-01" nType="-99"/>
                  </Node>
                  <Node pos="r" depth="6" NCoef="0" IVar="3" Cut="9.9616104364395142e-01" cType="1" res="3.9291363209486008e-02" rms="3.6733886599540710e-01" purity="8.3509784936904907e-01" nType="0">
                    <Node pos="l" depth="7" NCoef="0" IVar="-1" Cut="0.0000000000000000e+00" cType="1" res="3.7421176675707102e-03" rms="3.8808253407478333e-01" purity="8.0816328525543213e-01" nType="-99"/>
                    <Node pos="r" depth="7" NCoef="0" IVar="-1" Cut="0.0000000000000000e+00" cType="1" res="5.6443833746016026e-03" rms="3.4835100173950195e-01" purity="8.5834205150604248e-01" nType="-99"/>
                  </Node>
                </Node>
              </Node>
              <Node pos="r" depth="4" NCoef="0" IVar="1" Cut="1.6389513015747070e-01" cType="1" res="2.3988217115402222e-02" rms="4.4263452291488647e-01" purity="7.0882421731948853e-01" nType="0">
                <Node pos="l" depth="5" NCoef="0" IVar="3" Cut="9.8109191656112671e-01" cType="1" res="2.9734520241618156e-02" rms="4.3645665049552917e-01" purity="7.2519105672836304e-01" nType="0">
                  <Node pos="l" depth="6" NCoef="0" IVar="6" Cut="3.3604148775339127e-02" cType="1" res="2.1099334582686424e-02" rms="4.5706996321678162e-01" purity="6.8003410100936890e-01" nType="0">
                    <Node pos="l" depth="7" NCoef="0" IVar="-1" Cut="0.0000000000000000e+00" cType="1" res="6.6515681101009250e-04" rms="4.5534583926200867e-01" purity="6.8903189897537231e-01" nType="-99"/>
                    <Node pos="r" depth="7" NCoef="0" IVar="-1" Cut="0.0000000000000000e+00" cType="1" res="2.8006283100694418e-03" rms="4.5804461836814880e-01" purity="6.7343121767044067e-01" nType="-99"/>
                  </Node>
                  <Node pos="r" depth="6" NCoef="0" IVar="4" Cut="-4.2779061198234558e-01" cType="1" res="4.0083795785903931e-02" rms="4.1015031933784485e-01" purity="7.7931165695190430e-01" nType="0">
                    <Node pos="l" depth="7" NCoef="0" IVar="-1" Cut="0.0000000000000000e+00" cType="1" res="2.8544389642775059e-03" rms="4.2135009169578552e-01" purity="7.6609414815902710e-01" nType="-99"/>
                    <Node pos="r" depth="7" NCoef="0" IVar="-1" Cut="0.0000000000000000e+00" cType="1" res="5.0345496274530888e-03" rms="4.0154358744621277e-01" purity="7.8904104232788086e-01" nType="-99"/>
                  </Node>
                </Node>
                <Node pos="r" depth="5" NCoef="0" IVar="4" Cut="-5.2448129653930664e-01" cType="1" res="5.4472913034260273e-03" rms="4.6151736378669739e-01" purity="6.5601527690887451e-01" nType="0">
                  <Node pos="l" depth="6" NCoef="0" IVar="-1" Cut="0.0000000000000000e+00" cType="1" res="1.9577664716052823e-05" rms="4.6628901362419128e-01" purity="6.6305619478225708e-01" nType="-99"/>
                  <Node pos="r" depth="6" NCoef="0" IVar="-1" Cut="0.0000000000000000e+00" cType="1" res="1.0565286502242088e-03" rms="4.5630395412445068e-01" purity="6.4850121736526489e-01" nType="-99"/>
                </Node>
              </Node>
            </Node>
            <Node pos="r" depth="3" NCoef="0" IVar="5" Cut="-1.6947140693664551e+00" cType="1" res="1.5469287522137165e-02" rms="4.5501810312271118e-01" purity="6.5846985578536987e-01" nType="0">
              <Node pos="l" depth="4" NCoef="0" IVar="4" Cut="-2.4063150882720947e+00" cType="1" res="2.1641662344336510e-02" rms="4.4807642698287964e-01" purity="6.9361954927444458e-01" nType="0">
                <Node pos="l" depth="5" NCoef="0" IVar="-1" Cut="0.0000000000000000e+00" cType="1" res="3.3025250304490328e-03" rms="4.6227374672889709e-01" purity="6.6393041610717773e-01" nType="-99"/>
                <Node pos="r" depth="5" NCoef="0" IVar="4" Cut="-6.9742089509963989e-01" cType="1" res="1.8622750416398048e-02" rms="4.4511762261390686e-01" purity="6.9956481456756592e-01" nType="0">
                  <Node pos="l" depth="6" NCoef="0" IVar="6" Cut="3.0749155208468437e-02" cType="1" res="7.7743022702634335e-03" rms="4.6498182415962219e-01" purity="6.5372294187545776e-01" nType="0">
                    <Node pos="l" depth="7" NCoef="0" IVar="-1" Cut="0.0000000000000000e+00" cType="1" res="-3.0728522688150406e-05" rms="4.5978307723999023e-01" purity="6.7574894428253174e-01" nType="-99"/>
                    <Node pos="r" depth="7" NCoef="0" IVar="-1" Cut="0.0000000000000000e+00" cType="1" res="2.0903844852000475e-03" rms="4.7539454698562622e-01" purity="6.0684448480606079e-01" nType="-99"/>
                  </Node>
                  <Node pos="r" depth="6" NCoef="0" IVar="3" Cut="9.9454754590988159e-01" cType="1" res="2.8758846223354340e-02" rms="4.2547118663787842e-01" purity="7.4239659309387207e-01" nType="0">
                    <Node pos="l" depth="7" NCoef="0" IVar="-1" Cut="0.0000000000000000e+00" cType="1" res="-2.7403948479332030e-04" rms="4.5923736691474915e-01" purity="6.5153175592422485e-01" nType="-99"/>
                    <Node pos="r" depth="7" NCoef="0" IVar="-1" Cut="0.0000000000000000e+00" cType="1" res="4.4277491979300976e-03" rms="4.0813905000686646e-01" purity="7.8428637981414795e-01" nType="-99"/>
                  </Node>
                </Node>
              </Node>
              <Node pos="r" depth="4" NCoef="0" IVar="6" Cut="1.1941943317651749e-02" cType="1" res="-1.1505521833896637e-02" rms="4.8326417803764343e-01" purity="5.0485676527023315e-01" nType="0">
                <Node pos="l" depth="5" NCoef="0" IVar="-1" Cut="0.0000000000000000e+00" cType="1" res="-1.2164643267169595e-03" rms="4.8399999737739563e-01" purity="5.4626607894897461e-01" nType="-99"/>
                <Node pos="r" depth="5" NCoef="0" IVar="-1" Cut="0.0000000000000000e+00" cType="1" res="-8.1239041173830628e-04" rms="4.8256915807723999e-01" purity="4.6647199988365173e-01" nType="-99"/>
              </Node>
            </Node>
          </Node>
          <Node pos="r" depth="2" NCoef="0" IVar="6" Cut="3.7985276430845261e-02" cType="1" res="-1.2603354407474399e-03" rms="4.6864312887191772e-01" purity="5.7875549793243408e-01" nType="0">
            <Node pos="l" depth="3" NCoef="0" IVar="2" Cut="4.2377578735351562e+01" cType="1" res="-1.9477764144539833e-02" rms="4.6410769224166870e-01" purity="6.1191004514694214e-01" nType="0">
              <Node pos="l" depth="4" NCoef="0" IVar="-1" Cut="0.0000000000000000e+00" cType="1" res="-4.1609187610447407e-04" rms="4.5079654455184937e-01" purity="6.6130506992340088e-01" nType="-99"/>
              <Node pos="r" depth="4" NCoef="0" IVar="-1" Cut="0.0000000000000000e+00" cType="1" res="-4.4225328601896763e-03" rms="4.8321685194969177e-01" purity="5.3454059362411499e-01" nType="-99"/>
            </Node>
            <Node pos="r" depth="3" NCoef="0" IVar="5" Cut="-2.2726578712463379e+00" cType="1" res="9.5342639833688736e-03" rms="4.7097760438919067e-01" purity="5.5911004543304443e-01" nType="0">
              <Node pos="l" depth="4" NCoef="0" IVar="-1" Cut="0.0000000000000000e+00" cType="1" res="2.7997919823974371e-03" rms="4.6491211652755737e-01" purity="6.2768304347991943e-01" nType="-99"/>
              <Node pos="r" depth="4" NCoef="0" IVar="4" Cut="-4.3354585766792297e-01" cType="1" res="-3.9466544985771179e-03" rms="4.7470876574516296e-01" purity="5.1115185022354126e-01" nType="0">
                <Node pos="l" depth="5" NCoef="0" IVar="-1" Cut="0.0000000000000000e+00" cType="1" res="2.0219043362885714e-03" rms="4.8219597339630127e-01" purity="5.9030228853225708e-01" nType="-99"/>
                <Node pos="r" depth="5" NCoef="0" IVar="-1" Cut="0.0000000000000000e+00" cType="1" res="-2.0037745125591755e-03" rms="4.6912130713462830e-01" purity="4.6026211977005005e-01" nType="-99"/>
              </Node>
            </Node>
          </Node>
        </Node>
        <Node pos="r" depth="1" NCoef="0" IVar="0" Cut="1.2577472925186157e+00" cType="1" res="-1.2190966866910458e-02" rms="3.7695086002349854e-01" purity="2.4045746028423309e-01" nType="0">
          <Node pos="l" depth="2" NCoef="0" IVar="4" Cut="2.1532073020935059e+00" cType="1" res="-3.7288032472133636e-03" rms="4.3594130873680115e-01" purity="3.4909388422966003e-01" nType="0">
            <Node pos="l" depth="3" NCoef="0" IVar="1" Cut="1.5946362912654877e-01" cType="1" res="-6.2933919252827764e-04" rms="4.4666764140129089e-01" purity="3.6879649758338928e-01" nType="0">
              <Node pos="l" depth="4" NCoef="0" IVar="0" Cut="4.1274955868721008e-01" cType="1" res="1.3568901456892490e-02" rms="4.6512717008590698e-01" purity="4.4936347007751465e-01" nType="0">
                <Node pos="l" depth="5" NCoef="0" IVar="5" Cut="-2.2833287715911865e+00" cType="1" res="3.8620144128799438e-02" rms="4.7488343715667725e-01" purity="5.9565341472625732e-01" nType="0">
                  <Node pos="l" depth="6" NCoef="0" IVar="-1" Cut="0.0000000000000000e+00" cType="1" res="3.6495297681540251e-03" rms="4.7005519270896912e-01" purity="6.3038647174835205e-01" nType="-99"/>
                  <Node pos="r" depth="6" NCoef="0" IVar="-1" Cut="0.0000000000000000e+00" cType="1" res="2.8710511978715658e-03" rms="4.7949174046516418e-01" purity="5.6178939342498779e-01" nType="-99"/>
                </Node>
                <Node pos="r" depth="5" NCoef="0" IVar="6" Cut="3.7749309092760086e-02" cType="1" res="6.0273669660091400e-03" rms="4.6188375353813171e-01" purity="4.0532374382019043e-01" nType="0">
                  <Node pos="l" depth="6" NCoef="0" IVar="-1" Cut="0.0000000000000000e+00" cType="1" res="-1.4893707120791078e-03" rms="4.6644937992095947e-01" purity="4.8131778836250305e-01" nType="-99"/>
                  <Node pos="r" depth="6" NCoef="0" IVar="2" Cut="2.6437130737304688e+02" cType="1" res="1.2384962290525436e-02" rms="4.6034380793571472e-01" purity="3.8305887579917908e-01" nType="0">
                    <Node pos="l" depth="7" NCoef="0" IVar="-1" Cut="0.0000000000000000e+00" cType="1" res="2.6370470877736807e-03" rms="4.6669238805770874e-01" purity="4.1859757900238037e-01" nType="-99"/>
                    <Node pos="r" depth="7" NCoef="0" IVar="-1" Cut="0.0000000000000000e+00" cType="1" res="-9.5727428561076522e-04" rms="4.4989305734634399e-01" purity="3.2997485995292664e-01" nType="-99"/>
                  </Node>
                </Node>
              </Node>
              <Node pos="r" depth="4" NCoef="0" IVar="2" Cut="6.9694595336914062e+01" cType="1" res="-9.5079448074102402e-03" rms="4.3449044227600098e-01" purity="3.1841537356376648e-01" nType="0">
                <Node pos="l" depth="5" NCoef="0" IVar="6" Cut="3.3412903547286987e-02" cType="1" res="9.2395460233092308e-03" rms="4.6077501773834229e-01" purity="4.2266529798507690e-01" nType="0">
                  <Node pos="l" depth="6" NCoef="0" IVar="3" Cut="8.6491632461547852e-01" cType="1" res="-9.0896605979651213e-04" rms="4.6568286418914795e-01" purity="4.5025706291198730e-01" nType="0">
                    <Node pos="l" depth="7" NCoef="0" IVar="-1" Cut="0.0000000000000000e+00" cType="1" res="-3.8601693231612444e-03" rms="4.3069311976432800e-01" purity="2.9134583473205566e-01" nType="-99"/>
                    <Node pos="r" depth="7" NCoef="0" IVar="-1" Cut="0.0000000000000000e+00" cType="1" res="1.8702816450968385e-03" rms="4.8797073960304260e-01" purity="5.6434512138366699e-01" nType="-99"/>
                  </Node>
                  <Node pos="r" depth="6" NCoef="0" IVar="-1" Cut="0.0000000000000000e+00" cType="1" res="2.8808312490582466e-03" rms="4.5109277963638306e-01" purity="3.7231135368347168e-01" nType="-99"/>
                </Node>
                <Node pos="r" depth="5" NCoef="0" IVar="6" Cut="6.2086705118417740e-02" cType="1" res="-1.6665704548358917e-02" rms="4.2380678653717041e-01" purity="2.7861294150352478e-01" nType="0">
                  <Node pos="l" depth="6" NCoef="0" IVar="6" Cut="4.1273679584264755e-02" cType="1" res="-4.4919256120920181e-02" rms="4.0874743461608887e-01" purity="2.5188612937927246e-01" nType="0">
                    <Node pos="l" depth="7" NCoef="0" IVar="-1" Cut="0.0000000000000000e+00" cType="1" res="-8.2352254539728165e-03" rms="4.0127798914909363e-01" purity="2.3729071021080017e-01" nType="-99"/>
                    <Node pos="r" depth="7" NCoef="0" IVar="-1" Cut="0.0000000000000000e+00" cType="1" res="-4.0978277102112770e-03" rms="4.1293185949325562e-01" purity="2.6118248701095581e-01" nType="-99"/>
                  </Node>
                  <Node pos="r" depth="6" NCoef="0" IVar="2" Cut="3.3948150634765625e+02" cType="1" res="-6.9444263353943825e-03" rms="4.2843541502952576e-01" purity="2.8780892491340637e-01" nType="0">
                    <Node pos="l" depth="7" NCoef="0" IVar="-1" Cut="0.0000000000000000e+00" cType="1" res="2.8374977409839630e-04" rms="4.3699708580970764e-01" purity="3.0988022685050964e-01" nType="-99"/>
                    <Node pos="r" depth="7" NCoef="0" IVar="-1" Cut="0.0000000000000000e+00" cType="1" res="-3.2592078205198050e-03" rms="4.1117534041404724e-01" purity="2.4605731666088104e-01" nType="-99"/>
                  </Node>
                </Node>
              </Node>
            </Node>
            <Node pos="r" depth="3" NCoef="0" IVar="-1" Cut="0.0000000000000000e+00" cType="1" res="-1.6596160829067230e-02" rms="2.0118175446987152e-01" purity="4.2951915413141251e-02" nType="-99"/>
          </Node>
          <Node pos="r" depth="2" NCoef="0" IVar="1" Cut="4.9682698249816895e+00" cType="1" res="-2.2909814491868019e-02" rms="2.8486037254333496e-01" purity="1.0284995287656784e-01" nType="0">
            <Node pos="l" depth="3" NCoef="0" IVar="6" Cut="2.0452655851840973e-01" cType="1" res="-2.5007598102092743e-02" rms="2.8110405802726746e-01" purity="9.9991239607334137e-02" nType="0">
              <Node pos="l" depth="4" NCoef="0" IVar="2" Cut="1.8896488952636719e+02" cType="1" res="-2.7584573253989220e-02" rms="2.6861786842346191e-01" purity="9.2346444725990295e-02" nType="0">
                <Node pos="l" depth="5" NCoef="0" IVar="6" Cut="1.1874953657388687e-01" cType="1" res="-2.0642315968871117e-02" rms="2.9666483402252197e-01" purity="1.2009672075510025e-01" nType="0">
                  <Node pos="l" depth="6" NCoef="0" IVar="2" Cut="1.2800666809082031e+02" cType="1" res="-2.5807460770010948e-02" rms="2.9192313551902771e-01" purity="1.1757022142410278e-01" nType="0">
                    <Node pos="l" depth="7" NCoef="0" IVar="-1" Cut="0.0000000000000000e+00" cType="1" res="-4.4984063133597374e-03" rms="3.1256034970283508e-01" purity="1.3913471996784210e-01" nType="-99"/>
                    <Node pos="r" depth="7" NCoef="0" IVar="-1" Cut="0.0000000000000000e+00" cType="1" res="-1.3733169995248318e-02" rms="2.2708463668823242e-01" purity="5.9971403330564499e-02" nType="-99"/>
                  </Node>
                  <Node pos="r" depth="6" NCoef="0" IVar="-1" Cut="0.0000000000000000e+00" cType="1" res="3.7221235688775778e-03" rms="3.2465764880180359e-01" purity="1.3709738850593567e-01" nType="-99"/>
                </Node>
                <Node pos="r" depth="5" NCoef="0" IVar="7" Cut="5.0000000000000000e+00" cType="1" res="-3.3633530139923096e-02" rms="2.3749561607837677e-01" purity="6.6012144088745117e-02" nType="0">
                  <Node pos="l" depth="6" NCoef="0" IVar="3" Cut="3.9992949366569519e-01" cType="1" res="-3.9935708045959473e-02" rms="2.8091251850128174e-01" purity="9.5320984721183777e-02" nType="0">
                    <Node pos="l" depth="7" NCoef="0" IVar="-1" Cut="0.0000000000000000e+00" cType="1" res="-1.1846659705042839e-02" rms="2.2888799011707306e-01" purity="5.8784537017345428e-02" nType="-99"/>
                    <Node pos="r" depth="7" NCoef="0" IVar="-1" Cut="0.0000000000000000e+00" cType="1" res="-8.7527213618159294e-03" rms="3.3372515439987183e-01" purity="1.4018335938453674e-01" nType="-99"/>
                  </Node>
                  <Node pos="r" depth="6" NCoef="0" IVar="0" Cut="2.3829088211059570e+00" cType="1" res="-3.0427539721131325e-02" rms="2.0678448677062988e-01" purity="4.6966236084699631e-02" nType="0">
                    <Node pos="l" depth="7" NCoef="0" IVar="-1" Cut="0.0000000000000000e+00" cType="1" res="-7.7336234971880913e-03" rms="2.4132065474987030e-01" purity="6.5415665507316589e-02" nType="-99"/>
                    <Node pos="r" depth="7" NCoef="0" IVar="-1" Cut="0.0000000000000000e+00" cType="1" res="-1.9551802426576614e-02" rms="1.5728431940078735e-01" purity="2.5667948648333549e-02" nType="-99"/>
                  </Node>
                </Node>
              </Node>
              <Node pos="r" depth="4" NCoef="0" IVar="5" Cut="-1.6319948434829712e+00" cType="1" res="-8.7663754820823669e-03" rms="3.4924685955047607e-01" purity="1.4817203581333160e-01" nType="0">
                <Node pos="l" depth="5" NCoef="0" IVar="-1" Cut="0.0000000000000000e+00" cType="1" res="1.4538312098011374e-03" rms="4.0324094891548157e-01" purity="2.0818305015563965e-01" nType="-99"/>
                <Node pos="r" depth="5" NCoef="0" IVar="-1" Cut="0.0000000000000000e+00" cType="1" res="-5.7635623961687088e-03" rms="3.0185461044311523e-01" purity="1.0318051278591156e-01" nType="-99"/>
              </Node>
            </Node>
            <Node pos="r" depth="3" NCoef="0" IVar="-1" Cut="0.0000000000000000e+00" cType="1" res="3.7981704808771610e-03" rms="3.4545725584030151e-01" purity="1.5639726817607880e-01" nType="-99"/>
          </Node>
        </Node>
      </Node>
    </BinaryTree>
    <BinaryTree type="DecisionTree" boostWeight="1.0000000000000000e+00" itree="60">
      <Node pos="s" depth="0" NCoef="0" IVar="3" Cut="5.8558702468872070e-01" cType="1" res="8.7566608563065529e-03" rms="4.0180611610412598e-01" purity="5.0045174360275269e-01" nType="0">
        <Node pos="l" depth="1" NCoef="0" IVar="6" Cut="1.9185881316661835e-01" cType="1" res="-1.5788694843649864e-02" rms="3.2237279415130615e-01" purity="1.3779650628566742e-01" nType="0">
          <Node pos="l" depth="2" NCoef="0" IVar="3" Cut="3.8197007775306702e-01" cType="1" res="-1.9533587619662285e-02" rms="3.1416633725166321e-01" purity="1.3125714659690857e-01" nType="0">
            <Node pos="l" depth="3" NCoef="0" IVar="0" Cut="1.2901256084442139e+00" cType="1" res="-2.8245003893971443e-02" rms="2.1442744135856628e-01" purity="5.0201222300529480e-02" nType="0">
              <Node pos="l" depth="4" NCoef="0" IVar="-1" Cut="0.0000000000000000e+00" cType="1" res="-1.1483884416520596e-02" rms="3.0131083726882935e-01" purity="1.0545258224010468e-01" nType="-99"/>
              <Node pos="r" depth="4" NCoef="0" IVar="7" Cut="4.0000000000000000e+00" cType="1" res="-2.5396581739187241e-02" rms="2.0150785148143768e-01" purity="4.5163828879594803e-02" nType="0">
                <Node pos="l" depth="5" NCoef="0" IVar="-1" Cut="0.0000000000000000e+00" cType="1" res="-2.5951054412871599e-03" rms="2.6771911978721619e-01" purity="8.0164700746536255e-02" nType="-99"/>
                <Node pos="r" depth="5" NCoef="0" IVar="3" Cut="2.3865288496017456e-01" cType="1" res="-2.8332484886050224e-02" rms="1.9461591541767120e-01" purity="4.0592458099126816e-02" nType="0">
                  <Node pos="l" depth="6" NCoef="0" IVar="7" Cut="7.0000000000000000e+00" cType="1" res="-3.0203703790903091e-02" rms="1.4420653879642487e-01" purity="2.6155648753046989e-02" nType="0">
                    <Node pos="l" depth="7" NCoef="0" IVar="-1" Cut="0.0000000000000000e+00" cType="1" res="-1.5488713979721069e-02" rms="1.7750978469848633e-01" purity="3.2983649522066116e-02" nType="-99"/>
                    <Node pos="r" depth="7" NCoef="0" IVar="-1" Cut="0.0000000000000000e+00" cType="1" res="-2.0984759554266930e-02" rms="1.4378187060356140e-01" purity="2.1305445581674576e-02" nType="-99"/>
                  </Node>
                  <Node pos="r" depth="6" NCoef="0" IVar="4" Cut="-8.1182897090911865e-01" cType="1" res="-2.5619998574256897e-02" rms="2.0942313969135284e-01" purity="4.7432970255613327e-02" nType="0">
                    <Node pos="l" depth="7" NCoef="0" IVar="-1" Cut="0.0000000000000000e+00" cType="1" res="-1.4133471995592117e-02" rms="2.1615254878997803e-01" purity="4.9778707325458527e-02" nType="-99"/>
                    <Node pos="r" depth="7" NCoef="0" IVar="-1" Cut="0.0000000000000000e+00" cType="1" res="-1.0214537382125854e-02" rms="2.0784772932529449e-01" purity="4.6921584755182266e-02" nType="-99"/>
                  </Node>
                </Node>
              </Node>
            </Node>
            <Node pos="r" depth="3" NCoef="0" IVar="6" Cut="1.4858408272266388e-01" cType="1" res="-1.2301204726099968e-02" rms="3.7730023264884949e-01" purity="1.9855131208896637e-01" nType="0">
              <Node pos="l" depth="4" NCoef="0" IVar="7" Cut="4.0000000000000000e+00" cType="1" res="-1.6051528975367546e-02" rms="3.6887142062187195e-01" purity="1.8705642223358154e-01" nType="0">
                <Node pos="l" depth="5" NCoef="0" IVar="2" Cut="1.3320800781250000e+02" cType="1" res="-3.1616378575563431e-02" rms="3.6270120739936829e-01" purity="1.7320187389850616e-01" nType="0">
                  <Node pos="l" depth="6" NCoef="0" IVar="-1" Cut="0.0000000000000000e+00" cType="1" res="-2.6908868458122015e-03" rms="3.8034632802009583e-01" purity="1.9523093104362488e-01" nType="-99"/>
                  <Node pos="r" depth="6" NCoef="0" IVar="6" Cut="8.8608101010322571e-02" cType="1" res="-4.1650403290987015e-02" rms="3.4977343678474426e-01" purity="1.5814284980297089e-01" nType="0">
                    <Node pos="l" depth="7" NCoef="0" IVar="-1" Cut="0.0000000000000000e+00" cType="1" res="-9.9259810522198677e-03" rms="3.0669984221458435e-01" purity="1.1319456249475479e-01" nType="-99"/>
                    <Node pos="r" depth="7" NCoef="0" IVar="-1" Cut="0.0000000000000000e+00" cType="1" res="-5.7674306444823742e-03" rms="3.7539407610893250e-01" purity="1.8778401613235474e-01" nType="-99"/>
                  </Node>
                </Node>
                <Node pos="r" depth="5" NCoef="0" IVar="2" Cut="3.9941183471679688e+02" cType="1" res="-7.5231650844216347e-03" rms="3.7377727031707764e-01" purity="1.9507692754268646e-01" nType="0">
                  <Node pos="l" depth="6" NCoef="0" IVar="6" Cut="8.1687606871128082e-02" cType="1" res="-2.7479648124426603e-03" rms="3.7733113765716553e-01" purity="2.0007331669330597e-01" nType="0">
                    <Node pos="l" depth="7" NCoef="0" IVar="-1" Cut="0.0000000000000000e+00" cType="1" res="-2.4473937228322029e-03" rms="3.5723575949668884e-01" purity="1.7196650803089142e-01" nType="-99"/>
                    <Node pos="r" depth="7" NCoef="0" IVar="-1" Cut="0.0000000000000000e+00" cType="1" res="1.8786141881719232e-03" rms="4.0279716253280640e-01" purity="2.3866744339466095e-01" nType="-99"/>
                  </Node>
                  <Node pos="r" depth="6" NCoef="0" IVar="-1" Cut="0.0000000000000000e+00" cType="1" res="-5.9249838814139366e-03" rms="3.5113784670829773e-01" purity="1.6604697704315186e-01" nType="-99"/>
                </Node>
              </Node>
              <Node pos="r" depth="4" NCoef="0" IVar="-1" Cut="0.0000000000000000e+00" cType="1" res="1.8665455281734467e-03" rms="4.2082849144935608e-01" purity="2.7278721332550049e-01" nType="-99"/>
            </Node>
          </Node>
          <Node pos="r" depth="2" NCoef="0" IVar="7" Cut="5.0000000000000000e+00" cType="1" res="5.8575179427862167e-03" rms="3.6493721604347229e-01" purity="1.7719477415084839e-01" nType="0">
            <Node pos="l" depth="3" NCoef="0" IVar="-1" Cut="0.0000000000000000e+00" cType="1" res="5.2080219611525536e-03" rms="4.1220462322235107e-01" purity="2.4382792413234711e-01" nType="-99"/>
            <Node pos="r" depth="3" NCoef="0" IVar="5" Cut="-2.1175611019134521e+00" cType="1" res="-4.4808723032474518e-03" rms="3.4524276852607727e-01" purity="1.4836561679840088e-01" nType="0">
              <Node pos="l" depth="4" NCoef="0" IVar="-1" Cut="0.0000000000000000e+00" cType="1" res="2.5430985260754824e-03" rms="4.0119317173957825e-01" purity="2.1250775456428528e-01" nType="-99"/>
              <Node pos="r" depth="4" NCoef="0" IVar="2" Cut="6.3036865234375000e+02" cType="1" res="-1.3926259241998196e-02" rms="3.1441217660903931e-01" purity="1.1755251139402390e-01" nType="0">
                <Node pos="l" depth="5" NCoef="0" IVar="-1" Cut="0.0000000000000000e+00" cType="1" res="-5.6764265536912717e-06" rms="3.2617688179016113e-01" purity="1.2892892956733704e-01" nType="-99"/>
                <Node pos="r" depth="5" NCoef="0" IVar="-1" Cut="0.0000000000000000e+00" cType="1" res="-6.4888265915215015e-03" rms="3.0198591947555542e-01" purity="1.0654566437005997e-01" nType="-99"/>
              </Node>
            </Node>
          </Node>
        </Node>
        <Node pos="r" depth="1" NCoef="0" IVar="4" Cut="1.4036730527877808e+00" cType="1" res="2.0194001495838165e-02" rms="4.3340614438056946e-01" purity="6.6943728923797607e-01" nType="0">
          <Node pos="l" depth="2" NCoef="0" IVar="1" Cut="1.2082620859146118e+00" cType="1" res="2.2248610854148865e-02" rms="4.3411329388618469e-01" purity="6.8041074275970459e-01" nType="0">
            <Node pos="l" depth="3" NCoef="0" IVar="0" Cut="1.2871487140655518e+00" cType="1" res="2.5764474645256996e-02" rms="4.2847564816474915e-01" purity="7.0676165819168091e-01" nType="0">
              <Node pos="l" depth="4" NCoef="0" IVar="0" Cut="2.0758609473705292e-01" cType="1" res="2.6954220607876778e-02" rms="4.2763000726699829e-01" purity="7.1344286203384399e-01" nType="0">
                <Node pos="l" depth="5" NCoef="0" IVar="5" Cut="-2.1142339706420898e+00" cType="1" res="3.2616678625345230e-02" rms="4.0406206250190735e-01" purity="7.7964520454406738e-01" nType="0">
                  <Node pos="l" depth="6" NCoef="0" IVar="4" Cut="-1.1567456722259521e+00" cType="1" res="3.6880720406770706e-02" rms="3.8438248634338379e-01" purity="8.1222218275070190e-01" nType="0">
                    <Node pos="l" depth="7" NCoef="0" IVar="-1" Cut="0.0000000000000000e+00" cType="1" res="2.8837828431278467e-03" rms="4.1598212718963623e-01" purity="7.6848644018173218e-01" nType="-99"/>
                    <Node pos="r" depth="7" NCoef="0" IVar="-1" Cut="0.0000000000000000e+00" cType="1" res="5.2305739372968674e-03" rms="3.5950464010238647e-01" purity="8.4407573938369751e-01" nType="-99"/>
                  </Node>
                  <Node pos="r" depth="6" NCoef="0" IVar="3" Cut="9.6324515342712402e-01" cType="1" res="2.2334894165396690e-02" rms="4.4780641794204712e-01" purity="7.0109319686889648e-01" nType="0">
                    <Node pos="l" depth="7" NCoef="0" IVar="-1" Cut="0.0000000000000000e+00" cType="1" res="1.1282027699053288e-03" rms="4.6731069684028625e-01" purity="6.5230965614318848e-01" nType="-99"/>
                    <Node pos="r" depth="7" NCoef="0" IVar="-1" Cut="0.0000000000000000e+00" cType="1" res="3.2088714651763439e-03" rms="4.2633455991744995e-01" purity="7.5182032585144043e-01" nType="-99"/>
                  </Node>
                </Node>
                <Node pos="r" depth="5" NCoef="0" IVar="6" Cut="1.0317134857177734e-01" cType="1" res="1.3448081910610199e-02" rms="4.7891718149185181e-01" purity="5.5553656816482544e-01" nType="0">
                  <Node pos="l" depth="6" NCoef="0" IVar="4" Cut="-2.5199983119964600e+00" cType="1" res="9.5049580559134483e-03" rms="4.7771912813186646e-01" purity="5.5813848972320557e-01" nType="0">
                    <Node pos="l" depth="7" NCoef="0" IVar="-1" Cut="0.0000000000000000e+00" cType="1" res="4.7980686649680138e-03" rms="4.6389779448509216e-01" purity="6.4421766996383667e-01" nType="-99"/>
                    <Node pos="r" depth="7" NCoef="0" IVar="-1" Cut="0.0000000000000000e+00" cType="1" res="5.4286135127767920e-04" rms="4.7869583964347839e-01" purity="5.5084449052810669e-01" nType="-99"/>
                  </Node>
                  <Node pos="r" depth="6" NCoef="0" IVar="-1" Cut="0.0000000000000000e+00" cType="1" res="4.1779926978051662e-03" rms="4.8801559209823608e-01" purity="5.3247904777526855e-01" nType="-99"/>
                </Node>
              </Node>
              <Node pos="r" depth="4" NCoef="0" IVar="-1" Cut="0.0000000000000000e+00" cType="1" res="-3.7692207843065262e-03" rms="4.6699833869934082e-01" purity="3.5058495402336121e-01" nType="-99"/>
            </Node>
            <Node pos="r" depth="3" NCoef="0" IVar="3" Cut="9.8906880617141724e-01" cType="1" res="-2.6684741023927927e-03" rms="4.7139152884483337e-01" purity="4.9366083741188049e-01" nType="0">
              <Node pos="l" depth="4" NCoef="0" IVar="6" Cut="2.5639466941356659e-02" cType="1" res="-1.2533071450889111e-02" rms="4.7558170557022095e-01" purity="4.2564001679420471e-01" nType="0">
                <Node pos="l" depth="5" NCoef="0" IVar="-1" Cut="0.0000000000000000e+00" cType="1" res="-3.8120362441986799e-03" rms="4.7959208488464355e-01" purity="4.5999392867088318e-01" nType="-99"/>
                <Node pos="r" depth="5" NCoef="0" IVar="1" Cut="2.0568726062774658e+00" cType="1" res="-1.6700860578566790e-03" rms="4.7360947728157043e-01" purity="4.1272455453872681e-01" nType="0">
                  <Node pos="l" depth="6" NCoef="0" IVar="6" Cut="5.6738313287496567e-02" cType="1" res="1.2954199686646461e-02" rms="4.8030546307563782e-01" purity="4.3976262211799622e-01" nType="0">
                    <Node pos="l" depth="7" NCoef="0" IVar="-1" Cut="0.0000000000000000e+00" cType="1" res="-2.6111656916327775e-04" rms="4.8059442639350891e-01" purity="4.5915323495864868e-01" nType="-99"/>
                    <Node pos="r" depth="7" NCoef="0" IVar="-1" Cut="0.0000000000000000e+00" cType="1" res="2.7402013074606657e-03" rms="4.7949010133743286e-01" purity="4.2016419768333435e-01" nType="-99"/>
                  </Node>
                  <Node pos="r" depth="6" NCoef="0" IVar="-1" Cut="0.0000000000000000e+00" cType="1" res="-1.8698559142649174e-03" rms="4.6504589915275574e-01" purity="3.8100633025169373e-01" nType="-99"/>
                </Node>
              </Node>
              <Node pos="r" depth="4" NCoef="0" IVar="5" Cut="-2.3115954399108887e+00" cType="1" res="1.4951221644878387e-02" rms="4.6329072117805481e-01" purity="6.1515659093856812e-01" nType="0">
                <Node pos="l" depth="5" NCoef="0" IVar="-1" Cut="0.0000000000000000e+00" cType="1" res="2.2828814107924700e-03" rms="4.5373257994651794e-01" purity="6.7763757705688477e-01" nType="-99"/>
                <Node pos="r" depth="5" NCoef="0" IVar="-1" Cut="0.0000000000000000e+00" cType="1" res="-3.4959969343617558e-04" rms="4.7913056612014771e-01" purity="5.0474977493286133e-01" nType="-99"/>
              </Node>
            </Node>
          </Node>
          <Node pos="r" depth="2" NCoef="0" IVar="-1" Cut="0.0000000000000000e+00" cType="1" res="-7.5732972472906113e-03" rms="3.9713954925537109e-01" purity="2.4599839746952057e-01" nType="-99"/>
        </Node>
      </Node>
    </BinaryTree>
    <BinaryTree type="DecisionTree" boostWeight="1.0000000000000000e+00" itree="61">
      <Node pos="s" depth="0" NCoef="0" IVar="3" Cut="7.8043156862258911e-01" cType="1" res="7.8675616532564163e-03" rms="4.0191987156867981e-01" purity="5.0046008825302124e-01" nType="0">
        <Node pos="l" depth="1" NCoef="0" IVar="1" Cut="1.1247865855693817e-01" cType="1" res="-8.4825241938233376e-03" rms="3.8482600450515747e-01" purity="2.6093658804893494e-01" nType="0">
          <Node pos="l" depth="2" NCoef="0" IVar="5" Cut="1.0820271819829941e-01" cType="1" res="5.5733206681907177e-03" rms="4.3563646078109741e-01" purity="3.9550420641899109e-01" nType="0">
            <Node pos="l" depth="3" NCoef="0" IVar="6" Cut="6.3265517354011536e-02" cType="1" res="9.4994623214006424e-03" rms="4.5105394721031189e-01" purity="4.3183162808418274e-01" nType="0">
              <Node pos="l" depth="4" NCoef="0" IVar="2" Cut="4.7964706420898438e+01" cType="1" res="-7.8408457338809967e-03" rms="4.5572215318679810e-01" purity="4.6037191152572632e-01" nType="0">
                <Node pos="l" depth="5" NCoef="0" IVar="-1" Cut="0.0000000000000000e+00" cType="1" res="2.0331235136836767e-03" rms="4.6471679210662842e-01" purity="5.4078882932662964e-01" nType="-99"/>
                <Node pos="r" depth="5" NCoef="0" IVar="6" Cut="3.6579214036464691e-02" cType="1" res="-1.8612550571560860e-02" rms="4.5195820927619934e-01" purity="4.3144696950912476e-01" nType="0">
                  <Node pos="l" depth="6" NCoef="0" IVar="-1" Cut="0.0000000000000000e+00" cType="1" res="-4.7165867872536182e-03" rms="4.5380622148513794e-01" purity="4.0470945835113525e-01" nType="-99"/>
                  <Node pos="r" depth="6" NCoef="0" IVar="2" Cut="1.3056282043457031e+02" cType="1" res="-8.2910116761922836e-03" rms="4.5079138875007629e-01" purity="4.4242703914642334e-01" nType="0">
                    <Node pos="l" depth="7" NCoef="0" IVar="-1" Cut="0.0000000000000000e+00" cType="1" res="1.2449971400201321e-03" rms="4.5606222748756409e-01" purity="4.8846408724784851e-01" nType="-99"/>
                    <Node pos="r" depth="7" NCoef="0" IVar="-1" Cut="0.0000000000000000e+00" cType="1" res="-2.9796338640153408e-03" rms="4.4509467482566833e-01" purity="4.0034663677215576e-01" nType="-99"/>
                  </Node>
                </Node>
              </Node>
              <Node pos="r" depth="4" NCoef="0" IVar="2" Cut="2.6731436157226562e+02" cType="1" res="1.9553754478693008e-02" rms="4.4801765680313110e-01" purity="4.1528338193893433e-01" nType="0">
                <Node pos="l" depth="5" NCoef="0" IVar="2" Cut="1.6190400695800781e+02" cType="1" res="4.2507164180278778e-02" rms="4.5917955040931702e-01" purity="4.8527234792709351e-01" nType="0">
                  <Node pos="l" depth="6" NCoef="0" IVar="4" Cut="-2.7739254757761955e-02" cType="1" res="5.5704791098833084e-02" rms="4.6491736173629761e-01" purity="5.3853875398635864e-01" nType="0">
                    <Node pos="l" depth="7" NCoef="0" IVar="-1" Cut="0.0000000000000000e+00" cType="1" res="3.8288515061140060e-03" rms="4.6165797114372253e-01" purity="5.6708616018295288e-01" nType="-99"/>
                    <Node pos="r" depth="7" NCoef="0" IVar="-1" Cut="0.0000000000000000e+00" cType="1" res="6.2695401720702648e-03" rms="4.6789744496345520e-01" purity="5.0959599018096924e-01" nType="-99"/>
                  </Node>
                  <Node pos="r" depth="6" NCoef="0" IVar="2" Cut="2.1289085388183594e+02" cType="1" res="2.8624009341001511e-02" rms="4.5265018939971924e-01" purity="4.2923915386199951e-01" nType="0">
                    <Node pos="l" depth="7" NCoef="0" IVar="-1" Cut="0.0000000000000000e+00" cType="1" res="3.2683925237506628e-03" rms="4.5649215579032898e-01" purity="4.4027337431907654e-01" nType="-99"/>
                    <Node pos="r" depth="7" NCoef="0" IVar="-1" Cut="0.0000000000000000e+00" cType="1" res="2.8829050716012716e-03" rms="4.4899311661720276e-01" purity="4.1885334253311157e-01" nType="-99"/>
                  </Node>
                </Node>
                <Node pos="r" depth="5" NCoef="0" IVar="6" Cut="1.1623557657003403e-01" cType="1" res="-4.7419434413313866e-03" rms="4.3457296490669250e-01" purity="3.4120148420333862e-01" nType="0">
                  <Node pos="l" depth="6" NCoef="0" IVar="-1" Cut="0.0000000000000000e+00" cType="1" res="-1.8274077447131276e-03" rms="4.4320359826087952e-01" purity="3.9153704047203064e-01" nType="-99"/>
                  <Node pos="r" depth="6" NCoef="0" IVar="3" Cut="4.3305540084838867e-01" cType="1" res="4.4201686978340149e-03" rms="4.2735591530799866e-01" purity="3.0112862586975098e-01" nType="0">
                    <Node pos="l" depth="7" NCoef="0" IVar="-1" Cut="0.0000000000000000e+00" cType="1" res="-1.9633884076029062e-03" rms="3.7140545248985291e-01" purity="1.8062146008014679e-01" nType="-99"/>
                    <Node pos="r" depth="7" NCoef="0" IVar="-1" Cut="0.0000000000000000e+00" cType="1" res="2.0223073661327362e-03" rms="4.7752806544303894e-01" purity="4.2489880323410034e-01" nType="-99"/>
                  </Node>
                </Node>
              </Node>
            </Node>
            <Node pos="r" depth="3" NCoef="0" IVar="-1" Cut="0.0000000000000000e+00" cType="1" res="-7.3672314174473286e-03" rms="2.7329808473587036e-01" purity="9.2860989272594452e-02" nType="-99"/>
          </Node>
          <Node pos="r" depth="2" NCoef="0" IVar="6" Cut="8.9814715087413788e-02" cType="1" res="-1.4305531047284603e-02" rms="3.6153137683868408e-01" purity="2.0518836379051208e-01" nType="0">
            <Node pos="l" depth="3" NCoef="0" IVar="4" Cut="5.4766213893890381e-01" cType="1" res="-2.1918069571256638e-02" rms="3.7111803889274597e-01" purity="2.2800315916538239e-01" nType="0">
              <Node pos="l" depth="4" NCoef="0" IVar="4" Cut="-2.3359429836273193e+00" cType="1" res="-1.6465978696942329e-02" rms="4.0119358897209167e-01" purity="2.7301025390625000e-01" nType="0">
                <Node pos="l" depth="5" NCoef="0" IVar="-1" Cut="0.0000000000000000e+00" cType="1" res="1.7940240213647485e-03" rms="4.4447159767150879e-01" purity="4.0400281548500061e-01" nType="-99"/>
                <Node pos="r" depth="5" NCoef="0" IVar="7" Cut="3.0000000000000000e+00" cType="1" res="-2.0670002326369286e-02" rms="3.9384531974792480e-01" purity="2.5667902827262878e-01" nType="0">
                  <Node pos="l" depth="6" NCoef="0" IVar="6" Cut="5.8024298399686813e-02" cType="1" res="-3.8519773632287979e-02" rms="4.4072356820106506e-01" purity="3.3196732401847839e-01" nType="0">
                    <Node pos="l" depth="7" NCoef="0" IVar="-1" Cut="0.0000000000000000e+00" cType="1" res="-6.2568611465394497e-03" rms="4.3147820234298706e-01" purity="2.9630896449089050e-01" nType="-99"/>
                    <Node pos="r" depth="7" NCoef="0" IVar="-1" Cut="0.0000000000000000e+00" cType="1" res="-2.1453378722071648e-03" rms="4.4994211196899414e-01" purity="3.7104067206382751e-01" nType="-99"/>
                  </Node>
                  <Node pos="r" depth="6" NCoef="0" IVar="2" Cut="8.5872276306152344e+01" cType="1" res="-1.5340507961809635e-02" rms="3.8095271587371826e-01" purity="2.3488579690456390e-01" nType="0">
                    <Node pos="l" depth="7" NCoef="0" IVar="-1" Cut="0.0000000000000000e+00" cType="1" res="-2.5724628358148038e-04" rms="4.0313073992729187e-01" purity="2.7136161923408508e-01" nType="-99"/>
                    <Node pos="r" depth="7" NCoef="0" IVar="-1" Cut="0.0000000000000000e+00" cType="1" res="-3.8456562906503677e-03" rms="3.6629065871238708e-01" purity="2.1228718757629395e-01" nType="-99"/>
                  </Node>
                </Node>
              </Node>
              <Node pos="r" depth="4" NCoef="0" IVar="3" Cut="5.0803154706954956e-01" cType="1" res="-3.9050891995429993e-02" rms="2.5367340445518494e-01" purity="8.6571365594863892e-02" nType="0">
                <Node pos="l" depth="5" NCoef="0" IVar="5" Cut="1.2314310669898987e-01" cType="1" res="-3.3811323344707489e-02" rms="1.5099991858005524e-01" purity="2.4631878361105919e-02" nType="0">
                  <Node pos="l" depth="6" NCoef="0" IVar="-1" Cut="0.0000000000000000e+00" cType="1" res="-1.4167251996695995e-02" rms="1.9556117057800293e-01" purity="4.2045030742883682e-02" nType="-99"/>
                  <Node pos="r" depth="6" NCoef="0" IVar="-1" Cut="0.0000000000000000e+00" cType="1" res="-2.1945158019661903e-02" rms="1.0334531962871552e-01" purity="1.0979723185300827e-02" nType="-99"/>
                </Node>
                <Node pos="r" depth="5" NCoef="0" IVar="-1" Cut="0.0000000000000000e+00" cType="1" res="-6.9438195787370205e-03" rms="3.7655752897262573e-01" purity="2.0224216580390930e-01" nType="-99"/>
              </Node>
            </Node>
            <Node pos="r" depth="3" NCoef="0" IVar="0" Cut="1.2901257276535034e+00" cType="1" res="-6.5255314111709595e-03" rms="3.5129329562187195e-01" purity="1.8187169730663300e-01" nType="0">
              <Node pos="l" depth="4" NCoef="0" IVar="2" Cut="3.6500924682617188e+02" cType="1" res="6.3999802805483341e-03" rms="4.2518094182014465e-01" purity="2.9564020037651062e-01" nType="0">
                <Node pos="l" depth="5" NCoef="0" IVar="3" Cut="6.3273537158966064e-01" cType="1" res="2.0923130214214325e-02" rms="4.3696880340576172e-01" purity="3.2945403456687927e-01" nType="0">
                  <Node pos="l" depth="6" NCoef="0" IVar="6" Cut="1.3913366198539734e-01" cType="1" res="1.1692299507558346e-02" rms="4.2083320021629333e-01" purity="2.6995459198951721e-01" nType="0">
                    <Node pos="l" depth="7" NCoef="0" IVar="-1" Cut="0.0000000000000000e+00" cType="1" res="-1.5753829211462289e-04" rms="4.1364672780036926e-01" purity="2.5415867567062378e-01" nType="-99"/>
                    <Node pos="r" depth="7" NCoef="0" IVar="-1" Cut="0.0000000000000000e+00" cType="1" res="4.6565816737711430e-03" rms="4.3336102366447449e-01" purity="3.0062261223793030e-01" nType="-99"/>
                  </Node>
                  <Node pos="r" depth="6" NCoef="0" IVar="-1" Cut="0.0000000000000000e+00" cType="1" res="4.3685310520231724e-03" rms="4.8381540179252625e-01" purity="5.1980328559875488e-01" nType="-99"/>
                </Node>
                <Node pos="r" depth="5" NCoef="0" IVar="6" Cut="1.4937470853328705e-01" cType="1" res="-1.4685088768601418e-02" rms="4.0653815865516663e-01" purity="2.4654845893383026e-01" nType="0">
                  <Node pos="l" depth="6" NCoef="0" IVar="-1" Cut="0.0000000000000000e+00" cType="1" res="-3.7814870011061430e-03" rms="4.0637966990470886e-01" purity="2.5158309936523438e-01" nType="-99"/>
                  <Node pos="r" depth="6" NCoef="0" IVar="-1" Cut="0.0000000000000000e+00" cType="1" res="5.3281011059880257e-04" rms="4.0604141354560852e-01" purity="2.3953934013843536e-01" nType="-99"/>
                </Node>
              </Node>
              <Node pos="r" depth="4" NCoef="0" IVar="6" Cut="2.1878102421760559e-01" cType="1" res="-1.6845811158418655e-02" rms="2.7813479304313660e-01" purity="9.1034054756164551e-02" nType="0">
                <Node pos="l" depth="5" NCoef="0" IVar="2" Cut="2.0664491271972656e+02" cType="1" res="-2.1146630868315697e-02" rms="2.5533267855644226e-01" purity="7.5514301657676697e-02" nType="0">
                  <Node pos="l" depth="6" NCoef="0" IVar="6" Cut="1.1889433115720749e-01" cType="1" res="-9.0646147727966309e-03" rms="2.8027990460395813e-01" purity="9.3905612826347351e-02" nType="0">
                    <Node pos="l" depth="7" NCoef="0" IVar="-1" Cut="0.0000000000000000e+00" cType="1" res="-7.4478215537965298e-03" rms="2.5172835588455200e-01" purity="7.2605423629283905e-02" nType="-99"/>
                    <Node pos="r" depth="7" NCoef="0" IVar="-1" Cut="0.0000000000000000e+00" cType="1" res="2.9320435714907944e-04" rms="3.0315309762954712e-01" purity="1.1291939765214920e-01" nType="-99"/>
                  </Node>
                  <Node pos="r" depth="6" NCoef="0" IVar="3" Cut="3.8534522056579590e-01" cType="1" res="-2.6246398687362671e-02" rms="2.4385875463485718e-01" purity="6.7751407623291016e-02" nType="0">
                    <Node pos="l" depth="7" NCoef="0" IVar="-1" Cut="0.0000000000000000e+00" cType="1" res="-9.2583429068326950e-03" rms="2.2432705760002136e-01" purity="5.5774915963411331e-02" nType="-99"/>
                    <Node pos="r" depth="7" NCoef="0" IVar="-1" Cut="0.0000000000000000e+00" cType="1" res="-8.3111161366105080e-03" rms="3.1258973479270935e-01" purity="1.1812331527471542e-01" nType="-99"/>
                  </Node>
                </Node>
                <Node pos="r" depth="5" NCoef="0" IVar="-1" Cut="0.0000000000000000e+00" cType="1" res="2.2129560238681734e-04" rms="3.5714071989059448e-01" purity="1.5557630360126495e-01" nType="-99"/>
              </Node>
            </Node>
          </Node>
        </Node>
        <Node pos="r" depth="1" NCoef="0" IVar="5" Cut="-5.5832844972610474e-01" cType="1" res="2.4070793762803078e-02" rms="4.1754022240638733e-01" purity="7.3783230781555176e-01" nType="0">
          <Node pos="l" depth="2" NCoef="0" IVar="5" Cut="-2.4577941894531250e+00" cType="1" res="2.6418291032314301e-02" rms="4.1459333896636963e-01" purity="7.5063198804855347e-01" nType="0">
            <Node pos="l" depth="3" NCoef="0" IVar="4" Cut="-2.8868949413299561e+00" cType="1" res="3.4502357244491577e-02" rms="3.9206340909004211e-01" purity="7.9283785820007324e-01" nType="0">
              <Node pos="l" depth="4" NCoef="0" IVar="-1" Cut="0.0000000000000000e+00" cType="1" res="6.9479416124522686e-03" rms="3.8413900136947632e-01" purity="8.0775564908981323e-01" nType="-99"/>
              <Node pos="r" depth="4" NCoef="0" IVar="4" Cut="-1.5159267187118530e+00" cType="1" res="3.2320063561201096e-02" rms="3.9257299900054932e-01" purity="7.9170459508895874e-01" nType="0">
                <Node pos="l" depth="5" NCoef="0" IVar="6" Cut="1.2216324917972088e-02" cType="1" res="2.0127361640334129e-02" rms="4.2898038029670715e-01" purity="7.3589819669723511e-01" nType="0">
                  <Node pos="l" depth="6" NCoef="0" IVar="3" Cut="9.9915277957916260e-01" cType="1" res="4.1408804245293140e-03" rms="4.3041124939918518e-01" purity="7.3457068204879761e-01" nType="0">
                    <Node pos="l" depth="7" NCoef="0" IVar="-1" Cut="0.0000000000000000e+00" cType="1" res="-2.9458445496857166e-03" rms="4.4757387042045593e-01" purity="6.9523155689239502e-01" nType="-99"/>
                    <Node pos="r" depth="7" NCoef="0" IVar="-1" Cut="0.0000000000000000e+00" cType="1" res="3.1427256762981415e-03" rms="4.1079613566398621e-01" purity="7.7213090658187866e-01" nType="-99"/>
                  </Node>
                  <Node pos="r" depth="6" NCoef="0" IVar="2" Cut="1.0314713287353516e+02" cType="1" res="3.0907621607184410e-02" rms="4.2767554521560669e-01" purity="7.3679339885711670e-01" nType="0">
                    <Node pos="l" depth="7" NCoef="0" IVar="-1" Cut="0.0000000000000000e+00" cType="1" res="4.4023245573043823e-03" rms="4.1836297512054443e-01" purity="7.5484371185302734e-01" nType="-99"/>
                    <Node pos="r" depth="7" NCoef="0" IVar="-1" Cut="0.0000000000000000e+00" cType="1" res="1.2089979136362672e-03" rms="4.4032680988311768e-01" purity="7.1021693944931030e-01" nType="-99"/>
                  </Node>
                </Node>
                <Node pos="r" depth="5" NCoef="0" IVar="1" Cut="1.2501233816146851e+00" cType="1" res="3.7111341953277588e-02" rms="3.7719815969467163e-01" purity="8.1363439559936523e-01" nType="0">
                  <Node pos="l" depth="6" NCoef="0" IVar="3" Cut="9.7058969736099243e-01" cType="1" res="3.9926335215568542e-02" rms="3.6633181571960449e-01" purity="8.3159875869750977e-01" nType="0">
                    <Node pos="l" depth="7" NCoef="0" IVar="-1" Cut="0.0000000000000000e+00" cType="1" res="2.5471602566540241e-03" rms="4.1453269124031067e-01" purity="7.6483500003814697e-01" nType="-99"/>
                    <Node pos="r" depth="7" NCoef="0" IVar="-1" Cut="0.0000000000000000e+00" cType="1" res="5.4249837994575500e-03" rms="3.5371950268745422e-01" purity="8.4757608175277710e-01" nType="-99"/>
                  </Node>
                  <Node pos="r" depth="6" NCoef="0" IVar="-1" Cut="0.0000000000000000e+00" cType="1" res="1.0374903213232756e-03" rms="4.6432384848594666e-01" purity="6.4897233247756958e-01" nType="-99"/>
                </Node>
              </Node>
            </Node>
            <Node pos="r" depth="3" NCoef="0" IVar="0" Cut="6.4270263910293579e-01" cType="1" res="1.5684796497225761e-02" rms="4.4251081347465515e-01" purity="6.9459378719329834e-01" nType="0">
              <Node pos="l" depth="4" NCoef="0" IVar="1" Cut="7.2070091962814331e-02" cType="1" res="1.8795305863022804e-02" rms="4.3950170278549194e-01" purity="7.1653217077255249e-01" nType="0">
                <Node pos="l" depth="5" NCoef="0" IVar="4" Cut="1.7010796070098877e-01" cType="1" res="2.8140179812908173e-02" rms="4.1641882061958313e-01" purity="7.6969873905181885e-01" nType="0">
                  <Node pos="l" depth="6" NCoef="0" IVar="5" Cut="-1.9677081108093262e+00" cType="1" res="2.5371333584189415e-02" rms="4.1729339957237244e-01" purity="7.6957303285598755e-01" nType="0">
                    <Node pos="l" depth="7" NCoef="0" IVar="-1" Cut="0.0000000000000000e+00" cType="1" res="3.3636686857789755e-03" rms="3.9666244387626648e-01" purity="8.0116754770278931e-01" nType="-99"/>
                    <Node pos="r" depth="7" NCoef="0" IVar="-1" Cut="0.0000000000000000e+00" cType="1" res="1.9657912198454142e-03" rms="4.3740892410278320e-01" purity="7.3711639642715454e-01" nType="-99"/>
                  </Node>
                  <Node pos="r" depth="6" NCoef="0" IVar="-1" Cut="0.0000000000000000e+00" cType="1" res="4.6170828863978386e-03" rms="4.1108340024948120e-01" purity="7.7041035890579224e-01" nType="-99"/>
                </Node>
                <Node pos="r" depth="5" NCoef="0" IVar="1" Cut="1.6666121482849121e+00" cType="1" res="9.8686804994940758e-03" rms="4.6029502153396606e-01" purity="6.6574513912200928e-01" nType="0">
                  <Node pos="l" depth="6" NCoef="0" IVar="3" Cut="9.7646695375442505e-01" cType="1" res="1.4714571647346020e-02" rms="4.5579409599304199e-01" purity="6.8706971406936646e-01" nType="0">
                    <Node pos="l" depth="7" NCoef="0" IVar="-1" Cut="0.0000000000000000e+00" cType="1" res="6.5438286401331425e-04" rms="4.7070145606994629e-01" purity="6.4691162109375000e-01" nType="-99"/>
                    <Node pos="r" depth="7" NCoef="0" IVar="-1" Cut="0.0000000000000000e+00" cType="1" res="2.1706491243094206e-03" rms="4.3974724411964417e-01" purity="7.2850227355957031e-01" nType="-99"/>
                  </Node>
                  <Node pos="r" depth="6" NCoef="0" IVar="-1" Cut="0.0000000000000000e+00" cType="1" res="-2.0018888171762228e-03" rms="4.8872947692871094e-01" purity="5.1965183019638062e-01" nType="-99"/>
                </Node>
              </Node>
              <Node pos="r" depth="4" NCoef="0" IVar="-1" Cut="0.0000000000000000e+00" cType="1" res="-2.3550889454782009e-03" rms="4.7829180955886841e-01" purity="4.0751236677169800e-01" nType="-99"/>
            </Node>
          </Node>
          <Node pos="r" depth="2" NCoef="0" IVar="4" Cut="3.0343344807624817e-01" cType="1" res="-2.7738334611058235e-02" rms="4.7503051161766052e-01" purity="4.5534357428550720e-01" nType="0">
            <Node pos="l" depth="3" NCoef="0" IVar="-1" Cut="0.0000000000000000e+00" cType="1" res="-5.5957242147997022e-04" rms="4.8694452643394470e-01" purity="5.0954669713973999e-01" nType="-99"/>
            <Node pos="r" depth="3" NCoef="0" IVar="-1" Cut="0.0000000000000000e+00" cType="1" res="-4.6718399971723557e-03" rms="4.6276304125785828e-01" purity="4.0483748912811279e-01" nType="-99"/>
          </Node>
        </Node>
      </Node>
    </BinaryTree>
    <BinaryTree type="DecisionTree" boostWeight="1.0000000000000000e+00" itree="62">
      <Node pos="s" depth="0" NCoef="0" IVar="3" Cut="6.4561271667480469e-01" cType="1" res="7.2337095625698566e-03" rms="4.0115636587142944e-01" purity="5.0037783384323120e-01" nType="0">
        <Node pos="l" depth="1" NCoef="0" IVar="6" Cut="1.0270782560110092e-01" cType="1" res="-1.3377870433032513e-02" rms="3.4395200014114380e-01" purity="1.6951906681060791e-01" nType="0">
          <Node pos="l" depth="2" NCoef="0" IVar="2" Cut="1.1867803192138672e+02" cType="1" res="-2.2087616845965385e-02" rms="3.3176463842391968e-01" purity="1.5716661512851715e-01" nType="0">
            <Node pos="l" depth="3" NCoef="0" IVar="3" Cut="4.6714255213737488e-01" cType="1" res="-1.2155885808169842e-02" rms="3.5326868295669556e-01" purity="1.8406346440315247e-01" nType="0">
              <Node pos="l" depth="4" NCoef="0" IVar="5" Cut="-2.8572919368743896e+00" cType="1" res="-2.5802353397011757e-02" rms="2.3940201103687286e-01" purity="6.3423365354537964e-02" nType="0">
                <Node pos="l" depth="5" NCoef="0" IVar="-1" Cut="0.0000000000000000e+00" cType="1" res="-1.5203845687210560e-02" rms="2.2669804096221924e-01" purity="5.4924361407756805e-02" nType="-99"/>
                <Node pos="r" depth="5" NCoef="0" IVar="5" Cut="-1.8940796852111816e+00" cType="1" res="-1.7506644129753113e-02" rms="2.4385228753089905e-01" purity="6.6853709518909454e-02" nType="0">
                  <Node pos="l" depth="6" NCoef="0" IVar="-1" Cut="0.0000000000000000e+00" cType="1" res="-9.7252479463350028e-05" rms="3.0970901250839233e-01" purity="1.1077421158552170e-01" nType="-99"/>
                  <Node pos="r" depth="6" NCoef="0" IVar="-1" Cut="0.0000000000000000e+00" cType="1" res="-1.2280430644750595e-02" rms="1.9837987422943115e-01" purity="4.2925562709569931e-02" nType="-99"/>
                </Node>
              </Node>
              <Node pos="r" depth="4" NCoef="0" IVar="7" Cut="4.0000000000000000e+00" cType="1" res="1.5746091958135366e-03" rms="4.3727168440818787e-01" purity="3.0584684014320374e-01" nType="0">
                <Node pos="l" depth="5" NCoef="0" IVar="6" Cut="4.6491835266351700e-02" cType="1" res="-2.4127526208758354e-02" rms="4.2787101864814758e-01" purity="2.7175727486610413e-01" nType="0">
                  <Node pos="l" depth="6" NCoef="0" IVar="-1" Cut="0.0000000000000000e+00" cType="1" res="-6.2204222194850445e-03" rms="4.0375253558158875e-01" purity="2.2357533872127533e-01" nType="-99"/>
                  <Node pos="r" depth="6" NCoef="0" IVar="-1" Cut="0.0000000000000000e+00" cType="1" res="-3.3746726694516838e-04" rms="4.4768968224525452e-01" purity="3.1568384170532227e-01" nType="-99"/>
                </Node>
                <Node pos="r" depth="5" NCoef="0" IVar="6" Cut="4.7042232006788254e-02" cType="1" res="2.8838528320193291e-02" rms="4.4846177101135254e-01" purity="3.4188425540924072e-01" nType="0">
                  <Node pos="l" depth="6" NCoef="0" IVar="-1" Cut="0.0000000000000000e+00" cType="1" res="1.3927990803495049e-03" rms="4.4082453846931458e-01" purity="3.1013721227645874e-01" nType="-99"/>
                  <Node pos="r" depth="6" NCoef="0" IVar="-1" Cut="0.0000000000000000e+00" cType="1" res="5.1053096540272236e-03" rms="4.5548179745674133e-01" purity="3.7441840767860413e-01" nType="-99"/>
                </Node>
              </Node>
            </Node>
            <Node pos="r" depth="3" NCoef="0" IVar="7" Cut="4.0000000000000000e+00" cType="1" res="-2.9732072725892067e-02" rms="3.1198197603225708e-01" purity="1.3533802330493927e-01" nType="0">
              <Node pos="l" depth="4" NCoef="0" IVar="6" Cut="6.2942780554294586e-02" cType="1" res="-4.1979387402534485e-02" rms="3.5542762279510498e-01" purity="1.7230798304080963e-01" nType="0">
                <Node pos="l" depth="5" NCoef="0" IVar="-1" Cut="0.0000000000000000e+00" cType="1" res="-1.1312881484627724e-02" rms="3.1994482874870300e-01" purity="1.2889957427978516e-01" nType="-99"/>
                <Node pos="r" depth="5" NCoef="0" IVar="2" Cut="2.4503138732910156e+02" cType="1" res="-3.2368272542953491e-02" rms="3.7044182419776917e-01" purity="1.9257488846778870e-01" nType="0">
                  <Node pos="l" depth="6" NCoef="0" IVar="-1" Cut="0.0000000000000000e+00" cType="1" res="-2.6587166357785463e-03" rms="3.8994252681732178e-01" purity="2.2094888985157013e-01" nType="-99"/>
                  <Node pos="r" depth="6" NCoef="0" IVar="-1" Cut="0.0000000000000000e+00" cType="1" res="-7.6846615411341190e-03" rms="3.5111215710639954e-01" purity="1.6660223901271820e-01" nType="-99"/>
                </Node>
              </Node>
              <Node pos="r" depth="4" NCoef="0" IVar="3" Cut="5.4336017370223999e-01" cType="1" res="-2.4834914132952690e-02" rms="2.9178902506828308e-01" purity="1.1873661726713181e-01" nType="0">
                <Node pos="l" depth="5" NCoef="0" IVar="3" Cut="4.0614426136016846e-01" cType="1" res="-2.9899815097451210e-02" rms="2.4060176312923431e-01" purity="6.7908957600593567e-02" nType="0">
                  <Node pos="l" depth="6" NCoef="0" IVar="5" Cut="-7.0118582248687744e-01" cType="1" res="-3.5250682383775711e-02" rms="1.6080315411090851e-01" purity="2.6832720264792442e-02" nType="0">
                    <Node pos="l" depth="7" NCoef="0" IVar="-1" Cut="0.0000000000000000e+00" cType="1" res="-1.6305815428495407e-02" rms="1.8080811202526093e-01" purity="3.4061931073665619e-02" nType="-99"/>
                    <Node pos="r" depth="7" NCoef="0" IVar="-1" Cut="0.0000000000000000e+00" cType="1" res="-2.0357489585876465e-02" rms="1.1329870671033859e-01" purity="1.3121478259563446e-02" nType="-99"/>
                  </Node>
                  <Node pos="r" depth="6" NCoef="0" IVar="0" Cut="9.6698099374771118e-01" cType="1" res="-2.0833030343055725e-02" rms="3.3471539616584778e-01" purity="1.3751062750816345e-01" nType="0">
                    <Node pos="l" depth="7" NCoef="0" IVar="-1" Cut="0.0000000000000000e+00" cType="1" res="-5.6864395737648010e-03" rms="3.6291933059692383e-01" purity="1.6810818016529083e-01" nType="-99"/>
                    <Node pos="r" depth="7" NCoef="0" IVar="-1" Cut="0.0000000000000000e+00" cType="1" res="-1.9666105508804321e-03" rms="3.0567011237144470e-01" purity="1.0914024710655212e-01" nType="-99"/>
                  </Node>
                </Node>
                <Node pos="r" depth="5" NCoef="0" IVar="-1" Cut="0.0000000000000000e+00" cType="1" res="-2.7065453468821943e-04" rms="4.5278376340866089e-01" purity="3.4346008300781250e-01" nType="-99"/>
              </Node>
            </Node>
          </Node>
          <Node pos="r" depth="2" NCoef="0" IVar="3" Cut="4.4093847274780273e-01" cType="1" res="-4.3298844248056412e-03" rms="3.5594570636749268e-01" purity="1.8235121667385101e-01" nType="0">
            <Node pos="l" depth="3" NCoef="0" IVar="6" Cut="2.7379146218299866e-01" cType="1" res="-1.1739271692931652e-02" rms="3.0617895722389221e-01" purity="1.1551087349653244e-01" nType="0">
              <Node pos="l" depth="4" NCoef="0" IVar="5" Cut="-1.5441930294036865e+00" cType="1" res="-1.5607106499373913e-02" rms="2.9392236471176147e-01" purity="1.0563190281391144e-01" nType="0">
                <Node pos="l" depth="5" NCoef="0" IVar="3" Cut="2.4681565165519714e-01" cType="1" res="-6.2758042477071285e-03" rms="3.4542974829673767e-01" purity="1.5161933004856110e-01" nType="0">
                  <Node pos="l" depth="6" NCoef="0" IVar="-1" Cut="0.0000000000000000e+00" cType="1" res="-6.5270783379673958e-03" rms="2.8789535164833069e-01" purity="1.0230915993452072e-01" nType="-99"/>
                  <Node pos="r" depth="6" NCoef="0" IVar="6" Cut="1.7996650934219360e-01" cType="1" res="1.9987353589385748e-03" rms="3.6874747276306152e-01" purity="1.7444801330566406e-01" nType="0">
                    <Node pos="l" depth="7" NCoef="0" IVar="-1" Cut="0.0000000000000000e+00" cType="1" res="-2.0224140025675297e-03" rms="3.3656889200210571e-01" purity="1.3702344894409180e-01" nType="-99"/>
                    <Node pos="r" depth="7" NCoef="0" IVar="-1" Cut="0.0000000000000000e+00" cType="1" res="3.8669058121740818e-03" rms="4.3206053972244263e-01" purity="2.5952878594398499e-01" nType="-99"/>
                  </Node>
                </Node>
                <Node pos="r" depth="5" NCoef="0" IVar="4" Cut="2.8472092151641846e+00" cType="1" res="-2.4503765627741814e-02" rms="2.3415967822074890e-01" purity="6.1786528676748276e-02" nType="0">
                  <Node pos="l" depth="6" NCoef="0" IVar="6" Cut="1.3581806421279907e-01" cType="1" res="-1.9714163616299629e-02" rms="2.6772972941398621e-01" purity="8.1677816808223724e-02" nType="0">
                    <Node pos="l" depth="7" NCoef="0" IVar="-1" Cut="0.0000000000000000e+00" cType="1" res="-1.3969087973237038e-02" rms="1.9762268662452698e-01" purity="4.3071947991847992e-02" nType="-99"/>
                    <Node pos="r" depth="7" NCoef="0" IVar="-1" Cut="0.0000000000000000e+00" cType="1" res="-3.8457924965769053e-03" rms="2.9335272312164307e-01" purity="9.8844081163406372e-02" nType="-99"/>
                  </Node>
                  <Node pos="r" depth="6" NCoef="0" IVar="-1" Cut="0.0000000000000000e+00" cType="1" res="-2.0369112491607666e-02" rms="1.3127587735652924e-01" purity="1.7592879012227058e-02" nType="-99"/>
                </Node>
              </Node>
              <Node pos="r" depth="4" NCoef="0" IVar="-1" Cut="0.0000000000000000e+00" cType="1" res="4.6834838576614857e-03" rms="4.0617388486862183e-01" purity="2.1335436403751373e-01" nType="-99"/>
            </Node>
            <Node pos="r" depth="3" NCoef="0" IVar="2" Cut="2.1166731262207031e+02" cType="1" res="1.0500728152692318e-02" rms="4.3854734301567078e-01" purity="3.1613868474960327e-01" nType="0">
              <Node pos="l" depth="4" NCoef="0" IVar="-1" Cut="0.0000000000000000e+00" cType="1" res="3.8718543946743011e-03" rms="4.5706924796104431e-01" purity="3.6524632573127747e-01" nType="-99"/>
              <Node pos="r" depth="4" NCoef="0" IVar="5" Cut="-1.9556506872177124e+00" cType="1" res="-6.2454590806737542e-04" rms="4.2963054776191711e-01" purity="2.9441639780998230e-01" nType="0">
                <Node pos="l" depth="5" NCoef="0" IVar="-1" Cut="0.0000000000000000e+00" cType="1" res="2.2537626791745424e-03" rms="4.6976563334465027e-01" purity="3.7896013259887695e-01" nType="-99"/>
                <Node pos="r" depth="5" NCoef="0" IVar="5" Cut="-8.2936412096023560e-01" cType="1" res="-1.9763840362429619e-02" rms="3.9042556285858154e-01" purity="2.2096252441406250e-01" nType="0">
                  <Node pos="l" depth="6" NCoef="0" IVar="-1" Cut="0.0000000000000000e+00" cType="1" res="-1.2083323672413826e-03" rms="4.5032891631126404e-01" purity="3.1363716721534729e-01" nType="-99"/>
                  <Node pos="r" depth="6" NCoef="0" IVar="-1" Cut="0.0000000000000000e+00" cType="1" res="-5.7849222794175148e-03" rms="3.2058611512184143e-01" purity="1.2988349795341492e-01" nType="-99"/>
                </Node>
              </Node>
            </Node>
          </Node>
        </Node>
        <Node pos="r" depth="1" NCoef="0" IVar="4" Cut="1.2969845533370972e+00" cType="1" res="1.9168986007571220e-02" rms="4.3037119507789612e-01" purity="6.9196391105651855e-01" nType="0">
          <Node pos="l" depth="2" NCoef="0" IVar="1" Cut="1.2493889331817627e+00" cType="1" res="2.1055530756711960e-02" rms="4.3029966950416565e-01" purity="7.0108723640441895e-01" nType="0">
            <Node pos="l" depth="3" NCoef="0" IVar="0" Cut="9.6536153554916382e-01" cType="1" res="2.4697240442037582e-02" rms="4.2413100600242615e-01" purity="7.2610640525817871e-01" nType="0">
              <Node pos="l" depth="4" NCoef="0" IVar="1" Cut="1.7369286715984344e-01" cType="1" res="2.6085700839757919e-02" rms="4.2229697108268738e-01" purity="7.3592239618301392e-01" nType="0">
                <Node pos="l" depth="5" NCoef="0" IVar="5" Cut="-2.4294185638427734e+00" cType="1" res="3.2238345593214035e-02" rms="4.0714153647422791e-01" purity="7.7026987075805664e-01" nType="0">
                  <Node pos="l" depth="6" NCoef="0" IVar="7" Cut="3.0000000000000000e+00" cType="1" res="3.1027883291244507e-02" rms="3.2620993256568909e-01" purity="8.1343603134155273e-01" nType="0">
                    <Node pos="l" depth="7" NCoef="0" IVar="-1" Cut="0.0000000000000000e+00" cType="1" res="4.1790464892983437e-03" rms="3.7184643745422363e-01" purity="8.2548272609710693e-01" nType="-99"/>
                    <Node pos="r" depth="7" NCoef="0" IVar="-1" Cut="0.0000000000000000e+00" cType="1" res="5.5503700859844685e-03" rms="4.4895923137664795e-01" purity="7.0330888032913208e-01" nType="-99"/>
                  </Node>
                  <Node pos="r" depth="6" NCoef="0" IVar="3" Cut="9.8814010620117188e-01" cType="1" res="2.5575453415513039e-02" rms="4.3786203861236572e-01" purity="7.1725910902023315e-01" nType="0">
                    <Node pos="l" depth="7" NCoef="0" IVar="-1" Cut="0.0000000000000000e+00" cType="1" res="1.9605816341936588e-03" rms="4.5625954866409302e-01" purity="6.7743718624114990e-01" nType="-99"/>
                    <Node pos="r" depth="7" NCoef="0" IVar="-1" Cut="0.0000000000000000e+00" cType="1" res="3.5653740633279085e-03" rms="4.0302610397338867e-01" purity="7.8790932893753052e-01" nType="-99"/>
                  </Node>
                </Node>
                <Node pos="r" depth="5" NCoef="0" IVar="0" Cut="3.1138056889176369e-02" cType="1" res="1.6062516719102859e-02" rms="4.4570285081863403e-01" purity="6.7996752262115479e-01" nType="0">
                  <Node pos="l" depth="6" NCoef="0" IVar="3" Cut="9.9039191007614136e-01" cType="1" res="2.3990394547581673e-02" rms="4.2707592248916626e-01" purity="7.4150276184082031e-01" nType="0">
                    <Node pos="l" depth="7" NCoef="0" IVar="-1" Cut="0.0000000000000000e+00" cType="1" res="1.2669546995311975e-03" rms="4.5168974995613098e-01" purity="6.9165301322937012e-01" nType="-99"/>
                    <Node pos="r" depth="7" NCoef="0" IVar="-1" Cut="0.0000000000000000e+00" cType="1" res="3.6637110169976950e-03" rms="3.9971989393234253e-01" purity="7.9309761524200439e-01" nType="-99"/>
                  </Node>
                  <Node pos="r" depth="6" NCoef="0" IVar="6" Cut="6.4482502639293671e-02" cType="1" res="-2.1672323346138000e-03" rms="4.8534190654754639e-01" purity="5.3847044706344604e-01" nType="0">
                    <Node pos="l" depth="7" NCoef="0" IVar="-1" Cut="0.0000000000000000e+00" cType="1" res="-1.3187617296352983e-03" rms="4.8468309640884399e-01" purity="5.3922456502914429e-01" nType="-99"/>
                    <Node pos="r" depth="7" NCoef="0" IVar="-1" Cut="0.0000000000000000e+00" cType="1" res="2.2162918467074633e-03" rms="4.8573553562164307e-01" purity="5.3676128387451172e-01" nType="-99"/>
                  </Node>
                </Node>
              </Node>
              <Node pos="r" depth="4" NCoef="0" IVar="-1" Cut="0.0000000000000000e+00" cType="1" res="-2.1796731743961573e-03" rms="4.8015859723091125e-01" purity="3.9112424850463867e-01" nType="-99"/>
            </Node>
            <Node pos="r" depth="3" NCoef="0" IVar="5" Cut="-1.7020561695098877e+00" cType="1" res="-6.7631606943905354e-03" rms="4.7386184334754944e-01" purity="5.0996857881546021e-01" nType="0">
              <Node pos="l" depth="4" NCoef="0" IVar="3" Cut="9.8880481719970703e-01" cType="1" res="2.3891364980954677e-04" rms="4.7509476542472839e-01" purity="5.5329692363739014e-01" nType="0">
                <Node pos="l" depth="5" NCoef="0" IVar="6" Cut="3.8054630160331726e-02" cType="1" res="-1.1544347740709782e-02" rms="4.8409965634346008e-01" purity="4.8010024428367615e-01" nType="0">
                  <Node pos="l" depth="6" NCoef="0" IVar="-1" Cut="0.0000000000000000e+00" cType="1" res="-3.6612981930375099e-03" rms="4.8298159241676331e-01" purity="4.8267570137977600e-01" nType="-99"/>
                  <Node pos="r" depth="6" NCoef="0" IVar="-1" Cut="0.0000000000000000e+00" cType="1" res="1.4661897439509630e-03" rms="4.8357835412025452e-01" purity="4.7752293944358826e-01" nType="-99"/>
                </Node>
                <Node pos="r" depth="5" NCoef="0" IVar="4" Cut="-3.6112490296363831e-01" cType="1" res="1.5771761536598206e-02" rms="4.6249836683273315e-01" purity="6.4978569746017456e-01" nType="0">
                  <Node pos="l" depth="6" NCoef="0" IVar="-1" Cut="0.0000000000000000e+00" cType="1" res="-3.2146752346307039e-04" rms="4.7220525145530701e-01" purity="6.1024874448776245e-01" nType="-99"/>
                  <Node pos="r" depth="6" NCoef="0" IVar="-1" Cut="0.0000000000000000e+00" cType="1" res="3.6552171222865582e-03" rms="4.5003464818000793e-01" purity="6.9519531726837158e-01" nType="-99"/>
                </Node>
              </Node>
              <Node pos="r" depth="4" NCoef="0" IVar="-1" Cut="0.0000000000000000e+00" cType="1" res="-2.9355201404541731e-03" rms="4.6903365850448608e-01" purity="3.6710432171821594e-01" nType="-99"/>
            </Node>
          </Node>
          <Node pos="r" depth="2" NCoef="0" IVar="-1" Cut="0.0000000000000000e+00" cType="1" res="-6.8218838423490524e-03" rms="4.2576423287391663e-01" purity="3.0495762825012207e-01" nType="-99"/>
        </Node>
      </Node>
    </BinaryTree>
    <BinaryTree type="DecisionTree" boostWeight="1.0000000000000000e+00" itree="63">
      <Node pos="s" depth="0" NCoef="0" IVar="3" Cut="7.7976024150848389e-01" cType="1" res="7.2771129198372364e-03" rms="4.0139451622962952e-01" purity="5.0004994869232178e-01" nType="0">
        <Node pos="l" depth="1" NCoef="0" IVar="1" Cut="-6.3537470996379852e-02" cType="1" res="-7.9748714342713356e-03" rms="3.8327059149742126e-01" purity="2.5927650928497314e-01" nType="0">
          <Node pos="l" depth="2" NCoef="0" IVar="2" Cut="6.1058273315429688e+01" cType="1" res="9.8473625257611275e-03" rms="4.3738934397697449e-01" purity="4.0906614065170288e-01" nType="0">
            <Node pos="l" depth="3" NCoef="0" IVar="-1" Cut="0.0000000000000000e+00" cType="1" res="3.8140842225402594e-03" rms="4.6265763044357300e-01" purity="5.5879426002502441e-01" nType="-99"/>
            <Node pos="r" depth="3" NCoef="0" IVar="3" Cut="6.0798788070678711e-01" cType="1" res="4.8915697261691093e-03" rms="4.3314826488494873e-01" purity="3.8596919178962708e-01" nType="0">
              <Node pos="l" depth="4" NCoef="0" IVar="6" Cut="1.0959746688604355e-01" cType="1" res="-5.2784336730837822e-03" rms="3.9174154400825500e-01" purity="2.3405565321445465e-01" nType="0">
                <Node pos="l" depth="5" NCoef="0" IVar="6" Cut="7.8221529722213745e-02" cType="1" res="-2.1401254460215569e-02" rms="3.7541663646697998e-01" purity="2.0658017694950104e-01" nType="0">
                  <Node pos="l" depth="6" NCoef="0" IVar="-1" Cut="0.0000000000000000e+00" cType="1" res="-4.8269066028296947e-03" rms="3.6202654242515564e-01" purity="1.8767952919006348e-01" nType="-99"/>
                  <Node pos="r" depth="6" NCoef="0" IVar="-1" Cut="0.0000000000000000e+00" cType="1" res="-1.7342456849291921e-03" rms="3.9113083481788635e-01" purity="2.2996807098388672e-01" nType="-99"/>
                </Node>
                <Node pos="r" depth="5" NCoef="0" IVar="2" Cut="4.1113436889648438e+02" cType="1" res="9.4386469572782516e-03" rms="4.0551128983497620e-01" purity="2.5913557410240173e-01" nType="0">
                  <Node pos="l" depth="6" NCoef="0" IVar="-1" Cut="0.0000000000000000e+00" cType="1" res="3.5056427586823702e-03" rms="4.2146950960159302e-01" purity="2.9975548386573792e-01" nType="-99"/>
                  <Node pos="r" depth="6" NCoef="0" IVar="-1" Cut="0.0000000000000000e+00" cType="1" res="-1.1424116091802716e-03" rms="3.8919201493263245e-01" purity="2.2097067534923553e-01" nType="-99"/>
                </Node>
              </Node>
              <Node pos="r" depth="4" NCoef="0" IVar="6" Cut="8.0599814653396606e-02" cType="1" res="1.7118686810135841e-02" rms="4.7792086005210876e-01" purity="5.6861078739166260e-01" nType="0">
                <Node pos="l" depth="5" NCoef="0" IVar="6" Cut="5.3804427385330200e-02" cType="1" res="3.5112237092107534e-03" rms="4.7908154129981995e-01" purity="5.5902189016342163e-01" nType="0">
                  <Node pos="l" depth="6" NCoef="0" IVar="-1" Cut="0.0000000000000000e+00" cType="1" res="-1.0528169805184007e-03" rms="4.8290053009986877e-01" purity="5.4112303256988525e-01" nType="-99"/>
                  <Node pos="r" depth="6" NCoef="0" IVar="-1" Cut="0.0000000000000000e+00" cType="1" res="1.4520525000989437e-03" rms="4.7560530900955200e-01" purity="5.7360368967056274e-01" nType="-99"/>
                </Node>
                <Node pos="r" depth="5" NCoef="0" IVar="-1" Cut="0.0000000000000000e+00" cType="1" res="3.3044142182916403e-03" rms="4.7539958357810974e-01" purity="5.8321642875671387e-01" nType="-99"/>
              </Node>
            </Node>
          </Node>
          <Node pos="r" depth="2" NCoef="0" IVar="6" Cut="7.7148184180259705e-02" cType="1" res="-1.2575311586260796e-02" rms="3.6787071824073792e-01" purity="2.2061139345169067e-01" nType="0">
            <Node pos="l" depth="3" NCoef="0" IVar="7" Cut="3.0000000000000000e+00" cType="1" res="-2.1826408803462982e-02" rms="3.7833702564239502e-01" purity="2.4773883819580078e-01" nType="0">
              <Node pos="l" depth="4" NCoef="0" IVar="6" Cut="4.5001067221164703e-02" cType="1" res="-4.6493865549564362e-02" rms="4.3046283721923828e-01" purity="3.2312890887260437e-01" nType="0">
                <Node pos="l" depth="5" NCoef="0" IVar="-1" Cut="0.0000000000000000e+00" cType="1" res="-7.5767268426716328e-03" rms="4.2593318223953247e-01" purity="2.9486706852912903e-01" nType="-99"/>
                <Node pos="r" depth="5" NCoef="0" IVar="-1" Cut="0.0000000000000000e+00" cType="1" res="-3.5149985924363136e-03" rms="4.3313944339752197e-01" purity="3.4349316358566284e-01" nType="-99"/>
              </Node>
              <Node pos="r" depth="4" NCoef="0" IVar="2" Cut="5.9053665161132812e+01" cType="1" res="-1.5522583387792110e-02" rms="3.6572170257568359e-01" purity="2.2872716188430786e-01" nType="0">
                <Node pos="l" depth="5" NCoef="0" IVar="3" Cut="5.1167654991149902e-01" cType="1" res="2.5124980602413416e-03" rms="3.9487850666046143e-01" purity="2.8160673379898071e-01" nType="0">
                  <Node pos="l" depth="6" NCoef="0" IVar="-1" Cut="0.0000000000000000e+00" cType="1" res="-5.8782594278454781e-03" rms="2.6929911971092224e-01" purity="8.4182500839233398e-02" nType="-99"/>
                  <Node pos="r" depth="6" NCoef="0" IVar="-1" Cut="0.0000000000000000e+00" cType="1" res="1.9092330476269126e-03" rms="4.7146713733673096e-01" purity="4.4020414352416992e-01" nType="-99"/>
                </Node>
                <Node pos="r" depth="5" NCoef="0" IVar="2" Cut="2.4868923950195312e+02" cType="1" res="-2.2237874567508698e-02" rms="3.5401800274848938e-01" purity="2.0903764665126801e-01" nType="0">
                  <Node pos="l" depth="6" NCoef="0" IVar="6" Cut="4.0610924363136292e-02" cType="1" res="-1.8215460702776909e-02" rms="3.5780847072601318e-01" purity="2.1673737466335297e-01" nType="0">
                    <Node pos="l" depth="7" NCoef="0" IVar="-1" Cut="0.0000000000000000e+00" cType="1" res="-6.4934026449918747e-03" rms="3.4900733828544617e-01" purity="1.9227962195873260e-01" nType="-99"/>
                    <Node pos="r" depth="7" NCoef="0" IVar="-1" Cut="0.0000000000000000e+00" cType="1" res="-1.8320359522476792e-03" rms="3.6070996522903442e-01" purity="2.2570814192295074e-01" nType="-99"/>
                  </Node>
                  <Node pos="r" depth="6" NCoef="0" IVar="-1" Cut="0.0000000000000000e+00" cType="1" res="-7.9626413062214851e-03" rms="3.3171311020851135e-01" purity="1.6701696813106537e-01" nType="-99"/>
                </Node>
              </Node>
            </Node>
            <Node pos="r" depth="3" NCoef="0" IVar="3" Cut="6.8057686090469360e-01" cType="1" res="-5.9425379149615765e-03" rms="3.5882356762886047e-01" purity="2.0102104544639587e-01" nType="0">
              <Node pos="l" depth="4" NCoef="0" IVar="5" Cut="-1.9613503217697144e+00" cType="1" res="-9.4558512791991234e-03" rms="3.4593003988265991e-01" purity="1.7125073075294495e-01" nType="0">
                <Node pos="l" depth="5" NCoef="0" IVar="3" Cut="3.7823966145515442e-01" cType="1" res="9.1127172345295548e-04" rms="3.8942801952362061e-01" purity="2.3115880787372589e-01" nType="0">
                  <Node pos="l" depth="6" NCoef="0" IVar="6" Cut="1.7767690122127533e-01" cType="1" res="-1.2010823003947735e-02" rms="3.0866128206253052e-01" purity="1.1666448414325714e-01" nType="0">
                    <Node pos="l" depth="7" NCoef="0" IVar="-1" Cut="0.0000000000000000e+00" cType="1" res="-7.8899441286921501e-03" rms="2.5008383393287659e-01" purity="6.9858156144618988e-02" nType="-99"/>
                    <Node pos="r" depth="7" NCoef="0" IVar="-1" Cut="0.0000000000000000e+00" cType="1" res="1.0125527624040842e-03" rms="3.9149880409240723e-01" purity="2.0032320916652679e-01" nType="-99"/>
                  </Node>
                  <Node pos="r" depth="6" NCoef="0" IVar="6" Cut="1.3496612012386322e-01" cType="1" res="1.1793987825512886e-02" rms="4.4595873355865479e-01" purity="3.2758355140686035e-01" nType="0">
                    <Node pos="l" depth="7" NCoef="0" IVar="-1" Cut="0.0000000000000000e+00" cType="1" res="1.2620507914107293e-04" rms="4.3690934777259827e-01" purity="3.1098943948745728e-01" nType="-99"/>
                    <Node pos="r" depth="7" NCoef="0" IVar="-1" Cut="0.0000000000000000e+00" cType="1" res="4.0558236651122570e-03" rms="4.6607127785682678e-01" purity="3.6766019463539124e-01" nType="-99"/>
                  </Node>
                </Node>
                <Node pos="r" depth="5" NCoef="0" IVar="1" Cut="2.8533935546875000e+00" cType="1" res="-1.7524395138025284e-02" rms="3.0761054158210754e-01" purity="1.2462536990642548e-01" nType="0">
                  <Node pos="l" depth="6" NCoef="0" IVar="1" Cut="4.0694087743759155e-01" cType="1" res="-2.0946571603417397e-02" rms="3.0410295724868774e-01" purity="1.2303204089403152e-01" nType="0">
                    <Node pos="l" depth="7" NCoef="0" IVar="-1" Cut="0.0000000000000000e+00" cType="1" res="-1.4096003724262118e-03" rms="3.5437270998954773e-01" purity="1.8223364651203156e-01" nType="-99"/>
                    <Node pos="r" depth="7" NCoef="0" IVar="-1" Cut="0.0000000000000000e+00" cType="1" res="-6.9311480037868023e-03" rms="2.8192809224128723e-01" purity="9.9960610270500183e-02" nType="-99"/>
                  </Node>
                  <Node pos="r" depth="6" NCoef="0" IVar="-1" Cut="0.0000000000000000e+00" cType="1" res="4.4695269316434860e-03" rms="3.3926481008529663e-01" purity="1.4081749320030212e-01" nType="-99"/>
                </Node>
              </Node>
              <Node pos="r" depth="4" NCoef="0" IVar="-1" Cut="0.0000000000000000e+00" cType="1" res="2.9039576184004545e-03" rms="4.7671806812286377e-01" purity="5.2910518646240234e-01" nType="-99"/>
            </Node>
          </Node>
        </Node>
        <Node pos="r" depth="1" NCoef="0" IVar="5" Cut="-1.3698112964630127e+00" cType="1" res="2.2307178005576134e-02" rms="4.1794344782829285e-01" purity="7.3732006549835205e-01" nType="0">
          <Node pos="l" depth="2" NCoef="0" IVar="1" Cut="2.6373585686087608e-02" cType="1" res="2.6151033118367195e-02" rms="4.0913537144660950e-01" purity="7.6401746273040771e-01" nType="0">
            <Node pos="l" depth="3" NCoef="0" IVar="2" Cut="8.3143424987792969e+01" cType="1" res="3.5566553473472595e-02" rms="3.7991261482238770e-01" purity="8.1726968288421631e-01" nType="0">
              <Node pos="l" depth="4" NCoef="0" IVar="6" Cut="2.1299414336681366e-02" cType="1" res="3.7678964436054230e-02" rms="3.7092462182044983e-01" purity="8.2922255992889404e-01" nType="0">
                <Node pos="l" depth="5" NCoef="0" IVar="3" Cut="1.0014770030975342e+00" cType="1" res="3.5030912607908249e-02" rms="3.6676442623138428e-01" purity="8.3339375257492065e-01" nType="0">
                  <Node pos="l" depth="6" NCoef="0" IVar="3" Cut="9.2998641729354858e-01" cType="1" res="2.9811354354023933e-02" rms="3.7510979175567627e-01" purity="8.2359236478805542e-01" nType="0">
                    <Node pos="l" depth="7" NCoef="0" IVar="-1" Cut="0.0000000000000000e+00" cType="1" res="1.4909849269315600e-03" rms="4.1823273897171021e-01" purity="7.6592862606048584e-01" nType="-99"/>
                    <Node pos="r" depth="7" NCoef="0" IVar="-1" Cut="0.0000000000000000e+00" cType="1" res="3.9382963441312313e-03" rms="3.6715146899223328e-01" purity="8.3345717191696167e-01" nType="-99"/>
                  </Node>
                  <Node pos="r" depth="6" NCoef="0" IVar="5" Cut="-2.5042724609375000e+00" cType="1" res="4.5443553477525711e-02" rms="3.4928837418556213e-01" purity="8.5294699668884277e-01" nType="0">
                    <Node pos="l" depth="7" NCoef="0" IVar="-1" Cut="0.0000000000000000e+00" cType="1" res="6.7664966918528080e-03" rms="3.2763975858688354e-01" purity="8.7574595212936401e-01" nType="-99"/>
                    <Node pos="r" depth="7" NCoef="0" IVar="-1" Cut="0.0000000000000000e+00" cType="1" res="3.1408471986651421e-03" rms="3.8771635293960571e-01" purity="8.0822139978408813e-01" nType="-99"/>
                  </Node>
                </Node>
                <Node pos="r" depth="5" NCoef="0" IVar="-1" Cut="0.0000000000000000e+00" cType="1" res="5.5423108860850334e-03" rms="3.9783120155334473e-01" purity="8.0059415102005005e-01" nType="-99"/>
              </Node>
              <Node pos="r" depth="4" NCoef="0" IVar="4" Cut="-2.4067237377166748e+00" cType="1" res="2.4996684864163399e-02" rms="4.2186143994331360e-01" purity="7.5746101140975952e-01" nType="0">
                <Node pos="l" depth="5" NCoef="0" IVar="-1" Cut="0.0000000000000000e+00" cType="1" res="4.6230382286012173e-03" rms="3.9886367321014404e-01" purity="7.9589956998825073e-01" nType="-99"/>
                <Node pos="r" depth="5" NCoef="0" IVar="-1" Cut="0.0000000000000000e+00" cType="1" res="1.6401018947362900e-03" rms="4.3456247448921204e-01" purity="7.3483014106750488e-01" nType="-99"/>
              </Node>
            </Node>
            <Node pos="r" depth="3" NCoef="0" IVar="0" Cut="6.4337998628616333e-01" cType="1" res="1.8406435847282410e-02" rms="4.3153795599937439e-01" purity="7.2021561861038208e-01" nType="0">
              <Node pos="l" depth="4" NCoef="0" IVar="6" Cut="5.0934106111526489e-02" cType="1" res="2.0763946697115898e-02" rms="4.2651996016502380e-01" purity="7.4290233850479126e-01" nType="0">
                <Node pos="l" depth="5" NCoef="0" IVar="3" Cut="9.9135535955429077e-01" cType="1" res="1.9070781767368317e-02" rms="4.2379331588745117e-01" purity="7.4762952327728271e-01" nType="0">
                  <Node pos="l" depth="6" NCoef="0" IVar="6" Cut="2.6288853958249092e-02" cType="1" res="7.3234634473919868e-03" rms="4.4549006223678589e-01" purity="7.0528459548950195e-01" nType="0">
                    <Node pos="l" depth="7" NCoef="0" IVar="-1" Cut="0.0000000000000000e+00" cType="1" res="-7.6088334026280791e-05" rms="4.4018122553825378e-01" purity="7.1354049444198608e-01" nType="-99"/>
                    <Node pos="r" depth="7" NCoef="0" IVar="-1" Cut="0.0000000000000000e+00" cType="1" res="1.8863327568396926e-03" rms="4.5322266221046448e-01" purity="6.9263941049575806e-01" nType="-99"/>
                  </Node>
                  <Node pos="r" depth="6" NCoef="0" IVar="4" Cut="-2.5402063131332397e-01" cType="1" res="2.9173985123634338e-02" rms="4.0392950177192688e-01" purity="7.8404790163040161e-01" nType="0">
                    <Node pos="l" depth="7" NCoef="0" IVar="-1" Cut="0.0000000000000000e+00" cType="1" res="2.3723798803985119e-03" rms="4.1031074523925781e-01" purity="7.7366870641708374e-01" nType="-99"/>
                    <Node pos="r" depth="7" NCoef="0" IVar="-1" Cut="0.0000000000000000e+00" cType="1" res="4.2238133028149605e-03" rms="3.9418897032737732e-01" purity="7.9936319589614868e-01" nType="-99"/>
                  </Node>
                </Node>
                <Node pos="r" depth="5" NCoef="0" IVar="-1" Cut="0.0000000000000000e+00" cType="1" res="3.5155718214809895e-03" rms="4.5670941472053528e-01" purity="6.8767088651657104e-01" nType="-99"/>
              </Node>
              <Node pos="r" depth="4" NCoef="0" IVar="-1" Cut="0.0000000000000000e+00" cType="1" res="-1.0059199994429946e-03" rms="4.8849037289619446e-01" purity="4.3928074836730957e-01" nType="-99"/>
            </Node>
          </Node>
          <Node pos="r" depth="2" NCoef="0" IVar="5" Cut="-4.0608665347099304e-01" cType="1" res="-3.9996318519115448e-03" rms="4.7301265597343445e-01" purity="5.5460685491561890e-01" nType="0">
            <Node pos="l" depth="3" NCoef="0" IVar="6" Cut="3.8630720227956772e-02" cType="1" res="2.3599162232130766e-03" rms="4.7343501448631287e-01" purity="5.9486210346221924e-01" nType="0">
              <Node pos="l" depth="4" NCoef="0" IVar="3" Cut="9.9154770374298096e-01" cType="1" res="-2.6665236800909042e-03" rms="4.7045356035232544e-01" purity="6.0446763038635254e-01" nType="0">
                <Node pos="l" depth="5" NCoef="0" IVar="-1" Cut="0.0000000000000000e+00" cType="1" res="-2.1923161111772060e-03" rms="4.8028877377510071e-01" purity="5.6024146080017090e-01" nType="-99"/>
                <Node pos="r" depth="5" NCoef="0" IVar="-1" Cut="0.0000000000000000e+00" cType="1" res="1.4639125438407063e-03" rms="4.6067801117897034e-01" purity="6.4407944679260254e-01" nType="-99"/>
              </Node>
              <Node pos="r" depth="4" NCoef="0" IVar="-1" Cut="0.0000000000000000e+00" cType="1" res="1.4921242836862803e-03" rms="4.8162436485290527e-01" purity="5.6720244884490967e-01" nType="-99"/>
            </Node>
            <Node pos="r" depth="3" NCoef="0" IVar="-1" Cut="0.0000000000000000e+00" cType="1" res="-2.0764507353305817e-03" rms="4.7135907411575317e-01" purity="4.4116538763046265e-01" nType="-99"/>
          </Node>
        </Node>
      </Node>
    </BinaryTree>
    <BinaryTree type="DecisionTree" boostWeight="1.0000000000000000e+00" itree="64">
      <Node pos="s" depth="0" NCoef="0" IVar="0" Cut="3.2245206832885742e-01" cType="1" res="6.6367192193865776e-03" rms="4.0097978711128235e-01" purity="4.9903571605682373e-01" nType="0">
        <Node pos="l" depth="1" NCoef="0" IVar="0" Cut="2.4963903427124023e-01" cType="1" res="2.0777044817805290e-02" rms="4.2047145962715149e-01" purity="7.3049342632293701e-01" nType="0">
          <Node pos="l" depth="2" NCoef="0" IVar="3" Cut="9.5540767908096313e-01" cType="1" res="2.3744184523820877e-02" rms="4.1484153270721436e-01" purity="7.4778354167938232e-01" nType="0">
            <Node pos="l" depth="3" NCoef="0" IVar="6" Cut="4.9653243273496628e-02" cType="1" res="1.5078116208314896e-02" rms="4.4837164878845215e-01" purity="6.7342376708984375e-01" nType="0">
              <Node pos="l" depth="4" NCoef="0" IVar="1" Cut="4.3961566686630249e-01" cType="1" res="7.0826853625476360e-03" rms="4.4417387247085571e-01" purity="6.8965381383895874e-01" nType="0">
                <Node pos="l" depth="5" NCoef="0" IVar="3" Cut="8.6697173118591309e-01" cType="1" res="1.6731237992644310e-02" rms="4.3033879995346069e-01" purity="7.3487371206283569e-01" nType="0">
                  <Node pos="l" depth="6" NCoef="0" IVar="2" Cut="4.7147079467773438e+01" cType="1" res="6.3225906342267990e-03" rms="4.5401212573051453e-01" purity="6.8629157543182373e-01" nType="0">
                    <Node pos="l" depth="7" NCoef="0" IVar="-1" Cut="0.0000000000000000e+00" cType="1" res="1.8905117176473141e-03" rms="4.4681331515312195e-01" purity="7.0356267690658569e-01" nType="-99"/>
                    <Node pos="r" depth="7" NCoef="0" IVar="-1" Cut="0.0000000000000000e+00" cType="1" res="-3.6654307041317225e-04" rms="4.5873010158538818e-01" purity="6.7417412996292114e-01" nType="-99"/>
                  </Node>
                  <Node pos="r" depth="6" NCoef="0" IVar="4" Cut="-1.7997189760208130e+00" cType="1" res="2.8031514957547188e-02" rms="4.0276199579238892e-01" purity="7.8761744499206543e-01" nType="0">
                    <Node pos="l" depth="7" NCoef="0" IVar="-1" Cut="0.0000000000000000e+00" cType="1" res="4.9466029740869999e-03" rms="3.8678193092346191e-01" purity="8.1275302171707153e-01" nType="-99"/>
                    <Node pos="r" depth="7" NCoef="0" IVar="-1" Cut="0.0000000000000000e+00" cType="1" res="1.5666997060179710e-03" rms="4.2022165656089783e-01" purity="7.5826054811477661e-01" nType="-99"/>
                  </Node>
                </Node>
                <Node pos="r" depth="5" NCoef="0" IVar="2" Cut="2.9156005859375000e+01" cType="1" res="-1.7430605366826057e-02" rms="4.7664642333984375e-01" purity="5.7476741075515747e-01" nType="0">
                  <Node pos="l" depth="6" NCoef="0" IVar="-1" Cut="0.0000000000000000e+00" cType="1" res="-5.5681359954178333e-03" rms="4.7891271114349365e-01" purity="5.3716951608657837e-01" nType="-99"/>
                  <Node pos="r" depth="6" NCoef="0" IVar="3" Cut="8.6640596389770508e-01" cType="1" res="-2.3518775124102831e-03" rms="4.7492784261703491e-01" purity="5.8797198534011841e-01" nType="0">
                    <Node pos="l" depth="7" NCoef="0" IVar="-1" Cut="0.0000000000000000e+00" cType="1" res="-1.8834449583664536e-03" rms="4.8337805271148682e-01" purity="5.3168767690658569e-01" nType="-99"/>
                    <Node pos="r" depth="7" NCoef="0" IVar="-1" Cut="0.0000000000000000e+00" cType="1" res="2.3142879363149405e-03" rms="4.6156400442123413e-01" purity="6.6702467203140259e-01" nType="-99"/>
                  </Node>
                </Node>
              </Node>
              <Node pos="r" depth="4" NCoef="0" IVar="3" Cut="7.4171364307403564e-01" cType="1" res="3.2186497002840042e-02" rms="4.5675462484359741e-01" purity="6.3869524002075195e-01" nType="0">
                <Node pos="l" depth="5" NCoef="0" IVar="2" Cut="2.3267620849609375e+02" cType="1" res="1.0544551536440849e-02" rms="4.7498655319213867e-01" purity="5.2441352605819702e-01" nType="0">
                  <Node pos="l" depth="6" NCoef="0" IVar="-1" Cut="0.0000000000000000e+00" cType="1" res="2.0116048399358988e-03" rms="4.7689041495323181e-01" purity="5.6671714782714844e-01" nType="-99"/>
                  <Node pos="r" depth="6" NCoef="0" IVar="-1" Cut="0.0000000000000000e+00" cType="1" res="-8.4163917927071452e-04" rms="4.7152686119079590e-01" purity="4.6238812804222107e-01" nType="-99"/>
                </Node>
                <Node pos="r" depth="5" NCoef="0" IVar="3" Cut="8.3780467510223389e-01" cType="1" res="4.5054852962493896e-02" rms="4.4506168365478516e-01" purity="7.0664745569229126e-01" nType="0">
                  <Node pos="l" depth="6" NCoef="0" IVar="4" Cut="-1.4117429256439209e+00" cType="1" res="3.7266869097948074e-02" rms="4.5652252435684204e-01" purity="6.8297094106674194e-01" nType="0">
                    <Node pos="l" depth="7" NCoef="0" IVar="-1" Cut="0.0000000000000000e+00" cType="1" res="1.9427384249866009e-03" rms="4.5760422945022583e-01" purity="6.9360214471817017e-01" nType="-99"/>
                    <Node pos="r" depth="7" NCoef="0" IVar="-1" Cut="0.0000000000000000e+00" cType="1" res="4.5353812165558338e-03" rms="4.5502275228500366e-01" purity="6.7287778854370117e-01" nType="-99"/>
                  </Node>
                  <Node pos="r" depth="6" NCoef="0" IVar="-1" Cut="0.0000000000000000e+00" cType="1" res="5.6860176846385002e-03" rms="4.1953545808792114e-01" purity="7.5631481409072876e-01" nType="-99"/>
                </Node>
              </Node>
            </Node>
            <Node pos="r" depth="3" NCoef="0" IVar="1" Cut="1.4436018466949463e+00" cType="1" res="3.0482847243547440e-02" rms="3.8663077354431152e-01" purity="8.0560511350631714e-01" nType="0">
              <Node pos="l" depth="4" NCoef="0" IVar="5" Cut="-2.2694578170776367e+00" cType="1" res="3.2372724264860153e-02" rms="3.8001468777656555e-01" purity="8.1738162040710449e-01" nType="0">
                <Node pos="l" depth="5" NCoef="0" IVar="3" Cut="1.0015245676040649e+00" cType="1" res="3.5225842148065567e-02" rms="3.5966551303863525e-01" purity="8.4486937522888184e-01" nType="0">
                  <Node pos="l" depth="6" NCoef="0" IVar="4" Cut="-1.4628716707229614e+00" cType="1" res="2.9614761471748352e-02" rms="3.6780670285224915e-01" purity="8.3590000867843628e-01" nType="0">
                    <Node pos="l" depth="7" NCoef="0" IVar="-1" Cut="0.0000000000000000e+00" cType="1" res="1.5438102418556809e-03" rms="4.0388256311416626e-01" purity="7.9129856824874878e-01" nType="-99"/>
                    <Node pos="r" depth="7" NCoef="0" IVar="-1" Cut="0.0000000000000000e+00" cType="1" res="4.1786846704781055e-03" rms="3.5963997244834900e-01" purity="8.4533596038818359e-01" nType="-99"/>
                  </Node>
                  <Node pos="r" depth="6" NCoef="0" IVar="3" Cut="1.0247303247451782e+00" cType="1" res="4.4189956039190292e-02" rms="3.4607371687889099e-01" purity="8.5919862985610962e-01" nType="0">
                    <Node pos="l" depth="7" NCoef="0" IVar="-1" Cut="0.0000000000000000e+00" cType="1" res="5.9232907369732857e-03" rms="3.4154725074768066e-01" purity="8.6375367641448975e-01" nType="-99"/>
                    <Node pos="r" depth="7" NCoef="0" IVar="-1" Cut="0.0000000000000000e+00" cType="1" res="4.0066097863018513e-03" rms="3.5660874843597412e-01" purity="8.4812486171722412e-01" nType="-99"/>
                  </Node>
                </Node>
                <Node pos="r" depth="5" NCoef="0" IVar="4" Cut="-2.3377265036106110e-01" cType="1" res="2.5862772017717361e-02" rms="4.2272219061851501e-01" purity="7.5466269254684448e-01" nType="0">
                  <Node pos="l" depth="6" NCoef="0" IVar="5" Cut="-1.6821948289871216e+00" cType="1" res="1.8536007031798363e-02" rms="4.2846295237541199e-01" purity="7.4720287322998047e-01" nType="0">
                    <Node pos="l" depth="7" NCoef="0" IVar="-1" Cut="0.0000000000000000e+00" cType="1" res="2.7762528043240309e-03" rms="4.0717267990112305e-01" purity="7.8769361972808838e-01" nType="-99"/>
                    <Node pos="r" depth="7" NCoef="0" IVar="-1" Cut="0.0000000000000000e+00" cType="1" res="5.3289684001356363e-04" rms="4.5641526579856873e-01" purity="6.9027686119079590e-01" nType="-99"/>
                  </Node>
                  <Node pos="r" depth="6" NCoef="0" IVar="1" Cut="-1.5127508342266083e-01" cType="1" res="3.4793298691511154e-02" rms="4.1544291377067566e-01" purity="7.6375544071197510e-01" nType="0">
                    <Node pos="l" depth="7" NCoef="0" IVar="-1" Cut="0.0000000000000000e+00" cType="1" res="5.3216693922877312e-03" rms="3.8602027297019958e-01" purity="8.1122285127639771e-01" nType="-99"/>
                    <Node pos="r" depth="7" NCoef="0" IVar="-1" Cut="0.0000000000000000e+00" cType="1" res="2.7207559905946255e-03" rms="4.3238523602485657e-01" purity="7.3448234796524048e-01" nType="-99"/>
                  </Node>
                </Node>
              </Node>
              <Node pos="r" depth="4" NCoef="0" IVar="-1" Cut="0.0000000000000000e+00" cType="1" res="5.9155264170840383e-04" rms="4.6110332012176514e-01" purity="6.5761107206344604e-01" nType="-99"/>
            </Node>
          </Node>
          <Node pos="r" depth="2" NCoef="0" IVar="6" Cut="3.8403838872909546e-02" cType="1" res="-9.0457620099186897e-03" rms="4.7231948375701904e-01" purity="5.5670940876007080e-01" nType="0">
            <Node pos="l" depth="3" NCoef="0" IVar="-1" Cut="0.0000000000000000e+00" cType="1" res="-3.0809477902948856e-03" rms="4.6801549196243286e-01" purity="5.8842450380325317e-01" nType="-99"/>
            <Node pos="r" depth="3" NCoef="0" IVar="4" Cut="-2.9733503237366676e-02" cType="1" res="2.1890087518841028e-03" rms="4.7421118617057800e-01" purity="5.3983050584793091e-01" nType="0">
              <Node pos="l" depth="4" NCoef="0" IVar="7" Cut="3.0000000000000000e+00" cType="1" res="6.7018554545938969e-03" rms="2.5159060955047607e-01" purity="5.8262473344802856e-01" nType="0">
                <Node pos="l" depth="5" NCoef="0" IVar="-1" Cut="0.0000000000000000e+00" cType="1" res="2.1443788427859545e-03" rms="4.6978962421417236e-01" purity="6.4640212059020996e-01" nType="-99"/>
                <Node pos="r" depth="5" NCoef="0" IVar="-1" Cut="0.0000000000000000e+00" cType="1" res="-2.9200641438364983e-04" rms="4.8508945107460022e-01" purity="5.1316297054290771e-01" nType="-99"/>
              </Node>
              <Node pos="r" depth="4" NCoef="0" IVar="-1" Cut="0.0000000000000000e+00" cType="1" res="-1.4612182276323438e-03" rms="4.6717125177383423e-01" purity="4.5095133781433105e-01" nType="-99"/>
            </Node>
          </Node>
        </Node>
        <Node pos="r" depth="1" NCoef="0" IVar="1" Cut="-2.2930772602558136e-01" cType="1" res="-9.1659491881728172e-03" rms="3.7738290429115295e-01" purity="2.4036778509616852e-01" nType="0">
          <Node pos="l" depth="2" NCoef="0" IVar="0" Cut="1.2582298517227173e+00" cType="1" res="1.4551881700754166e-02" rms="4.3788671493530273e-01" purity="3.8003441691398621e-01" nType="0">
            <Node pos="l" depth="3" NCoef="0" IVar="4" Cut="-5.0646889209747314e-01" cType="1" res="2.0925324410200119e-02" rms="4.6601745486259460e-01" purity="4.5680060982704163e-01" nType="0">
              <Node pos="l" depth="4" NCoef="0" IVar="2" Cut="1.8472315979003906e+02" cType="1" res="8.4882518276572227e-03" rms="4.7556516528129578e-01" purity="4.9064055085182190e-01" nType="0">
                <Node pos="l" depth="5" NCoef="0" IVar="-1" Cut="0.0000000000000000e+00" cType="1" res="1.1223221663385630e-03" rms="4.7729671001434326e-01" purity="5.3820455074310303e-01" nType="-99"/>
                <Node pos="r" depth="5" NCoef="0" IVar="-1" Cut="0.0000000000000000e+00" cType="1" res="3.5341136390343308e-04" rms="4.7361409664154053e-01" purity="4.3852680921554565e-01" nType="-99"/>
              </Node>
              <Node pos="r" depth="4" NCoef="0" IVar="4" Cut="2.3294200003147125e-01" cType="1" res="3.2756444066762924e-02" rms="4.5643529295921326e-01" purity="4.2460930347442627e-01" nType="0">
                <Node pos="l" depth="5" NCoef="0" IVar="-1" Cut="0.0000000000000000e+00" cType="1" res="4.2872987687587738e-03" rms="4.8018091917037964e-01" purity="5.0812476873397827e-01" nType="-99"/>
                <Node pos="r" depth="5" NCoef="0" IVar="-1" Cut="0.0000000000000000e+00" cType="1" res="2.2889843676239252e-03" rms="4.2897155880928040e-01" purity="3.3476352691650391e-01" nType="-99"/>
              </Node>
            </Node>
            <Node pos="r" depth="3" NCoef="0" IVar="-1" Cut="0.0000000000000000e+00" cType="1" res="-7.4615085031837225e-04" rms="3.4484252333641052e-01" purity="1.6150663793087006e-01" nType="-99"/>
          </Node>
          <Node pos="r" depth="2" NCoef="0" IVar="1" Cut="1.0072504729032516e-01" cType="1" res="-1.2540419586002827e-02" rms="3.6784291267395020e-01" purity="2.2049662470817566e-01" nType="0">
            <Node pos="l" depth="3" NCoef="0" IVar="2" Cut="2.4330949401855469e+02" cType="1" res="6.5907887183129787e-03" rms="4.2296239733695984e-01" purity="3.5269975662231445e-01" nType="0">
              <Node pos="l" depth="4" NCoef="0" IVar="6" Cut="5.6762799620628357e-02" cType="1" res="1.9129740074276924e-02" rms="4.4195803999900818e-01" purity="4.1867423057556152e-01" nType="0">
                <Node pos="l" depth="5" NCoef="0" IVar="6" Cut="2.9285471886396408e-02" cType="1" res="6.7964703775942326e-03" rms="4.4191160798072815e-01" purity="4.4253602623939514e-01" nType="0">
                  <Node pos="l" depth="6" NCoef="0" IVar="-1" Cut="0.0000000000000000e+00" cType="1" res="9.4526412431150675e-04" rms="4.5264756679534912e-01" purity="5.1801800727844238e-01" nType="-99"/>
                  <Node pos="r" depth="6" NCoef="0" IVar="-1" Cut="0.0000000000000000e+00" cType="1" res="4.4257493573240936e-04" rms="4.3095317482948303e-01" purity="3.6749345064163208e-01" nType="-99"/>
                </Node>
                <Node pos="r" depth="5" NCoef="0" IVar="-1" Cut="0.0000000000000000e+00" cType="1" res="3.5946939606219530e-03" rms="4.4161304831504822e-01" purity="3.9250218868255615e-01" nType="-99"/>
              </Node>
              <Node pos="r" depth="4" NCoef="0" IVar="5" Cut="-1.9026134014129639e+00" cType="1" res="-1.4469062909483910e-02" rms="3.8806575536727905e-01" purity="2.4189206957817078e-01" nType="0">
                <Node pos="l" depth="5" NCoef="0" IVar="-1" Cut="0.0000000000000000e+00" cType="1" res="7.8014947939664125e-04" rms="4.3826857209205627e-01" purity="3.2914885878562927e-01" nType="-99"/>
                <Node pos="r" depth="5" NCoef="0" IVar="-1" Cut="0.0000000000000000e+00" cType="1" res="-6.0433587059378624e-03" rms="3.3638715744018555e-01" purity="1.6466626524925232e-01" nType="-99"/>
              </Node>
            </Node>
            <Node pos="r" depth="3" NCoef="0" IVar="4" Cut="1.9043531417846680e+00" cType="1" res="-1.6008125618100166e-02" rms="3.5683214664459229e-01" purity="1.9653362035751343e-01" nType="0">
              <Node pos="l" depth="4" NCoef="0" IVar="2" Cut="1.3158615112304688e+02" cType="1" res="-1.3341532088816166e-02" rms="3.8047453761100769e-01" purity="2.2596402466297150e-01" nType="0">
                <Node pos="l" depth="5" NCoef="0" IVar="6" Cut="7.7226512134075165e-02" cType="1" res="-5.8770771138370037e-03" rms="4.1098919510841370e-01" purity="2.9354602098464966e-01" nType="0">
                  <Node pos="l" depth="6" NCoef="0" IVar="2" Cut="5.9418682098388672e+01" cType="1" res="-1.0876213200390339e-02" rms="4.1413554549217224e-01" purity="3.0173543095588684e-01" nType="0">
                    <Node pos="l" depth="7" NCoef="0" IVar="-1" Cut="0.0000000000000000e+00" cType="1" res="2.9311493108252762e-06" rms="4.4114997982978821e-01" purity="3.6573341488838196e-01" nType="-99"/>
                    <Node pos="r" depth="7" NCoef="0" IVar="-1" Cut="0.0000000000000000e+00" cType="1" res="-3.9819860830903053e-03" rms="3.7405529618263245e-01" purity="2.1527849137783051e-01" nType="-99"/>
                  </Node>
                  <Node pos="r" depth="6" NCoef="0" IVar="1" Cut="1.0557980537414551e+00" cType="1" res="1.3464659452438354e-02" rms="3.9799109101295471e-01" purity="2.6186111569404602e-01" nType="0">
                    <Node pos="l" depth="7" NCoef="0" IVar="-1" Cut="0.0000000000000000e+00" cType="1" res="3.6192359402775764e-03" rms="4.3227624893188477e-01" purity="3.4368979930877686e-01" nType="-99"/>
                    <Node pos="r" depth="7" NCoef="0" IVar="-1" Cut="0.0000000000000000e+00" cType="1" res="-1.0688807815313339e-03" rms="3.5533073544502258e-01" purity="1.7146718502044678e-01" nType="-99"/>
                  </Node>
                </Node>
                <Node pos="r" depth="5" NCoef="0" IVar="6" Cut="7.1469642221927643e-02" cType="1" res="-1.8455412238836288e-02" rms="3.5798123478889465e-01" purity="1.7966376245021820e-01" nType="0">
                  <Node pos="l" depth="6" NCoef="0" IVar="7" Cut="3.0000000000000000e+00" cType="1" res="-3.9124432951211929e-02" rms="3.4442755579948425e-01" purity="1.7037282884120941e-01" nType="0">
                    <Node pos="l" depth="7" NCoef="0" IVar="-1" Cut="0.0000000000000000e+00" cType="1" res="-7.1387835778295994e-03" rms="4.1973629593849182e-01" purity="2.7556237578392029e-01" nType="-99"/>
                    <Node pos="r" depth="7" NCoef="0" IVar="-1" Cut="0.0000000000000000e+00" cType="1" res="-6.5566459670662880e-03" rms="3.1298205256462097e-01" purity="1.2912222743034363e-01" nType="-99"/>
                  </Node>
                  <Node pos="r" depth="6" NCoef="0" IVar="2" Cut="3.7778155517578125e+02" cType="1" res="-1.3154460117220879e-02" rms="3.6063882708549500e-01" purity="1.8204255402088165e-01" nType="0">
                    <Node pos="l" depth="7" NCoef="0" IVar="-1" Cut="0.0000000000000000e+00" cType="1" res="-1.1799989733844995e-03" rms="3.6699736118316650e-01" purity="1.9592775404453278e-01" nType="-99"/>
                    <Node pos="r" depth="7" NCoef="0" IVar="-1" Cut="0.0000000000000000e+00" cType="1" res="-3.9412388578057289e-03" rms="3.5224765539169312e-01" purity="1.6444723308086395e-01" nType="-99"/>
                  </Node>
                </Node>
              </Node>
              <Node pos="r" depth="4" NCoef="0" IVar="7" Cut="4.0000000000000000e+00" cType="1" res="-3.0752617865800858e-02" rms="1.7270772159099579e-01" purity="3.2630313187837601e-02" nType="0">
                <Node pos="l" depth="5" NCoef="0" IVar="-1" Cut="0.0000000000000000e+00" cType="1" res="-1.7291978001594543e-02" rms="2.0473645627498627e-01" purity="4.6877309679985046e-02" nType="-99"/>
                <Node pos="r" depth="5" NCoef="0" IVar="3" Cut="2.6979404687881470e-01" cType="1" res="-2.4841148406267166e-02" rms="1.6382144391536713e-01" purity="2.9083320870995522e-02" nType="0">
                  <Node pos="l" depth="6" NCoef="0" IVar="-1" Cut="0.0000000000000000e+00" cType="1" res="-1.1425701901316643e-02" rms="1.7610388994216919e-01" purity="3.4459978342056274e-02" nType="-99"/>
                  <Node pos="r" depth="6" NCoef="0" IVar="2" Cut="2.2448687744140625e+02" cType="1" res="-2.8715634718537331e-02" rms="1.5461307764053345e-01" purity="2.5354398414492607e-02" nType="0">
                    <Node pos="l" depth="7" NCoef="0" IVar="-1" Cut="0.0000000000000000e+00" cType="1" res="-1.3440949842333794e-02" rms="1.6341355443000793e-01" purity="2.8920156881213188e-02" nType="-99"/>
                    <Node pos="r" depth="7" NCoef="0" IVar="-1" Cut="0.0000000000000000e+00" cType="1" res="-1.6867790371179581e-02" rms="1.4636918902397156e-01" purity="2.2238636389374733e-02" nType="-99"/>
                  </Node>
                </Node>
              </Node>
            </Node>
          </Node>
        </Node>
      </Node>
    </BinaryTree>
    <BinaryTree type="DecisionTree" boostWeight="1.0000000000000000e+00" itree="65">
      <Node pos="s" depth="0" NCoef="0" IVar="0" Cut="6.4506030082702637e-01" cType="1" res="6.9895805791020393e-03" rms="4.0099468827247620e-01" purity="5.0056689977645874e-01" nType="0">
        <Node pos="l" depth="1" NCoef="0" IVar="5" Cut="-1.6626900434494019e+00" cType="1" res="1.7392409965395927e-02" rms="4.2994374036788940e-01" purity="6.7580366134643555e-01" nType="0">
          <Node pos="l" depth="2" NCoef="0" IVar="0" Cut="2.4967876076698303e-01" cType="1" res="2.2852800786495209e-02" rms="4.2031344771385193e-01" purity="7.2012150287628174e-01" nType="0">
            <Node pos="l" depth="3" NCoef="0" IVar="1" Cut="1.1877588927745819e-01" cType="1" res="2.7689963579177856e-02" rms="4.0215182304382324e-01" purity="7.7842807769775391e-01" nType="0">
              <Node pos="l" depth="4" NCoef="0" IVar="3" Cut="9.6505337953567505e-01" cType="1" res="3.3785205334424973e-02" rms="3.7727710604667664e-01" purity="8.2033389806747437e-01" nType="0">
                <Node pos="l" depth="5" NCoef="0" IVar="6" Cut="1.1875019408762455e-02" cType="1" res="2.8070066124200821e-02" rms="4.1625592112541199e-01" purity="7.6593750715255737e-01" nType="0">
                  <Node pos="l" depth="6" NCoef="0" IVar="-1" Cut="0.0000000000000000e+00" cType="1" res="9.4313989393413067e-04" rms="4.0141573548316956e-01" purity="7.9102474451065063e-01" nType="-99"/>
                  <Node pos="r" depth="6" NCoef="0" IVar="2" Cut="5.7425197601318359e+01" cType="1" res="3.2012276351451874e-02" rms="4.1901096701622009e-01" purity="7.6098495721817017e-01" nType="0">
                    <Node pos="l" depth="7" NCoef="0" IVar="-1" Cut="0.0000000000000000e+00" cType="1" res="4.6205157414078712e-03" rms="4.0450429916381836e-01" purity="7.8830105066299438e-01" nType="-99"/>
                    <Node pos="r" depth="7" NCoef="0" IVar="-1" Cut="0.0000000000000000e+00" cType="1" res="2.6976782828569412e-03" rms="4.2503908276557922e-01" purity="7.4906128644943237e-01" nType="-99"/>
                  </Node>
                </Node>
                <Node pos="r" depth="5" NCoef="0" IVar="5" Cut="-3.0994331836700439e+00" cType="1" res="3.7774976342916489e-02" rms="3.4742802381515503e-01" purity="8.5830837488174438e-01" nType="0">
                  <Node pos="l" depth="6" NCoef="0" IVar="1" Cut="-2.4991874396800995e-01" cType="1" res="4.8983503133058548e-02" rms="3.1754857301712036e-01" purity="8.8536393642425537e-01" nType="0">
                    <Node pos="l" depth="7" NCoef="0" IVar="-1" Cut="0.0000000000000000e+00" cType="1" res="5.5624935775995255e-03" rms="3.2593110203742981e-01" purity="8.7812763452529907e-01" nType="-99"/>
                    <Node pos="r" depth="7" NCoef="0" IVar="-1" Cut="0.0000000000000000e+00" cType="1" res="7.5728832744061947e-03" rms="3.1058999896049500e-01" purity="8.9112883806228638e-01" nType="-99"/>
                  </Node>
                  <Node pos="r" depth="6" NCoef="0" IVar="4" Cut="-4.2858019471168518e-01" cType="1" res="3.3649738878011703e-02" rms="3.5770893096923828e-01" purity="8.4835070371627808e-01" nType="0">
                    <Node pos="l" depth="7" NCoef="0" IVar="-1" Cut="0.0000000000000000e+00" cType="1" res="3.1860056333243847e-03" rms="3.6982735991477966e-01" purity="8.3552145957946777e-01" nType="-99"/>
                    <Node pos="r" depth="7" NCoef="0" IVar="-1" Cut="0.0000000000000000e+00" cType="1" res="5.4929829202592373e-03" rms="3.4331893920898438e-01" purity="8.6288994550704956e-01" nType="-99"/>
                  </Node>
                </Node>
              </Node>
              <Node pos="r" depth="4" NCoef="0" IVar="3" Cut="9.6110522747039795e-01" cType="1" res="2.0577432587742805e-02" rms="4.2925059795379639e-01" purity="7.2952824831008911e-01" nType="0">
                <Node pos="l" depth="5" NCoef="0" IVar="6" Cut="3.4336626529693604e-02" cType="1" res="1.3436804525554180e-02" rms="4.6004906296730042e-01" purity="6.5472060441970825e-01" nType="0">
                  <Node pos="l" depth="6" NCoef="0" IVar="4" Cut="-2.4071545600891113e+00" cType="1" res="-1.1577134719118476e-03" rms="4.5837962627410889e-01" purity="6.6465479135513306e-01" nType="0">
                    <Node pos="l" depth="7" NCoef="0" IVar="-1" Cut="0.0000000000000000e+00" cType="1" res="1.4627245254814625e-03" rms="4.5100396871566772e-01" purity="6.8743842840194702e-01" nType="-99"/>
                    <Node pos="r" depth="7" NCoef="0" IVar="-1" Cut="0.0000000000000000e+00" cType="1" res="-1.0889461264014244e-03" rms="4.6270528435707092e-01" purity="6.5023767948150635e-01" nType="-99"/>
                  </Node>
                  <Node pos="r" depth="6" NCoef="0" IVar="3" Cut="8.0942147970199585e-01" cType="1" res="2.5460110977292061e-02" rms="4.6107292175292969e-01" purity="6.4653664827346802e-01" nType="0">
                    <Node pos="l" depth="7" NCoef="0" IVar="-1" Cut="0.0000000000000000e+00" cType="1" res="1.2328429147601128e-03" rms="4.7822195291519165e-01" purity="5.6831324100494385e-01" nType="-99"/>
                    <Node pos="r" depth="7" NCoef="0" IVar="-1" Cut="0.0000000000000000e+00" cType="1" res="3.3047199249267578e-03" rms="4.4446456432342529e-01" purity="7.1848058700561523e-01" nType="-99"/>
                  </Node>
                </Node>
                <Node pos="r" depth="5" NCoef="0" IVar="4" Cut="-1.3138288259506226e+00" cType="1" res="2.6042014360427856e-02" rms="4.0401345491409302e-01" purity="7.8677701950073242e-01" nType="0">
                  <Node pos="l" depth="6" NCoef="0" IVar="-1" Cut="0.0000000000000000e+00" cType="1" res="6.0016661882400513e-04" rms="4.4065043330192566e-01" purity="7.2979480028152466e-01" nType="-99"/>
                  <Node pos="r" depth="6" NCoef="0" IVar="5" Cut="-3.1172311305999756e+00" cType="1" res="3.0573777854442596e-02" rms="3.9473557472229004e-01" purity="8.0022466182708740e-01" nType="0">
                    <Node pos="l" depth="7" NCoef="0" IVar="-1" Cut="0.0000000000000000e+00" cType="1" res="5.2075390703976154e-03" rms="3.6473271250724792e-01" purity="8.3872348070144653e-01" nType="-99"/>
                    <Node pos="r" depth="7" NCoef="0" IVar="-1" Cut="0.0000000000000000e+00" cType="1" res="2.8154724277555943e-03" rms="4.0393573045730591e-01" purity="7.8767436742782593e-01" nType="-99"/>
                  </Node>
                </Node>
              </Node>
            </Node>
            <Node pos="r" depth="3" NCoef="0" IVar="0" Cut="5.3023868799209595e-01" cType="1" res="6.9462331011891365e-03" rms="4.7481936216354370e-01" purity="5.2838581800460815e-01" nType="0">
              <Node pos="l" depth="4" NCoef="0" IVar="0" Cut="3.2208883762359619e-01" cType="1" res="1.2220161035656929e-02" rms="4.7560331225395203e-01" purity="5.5445027351379395e-01" nType="0">
                <Node pos="l" depth="5" NCoef="0" IVar="6" Cut="6.4006172120571136e-02" cType="1" res="-1.7425966216251254e-03" rms="4.7072094678878784e-01" purity="6.0698235034942627e-01" nType="0">
                  <Node pos="l" depth="6" NCoef="0" IVar="6" Cut="3.0969025567173958e-02" cType="1" res="-1.4321167021989822e-02" rms="4.6948757767677307e-01" purity="6.1034142971038818e-01" nType="0">
                    <Node pos="l" depth="7" NCoef="0" IVar="-1" Cut="0.0000000000000000e+00" cType="1" res="-2.1803146228194237e-03" rms="4.5727950334548950e-01" purity="6.4160609245300293e-01" nType="-99"/>
                    <Node pos="r" depth="7" NCoef="0" IVar="-1" Cut="0.0000000000000000e+00" cType="1" res="-7.4925285298377275e-04" rms="4.8103466629981995e-01" purity="5.7978028059005737e-01" nType="-99"/>
                  </Node>
                  <Node pos="r" depth="6" NCoef="0" IVar="-1" Cut="0.0000000000000000e+00" cType="1" res="2.1610667463392019e-03" rms="4.7215485572814941e-01" purity="6.0042405128479004e-01" nType="-99"/>
                </Node>
                <Node pos="r" depth="5" NCoef="0" IVar="3" Cut="8.3875238895416260e-01" cType="1" res="1.9346449524164200e-02" rms="4.7791874408721924e-01" purity="5.2763903141021729e-01" nType="0">
                  <Node pos="l" depth="6" NCoef="0" IVar="6" Cut="5.0149790942668915e-02" cType="1" res="1.2934101745486259e-02" rms="4.8288422822952271e-01" purity="4.8631557822227478e-01" nType="0">
                    <Node pos="l" depth="7" NCoef="0" IVar="-1" Cut="0.0000000000000000e+00" cType="1" res="-1.0805607307702303e-03" rms="4.7672784328460693e-01" purity="4.3659627437591553e-01" nType="-99"/>
                    <Node pos="r" depth="7" NCoef="0" IVar="-1" Cut="0.0000000000000000e+00" cType="1" res="2.0068518351763487e-03" rms="4.8500677943229675e-01" purity="5.0649434328079224e-01" nType="-99"/>
                  </Node>
                  <Node pos="r" depth="6" NCoef="0" IVar="-1" Cut="0.0000000000000000e+00" cType="1" res="3.8132532499730587e-03" rms="4.5692765712738037e-01" purity="6.9066268205642700e-01" nType="-99"/>
                </Node>
              </Node>
              <Node pos="r" depth="4" NCoef="0" IVar="6" Cut="6.2392983585596085e-02" cType="1" res="-1.4938279055058956e-02" rms="4.7092172503471375e-01" purity="4.2022961378097534e-01" nType="0">
                <Node pos="l" depth="5" NCoef="0" IVar="-1" Cut="0.0000000000000000e+00" cType="1" res="-3.1802675221115351e-03" rms="4.6197542548179626e-01" purity="4.2774477601051331e-01" nType="-99"/>
                <Node pos="r" depth="5" NCoef="0" IVar="-1" Cut="0.0000000000000000e+00" cType="1" res="6.3695209973957390e-05" rms="4.7853577136993408e-01" purity="4.1326496005058289e-01" nType="-99"/>
              </Node>
            </Node>
          </Node>
          <Node pos="r" depth="2" NCoef="0" IVar="4" Cut="1.4990866184234619e+00" cType="1" res="-2.3339802864938974e-03" rms="4.6253201365470886e-01" purity="5.1569944620132446e-01" nType="0">
            <Node pos="l" depth="3" NCoef="0" IVar="1" Cut="1.3525425195693970e+00" cType="1" res="3.2034462783485651e-03" rms="4.7121566534042358e-01" purity="5.5178493261337280e-01" nType="0">
              <Node pos="l" depth="4" NCoef="0" IVar="3" Cut="6.5596634149551392e-01" cType="1" res="7.1182008832693100e-03" rms="4.7126579284667969e-01" purity="5.7301843166351318e-01" nType="0">
                <Node pos="l" depth="5" NCoef="0" IVar="-1" Cut="0.0000000000000000e+00" cType="1" res="-1.1683362536132336e-03" rms="4.6466818451881409e-01" purity="3.5066083073616028e-01" nType="-99"/>
                <Node pos="r" depth="5" NCoef="0" IVar="6" Cut="7.6088212430477142e-02" cType="1" res="1.0648889467120171e-02" rms="4.7244319319725037e-01" purity="6.1581122875213623e-01" nType="0">
                  <Node pos="l" depth="6" NCoef="0" IVar="3" Cut="8.1293475627899170e-01" cType="1" res="6.5368232317268848e-03" rms="4.7047400474548340e-01" purity="6.2311255931854248e-01" nType="0">
                    <Node pos="l" depth="7" NCoef="0" IVar="-1" Cut="0.0000000000000000e+00" cType="1" res="-1.0904226219281554e-03" rms="4.8719018697738647e-01" purity="5.0912857055664062e-01" nType="-99"/>
                    <Node pos="r" depth="7" NCoef="0" IVar="-1" Cut="0.0000000000000000e+00" cType="1" res="1.1950370389968157e-03" rms="4.6445459127426147e-01" purity="6.6206562519073486e-01" nType="-99"/>
                  </Node>
                  <Node pos="r" depth="6" NCoef="0" IVar="-1" Cut="0.0000000000000000e+00" cType="1" res="3.6244422663003206e-03" rms="4.8604106903076172e-01" purity="5.6019699573516846e-01" nType="-99"/>
                </Node>
              </Node>
              <Node pos="r" depth="4" NCoef="0" IVar="-1" Cut="0.0000000000000000e+00" cType="1" res="-3.0839026439934969e-03" rms="4.6935814619064331e-01" purity="3.6430343985557556e-01" nType="-99"/>
            </Node>
            <Node pos="r" depth="3" NCoef="0" IVar="-1" Cut="0.0000000000000000e+00" cType="1" res="-7.1381796151399612e-03" rms="3.7781935930252075e-01" purity="2.0984250307083130e-01" nType="-99"/>
          </Node>
        </Node>
        <Node pos="r" depth="1" NCoef="0" IVar="4" Cut="2.4720244407653809e+00" cType="1" res="-1.3179590925574303e-02" rms="3.3696007728576660e-01" purity="1.6081498563289642e-01" nType="0">
          <Node pos="l" depth="2" NCoef="0" IVar="0" Cut="1.8519593477249146e+00" cType="1" res="-1.0768041945993900e-02" rms="3.5638925433158875e-01" purity="1.8126145005226135e-01" nType="0">
            <Node pos="l" depth="3" NCoef="0" IVar="2" Cut="6.9695175170898438e+01" cType="1" res="-6.3798669725656509e-03" rms="3.9005017280578613e-01" purity="2.2659730911254883e-01" nType="0">
              <Node pos="l" depth="4" NCoef="0" IVar="6" Cut="3.4148406237363815e-02" cType="1" res="9.9885063245892525e-03" rms="4.3912595510482788e-01" purity="3.4004119038581848e-01" nType="0">
                <Node pos="l" depth="5" NCoef="0" IVar="2" Cut="1.3489859580993652e+01" cType="1" res="-9.1365408152341843e-03" rms="4.4798859953880310e-01" purity="3.6258327960968018e-01" nType="0">
                  <Node pos="l" depth="6" NCoef="0" IVar="-1" Cut="0.0000000000000000e+00" cType="1" res="-4.3596253817668185e-05" rms="4.8670989274978638e-01" purity="4.6547442674636841e-01" nType="-99"/>
                  <Node pos="r" depth="6" NCoef="0" IVar="-1" Cut="0.0000000000000000e+00" cType="1" res="-2.8752160724252462e-03" rms="3.9407491683959961e-01" purity="2.3411855101585388e-01" nType="-99"/>
                </Node>
                <Node pos="r" depth="5" NCoef="0" IVar="-1" Cut="0.0000000000000000e+00" cType="1" res="6.1657428741455078e-03" rms="4.1985210776329041e-01" purity="2.9814478754997253e-01" nType="-99"/>
              </Node>
              <Node pos="r" depth="4" NCoef="0" IVar="6" Cut="8.7347611784934998e-02" cType="1" res="-1.0664965957403183e-02" rms="3.7602886557579041e-01" purity="1.9689865410327911e-01" nType="0">
                <Node pos="l" depth="5" NCoef="0" IVar="3" Cut="5.5994445085525513e-01" cType="1" res="-2.3010535165667534e-02" rms="3.5603484511375427e-01" purity="1.7697365581989288e-01" nType="0">
                  <Node pos="l" depth="6" NCoef="0" IVar="6" Cut="6.8325586616992950e-02" cType="1" res="-2.9915418475866318e-02" rms="2.9200711846351624e-01" purity="9.9679224193096161e-02" nType="0">
                    <Node pos="l" depth="7" NCoef="0" IVar="-1" Cut="0.0000000000000000e+00" cType="1" res="-9.1600269079208374e-03" rms="2.7819198369979858e-01" purity="8.8778220117092133e-02" nType="-99"/>
                    <Node pos="r" depth="7" NCoef="0" IVar="-1" Cut="0.0000000000000000e+00" cType="1" res="-4.4496199116110802e-03" rms="3.1152987480163574e-01" purity="1.1625117808580399e-01" nType="-99"/>
                  </Node>
                  <Node pos="r" depth="6" NCoef="0" IVar="7" Cut="3.0000000000000000e+00" cType="1" res="-1.2676852755248547e-02" rms="3.4023371338844299e-01" purity="3.3046901226043701e-01" nType="0">
                    <Node pos="l" depth="7" NCoef="0" IVar="-1" Cut="0.0000000000000000e+00" cType="1" res="-3.2053533941507339e-03" rms="4.5804280042648315e-01" purity="3.4133502840995789e-01" nType="-99"/>
                    <Node pos="r" depth="7" NCoef="0" IVar="-1" Cut="0.0000000000000000e+00" cType="1" res="1.3103726087138057e-03" rms="4.5510375499725342e-01" purity="3.1966066360473633e-01" nType="-99"/>
                  </Node>
                </Node>
                <Node pos="r" depth="5" NCoef="0" IVar="3" Cut="3.2835683226585388e-01" cType="1" res="-2.0924413111060858e-03" rms="3.8907831907272339e-01" purity="2.1073420345783234e-01" nType="0">
                  <Node pos="l" depth="6" NCoef="0" IVar="-1" Cut="0.0000000000000000e+00" cType="1" res="-8.0887135118246078e-03" rms="3.0387511849403381e-01" purity="1.0937307775020599e-01" nType="-99"/>
                  <Node pos="r" depth="6" NCoef="0" IVar="1" Cut="5.6741333007812500e-01" cType="1" res="3.0298489145934582e-03" rms="4.0048855543136597e-01" purity="2.2653479874134064e-01" nType="0">
                    <Node pos="l" depth="7" NCoef="0" IVar="-1" Cut="0.0000000000000000e+00" cType="1" res="2.0272037945687771e-03" rms="4.2089557647705078e-01" purity="2.6512297987937927e-01" nType="-99"/>
                    <Node pos="r" depth="7" NCoef="0" IVar="-1" Cut="0.0000000000000000e+00" cType="1" res="-1.8622332718223333e-03" rms="3.7469136714935303e-01" purity="1.8129943311214447e-01" nType="-99"/>
                  </Node>
                </Node>
              </Node>
            </Node>
            <Node pos="r" depth="3" NCoef="0" IVar="3" Cut="6.5277969837188721e-01" cType="1" res="-1.8478237092494965e-02" rms="2.8770285844802856e-01" purity="1.0160460323095322e-01" nType="0">
              <Node pos="l" depth="4" NCoef="0" IVar="7" Cut="4.0000000000000000e+00" cType="1" res="-1.4614894986152649e-02" rms="2.6026529073715210e-01" purity="8.1259943544864655e-02" nType="0">
                <Node pos="l" depth="5" NCoef="0" IVar="-1" Cut="0.0000000000000000e+00" cType="1" res="2.8951342683285475e-03" rms="3.3915892243385315e-01" purity="1.4315225183963776e-01" nType="-99"/>
                <Node pos="r" depth="5" NCoef="0" IVar="6" Cut="1.6700404882431030e-01" cType="1" res="-1.9395440816879272e-02" rms="2.4545536935329437e-01" purity="6.8204738199710846e-02" nType="0">
                  <Node pos="l" depth="6" NCoef="0" IVar="6" Cut="5.9674296528100967e-02" cType="1" res="-2.4616392329335213e-02" rms="2.0220516622066498e-01" purity="4.4122781604528427e-02" nType="0">
                    <Node pos="l" depth="7" NCoef="0" IVar="-1" Cut="0.0000000000000000e+00" cType="1" res="-1.4852338470518589e-02" rms="1.8182785809040070e-01" purity="3.4711498767137527e-02" nType="-99"/>
                    <Node pos="r" depth="7" NCoef="0" IVar="-1" Cut="0.0000000000000000e+00" cType="1" res="-1.0383248329162598e-02" rms="2.0906220376491547e-01" purity="4.7538504004478455e-02" nType="-99"/>
                  </Node>
                  <Node pos="r" depth="6" NCoef="0" IVar="7" Cut="7.0000000000000000e+00" cType="1" res="-8.0377841368317604e-03" rms="3.1979247927665710e-01" purity="1.2975747883319855e-01" nType="0">
                    <Node pos="l" depth="7" NCoef="0" IVar="-1" Cut="0.0000000000000000e+00" cType="1" res="3.0225731898099184e-03" rms="3.5281321406364441e-01" purity="1.5159161388874054e-01" nType="-99"/>
                    <Node pos="r" depth="7" NCoef="0" IVar="-1" Cut="0.0000000000000000e+00" cType="1" res="-5.8961715549230576e-03" rms="3.0811154842376709e-01" purity="1.0948393493890762e-01" nType="-99"/>
                  </Node>
                </Node>
              </Node>
              <Node pos="r" depth="4" NCoef="0" IVar="-1" Cut="0.0000000000000000e+00" cType="1" res="-6.7444154992699623e-03" rms="4.4494223594665527e-01" purity="2.8705936670303345e-01" nType="-99"/>
            </Node>
          </Node>
          <Node pos="r" depth="2" NCoef="0" IVar="7" Cut="5.0000000000000000e+00" cType="1" res="-2.9887264594435692e-02" rms="1.5000696480274200e-01" purity="2.4599283933639526e-02" nType="0">
            <Node pos="l" depth="3" NCoef="0" IVar="-1" Cut="0.0000000000000000e+00" cType="1" res="-2.2476846352219582e-02" rms="1.3117867708206177e-01" purity="1.7084071412682533e-02" nType="-99"/>
            <Node pos="r" depth="3" NCoef="0" IVar="4" Cut="7.8638472557067871e+00" cType="1" res="-2.0624240860342979e-02" rms="1.6227769851684570e-01" purity="2.8256591409444809e-02" nType="0">
              <Node pos="l" depth="4" NCoef="0" IVar="-1" Cut="0.0000000000000000e+00" cType="1" res="-1.6133209690451622e-02" rms="1.4802393317222595e-01" purity="2.2760346531867981e-02" nType="-99"/>
              <Node pos="r" depth="4" NCoef="0" IVar="-1" Cut="0.0000000000000000e+00" cType="1" res="-6.4873336814343929e-03" rms="1.8456052243709564e-01" purity="3.8052681833505630e-02" nType="-99"/>
            </Node>
          </Node>
        </Node>
      </Node>
    </BinaryTree>
    <BinaryTree type="DecisionTree" boostWeight="1.0000000000000000e+00" itree="66">
      <Node pos="s" depth="0" NCoef="0" IVar="3" Cut="7.7510434389114380e-01" cType="1" res="5.8144740760326385e-03" rms="4.0116438269615173e-01" purity="4.9959972500801086e-01" nType="0">
        <Node pos="l" depth="1" NCoef="0" IVar="3" Cut="4.0624547004699707e-01" cType="1" res="-8.1825144588947296e-03" rms="3.8182288408279419e-01" purity="2.5439256429672241e-01" nType="0">
          <Node pos="l" depth="2" NCoef="0" IVar="6" Cut="2.1764530241489410e-01" cType="1" res="-1.7144756391644478e-02" rms="2.5876730680465698e-01" purity="7.9161934554576874e-02" nType="0">
            <Node pos="l" depth="3" NCoef="0" IVar="1" Cut="2.6761159896850586e+00" cType="1" res="-2.2078786045312881e-02" rms="2.3069843649864197e-01" purity="6.0400299727916718e-02" nType="0">
              <Node pos="l" depth="4" NCoef="0" IVar="3" Cut="3.3009427785873413e-01" cType="1" res="-2.4146694689989090e-02" rms="2.2724188864231110e-01" purity="5.8494418859481812e-02" nType="0">
                <Node pos="l" depth="5" NCoef="0" IVar="0" Cut="1.9315745830535889e+00" cType="1" res="-2.9192965477705002e-02" rms="1.9280877709388733e-01" purity="4.0632497519254684e-02" nType="0">
                  <Node pos="l" depth="6" NCoef="0" IVar="-1" Cut="0.0000000000000000e+00" cType="1" res="-1.1277981102466583e-02" rms="2.4849678575992584e-01" purity="7.1623064577579498e-02" nType="-99"/>
                  <Node pos="r" depth="6" NCoef="0" IVar="6" Cut="1.4773890376091003e-01" cType="1" res="-2.7200702577829361e-02" rms="1.7665047943592072e-01" purity="3.3129990100860596e-02" nType="0">
                    <Node pos="l" depth="7" NCoef="0" IVar="-1" Cut="0.0000000000000000e+00" cType="1" res="-1.7511015757918358e-02" rms="1.5284557640552521e-01" purity="2.4304319173097610e-02" nType="-99"/>
                    <Node pos="r" depth="7" NCoef="0" IVar="-1" Cut="0.0000000000000000e+00" cType="1" res="-8.7835639715194702e-03" rms="2.3599985241889954e-01" purity="6.0733925551176071e-02" nType="-99"/>
                  </Node>
                </Node>
                <Node pos="r" depth="5" NCoef="0" IVar="4" Cut="-7.0881617069244385e-01" cType="1" res="-1.5869924798607826e-02" rms="2.7432012557983398e-01" purity="8.7791107594966888e-02" nType="0">
                  <Node pos="l" depth="6" NCoef="0" IVar="-1" Cut="0.0000000000000000e+00" cType="1" res="-9.5911175012588501e-03" rms="2.8288331627845764e-01" purity="9.2056676745414734e-02" nType="-99"/>
                  <Node pos="r" depth="6" NCoef="0" IVar="7" Cut="5.0000000000000000e+00" cType="1" res="-9.5427762717008591e-03" rms="2.7149674296379089e-01" purity="8.6583562195301056e-02" nType="0">
                    <Node pos="l" depth="7" NCoef="0" IVar="-1" Cut="0.0000000000000000e+00" cType="1" res="-9.3968827277421951e-03" rms="2.4711754918098450e-01" purity="6.9657318294048309e-02" nType="-99"/>
                    <Node pos="r" depth="7" NCoef="0" IVar="-1" Cut="0.0000000000000000e+00" cType="1" res="6.3263688934966922e-04" rms="2.8569218516349792e-01" purity="9.7587592899799347e-02" nType="-99"/>
                  </Node>
                </Node>
              </Node>
              <Node pos="r" depth="4" NCoef="0" IVar="-1" Cut="0.0000000000000000e+00" cType="1" res="-2.3600230924785137e-03" rms="2.5534251332283020e-01" purity="7.5171612203121185e-02" nType="-99"/>
            </Node>
            <Node pos="r" depth="3" NCoef="0" IVar="2" Cut="5.1027947998046875e+02" cType="1" res="8.8497549295425415e-03" rms="3.7220686674118042e-01" purity="1.7800600826740265e-01" nType="0">
              <Node pos="l" depth="4" NCoef="0" IVar="-1" Cut="0.0000000000000000e+00" cType="1" res="5.8337799273431301e-03" rms="3.8645756244659424e-01" purity="2.0049223303794861e-01" nType="-99"/>
              <Node pos="r" depth="4" NCoef="0" IVar="-1" Cut="0.0000000000000000e+00" cType="1" res="-5.6515808682888746e-04" rms="3.6385622620582581e-01" purity="1.6604825854301453e-01" nType="-99"/>
            </Node>
          </Node>
          <Node pos="r" depth="2" NCoef="0" IVar="4" Cut="2.2471346855163574e+00" cType="1" res="-2.9265154153108597e-03" rms="4.3811368942260742e-01" purity="3.5715839266777039e-01" nType="0">
            <Node pos="l" depth="3" NCoef="0" IVar="6" Cut="8.9847065508365631e-02" cType="1" res="-3.6009555333293974e-04" rms="4.4744139909744263e-01" purity="3.7451526522636414e-01" nType="0">
              <Node pos="l" depth="4" NCoef="0" IVar="7" Cut="3.0000000000000000e+00" cType="1" res="-8.0546159297227859e-03" rms="4.4372531771659851e-01" purity="3.8014832139015198e-01" nType="0">
                <Node pos="l" depth="5" NCoef="0" IVar="3" Cut="6.7994493246078491e-01" cType="1" res="-2.9604904353618622e-02" rms="4.5423051714897156e-01" purity="3.9690861105918884e-01" nType="0">
                  <Node pos="l" depth="6" NCoef="0" IVar="-1" Cut="0.0000000000000000e+00" cType="1" res="-8.5415169596672058e-03" rms="3.9399650692939758e-01" purity="2.1457265317440033e-01" nType="-99"/>
                  <Node pos="r" depth="6" NCoef="0" IVar="6" Cut="4.3536029756069183e-02" cType="1" res="-1.2813876383006573e-02" rms="4.8040592670440674e-01" purity="4.8725357651710510e-01" nType="0">
                    <Node pos="l" depth="7" NCoef="0" IVar="-1" Cut="0.0000000000000000e+00" cType="1" res="-4.0960973128676414e-03" rms="4.7438374161720276e-01" purity="4.4384112954139709e-01" nType="-99"/>
                    <Node pos="r" depth="7" NCoef="0" IVar="-1" Cut="0.0000000000000000e+00" cType="1" res="1.6362441238015890e-04" rms="4.8239821195602417e-01" purity="5.0695168972015381e-01" nType="-99"/>
                  </Node>
                </Node>
                <Node pos="r" depth="5" NCoef="0" IVar="2" Cut="6.8354522705078125e+01" cType="1" res="-9.9889689590781927e-04" rms="4.4168311357498169e-01" purity="3.7425005435943604e-01" nType="0">
                  <Node pos="l" depth="6" NCoef="0" IVar="6" Cut="2.0449792966246605e-02" cType="1" res="1.7478704452514648e-02" rms="4.5641258358955383e-01" purity="4.2486032843589783e-01" nType="0">
                    <Node pos="l" depth="7" NCoef="0" IVar="-1" Cut="0.0000000000000000e+00" cType="1" res="-1.6158558428287506e-03" rms="4.5218661427497864e-01" purity="3.8596156239509583e-01" nType="-99"/>
                    <Node pos="r" depth="7" NCoef="0" IVar="-1" Cut="0.0000000000000000e+00" cType="1" res="2.9276758432388306e-03" rms="4.5733410120010376e-01" purity="4.3838387727737427e-01" nType="-99"/>
                  </Node>
                  <Node pos="r" depth="6" NCoef="0" IVar="6" Cut="4.7262087464332581e-02" cType="1" res="-8.6755715310573578e-03" rms="4.3518653512001038e-01" purity="3.5322356224060059e-01" nType="0">
                    <Node pos="l" depth="7" NCoef="0" IVar="-1" Cut="0.0000000000000000e+00" cType="1" res="-4.0390505455434322e-03" rms="4.2884090542793274e-01" purity="3.2533285021781921e-01" nType="-99"/>
                    <Node pos="r" depth="7" NCoef="0" IVar="-1" Cut="0.0000000000000000e+00" cType="1" res="3.0894570954842493e-05" rms="4.3706816434860229e-01" purity="3.6312416195869446e-01" nType="-99"/>
                  </Node>
                </Node>
              </Node>
              <Node pos="r" depth="4" NCoef="0" IVar="2" Cut="3.6449621582031250e+02" cType="1" res="1.3879191130399704e-02" rms="4.5107823610305786e-01" purity="3.6459460854530334e-01" nType="0">
                <Node pos="l" depth="5" NCoef="0" IVar="3" Cut="6.7990869283676147e-01" cType="1" res="2.3862270638346672e-02" rms="4.5695203542709351e-01" purity="3.9229416847229004e-01" nType="0">
                  <Node pos="l" depth="6" NCoef="0" IVar="7" Cut="4.0000000000000000e+00" cType="1" res="1.7390836030244827e-02" rms="4.5098507404327393e-01" purity="3.5061115026473999e-01" nType="0">
                    <Node pos="l" depth="7" NCoef="0" IVar="-1" Cut="0.0000000000000000e+00" cType="1" res="3.5304378252476454e-04" rms="4.5383602380752563e-01" purity="3.5500100255012512e-01" nType="-99"/>
                    <Node pos="r" depth="7" NCoef="0" IVar="-1" Cut="0.0000000000000000e+00" cType="1" res="3.7086312659084797e-03" rms="4.5063140988349915e-01" purity="3.4576323628425598e-01" nType="-99"/>
                  </Node>
                  <Node pos="r" depth="6" NCoef="0" IVar="-1" Cut="0.0000000000000000e+00" cType="1" res="4.8241331242024899e-03" rms="4.7627857327461243e-01" purity="5.9377562999725342e-01" nType="-99"/>
                </Node>
                <Node pos="r" depth="5" NCoef="0" IVar="6" Cut="1.1962296813726425e-01" cType="1" res="-3.0082520097494125e-03" rms="4.4044920802116394e-01" purity="3.1773784756660461e-01" nType="0">
                  <Node pos="l" depth="6" NCoef="0" IVar="-1" Cut="0.0000000000000000e+00" cType="1" res="-2.8921377379447222e-03" rms="4.3150171637535095e-01" purity="3.1621345877647400e-01" nType="-99"/>
                  <Node pos="r" depth="6" NCoef="0" IVar="7" Cut="4.0000000000000000e+00" cType="1" res="1.1838351376354694e-02" rms="4.4201734662055969e-01" purity="3.1867173314094543e-01" nType="0">
                    <Node pos="l" depth="7" NCoef="0" IVar="-1" Cut="0.0000000000000000e+00" cType="1" res="2.3121694102883339e-03" rms="4.5493176579475403e-01" purity="3.4926155209541321e-01" nType="-99"/>
                    <Node pos="r" depth="7" NCoef="0" IVar="-1" Cut="0.0000000000000000e+00" cType="1" res="-2.6294357667211443e-05" rms="4.3604141473770142e-01" purity="2.9017227888107300e-01" nType="-99"/>
                  </Node>
                </Node>
              </Node>
            </Node>
            <Node pos="r" depth="3" NCoef="0" IVar="-1" Cut="0.0000000000000000e+00" cType="1" res="-1.6657408326864243e-02" rms="1.9784925878047943e-01" purity="4.0933042764663696e-02" nType="-99"/>
          </Node>
        </Node>
        <Node pos="r" depth="1" NCoef="0" IVar="5" Cut="-2.1259143352508545e+00" cType="1" res="1.9304234534502029e-02" rms="4.1851809620857239e-01" purity="7.3592090606689453e-01" nType="0">
          <Node pos="l" depth="2" NCoef="0" IVar="5" Cut="-3.0251045227050781e+00" cType="1" res="2.4668721482157707e-02" rms="4.0035155415534973e-01" purity="7.8000336885452271e-01" nType="0">
            <Node pos="l" depth="3" NCoef="0" IVar="3" Cut="1.0041630268096924e+00" cType="1" res="3.3385902643203735e-02" rms="3.7656423449516296e-01" purity="8.1304812431335449e-01" nType="0">
              <Node pos="l" depth="4" NCoef="0" IVar="4" Cut="-1.2259498834609985e+00" cType="1" res="2.9624730348587036e-02" rms="3.8414371013641357e-01" purity="8.0226790904998779e-01" nType="0">
                <Node pos="l" depth="5" NCoef="0" IVar="4" Cut="-2.1119921207427979e+00" cType="1" res="1.8804933875799179e-02" rms="4.1997602581977844e-01" purity="7.5026220083236694e-01" nType="0">
                  <Node pos="l" depth="6" NCoef="0" IVar="-1" Cut="0.0000000000000000e+00" cType="1" res="3.3392296172678471e-03" rms="4.1327479481697083e-01" purity="7.6033449172973633e-01" nType="-99"/>
                  <Node pos="r" depth="6" NCoef="0" IVar="-1" Cut="0.0000000000000000e+00" cType="1" res="7.9405965516343713e-04" rms="4.2576301097869873e-01" purity="7.4100524187088013e-01" nType="-99"/>
                </Node>
                <Node pos="r" depth="5" NCoef="0" IVar="3" Cut="9.9677401781082153e-01" cType="1" res="3.5523019731044769e-02" rms="3.6298820376396179e-01" purity="8.3061820268630981e-01" nType="0">
                  <Node pos="l" depth="6" NCoef="0" IVar="4" Cut="-7.3520070314407349e-01" cType="1" res="3.0008567497134209e-02" rms="3.7367218732833862e-01" purity="8.1566536426544189e-01" nType="0">
                    <Node pos="l" depth="7" NCoef="0" IVar="-1" Cut="0.0000000000000000e+00" cType="1" res="4.1257794946432114e-03" rms="3.7345364689826965e-01" purity="8.1311261653900146e-01" nType="-99"/>
                    <Node pos="r" depth="7" NCoef="0" IVar="-1" Cut="0.0000000000000000e+00" cType="1" res="3.3541291486471891e-03" rms="3.7376183271408081e-01" purity="8.1727981567382812e-01" nType="-99"/>
                  </Node>
                  <Node pos="r" depth="6" NCoef="0" IVar="-1" Cut="0.0000000000000000e+00" cType="1" res="5.6710103526711464e-03" rms="3.4737735986709595e-01" purity="8.5149335861206055e-01" nType="-99"/>
                </Node>
              </Node>
              <Node pos="r" depth="4" NCoef="0" IVar="-1" Cut="0.0000000000000000e+00" cType="1" res="5.5380710400640965e-03" rms="3.5001465678215027e-01" purity="8.4873777627944946e-01" nType="-99"/>
            </Node>
            <Node pos="r" depth="3" NCoef="0" IVar="4" Cut="-2.8571321964263916e+00" cType="1" res="2.0744699984788895e-02" rms="4.1054943203926086e-01" purity="7.6512825489044189e-01" nType="0">
              <Node pos="l" depth="4" NCoef="0" IVar="-1" Cut="0.0000000000000000e+00" cType="1" res="4.8943394795060158e-03" rms="4.0553233027458191e-01" purity="7.8332579135894775e-01" nType="-99"/>
              <Node pos="r" depth="4" NCoef="0" IVar="1" Cut="8.6978226900100708e-01" cType="1" res="1.8808005377650261e-02" rms="4.1089591383934021e-01" purity="7.6364248991012573e-01" nType="0">
                <Node pos="l" depth="5" NCoef="0" IVar="4" Cut="1.2282066792249680e-01" cType="1" res="2.2032883018255234e-02" rms="3.9783808588981628e-01" purity="7.9162359237670898e-01" nType="0">
                  <Node pos="l" depth="6" NCoef="0" IVar="0" Cut="3.1909149885177612e-01" cType="1" res="2.0205330103635788e-02" rms="3.9959403872489929e-01" purity="7.8890770673751831e-01" nType="0">
                    <Node pos="l" depth="7" NCoef="0" IVar="-1" Cut="0.0000000000000000e+00" cType="1" res="2.5329152122139931e-03" rms="3.9203733205795288e-01" purity="8.0513805150985718e-01" nType="-99"/>
                    <Node pos="r" depth="7" NCoef="0" IVar="-1" Cut="0.0000000000000000e+00" cType="1" res="-2.4148347438313067e-04" rms="4.7816342115402222e-01" purity="6.0023969411849976e-01" nType="-99"/>
                  </Node>
                  <Node pos="r" depth="6" NCoef="0" IVar="-1" Cut="0.0000000000000000e+00" cType="1" res="4.9532763659954071e-03" rms="3.7834003567695618e-01" purity="8.2019221782684326e-01" nType="-99"/>
                </Node>
                <Node pos="r" depth="5" NCoef="0" IVar="4" Cut="-8.0947440862655640e-01" cType="1" res="2.9963734559714794e-03" rms="4.6937385201454163e-01" purity="6.2645047903060913e-01" nType="0">
                  <Node pos="l" depth="6" NCoef="0" IVar="-1" Cut="0.0000000000000000e+00" cType="1" res="-6.4359861426055431e-04" rms="4.8335018754005432e-01" purity="5.7826310396194458e-01" nType="-99"/>
                  <Node pos="r" depth="6" NCoef="0" IVar="-1" Cut="0.0000000000000000e+00" cType="1" res="1.3087798142805696e-03" rms="4.5426940917968750e-01" purity="6.7608219385147095e-01" nType="-99"/>
                </Node>
              </Node>
            </Node>
          </Node>
          <Node pos="r" depth="2" NCoef="0" IVar="0" Cut="6.3840800523757935e-01" cType="1" res="7.7929850667715073e-03" rms="4.5484557747840881e-01" purity="6.4132785797119141e-01" nType="0">
            <Node pos="l" depth="3" NCoef="0" IVar="1" Cut="4.0295189619064331e-01" cType="1" res="1.1799171566963196e-02" rms="4.5404541492462158e-01" purity="6.6999244689941406e-01" nType="0">
              <Node pos="l" depth="4" NCoef="0" IVar="7" Cut="2.0000000000000000e+00" cType="1" res="1.4798554591834545e-02" rms="3.9003181457519531e-01" purity="7.1443068981170654e-01" nType="0">
                <Node pos="l" depth="5" NCoef="0" IVar="4" Cut="-2.8400379419326782e-01" cType="1" res="2.5213249027729034e-02" rms="4.2384365200996399e-01" purity="7.5467061996459961e-01" nType="0">
                  <Node pos="l" depth="6" NCoef="0" IVar="3" Cut="9.9487149715423584e-01" cType="1" res="1.5299051068723202e-02" rms="4.3201857805252075e-01" purity="7.4375522136688232e-01" nType="0">
                    <Node pos="l" depth="7" NCoef="0" IVar="-1" Cut="0.0000000000000000e+00" cType="1" res="-3.2244763133348897e-05" rms="4.4512742757797241e-01" purity="7.1898245811462402e-01" nType="-99"/>
                    <Node pos="r" depth="7" NCoef="0" IVar="-1" Cut="0.0000000000000000e+00" cType="1" res="2.3718506563454866e-03" rms="4.2357322573661804e-01" purity="7.5880908966064453e-01" nType="-99"/>
                  </Node>
                  <Node pos="r" depth="6" NCoef="0" IVar="4" Cut="1.9754560291767120e-01" cType="1" res="3.6785714328289032e-02" rms="4.1379696130752563e-01" purity="7.6741182804107666e-01" nType="0">
                    <Node pos="l" depth="7" NCoef="0" IVar="-1" Cut="0.0000000000000000e+00" cType="1" res="3.3245645463466644e-03" rms="4.0762957930564880e-01" purity="7.8188836574554443e-01" nType="-99"/>
                    <Node pos="r" depth="7" NCoef="0" IVar="-1" Cut="0.0000000000000000e+00" cType="1" res="4.4740708544850349e-03" rms="4.1994878649711609e-01" purity="7.5252181291580200e-01" nType="-99"/>
                  </Node>
                </Node>
                <Node pos="r" depth="5" NCoef="0" IVar="6" Cut="3.9038285613059998e-02" cType="1" res="8.7929219007492065e-03" rms="4.6331852674484253e-01" purity="6.6561198234558105e-01" nType="0">
                  <Node pos="l" depth="6" NCoef="0" IVar="-1" Cut="0.0000000000000000e+00" cType="1" res="-3.9146281778812408e-04" rms="4.6399116516113281e-01" purity="6.6251003742218018e-01" nType="-99"/>
                  <Node pos="r" depth="6" NCoef="0" IVar="2" Cut="1.4557073974609375e+02" cType="1" res="1.9858680665493011e-02" rms="4.6244785189628601e-01" purity="6.6831177473068237e-01" nType="0">
                    <Node pos="l" depth="7" NCoef="0" IVar="-1" Cut="0.0000000000000000e+00" cType="1" res="1.8862826982513070e-03" rms="4.6062755584716797e-01" purity="6.7578947544097900e-01" nType="-99"/>
                    <Node pos="r" depth="7" NCoef="0" IVar="-1" Cut="0.0000000000000000e+00" cType="1" res="1.7347296234220266e-03" rms="4.6446442604064941e-01" purity="6.5997344255447388e-01" nType="-99"/>
                  </Node>
                </Node>
              </Node>
              <Node pos="r" depth="4" NCoef="0" IVar="0" Cut="2.0575685426592827e-02" cType="1" res="-1.4389584539458156e-03" rms="4.7891768813133240e-01" purity="5.7186037302017212e-01" nType="0">
                <Node pos="l" depth="5" NCoef="0" IVar="2" Cut="4.4670410156250000e+01" cType="1" res="8.7244194000959396e-03" rms="4.7541213035583496e-01" purity="6.0577178001403809e-01" nType="0">
                  <Node pos="l" depth="6" NCoef="0" IVar="4" Cut="-3.3356162905693054e-01" cType="1" res="-6.3888961449265480e-03" rms="4.7289255261421204e-01" purity="6.0384333133697510e-01" nType="0">
                    <Node pos="l" depth="7" NCoef="0" IVar="-1" Cut="0.0000000000000000e+00" cType="1" res="-1.5587822999805212e-03" rms="4.7791522741317749e-01" purity="5.9200417995452881e-01" nType="-99"/>
                    <Node pos="r" depth="7" NCoef="0" IVar="-1" Cut="0.0000000000000000e+00" cType="1" res="5.3330435184761882e-04" rms="4.6731120347976685e-01" purity="6.1612612009048462e-01" nType="-99"/>
                  </Node>
                  <Node pos="r" depth="6" NCoef="0" IVar="-1" Cut="0.0000000000000000e+00" cType="1" res="3.5091796889901161e-03" rms="4.7921147942543030e-01" purity="6.0997855663299561e-01" nType="-99"/>
                </Node>
                <Node pos="r" depth="5" NCoef="0" IVar="-1" Cut="0.0000000000000000e+00" cType="1" res="-3.0531969387084246e-03" rms="4.8833781480789185e-01" purity="4.6603539586067200e-01" nType="-99"/>
              </Node>
            </Node>
            <Node pos="r" depth="3" NCoef="0" IVar="-1" Cut="0.0000000000000000e+00" cType="1" res="-3.3000712282955647e-03" rms="4.6088519692420959e-01" purity="3.5293167829513550e-01" nType="-99"/>
          </Node>
        </Node>
      </Node>
    </BinaryTree>
    <BinaryTree type="DecisionTree" boostWeight="1.0000000000000000e+00" itree="67">
      <Node pos="s" depth="0" NCoef="0" IVar="3" Cut="7.7848094701766968e-01" cType="1" res="6.8333060480654240e-03" rms="4.0097537636756897e-01" purity="5.0025749206542969e-01" nType="0">
        <Node pos="l" depth="1" NCoef="0" IVar="1" Cut="7.8795707225799561e-01" cType="1" res="-5.9156408533453941e-03" rms="3.8252833485603333e-01" purity="2.5883588194847107e-01" nType="0">
          <Node pos="l" depth="2" NCoef="0" IVar="4" Cut="1.5430563688278198e+00" cType="1" res="8.8721542851999402e-04" rms="4.1235509514808655e-01" purity="3.2790213823318481e-01" nType="0">
            <Node pos="l" depth="3" NCoef="0" IVar="6" Cut="2.5709865614771843e-02" cType="1" res="5.0213378854095936e-03" rms="4.3499371409416199e-01" purity="3.7184414267539978e-01" nType="0">
              <Node pos="l" depth="4" NCoef="0" IVar="-1" Cut="0.0000000000000000e+00" cType="1" res="-3.2390262931585312e-03" rms="4.3907320499420166e-01" purity="3.9251947402954102e-01" nType="-99"/>
              <Node pos="r" depth="4" NCoef="0" IVar="2" Cut="2.0162783813476562e+02" cType="1" res="7.7856215648353100e-03" rms="4.3454551696777344e-01" purity="3.7017878890037537e-01" nType="0">
                <Node pos="l" depth="5" NCoef="0" IVar="6" Cut="8.4220051765441895e-02" cType="1" res="1.8286200240254402e-02" rms="4.4739666581153870e-01" purity="4.2889529466629028e-01" nType="0">
                  <Node pos="l" depth="6" NCoef="0" IVar="2" Cut="7.4665000915527344e+01" cType="1" res="9.0026212856173515e-03" rms="4.4508093595504761e-01" purity="4.2556345462799072e-01" nType="0">
                    <Node pos="l" depth="7" NCoef="0" IVar="-1" Cut="0.0000000000000000e+00" cType="1" res="3.0104469042271376e-03" rms="4.6050876379013062e-01" purity="4.9290075898170471e-01" nType="-99"/>
                    <Node pos="r" depth="7" NCoef="0" IVar="-1" Cut="0.0000000000000000e+00" cType="1" res="-3.5949458833783865e-04" rms="4.3597218394279480e-01" purity="3.8890567421913147e-01" nType="-99"/>
                  </Node>
                  <Node pos="r" depth="6" NCoef="0" IVar="3" Cut="4.8616155982017517e-01" cType="1" res="4.3300546705722809e-02" rms="4.5263078808784485e-01" purity="4.3787288665771484e-01" nType="0">
                    <Node pos="l" depth="7" NCoef="0" IVar="-1" Cut="0.0000000000000000e+00" cType="1" res="3.9818338118493557e-03" rms="3.8875496387481689e-01" purity="2.0972134172916412e-01" nType="-99"/>
                    <Node pos="r" depth="7" NCoef="0" IVar="-1" Cut="0.0000000000000000e+00" cType="1" res="4.4818064197897911e-03" rms="4.7995164990425110e-01" purity="5.4730105400085449e-01" nType="-99"/>
                  </Node>
                </Node>
                <Node pos="r" depth="5" NCoef="0" IVar="6" Cut="1.3892458379268646e-01" cType="1" res="-3.4815932158380747e-03" rms="4.2002746462821960e-01" purity="3.0717545747756958e-01" nType="0">
                  <Node pos="l" depth="6" NCoef="0" IVar="1" Cut="-3.4928071498870850e-01" cType="1" res="-8.9046331122517586e-03" rms="4.2328003048896790e-01" purity="3.3165287971496582e-01" nType="0">
                    <Node pos="l" depth="7" NCoef="0" IVar="-1" Cut="0.0000000000000000e+00" cType="1" res="2.2991111036390066e-03" rms="4.5979502797126770e-01" purity="4.4434353709220886e-01" nType="-99"/>
                    <Node pos="r" depth="7" NCoef="0" IVar="-1" Cut="0.0000000000000000e+00" cType="1" res="-2.1133339032530785e-03" rms="4.1382518410682678e-01" purity="3.0495491623878479e-01" nType="-99"/>
                  </Node>
                  <Node pos="r" depth="6" NCoef="0" IVar="2" Cut="4.2734921264648438e+02" cType="1" res="8.2816574722528458e-03" rms="4.1263926029205322e-01" purity="2.5408095121383667e-01" nType="0">
                    <Node pos="l" depth="7" NCoef="0" IVar="-1" Cut="0.0000000000000000e+00" cType="1" res="3.7470683455467224e-03" rms="4.2694097757339478e-01" purity="2.9098623991012573e-01" nType="-99"/>
                    <Node pos="r" depth="7" NCoef="0" IVar="-1" Cut="0.0000000000000000e+00" cType="1" res="-3.5393831785768270e-04" rms="4.0425518155097961e-01" purity="2.3401640355587006e-01" nType="-99"/>
                  </Node>
                </Node>
              </Node>
            </Node>
            <Node pos="r" depth="3" NCoef="0" IVar="6" Cut="1.1534903943538666e-01" cType="1" res="-2.3846974596381187e-02" rms="2.3356620967388153e-01" purity="6.4999893307685852e-02" nType="0">
              <Node pos="l" depth="4" NCoef="0" IVar="7" Cut="5.0000000000000000e+00" cType="1" res="-3.6408238112926483e-02" rms="2.1801462769508362e-01" purity="5.8023069053888321e-02" nType="0">
                <Node pos="l" depth="5" NCoef="0" IVar="-1" Cut="0.0000000000000000e+00" cType="1" res="-1.1063305661082268e-02" rms="2.6619040966033936e-01" purity="8.7413392961025238e-02" nType="-99"/>
                <Node pos="r" depth="5" NCoef="0" IVar="-1" Cut="0.0000000000000000e+00" cType="1" res="-1.5131674706935883e-02" rms="1.4335286617279053e-01" purity="2.3709323257207870e-02" nType="-99"/>
              </Node>
              <Node pos="r" depth="4" NCoef="0" IVar="-1" Cut="0.0000000000000000e+00" cType="1" res="-3.0091751832515001e-03" rms="2.4958439171314240e-01" purity="7.3385596275329590e-02" nType="-99"/>
            </Node>
          </Node>
          <Node pos="r" depth="2" NCoef="0" IVar="6" Cut="5.1465697586536407e-02" cType="1" res="-1.6394723206758499e-02" rms="3.3109810948371887e-01" purity="1.5244650840759277e-01" nType="0">
            <Node pos="l" depth="3" NCoef="0" IVar="7" Cut="4.0000000000000000e+00" cType="1" res="-3.0575148761272430e-02" rms="3.3641067147254944e-01" purity="1.5897397696971893e-01" nType="0">
              <Node pos="l" depth="4" NCoef="0" IVar="-1" Cut="0.0000000000000000e+00" cType="1" res="-6.5539386123418808e-03" rms="3.9294648170471191e-01" purity="2.2131948173046112e-01" nType="-99"/>
              <Node pos="r" depth="4" NCoef="0" IVar="6" Cut="3.5094853490591049e-02" cType="1" res="-1.5477641485631466e-02" rms="2.7310612797737122e-01" purity="9.7417734563350677e-02" nType="0">
                <Node pos="l" depth="5" NCoef="0" IVar="-1" Cut="0.0000000000000000e+00" cType="1" res="-4.3313940986990929e-03" rms="2.7605989575386047e-01" purity="9.8201751708984375e-02" nType="-99"/>
                <Node pos="r" depth="5" NCoef="0" IVar="-1" Cut="0.0000000000000000e+00" cType="1" res="-4.5428727753460407e-03" rms="2.7006426453590393e-01" purity="9.6619293093681335e-02" nType="-99"/>
              </Node>
            </Node>
            <Node pos="r" depth="3" NCoef="0" IVar="5" Cut="-1.3303630352020264e+00" cType="1" res="-1.2571151368319988e-02" rms="3.2908007502555847e-01" purity="1.5075443685054779e-01" nType="0">
              <Node pos="l" depth="4" NCoef="0" IVar="3" Cut="5.8059573173522949e-01" cType="1" res="-6.2288749031722546e-03" rms="3.6586800217628479e-01" purity="1.9385518133640289e-01" nType="0">
                <Node pos="l" depth="5" NCoef="0" IVar="3" Cut="2.5029724836349487e-01" cType="1" res="-1.2320784851908684e-02" rms="3.2537034153938293e-01" purity="1.3258376717567444e-01" nType="0">
                  <Node pos="l" depth="6" NCoef="0" IVar="1" Cut="1.9753365516662598e+00" cType="1" res="-2.6895195245742798e-02" rms="2.6157811284065247e-01" purity="8.1176482141017914e-02" nType="0">
                    <Node pos="l" depth="7" NCoef="0" IVar="-1" Cut="0.0000000000000000e+00" cType="1" res="-1.4867830090224743e-02" rms="2.2961509227752686e-01" purity="5.9819433838129044e-02" nType="-99"/>
                    <Node pos="r" depth="7" NCoef="0" IVar="-1" Cut="0.0000000000000000e+00" cType="1" res="-3.2172228675335646e-03" rms="2.8653976321220398e-01" purity="1.0050938278436661e-01" nType="-99"/>
                  </Node>
                  <Node pos="r" depth="6" NCoef="0" IVar="7" Cut="4.0000000000000000e+00" cType="1" res="-5.4024830460548401e-03" rms="3.4693709015846252e-01" purity="1.5480904281139374e-01" nType="0">
                    <Node pos="l" depth="7" NCoef="0" IVar="-1" Cut="0.0000000000000000e+00" cType="1" res="-4.0825703181326389e-03" rms="3.5459905862808228e-01" purity="1.6141436994075775e-01" nType="-99"/>
                    <Node pos="r" depth="7" NCoef="0" IVar="-1" Cut="0.0000000000000000e+00" cType="1" res="3.4342505387030542e-04" rms="3.4632956981658936e-01" purity="1.5169976651668549e-01" nType="-99"/>
                  </Node>
                </Node>
                <Node pos="r" depth="5" NCoef="0" IVar="1" Cut="1.3819620609283447e+00" cType="1" res="1.4309744350612164e-02" rms="4.7717022895812988e-01" purity="4.0042921900749207e-01" nType="0">
                  <Node pos="l" depth="6" NCoef="0" IVar="-1" Cut="0.0000000000000000e+00" cType="1" res="2.8333195950835943e-03" rms="4.8520436882972717e-01" purity="4.4562685489654541e-01" nType="-99"/>
                  <Node pos="r" depth="6" NCoef="0" IVar="-1" Cut="0.0000000000000000e+00" cType="1" res="-2.4735767510719597e-04" rms="4.6827054023742676e-01" purity="3.5447901487350464e-01" nType="-99"/>
                </Node>
              </Node>
              <Node pos="r" depth="4" NCoef="0" IVar="6" Cut="1.9651389122009277e-01" cType="1" res="-2.2213621065020561e-02" rms="2.6319351792335510e-01" purity="8.5226297378540039e-02" nType="0">
                <Node pos="l" depth="5" NCoef="0" IVar="6" Cut="1.1229076981544495e-01" cType="1" res="-2.6783009991049767e-02" rms="2.5195759534835815e-01" purity="7.9633988440036774e-02" nType="0">
                  <Node pos="l" depth="6" NCoef="0" IVar="3" Cut="4.7141224145889282e-01" cType="1" res="-3.2034818083047867e-02" rms="2.5868386030197144e-01" purity="8.6302556097507477e-02" nType="0">
                    <Node pos="l" depth="7" NCoef="0" IVar="-1" Cut="0.0000000000000000e+00" cType="1" res="-1.5934817492961884e-02" rms="1.5252450108528137e-01" purity="2.4463864043354988e-02" nType="-99"/>
                    <Node pos="r" depth="7" NCoef="0" IVar="-1" Cut="0.0000000000000000e+00" cType="1" res="-6.4675505273044109e-03" rms="3.6719888448715210e-01" purity="1.8273867666721344e-01" nType="-99"/>
                  </Node>
                  <Node pos="r" depth="6" NCoef="0" IVar="5" Cut="2.3009264469146729e-01" cType="1" res="-2.0267864689230919e-02" rms="2.4319754540920258e-01" purity="7.1361295878887177e-02" nType="0">
                    <Node pos="l" depth="7" NCoef="0" IVar="-1" Cut="0.0000000000000000e+00" cType="1" res="-2.9026712290942669e-03" rms="3.0403819680213928e-01" purity="1.1514475196599960e-01" nType="-99"/>
                    <Node pos="r" depth="7" NCoef="0" IVar="-1" Cut="0.0000000000000000e+00" cType="1" res="-1.6490420326590538e-02" rms="1.5775734186172485e-01" purity="2.6532432064414024e-02" nType="-99"/>
                  </Node>
                </Node>
                <Node pos="r" depth="5" NCoef="0" IVar="-1" Cut="0.0000000000000000e+00" cType="1" res="-3.5883474629372358e-04" rms="3.0867341160774231e-01" purity="1.1087123304605484e-01" nType="-99"/>
              </Node>
            </Node>
          </Node>
        </Node>
        <Node pos="r" depth="1" NCoef="0" IVar="0" Cut="9.5647937059402466e-01" cType="1" res="1.9329031929373741e-02" rms="4.1788998246192932e-01" purity="7.3688393831253052e-01" nType="0">
          <Node pos="l" depth="2" NCoef="0" IVar="5" Cut="-2.5070264339447021e+00" cType="1" res="2.1178804337978363e-02" rms="4.1554975509643555e-01" purity="7.5215107202529907e-01" nType="0">
            <Node pos="l" depth="3" NCoef="0" IVar="0" Cut="2.1594436466693878e-01" cType="1" res="2.8381882235407829e-02" rms="3.8852733373641968e-01" purity="8.0285924673080444e-01" nType="0">
              <Node pos="l" depth="4" NCoef="0" IVar="3" Cut="1.0070242881774902e+00" cType="1" res="3.0580358579754829e-02" rms="3.7830084562301636e-01" purity="8.2020407915115356e-01" nType="0">
                <Node pos="l" depth="5" NCoef="0" IVar="3" Cut="9.9964976310729980e-01" cType="1" res="2.8401697054505348e-02" rms="3.8433125615119934e-01" purity="8.1279283761978149e-01" nType="0">
                  <Node pos="l" depth="6" NCoef="0" IVar="6" Cut="2.7681868523359299e-02" cType="1" res="2.5683898478746414e-02" rms="3.9149239659309387e-01" purity="8.0341249704360962e-01" nType="0">
                    <Node pos="l" depth="7" NCoef="0" IVar="-1" Cut="0.0000000000000000e+00" cType="1" res="2.5569049175828695e-03" rms="3.8541486859321594e-01" purity="8.1138211488723755e-01" nType="-99"/>
                    <Node pos="r" depth="7" NCoef="0" IVar="-1" Cut="0.0000000000000000e+00" cType="1" res="4.0002432651817799e-03" rms="4.0933319926261902e-01" purity="7.7891349792480469e-01" nType="-99"/>
                  </Node>
                  <Node pos="r" depth="6" NCoef="0" IVar="5" Cut="-2.8804697990417480e+00" cType="1" res="3.8749448955059052e-02" rms="3.5555899143218994e-01" purity="8.4850758314132690e-01" nType="0">
                    <Node pos="l" depth="7" NCoef="0" IVar="-1" Cut="0.0000000000000000e+00" cType="1" res="5.3753363899886608e-03" rms="3.4558010101318359e-01" purity="8.5897451639175415e-01" nType="-99"/>
                    <Node pos="r" depth="7" NCoef="0" IVar="-1" Cut="0.0000000000000000e+00" cType="1" res="3.2173728104680777e-03" rms="3.7373211979866028e-01" purity="8.2839184999465942e-01" nType="-99"/>
                  </Node>
                </Node>
                <Node pos="r" depth="5" NCoef="0" IVar="4" Cut="-6.0717266798019409e-01" cType="1" res="4.1212119162082672e-02" rms="3.4717801213264465e-01" purity="8.5637050867080688e-01" nType="0">
                  <Node pos="l" depth="6" NCoef="0" IVar="-1" Cut="0.0000000000000000e+00" cType="1" res="4.2034662328660488e-03" rms="3.5563978552818298e-01" purity="8.4625095129013062e-01" nType="-99"/>
                  <Node pos="r" depth="6" NCoef="0" IVar="-1" Cut="0.0000000000000000e+00" cType="1" res="6.1326734721660614e-03" rms="3.3586621284484863e-01" purity="8.6939853429794312e-01" nType="-99"/>
                </Node>
              </Node>
              <Node pos="r" depth="4" NCoef="0" IVar="6" Cut="2.1759923547506332e-02" cType="1" res="1.1374057270586491e-02" rms="4.5966690778732300e-01" purity="6.6867643594741821e-01" nType="0">
                <Node pos="l" depth="5" NCoef="0" IVar="-1" Cut="0.0000000000000000e+00" cType="1" res="1.5957550203893334e-04" rms="4.5982253551483154e-01" purity="6.7071151733398438e-01" nType="-99"/>
                <Node pos="r" depth="5" NCoef="0" IVar="-1" Cut="0.0000000000000000e+00" cType="1" res="2.5604923721402884e-03" rms="4.5897683501243591e-01" purity="6.6536229848861694e-01" nType="-99"/>
              </Node>
            </Node>
            <Node pos="r" depth="3" NCoef="0" IVar="5" Cut="-6.5616667270660400e-01" cType="1" res="1.3181852176785469e-02" rms="4.4348943233489990e-01" purity="6.9585412740707397e-01" nType="0">
              <Node pos="l" depth="4" NCoef="0" IVar="1" Cut="9.5225490629673004e-02" cType="1" res="1.6119318082928658e-02" rms="4.3832138180732727e-01" purity="7.1796947717666626e-01" nType="0">
                <Node pos="l" depth="5" NCoef="0" IVar="0" Cut="3.0794519931077957e-02" cType="1" res="2.1261559799313545e-02" rms="4.1598424315452576e-01" purity="7.6930016279220581e-01" nType="0">
                  <Node pos="l" depth="6" NCoef="0" IVar="3" Cut="8.5806304216384888e-01" cType="1" res="2.3319525644183159e-02" rms="4.0623769164085388e-01" purity="7.8722524642944336e-01" nType="0">
                    <Node pos="l" depth="7" NCoef="0" IVar="-1" Cut="0.0000000000000000e+00" cType="1" res="1.1001649545505643e-03" rms="4.4703555107116699e-01" purity="7.2185188531875610e-01" nType="-99"/>
                    <Node pos="r" depth="7" NCoef="0" IVar="-1" Cut="0.0000000000000000e+00" cType="1" res="2.9025792609900236e-03" rms="3.9674425125122070e-01" purity="8.0147761106491089e-01" nType="-99"/>
                  </Node>
                  <Node pos="r" depth="6" NCoef="0" IVar="-1" Cut="0.0000000000000000e+00" cType="1" res="1.0780526790767908e-03" rms="4.6059644222259521e-01" purity="6.8155556917190552e-01" nType="-99"/>
                </Node>
                <Node pos="r" depth="5" NCoef="0" IVar="1" Cut="2.0105118751525879e+00" cType="1" res="1.0863100178539753e-02" rms="4.5997461676597595e-01" purity="6.6550099849700928e-01" nType="0">
                  <Node pos="l" depth="6" NCoef="0" IVar="6" Cut="4.9292162060737610e-02" cType="1" res="1.5413526445627213e-02" rms="4.5603945851325989e-01" purity="6.8323016166687012e-01" nType="0">
                    <Node pos="l" depth="7" NCoef="0" IVar="-1" Cut="0.0000000000000000e+00" cType="1" res="1.1653077090159059e-03" rms="4.5403951406478882e-01" purity="6.8867361545562744e-01" nType="-99"/>
                    <Node pos="r" depth="7" NCoef="0" IVar="-1" Cut="0.0000000000000000e+00" cType="1" res="2.9624346643686295e-03" rms="4.6754905581474304e-01" purity="6.5017718076705933e-01" nType="-99"/>
                  </Node>
                  <Node pos="r" depth="6" NCoef="0" IVar="-1" Cut="0.0000000000000000e+00" cType="1" res="-2.6377018075436354e-03" rms="4.9212336540222168e-01" purity="5.0577062368392944e-01" nType="-99"/>
                </Node>
              </Node>
              <Node pos="r" depth="4" NCoef="0" IVar="6" Cut="1.2682562693953514e-02" cType="1" res="-1.2142918072640896e-02" rms="4.8503249883651733e-01" purity="5.0519126653671265e-01" nType="0">
                <Node pos="l" depth="5" NCoef="0" IVar="-1" Cut="0.0000000000000000e+00" cType="1" res="-7.6525611802935600e-05" rms="4.8454198241233826e-01" purity="5.5533027648925781e-01" nType="-99"/>
                <Node pos="r" depth="5" NCoef="0" IVar="-1" Cut="0.0000000000000000e+00" cType="1" res="-2.1732565946877003e-03" rms="4.8526042699813843e-01" purity="4.5488905906677246e-01" nType="-99"/>
              </Node>
            </Node>
          </Node>
          <Node pos="r" depth="2" NCoef="0" IVar="-1" Cut="0.0000000000000000e+00" cType="1" res="-2.5854578707367182e-03" rms="4.6911850571632385e-01" purity="3.6462283134460449e-01" nType="-99"/>
        </Node>
      </Node>
    </BinaryTree>
    <BinaryTree type="DecisionTree" boostWeight="1.0000000000000000e+00" itree="68">
      <Node pos="s" depth="0" NCoef="0" IVar="3" Cut="7.7304130792617798e-01" cType="1" res="5.4661971516907215e-03" rms="4.0095409750938416e-01" purity="4.9846726655960083e-01" nType="0">
        <Node pos="l" depth="1" NCoef="0" IVar="1" Cut="-5.9348661452531815e-02" cType="1" res="-7.9352352768182755e-03" rms="3.8096532225608826e-01" purity="2.5216203927993774e-01" nType="0">
          <Node pos="l" depth="2" NCoef="0" IVar="5" Cut="-1.8915459513664246e-01" cType="1" res="7.7334675006568432e-03" rms="4.3606853485107422e-01" purity="3.9795866608619690e-01" nType="0">
            <Node pos="l" depth="3" NCoef="0" IVar="6" Cut="6.3854925334453583e-02" cType="1" res="1.1763541959226131e-02" rms="4.5305985212326050e-01" purity="4.4024482369422913e-01" nType="0">
              <Node pos="l" depth="4" NCoef="0" IVar="3" Cut="6.0786187648773193e-01" cType="1" res="3.6177920264890417e-05" rms="4.5464307069778442e-01" purity="4.7365131974220276e-01" nType="0">
                <Node pos="l" depth="5" NCoef="0" IVar="-1" Cut="0.0000000000000000e+00" cType="1" res="-2.9476105701178312e-03" rms="3.9421093463897705e-01" purity="2.3593704402446747e-01" nType="-99"/>
                <Node pos="r" depth="5" NCoef="0" IVar="2" Cut="8.5472129821777344e+01" cType="1" res="9.8704434931278229e-03" rms="4.7987499833106995e-01" purity="5.8432990312576294e-01" nType="0">
                  <Node pos="l" depth="6" NCoef="0" IVar="-1" Cut="0.0000000000000000e+00" cType="1" res="1.6654236242175102e-03" rms="4.7677025198936462e-01" purity="6.1393535137176514e-01" nType="-99"/>
                  <Node pos="r" depth="6" NCoef="0" IVar="-1" Cut="0.0000000000000000e+00" cType="1" res="3.9547274354845285e-05" rms="4.8283025622367859e-01" purity="5.5420905351638794e-01" nType="-99"/>
                </Node>
              </Node>
              <Node pos="r" depth="4" NCoef="0" IVar="2" Cut="2.1476516723632812e+02" cType="1" res="1.8591718748211861e-02" rms="4.5199534296989441e-01" purity="4.2079409956932068e-01" nType="0">
                <Node pos="l" depth="5" NCoef="0" IVar="-1" Cut="0.0000000000000000e+00" cType="1" res="3.6276406608521938e-03" rms="4.6352937817573547e-01" purity="5.0777000188827515e-01" nType="-99"/>
                <Node pos="r" depth="5" NCoef="0" IVar="6" Cut="1.3819277286529541e-01" cType="1" res="6.9127590395510197e-03" rms="4.4483453035354614e-01" purity="3.7098354101181030e-01" nType="0">
                  <Node pos="l" depth="6" NCoef="0" IVar="2" Cut="3.2779171752929688e+02" cType="1" res="7.1240001125261188e-04" rms="4.4664278626441956e-01" purity="4.0396863222122192e-01" nType="0">
                    <Node pos="l" depth="7" NCoef="0" IVar="-1" Cut="0.0000000000000000e+00" cType="1" res="1.4944268623366952e-03" rms="4.5158126950263977e-01" purity="4.2752531170845032e-01" nType="-99"/>
                    <Node pos="r" depth="7" NCoef="0" IVar="-1" Cut="0.0000000000000000e+00" cType="1" res="-1.6380784800276160e-03" rms="4.4052872061729431e-01" purity="3.7738656997680664e-01" nType="-99"/>
                  </Node>
                  <Node pos="r" depth="6" NCoef="0" IVar="-1" Cut="0.0000000000000000e+00" cType="1" res="2.4549535010010004e-03" rms="4.4102340936660767e-01" purity="3.0645212531089783e-01" nType="-99"/>
                </Node>
              </Node>
            </Node>
            <Node pos="r" depth="3" NCoef="0" IVar="-1" Cut="0.0000000000000000e+00" cType="1" res="-4.6527823433279991e-03" rms="2.9881504178047180e-01" purity="1.1792839318513870e-01" nType="-99"/>
          </Node>
          <Node pos="r" depth="2" NCoef="0" IVar="6" Cut="1.0273973643779755e-01" cType="1" res="-1.1973747052252293e-02" rms="3.6530953645706177e-01" purity="2.1458385884761810e-01" nType="0">
            <Node pos="l" depth="3" NCoef="0" IVar="7" Cut="3.0000000000000000e+00" cType="1" res="-1.8592014908790588e-02" rms="3.7239035964012146e-01" purity="2.3671762645244598e-01" nType="0">
              <Node pos="l" depth="4" NCoef="0" IVar="6" Cut="6.9682106375694275e-02" cType="1" res="-3.4069757908582687e-02" rms="4.3139317631721497e-01" purity="3.2430815696716309e-01" nType="0">
                <Node pos="l" depth="5" NCoef="0" IVar="2" Cut="8.8732482910156250e+01" cType="1" res="-4.6848490834236145e-02" rms="4.2409208416938782e-01" purity="2.9732096195220947e-01" nType="0">
                  <Node pos="l" depth="6" NCoef="0" IVar="-1" Cut="0.0000000000000000e+00" cType="1" res="-3.0581899918615818e-03" rms="4.4236913323402405e-01" purity="3.4402671456336975e-01" nType="-99"/>
                  <Node pos="r" depth="6" NCoef="0" IVar="-1" Cut="0.0000000000000000e+00" cType="1" res="-8.8491700589656830e-03" rms="4.0025508403778076e-01" purity="2.4195422232151031e-01" nType="-99"/>
                </Node>
                <Node pos="r" depth="5" NCoef="0" IVar="-1" Cut="0.0000000000000000e+00" cType="1" res="-1.6369381919503212e-03" rms="4.4131484627723694e-01" purity="3.6431685090065002e-01" nType="-99"/>
              </Node>
              <Node pos="r" depth="4" NCoef="0" IVar="3" Cut="5.0290107727050781e-01" cType="1" res="-1.4941862784326077e-02" rms="3.5767734050750732e-01" purity="2.1548469364643097e-01" nType="0">
                <Node pos="l" depth="5" NCoef="0" IVar="1" Cut="2.2092142105102539e+00" cType="1" res="-2.2847479209303856e-02" rms="2.2723518311977386e-01" purity="5.8085523545742035e-02" nType="0">
                  <Node pos="l" depth="6" NCoef="0" IVar="2" Cut="6.0195549011230469e+01" cType="1" res="-2.5122001767158508e-02" rms="2.2564505040645599e-01" purity="5.7527348399162292e-02" nType="0">
                    <Node pos="l" depth="7" NCoef="0" IVar="-1" Cut="0.0000000000000000e+00" cType="1" res="-3.6253994330763817e-03" rms="2.7293598651885986e-01" purity="8.7387584149837494e-02" nType="-99"/>
                    <Node pos="r" depth="7" NCoef="0" IVar="-1" Cut="0.0000000000000000e+00" cType="1" res="-1.0769639164209366e-02" rms="2.1483233571052551e-01" purity="5.1553539931774139e-02" nType="-99"/>
                  </Node>
                  <Node pos="r" depth="6" NCoef="0" IVar="-1" Cut="0.0000000000000000e+00" cType="1" res="-3.4663570113480091e-03" rms="2.3707443475723267e-01" purity="6.1834327876567841e-02" nType="-99"/>
                </Node>
                <Node pos="r" depth="5" NCoef="0" IVar="5" Cut="-2.2173683643341064e+00" cType="1" res="-6.9246427156031132e-03" rms="4.5296773314476013e-01" purity="3.7510585784912109e-01" nType="0">
                  <Node pos="l" depth="6" NCoef="0" IVar="2" Cut="1.5698846435546875e+02" cType="1" res="6.5767443738877773e-03" rms="4.6633699536323547e-01" purity="4.2294153571128845e-01" nType="0">
                    <Node pos="l" depth="7" NCoef="0" IVar="-1" Cut="0.0000000000000000e+00" cType="1" res="1.7376585165038705e-03" rms="4.7096738219261169e-01" purity="4.5036897063255310e-01" nType="-99"/>
                    <Node pos="r" depth="7" NCoef="0" IVar="-1" Cut="0.0000000000000000e+00" cType="1" res="-1.6794234979897738e-03" rms="4.5633351802825928e-01" purity="3.6912214756011963e-01" nType="-99"/>
                  </Node>
                  <Node pos="r" depth="6" NCoef="0" IVar="4" Cut="3.2646641135215759e-02" cType="1" res="-1.9141018390655518e-02" rms="4.4016462564468384e-01" purity="3.3182299137115479e-01" nType="0">
                    <Node pos="l" depth="7" NCoef="0" IVar="-1" Cut="0.0000000000000000e+00" cType="1" res="-2.0558261894620955e-04" rms="4.7266674041748047e-01" purity="4.1964691877365112e-01" nType="-99"/>
                    <Node pos="r" depth="7" NCoef="0" IVar="-1" Cut="0.0000000000000000e+00" cType="1" res="-4.5929364860057831e-03" rms="4.0679785609245300e-01" purity="2.4973006546497345e-01" nType="-99"/>
                  </Node>
                </Node>
              </Node>
            </Node>
            <Node pos="r" depth="3" NCoef="0" IVar="5" Cut="-1.8129684925079346e+00" cType="1" res="-2.2621427197009325e-03" rms="3.5320872068405151e-01" purity="1.8250216543674469e-01" nType="0">
              <Node pos="l" depth="4" NCoef="0" IVar="3" Cut="3.0587103962898254e-01" cType="1" res="9.3732047826051712e-03" rms="4.0122556686401367e-01" purity="2.5172451138496399e-01" nType="0">
                <Node pos="l" depth="5" NCoef="0" IVar="6" Cut="1.6928496956825256e-01" cType="1" res="-1.1043122969567776e-02" rms="3.1496253609657288e-01" purity="1.2362941354513168e-01" nType="0">
                  <Node pos="l" depth="6" NCoef="0" IVar="-1" Cut="0.0000000000000000e+00" cType="1" res="-1.1551366187632084e-02" rms="2.1797312796115875e-01" purity="5.3119376301765442e-02" nType="-99"/>
                  <Node pos="r" depth="6" NCoef="0" IVar="-1" Cut="0.0000000000000000e+00" cType="1" res="3.6558962892740965e-04" rms="3.7369826436042786e-01" purity="1.7932792007923126e-01" nType="-99"/>
                </Node>
                <Node pos="r" depth="5" NCoef="0" IVar="2" Cut="4.7429556274414062e+02" cType="1" res="2.0214762538671494e-02" rms="4.3982955813407898e-01" purity="3.1974607706069946e-01" nType="0">
                  <Node pos="l" depth="6" NCoef="0" IVar="4" Cut="-3.7863379716873169e-01" cType="1" res="3.2631784677505493e-02" rms="4.4574910402297974e-01" purity="3.4126007556915283e-01" nType="0">
                    <Node pos="l" depth="7" NCoef="0" IVar="-1" Cut="0.0000000000000000e+00" cType="1" res="2.1585673093795776e-03" rms="4.4120058417320251e-01" purity="3.3380407094955444e-01" nType="-99"/>
                    <Node pos="r" depth="7" NCoef="0" IVar="-1" Cut="0.0000000000000000e+00" cType="1" res="5.5743153207004070e-03" rms="4.4982129335403442e-01" purity="3.4874936938285828e-01" nType="-99"/>
                  </Node>
                  <Node pos="r" depth="6" NCoef="0" IVar="-1" Cut="0.0000000000000000e+00" cType="1" res="-1.8042562296614051e-03" rms="4.2154726386070251e-01" purity="2.6147288084030151e-01" nType="-99"/>
                </Node>
              </Node>
              <Node pos="r" depth="4" NCoef="0" IVar="2" Cut="2.3984931945800781e+02" cType="1" res="-1.2039041146636009e-02" rms="3.0676960945129395e-01" purity="1.2433632463216782e-01" nType="0">
                <Node pos="l" depth="5" NCoef="0" IVar="5" Cut="-2.0237937569618225e-01" cType="1" res="1.6933338483795524e-03" rms="3.3298772573471069e-01" purity="1.5601782500743866e-01" nType="0">
                  <Node pos="l" depth="6" NCoef="0" IVar="-1" Cut="0.0000000000000000e+00" cType="1" res="2.3727538064122200e-03" rms="3.8967686891555786e-01" purity="2.2356611490249634e-01" nType="-99"/>
                  <Node pos="r" depth="6" NCoef="0" IVar="-1" Cut="0.0000000000000000e+00" cType="1" res="-6.6512804478406906e-03" rms="2.3023912310600281e-01" purity="6.1457294970750809e-02" nType="-99"/>
                </Node>
                <Node pos="r" depth="5" NCoef="0" IVar="6" Cut="2.3579619824886322e-01" cType="1" res="-1.7756458371877670e-02" rms="2.9497954249382019e-01" purity="1.1114586889743805e-01" nType="0">
                  <Node pos="l" depth="6" NCoef="0" IVar="3" Cut="4.3246674537658691e-01" cType="1" res="-2.1206919103860855e-02" rms="2.8488463163375854e-01" purity="1.0606610029935837e-01" nType="0">
                    <Node pos="l" depth="7" NCoef="0" IVar="-1" Cut="0.0000000000000000e+00" cType="1" res="-1.0188512504100800e-02" rms="2.1847787499427795e-01" purity="5.2400581538677216e-02" nType="-99"/>
                    <Node pos="r" depth="7" NCoef="0" IVar="-1" Cut="0.0000000000000000e+00" cType="1" res="-2.0122998394072056e-03" rms="3.8474029302597046e-01" purity="2.1357373893260956e-01" nType="-99"/>
                  </Node>
                  <Node pos="r" depth="6" NCoef="0" IVar="-1" Cut="0.0000000000000000e+00" cType="1" res="-3.9504369487985969e-04" rms="3.3761066198348999e-01" purity="1.3482111692428589e-01" nType="-99"/>
                </Node>
              </Node>
            </Node>
          </Node>
        </Node>
        <Node pos="r" depth="1" NCoef="0" IVar="0" Cut="1.6084500551223755e+00" cType="1" res="1.8323685973882675e-02" rms="4.1883388161659241e-01" purity="7.3477536439895630e-01" nType="0">
          <Node pos="l" depth="2" NCoef="0" IVar="1" Cut="1.2471638917922974e+00" cType="1" res="1.9602898508310318e-02" rms="4.1798341274261475e-01" purity="7.4313217401504517e-01" nType="0">
            <Node pos="l" depth="3" NCoef="0" IVar="0" Cut="5.1882501691579819e-02" cType="1" res="2.1949883550405502e-02" rms="4.1092914342880249e-01" purity="7.6259583234786987e-01" nType="0">
              <Node pos="l" depth="4" NCoef="0" IVar="5" Cut="-2.6017093658447266e+00" cType="1" res="2.4472773075103760e-02" rms="3.9749899506568909e-01" purity="7.9188841581344604e-01" nType="0">
                <Node pos="l" depth="5" NCoef="0" IVar="3" Cut="1.0076801776885986e+00" cType="1" res="0.0000000000000000e+00" rms="0.0000000000000000e+00" purity="8.3487814664840698e-01" nType="0">
                  <Node pos="l" depth="6" NCoef="0" IVar="3" Cut="1.0001125335693359e+00" cType="1" res="0.0000000000000000e+00" rms="0.0000000000000000e+00" purity="8.2794481515884399e-01" nType="0">
                    <Node pos="l" depth="7" NCoef="0" IVar="-1" Cut="0.0000000000000000e+00" cType="1" res="2.9566204175353050e-03" rms="3.8149592280387878e-01" purity="8.1903940439224243e-01" nType="-99"/>
                    <Node pos="r" depth="7" NCoef="0" IVar="-1" Cut="0.0000000000000000e+00" cType="1" res="5.1747206598520279e-03" rms="3.3948212862014771e-01" purity="8.6546730995178223e-01" nType="-99"/>
                  </Node>
                  <Node pos="r" depth="6" NCoef="0" IVar="1" Cut="1.2005166709423065e-01" cType="1" res="0.0000000000000000e+00" rms="0.0000000000000000e+00" purity="8.6869710683822632e-01" nType="0">
                    <Node pos="l" depth="7" NCoef="0" IVar="-1" Cut="0.0000000000000000e+00" cType="1" res="6.5160072408616543e-03" rms="3.1402555108070374e-01" purity="8.8880223035812378e-01" nType="-99"/>
                    <Node pos="r" depth="7" NCoef="0" IVar="-1" Cut="0.0000000000000000e+00" cType="1" res="3.6350355949252844e-03" rms="3.6640599370002747e-01" purity="8.3803200721740723e-01" nType="-99"/>
                  </Node>
                </Node>
                <Node pos="r" depth="5" NCoef="0" IVar="3" Cut="9.7906762361526489e-01" cType="1" res="1.8760051578283310e-02" rms="4.2544603347778320e-01" purity="7.4839711189270020e-01" nType="0">
                  <Node pos="l" depth="6" NCoef="0" IVar="6" Cut="3.6040984094142914e-02" cType="1" res="1.0436220094561577e-02" rms="4.4661149382591248e-01" purity="7.0848459005355835e-01" nType="0">
                    <Node pos="l" depth="7" NCoef="0" IVar="-1" Cut="0.0000000000000000e+00" cType="1" res="1.8332514446228743e-04" rms="4.4640824198722839e-01" purity="7.0548814535140991e-01" nType="-99"/>
                    <Node pos="r" depth="7" NCoef="0" IVar="-1" Cut="0.0000000000000000e+00" cType="1" res="1.9362620078027248e-03" rms="4.4663384556770325e-01" purity="7.1213275194168091e-01" nType="-99"/>
                  </Node>
                  <Node pos="r" depth="6" NCoef="0" IVar="4" Cut="-1.8510055541992188e-01" cType="1" res="2.5923466309905052e-02" rms="4.0621304512023926e-01" purity="7.8274559974670410e-01" nType="0">
                    <Node pos="l" depth="7" NCoef="0" IVar="-1" Cut="0.0000000000000000e+00" cType="1" res="2.0669712685048580e-03" rms="4.1145539283752441e-01" purity="7.7714872360229492e-01" nType="-99"/>
                    <Node pos="r" depth="7" NCoef="0" IVar="-1" Cut="0.0000000000000000e+00" cType="1" res="3.8381430786103010e-03" rms="3.9853048324584961e-01" purity="7.9067057371139526e-01" nType="-99"/>
                  </Node>
                </Node>
              </Node>
              <Node pos="r" depth="4" NCoef="0" IVar="1" Cut="7.1381673216819763e-02" cType="1" res="1.0650622658431530e-02" rms="4.6619009971618652e-01" purity="6.3140314817428589e-01" nType="0">
                <Node pos="l" depth="5" NCoef="0" IVar="5" Cut="-2.0551211833953857e+00" cType="1" res="2.3707259446382523e-02" rms="4.5209637284278870e-01" purity="6.8367624282836914e-01" nType="0">
                  <Node pos="l" depth="6" NCoef="0" IVar="0" Cut="3.0587103962898254e-01" cType="1" res="3.5068623721599579e-02" rms="4.3438312411308289e-01" purity="7.3510843515396118e-01" nType="0">
                    <Node pos="l" depth="7" NCoef="0" IVar="-1" Cut="0.0000000000000000e+00" cType="1" res="3.1580638606101274e-03" rms="4.1530403494834900e-01" purity="7.7328532934188843e-01" nType="-99"/>
                    <Node pos="r" depth="7" NCoef="0" IVar="-1" Cut="0.0000000000000000e+00" cType="1" res="3.7592006847262383e-03" rms="4.5265945792198181e-01" purity="6.9662266969680786e-01" nType="-99"/>
                  </Node>
                  <Node pos="r" depth="6" NCoef="0" IVar="-1" Cut="0.0000000000000000e+00" cType="1" res="6.4029719214886427e-04" rms="4.7670087218284607e-01" purity="6.0726284980773926e-01" nType="-99"/>
                </Node>
                <Node pos="r" depth="5" NCoef="0" IVar="1" Cut="2.6113155484199524e-01" cType="1" res="-1.2395001249387860e-03" rms="4.7835382819175720e-01" purity="5.8380031585693359e-01" nType="0">
                  <Node pos="l" depth="6" NCoef="0" IVar="-1" Cut="0.0000000000000000e+00" cType="1" res="1.6909077530726790e-03" rms="4.6481013298034668e-01" purity="6.5282475948333740e-01" nType="-99"/>
                  <Node pos="r" depth="6" NCoef="0" IVar="2" Cut="6.0593276977539062e+01" cType="1" res="-8.3236275240778923e-03" rms="4.8314023017883301e-01" purity="5.5793780088424683e-01" nType="0">
                    <Node pos="l" depth="7" NCoef="0" IVar="-1" Cut="0.0000000000000000e+00" cType="1" res="8.7182976130861789e-05" rms="4.8281458020210266e-01" purity="5.8527213335037231e-01" nType="-99"/>
                    <Node pos="r" depth="7" NCoef="0" IVar="-1" Cut="0.0000000000000000e+00" cType="1" res="-2.0963810384273529e-03" rms="4.8329445719718933e-01" purity="5.1777392625808716e-01" nType="-99"/>
                  </Node>
                </Node>
              </Node>
            </Node>
            <Node pos="r" depth="3" NCoef="0" IVar="3" Cut="9.6420890092849731e-01" cType="1" res="-7.3008751496672630e-04" rms="4.7424408793449402e-01" purity="5.7451015710830688e-01" nType="0">
              <Node pos="l" depth="4" NCoef="0" IVar="2" Cut="7.3759002685546875e+01" cType="1" res="-1.4599577523767948e-02" rms="4.8761582374572754e-01" purity="5.0102525949478149e-01" nType="0">
                <Node pos="l" depth="5" NCoef="0" IVar="-1" Cut="0.0000000000000000e+00" cType="1" res="-4.3783122673630714e-03" rms="4.8616585135459900e-01" purity="4.7128736972808838e-01" nType="-99"/>
                <Node pos="r" depth="5" NCoef="0" IVar="-1" Cut="0.0000000000000000e+00" cType="1" res="1.4640791341662407e-03" rms="4.8677620291709900e-01" purity="5.2704447507858276e-01" nType="-99"/>
              </Node>
              <Node pos="r" depth="4" NCoef="0" IVar="5" Cut="-2.5070264339447021e+00" cType="1" res="9.3638999387621880e-03" rms="4.6400970220565796e-01" purity="6.2799119949340820e-01" nType="0">
                <Node pos="l" depth="5" NCoef="0" IVar="-1" Cut="0.0000000000000000e+00" cType="1" res="2.1596672013401985e-03" rms="4.5175158977508545e-01" purity="6.9716817140579224e-01" nType="-99"/>
                <Node pos="r" depth="5" NCoef="0" IVar="-1" Cut="0.0000000000000000e+00" cType="1" res="-9.3892868608236313e-04" rms="4.7910448908805847e-01" purity="5.3588020801544189e-01" nType="-99"/>
              </Node>
            </Node>
          </Node>
          <Node pos="r" depth="2" NCoef="0" IVar="-1" Cut="0.0000000000000000e+00" cType="1" res="-4.8257955349981785e-03" rms="4.5464587211608887e-01" purity="3.1891688704490662e-01" nType="-99"/>
        </Node>
      </Node>
    </BinaryTree>
    <BinaryTree type="DecisionTree" boostWeight="1.0000000000000000e+00" itree="69">
      <Node pos="s" depth="0" NCoef="0" IVar="3" Cut="6.5061438083648682e-01" cType="1" res="7.5566167943179607e-03" rms="4.0061506628990173e-01" purity="5.0117850303649902e-01" nType="0">
        <Node pos="l" depth="1" NCoef="0" IVar="1" Cut="-5.4201078414916992e-01" cType="1" res="-8.0870985984802246e-03" rms="3.4553921222686768e-01" purity="1.7282152175903320e-01" nType="0">
          <Node pos="l" depth="2" NCoef="0" IVar="-1" Cut="0.0000000000000000e+00" cType="1" res="3.8007341790944338e-03" rms="4.3014213442802429e-01" purity="3.1365653872489929e-01" nType="-99"/>
          <Node pos="r" depth="2" NCoef="0" IVar="6" Cut="1.1554984748363495e-01" cType="1" res="-1.0041190311312675e-02" rms="3.4048131108283997e-01" purity="1.6554178297519684e-01" nType="0">
            <Node pos="l" depth="3" NCoef="0" IVar="2" Cut="1.3334703063964844e+02" cType="1" res="-1.6109434887766838e-02" rms="3.3083307743072510e-01" purity="1.5755064785480499e-01" nType="0">
              <Node pos="l" depth="4" NCoef="0" IVar="6" Cut="5.9760078787803650e-02" cType="1" res="-7.6338229700922966e-03" rms="3.5066705942153931e-01" purity="1.8415935337543488e-01" nType="0">
                <Node pos="l" depth="5" NCoef="0" IVar="2" Cut="4.3156318664550781e+01" cType="1" res="-1.8952053040266037e-02" rms="3.3542150259017944e-01" purity="1.5925028920173645e-01" nType="0">
                  <Node pos="l" depth="6" NCoef="0" IVar="-1" Cut="0.0000000000000000e+00" cType="1" res="7.3076150147244334e-04" rms="3.6676877737045288e-01" purity="2.0612539350986481e-01" nType="-99"/>
                  <Node pos="r" depth="6" NCoef="0" IVar="6" Cut="3.2992161810398102e-02" cType="1" res="-2.9801420867443085e-02" rms="3.1919386982917786e-01" purity="1.3741722702980042e-01" nType="0">
                    <Node pos="l" depth="7" NCoef="0" IVar="-1" Cut="0.0000000000000000e+00" cType="1" res="-1.0457553900778294e-02" rms="2.9367524385452271e-01" purity="1.0999348014593124e-01" nType="-99"/>
                    <Node pos="r" depth="7" NCoef="0" IVar="-1" Cut="0.0000000000000000e+00" cType="1" res="-4.0169698186218739e-03" rms="3.3179897069931030e-01" purity="1.5231528878211975e-01" nType="-99"/>
                  </Node>
                </Node>
                <Node pos="r" depth="5" NCoef="0" IVar="1" Cut="4.6503663063049316e-01" cType="1" res="9.1973533853888512e-03" rms="3.7154838442802429e-01" purity="2.2120122611522675e-01" nType="0">
                  <Node pos="l" depth="6" NCoef="0" IVar="-1" Cut="0.0000000000000000e+00" cType="1" res="4.2180889286100864e-03" rms="4.4066101312637329e-01" purity="3.6297443509101868e-01" nType="-99"/>
                  <Node pos="r" depth="6" NCoef="0" IVar="5" Cut="-1.7522170543670654e+00" cType="1" res="-4.8484033904969692e-03" rms="3.2974809408187866e-01" purity="1.4863589406013489e-01" nType="0">
                    <Node pos="l" depth="7" NCoef="0" IVar="-1" Cut="0.0000000000000000e+00" cType="1" res="1.1714099673554301e-03" rms="3.7072232365608215e-01" purity="1.9472886621952057e-01" nType="-99"/>
                    <Node pos="r" depth="7" NCoef="0" IVar="-1" Cut="0.0000000000000000e+00" cType="1" res="-5.4230666719377041e-03" rms="2.7371218800544739e-01" purity="9.4854332506656647e-02" nType="-99"/>
                  </Node>
                </Node>
              </Node>
              <Node pos="r" depth="4" NCoef="0" IVar="7" Cut="3.0000000000000000e+00" cType="1" res="-2.3429684340953827e-02" rms="3.1051027774810791e-01" purity="1.3429015874862671e-01" nType="0">
                <Node pos="l" depth="5" NCoef="0" IVar="-1" Cut="0.0000000000000000e+00" cType="1" res="-8.4740230813622475e-03" rms="3.4259462356567383e-01" purity="1.5203888714313507e-01" nType="-99"/>
                <Node pos="r" depth="5" NCoef="0" IVar="2" Cut="2.5862539672851562e+02" cType="1" res="-2.1033186465501785e-02" rms="3.0897113680839539e-01" purity="1.3251501321792603e-01" nType="0">
                  <Node pos="l" depth="6" NCoef="0" IVar="6" Cut="5.5917844176292419e-02" cType="1" res="-1.6155056655406952e-02" rms="3.1263986229896545e-01" purity="1.3838256895542145e-01" nType="0">
                    <Node pos="l" depth="7" NCoef="0" IVar="-1" Cut="0.0000000000000000e+00" cType="1" res="-7.6641878113150597e-03" rms="2.8520831465721130e-01" purity="1.0714386403560638e-01" nType="-99"/>
                    <Node pos="r" depth="7" NCoef="0" IVar="-1" Cut="0.0000000000000000e+00" cType="1" res="-2.1320062223821878e-03" rms="3.2267200946807861e-01" purity="1.5079635381698608e-01" nType="-99"/>
                  </Node>
                  <Node pos="r" depth="6" NCoef="0" IVar="7" Cut="5.0000000000000000e+00" cType="1" res="-2.6858622208237648e-02" rms="3.0207028985023499e-01" purity="1.2532907724380493e-01" nType="0">
                    <Node pos="l" depth="7" NCoef="0" IVar="-1" Cut="0.0000000000000000e+00" cType="1" res="-6.4175287261605263e-03" rms="3.4115549921989441e-01" purity="1.6338622570037842e-01" nType="-99"/>
                    <Node pos="r" depth="7" NCoef="0" IVar="-1" Cut="0.0000000000000000e+00" cType="1" res="-5.3804777562618256e-03" rms="2.5732859969139099e-01" purity="8.3397909998893738e-02" nType="-99"/>
                  </Node>
                </Node>
              </Node>
            </Node>
            <Node pos="r" depth="3" NCoef="0" IVar="2" Cut="3.8310607910156250e+02" cType="1" res="-1.1161190923303366e-03" rms="3.5400557518005371e-01" purity="1.7729502916336060e-01" nType="0">
              <Node pos="l" depth="4" NCoef="0" IVar="1" Cut="4.7683489322662354e-01" cType="1" res="9.6058221533894539e-03" rms="3.6688369512557983e-01" purity="2.0010386407375336e-01" nType="0">
                <Node pos="l" depth="5" NCoef="0" IVar="2" Cut="2.1741023254394531e+02" cType="1" res="3.1330849975347519e-02" rms="4.1799518465995789e-01" purity="2.9460313916206360e-01" nType="0">
                  <Node pos="l" depth="6" NCoef="0" IVar="-1" Cut="0.0000000000000000e+00" cType="1" res="6.1765788123011589e-03" rms="4.4343417882919312e-01" purity="3.5850834846496582e-01" nType="-99"/>
                  <Node pos="r" depth="6" NCoef="0" IVar="-1" Cut="0.0000000000000000e+00" cType="1" res="2.2331522777676582e-03" rms="3.9594030380249023e-01" purity="2.4416166543960571e-01" nType="-99"/>
                </Node>
                <Node pos="r" depth="5" NCoef="0" IVar="0" Cut="2.9000985622406006e+00" cType="1" res="-1.9077105680480599e-03" rms="3.3609616756439209e-01" purity="1.5002244710922241e-01" nType="0">
                  <Node pos="l" depth="6" NCoef="0" IVar="3" Cut="3.4468999505043030e-01" cType="1" res="4.8416103236377239e-03" rms="3.6142015457153320e-01" purity="1.7722287774085999e-01" nType="0">
                    <Node pos="l" depth="7" NCoef="0" IVar="-1" Cut="0.0000000000000000e+00" cType="1" res="-1.7850408330559731e-03" rms="2.8897833824157715e-01" purity="9.9497571587562561e-02" nType="-99"/>
                    <Node pos="r" depth="7" NCoef="0" IVar="-1" Cut="0.0000000000000000e+00" cType="1" res="1.8695708131417632e-03" rms="4.0267202258110046e-01" purity="2.2942805290222168e-01" nType="-99"/>
                  </Node>
                  <Node pos="r" depth="6" NCoef="0" IVar="-1" Cut="0.0000000000000000e+00" cType="1" res="-1.0004144161939621e-02" rms="2.3297964036464691e-01" purity="6.0647822916507721e-02" nType="-99"/>
                </Node>
              </Node>
              <Node pos="r" depth="4" NCoef="0" IVar="6" Cut="2.6099449396133423e-01" cType="1" res="-1.0457026772201061e-02" rms="3.4211784601211548e-01" purity="1.5742406249046326e-01" nType="0">
                <Node pos="l" depth="5" NCoef="0" IVar="4" Cut="1.5168660879135132e+00" cType="1" res="-1.4429711736738682e-02" rms="3.3419358730316162e-01" purity="1.5200090408325195e-01" nType="0">
                  <Node pos="l" depth="6" NCoef="0" IVar="6" Cut="1.9061867892742157e-01" cType="1" res="-1.0282848961651325e-02" rms="3.7137565016746521e-01" purity="1.9122444093227386e-01" nType="0">
                    <Node pos="l" depth="7" NCoef="0" IVar="-1" Cut="0.0000000000000000e+00" cType="1" res="-2.6799023617058992e-03" rms="3.6733022332191467e-01" purity="1.9081605970859528e-01" nType="-99"/>
                    <Node pos="r" depth="7" NCoef="0" IVar="-1" Cut="0.0000000000000000e+00" cType="1" res="2.7992296963930130e-04" rms="3.8027936220169067e-01" purity="1.9216671586036682e-01" nType="-99"/>
                  </Node>
                  <Node pos="r" depth="6" NCoef="0" IVar="-1" Cut="0.0000000000000000e+00" cType="1" res="-1.2265946716070175e-02" rms="1.8625602126121521e-01" purity="3.7181768566370010e-02" nType="-99"/>
                </Node>
                <Node pos="r" depth="5" NCoef="0" IVar="-1" Cut="0.0000000000000000e+00" cType="1" res="2.5195025373250246e-03" rms="3.8526427745819092e-01" purity="1.8984851241111755e-01" nType="-99"/>
              </Node>
            </Node>
          </Node>
        </Node>
        <Node pos="r" depth="1" NCoef="0" IVar="4" Cut="1.4322909116744995e+00" cType="1" res="1.6788436099886894e-02" rms="4.2955115437507629e-01" purity="6.9495159387588501e-01" nType="0">
          <Node pos="l" depth="2" NCoef="0" IVar="1" Cut="8.8080430030822754e-01" cType="1" res="1.8377406522631645e-02" rms="4.2970988154411316e-01" purity="7.0290064811706543e-01" nType="0">
            <Node pos="l" depth="3" NCoef="0" IVar="2" Cut="1.0107550811767578e+02" cType="1" res="2.1459802985191345e-02" rms="4.2045146226882935e-01" purity="7.3640710115432739e-01" nType="0">
              <Node pos="l" depth="4" NCoef="0" IVar="6" Cut="4.3562937527894974e-02" cType="1" res="2.4688251316547394e-02" rms="4.0695446729660034e-01" purity="7.6754319667816162e-01" nType="0">
                <Node pos="l" depth="5" NCoef="0" IVar="3" Cut="8.5417455434799194e-01" cType="1" res="2.2337501868605614e-02" rms="4.0207415819168091e-01" purity="7.7574497461318970e-01" nType="0">
                  <Node pos="l" depth="6" NCoef="0" IVar="2" Cut="4.9176082611083984e+01" cType="1" res="5.0209835171699524e-03" rms="4.6792542934417725e-01" purity="6.3057082891464233e-01" nType="0">
                    <Node pos="l" depth="7" NCoef="0" IVar="-1" Cut="0.0000000000000000e+00" cType="1" res="1.9260762492194772e-03" rms="4.6358990669250488e-01" purity="6.5335232019424438e-01" nType="-99"/>
                    <Node pos="r" depth="7" NCoef="0" IVar="-1" Cut="0.0000000000000000e+00" cType="1" res="-2.0072343759238720e-03" rms="4.7344964742660522e-01" purity="5.9490215778350830e-01" nType="-99"/>
                  </Node>
                  <Node pos="r" depth="6" NCoef="0" IVar="5" Cut="-2.6932115554809570e+00" cType="1" res="2.5074949488043785e-02" rms="3.9057913422584534e-01" purity="7.9869455099105835e-01" nType="0">
                    <Node pos="l" depth="7" NCoef="0" IVar="-1" Cut="0.0000000000000000e+00" cType="1" res="3.8042659871280193e-03" rms="3.6190709471702576e-01" purity="8.3917403221130371e-01" nType="-99"/>
                    <Node pos="r" depth="7" NCoef="0" IVar="-1" Cut="0.0000000000000000e+00" cType="1" res="2.1461767610162497e-03" rms="4.1567742824554443e-01" purity="7.6063436269760132e-01" nType="-99"/>
                  </Node>
                </Node>
                <Node pos="r" depth="5" NCoef="0" IVar="5" Cut="-2.2108347415924072e+00" cType="1" res="4.7099262475967407e-02" rms="4.5022061467170715e-01" purity="6.8935078382492065e-01" nType="0">
                  <Node pos="l" depth="6" NCoef="0" IVar="-1" Cut="0.0000000000000000e+00" cType="1" res="5.4650232195854187e-03" rms="4.2995899915695190e-01" purity="7.4251931905746460e-01" nType="-99"/>
                  <Node pos="r" depth="6" NCoef="0" IVar="-1" Cut="0.0000000000000000e+00" cType="1" res="2.4040834978222847e-03" rms="4.7116291522979736e-01" purity="6.2987399101257324e-01" nType="-99"/>
                </Node>
              </Node>
              <Node pos="r" depth="4" NCoef="0" IVar="1" Cut="-8.9772433042526245e-02" cType="1" res="1.0315957479178905e-02" rms="4.6386083960533142e-01" purity="6.2893253564834595e-01" nType="0">
                <Node pos="l" depth="5" NCoef="0" IVar="6" Cut="4.2135152965784073e-02" cType="1" res="2.1106701344251633e-02" rms="4.5332339406013489e-01" purity="6.7530822753906250e-01" nType="0">
                  <Node pos="l" depth="6" NCoef="0" IVar="-1" Cut="0.0000000000000000e+00" cType="1" res="1.3005778891965747e-03" rms="4.3644118309020996e-01" purity="7.1457237005233765e-01" nType="-99"/>
                  <Node pos="r" depth="6" NCoef="0" IVar="5" Cut="-2.1142339706420898e+00" cType="1" res="2.4264186620712280e-02" rms="4.5883572101593018e-01" purity="6.6206187009811401e-01" nType="0">
                    <Node pos="l" depth="7" NCoef="0" IVar="-1" Cut="0.0000000000000000e+00" cType="1" res="3.1208526343107224e-03" rms="4.4527170062065125e-01" purity="7.0374828577041626e-01" nType="-99"/>
                    <Node pos="r" depth="7" NCoef="0" IVar="-1" Cut="0.0000000000000000e+00" cType="1" res="1.3648543972522020e-03" rms="4.7345775365829468e-01" purity="6.1516767740249634e-01" nType="-99"/>
                  </Node>
                </Node>
                <Node pos="r" depth="5" NCoef="0" IVar="6" Cut="4.1781965643167496e-02" cType="1" res="2.2038458846509457e-03" rms="4.7146493196487427e-01" purity="5.9406894445419312e-01" nType="0">
                  <Node pos="l" depth="6" NCoef="0" IVar="-1" Cut="0.0000000000000000e+00" cType="1" res="-1.7843379173427820e-03" rms="4.6181097626686096e-01" purity="6.2392586469650269e-01" nType="-99"/>
                  <Node pos="r" depth="6" NCoef="0" IVar="4" Cut="-1.0984922647476196e+00" cType="1" res="8.3205187693238258e-03" rms="4.7435668110847473e-01" purity="5.8449465036392212e-01" nType="0">
                    <Node pos="l" depth="7" NCoef="0" IVar="-1" Cut="0.0000000000000000e+00" cType="1" res="1.6335891559720039e-03" rms="4.6823695302009583e-01" purity="6.3360059261322021e-01" nType="-99"/>
                    <Node pos="r" depth="7" NCoef="0" IVar="-1" Cut="0.0000000000000000e+00" cType="1" res="-2.0375952590256929e-04" rms="4.8095247149467468e-01" purity="5.2909636497497559e-01" nType="-99"/>
                  </Node>
                </Node>
              </Node>
            </Node>
            <Node pos="r" depth="3" NCoef="0" IVar="1" Cut="1.7633241415023804e+00" cType="1" res="3.9347256533801556e-03" rms="4.7040194272994995e-01" purity="5.4590493440628052e-01" nType="0">
              <Node pos="l" depth="4" NCoef="0" IVar="6" Cut="5.0491824746131897e-02" cType="1" res="1.4994811266660690e-02" rms="4.6951156854629517e-01" purity="5.8059191703796387e-01" nType="0">
                <Node pos="l" depth="5" NCoef="0" IVar="3" Cut="9.7000926733016968e-01" cType="1" res="9.8848249763250351e-03" rms="4.6511030197143555e-01" purity="6.0703855752944946e-01" nType="0">
                  <Node pos="l" depth="6" NCoef="0" IVar="4" Cut="-1.4993268251419067e+00" cType="1" res="-1.2898675166070461e-02" rms="4.8245239257812500e-01" purity="5.0607049465179443e-01" nType="0">
                    <Node pos="l" depth="7" NCoef="0" IVar="-1" Cut="0.0000000000000000e+00" cType="1" res="6.6652649547904730e-04" rms="4.8659810423851013e-01" purity="5.5369955301284790e-01" nType="-99"/>
                    <Node pos="r" depth="7" NCoef="0" IVar="-1" Cut="0.0000000000000000e+00" cType="1" res="-3.1811161898076534e-03" rms="4.7716069221496582e-01" purity="4.5632657408714294e-01" nType="-99"/>
                  </Node>
                  <Node pos="r" depth="6" NCoef="0" IVar="1" Cut="1.2506481409072876e+00" cType="1" res="2.7422007173299789e-02" rms="4.5052379369735718e-01" purity="6.8475693464279175e-01" nType="0">
                    <Node pos="l" depth="7" NCoef="0" IVar="-1" Cut="0.0000000000000000e+00" cType="1" res="3.5713012330234051e-03" rms="4.3566575646400452e-01" purity="7.1899294853210449e-01" nType="-99"/>
                    <Node pos="r" depth="7" NCoef="0" IVar="-1" Cut="0.0000000000000000e+00" cType="1" res="8.8157976279035211e-04" rms="4.7093874216079712e-01" purity="6.3450109958648682e-01" nType="-99"/>
                  </Node>
                </Node>
                <Node pos="r" depth="5" NCoef="0" IVar="-1" Cut="0.0000000000000000e+00" cType="1" res="2.9237284325063229e-03" rms="4.8388832807540894e-01" purity="4.8991963267326355e-01" nType="-99"/>
              </Node>
              <Node pos="r" depth="4" NCoef="0" IVar="1" Cut="4.4204144477844238e+00" cType="1" res="-1.2232386507093906e-02" rms="4.7123357653617859e-01" purity="4.9520117044448853e-01" nType="0">
                <Node pos="l" depth="5" NCoef="0" IVar="4" Cut="-1.2873984575271606e+00" cType="1" res="-2.3217486217617989e-02" rms="4.7432562708854675e-01" purity="4.8398235440254211e-01" nType="0">
                  <Node pos="l" depth="6" NCoef="0" IVar="-1" Cut="0.0000000000000000e+00" cType="1" res="-9.5826433971524239e-04" rms="4.8517876863479614e-01" purity="4.8986789584159851e-01" nType="-99"/>
                  <Node pos="r" depth="6" NCoef="0" IVar="-1" Cut="0.0000000000000000e+00" cType="1" res="-3.0157489236444235e-03" rms="4.6685066819190979e-01" purity="4.8010018467903137e-01" nType="-99"/>
                </Node>
                <Node pos="r" depth="5" NCoef="0" IVar="-1" Cut="0.0000000000000000e+00" cType="1" res="2.0317987073212862e-03" rms="4.5991206169128418e-01" purity="5.2981597185134888e-01" nType="-99"/>
              </Node>
            </Node>
          </Node>
          <Node pos="r" depth="2" NCoef="0" IVar="-1" Cut="0.0000000000000000e+00" cType="1" res="-7.7258939854800701e-03" rms="4.1266500949859619e-01" purity="2.7821335196495056e-01" nType="-99"/>
        </Node>
      </Node>
    </BinaryTree>
    <BinaryTree type="DecisionTree" boostWeight="1.0000000000000000e+00" itree="70">
      <Node pos="s" depth="0" NCoef="0" IVar="3" Cut="6.5137040615081787e-01" cType="1" res="6.2520029023289680e-03" rms="4.0084081888198853e-01" purity="5.0033700466156006e-01" nType="0">
        <Node pos="l" depth="1" NCoef="0" IVar="4" Cut="1.8006800413131714e+00" cType="1" res="-8.8015776127576828e-03" rms="3.4543141722679138e-01" purity="1.7272113263607025e-01" nType="0">
          <Node pos="l" depth="2" NCoef="0" IVar="5" Cut="-3.3060266971588135e+00" cType="1" res="-6.2465388327836990e-03" rms="3.7125340104103088e-01" purity="2.0210069417953491e-01" nType="0">
            <Node pos="l" depth="3" NCoef="0" IVar="7" Cut="4.0000000000000000e+00" cType="1" res="-3.4441903233528137e-02" rms="2.9191914200782776e-01" purity="1.0898329317569733e-01" nType="0">
              <Node pos="l" depth="4" NCoef="0" IVar="-1" Cut="0.0000000000000000e+00" cType="1" res="-1.0533334687352180e-02" rms="3.1582081317901611e-01" purity="1.2755900621414185e-01" nType="-99"/>
              <Node pos="r" depth="4" NCoef="0" IVar="-1" Cut="0.0000000000000000e+00" cType="1" res="-5.4843127727508545e-03" rms="2.7893057465553284e-01" purity="9.6432447433471680e-02" nType="-99"/>
            </Node>
            <Node pos="r" depth="3" NCoef="0" IVar="2" Cut="1.3958581542968750e+02" cType="1" res="-3.6663394421339035e-03" rms="3.7753763794898987e-01" purity="2.1085424721240997e-01" nType="0">
              <Node pos="l" depth="4" NCoef="0" IVar="6" Cut="3.1725555658340454e-02" cType="1" res="7.5223762542009354e-03" rms="3.9240980148315430e-01" purity="2.4119144678115845e-01" nType="0">
                <Node pos="l" depth="5" NCoef="0" IVar="-1" Cut="0.0000000000000000e+00" cType="1" res="-2.6258914731442928e-03" rms="3.6645317077636719e-01" purity="1.8791887164115906e-01" nType="-99"/>
                <Node pos="r" depth="5" NCoef="0" IVar="2" Cut="9.2264144897460938e+01" cType="1" res="1.3194543309509754e-02" rms="3.9843142032623291e-01" purity="2.5450596213340759e-01" nType="0">
                  <Node pos="l" depth="6" NCoef="0" IVar="1" Cut="7.5959396362304688e-01" cType="1" res="2.5967307388782501e-02" rms="4.0857294201850891e-01" purity="2.7525842189788818e-01" nType="0">
                    <Node pos="l" depth="7" NCoef="0" IVar="-1" Cut="0.0000000000000000e+00" cType="1" res="4.7467360273003578e-03" rms="4.5222142338752747e-01" purity="3.7225675582885742e-01" nType="-99"/>
                    <Node pos="r" depth="7" NCoef="0" IVar="-1" Cut="0.0000000000000000e+00" cType="1" res="1.4947185991331935e-03" rms="3.5329666733741760e-01" purity="1.6822516918182373e-01" nType="-99"/>
                  </Node>
                  <Node pos="r" depth="6" NCoef="0" IVar="5" Cut="-1.8228318691253662e+00" cType="1" res="-1.0824577475432307e-04" rms="3.8713929057121277e-01" purity="2.3289234936237335e-01" nType="0">
                    <Node pos="l" depth="7" NCoef="0" IVar="-1" Cut="0.0000000000000000e+00" cType="1" res="1.2662977678701282e-03" rms="4.0415653586387634e-01" purity="2.6424592733383179e-01" nType="-99"/>
                    <Node pos="r" depth="7" NCoef="0" IVar="-1" Cut="0.0000000000000000e+00" cType="1" res="-2.3971523623913527e-03" rms="3.5950535535812378e-01" purity="1.8555146455764771e-01" nType="-99"/>
                  </Node>
                </Node>
              </Node>
              <Node pos="r" depth="4" NCoef="0" IVar="6" Cut="1.2088697403669357e-01" cType="1" res="-8.8258534669876099e-03" rms="3.7036463618278503e-01" purity="1.9686469435691833e-01" nType="0">
                <Node pos="l" depth="5" NCoef="0" IVar="2" Cut="4.2927005004882812e+02" cType="1" res="-1.6597358509898186e-02" rms="3.5568186640739441e-01" purity="1.8091061711311340e-01" nType="0">
                  <Node pos="l" depth="6" NCoef="0" IVar="1" Cut="2.7695852518081665e-01" cType="1" res="-1.4036442153155804e-02" rms="3.5695773363113403e-01" purity="1.8321228027343750e-01" nType="0">
                    <Node pos="l" depth="7" NCoef="0" IVar="-1" Cut="0.0000000000000000e+00" cType="1" res="-5.6312663946300745e-04" rms="4.1043794155120850e-01" purity="2.6848685741424561e-01" nType="-99"/>
                    <Node pos="r" depth="7" NCoef="0" IVar="-1" Cut="0.0000000000000000e+00" cType="1" res="-4.4173402711749077e-03" rms="3.2039079070091248e-01" purity="1.3194559514522552e-01" nType="-99"/>
                  </Node>
                  <Node pos="r" depth="6" NCoef="0" IVar="-1" Cut="0.0000000000000000e+00" cType="1" res="-6.4553185366094112e-03" rms="3.4473738074302673e-01" purity="1.6267840564250946e-01" nType="-99"/>
                </Node>
                <Node pos="r" depth="5" NCoef="0" IVar="3" Cut="4.8613646626472473e-01" cType="1" res="-1.3613909250125289e-03" rms="3.8379085063934326e-01" purity="2.1218842267990112e-01" nType="0">
                  <Node pos="l" depth="6" NCoef="0" IVar="7" Cut="4.0000000000000000e+00" cType="1" res="-7.8321611508727074e-03" rms="3.5224455595016479e-01" purity="1.6030807793140411e-01" nType="0">
                    <Node pos="l" depth="7" NCoef="0" IVar="-1" Cut="0.0000000000000000e+00" cType="1" res="2.6463209651410580e-03" rms="4.0532577037811279e-01" purity="2.2611233592033386e-01" nType="-99"/>
                    <Node pos="r" depth="7" NCoef="0" IVar="-1" Cut="0.0000000000000000e+00" cType="1" res="-2.6100911200046539e-03" rms="3.4091860055923462e-01" purity="1.4606563746929169e-01" nType="-99"/>
                  </Node>
                  <Node pos="r" depth="6" NCoef="0" IVar="5" Cut="-2.0543012619018555e+00" cType="1" res="1.8794147297739983e-02" rms="4.7165137529373169e-01" purity="3.8750419020652771e-01" nType="0">
                    <Node pos="l" depth="7" NCoef="0" IVar="-1" Cut="0.0000000000000000e+00" cType="1" res="3.4893210977315903e-03" rms="4.8462370038032532e-01" purity="4.4506731629371643e-01" nType="-99"/>
                    <Node pos="r" depth="7" NCoef="0" IVar="-1" Cut="0.0000000000000000e+00" cType="1" res="1.2566786608658731e-04" rms="4.5783275365829468e-01" purity="3.3082684874534607e-01" nType="-99"/>
                  </Node>
                </Node>
              </Node>
            </Node>
          </Node>
          <Node pos="r" depth="2" NCoef="0" IVar="6" Cut="1.4199197292327881e-01" cType="1" res="-2.0645463839173317e-02" rms="1.8266534805297852e-01" purity="3.6532152444124222e-02" nType="0">
            <Node pos="l" depth="3" NCoef="0" IVar="3" Cut="3.9091581106185913e-01" cType="1" res="-2.5884488597512245e-02" rms="1.4955925941467285e-01" purity="2.4074815213680267e-02" nType="0">
              <Node pos="l" depth="4" NCoef="0" IVar="6" Cut="9.2155024409294128e-02" cType="1" res="-2.2469494491815567e-02" rms="1.0182688385248184e-01" purity="1.0509416460990906e-02" nType="0">
                <Node pos="l" depth="5" NCoef="0" IVar="-1" Cut="0.0000000000000000e+00" cType="1" res="-2.3527359589934349e-02" rms="8.0866210162639618e-02" purity="6.6119078546762466e-03" nType="-99"/>
                <Node pos="r" depth="5" NCoef="0" IVar="-1" Cut="0.0000000000000000e+00" cType="1" res="-1.6647571697831154e-02" rms="1.2451583892107010e-01" purity="1.5755591914057732e-02" nType="-99"/>
              </Node>
              <Node pos="r" depth="4" NCoef="0" IVar="-1" Cut="0.0000000000000000e+00" cType="1" res="-1.2107357382774353e-02" rms="1.9854857027530670e-01" purity="4.3399751186370850e-02" nType="-99"/>
            </Node>
            <Node pos="r" depth="3" NCoef="0" IVar="3" Cut="2.8659516572952271e-01" cType="1" res="-1.1349622160196304e-02" rms="2.2966700792312622e-01" purity="5.8635760098695755e-02" nType="0">
              <Node pos="l" depth="4" NCoef="0" IVar="-1" Cut="0.0000000000000000e+00" cType="1" res="-1.5247288392856717e-03" rms="2.4489885568618774e-01" purity="6.7405782639980316e-02" nType="-99"/>
              <Node pos="r" depth="4" NCoef="0" IVar="-1" Cut="0.0000000000000000e+00" cType="1" res="-8.1187030300498009e-03" rms="2.1397194266319275e-01" purity="5.0328731536865234e-02" nType="-99"/>
            </Node>
          </Node>
        </Node>
        <Node pos="r" depth="1" NCoef="0" IVar="4" Cut="1.3840255737304688e+00" cType="1" res="1.5153509564697742e-02" rms="4.3001344799995422e-01" purity="6.9406324625015259e-01" nType="0">
          <Node pos="l" depth="2" NCoef="0" IVar="1" Cut="4.6810761094093323e-01" cType="1" res="1.6632003709673882e-02" rms="4.3016263842582703e-01" purity="7.0235264301300049e-01" nType="0">
            <Node pos="l" depth="3" NCoef="0" IVar="5" Cut="-2.2063753604888916e+00" cType="1" res="2.2844128310680389e-02" rms="4.1384667158126831e-01" purity="7.5317096710205078e-01" nType="0">
              <Node pos="l" depth="4" NCoef="0" IVar="2" Cut="9.6283401489257812e+01" cType="1" res="2.6370370760560036e-02" rms="3.9196288585662842e-01" purity="7.9355907440185547e-01" nType="0">
                <Node pos="l" depth="5" NCoef="0" IVar="6" Cut="3.3600367605686188e-02" cType="1" res="2.9149590060114861e-02" rms="3.7842151522636414e-01" purity="8.1651616096496582e-01" nType="0">
                  <Node pos="l" depth="6" NCoef="0" IVar="2" Cut="3.7269966125488281e+01" cType="1" res="2.5969447568058968e-02" rms="3.7292259931564331e-01" purity="8.2335239648818970e-01" nType="0">
                    <Node pos="l" depth="7" NCoef="0" IVar="-1" Cut="0.0000000000000000e+00" cType="1" res="3.5425776150077581e-03" rms="3.6663118004798889e-01" purity="8.3322423696517944e-01" nType="-99"/>
                    <Node pos="r" depth="7" NCoef="0" IVar="-1" Cut="0.0000000000000000e+00" cType="1" res="-1.0665463196346536e-04" rms="4.3235433101654053e-01" purity="7.2012549638748169e-01" nType="-99"/>
                  </Node>
                  <Node pos="r" depth="6" NCoef="0" IVar="3" Cut="8.1018781661987305e-01" cType="1" res="5.4022658616304398e-02" rms="4.1811451315879822e-01" purity="7.6304769515991211e-01" nType="0">
                    <Node pos="l" depth="7" NCoef="0" IVar="-1" Cut="0.0000000000000000e+00" cType="1" res="5.2070217207074165e-03" rms="4.4416910409927368e-01" purity="7.1802163124084473e-01" nType="-99"/>
                    <Node pos="r" depth="7" NCoef="0" IVar="-1" Cut="0.0000000000000000e+00" cType="1" res="4.8313704319298267e-03" rms="3.8916409015655518e-01" purity="8.0963861942291260e-01" nType="-99"/>
                  </Node>
                </Node>
                <Node pos="r" depth="5" NCoef="0" IVar="1" Cut="-2.9635688662528992e-01" cType="1" res="1.3726323843002319e-02" rms="4.4821915030479431e-01" purity="6.8911582231521606e-01" nType="0">
                  <Node pos="l" depth="6" NCoef="0" IVar="-1" Cut="0.0000000000000000e+00" cType="1" res="2.7509308420121670e-03" rms="4.3679532408714294e-01" purity="7.2162413597106934e-01" nType="-99"/>
                  <Node pos="r" depth="6" NCoef="0" IVar="2" Cut="1.7589669799804688e+02" cType="1" res="7.0923967286944389e-03" rms="4.5346102118492126e-01" purity="6.7348259687423706e-01" nType="0">
                    <Node pos="l" depth="7" NCoef="0" IVar="-1" Cut="0.0000000000000000e+00" cType="1" res="1.3360637240111828e-03" rms="4.4333550333976746e-01" purity="6.9987505674362183e-01" nType="-99"/>
                    <Node pos="r" depth="7" NCoef="0" IVar="-1" Cut="0.0000000000000000e+00" cType="1" res="-3.6353791074361652e-05" rms="4.6626472473144531e-01" purity="6.3897114992141724e-01" nType="-99"/>
                  </Node>
                </Node>
              </Node>
              <Node pos="r" depth="4" NCoef="0" IVar="6" Cut="5.0725515931844711e-02" cType="1" res="1.6512796282768250e-02" rms="4.5040941238403320e-01" purity="6.8065464496612549e-01" nType="0">
                <Node pos="l" depth="5" NCoef="0" IVar="3" Cut="8.1600147485733032e-01" cType="1" res="1.1769588105380535e-02" rms="4.4274652004241943e-01" purity="7.0342969894409180e-01" nType="0">
                  <Node pos="l" depth="6" NCoef="0" IVar="-1" Cut="0.0000000000000000e+00" cType="1" res="-1.3955873437225819e-03" rms="4.8560214042663574e-01" purity="5.5362230539321899e-01" nType="-99"/>
                  <Node pos="r" depth="6" NCoef="0" IVar="4" Cut="-4.3040314316749573e-01" cType="1" res="1.6306856647133827e-02" rms="4.3498891592025757e-01" purity="7.2852867841720581e-01" nType="0">
                    <Node pos="l" depth="7" NCoef="0" IVar="-1" Cut="0.0000000000000000e+00" cType="1" res="8.9849968208000064e-04" rms="4.4028171896934509e-01" purity="7.2141778469085693e-01" nType="-99"/>
                    <Node pos="r" depth="7" NCoef="0" IVar="-1" Cut="0.0000000000000000e+00" cType="1" res="2.6627702172845602e-03" rms="4.2814067006111145e-01" purity="7.3737436532974243e-01" nType="-99"/>
                  </Node>
                </Node>
                <Node pos="r" depth="5" NCoef="0" IVar="2" Cut="2.0592352294921875e+02" cType="1" res="2.9423842206597328e-02" rms="4.7039401531219482e-01" purity="6.1866068840026855e-01" nType="0">
                  <Node pos="l" depth="6" NCoef="0" IVar="2" Cut="1.1921451568603516e+02" cType="1" res="3.8958117365837097e-02" rms="4.6636384725570679e-01" purity="6.4649629592895508e-01" nType="0">
                    <Node pos="l" depth="7" NCoef="0" IVar="-1" Cut="0.0000000000000000e+00" cType="1" res="3.6648642271757126e-03" rms="4.6588623523712158e-01" purity="6.5904134511947632e-01" nType="-99"/>
                    <Node pos="r" depth="7" NCoef="0" IVar="-1" Cut="0.0000000000000000e+00" cType="1" res="2.8691978659480810e-03" rms="4.6684360504150391e-01" purity="6.3209050893783569e-01" nType="-99"/>
                  </Node>
                  <Node pos="r" depth="6" NCoef="0" IVar="-1" Cut="0.0000000000000000e+00" cType="1" res="1.4437939971685410e-03" rms="4.7590056061744690e-01" purity="5.7781416177749634e-01" nType="-99"/>
                </Node>
              </Node>
            </Node>
            <Node pos="r" depth="3" NCoef="0" IVar="4" Cut="-2.4319617748260498e+00" cType="1" res="2.2302132565528154e-03" rms="4.6547654271125793e-01" purity="5.8453887701034546e-01" nType="0">
              <Node pos="l" depth="4" NCoef="0" IVar="4" Cut="-2.7250280380249023e+00" cType="1" res="2.6816552504897118e-02" rms="4.7127217054367065e-01" purity="6.1872375011444092e-01" nType="0">
                <Node pos="l" depth="5" NCoef="0" IVar="-1" Cut="0.0000000000000000e+00" cType="1" res="3.5761501640081406e-03" rms="4.6622201800346375e-01" purity="6.5157741308212280e-01" nType="-99"/>
                <Node pos="r" depth="5" NCoef="0" IVar="-1" Cut="0.0000000000000000e+00" cType="1" res="1.3393490808084607e-03" rms="4.7591328620910645e-01" purity="5.8627241849899292e-01" nType="-99"/>
              </Node>
              <Node pos="r" depth="4" NCoef="0" IVar="4" Cut="3.9900550246238708e-01" cType="1" res="-1.3797400752082467e-03" rms="4.6450996398925781e-01" purity="5.7951956987380981e-01" nType="0">
                <Node pos="l" depth="5" NCoef="0" IVar="3" Cut="9.9372905492782593e-01" cType="1" res="1.2145800283178687e-03" rms="4.6436861157417297e-01" purity="5.9156930446624756e-01" nType="0">
                  <Node pos="l" depth="6" NCoef="0" IVar="6" Cut="6.4051762223243713e-02" cType="1" res="-4.3623880483210087e-03" rms="4.7790592908859253e-01" purity="5.2958691120147705e-01" nType="0">
                    <Node pos="l" depth="7" NCoef="0" IVar="-1" Cut="0.0000000000000000e+00" cType="1" res="-1.2016537366434932e-03" rms="4.7521042823791504e-01" purity="5.3949993848800659e-01" nType="-99"/>
                    <Node pos="r" depth="7" NCoef="0" IVar="-1" Cut="0.0000000000000000e+00" cType="1" res="2.3470141459256411e-03" rms="4.8621410131454468e-01" purity="4.9393570423126221e-01" nType="-99"/>
                  </Node>
                  <Node pos="r" depth="6" NCoef="0" IVar="4" Cut="-5.1437735557556152e-01" cType="1" res="9.7592454403638840e-03" rms="4.4268932938575745e-01" purity="6.8653464317321777e-01" nType="0">
                    <Node pos="l" depth="7" NCoef="0" IVar="-1" Cut="0.0000000000000000e+00" cType="1" res="-5.7492440100759268e-04" rms="4.5730942487716675e-01" purity="6.4989751577377319e-01" nType="-99"/>
                    <Node pos="r" depth="7" NCoef="0" IVar="-1" Cut="0.0000000000000000e+00" cType="1" res="2.3806171957403421e-03" rms="4.2982754111289978e-01" purity="7.1667188405990601e-01" nType="-99"/>
                  </Node>
                </Node>
                <Node pos="r" depth="5" NCoef="0" IVar="-1" Cut="0.0000000000000000e+00" cType="1" res="-3.1512565910816193e-03" rms="4.6508347988128662e-01" purity="4.3751740455627441e-01" nType="-99"/>
              </Node>
            </Node>
          </Node>
          <Node pos="r" depth="2" NCoef="0" IVar="-1" Cut="0.0000000000000000e+00" cType="1" res="-6.5296716056764126e-03" rms="4.1642463207244873e-01" purity="2.9128673672676086e-01" nType="-99"/>
        </Node>
      </Node>
    </BinaryTree>
    <BinaryTree type="DecisionTree" boostWeight="1.0000000000000000e+00" itree="71">
      <Node pos="s" depth="0" NCoef="0" IVar="3" Cut="7.7976024150848389e-01" cType="1" res="5.5545484647154808e-03" rms="4.0171000361442566e-01" purity="4.9965435266494751e-01" nType="0">
        <Node pos="l" depth="1" NCoef="0" IVar="1" Cut="-2.2930772602558136e-01" cType="1" res="-4.6348888427019119e-03" rms="3.8289365172386169e-01" purity="2.5985252857208252e-01" nType="0">
          <Node pos="l" depth="2" NCoef="0" IVar="3" Cut="4.6068251132965088e-01" cType="1" res="1.4575610868632793e-02" rms="4.3966725468635559e-01" purity="4.1871714591979980e-01" nType="0">
            <Node pos="l" depth="3" NCoef="0" IVar="-1" Cut="0.0000000000000000e+00" cType="1" res="-1.2221572687849402e-03" rms="3.3473581075668335e-01" purity="1.4439918100833893e-01" nType="-99"/>
            <Node pos="r" depth="3" NCoef="0" IVar="2" Cut="1.4355726623535156e+02" cType="1" res="2.1534590050578117e-02" rms="4.7031658887863159e-01" purity="5.1350724697113037e-01" nType="0">
              <Node pos="l" depth="4" NCoef="0" IVar="-1" Cut="0.0000000000000000e+00" cType="1" res="3.1712451018393040e-03" rms="4.7213822603225708e-01" purity="5.7080304622650146e-01" nType="-99"/>
              <Node pos="r" depth="4" NCoef="0" IVar="6" Cut="9.4262011349201202e-02" cType="1" res="1.1164790950715542e-02" rms="4.6873518824577332e-01" purity="4.7255635261535645e-01" nType="0">
                <Node pos="l" depth="5" NCoef="0" IVar="-1" Cut="0.0000000000000000e+00" cType="1" res="3.0620681354776025e-04" rms="4.6886530518531799e-01" purity="4.8727098107337952e-01" nType="-99"/>
                <Node pos="r" depth="5" NCoef="0" IVar="-1" Cut="0.0000000000000000e+00" cType="1" res="2.0404080860316753e-03" rms="4.6839150786399841e-01" purity="4.5475262403488159e-01" nType="-99"/>
              </Node>
            </Node>
          </Node>
          <Node pos="r" depth="2" NCoef="0" IVar="5" Cut="-1.3303630352020264e+00" cType="1" res="-7.6742800883948803e-03" rms="3.7302991747856140e-01" purity="2.3471775650978088e-01" nType="0">
            <Node pos="l" depth="3" NCoef="0" IVar="5" Cut="-3.1800310611724854e+00" cType="1" res="-3.0039043631404638e-03" rms="4.0538755059242249e-01" purity="2.9090443253517151e-01" nType="0">
              <Node pos="l" depth="4" NCoef="0" IVar="4" Cut="-1.1981785297393799e+00" cType="1" res="-2.3978631943464279e-02" rms="3.3641937375068665e-01" purity="1.6859710216522217e-01" nType="0">
                <Node pos="l" depth="5" NCoef="0" IVar="-1" Cut="0.0000000000000000e+00" cType="1" res="-7.3334085755050182e-03" rms="3.4049028158187866e-01" purity="1.7822957038879395e-01" nType="-99"/>
                <Node pos="r" depth="5" NCoef="0" IVar="2" Cut="1.2024320220947266e+02" cType="1" res="-7.6738307252526283e-03" rms="3.3179461956024170e-01" purity="1.5973395109176636e-01" nType="0">
                  <Node pos="l" depth="6" NCoef="0" IVar="-1" Cut="0.0000000000000000e+00" cType="1" res="-1.5543267363682389e-03" rms="3.5647705197334290e-01" purity="1.9523702561855316e-01" nType="-99"/>
                  <Node pos="r" depth="6" NCoef="0" IVar="-1" Cut="0.0000000000000000e+00" cType="1" res="-1.7063043778762221e-03" rms="3.0571231245994568e-01" purity="1.2498816102743149e-01" nType="-99"/>
                </Node>
              </Node>
              <Node pos="r" depth="4" NCoef="0" IVar="5" Cut="-1.9866924285888672e+00" cType="1" res="4.3505028588697314e-04" rms="4.1550368070602417e-01" purity="3.1095758080482483e-01" nType="0">
                <Node pos="l" depth="5" NCoef="0" IVar="3" Cut="3.6113765835762024e-01" cType="1" res="5.7466770522296429e-03" rms="4.1826376318931580e-01" purity="3.2274314761161804e-01" nType="0">
                  <Node pos="l" depth="6" NCoef="0" IVar="6" Cut="1.8787737190723419e-01" cType="1" res="-1.1161567643284798e-02" rms="2.9159924387931824e-01" purity="1.0201317071914673e-01" nType="0">
                    <Node pos="l" depth="7" NCoef="0" IVar="-1" Cut="0.0000000000000000e+00" cType="1" res="-6.5158694051206112e-03" rms="2.4432227015495300e-01" purity="6.5198473632335663e-02" nType="-99"/>
                    <Node pos="r" depth="7" NCoef="0" IVar="-1" Cut="0.0000000000000000e+00" cType="1" res="5.1487371092662215e-04" rms="3.9297652244567871e-01" purity="2.0325510203838348e-01" nType="-99"/>
                  </Node>
                  <Node pos="r" depth="6" NCoef="0" IVar="1" Cut="2.0780282020568848e+00" cType="1" res="1.1173849925398827e-02" rms="4.5131355524063110e-01" purity="3.9359256625175476e-01" nType="0">
                    <Node pos="l" depth="7" NCoef="0" IVar="-1" Cut="0.0000000000000000e+00" cType="1" res="1.6016009030863643e-03" rms="4.5462960004806519e-01" purity="4.0775206685066223e-01" nType="-99"/>
                    <Node pos="r" depth="7" NCoef="0" IVar="-1" Cut="0.0000000000000000e+00" cType="1" res="-3.9890790358185768e-03" rms="4.1134178638458252e-01" purity="2.3965193331241608e-01" nType="-99"/>
                  </Node>
                </Node>
                <Node pos="r" depth="5" NCoef="0" IVar="6" Cut="5.0946447998285294e-02" cType="1" res="-1.3146999292075634e-02" rms="4.0804690122604370e-01" purity="2.8082153201103210e-01" nType="0">
                  <Node pos="l" depth="6" NCoef="0" IVar="-1" Cut="0.0000000000000000e+00" cType="1" res="-3.9402930997312069e-03" rms="4.1531777381896973e-01" purity="2.9131206870079041e-01" nType="-99"/>
                  <Node pos="r" depth="6" NCoef="0" IVar="2" Cut="1.4709375000000000e+02" cType="1" res="-8.8427728042006493e-03" rms="4.0614619851112366e-01" purity="2.7827602624893188e-01" nType="0">
                    <Node pos="l" depth="7" NCoef="0" IVar="-1" Cut="0.0000000000000000e+00" cType="1" res="1.2587242526933551e-03" rms="4.3419855833053589e-01" purity="3.5925981402397156e-01" nType="-99"/>
                    <Node pos="r" depth="7" NCoef="0" IVar="-1" Cut="0.0000000000000000e+00" cType="1" res="-2.5188038125634193e-03" rms="3.9347338676452637e-01" purity="2.4425390362739563e-01" nType="-99"/>
                  </Node>
                </Node>
              </Node>
            </Node>
            <Node pos="r" depth="3" NCoef="0" IVar="4" Cut="-1.7947058379650116e-01" cType="1" res="-1.6441449522972107e-02" rms="3.0290496349334717e-01" purity="1.2924480438232422e-01" nType="0">
              <Node pos="l" depth="4" NCoef="0" IVar="-1" Cut="0.0000000000000000e+00" cType="1" res="2.8405839111655951e-04" rms="4.1541758179664612e-01" purity="2.7762344479560852e-01" nType="-99"/>
              <Node pos="r" depth="4" NCoef="0" IVar="6" Cut="1.0320815443992615e-01" cType="1" res="-1.9005483016371727e-02" rms="2.8368896245956421e-01" purity="1.0864952206611633e-01" nType="0">
                <Node pos="l" depth="5" NCoef="0" IVar="2" Cut="9.9371414184570312e+01" cType="1" res="-2.6409458369016647e-02" rms="2.9111775755882263e-01" purity="1.2238232046365738e-01" nType="0">
                  <Node pos="l" depth="6" NCoef="0" IVar="5" Cut="-1.0360940545797348e-01" cType="1" res="-1.7713127657771111e-02" rms="3.2315200567245483e-01" purity="1.5955893695354462e-01" nType="0">
                    <Node pos="l" depth="7" NCoef="0" IVar="-1" Cut="0.0000000000000000e+00" cType="1" res="-1.0987173300236464e-03" rms="3.8749676942825317e-01" purity="2.4241253733634949e-01" nType="-99"/>
                    <Node pos="r" depth="7" NCoef="0" IVar="-1" Cut="0.0000000000000000e+00" cType="1" res="-1.0710366070270538e-02" rms="2.2425863146781921e-01" purity="6.1956502497196198e-02" nType="-99"/>
                  </Node>
                  <Node pos="r" depth="6" NCoef="0" IVar="3" Cut="5.6334352493286133e-01" cType="1" res="-3.1328089535236359e-02" rms="2.7120643854141235e-01" purity="1.0135529190301895e-01" nType="0">
                    <Node pos="l" depth="7" NCoef="0" IVar="-1" Cut="0.0000000000000000e+00" cType="1" res="-1.2090940028429031e-02" rms="1.7759585380554199e-01" purity="3.5204008221626282e-02" nType="-99"/>
                    <Node pos="r" depth="7" NCoef="0" IVar="-1" Cut="0.0000000000000000e+00" cType="1" res="-5.9759174473583698e-03" rms="4.0254318714141846e-01" purity="2.4121242761611938e-01" nType="-99"/>
                  </Node>
                </Node>
                <Node pos="r" depth="5" NCoef="0" IVar="2" Cut="2.5312239074707031e+02" cType="1" res="-1.1477667838335037e-02" rms="2.7572718262672424e-01" purity="9.4687022268772125e-02" nType="0">
                  <Node pos="l" depth="6" NCoef="0" IVar="3" Cut="3.7421119213104248e-01" cType="1" res="3.2481196103617549e-04" rms="3.0119985342025757e-01" purity="1.2390460819005966e-01" nType="0">
                    <Node pos="l" depth="7" NCoef="0" IVar="-1" Cut="0.0000000000000000e+00" cType="1" res="-7.3569174855947495e-03" rms="2.1105392277240753e-01" purity="4.8291344195604324e-02" nType="-99"/>
                    <Node pos="r" depth="7" NCoef="0" IVar="-1" Cut="0.0000000000000000e+00" cType="1" res="2.5145797990262508e-03" rms="3.6703428626060486e-01" purity="1.9654980301856995e-01" nType="-99"/>
                  </Node>
                  <Node pos="r" depth="6" NCoef="0" IVar="6" Cut="1.7915461957454681e-01" cType="1" res="-1.7134902998805046e-02" rms="2.6245492696762085e-01" purity="8.0682262778282166e-02" nType="0">
                    <Node pos="l" depth="7" NCoef="0" IVar="-1" Cut="0.0000000000000000e+00" cType="1" res="-8.1321801990270615e-03" rms="2.4400432407855988e-01" purity="7.1639366447925568e-02" nType="-99"/>
                    <Node pos="r" depth="7" NCoef="0" IVar="-1" Cut="0.0000000000000000e+00" cType="1" res="-2.0886149723082781e-03" rms="2.8618589043617249e-01" purity="9.3462981283664703e-02" nType="-99"/>
                  </Node>
                </Node>
              </Node>
            </Node>
          </Node>
        </Node>
        <Node pos="r" depth="1" NCoef="0" IVar="0" Cut="9.6548122167587280e-01" cType="1" res="1.5603016130626202e-02" rms="4.1919767856597900e-01" purity="7.3613858222961426e-01" nType="0">
          <Node pos="l" depth="2" NCoef="0" IVar="5" Cut="-3.0118010044097900e+00" cType="1" res="1.7166513949632645e-02" rms="4.1700786352157593e-01" purity="7.5088900327682495e-01" nType="0">
            <Node pos="l" depth="3" NCoef="0" IVar="4" Cut="-2.4314906597137451e+00" cType="1" res="2.5520583614706993e-02" rms="3.7714287638664246e-01" purity="8.1858652830123901e-01" nType="0">
              <Node pos="l" depth="4" NCoef="0" IVar="-1" Cut="0.0000000000000000e+00" cType="1" res="4.9425796605646610e-03" rms="3.9160656929016113e-01" purity="7.9950708150863647e-01" nType="-99"/>
              <Node pos="r" depth="4" NCoef="0" IVar="4" Cut="-1.1391526460647583e+00" cType="1" res="2.3116093128919601e-02" rms="3.7510317564010620e-01" purity="8.2113528251647949e-01" nType="0">
                <Node pos="l" depth="5" NCoef="0" IVar="-1" Cut="0.0000000000000000e+00" cType="1" res="9.6361973555758595e-04" rms="4.1852936148643494e-01" purity="7.5980919599533081e-01" nType="-99"/>
                <Node pos="r" depth="5" NCoef="0" IVar="4" Cut="-3.0031386017799377e-01" cType="1" res="2.7429299429059029e-02" rms="3.5992321372032166e-01" purity="8.4085315465927124e-01" nType="0">
                  <Node pos="l" depth="6" NCoef="0" IVar="5" Cut="-3.2348201274871826e+00" cType="1" res="2.4525150656700134e-02" rms="3.6402854323387146e-01" purity="8.3544397354125977e-01" nType="0">
                    <Node pos="l" depth="7" NCoef="0" IVar="-1" Cut="0.0000000000000000e+00" cType="1" res="3.9985892362892628e-03" rms="3.5698866844177246e-01" purity="8.4242910146713257e-01" nType="-99"/>
                    <Node pos="r" depth="7" NCoef="0" IVar="-1" Cut="0.0000000000000000e+00" cType="1" res="2.5502070784568787e-03" rms="3.6881870031356812e-01" purity="8.3054560422897339e-01" nType="-99"/>
                  </Node>
                  <Node pos="r" depth="6" NCoef="0" IVar="4" Cut="-2.1901719272136688e-02" cType="1" res="3.1602453440427780e-02" rms="3.5389894247055054e-01" purity="8.4862589836120605e-01" nType="0">
                    <Node pos="l" depth="7" NCoef="0" IVar="-1" Cut="0.0000000000000000e+00" cType="1" res="5.1696226000785828e-03" rms="3.4562286734580994e-01" purity="8.5722643136978149e-01" nType="-99"/>
                    <Node pos="r" depth="7" NCoef="0" IVar="-1" Cut="0.0000000000000000e+00" cType="1" res="3.2860408537089825e-03" rms="3.6414620280265808e-01" purity="8.3754593133926392e-01" nType="-99"/>
                  </Node>
                </Node>
              </Node>
            </Node>
            <Node pos="r" depth="3" NCoef="0" IVar="1" Cut="1.7941445112228394e+00" cType="1" res="1.4798229560256004e-02" rms="4.2760387063026428e-01" purity="7.3169755935668945e-01" nType="0">
              <Node pos="l" depth="4" NCoef="0" IVar="6" Cut="5.1590621471405029e-02" cType="1" res="1.6609422862529755e-02" rms="4.2391154170036316e-01" purity="7.4319583177566528e-01" nType="0">
                <Node pos="l" depth="5" NCoef="0" IVar="3" Cut="8.6456739902496338e-01" cType="1" res="1.4978740364313126e-02" rms="4.2075267434120178e-01" purity="7.4990642070770264e-01" nType="0">
                  <Node pos="l" depth="6" NCoef="0" IVar="5" Cut="-2.3262991905212402e+00" cType="1" res="-4.8579697613604367e-04" rms="4.6130952239036560e-01" purity="6.6111540794372559e-01" nType="0">
                    <Node pos="l" depth="7" NCoef="0" IVar="-1" Cut="0.0000000000000000e+00" cType="1" res="1.4449104201048613e-03" rms="4.4192719459533691e-01" purity="7.2211045026779175e-01" nType="-99"/>
                    <Node pos="r" depth="7" NCoef="0" IVar="-1" Cut="0.0000000000000000e+00" cType="1" res="-1.2854221276938915e-03" rms="4.7725051641464233e-01" purity="6.0761731863021851e-01" nType="-99"/>
                  </Node>
                  <Node pos="r" depth="6" NCoef="0" IVar="1" Cut="6.9118744134902954e-01" cType="1" res="1.8243305385112762e-02" rms="4.1160640120506287e-01" purity="7.6865011453628540e-01" nType="0">
                    <Node pos="l" depth="7" NCoef="0" IVar="-1" Cut="0.0000000000000000e+00" cType="1" res="2.2871070541441441e-03" rms="4.0244269371032715e-01" purity="7.8658252954483032e-01" nType="-99"/>
                    <Node pos="r" depth="7" NCoef="0" IVar="-1" Cut="0.0000000000000000e+00" cType="1" res="6.5003312192857265e-04" rms="4.6118962764739990e-01" purity="6.6426497697830200e-01" nType="-99"/>
                  </Node>
                </Node>
                <Node pos="r" depth="5" NCoef="0" IVar="2" Cut="1.3811758422851562e+02" cType="1" res="3.0280362814664841e-02" rms="4.4928932189941406e-01" purity="6.8693798780441284e-01" nType="0">
                  <Node pos="l" depth="6" NCoef="0" IVar="-1" Cut="0.0000000000000000e+00" cType="1" res="3.9127101190388203e-03" rms="4.3828585743904114e-01" purity="7.1339648962020874e-01" nType="-99"/>
                  <Node pos="r" depth="6" NCoef="0" IVar="-1" Cut="0.0000000000000000e+00" cType="1" res="1.7249040538445115e-03" rms="4.5783874392509460e-01" purity="6.6507077217102051e-01" nType="-99"/>
                </Node>
              </Node>
              <Node pos="r" depth="4" NCoef="0" IVar="5" Cut="-2.3208694458007812e+00" cType="1" res="-1.4363801106810570e-02" rms="4.8224931955337524e-01" purity="5.4656386375427246e-01" nType="0">
                <Node pos="l" depth="5" NCoef="0" IVar="-1" Cut="0.0000000000000000e+00" cType="1" res="2.0079180831089616e-04" rms="4.7644308209419250e-01" purity="6.2844222784042358e-01" nType="-99"/>
                <Node pos="r" depth="5" NCoef="0" IVar="-1" Cut="0.0000000000000000e+00" cType="1" res="-2.6849105488508940e-03" rms="4.8727101087570190e-01" purity="4.6711838245391846e-01" nType="-99"/>
              </Node>
            </Node>
          </Node>
          <Node pos="r" depth="2" NCoef="0" IVar="-1" Cut="0.0000000000000000e+00" cType="1" res="-2.3708678781986237e-03" rms="4.6919980645179749e-01" purity="3.6536729335784912e-01" nType="-99"/>
        </Node>
      </Node>
    </BinaryTree>
    <BinaryTree type="DecisionTree" boostWeight="1.0000000000000000e+00" itree="72">
      <Node pos="s" depth="0" NCoef="0" IVar="3" Cut="7.1872782707214355e-01" cType="1" res="6.2258327379822731e-03" rms="4.0106600522994995e-01" purity="5.0079190731048584e-01" nType="0">
        <Node pos="l" depth="1" NCoef="0" IVar="1" Cut="-2.3116573691368103e-01" cType="1" res="-5.6233187206089497e-03" rms="3.6759558320045471e-01" purity="2.1662776172161102e-01" nType="0">
          <Node pos="l" depth="2" NCoef="0" IVar="2" Cut="3.8066055297851562e+02" cType="1" res="1.2895626015961170e-02" rms="4.3422603607177734e-01" purity="3.6043950915336609e-01" nType="0">
            <Node pos="l" depth="3" NCoef="0" IVar="6" Cut="8.6261436343193054e-02" cType="1" res="2.0586673170328140e-02" rms="4.4187530875205994e-01" purity="3.9178395271301270e-01" nType="0">
              <Node pos="l" depth="4" NCoef="0" IVar="3" Cut="5.8436590433120728e-01" cType="1" res="2.3277560248970985e-03" rms="4.4051632285118103e-01" purity="3.8068738579750061e-01" nType="0">
                <Node pos="l" depth="5" NCoef="0" IVar="-1" Cut="0.0000000000000000e+00" cType="1" res="-1.8460287246853113e-03" rms="3.7233719229698181e-01" purity="1.9712254405021667e-01" nType="-99"/>
                <Node pos="r" depth="5" NCoef="0" IVar="-1" Cut="0.0000000000000000e+00" cType="1" res="1.1333343572914600e-03" rms="4.8622256517410278e-01" purity="5.2180963754653931e-01" nType="-99"/>
              </Node>
              <Node pos="r" depth="4" NCoef="0" IVar="-1" Cut="0.0000000000000000e+00" cType="1" res="5.1576443947851658e-03" rms="4.4249469041824341e-01" purity="4.0849539637565613e-01" nType="-99"/>
            </Node>
            <Node pos="r" depth="3" NCoef="0" IVar="-1" Cut="0.0000000000000000e+00" cType="1" res="-1.7048590816557407e-03" rms="4.0774658322334290e-01" purity="2.5989544391632080e-01" nType="-99"/>
          </Node>
          <Node pos="r" depth="2" NCoef="0" IVar="4" Cut="-1.6852370500564575e+00" cType="1" res="-8.3167385309934616e-03" rms="3.5678994655609131e-01" purity="1.9571159780025482e-01" nType="0">
            <Node pos="l" depth="3" NCoef="0" IVar="5" Cut="-2.3281855583190918e+00" cType="1" res="8.8744172826409340e-03" rms="4.2290911078453064e-01" purity="3.0243155360221863e-01" nType="0">
              <Node pos="l" depth="4" NCoef="0" IVar="4" Cut="-2.3520958423614502e+00" cType="1" res="-1.6786718042567372e-03" rms="4.1040924191474915e-01" purity="2.7963802218437195e-01" nType="0">
                <Node pos="l" depth="5" NCoef="0" IVar="-1" Cut="0.0000000000000000e+00" cType="1" res="1.6321717994287610e-03" rms="4.1330376267433167e-01" purity="2.9169824719429016e-01" nType="-99"/>
                <Node pos="r" depth="5" NCoef="0" IVar="-1" Cut="0.0000000000000000e+00" cType="1" res="-1.9709367770701647e-03" rms="4.0734413266181946e-01" purity="2.6863187551498413e-01" nType="-99"/>
              </Node>
              <Node pos="r" depth="4" NCoef="0" IVar="-1" Cut="0.0000000000000000e+00" cType="1" res="4.0137795731425285e-03" rms="4.5091578364372253e-01" purity="3.5802873969078064e-01" nType="-99"/>
            </Node>
            <Node pos="r" depth="3" NCoef="0" IVar="1" Cut="4.2877343297004700e-01" cType="1" res="-1.1033532209694386e-02" rms="3.4510552883148193e-01" purity="1.7884618043899536e-01" nType="0">
              <Node pos="l" depth="4" NCoef="0" IVar="2" Cut="2.0625843811035156e+02" cType="1" res="-9.1438076924532652e-04" rms="3.9489179849624634e-01" purity="2.6638978719711304e-01" nType="0">
                <Node pos="l" depth="5" NCoef="0" IVar="6" Cut="1.0542302578687668e-01" cType="1" res="1.1055705137550831e-02" rms="4.2198550701141357e-01" purity="3.2813346385955811e-01" nType="0">
                  <Node pos="l" depth="6" NCoef="0" IVar="3" Cut="4.4682183861732483e-01" cType="1" res="3.3236674498766661e-03" rms="4.1473457217216492e-01" purity="3.1515118479728699e-01" nType="0">
                    <Node pos="l" depth="7" NCoef="0" IVar="-1" Cut="0.0000000000000000e+00" cType="1" res="-8.8960956782102585e-03" rms="2.3554450273513794e-01" purity="6.1405442655086517e-02" nType="-99"/>
                    <Node pos="r" depth="7" NCoef="0" IVar="-1" Cut="0.0000000000000000e+00" cType="1" res="1.3183443807065487e-03" rms="4.5918092131614685e-01" purity="4.0046954154968262e-01" nType="-99"/>
                  </Node>
                  <Node pos="r" depth="6" NCoef="0" IVar="-1" Cut="0.0000000000000000e+00" cType="1" res="4.9105300568044186e-03" rms="4.4975039362907410e-01" purity="3.8272508978843689e-01" nType="-99"/>
                </Node>
                <Node pos="r" depth="5" NCoef="0" IVar="6" Cut="1.0473731160163879e-01" cType="1" res="-1.3249123468995094e-02" rms="3.6446300148963928e-01" purity="2.0276510715484619e-01" nType="0">
                  <Node pos="l" depth="6" NCoef="0" IVar="-1" Cut="0.0000000000000000e+00" cType="1" res="-4.3607298284769058e-03" rms="3.6194920539855957e-01" purity="2.0777325332164764e-01" nType="-99"/>
                  <Node pos="r" depth="6" NCoef="0" IVar="5" Cut="-1.9794219732284546e+00" cType="1" res="-5.3831315599381924e-03" rms="3.6566033959388733e-01" purity="1.9990104436874390e-01" nType="0">
                    <Node pos="l" depth="7" NCoef="0" IVar="-1" Cut="0.0000000000000000e+00" cType="1" res="2.5089213158935308e-03" rms="4.3037122488021851e-01" purity="3.0868679285049438e-01" nType="-99"/>
                    <Node pos="r" depth="7" NCoef="0" IVar="-1" Cut="0.0000000000000000e+00" cType="1" res="-3.7570665590465069e-03" rms="3.2785588502883911e-01" purity="1.4548178017139435e-01" nType="-99"/>
                  </Node>
                </Node>
              </Node>
              <Node pos="r" depth="4" NCoef="0" IVar="6" Cut="8.9897297322750092e-02" cType="1" res="-1.6118001192808151e-02" rms="3.1703159213066101e-01" purity="1.3485901057720184e-01" nType="0">
                <Node pos="l" depth="5" NCoef="0" IVar="0" Cut="6.4460355043411255e-01" cType="1" res="-2.4864034727215767e-02" rms="3.0680781602859497e-01" purity="1.2620171904563904e-01" nType="0">
                  <Node pos="l" depth="6" NCoef="0" IVar="4" Cut="-6.8588398396968842e-02" cType="1" res="-3.7833008915185928e-02" rms="4.3482378125190735e-01" purity="2.8478485345840454e-01" nType="0">
                    <Node pos="l" depth="7" NCoef="0" IVar="-1" Cut="0.0000000000000000e+00" cType="1" res="-2.7620545588433743e-03" rms="4.5609357953071594e-01" purity="3.2381495833396912e-01" nType="-99"/>
                    <Node pos="r" depth="7" NCoef="0" IVar="-1" Cut="0.0000000000000000e+00" cType="1" res="-6.3737556338310242e-03" rms="4.0892389416694641e-01" purity="2.4049004912376404e-01" nType="-99"/>
                  </Node>
                  <Node pos="r" depth="6" NCoef="0" IVar="3" Cut="5.1819986104965210e-01" cType="1" res="-2.0979864522814751e-02" rms="2.5618571043014526e-01" purity="7.8706532716751099e-02" nType="0">
                    <Node pos="l" depth="7" NCoef="0" IVar="-1" Cut="0.0000000000000000e+00" cType="1" res="-9.9864536896348000e-03" rms="2.1125529706478119e-01" purity="4.8677109181880951e-02" nType="-99"/>
                    <Node pos="r" depth="7" NCoef="0" IVar="-1" Cut="0.0000000000000000e+00" cType="1" res="-1.8208716064691544e-03" rms="3.8567444682121277e-01" purity="1.9769848883152008e-01" nType="-99"/>
                  </Node>
                </Node>
                <Node pos="r" depth="5" NCoef="0" IVar="5" Cut="-1.3303630352020264e+00" cType="1" res="-9.0748257935047150e-03" rms="3.2486000657081604e-01" purity="1.4183072745800018e-01" nType="0">
                  <Node pos="l" depth="6" NCoef="0" IVar="3" Cut="2.8910711407661438e-01" cType="1" res="-2.0705063361674547e-03" rms="3.7451428174972534e-01" purity="1.9695338606834412e-01" nType="0">
                    <Node pos="l" depth="7" NCoef="0" IVar="-1" Cut="0.0000000000000000e+00" cType="1" res="-6.1845490708947182e-03" rms="2.7841198444366455e-01" purity="9.0452902019023895e-02" nType="-99"/>
                    <Node pos="r" depth="7" NCoef="0" IVar="-1" Cut="0.0000000000000000e+00" cType="1" res="1.0446528904139996e-03" rms="4.1376310586929321e-01" purity="2.4990439414978027e-01" nType="-99"/>
                  </Node>
                  <Node pos="r" depth="6" NCoef="0" IVar="6" Cut="1.0966433584690094e-01" cType="1" res="-1.6691723838448524e-02" rms="2.6011276245117188e-01" purity="8.1887200474739075e-02" nType="0">
                    <Node pos="l" depth="7" NCoef="0" IVar="-1" Cut="0.0000000000000000e+00" cType="1" res="-8.1993704661726952e-03" rms="2.5038340687751770e-01" purity="7.9561471939086914e-02" nType="-99"/>
                    <Node pos="r" depth="7" NCoef="0" IVar="-1" Cut="0.0000000000000000e+00" cType="1" res="-4.7082323580980301e-03" rms="2.6253089308738708e-01" purity="8.2492575049400330e-02" nType="-99"/>
                  </Node>
                </Node>
              </Node>
            </Node>
          </Node>
        </Node>
        <Node pos="r" depth="1" NCoef="0" IVar="5" Cut="-9.7360891103744507e-01" cType="1" res="1.5287385322153568e-02" rms="4.2466378211975098e-01" purity="7.1810448169708252e-01" nType="0">
          <Node pos="l" depth="2" NCoef="0" IVar="3" Cut="1.0474351644515991e+00" cType="1" res="1.7840452492237091e-02" rms="4.1953596472740173e-01" purity="7.4007344245910645e-01" nType="0">
            <Node pos="l" depth="3" NCoef="0" IVar="3" Cut="9.9441623687744141e-01" cType="1" res="1.8807608634233475e-02" rms="4.1988009214401245e-01" purity="7.4019682407379150e-01" nType="0">
              <Node pos="l" depth="4" NCoef="0" IVar="6" Cut="3.7049688398838043e-02" cType="1" res="1.3418276794254780e-02" rms="4.3911853432655334e-01" purity="7.0236456394195557e-01" nType="0">
                <Node pos="l" depth="5" NCoef="0" IVar="3" Cut="8.3434218168258667e-01" cType="1" res="6.9066346623003483e-03" rms="4.2855960130691528e-01" purity="7.2330844402313232e-01" nType="0">
                  <Node pos="l" depth="6" NCoef="0" IVar="7" Cut="3.0000000000000000e+00" cType="1" res="-1.5231445431709290e-02" rms="4.7130584716796875e-01" purity="5.9193295240402222e-01" nType="0">
                    <Node pos="l" depth="7" NCoef="0" IVar="-1" Cut="0.0000000000000000e+00" cType="1" res="-3.0518732964992523e-03" rms="4.7979420423507690e-01" purity="5.6707036495208740e-01" nType="-99"/>
                    <Node pos="r" depth="7" NCoef="0" IVar="-1" Cut="0.0000000000000000e+00" cType="1" res="1.3790448429062963e-03" rms="4.7107663750648499e-01" purity="6.3017153739929199e-01" nType="-99"/>
                  </Node>
                  <Node pos="r" depth="6" NCoef="0" IVar="1" Cut="2.6373585686087608e-02" cType="1" res="1.1601689271628857e-02" rms="4.1719141602516174e-01" purity="7.5176620483398438e-01" nType="0">
                    <Node pos="l" depth="7" NCoef="0" IVar="-1" Cut="0.0000000000000000e+00" cType="1" res="2.4524456821382046e-03" rms="3.8811704516410828e-01" purity="8.0837637186050415e-01" nType="-99"/>
                    <Node pos="r" depth="7" NCoef="0" IVar="-1" Cut="0.0000000000000000e+00" cType="1" res="4.7824278590269387e-04" rms="4.3952959775924683e-01" purity="7.0523220300674438e-01" nType="-99"/>
                  </Node>
                </Node>
                <Node pos="r" depth="5" NCoef="0" IVar="2" Cut="1.8040144348144531e+02" cType="1" res="2.3697631433606148e-02" rms="4.5509925484657288e-01" purity="6.6930228471755981e-01" nType="0">
                  <Node pos="l" depth="6" NCoef="0" IVar="6" Cut="6.5449357032775879e-02" cType="1" res="2.9145630076527596e-02" rms="4.4911104440689087e-01" purity="6.8786251544952393e-01" nType="0">
                    <Node pos="l" depth="7" NCoef="0" IVar="-1" Cut="0.0000000000000000e+00" cType="1" res="2.1286611445248127e-03" rms="4.4768342375755310e-01" purity="6.8841147422790527e-01" nType="-99"/>
                    <Node pos="r" depth="7" NCoef="0" IVar="-1" Cut="0.0000000000000000e+00" cType="1" res="4.5515429228544235e-03" rms="4.5396536588668823e-01" purity="6.8563896417617798e-01" nType="-99"/>
                  </Node>
                  <Node pos="r" depth="6" NCoef="0" IVar="1" Cut="-1.4736683666706085e-01" cType="1" res="1.2418059632182121e-02" rms="4.6705150604248047e-01" purity="6.3087505102157593e-01" nType="0">
                    <Node pos="l" depth="7" NCoef="0" IVar="-1" Cut="0.0000000000000000e+00" cType="1" res="2.9400642961263657e-03" rms="4.4801911711692810e-01" purity="7.1173048019409180e-01" nType="-99"/>
                    <Node pos="r" depth="7" NCoef="0" IVar="-1" Cut="0.0000000000000000e+00" cType="1" res="5.0657684914767742e-04" rms="4.7476482391357422e-01" purity="5.9635728597640991e-01" nType="-99"/>
                  </Node>
                </Node>
              </Node>
              <Node pos="r" depth="4" NCoef="0" IVar="5" Cut="-3.2439985275268555e+00" cType="1" res="2.7166277170181274e-02" rms="3.8801211118698120e-01" purity="7.9887336492538452e-01" nType="0">
                <Node pos="l" depth="5" NCoef="0" IVar="-1" Cut="0.0000000000000000e+00" cType="1" res="5.7589253410696983e-03" rms="3.4895196557044983e-01" purity="8.4868168830871582e-01" nType="-99"/>
                <Node pos="r" depth="5" NCoef="0" IVar="3" Cut="9.9612653255462646e-01" cType="1" res="2.4426525458693504e-02" rms="3.9292833209037781e-01" purity="7.9212158918380737e-01" nType="0">
                  <Node pos="l" depth="6" NCoef="0" IVar="-1" Cut="0.0000000000000000e+00" cType="1" res="5.2912643877789378e-04" rms="4.0432366728782654e-01" purity="7.7423691749572754e-01" nType="-99"/>
                  <Node pos="r" depth="6" NCoef="0" IVar="4" Cut="-6.2151664495468140e-01" cType="1" res="2.6289399713277817e-02" rms="3.9179727435112000e-01" purity="7.9378873109817505e-01" nType="0">
                    <Node pos="l" depth="7" NCoef="0" IVar="-1" Cut="0.0000000000000000e+00" cType="1" res="1.9455397268757224e-03" rms="4.0679880976676941e-01" purity="7.7073657512664795e-01" nType="-99"/>
                    <Node pos="r" depth="7" NCoef="0" IVar="-1" Cut="0.0000000000000000e+00" cType="1" res="3.7239510565996170e-03" rms="3.8164421916007996e-01" purity="8.0880314111709595e-01" nType="-99"/>
                  </Node>
                </Node>
              </Node>
            </Node>
            <Node pos="r" depth="3" NCoef="0" IVar="-1" Cut="0.0000000000000000e+00" cType="1" res="-2.0847523119300604e-03" rms="4.0481472015380859e-01" purity="7.3546171188354492e-01" nType="-99"/>
          </Node>
          <Node pos="r" depth="2" NCoef="0" IVar="5" Cut="3.4591229632496834e-03" cType="1" res="-1.1202068999409676e-02" rms="4.7379839420318604e-01" purity="4.9016425013542175e-01" nType="0">
            <Node pos="l" depth="3" NCoef="0" IVar="4" Cut="-2.7153944969177246e-01" cType="1" res="2.9059266671538353e-03" rms="4.8188799619674683e-01" purity="5.3494018316268921e-01" nType="0">
              <Node pos="l" depth="4" NCoef="0" IVar="-1" Cut="0.0000000000000000e+00" cType="1" res="-1.0917229810729623e-03" rms="4.8416879773139954e-01" purity="5.3974401950836182e-01" nType="-99"/>
              <Node pos="r" depth="4" NCoef="0" IVar="5" Cut="-5.9539842605590820e-01" cType="1" res="1.2939319945871830e-02" rms="4.8010039329528809e-01" purity="5.3173995018005371e-01" nType="0">
                <Node pos="l" depth="5" NCoef="0" IVar="-1" Cut="0.0000000000000000e+00" cType="1" res="1.7631283262744546e-03" rms="4.8059919476509094e-01" purity="5.7044494152069092e-01" nType="-99"/>
                <Node pos="r" depth="5" NCoef="0" IVar="-1" Cut="0.0000000000000000e+00" cType="1" res="6.6211191006004810e-04" rms="4.7957667708396912e-01" purity="4.9679166078567505e-01" nType="-99"/>
              </Node>
            </Node>
            <Node pos="r" depth="3" NCoef="0" IVar="-1" Cut="0.0000000000000000e+00" cType="1" res="-6.3603585585951805e-03" rms="4.4031828641891479e-01" purity="3.3147639036178589e-01" nType="-99"/>
          </Node>
        </Node>
      </Node>
    </BinaryTree>
    <BinaryTree type="DecisionTree" boostWeight="1.0000000000000000e+00" itree="73">
      <Node pos="s" depth="0" NCoef="0" IVar="0" Cut="6.4490759372711182e-01" cType="1" res="3.9291530847549438e-03" rms="4.0076166391372681e-01" purity="4.9861836433410645e-01" nType="0">
        <Node pos="l" depth="1" NCoef="0" IVar="1" Cut="1.5600324869155884e+00" cType="1" res="1.0803022421896458e-02" rms="4.3027424812316895e-01" purity="6.7320597171783447e-01" nType="0">
          <Node pos="l" depth="2" NCoef="0" IVar="5" Cut="3.9409759640693665e-01" cType="1" res="1.3326558284461498e-02" rms="4.2739877104759216e-01" purity="6.8840974569320679e-01" nType="0">
            <Node pos="l" depth="3" NCoef="0" IVar="5" Cut="-2.5477797985076904e+00" cType="1" res="1.4378282241523266e-02" rms="4.2819255590438843e-01" purity="6.9678258895874023e-01" nType="0">
              <Node pos="l" depth="4" NCoef="0" IVar="3" Cut="6.4833998680114746e-01" cType="1" res="2.1424321457743645e-02" rms="4.0048220753669739e-01" purity="7.5928097963333130e-01" nType="0">
                <Node pos="l" depth="5" NCoef="0" IVar="6" Cut="7.4584677815437317e-02" cType="1" res="-2.1958514116704464e-03" rms="4.7145307064056396e-01" purity="4.0164801478385925e-01" nType="0">
                  <Node pos="l" depth="6" NCoef="0" IVar="-1" Cut="0.0000000000000000e+00" cType="1" res="-1.5514835249632597e-03" rms="4.5847231149673462e-01" purity="3.6131915450096130e-01" nType="-99"/>
                  <Node pos="r" depth="6" NCoef="0" IVar="-1" Cut="0.0000000000000000e+00" cType="1" res="1.0157329961657524e-03" rms="4.8382949829101562e-01" purity="4.4229272007942200e-01" nType="-99"/>
                </Node>
                <Node pos="r" depth="5" NCoef="0" IVar="4" Cut="-2.7308187484741211e+00" cType="1" res="2.3396726697683334e-02" rms="3.9391374588012695e-01" purity="7.8914511203765869e-01" nType="0">
                  <Node pos="l" depth="6" NCoef="0" IVar="6" Cut="2.0923838019371033e-02" cType="1" res="4.0611729025840759e-02" rms="3.9624181389808655e-01" purity="7.9507201910018921e-01" nType="0">
                    <Node pos="l" depth="7" NCoef="0" IVar="-1" Cut="0.0000000000000000e+00" cType="1" res="3.7456580903381109e-03" rms="3.9173945784568787e-01" purity="8.0236607789993286e-01" nType="-99"/>
                    <Node pos="r" depth="7" NCoef="0" IVar="-1" Cut="0.0000000000000000e+00" cType="1" res="5.4579670540988445e-03" rms="4.0062528848648071e-01" purity="7.8759098052978516e-01" nType="-99"/>
                  </Node>
                  <Node pos="r" depth="6" NCoef="0" IVar="4" Cut="-1.0517331361770630e+00" cType="1" res="2.1587248891592026e-02" rms="3.9362454414367676e-01" purity="7.8852218389511108e-01" nType="0">
                    <Node pos="l" depth="7" NCoef="0" IVar="-1" Cut="0.0000000000000000e+00" cType="1" res="1.3222101842984557e-03" rms="4.2879292368888855e-01" purity="7.3144775629043579e-01" nType="-99"/>
                    <Node pos="r" depth="7" NCoef="0" IVar="-1" Cut="0.0000000000000000e+00" cType="1" res="3.4462271723896265e-03" rms="3.6850890517234802e-01" purity="8.2614153623580933e-01" nType="-99"/>
                  </Node>
                </Node>
              </Node>
              <Node pos="r" depth="4" NCoef="0" IVar="1" Cut="-2.7585721015930176e-01" cType="1" res="8.1466678529977798e-03" rms="4.5119264721870422e-01" purity="6.4150822162628174e-01" nType="0">
                <Node pos="l" depth="5" NCoef="0" IVar="4" Cut="-9.6155333518981934e-01" cType="1" res="1.9310556352138519e-02" rms="4.3810778856277466e-01" purity="7.0527869462966919e-01" nType="0">
                  <Node pos="l" depth="6" NCoef="0" IVar="2" Cut="1.1070758819580078e+02" cType="1" res="1.1792296543717384e-02" rms="4.4562324881553650e-01" purity="7.0889854431152344e-01" nType="0">
                    <Node pos="l" depth="7" NCoef="0" IVar="-1" Cut="0.0000000000000000e+00" cType="1" res="4.6322202251758426e-05" rms="4.3752732872962952e-01" purity="7.2962301969528198e-01" nType="-99"/>
                    <Node pos="r" depth="7" NCoef="0" IVar="-1" Cut="0.0000000000000000e+00" cType="1" res="2.4668851401656866e-03" rms="4.5548519492149353e-01" purity="6.8203598260879517e-01" nType="-99"/>
                  </Node>
                  <Node pos="r" depth="6" NCoef="0" IVar="5" Cut="-1.3145577907562256e+00" cType="1" res="2.5080181658267975e-02" rms="4.3216300010681152e-01" purity="7.0250070095062256e-01" nType="0">
                    <Node pos="l" depth="7" NCoef="0" IVar="-1" Cut="0.0000000000000000e+00" cType="1" res="2.0801993086934090e-03" rms="4.1360074281692505e-01" purity="7.4868136644363403e-01" nType="-99"/>
                    <Node pos="r" depth="7" NCoef="0" IVar="-1" Cut="0.0000000000000000e+00" cType="1" res="3.4786423202604055e-03" rms="4.7065588831901550e-01" purity="5.9956902265548706e-01" nType="-99"/>
                  </Node>
                </Node>
                <Node pos="r" depth="5" NCoef="0" IVar="1" Cut="-9.8200544714927673e-02" cType="1" res="4.8920670524239540e-03" rms="4.5488485693931580e-01" purity="6.2291723489761353e-01" nType="0">
                  <Node pos="l" depth="6" NCoef="0" IVar="4" Cut="-5.9448951482772827e-01" cType="1" res="2.0610418170690536e-02" rms="4.3448203802108765e-01" purity="7.0453214645385742e-01" nType="0">
                    <Node pos="l" depth="7" NCoef="0" IVar="-1" Cut="0.0000000000000000e+00" cType="1" res="2.7826812583953142e-03" rms="4.2933553457260132e-01" purity="7.3397868871688843e-01" nType="-99"/>
                    <Node pos="r" depth="7" NCoef="0" IVar="-1" Cut="0.0000000000000000e+00" cType="1" res="1.3638428645208478e-03" rms="4.3977072834968567e-01" purity="6.7316234111785889e-01" nType="-99"/>
                  </Node>
                  <Node pos="r" depth="6" NCoef="0" IVar="6" Cut="5.1585692912340164e-02" cType="1" res="1.6883199568837881e-03" rms="4.5886608958244324e-01" purity="6.0628235340118408e-01" nType="0">
                    <Node pos="l" depth="7" NCoef="0" IVar="-1" Cut="0.0000000000000000e+00" cType="1" res="-3.7237763172015548e-04" rms="4.5127096772193909e-01" purity="6.5754246711730957e-01" nType="-99"/>
                    <Node pos="r" depth="7" NCoef="0" IVar="-1" Cut="0.0000000000000000e+00" cType="1" res="1.1390867875888944e-03" rms="4.7309336066246033e-01" purity="5.0670856237411499e-01" nType="-99"/>
                  </Node>
                </Node>
              </Node>
            </Node>
            <Node pos="r" depth="3" NCoef="0" IVar="-1" Cut="0.0000000000000000e+00" cType="1" res="-7.1226838044822216e-03" rms="3.7325251102447510e-01" purity="2.0095707476139069e-01" nType="-99"/>
          </Node>
          <Node pos="r" depth="2" NCoef="0" IVar="0" Cut="2.0799836143851280e-02" cType="1" res="-2.0048517733812332e-02" rms="4.6287882328033447e-01" purity="4.8733162879943848e-01" nType="0">
            <Node pos="l" depth="3" NCoef="0" IVar="6" Cut="1.2435619719326496e-02" cType="1" res="-2.3738075979053974e-03" rms="4.7412779927253723e-01" purity="5.9076339006423950e-01" nType="0">
              <Node pos="l" depth="4" NCoef="0" IVar="-1" Cut="0.0000000000000000e+00" cType="1" res="-1.1006916174665093e-03" rms="4.6601119637489319e-01" purity="6.3309383392333984e-01" nType="-99"/>
              <Node pos="r" depth="4" NCoef="0" IVar="-1" Cut="0.0000000000000000e+00" cType="1" res="1.2441036524251103e-03" rms="4.8689773678779602e-01" purity="5.2020740509033203e-01" nType="-99"/>
            </Node>
            <Node pos="r" depth="3" NCoef="0" IVar="-1" Cut="0.0000000000000000e+00" cType="1" res="-5.1458450034260750e-03" rms="4.4309425354003906e-01" purity="3.2393530011177063e-01" nType="-99"/>
          </Node>
        </Node>
        <Node pos="r" depth="1" NCoef="0" IVar="4" Cut="1.6759068965911865e+00" cType="1" res="-9.3373339623212814e-03" rms="3.3616635203361511e-01" purity="1.6166643798351288e-01" nType="0">
          <Node pos="l" depth="2" NCoef="0" IVar="2" Cut="3.4847323608398438e+02" cType="1" res="-6.2953052110970020e-03" rms="3.6406940221786499e-01" purity="1.9221994280815125e-01" nType="0">
            <Node pos="l" depth="3" NCoef="0" IVar="6" Cut="1.4036935567855835e-01" cType="1" res="-2.4609398096799850e-03" rms="3.7108463048934937e-01" purity="2.0719917118549347e-01" nType="0">
              <Node pos="l" depth="4" NCoef="0" IVar="2" Cut="6.7441757202148438e+01" cType="1" res="-5.4716602899134159e-03" rms="3.6811909079551697e-01" purity="2.0593088865280151e-01" nType="0">
                <Node pos="l" depth="5" NCoef="0" IVar="6" Cut="2.0167054608464241e-02" cType="1" res="6.0254777781665325e-03" rms="4.2270880937576294e-01" purity="3.0923256278038025e-01" nType="0">
                  <Node pos="l" depth="6" NCoef="0" IVar="3" Cut="9.8068714141845703e-01" cType="1" res="-9.8709138110280037e-03" rms="4.5490416884422302e-01" purity="3.7301102280616760e-01" nType="0">
                    <Node pos="l" depth="7" NCoef="0" IVar="-1" Cut="0.0000000000000000e+00" cType="1" res="-3.4624631516635418e-03" rms="4.0056574344635010e-01" purity="2.4682657420635223e-01" nType="-99"/>
                    <Node pos="r" depth="7" NCoef="0" IVar="-1" Cut="0.0000000000000000e+00" cType="1" res="8.4336585132405162e-05" rms="4.9171209335327148e-01" purity="4.6832954883575439e-01" nType="-99"/>
                  </Node>
                  <Node pos="r" depth="6" NCoef="0" IVar="1" Cut="8.2512134313583374e-01" cType="1" res="2.2629344835877419e-02" rms="3.8552629947662354e-01" purity="2.4261559545993805e-01" nType="0">
                    <Node pos="l" depth="7" NCoef="0" IVar="-1" Cut="0.0000000000000000e+00" cType="1" res="5.9130811132490635e-03" rms="4.2302495241165161e-01" purity="3.2801738381385803e-01" nType="-99"/>
                    <Node pos="r" depth="7" NCoef="0" IVar="-1" Cut="0.0000000000000000e+00" cType="1" res="-2.1953083341941237e-04" rms="3.4432715177536011e-01" purity="1.6115301847457886e-01" nType="-99"/>
                  </Node>
                </Node>
                <Node pos="r" depth="5" NCoef="0" IVar="6" Cut="9.0754911303520203e-02" cType="1" res="-9.9997632205486298e-03" rms="3.4414580464363098e-01" purity="1.6524592041969299e-01" nType="0">
                  <Node pos="l" depth="6" NCoef="0" IVar="0" Cut="2.1531746387481689e+00" cType="1" res="-1.6277855262160301e-02" rms="3.3510506153106689e-01" purity="1.5546341240406036e-01" nType="0">
                    <Node pos="l" depth="7" NCoef="0" IVar="-1" Cut="0.0000000000000000e+00" cType="1" res="-2.1626679226756096e-03" rms="3.6316275596618652e-01" purity="1.8591934442520142e-01" nType="-99"/>
                    <Node pos="r" depth="7" NCoef="0" IVar="-1" Cut="0.0000000000000000e+00" cType="1" res="-1.0789851658046246e-02" rms="2.2652511298656464e-01" purity="6.0974311083555222e-02" nType="-99"/>
                  </Node>
                  <Node pos="r" depth="6" NCoef="0" IVar="1" Cut="8.4582400321960449e-01" cType="1" res="2.8142412193119526e-03" rms="3.6156010627746582e-01" purity="1.8521268665790558e-01" nType="0">
                    <Node pos="l" depth="7" NCoef="0" IVar="-1" Cut="0.0000000000000000e+00" cType="1" res="2.2080100607126951e-03" rms="3.9776343107223511e-01" purity="2.3924936354160309e-01" nType="-99"/>
                    <Node pos="r" depth="7" NCoef="0" IVar="-1" Cut="0.0000000000000000e+00" cType="1" res="-2.8308203909546137e-03" rms="3.1151130795478821e-01" purity="1.1968887597322464e-01" nType="-99"/>
                  </Node>
                </Node>
              </Node>
              <Node pos="r" depth="4" NCoef="0" IVar="5" Cut="-2.1279587745666504e+00" cType="1" res="2.0272929221391678e-02" rms="3.9200949668884277e-01" purity="2.1677604317665100e-01" nType="0">
                <Node pos="l" depth="5" NCoef="0" IVar="-1" Cut="0.0000000000000000e+00" cType="1" res="5.1890783943235874e-03" rms="4.1222751140594482e-01" purity="2.5470983982086182e-01" nType="-99"/>
                <Node pos="r" depth="5" NCoef="0" IVar="-1" Cut="0.0000000000000000e+00" cType="1" res="1.5325755812227726e-03" rms="3.7278103828430176e-01" purity="1.8320862948894501e-01" nType="-99"/>
              </Node>
            </Node>
            <Node pos="r" depth="3" NCoef="0" IVar="3" Cut="4.5763385295867920e-01" cType="1" res="-1.6659606248140335e-02" rms="3.4417912364006042e-01" purity="1.5173102915287018e-01" nType="0">
              <Node pos="l" depth="4" NCoef="0" IVar="6" Cut="1.6810798645019531e-01" cType="1" res="-1.1609506793320179e-02" rms="3.1727281212806702e-01" purity="1.2275145202875137e-01" nType="0">
                <Node pos="l" depth="5" NCoef="0" IVar="7" Cut="6.0000000000000000e+00" cType="1" res="-2.1359955891966820e-02" rms="2.5750237703323364e-01" purity="7.6841250061988831e-02" nType="0">
                  <Node pos="l" depth="6" NCoef="0" IVar="-1" Cut="0.0000000000000000e+00" cType="1" res="-7.6207658275961876e-03" rms="2.7244967222213745e-01" purity="8.4574528038501740e-02" nType="-99"/>
                  <Node pos="r" depth="6" NCoef="0" IVar="-1" Cut="0.0000000000000000e+00" cType="1" res="-5.5162268690764904e-03" rms="2.4241609871387482e-01" purity="6.6993981599807739e-02" nType="-99"/>
                </Node>
                <Node pos="r" depth="5" NCoef="0" IVar="7" Cut="6.0000000000000000e+00" cType="1" res="-3.7487857043743134e-03" rms="3.5803487896919250e-01" purity="1.6583696007728577e-01" nType="0">
                  <Node pos="l" depth="6" NCoef="0" IVar="-1" Cut="0.0000000000000000e+00" cType="1" res="3.0237003229558468e-03" rms="3.9497563242912292e-01" purity="2.0791983604431152e-01" nType="-99"/>
                  <Node pos="r" depth="6" NCoef="0" IVar="-1" Cut="0.0000000000000000e+00" cType="1" res="-4.1372636333107948e-03" rms="3.3237689733505249e-01" purity="1.3030861318111420e-01" nType="-99"/>
                </Node>
              </Node>
              <Node pos="r" depth="4" NCoef="0" IVar="-1" Cut="0.0000000000000000e+00" cType="1" res="-4.1786618530750275e-03" rms="4.1328239440917969e-01" purity="2.3744849860668182e-01" nType="-99"/>
            </Node>
          </Node>
          <Node pos="r" depth="2" NCoef="0" IVar="7" Cut="4.0000000000000000e+00" cType="1" res="-2.2204382345080376e-02" rms="1.7502246797084808e-01" purity="3.3758949488401413e-02" nType="0">
            <Node pos="l" depth="3" NCoef="0" IVar="-1" Cut="0.0000000000000000e+00" cType="1" res="-1.5340543352067471e-02" rms="1.9854563474655151e-01" purity="4.3702930212020874e-02" nType="-99"/>
            <Node pos="r" depth="3" NCoef="0" IVar="6" Cut="6.5282583236694336e-02" cType="1" res="-1.7557023093104362e-02" rms="1.6996064782142639e-01" purity="3.1371265649795532e-02" nType="0">
              <Node pos="l" depth="4" NCoef="0" IVar="-1" Cut="0.0000000000000000e+00" cType="1" res="-2.2414918988943100e-02" rms="8.9539527893066406e-02" purity="8.1784706562757492e-03" nType="-99"/>
              <Node pos="r" depth="4" NCoef="0" IVar="5" Cut="7.6433289051055908e-01" cType="1" res="-1.4720991253852844e-02" rms="1.8518613278865814e-01" purity="3.7423763424158096e-02" nType="0">
                <Node pos="l" depth="5" NCoef="0" IVar="-1" Cut="0.0000000000000000e+00" cType="1" res="-1.7793647712096572e-03" rms="2.3554942011833191e-01" purity="6.2146965414285660e-02" nType="-99"/>
                <Node pos="r" depth="5" NCoef="0" IVar="3" Cut="2.8290635347366333e-01" cType="1" res="-1.9285000860691071e-02" rms="1.5898783504962921e-01" purity="2.6985224336385727e-02" nType="0">
                  <Node pos="l" depth="6" NCoef="0" IVar="-1" Cut="0.0000000000000000e+00" cType="1" res="-6.7473133094608784e-03" rms="1.8905641138553619e-01" purity="3.9210736751556396e-02" nType="-99"/>
                  <Node pos="r" depth="6" NCoef="0" IVar="-1" Cut="0.0000000000000000e+00" cType="1" res="-1.7922904342412949e-02" rms="1.2536440789699554e-01" purity="1.5965504571795464e-02" nType="-99"/>
                </Node>
              </Node>
            </Node>
          </Node>
        </Node>
      </Node>
    </BinaryTree>
    <BinaryTree type="DecisionTree" boostWeight="1.0000000000000000e+00" itree="74">
      <Node pos="s" depth="0" NCoef="0" IVar="3" Cut="8.4096413850784302e-01" cType="1" res="6.4269974827766418e-03" rms="4.0016070008277893e-01" purity="5.0112378597259521e-01" nType="0">
        <Node pos="l" depth="1" NCoef="0" IVar="4" Cut="-1.7267955541610718e+00" cType="1" res="-3.2719874288886786e-03" rms="3.9410939812660217e-01" purity="3.0734395980834961e-01" nType="0">
          <Node pos="l" depth="2" NCoef="0" IVar="5" Cut="-2.6654684543609619e+00" cType="1" res="1.0785959661006927e-02" rms="4.4639977812767029e-01" purity="4.8071452975273132e-01" nType="0">
            <Node pos="l" depth="3" NCoef="0" IVar="3" Cut="6.8157666921615601e-01" cType="1" res="-2.2199631202965975e-03" rms="4.2680633068084717e-01" purity="4.3172425031661987e-01" nType="0">
              <Node pos="l" depth="4" NCoef="0" IVar="4" Cut="-2.3814442157745361e+00" cType="1" res="-1.4279699884355068e-02" rms="3.8923159241676331e-01" purity="2.3482310771942139e-01" nType="0">
                <Node pos="l" depth="5" NCoef="0" IVar="-1" Cut="0.0000000000000000e+00" cType="1" res="-7.6097471173852682e-04" rms="3.9193663001060486e-01" purity="2.3845994472503662e-01" nType="-99"/>
                <Node pos="r" depth="5" NCoef="0" IVar="-1" Cut="0.0000000000000000e+00" cType="1" res="-3.5497290082275867e-03" rms="3.8626345992088318e-01" purity="2.3115846514701843e-01" nType="-99"/>
              </Node>
              <Node pos="r" depth="4" NCoef="0" IVar="1" Cut="6.4352899789810181e-02" cType="1" res="1.0267076082527637e-02" rms="4.6217525005340576e-01" purity="6.3560193777084351e-01" nType="0">
                <Node pos="l" depth="5" NCoef="0" IVar="-1" Cut="0.0000000000000000e+00" cType="1" res="2.5121774524450302e-03" rms="4.4348475337028503e-01" purity="7.1355223655700684e-01" nType="-99"/>
                <Node pos="r" depth="5" NCoef="0" IVar="-1" Cut="0.0000000000000000e+00" cType="1" res="-3.1111272983253002e-04" rms="4.7693848609924316e-01" purity="5.6987303495407104e-01" nType="-99"/>
              </Node>
            </Node>
            <Node pos="r" depth="3" NCoef="0" IVar="4" Cut="-2.5612821578979492e+00" cType="1" res="2.1715236827731133e-02" rms="4.6193990111351013e-01" purity="5.2188253402709961e-01" nType="0">
              <Node pos="l" depth="4" NCoef="0" IVar="-1" Cut="0.0000000000000000e+00" cType="1" res="4.8802061937749386e-03" rms="4.6172261238098145e-01" purity="6.0142189264297485e-01" nType="-99"/>
              <Node pos="r" depth="4" NCoef="0" IVar="0" Cut="3.2204630970954895e-01" cType="1" res="1.3847335241734982e-02" rms="4.6168264746665955e-01" purity="5.0045275688171387e-01" nType="0">
                <Node pos="l" depth="5" NCoef="0" IVar="4" Cut="-2.1575222015380859e+00" cType="1" res="4.8649040982127190e-03" rms="4.7210434079170227e-01" purity="6.3065940141677856e-01" nType="0">
                  <Node pos="l" depth="6" NCoef="0" IVar="-1" Cut="0.0000000000000000e+00" cType="1" res="-5.6049210252240300e-04" rms="4.7449520230293274e-01" purity="6.2568968534469604e-01" nType="-99"/>
                  <Node pos="r" depth="6" NCoef="0" IVar="-1" Cut="0.0000000000000000e+00" cType="1" res="1.5996255679056048e-03" rms="4.6886008977890015e-01" purity="6.3663434982299805e-01" nType="-99"/>
                </Node>
                <Node pos="r" depth="5" NCoef="0" IVar="2" Cut="2.5965963745117188e+02" cType="1" res="2.3796511813998222e-02" rms="4.4964820146560669e-01" purity="3.5623246431350708e-01" nType="0">
                  <Node pos="l" depth="6" NCoef="0" IVar="-1" Cut="0.0000000000000000e+00" cType="1" res="4.4234781526029110e-03" rms="4.6829390525817871e-01" purity="4.1613602638244629e-01" nType="-99"/>
                  <Node pos="r" depth="6" NCoef="0" IVar="-1" Cut="0.0000000000000000e+00" cType="1" res="7.0962356403470039e-04" rms="4.3103754520416260e-01" purity="3.0131146311759949e-01" nType="-99"/>
                </Node>
              </Node>
            </Node>
          </Node>
          <Node pos="r" depth="2" NCoef="0" IVar="6" Cut="3.8754247128963470e-02" cType="1" res="-6.9602159783244133e-03" rms="3.7911203503608704e-01" purity="2.6185861229896545e-01" nType="0">
            <Node pos="l" depth="3" NCoef="0" IVar="7" Cut="3.0000000000000000e+00" cType="1" res="-2.7542173862457275e-02" rms="3.9837214350700378e-01" purity="2.9968634247779846e-01" nType="0">
              <Node pos="l" depth="4" NCoef="0" IVar="-1" Cut="0.0000000000000000e+00" cType="1" res="-4.8175198026001453e-03" rms="4.5634964108467102e-01" purity="4.3196395039558411e-01" nType="-99"/>
              <Node pos="r" depth="4" NCoef="0" IVar="2" Cut="4.4310947418212891e+01" cType="1" res="-1.8620230257511139e-02" rms="3.7176993489265442e-01" purity="2.4214285612106323e-01" nType="0">
                <Node pos="l" depth="5" NCoef="0" IVar="-1" Cut="0.0000000000000000e+00" cType="1" res="1.0210441359959077e-05" rms="3.9113873243331909e-01" purity="2.8886803984642029e-01" nType="-99"/>
                <Node pos="r" depth="5" NCoef="0" IVar="7" Cut="4.0000000000000000e+00" cType="1" res="-3.1378295272588730e-02" rms="3.5573470592498779e-01" purity="2.1052619814872742e-01" nType="0">
                  <Node pos="l" depth="6" NCoef="0" IVar="-1" Cut="0.0000000000000000e+00" cType="1" res="-5.1456652581691742e-03" rms="4.2863184213638306e-01" purity="3.3255618810653687e-01" nType="-99"/>
                  <Node pos="r" depth="6" NCoef="0" IVar="-1" Cut="0.0000000000000000e+00" cType="1" res="-5.4422155953943729e-03" rms="2.9811558127403259e-01" purity="1.2587569653987885e-01" nType="-99"/>
                </Node>
              </Node>
            </Node>
            <Node pos="r" depth="3" NCoef="0" IVar="3" Cut="5.4833972454071045e-01" cType="1" res="-3.7628267891705036e-03" rms="3.7569966912269592e-01" purity="2.5590682029724121e-01" nType="0">
              <Node pos="l" depth="4" NCoef="0" IVar="6" Cut="1.7714755237102509e-01" cType="1" res="-1.0885712690651417e-02" rms="3.0112090706825256e-01" purity="1.1576174199581146e-01" nType="0">
                <Node pos="l" depth="5" NCoef="0" IVar="2" Cut="1.6922465515136719e+02" cType="1" res="-1.4238854870200157e-02" rms="2.8721910715103149e-01" purity="1.0428646206855774e-01" nType="0">
                  <Node pos="l" depth="6" NCoef="0" IVar="3" Cut="3.2522681355476379e-01" cType="1" res="-4.5586698688566685e-03" rms="3.0874732136726379e-01" purity="1.2337107211351395e-01" nType="0">
                    <Node pos="l" depth="7" NCoef="0" IVar="-1" Cut="0.0000000000000000e+00" cType="1" res="-1.0647657327353954e-02" rms="1.9222551584243774e-01" purity="3.9475698024034500e-02" nType="-99"/>
                    <Node pos="r" depth="7" NCoef="0" IVar="-1" Cut="0.0000000000000000e+00" cType="1" res="5.2795035298913717e-04" rms="3.5490074753761292e-01" purity="1.6760699450969696e-01" nType="-99"/>
                  </Node>
                  <Node pos="r" depth="6" NCoef="0" IVar="7" Cut="4.0000000000000000e+00" cType="1" res="-1.9820628687739372e-02" rms="2.7190059423446655e-01" purity="9.2700511217117310e-02" nType="0">
                    <Node pos="l" depth="7" NCoef="0" IVar="-1" Cut="0.0000000000000000e+00" cType="1" res="-7.4968305416405201e-03" rms="3.0010968446731567e-01" purity="1.1129096895456314e-01" nType="-99"/>
                    <Node pos="r" depth="7" NCoef="0" IVar="-1" Cut="0.0000000000000000e+00" cType="1" res="-5.2362880669534206e-03" rms="2.6625236868858337e-01" purity="8.8270857930183411e-02" nType="-99"/>
                  </Node>
                </Node>
                <Node pos="r" depth="5" NCoef="0" IVar="7" Cut="5.0000000000000000e+00" cType="1" res="5.6435994338244200e-04" rms="3.4439021348953247e-01" purity="1.5775588154792786e-01" nType="0">
                  <Node pos="l" depth="6" NCoef="0" IVar="-1" Cut="0.0000000000000000e+00" cType="1" res="4.2661735787987709e-03" rms="3.9125782251358032e-01" purity="2.1799637377262115e-01" nType="-99"/>
                  <Node pos="r" depth="6" NCoef="0" IVar="3" Cut="2.5558212399482727e-01" cType="1" res="-8.6927413940429688e-03" rms="3.2544219493865967e-01" purity="1.3163642585277557e-01" nType="0">
                    <Node pos="l" depth="7" NCoef="0" IVar="-1" Cut="0.0000000000000000e+00" cType="1" res="-6.2228194437921047e-03" rms="2.9830199480056763e-01" purity="1.0077635943889618e-01" nType="-99"/>
                    <Node pos="r" depth="7" NCoef="0" IVar="-1" Cut="0.0000000000000000e+00" cType="1" res="1.8096052808687091e-03" rms="3.5492253303527832e-01" purity="1.6923286020755768e-01" nType="-99"/>
                  </Node>
                </Node>
              </Node>
              <Node pos="r" depth="4" NCoef="0" IVar="5" Cut="3.5677805542945862e-01" cType="1" res="6.8751508370041847e-03" rms="4.6513170003890991e-01" purity="4.6521249413490295e-01" nType="0">
                <Node pos="l" depth="5" NCoef="0" IVar="6" Cut="6.1776310205459595e-02" cType="1" res="1.0162902064621449e-02" rms="4.7263315320014954e-01" purity="4.8766025900840759e-01" nType="0">
                  <Node pos="l" depth="6" NCoef="0" IVar="5" Cut="-2.5812609195709229e+00" cType="1" res="-6.0346550308167934e-03" rms="4.7015193104743958e-01" purity="4.8361906409263611e-01" nType="0">
                    <Node pos="l" depth="7" NCoef="0" IVar="-1" Cut="0.0000000000000000e+00" cType="1" res="1.5070413937792182e-03" rms="4.6713009476661682e-01" purity="5.2180546522140503e-01" nType="-99"/>
                    <Node pos="r" depth="7" NCoef="0" IVar="-1" Cut="0.0000000000000000e+00" cType="1" res="-1.3807803625240922e-03" rms="4.7104129195213318e-01" purity="4.6901953220367432e-01" nType="-99"/>
                  </Node>
                  <Node pos="r" depth="6" NCoef="0" IVar="2" Cut="2.1510710144042969e+02" cType="1" res="1.8209014087915421e-02" rms="4.7365498542785645e-01" purity="4.8966774344444275e-01" nType="0">
                    <Node pos="l" depth="7" NCoef="0" IVar="-1" Cut="0.0000000000000000e+00" cType="1" res="2.8512880671769381e-03" rms="4.7403609752655029e-01" purity="5.3189021348953247e-01" nType="-99"/>
                    <Node pos="r" depth="7" NCoef="0" IVar="-1" Cut="0.0000000000000000e+00" cType="1" res="-4.8237088776659220e-05" rms="4.7249704599380493e-01" purity="4.3251419067382812e-01" nType="-99"/>
                  </Node>
                </Node>
                <Node pos="r" depth="5" NCoef="0" IVar="-1" Cut="0.0000000000000000e+00" cType="1" res="-7.3668640106916428e-03" rms="3.3552464842796326e-01" purity="1.4173439145088196e-01" nType="-99"/>
              </Node>
            </Node>
          </Node>
        </Node>
        <Node pos="r" depth="1" NCoef="0" IVar="1" Cut="1.2073526382446289e+00" cType="1" res="1.9289573654532433e-02" rms="4.0769165754318237e-01" purity="7.5811034440994263e-01" nType="0">
          <Node pos="l" depth="2" NCoef="0" IVar="4" Cut="-3.5376611351966858e-01" cType="1" res="2.2033788263797760e-02" rms="3.9916428923606873e-01" purity="7.8212231397628784e-01" nType="0">
            <Node pos="l" depth="3" NCoef="0" IVar="6" Cut="2.5602312758564949e-02" cType="1" res="1.8987247720360756e-02" rms="4.0352225303649902e-01" purity="7.7985525131225586e-01" nType="0">
              <Node pos="l" depth="4" NCoef="0" IVar="5" Cut="-3.0947129726409912e+00" cType="1" res="1.5473555773496628e-02" rms="4.0017420053482056e-01" purity="7.8494971990585327e-01" nType="0">
                <Node pos="l" depth="5" NCoef="0" IVar="4" Cut="-8.4044909477233887e-01" cType="1" res="2.9132900759577751e-02" rms="3.6554357409477234e-01" purity="8.3340495824813843e-01" nType="0">
                  <Node pos="l" depth="6" NCoef="0" IVar="4" Cut="-1.5822640657424927e+00" cType="1" res="2.3618616163730621e-02" rms="3.8448870182037354e-01" purity="8.1198590993881226e-01" nType="0">
                    <Node pos="l" depth="7" NCoef="0" IVar="-1" Cut="0.0000000000000000e+00" cType="1" res="2.0405508112162352e-03" rms="3.9936178922653198e-01" purity="7.9194229841232300e-01" nType="-99"/>
                    <Node pos="r" depth="7" NCoef="0" IVar="-1" Cut="0.0000000000000000e+00" cType="1" res="3.2652337104082108e-03" rms="3.6995244026184082e-01" purity="8.3078724145889282e-01" nType="-99"/>
                  </Node>
                  <Node pos="r" depth="6" NCoef="0" IVar="-1" Cut="0.0000000000000000e+00" cType="1" res="4.9821985885500908e-03" rms="3.3715683221817017e-01" purity="8.6331975460052490e-01" nType="-99"/>
                </Node>
                <Node pos="r" depth="5" NCoef="0" IVar="5" Cut="-2.4290590286254883e+00" cType="1" res="1.1118784546852112e-02" rms="4.1050577163696289e-01" purity="7.6950156688690186e-01" nType="0">
                  <Node pos="l" depth="6" NCoef="0" IVar="1" Cut="2.8875961899757385e-01" cType="1" res="1.6106719151139259e-02" rms="3.8836053013801575e-01" purity="8.0590724945068359e-01" nType="0">
                    <Node pos="l" depth="7" NCoef="0" IVar="-1" Cut="0.0000000000000000e+00" cType="1" res="2.6296917349100113e-03" rms="3.7146136164665222e-01" purity="8.3018636703491211e-01" nType="-99"/>
                    <Node pos="r" depth="7" NCoef="0" IVar="-1" Cut="0.0000000000000000e+00" cType="1" res="2.2802157036494464e-04" rms="4.2798867821693420e-01" purity="7.4423146247863770e-01" nType="-99"/>
                  </Node>
                  <Node pos="r" depth="6" NCoef="0" IVar="4" Cut="-5.9709006547927856e-01" cType="1" res="4.8903520219027996e-03" rms="4.3650424480438232e-01" purity="7.2404175996780396e-01" nType="0">
                    <Node pos="l" depth="7" NCoef="0" IVar="-1" Cut="0.0000000000000000e+00" cType="1" res="1.9040600454900414e-04" rms="4.4031691551208496e-01" purity="7.1701776981353760e-01" nType="-99"/>
                    <Node pos="r" depth="7" NCoef="0" IVar="-1" Cut="0.0000000000000000e+00" cType="1" res="1.8362270202487707e-03" rms="4.1963687539100647e-01" purity="7.5397312641143799e-01" nType="-99"/>
                  </Node>
                </Node>
              </Node>
              <Node pos="r" depth="4" NCoef="0" IVar="2" Cut="7.2563995361328125e+01" cType="1" res="3.2131362706422806e-02" rms="4.1554442048072815e-01" purity="7.6079773902893066e-01" nType="0">
                <Node pos="l" depth="5" NCoef="0" IVar="-1" Cut="0.0000000000000000e+00" cType="1" res="5.6630792096257210e-03" rms="3.9525315165519714e-01" purity="7.9458385705947876e-01" nType="-99"/>
                <Node pos="r" depth="5" NCoef="0" IVar="4" Cut="-2.1772553920745850e+00" cType="1" res="2.2366989403963089e-02" rms="4.2351409792900085e-01" purity="7.4640971422195435e-01" nType="0">
                  <Node pos="l" depth="6" NCoef="0" IVar="-1" Cut="0.0000000000000000e+00" cType="1" res="2.0018576178699732e-03" rms="4.1638791561126709e-01" purity="7.6156497001647949e-01" nType="-99"/>
                  <Node pos="r" depth="6" NCoef="0" IVar="-1" Cut="0.0000000000000000e+00" cType="1" res="2.9248173814266920e-03" rms="4.3190103769302368e-01" purity="7.2808647155761719e-01" nType="-99"/>
                </Node>
              </Node>
            </Node>
            <Node pos="r" depth="3" NCoef="0" IVar="1" Cut="3.1152763962745667e-01" cType="1" res="2.7873808518052101e-02" rms="3.9060807228088379e-01" purity="7.8646814823150635e-01" nType="0">
              <Node pos="l" depth="4" NCoef="0" IVar="5" Cut="-3.0875384807586670e+00" cType="1" res="3.3150866627693176e-02" rms="3.7502455711364746e-01" purity="8.1348025798797607e-01" nType="0">
                <Node pos="l" depth="5" NCoef="0" IVar="-1" Cut="0.0000000000000000e+00" cType="1" res="6.6006407141685486e-03" rms="3.1467413902282715e-01" purity="8.8715189695358276e-01" nType="-99"/>
                <Node pos="r" depth="5" NCoef="0" IVar="7" Cut="2.0000000000000000e+00" cType="1" res="3.1152894720435143e-02" rms="3.8380023837089539e-01" purity="7.9758977890014648e-01" nType="0">
                  <Node pos="l" depth="6" NCoef="0" IVar="5" Cut="-1.9025057554244995e+00" cType="1" res="3.3034089952707291e-02" rms="3.7535086274147034e-01" purity="8.1735926866531372e-01" nType="0">
                    <Node pos="l" depth="7" NCoef="0" IVar="-1" Cut="0.0000000000000000e+00" cType="1" res="4.0242099203169346e-03" rms="3.5314497351646423e-01" purity="8.4886825084686279e-01" nType="-99"/>
                    <Node pos="r" depth="7" NCoef="0" IVar="-1" Cut="0.0000000000000000e+00" cType="1" res="4.2453133501112461e-03" rms="4.2029500007629395e-01" purity="7.4752306938171387e-01" nType="-99"/>
                  </Node>
                  <Node pos="r" depth="6" NCoef="0" IVar="-1" Cut="0.0000000000000000e+00" cType="1" res="1.9441117765381932e-03" rms="4.4736847281455994e-01" purity="6.8244218826293945e-01" nType="-99"/>
                </Node>
              </Node>
              <Node pos="r" depth="4" NCoef="0" IVar="5" Cut="-2.0684401988983154e+00" cType="1" res="1.4761611819267273e-02" rms="4.2659085988998413e-01" purity="7.1934962272644043e-01" nType="0">
                <Node pos="l" depth="5" NCoef="0" IVar="-1" Cut="0.0000000000000000e+00" cType="1" res="2.3789277765899897e-03" rms="3.9733484387397766e-01" purity="7.9120659828186035e-01" nType="-99"/>
                <Node pos="r" depth="5" NCoef="0" IVar="-1" Cut="0.0000000000000000e+00" cType="1" res="5.6271295761689544e-04" rms="4.7040152549743652e-01" purity="6.0182332992553711e-01" nType="-99"/>
              </Node>
            </Node>
          </Node>
          <Node pos="r" depth="2" NCoef="0" IVar="5" Cut="-2.1259143352508545e+00" cType="1" res="-2.0495981443673372e-03" rms="4.6818867325782776e-01" purity="5.7139199972152710e-01" nType="0">
            <Node pos="l" depth="3" NCoef="0" IVar="1" Cut="2.6252200603485107e+00" cType="1" res="7.5491368770599365e-03" rms="4.6560063958168030e-01" purity="6.3788187503814697e-01" nType="0">
              <Node pos="l" depth="4" NCoef="0" IVar="-1" Cut="0.0000000000000000e+00" cType="1" res="-5.4183465181267820e-06" rms="4.6778300404548645e-01" purity="6.3892567157745361e-01" nType="-99"/>
              <Node pos="r" depth="4" NCoef="0" IVar="-1" Cut="0.0000000000000000e+00" cType="1" res="1.9276617094874382e-03" rms="4.6127405762672424e-01" purity="6.3597947359085083e-01" nType="-99"/>
            </Node>
            <Node pos="r" depth="3" NCoef="0" IVar="-1" Cut="0.0000000000000000e+00" cType="1" res="-1.9758925773203373e-03" rms="4.7270238399505615e-01" purity="4.3955549597740173e-01" nType="-99"/>
          </Node>
        </Node>
      </Node>
    </BinaryTree>
    <BinaryTree type="DecisionTree" boostWeight="1.0000000000000000e+00" itree="75">
      <Node pos="s" depth="0" NCoef="0" IVar="3" Cut="7.7611547708511353e-01" cType="1" res="4.8956936225295067e-03" rms="4.0102171897888184e-01" purity="4.9961963295936584e-01" nType="0">
        <Node pos="l" depth="1" NCoef="0" IVar="1" Cut="-5.4027748107910156e-01" cType="1" res="-4.5679430477321148e-03" rms="3.8174510002136230e-01" purity="2.5685355067253113e-01" nType="0">
          <Node pos="l" depth="2" NCoef="0" IVar="6" Cut="7.6429545879364014e-02" cType="1" res="2.3767830803990364e-02" rms="4.4460451602935791e-01" purity="4.1891491413116455e-01" nType="0">
            <Node pos="l" depth="3" NCoef="0" IVar="-1" Cut="0.0000000000000000e+00" cType="1" res="9.0112717589363456e-04" rms="4.5178472995758057e-01" purity="4.5977708697319031e-01" nType="-99"/>
            <Node pos="r" depth="3" NCoef="0" IVar="-1" Cut="0.0000000000000000e+00" cType="1" res="4.0587964467704296e-03" rms="4.3867444992065430e-01" purity="3.8759085536003113e-01" nType="-99"/>
          </Node>
          <Node pos="r" depth="2" NCoef="0" IVar="4" Cut="1.6560156345367432e+00" cType="1" res="-6.3120401464402676e-03" rms="3.7746480107307434e-01" purity="2.4687850475311279e-01" nType="0">
            <Node pos="l" depth="3" NCoef="0" IVar="5" Cut="-3.0676774978637695e+00" cType="1" res="-3.6087366752326488e-03" rms="4.0216293931007385e-01" purity="2.8463995456695557e-01" nType="0">
              <Node pos="l" depth="4" NCoef="0" IVar="7" Cut="3.0000000000000000e+00" cType="1" res="-2.2791378200054169e-02" rms="3.4424510598182678e-01" purity="1.8865881860256195e-01" nType="0">
                <Node pos="l" depth="5" NCoef="0" IVar="-1" Cut="0.0000000000000000e+00" cType="1" res="-6.3723176717758179e-03" rms="3.9504072070121765e-01" purity="2.6226928830146790e-01" nType="-99"/>
                <Node pos="r" depth="5" NCoef="0" IVar="4" Cut="-1.1158002614974976e+00" cType="1" res="-1.4459139667451382e-02" rms="3.3119490742683411e-01" purity="1.6795213520526886e-01" nType="0">
                  <Node pos="l" depth="6" NCoef="0" IVar="-1" Cut="0.0000000000000000e+00" cType="1" res="-5.0119585357606411e-03" rms="3.3369597792625427e-01" purity="1.7736503481864929e-01" nType="-99"/>
                  <Node pos="r" depth="6" NCoef="0" IVar="1" Cut="8.0687820911407471e-01" cType="1" res="-4.0643601678311825e-03" rms="3.2863384485244751e-01" purity="1.5969586372375488e-01" nType="0">
                    <Node pos="l" depth="7" NCoef="0" IVar="-1" Cut="0.0000000000000000e+00" cType="1" res="1.0168844601139426e-03" rms="3.6846664547920227e-01" purity="2.2145824134349823e-01" nType="-99"/>
                    <Node pos="r" depth="7" NCoef="0" IVar="-1" Cut="0.0000000000000000e+00" cType="1" res="-4.4060568325221539e-03" rms="2.7946275472640991e-01" purity="9.3678981065750122e-02" nType="-99"/>
                  </Node>
                </Node>
              </Node>
              <Node pos="r" depth="4" NCoef="0" IVar="4" Cut="-1.4516910314559937e+00" cType="1" res="-7.6166749931871891e-04" rms="4.0997380018234253e-01" purity="2.9939624667167664e-01" nType="0">
                <Node pos="l" depth="5" NCoef="0" IVar="4" Cut="-2.5472912788391113e+00" cType="1" res="1.6874378547072411e-02" rms="4.5353773236274719e-01" purity="4.1919901967048645e-01" nType="0">
                  <Node pos="l" depth="6" NCoef="0" IVar="-1" Cut="0.0000000000000000e+00" cType="1" res="3.6803900729864836e-03" rms="4.6312797069549561e-01" purity="4.8092263936996460e-01" nType="-99"/>
                  <Node pos="r" depth="6" NCoef="0" IVar="2" Cut="1.7992539978027344e+02" cType="1" res="1.2201742269098759e-02" rms="4.5098656415939331e-01" purity="4.0376329421997070e-01" nType="0">
                    <Node pos="l" depth="7" NCoef="0" IVar="-1" Cut="0.0000000000000000e+00" cType="1" res="2.5411967653781176e-03" rms="4.6989589929580688e-01" purity="4.8936933279037476e-01" nType="-99"/>
                    <Node pos="r" depth="7" NCoef="0" IVar="-1" Cut="0.0000000000000000e+00" cType="1" res="2.8978285263292491e-04" rms="4.3703699111938477e-01" purity="3.4401494264602661e-01" nType="-99"/>
                  </Node>
                </Node>
                <Node pos="r" depth="5" NCoef="0" IVar="2" Cut="3.9014511108398438e+02" cType="1" res="-5.3024790249764919e-03" rms="3.9785951375961304e-01" purity="2.6855021715164185e-01" nType="0">
                  <Node pos="l" depth="6" NCoef="0" IVar="6" Cut="7.6910242438316345e-02" cType="1" res="-2.0557809621095657e-03" rms="4.0549442172050476e-01" purity="2.8807961940765381e-01" nType="0">
                    <Node pos="l" depth="7" NCoef="0" IVar="-1" Cut="0.0000000000000000e+00" cType="1" res="-1.7498927190899849e-03" rms="4.0416398644447327e-01" purity="2.8806522488594055e-01" nType="-99"/>
                    <Node pos="r" depth="7" NCoef="0" IVar="-1" Cut="0.0000000000000000e+00" cType="1" res="1.1604316532611847e-03" rms="4.0648525953292847e-01" purity="2.8809332847595215e-01" nType="-99"/>
                  </Node>
                  <Node pos="r" depth="6" NCoef="0" IVar="3" Cut="2.6021301746368408e-01" cType="1" res="-1.8422653898596764e-02" rms="3.6509075760841370e-01" purity="1.8963034451007843e-01" nType="0">
                    <Node pos="l" depth="7" NCoef="0" IVar="-1" Cut="0.0000000000000000e+00" cType="1" res="-8.9848600327968597e-03" rms="2.7822932600975037e-01" purity="8.9332990348339081e-02" nType="-99"/>
                    <Node pos="r" depth="7" NCoef="0" IVar="-1" Cut="0.0000000000000000e+00" cType="1" res="-2.1300336811691523e-03" rms="3.8855648040771484e-01" purity="2.2153776884078979e-01" nType="-99"/>
                  </Node>
                </Node>
              </Node>
            </Node>
            <Node pos="r" depth="3" NCoef="0" IVar="6" Cut="1.8017855286598206e-01" cType="1" res="-2.0778607577085495e-02" rms="1.9795806705951691e-01" purity="4.4800449162721634e-02" nType="0">
              <Node pos="l" depth="4" NCoef="0" IVar="7" Cut="4.0000000000000000e+00" cType="1" res="-2.6757363229990005e-02" rms="1.7434827983379364e-01" purity="3.5065051168203354e-02" nType="0">
                <Node pos="l" depth="5" NCoef="0" IVar="-1" Cut="0.0000000000000000e+00" cType="1" res="-1.2494196183979511e-02" rms="2.3472732305526733e-01" purity="6.5464474260807037e-02" nType="-99"/>
                <Node pos="r" depth="5" NCoef="0" IVar="1" Cut="4.8050701618194580e-01" cType="1" res="-2.2182520478963852e-02" rms="1.4830875396728516e-01" purity="2.4859633296728134e-02" nType="0">
                  <Node pos="l" depth="6" NCoef="0" IVar="-1" Cut="0.0000000000000000e+00" cType="1" res="-7.7089280821382999e-03" rms="1.9276922941207886e-01" purity="4.4807437807321548e-02" nType="-99"/>
                  <Node pos="r" depth="6" NCoef="0" IVar="3" Cut="3.3794429898262024e-01" cType="1" res="-2.5200437754392624e-02" rms="1.1964195221662521e-01" purity="1.4791164547204971e-02" nType="0">
                    <Node pos="l" depth="7" NCoef="0" IVar="-1" Cut="0.0000000000000000e+00" cType="1" res="-1.9839353859424591e-02" rms="1.0267005860805511e-01" purity="1.0700955986976624e-02" nType="-99"/>
                    <Node pos="r" depth="7" NCoef="0" IVar="-1" Cut="0.0000000000000000e+00" cType="1" res="-1.8014820292592049e-02" rms="1.4068795740604401e-01" purity="2.0882047712802887e-02" nType="-99"/>
                  </Node>
                </Node>
              </Node>
              <Node pos="r" depth="4" NCoef="0" IVar="-1" Cut="0.0000000000000000e+00" cType="1" res="2.6288472581654787e-03" rms="2.7466195821762085e-01" purity="8.5977420210838318e-02" nType="-99"/>
            </Node>
          </Node>
        </Node>
        <Node pos="r" depth="1" NCoef="0" IVar="4" Cut="1.0835287570953369e+00" cType="1" res="1.4094307087361813e-02" rms="4.1870427131652832e-01" purity="7.3558723926544189e-01" nType="0">
          <Node pos="l" depth="2" NCoef="0" IVar="3" Cut="1.0493952035903931e+00" cType="1" res="1.5139332041144371e-02" rms="4.1773593425750732e-01" purity="7.4200922250747681e-01" nType="0">
            <Node pos="l" depth="3" NCoef="0" IVar="3" Cut="9.9650013446807861e-01" cType="1" res="1.6213208436965942e-02" rms="4.1798868775367737e-01" purity="7.4298226833343506e-01" nType="0">
              <Node pos="l" depth="4" NCoef="0" IVar="1" Cut="8.7912380695343018e-01" cType="1" res="1.0142919607460499e-02" rms="4.3284910917282104e-01" purity="7.1413439512252808e-01" nType="0">
                <Node pos="l" depth="5" NCoef="0" IVar="6" Cut="6.2828086316585541e-02" cType="1" res="1.3454837724566460e-02" rms="4.2288151383399963e-01" purity="7.4724984169006348e-01" nType="0">
                  <Node pos="l" depth="6" NCoef="0" IVar="6" Cut="4.4586665928363800e-02" cType="1" res="1.1612886562943459e-02" rms="4.2139920592308044e-01" purity="7.5008201599121094e-01" nType="0">
                    <Node pos="l" depth="7" NCoef="0" IVar="-1" Cut="0.0000000000000000e+00" cType="1" res="1.0646046139299870e-03" rms="4.1809183359146118e-01" purity="7.5594651699066162e-01" nType="-99"/>
                    <Node pos="r" depth="7" NCoef="0" IVar="-1" Cut="0.0000000000000000e+00" cType="1" res="2.2753616794943810e-03" rms="4.3931126594543457e-01" purity="7.1716779470443726e-01" nType="-99"/>
                  </Node>
                  <Node pos="r" depth="6" NCoef="0" IVar="-1" Cut="0.0000000000000000e+00" cType="1" res="3.6391934845596552e-03" rms="4.4310751557350159e-01" purity="7.0585989952087402e-01" nType="-99"/>
                </Node>
                <Node pos="r" depth="5" NCoef="0" IVar="2" Cut="9.6674583435058594e+01" cType="1" res="-6.4791259355843067e-03" rms="4.7941198945045471e-01" purity="5.4793250560760498e-01" nType="0">
                  <Node pos="l" depth="6" NCoef="0" IVar="5" Cut="-2.7716093063354492e+00" cType="1" res="-1.8129477277398109e-02" rms="4.7767257690429688e-01" purity="5.4952436685562134e-01" nType="0">
                    <Node pos="l" depth="7" NCoef="0" IVar="-1" Cut="0.0000000000000000e+00" cType="1" res="8.0356269609183073e-04" rms="4.6801456809043884e-01" purity="6.3527101278305054e-01" nType="-99"/>
                    <Node pos="r" depth="7" NCoef="0" IVar="-1" Cut="0.0000000000000000e+00" cType="1" res="-2.9879086650907993e-03" rms="4.8233413696289062e-01" purity="5.0152450799942017e-01" nType="-99"/>
                  </Node>
                  <Node pos="r" depth="6" NCoef="0" IVar="-1" Cut="0.0000000000000000e+00" cType="1" res="1.8817546078935266e-03" rms="4.8235753178596497e-01" purity="5.4421073198318481e-01" nType="-99"/>
                </Node>
              </Node>
              <Node pos="r" depth="4" NCoef="0" IVar="4" Cut="-1.4405413866043091e+00" cType="1" res="2.5965075939893723e-02" rms="3.9274424314498901e-01" purity="7.8932607173919678e-01" nType="0">
                <Node pos="l" depth="5" NCoef="0" IVar="4" Cut="-2.0479989051818848e+00" cType="1" res="1.6564961522817612e-02" rms="4.2113420367240906e-01" purity="7.4633806943893433e-01" nType="0">
                  <Node pos="l" depth="6" NCoef="0" IVar="-1" Cut="0.0000000000000000e+00" cType="1" res="4.0090703405439854e-03" rms="4.0615162253379822e-01" purity="7.6832240819931030e-01" nType="-99"/>
                  <Node pos="r" depth="6" NCoef="0" IVar="-1" Cut="0.0000000000000000e+00" cType="1" res="4.1418953333050013e-04" rms="4.2843893170356750e-01" purity="7.3461139202117920e-01" nType="-99"/>
                </Node>
                <Node pos="r" depth="5" NCoef="0" IVar="3" Cut="1.0255053043365479e+00" cType="1" res="2.8221491724252701e-02" rms="3.8558441400527954e-01" purity="7.9964500665664673e-01" nType="0">
                  <Node pos="l" depth="6" NCoef="0" IVar="1" Cut="1.3000928163528442e+00" cType="1" res="3.0357429757714272e-02" rms="3.8443449139595032e-01" purity="8.0186986923217773e-01" nType="0">
                    <Node pos="l" depth="7" NCoef="0" IVar="-1" Cut="0.0000000000000000e+00" cType="1" res="3.4873182885348797e-03" rms="3.7590152025222778e-01" purity="8.1789463758468628e-01" nType="-99"/>
                    <Node pos="r" depth="7" NCoef="0" IVar="-1" Cut="0.0000000000000000e+00" cType="1" res="4.1049164719879627e-03" rms="4.5198279619216919e-01" purity="6.6172271966934204e-01" nType="-99"/>
                  </Node>
                  <Node pos="r" depth="6" NCoef="0" IVar="-1" Cut="0.0000000000000000e+00" cType="1" res="1.3679126277565956e-03" rms="3.9392703771591187e-01" purity="7.8253859281539917e-01" nType="-99"/>
                </Node>
              </Node>
            </Node>
            <Node pos="r" depth="3" NCoef="0" IVar="-1" Cut="0.0000000000000000e+00" cType="1" res="-2.5712794158607721e-03" rms="4.0682929754257202e-01" purity="7.0746475458145142e-01" nType="-99"/>
          </Node>
          <Node pos="r" depth="2" NCoef="0" IVar="-1" Cut="0.0000000000000000e+00" cType="1" res="-3.7039851304143667e-03" rms="4.6092399954795837e-01" purity="4.1976806521415710e-01" nType="-99"/>
        </Node>
      </Node>
    </BinaryTree>
    <BinaryTree type="DecisionTree" boostWeight="1.0000000000000000e+00" itree="76">
      <Node pos="s" depth="0" NCoef="0" IVar="3" Cut="8.4399569034576416e-01" cType="1" res="5.8049322105944157e-03" rms="4.0038546919822693e-01" purity="5.0055384635925293e-01" nType="0">
        <Node pos="l" depth="1" NCoef="0" IVar="4" Cut="1.8199684619903564e+00" cType="1" res="-1.7208448844030499e-03" rms="3.9429003000259399e-01" purity="3.1057876348495483e-01" nType="0">
          <Node pos="l" depth="2" NCoef="0" IVar="6" Cut="3.8420736789703369e-02" cType="1" res="8.4438925841823220e-04" rms="4.1406425833702087e-01" purity="3.4745153784751892e-01" nType="0">
            <Node pos="l" depth="3" NCoef="0" IVar="2" Cut="4.4182250976562500e+01" cType="1" res="-1.4559718780219555e-02" rms="4.3099150061607361e-01" purity="4.1212904453277588e-01" nType="0">
              <Node pos="l" depth="4" NCoef="0" IVar="1" Cut="3.6531262099742889e-02" cType="1" res="2.3061737010721117e-04" rms="4.3948298692703247e-01" purity="4.5970365405082703e-01" nType="0">
                <Node pos="l" depth="5" NCoef="0" IVar="-1" Cut="0.0000000000000000e+00" cType="1" res="2.7871322818100452e-03" rms="4.5178157091140747e-01" purity="6.2830358743667603e-01" nType="-99"/>
                <Node pos="r" depth="5" NCoef="0" IVar="7" Cut="3.0000000000000000e+00" cType="1" res="-1.3250997290015221e-02" rms="4.3221184611320496e-01" purity="3.8118070363998413e-01" nType="0">
                  <Node pos="l" depth="6" NCoef="0" IVar="-1" Cut="0.0000000000000000e+00" cType="1" res="-3.1685899011790752e-03" rms="4.6460112929344177e-01" purity="4.6463328599929810e-01" nType="-99"/>
                  <Node pos="r" depth="6" NCoef="0" IVar="-1" Cut="0.0000000000000000e+00" cType="1" res="1.6017249436117709e-04" rms="4.0793642401695251e-01" purity="3.2080948352813721e-01" nType="-99"/>
                </Node>
              </Node>
              <Node pos="r" depth="4" NCoef="0" IVar="7" Cut="3.0000000000000000e+00" cType="1" res="-2.6717450469732285e-02" rms="4.2264410853385925e-01" purity="3.7327775359153748e-01" nType="0">
                <Node pos="l" depth="5" NCoef="0" IVar="-1" Cut="0.0000000000000000e+00" cType="1" res="-4.6318569220602512e-03" rms="4.5839369297027588e-01" purity="4.6429762244224548e-01" nType="-99"/>
                <Node pos="r" depth="5" NCoef="0" IVar="4" Cut="-1.4419727325439453e+00" cType="1" res="-1.6575884073972702e-02" rms="4.0334227681159973e-01" purity="3.2465460896492004e-01" nType="0">
                  <Node pos="l" depth="6" NCoef="0" IVar="-1" Cut="0.0000000000000000e+00" cType="1" res="-1.7309779650531709e-04" rms="4.4643685221672058e-01" purity="4.7517338395118713e-01" nType="-99"/>
                  <Node pos="r" depth="6" NCoef="0" IVar="-1" Cut="0.0000000000000000e+00" cType="1" res="-4.0869158692657948e-03" rms="3.7404102087020874e-01" purity="2.3195557296276093e-01" nType="-99"/>
                </Node>
              </Node>
            </Node>
            <Node pos="r" depth="3" NCoef="0" IVar="3" Cut="4.9615985155105591e-01" cType="1" res="4.2374385520815849e-03" rms="4.1016411781311035e-01" purity="3.3320507407188416e-01" nType="0">
              <Node pos="l" depth="4" NCoef="0" IVar="7" Cut="3.0000000000000000e+00" cType="1" res="-6.8130660802125931e-03" rms="3.1659424304962158e-01" purity="1.2628118693828583e-01" nType="0">
                <Node pos="l" depth="5" NCoef="0" IVar="-1" Cut="0.0000000000000000e+00" cType="1" res="6.1648483388125896e-03" rms="3.7139931321144104e-01" purity="1.9064106047153473e-01" nType="-99"/>
                <Node pos="r" depth="5" NCoef="0" IVar="3" Cut="1.8544431030750275e-01" cType="1" res="-8.8420547544956207e-03" rms="3.1440821290016174e-01" purity="1.2230361998081207e-01" nType="0">
                  <Node pos="l" depth="6" NCoef="0" IVar="0" Cut="4.5086522102355957e+00" cType="1" res="-2.5974240154027939e-02" rms="2.7757957577705383e-01" purity="9.1446742415428162e-02" nType="0">
                    <Node pos="l" depth="7" NCoef="0" IVar="-1" Cut="0.0000000000000000e+00" cType="1" res="-1.0563185438513756e-02" rms="2.8941252827644348e-01" purity="9.9418044090270996e-02" nType="-99"/>
                    <Node pos="r" depth="7" NCoef="0" IVar="-1" Cut="0.0000000000000000e+00" cType="1" res="-2.5952490977942944e-03" rms="2.6340150833129883e-01" purity="8.3161704242229462e-02" nType="-99"/>
                  </Node>
                  <Node pos="r" depth="6" NCoef="0" IVar="6" Cut="1.0768258571624756e-01" cType="1" res="-6.3536367379128933e-03" rms="3.1932806968688965e-01" purity="1.2678551673889160e-01" nType="0">
                    <Node pos="l" depth="7" NCoef="0" IVar="-1" Cut="0.0000000000000000e+00" cType="1" res="-4.8468532040715218e-03" rms="2.6628965139389038e-01" purity="8.2075186073780060e-02" nType="-99"/>
                    <Node pos="r" depth="7" NCoef="0" IVar="-1" Cut="0.0000000000000000e+00" cType="1" res="1.7925677821040154e-04" rms="3.5744854807853699e-01" purity="1.6408835351467133e-01" nType="-99"/>
                  </Node>
                </Node>
              </Node>
              <Node pos="r" depth="4" NCoef="0" IVar="1" Cut="2.0372486114501953e+00" cType="1" res="1.2193677946925163e-02" rms="4.6629929542541504e-01" purity="4.8556411266326904e-01" nType="0">
                <Node pos="l" depth="5" NCoef="0" IVar="2" Cut="1.1508398437500000e+02" cType="1" res="1.4818641357123852e-02" rms="4.6820035576820374e-01" purity="4.9953621625900269e-01" nType="0">
                  <Node pos="l" depth="6" NCoef="0" IVar="1" Cut="3.2531729340553284e-01" cType="1" res="2.9486812651157379e-02" rms="4.6644344925880432e-01" purity="5.6004410982131958e-01" nType="0">
                    <Node pos="l" depth="7" NCoef="0" IVar="-1" Cut="0.0000000000000000e+00" cType="1" res="3.4815070684999228e-03" rms="4.6126240491867065e-01" purity="6.3475304841995239e-01" nType="-99"/>
                    <Node pos="r" depth="7" NCoef="0" IVar="-1" Cut="0.0000000000000000e+00" cType="1" res="1.3130152365192771e-03" rms="4.7308656573295593e-01" purity="4.5674806833267212e-01" nType="-99"/>
                  </Node>
                  <Node pos="r" depth="6" NCoef="0" IVar="6" Cut="1.4115673303604126e-01" cType="1" res="7.7293906360864639e-03" rms="4.6888267993927002e-01" purity="4.7029224038124084e-01" nType="0">
                    <Node pos="l" depth="7" NCoef="0" IVar="-1" Cut="0.0000000000000000e+00" cType="1" res="4.7547084977850318e-04" rms="4.6798056364059448e-01" purity="4.7237408161163330e-01" nType="-99"/>
                    <Node pos="r" depth="7" NCoef="0" IVar="-1" Cut="0.0000000000000000e+00" cType="1" res="4.2287060059607029e-03" rms="4.7848221659660339e-01" purity="4.4413876533508301e-01" nType="-99"/>
                  </Node>
                </Node>
                <Node pos="r" depth="5" NCoef="0" IVar="-1" Cut="0.0000000000000000e+00" cType="1" res="-2.6890225708484650e-03" rms="4.3804362416267395e-01" purity="2.9537588357925415e-01" nType="-99"/>
              </Node>
            </Node>
          </Node>
          <Node pos="r" depth="2" NCoef="0" IVar="7" Cut="4.0000000000000000e+00" cType="1" res="-2.0337481051683426e-02" rms="1.9855110347270966e-01" purity="4.4503681361675262e-02" nType="0">
            <Node pos="l" depth="3" NCoef="0" IVar="-1" Cut="0.0000000000000000e+00" cType="1" res="-1.2744872830808163e-02" rms="2.4467056989669800e-01" purity="6.8879291415214539e-02" nType="-99"/>
            <Node pos="r" depth="3" NCoef="0" IVar="6" Cut="9.0826421976089478e-02" cType="1" res="-1.3742079958319664e-02" rms="1.8381132185459137e-01" purity="3.7538882344961166e-02" nType="0">
              <Node pos="l" depth="4" NCoef="0" IVar="-1" Cut="0.0000000000000000e+00" cType="1" res="-1.6107944771647453e-02" rms="1.2607349455356598e-01" purity="1.8106592819094658e-02" nType="-99"/>
              <Node pos="r" depth="4" NCoef="0" IVar="3" Cut="2.5342869758605957e-01" cType="1" res="-8.6808027699589729e-03" rms="2.0874206721782684e-01" purity="4.8246316611766815e-02" nType="0">
                <Node pos="l" depth="5" NCoef="0" IVar="-1" Cut="0.0000000000000000e+00" cType="1" res="8.2182977348566055e-04" rms="2.3029555380344391e-01" purity="5.9578660875558853e-02" nType="-99"/>
                <Node pos="r" depth="5" NCoef="0" IVar="5" Cut="1.8390432596206665e+00" cType="1" res="-1.4120755717158318e-02" rms="1.9604684412479401e-01" purity="4.2193941771984100e-02" nType="0">
                  <Node pos="l" depth="6" NCoef="0" IVar="-1" Cut="0.0000000000000000e+00" cType="1" res="-3.5259933792985976e-04" rms="2.4218341708183289e-01" purity="6.6232100129127502e-02" nType="-99"/>
                  <Node pos="r" depth="6" NCoef="0" IVar="-1" Cut="0.0000000000000000e+00" cType="1" res="-1.8682535737752914e-02" rms="1.2527978420257568e-01" purity="1.5648160129785538e-02" nType="-99"/>
                </Node>
              </Node>
            </Node>
          </Node>
        </Node>
        <Node pos="r" depth="1" NCoef="0" IVar="0" Cut="1.2729307413101196e+00" cType="1" res="1.5979319810867310e-02" rms="4.0826106071472168e-01" purity="7.5738853216171265e-01" nType="0">
          <Node pos="l" depth="2" NCoef="0" IVar="1" Cut="1.7871811389923096e+00" cType="1" res="1.7238451167941093e-02" rms="4.0665042400360107e-01" purity="7.6805800199508667e-01" nType="0">
            <Node pos="l" depth="3" NCoef="0" IVar="6" Cut="2.5753747671842575e-02" cType="1" res="1.8711756914854050e-02" rms="4.0213641524314880e-01" purity="7.7935987710952759e-01" nType="0">
              <Node pos="l" depth="4" NCoef="0" IVar="3" Cut="9.5728808641433716e-01" cType="1" res="1.6702098771929741e-02" rms="3.9758777618408203e-01" purity="7.8698509931564331e-01" nType="0">
                <Node pos="l" depth="5" NCoef="0" IVar="6" Cut="1.8288141116499901e-02" cType="1" res="-2.2211926989257336e-03" rms="4.3191343545913696e-01" purity="7.2584307193756104e-01" nType="0">
                  <Node pos="l" depth="6" NCoef="0" IVar="3" Cut="9.2439818382263184e-01" cType="1" res="-8.7307896465063095e-03" rms="4.3311569094657898e-01" purity="7.2344708442687988e-01" nType="0">
                    <Node pos="l" depth="7" NCoef="0" IVar="-1" Cut="0.0000000000000000e+00" cType="1" res="-1.5391665510833263e-03" rms="4.3951544165611267e-01" purity="7.1103948354721069e-01" nType="-99"/>
                    <Node pos="r" depth="7" NCoef="0" IVar="-1" Cut="0.0000000000000000e+00" cType="1" res="3.1604748073732480e-05" rms="4.2167750000953674e-01" purity="7.4488425254821777e-01" nType="-99"/>
                  </Node>
                  <Node pos="r" depth="6" NCoef="0" IVar="-1" Cut="0.0000000000000000e+00" cType="1" res="1.3700330164283514e-03" rms="4.2887610197067261e-01" purity="7.3116761445999146e-01" nType="-99"/>
                </Node>
                <Node pos="r" depth="5" NCoef="0" IVar="5" Cut="-3.1010880470275879e+00" cType="1" res="1.9784983247518539e-02" rms="3.9162418246269226e-01" purity="7.9694604873657227e-01" nType="0">
                  <Node pos="l" depth="6" NCoef="0" IVar="1" Cut="4.5295727252960205e-01" cType="1" res="2.9610088095068932e-02" rms="3.5219743847846985e-01" purity="8.4769797325134277e-01" nType="0">
                    <Node pos="l" depth="7" NCoef="0" IVar="-1" Cut="0.0000000000000000e+00" cType="1" res="4.6084467321634293e-03" rms="3.3342361450195312e-01" purity="8.6859965324401855e-01" nType="-99"/>
                    <Node pos="r" depth="7" NCoef="0" IVar="-1" Cut="0.0000000000000000e+00" cType="1" res="1.6998441424220800e-03" rms="4.1121044754981995e-01" purity="7.7414435148239136e-01" nType="-99"/>
                  </Node>
                  <Node pos="r" depth="6" NCoef="0" IVar="3" Cut="1.0312952995300293e+00" cType="1" res="1.6933437436819077e-02" rms="4.0229937434196472e-01" purity="7.8221631050109863e-01" nType="0">
                    <Node pos="l" depth="7" NCoef="0" IVar="-1" Cut="0.0000000000000000e+00" cType="1" res="2.0131154451519251e-03" rms="4.0190008282661438e-01" purity="7.8312236070632935e-01" nType="-99"/>
                    <Node pos="r" depth="7" NCoef="0" IVar="-1" Cut="0.0000000000000000e+00" cType="1" res="4.8493818030692637e-04" rms="4.0654689073562622e-01" purity="7.7203893661499023e-01" nType="-99"/>
                  </Node>
                </Node>
              </Node>
              <Node pos="r" depth="4" NCoef="0" IVar="5" Cut="-1.8876296281814575e+00" cType="1" res="2.9006475582718849e-02" rms="4.2452484369277954e-01" purity="7.4029844999313354e-01" nType="0">
                <Node pos="l" depth="5" NCoef="0" IVar="2" Cut="7.0770774841308594e+01" cType="1" res="3.5127375274896622e-02" rms="4.0436971187591553e-01" purity="7.8470182418823242e-01" nType="0">
                  <Node pos="l" depth="6" NCoef="0" IVar="-1" Cut="0.0000000000000000e+00" cType="1" res="5.3581190295517445e-03" rms="3.9383956789970398e-01" purity="8.0661332607269287e-01" nType="-99"/>
                  <Node pos="r" depth="6" NCoef="0" IVar="1" Cut="-4.5357365161180496e-02" cType="1" res="2.6763295754790306e-02" rms="4.0946531295776367e-01" purity="7.7335673570632935e-01" nType="0">
                    <Node pos="l" depth="7" NCoef="0" IVar="-1" Cut="0.0000000000000000e+00" cType="1" res="4.4730836525559425e-03" rms="3.8358429074287415e-01" purity="8.1758439540863037e-01" nType="-99"/>
                    <Node pos="r" depth="7" NCoef="0" IVar="-1" Cut="0.0000000000000000e+00" cType="1" res="1.9799820147454739e-03" rms="4.2926359176635742e-01" purity="7.3723167181015015e-01" nType="-99"/>
                  </Node>
                </Node>
                <Node pos="r" depth="5" NCoef="0" IVar="-1" Cut="0.0000000000000000e+00" cType="1" res="1.4745247317478061e-03" rms="4.6600532531738281e-01" purity="6.4140272140502930e-01" nType="-99"/>
              </Node>
            </Node>
            <Node pos="r" depth="3" NCoef="0" IVar="4" Cut="-7.7497851848602295e-01" cType="1" res="-6.1746854335069656e-03" rms="4.7201701998710632e-01" purity="5.8845359086990356e-01" nType="0">
              <Node pos="l" depth="4" NCoef="0" IVar="-1" Cut="0.0000000000000000e+00" cType="1" res="-1.3527382398024201e-03" rms="4.8624113202095032e-01" purity="5.5716770887374878e-01" nType="-99"/>
              <Node pos="r" depth="4" NCoef="0" IVar="-1" Cut="0.0000000000000000e+00" cType="1" res="2.0256143761798739e-04" rms="4.5933908224105835e-01" purity="6.1521172523498535e-01" nType="-99"/>
            </Node>
          </Node>
          <Node pos="r" depth="2" NCoef="0" IVar="-1" Cut="0.0000000000000000e+00" cType="1" res="-3.3840672113001347e-03" rms="4.6352121233940125e-01" purity="3.4613156318664551e-01" nType="-99"/>
        </Node>
      </Node>
    </BinaryTree>
    <BinaryTree type="DecisionTree" boostWeight="1.0000000000000000e+00" itree="77">
      <Node pos="s" depth="0" NCoef="0" IVar="3" Cut="8.4381175041198730e-01" cType="1" res="4.2171338573098183e-03" rms="4.0034636855125427e-01" purity="4.9961248040199280e-01" nType="0">
        <Node pos="l" depth="1" NCoef="0" IVar="6" Cut="2.5837596505880356e-02" cType="1" res="-3.7556025199592113e-03" rms="3.9383357763290405e-01" purity="3.0830577015876770e-01" nType="0">
          <Node pos="l" depth="2" NCoef="0" IVar="2" Cut="3.4285579681396484e+01" cType="1" res="-2.5217052549123764e-02" rms="4.2214468121528625e-01" purity="3.9009153842926025e-01" nType="0">
            <Node pos="l" depth="3" NCoef="0" IVar="6" Cut="1.3373997993767262e-02" cType="1" res="-4.0523195639252663e-03" rms="4.3184521794319153e-01" purity="4.4159600138664246e-01" nType="0">
              <Node pos="l" depth="4" NCoef="0" IVar="-1" Cut="0.0000000000000000e+00" cType="1" res="-3.5268922802060843e-03" rms="4.2758083343505859e-01" purity="4.1322049498558044e-01" nType="-99"/>
              <Node pos="r" depth="4" NCoef="0" IVar="-1" Cut="0.0000000000000000e+00" cType="1" res="1.9892102573066950e-03" rms="4.3410938978195190e-01" purity="4.6541368961334229e-01" nType="-99"/>
            </Node>
            <Node pos="r" depth="3" NCoef="0" IVar="6" Cut="2.0665753632783890e-02" cType="1" res="-4.7601956874132156e-02" rms="4.1045036911964417e-01" purity="3.3561778068542480e-01" nType="0">
              <Node pos="l" depth="4" NCoef="0" IVar="-1" Cut="0.0000000000000000e+00" cType="1" res="-7.7384137548506260e-03" rms="4.0701049566268921e-01" purity="3.2613468170166016e-01" nType="-99"/>
              <Node pos="r" depth="4" NCoef="0" IVar="-1" Cut="0.0000000000000000e+00" cType="1" res="-4.2407680302858353e-03" rms="4.1396081447601318e-01" purity="3.4669232368469238e-01" nType="-99"/>
            </Node>
          </Node>
          <Node pos="r" depth="2" NCoef="0" IVar="2" Cut="8.1483070373535156e+01" cType="1" res="-1.8227866385132074e-03" rms="3.9112553000450134e-01" purity="3.0094012618064880e-01" nType="0">
            <Node pos="l" depth="3" NCoef="0" IVar="1" Cut="-1.7065842449665070e-01" cType="1" res="1.3277450576424599e-02" rms="4.2840147018432617e-01" purity="4.3084830045700073e-01" nType="0">
              <Node pos="l" depth="4" NCoef="0" IVar="-1" Cut="0.0000000000000000e+00" cType="1" res="3.8025630638003349e-03" rms="4.5667704939842224e-01" purity="6.2809568643569946e-01" nType="-99"/>
              <Node pos="r" depth="4" NCoef="0" IVar="1" Cut="1.7940331697463989e+00" cType="1" res="7.4156341142952442e-03" rms="4.2241457104682922e-01" purity="3.9235988259315491e-01" nType="0">
                <Node pos="l" depth="5" NCoef="0" IVar="6" Cut="5.0030570477247238e-02" cType="1" res="1.3990858569741249e-02" rms="4.3323469161987305e-01" purity="4.2947885394096375e-01" nType="0">
                  <Node pos="l" depth="6" NCoef="0" IVar="5" Cut="-1.9948751926422119e+00" cType="1" res="2.6494855992496014e-03" rms="4.3198046088218689e-01" purity="4.2535004019737244e-01" nType="0">
                    <Node pos="l" depth="7" NCoef="0" IVar="-1" Cut="0.0000000000000000e+00" cType="1" res="1.6261246055364609e-03" rms="4.4120907783508301e-01" purity="4.8427706956863403e-01" nType="-99"/>
                    <Node pos="r" depth="7" NCoef="0" IVar="-1" Cut="0.0000000000000000e+00" cType="1" res="-2.3691819515079260e-03" rms="4.1519728302955627e-01" purity="3.2671856880187988e-01" nType="-99"/>
                  </Node>
                  <Node pos="r" depth="6" NCoef="0" IVar="4" Cut="-2.9228976368904114e-01" cType="1" res="2.7645792812108994e-02" rms="4.3434727191925049e-01" purity="4.3444997072219849e-01" nType="0">
                    <Node pos="l" depth="7" NCoef="0" IVar="-1" Cut="0.0000000000000000e+00" cType="1" res="3.9309859275817871e-03" rms="4.4757464528083801e-01" purity="5.5309039354324341e-01" nType="-99"/>
                    <Node pos="r" depth="7" NCoef="0" IVar="-1" Cut="0.0000000000000000e+00" cType="1" res="2.1420305129140615e-03" rms="4.2642408609390259e-01" purity="3.6753639578819275e-01" nType="-99"/>
                  </Node>
                </Node>
                <Node pos="r" depth="5" NCoef="0" IVar="-1" Cut="0.0000000000000000e+00" cType="1" res="-5.1780049689114094e-03" rms="3.5271900892257690e-01" purity="1.8229670822620392e-01" nType="-99"/>
              </Node>
            </Node>
            <Node pos="r" depth="3" NCoef="0" IVar="6" Cut="6.1985541135072708e-02" cType="1" res="-4.9965810030698776e-03" rms="3.8275372982025146e-01" purity="2.7363580465316772e-01" nType="0">
              <Node pos="l" depth="4" NCoef="0" IVar="4" Cut="3.2740983366966248e-01" cType="1" res="-1.8730813637375832e-02" rms="4.0554183721542358e-01" purity="3.4996789693832397e-01" nType="0">
                <Node pos="l" depth="5" NCoef="0" IVar="5" Cut="-3.0133073329925537e+00" cType="1" res="-1.3469153083860874e-02" rms="4.2782962322235107e-01" purity="4.0429708361625671e-01" nType="0">
                  <Node pos="l" depth="6" NCoef="0" IVar="-1" Cut="0.0000000000000000e+00" cType="1" res="-5.1807817071676254e-03" rms="3.6390370130538940e-01" purity="2.4773411452770233e-01" nType="-99"/>
                  <Node pos="r" depth="6" NCoef="0" IVar="2" Cut="1.8247152709960938e+02" cType="1" res="-8.2715163007378578e-03" rms="4.4316321611404419e-01" purity="4.4600769877433777e-01" nType="0">
                    <Node pos="l" depth="7" NCoef="0" IVar="-1" Cut="0.0000000000000000e+00" cType="1" res="-1.4963407011236995e-04" rms="4.4550159573554993e-01" purity="4.6125635504722595e-01" nType="-99"/>
                    <Node pos="r" depth="7" NCoef="0" IVar="-1" Cut="0.0000000000000000e+00" cType="1" res="-2.7357558719813824e-03" rms="4.3771696090698242e-01" purity="4.1317275166511536e-01" nType="-99"/>
                  </Node>
                </Node>
                <Node pos="r" depth="5" NCoef="0" IVar="3" Cut="4.8259231448173523e-01" cType="1" res="-3.8908876478672028e-02" rms="3.0450114607810974e-01" purity="1.4161984622478485e-01" nType="0">
                  <Node pos="l" depth="6" NCoef="0" IVar="-1" Cut="0.0000000000000000e+00" cType="1" res="-1.6054254025220871e-02" rms="1.3840904831886292e-01" purity="2.0076394081115723e-02" nType="-99"/>
                  <Node pos="r" depth="6" NCoef="0" IVar="-1" Cut="0.0000000000000000e+00" cType="1" res="-6.7429547198116779e-03" rms="4.0315002202987671e-01" purity="2.5752392411231995e-01" nType="-99"/>
                </Node>
              </Node>
              <Node pos="r" depth="4" NCoef="0" IVar="3" Cut="6.0201877355575562e-01" cType="1" res="-9.2992908321321011e-04" rms="3.7564483284950256e-01" purity="2.5103414058685303e-01" nType="0">
                <Node pos="l" depth="5" NCoef="0" IVar="6" Cut="2.7835002541542053e-01" cType="1" res="-6.0633327811956406e-03" rms="3.3243325352668762e-01" purity="1.5110559761524200e-01" nType="0">
                  <Node pos="l" depth="6" NCoef="0" IVar="3" Cut="2.7798795700073242e-01" cType="1" res="-8.0325687304139137e-03" rms="3.2856392860412598e-01" purity="1.4823345839977264e-01" nType="0">
                    <Node pos="l" depth="7" NCoef="0" IVar="-1" Cut="0.0000000000000000e+00" cType="1" res="-8.4270993247628212e-03" rms="2.2735109925270081e-01" purity="6.0347747057676315e-02" nType="-99"/>
                    <Node pos="r" depth="7" NCoef="0" IVar="-1" Cut="0.0000000000000000e+00" cType="1" res="-7.0844352012500167e-04" rms="3.5635602474212646e-01" purity="1.7807842791080475e-01" nType="-99"/>
                  </Node>
                  <Node pos="r" depth="6" NCoef="0" IVar="-1" Cut="0.0000000000000000e+00" cType="1" res="7.0261447690427303e-03" rms="4.0793365240097046e-01" purity="2.1621502935886383e-01" nType="-99"/>
                </Node>
                <Node pos="r" depth="5" NCoef="0" IVar="0" Cut="6.4362961053848267e-01" cType="1" res="1.2522738426923752e-02" rms="4.7015142440795898e-01" purity="5.1290827989578247e-01" nType="0">
                  <Node pos="l" depth="6" NCoef="0" IVar="4" Cut="-4.8940718173980713e-01" cType="1" res="1.7470443621277809e-02" rms="4.7318094968795776e-01" purity="5.4799669981002808e-01" nType="0">
                    <Node pos="l" depth="7" NCoef="0" IVar="-1" Cut="0.0000000000000000e+00" cType="1" res="2.2323431912809610e-03" rms="4.7713282704353333e-01" purity="6.0033327341079712e-01" nType="-99"/>
                    <Node pos="r" depth="7" NCoef="0" IVar="-1" Cut="0.0000000000000000e+00" cType="1" res="6.9293909473344684e-04" rms="4.6775403618812561e-01" purity="4.7948578000068665e-01" nType="-99"/>
                  </Node>
                  <Node pos="r" depth="6" NCoef="0" IVar="-1" Cut="0.0000000000000000e+00" cType="1" res="-1.3707714388146996e-03" rms="4.5375782251358032e-01" purity="3.3609095215797424e-01" nType="-99"/>
                </Node>
              </Node>
            </Node>
          </Node>
        </Node>
        <Node pos="r" depth="1" NCoef="0" IVar="0" Cut="6.4365416765213013e-01" cType="1" res="1.4913952909410000e-02" rms="4.0867722034454346e-01" purity="7.5628381967544556e-01" nType="0">
          <Node pos="l" depth="2" NCoef="0" IVar="1" Cut="1.7851622104644775e+00" cType="1" res="1.6645545139908791e-02" rms="4.0398949384689331e-01" purity="7.7639746665954590e-01" nType="0">
            <Node pos="l" depth="3" NCoef="0" IVar="4" Cut="2.4781830608844757e-01" cType="1" res="1.7819724977016449e-02" rms="3.9958077669143677e-01" purity="7.8648042678833008e-01" nType="0">
              <Node pos="l" depth="4" NCoef="0" IVar="6" Cut="3.8630619645118713e-02" cType="1" res="1.8976736813783646e-02" rms="3.9632698893547058e-01" purity="7.9382723569869995e-01" nType="0">
                <Node pos="l" depth="5" NCoef="0" IVar="4" Cut="-9.4682759046554565e-01" cType="1" res="1.7690021544694901e-02" rms="3.9427906274795532e-01" purity="7.9674160480499268e-01" nType="0">
                  <Node pos="l" depth="6" NCoef="0" IVar="4" Cut="-2.8302156925201416e+00" cType="1" res="1.0903481394052505e-02" rms="4.1531327366828918e-01" purity="7.6662677526473999e-01" nType="0">
                    <Node pos="l" depth="7" NCoef="0" IVar="-1" Cut="0.0000000000000000e+00" cType="1" res="3.5001812502741814e-03" rms="3.9437359571456909e-01" purity="7.9914599657058716e-01" nType="-99"/>
                    <Node pos="r" depth="7" NCoef="0" IVar="-1" Cut="0.0000000000000000e+00" cType="1" res="7.7032076660543680e-04" rms="4.1899099946022034e-01" purity="7.6058995723724365e-01" nType="-99"/>
                  </Node>
                  <Node pos="r" depth="6" NCoef="0" IVar="5" Cut="-3.1687753200531006e+00" cType="1" res="2.2563258185982704e-02" rms="3.7837940454483032e-01" purity="8.1836622953414917e-01" nType="0">
                    <Node pos="l" depth="7" NCoef="0" IVar="-1" Cut="0.0000000000000000e+00" cType="1" res="4.3760999105870724e-03" rms="3.3681055903434753e-01" purity="8.6696135997772217e-01" nType="-99"/>
                    <Node pos="r" depth="7" NCoef="0" IVar="-1" Cut="0.0000000000000000e+00" cType="1" res="2.5117008481174707e-03" rms="3.8675647974014282e-01" purity="8.0786138772964478e-01" nType="-99"/>
                  </Node>
                </Node>
                <Node pos="r" depth="5" NCoef="0" IVar="4" Cut="-1.7450776100158691e+00" cType="1" res="3.2740756869316101e-02" rms="4.1735804080963135e-01" purity="7.6265251636505127e-01" nType="0">
                  <Node pos="l" depth="6" NCoef="0" IVar="-1" Cut="0.0000000000000000e+00" cType="1" res="4.0333694778382778e-03" rms="4.0788558125495911e-01" purity="7.7981865406036377e-01" nType="-99"/>
                  <Node pos="r" depth="6" NCoef="0" IVar="-1" Cut="0.0000000000000000e+00" cType="1" res="2.6566141750663519e-03" rms="4.2901632189750671e-01" purity="7.4082612991333008e-01" nType="-99"/>
                </Node>
              </Node>
              <Node pos="r" depth="4" NCoef="0" IVar="1" Cut="2.7781012654304504e-01" cType="1" res="5.0978073850274086e-03" rms="4.3354728817939758e-01" purity="7.0569849014282227e-01" nType="0">
                <Node pos="l" depth="5" NCoef="0" IVar="-1" Cut="0.0000000000000000e+00" cType="1" res="1.6068962868303061e-03" rms="4.1916120052337646e-01" purity="7.4420273303985596e-01" nType="-99"/>
                <Node pos="r" depth="5" NCoef="0" IVar="-1" Cut="0.0000000000000000e+00" cType="1" res="-1.1584406020119786e-03" rms="4.5733189582824707e-01" purity="6.3784039020538330e-01" nType="-99"/>
              </Node>
            </Node>
            <Node pos="r" depth="3" NCoef="0" IVar="1" Cut="2.8435809612274170e+00" cType="1" res="-2.7939146384596825e-03" rms="4.7059443593025208e-01" purity="6.0946530103683472e-01" nType="0">
              <Node pos="l" depth="4" NCoef="0" IVar="-1" Cut="0.0000000000000000e+00" cType="1" res="-9.4147038180381060e-04" rms="4.7829481959342957e-01" purity="5.9904736280441284e-01" nType="-99"/>
              <Node pos="r" depth="4" NCoef="0" IVar="-1" Cut="0.0000000000000000e+00" cType="1" res="4.5924130245111883e-04" rms="4.6275618672370911e-01" purity="6.1971873044967651e-01" nType="-99"/>
            </Node>
          </Node>
          <Node pos="r" depth="2" NCoef="0" IVar="5" Cut="-2.1891307830810547e+00" cType="1" res="-1.2937356717884541e-02" rms="4.7693520784378052e-01" purity="4.3277284502983093e-01" nType="0">
            <Node pos="l" depth="3" NCoef="0" IVar="-1" Cut="0.0000000000000000e+00" cType="1" res="6.0388917336240411e-04" rms="4.9154838919639587e-01" purity="5.0007456541061401e-01" nType="-99"/>
            <Node pos="r" depth="3" NCoef="0" IVar="-1" Cut="0.0000000000000000e+00" cType="1" res="-3.5778668243438005e-03" rms="4.5892044901847839e-01" purity="3.5705137252807617e-01" nType="-99"/>
          </Node>
        </Node>
      </Node>
    </BinaryTree>
    <BinaryTree type="DecisionTree" boostWeight="1.0000000000000000e+00" itree="78">
      <Node pos="s" depth="0" NCoef="0" IVar="3" Cut="6.5238207578659058e-01" cType="1" res="4.6302601695060730e-03" rms="4.0132582187652588e-01" purity="5.0030153989791870e-01" nType="0">
        <Node pos="l" depth="1" NCoef="0" IVar="1" Cut="-2.2930772602558136e-01" cType="1" res="-5.5795563384890556e-03" rms="3.4596484899520874e-01" purity="1.7410883307456970e-01" nType="0">
          <Node pos="l" depth="2" NCoef="0" IVar="2" Cut="1.3667007446289062e+02" cType="1" res="1.6234029084444046e-02" rms="4.2101100087165833e-01" purity="3.0188506841659546e-01" nType="0">
            <Node pos="l" depth="3" NCoef="0" IVar="-1" Cut="0.0000000000000000e+00" cType="1" res="4.2361845262348652e-03" rms="4.4456410408020020e-01" purity="3.7671297788619995e-01" nType="-99"/>
            <Node pos="r" depth="3" NCoef="0" IVar="6" Cut="1.4169496297836304e-01" cType="1" res="8.5424026474356651e-03" rms="4.1239032149314880e-01" purity="2.7636930346488953e-01" nType="0">
              <Node pos="l" depth="4" NCoef="0" IVar="-1" Cut="0.0000000000000000e+00" cType="1" res="-2.0011834567412734e-04" rms="4.1007182002067566e-01" purity="2.7772253751754761e-01" nType="-99"/>
              <Node pos="r" depth="4" NCoef="0" IVar="-1" Cut="0.0000000000000000e+00" cType="1" res="3.9769886061549187e-03" rms="4.1608712077140808e-01" purity="2.7380710840225220e-01" nType="-99"/>
            </Node>
          </Node>
          <Node pos="r" depth="2" NCoef="0" IVar="6" Cut="1.1560618877410889e-01" cType="1" res="-8.3562340587377548e-03" rms="3.3510699868202209e-01" purity="1.5784403681755066e-01" nType="0">
            <Node pos="l" depth="3" NCoef="0" IVar="2" Cut="1.1143610382080078e+02" cType="1" res="-1.4099149033427238e-02" rms="3.2475146651268005e-01" purity="1.4837321639060974e-01" nType="0">
              <Node pos="l" depth="4" NCoef="0" IVar="6" Cut="6.7269816994667053e-02" cType="1" res="-2.7645863592624664e-03" rms="3.5090118646621704e-01" purity="1.8176855146884918e-01" nType="0">
                <Node pos="l" depth="5" NCoef="0" IVar="2" Cut="5.4200634002685547e+01" cType="1" res="-1.1620830744504929e-02" rms="3.3834421634674072e-01" purity="1.6118299961090088e-01" nType="0">
                  <Node pos="l" depth="6" NCoef="0" IVar="6" Cut="2.6252619922161102e-02" cType="1" res="1.7766050295904279e-03" rms="3.6009350419044495e-01" purity="1.9130823016166687e-01" nType="0">
                    <Node pos="l" depth="7" NCoef="0" IVar="-1" Cut="0.0000000000000000e+00" cType="1" res="-3.5634161904454231e-03" rms="3.3828508853912354e-01" purity="1.5639071166515350e-01" nType="-99"/>
                    <Node pos="r" depth="7" NCoef="0" IVar="-1" Cut="0.0000000000000000e+00" cType="1" res="3.0010116752237082e-03" rms="3.7608927488327026e-01" purity="2.1964029967784882e-01" nType="-99"/>
                  </Node>
                  <Node pos="r" depth="6" NCoef="0" IVar="0" Cut="1.2898207902908325e+00" cType="1" res="-2.3304514586925507e-02" rms="3.1770488619804382e-01" purity="1.3491126894950867e-01" nType="0">
                    <Node pos="l" depth="7" NCoef="0" IVar="-1" Cut="0.0000000000000000e+00" cType="1" res="-4.8791524022817612e-03" rms="3.8141107559204102e-01" purity="2.0315514504909515e-01" nType="-99"/>
                    <Node pos="r" depth="7" NCoef="0" IVar="-1" Cut="0.0000000000000000e+00" cType="1" res="-6.0351174324750900e-03" rms="2.1885949373245239e-01" purity="5.3936876356601715e-02" nType="-99"/>
                  </Node>
                </Node>
                <Node pos="r" depth="5" NCoef="0" IVar="3" Cut="4.8822483420372009e-01" cType="1" res="1.8636407330632210e-02" rms="3.7867972254753113e-01" purity="2.3151327669620514e-01" nType="0">
                  <Node pos="l" depth="6" NCoef="0" IVar="-1" Cut="0.0000000000000000e+00" cType="1" res="1.8209210829809308e-03" rms="2.8899130225181580e-01" purity="1.0114964097738266e-01" nType="-99"/>
                  <Node pos="r" depth="6" NCoef="0" IVar="-1" Cut="0.0000000000000000e+00" cType="1" res="3.5320289898663759e-03" rms="4.6274507045745850e-01" purity="3.8649055361747742e-01" nType="-99"/>
                </Node>
              </Node>
              <Node pos="r" depth="4" NCoef="0" IVar="7" Cut="3.0000000000000000e+00" cType="1" res="-2.1325536072254181e-02" rms="3.0571305751800537e-01" purity="1.2705765664577484e-01" nType="0">
                <Node pos="l" depth="5" NCoef="0" IVar="-1" Cut="0.0000000000000000e+00" cType="1" res="-8.3535816520452499e-03" rms="3.4000611305236816e-01" purity="1.4504037797451019e-01" nType="-99"/>
                <Node pos="r" depth="5" NCoef="0" IVar="6" Cut="6.6025175154209137e-02" cType="1" res="-1.8966501578688622e-02" rms="3.0300879478454590e-01" purity="1.2524157762527466e-01" nType="0">
                  <Node pos="l" depth="6" NCoef="0" IVar="6" Cut="4.8032213002443314e-02" cType="1" res="-2.7749331668019295e-02" rms="2.8358781337738037e-01" purity="1.0320961475372314e-01" nType="0">
                    <Node pos="l" depth="7" NCoef="0" IVar="-1" Cut="0.0000000000000000e+00" cType="1" res="-4.9959300085902214e-03" rms="2.8945606946945190e-01" purity="1.0670673102140427e-01" nType="-99"/>
                    <Node pos="r" depth="7" NCoef="0" IVar="-1" Cut="0.0000000000000000e+00" cType="1" res="-8.2808267325162888e-03" rms="2.7953055500984192e-01" purity="1.0090682655572891e-01" nType="-99"/>
                  </Node>
                  <Node pos="r" depth="6" NCoef="0" IVar="2" Cut="3.3465454101562500e+02" cType="1" res="-1.5152407810091972e-02" rms="3.1098806858062744e-01" purity="1.3480935990810394e-01" nType="0">
                    <Node pos="l" depth="7" NCoef="0" IVar="-1" Cut="0.0000000000000000e+00" cType="1" res="-2.4705547839403152e-03" rms="3.1716722249984741e-01" purity="1.4316901564598083e-01" nType="-99"/>
                    <Node pos="r" depth="7" NCoef="0" IVar="-1" Cut="0.0000000000000000e+00" cType="1" res="-5.9486329555511475e-03" rms="2.9637724161148071e-01" purity="1.1599907279014587e-01" nType="-99"/>
                  </Node>
                </Node>
              </Node>
            </Node>
            <Node pos="r" depth="3" NCoef="0" IVar="7" Cut="3.0000000000000000e+00" cType="1" res="-2.5444652419537306e-04" rms="3.4862571954727173e-01" purity="1.7152807116508484e-01" nType="0">
              <Node pos="l" depth="4" NCoef="0" IVar="-1" Cut="0.0000000000000000e+00" cType="1" res="5.5861901491880417e-03" rms="4.3490603566169739e-01" purity="2.9722091555595398e-01" nType="-99"/>
              <Node pos="r" depth="4" NCoef="0" IVar="2" Cut="3.9828125000000000e+02" cType="1" res="-3.6047964822500944e-03" rms="3.4082391858100891e-01" purity="1.6078826785087585e-01" nType="0">
                <Node pos="l" depth="5" NCoef="0" IVar="5" Cut="-2.4501888751983643e+00" cType="1" res="6.2355939298868179e-03" rms="3.5441285371780396e-01" purity="1.8181037902832031e-01" nType="0">
                  <Node pos="l" depth="6" NCoef="0" IVar="-1" Cut="0.0000000000000000e+00" cType="1" res="4.3232939206063747e-03" rms="4.0439793467521667e-01" purity="2.5393480062484741e-01" nType="-99"/>
                  <Node pos="r" depth="6" NCoef="0" IVar="5" Cut="8.9125558733940125e-02" cType="1" res="-1.2731397291645408e-03" rms="3.3487588167190552e-01" purity="1.5661704540252686e-01" nType="0">
                    <Node pos="l" depth="7" NCoef="0" IVar="-1" Cut="0.0000000000000000e+00" cType="1" res="9.0990157332271338e-04" rms="3.7816289067268372e-01" purity="2.0502634346485138e-01" nType="-99"/>
                    <Node pos="r" depth="7" NCoef="0" IVar="-1" Cut="0.0000000000000000e+00" cType="1" res="-8.2460157573223114e-03" rms="2.0298966765403748e-01" purity="4.5851171016693115e-02" nType="-99"/>
                  </Node>
                </Node>
                <Node pos="r" depth="5" NCoef="0" IVar="6" Cut="1.9740213453769684e-01" cType="1" res="-1.2976915575563908e-02" rms="3.2708245515823364e-01" purity="1.4076650142669678e-01" nType="0">
                  <Node pos="l" depth="6" NCoef="0" IVar="5" Cut="-1.0820256471633911e+00" cType="1" res="-1.9015448167920113e-02" rms="3.1200215220451355e-01" purity="1.3286343216896057e-01" nType="0">
                    <Node pos="l" depth="7" NCoef="0" IVar="-1" Cut="0.0000000000000000e+00" cType="1" res="-2.0671244710683823e-03" rms="3.6601698398590088e-01" purity="1.8922460079193115e-01" nType="-99"/>
                    <Node pos="r" depth="7" NCoef="0" IVar="-1" Cut="0.0000000000000000e+00" cType="1" res="-1.1345673352479935e-02" rms="2.1010513603687286e-01" purity="5.1287207752466202e-02" nType="-99"/>
                  </Node>
                  <Node pos="r" depth="6" NCoef="0" IVar="3" Cut="2.3618102073669434e-01" cType="1" res="-3.7004740443080664e-03" rms="3.4877815842628479e-01" purity="1.5290725231170654e-01" nType="0">
                    <Node pos="l" depth="7" NCoef="0" IVar="-1" Cut="0.0000000000000000e+00" cType="1" res="-2.9582565184682608e-03" rms="3.3455067873001099e-01" purity="1.3302813470363617e-01" nType="-99"/>
                    <Node pos="r" depth="7" NCoef="0" IVar="-1" Cut="0.0000000000000000e+00" cType="1" res="1.1183692840859294e-03" rms="3.6258137226104736e-01" purity="1.7335002124309540e-01" nType="-99"/>
                  </Node>
                </Node>
              </Node>
            </Node>
          </Node>
        </Node>
        <Node pos="r" depth="1" NCoef="0" IVar="5" Cut="2.8840810060501099e-01" cType="1" res="1.0659363120794296e-02" rms="4.3057492375373840e-01" purity="6.9292491674423218e-01" nType="0">
          <Node pos="l" depth="2" NCoef="0" IVar="3" Cut="1.0426797866821289e+00" cType="1" res="1.1702179908752441e-02" rms="4.3085899949073792e-01" purity="7.0008391141891479e-01" nType="0">
            <Node pos="l" depth="3" NCoef="0" IVar="3" Cut="9.9231517314910889e-01" cType="1" res="1.2675997801125050e-02" rms="4.3151378631591797e-01" purity="6.9956988096237183e-01" nType="0">
              <Node pos="l" depth="4" NCoef="0" IVar="6" Cut="2.5364348664879799e-02" cType="1" res="7.8536365181207657e-03" rms="4.5107725262641907e-01" purity="6.4948511123657227e-01" nType="0">
                <Node pos="l" depth="5" NCoef="0" IVar="1" Cut="8.8003325462341309e-01" cType="1" res="-5.0971102900803089e-03" rms="4.3324604630470276e-01" purity="7.0011317729949951e-01" nType="0">
                  <Node pos="l" depth="6" NCoef="0" IVar="2" Cut="3.8858829498291016e+01" cType="1" res="1.0385979840066284e-04" rms="4.2415708303451538e-01" purity="7.3630815744400024e-01" nType="0">
                    <Node pos="l" depth="7" NCoef="0" IVar="-1" Cut="0.0000000000000000e+00" cType="1" res="6.4266764093190432e-04" rms="4.1673681139945984e-01" purity="7.5512999296188354e-01" nType="-99"/>
                    <Node pos="r" depth="7" NCoef="0" IVar="-1" Cut="0.0000000000000000e+00" cType="1" res="-2.7757934294641018e-03" rms="4.5525524020195007e-01" purity="6.5139365196228027e-01" nType="-99"/>
                  </Node>
                  <Node pos="r" depth="6" NCoef="0" IVar="5" Cut="-2.6517336368560791e+00" cType="1" res="-3.2606944441795349e-02" rms="4.7751632332801819e-01" purity="5.0866472721099854e-01" nType="0">
                    <Node pos="l" depth="7" NCoef="0" IVar="-1" Cut="0.0000000000000000e+00" cType="1" res="-1.3826435897499323e-03" rms="4.7523507475852966e-01" purity="5.7004094123840332e-01" nType="-99"/>
                    <Node pos="r" depth="7" NCoef="0" IVar="-1" Cut="0.0000000000000000e+00" cType="1" res="-4.4984668493270874e-03" rms="4.7895991802215576e-01" purity="4.5533764362335205e-01" nType="-99"/>
                  </Node>
                </Node>
                <Node pos="r" depth="5" NCoef="0" IVar="2" Cut="1.1142317962646484e+02" cType="1" res="1.5476580709218979e-02" rms="4.6108067035675049e-01" purity="6.1968493461608887e-01" nType="0">
                  <Node pos="l" depth="6" NCoef="0" IVar="3" Cut="8.2689499855041504e-01" cType="1" res="2.3741602897644043e-02" rms="4.5263701677322388e-01" purity="6.5069305896759033e-01" nType="0">
                    <Node pos="l" depth="7" NCoef="0" IVar="-1" Cut="0.0000000000000000e+00" cType="1" res="1.2817155802622437e-03" rms="4.7019499540328979e-01" purity="5.8923238515853882e-01" nType="-99"/>
                    <Node pos="r" depth="7" NCoef="0" IVar="-1" Cut="0.0000000000000000e+00" cType="1" res="3.5753643605858088e-03" rms="4.2774748802185059e-01" purity="7.3284053802490234e-01" nType="-99"/>
                  </Node>
                  <Node pos="r" depth="6" NCoef="0" IVar="6" Cut="4.9087028950452805e-02" cType="1" res="8.2605862990021706e-03" rms="4.6820887923240662e-01" purity="5.9261250495910645e-01" nType="0">
                    <Node pos="l" depth="7" NCoef="0" IVar="-1" Cut="0.0000000000000000e+00" cType="1" res="-4.1612156201153994e-04" rms="4.5676857233047485e-01" purity="6.2583053112030029e-01" nType="-99"/>
                    <Node pos="r" depth="7" NCoef="0" IVar="-1" Cut="0.0000000000000000e+00" cType="1" res="1.3506725663319230e-03" rms="4.7377243638038635e-01" purity="5.7580304145812988e-01" nType="-99"/>
                  </Node>
                </Node>
              </Node>
              <Node pos="r" depth="4" NCoef="0" IVar="3" Cut="9.9881398677825928e-01" cType="1" res="2.0914992317557335e-02" rms="3.9572298526763916e-01" purity="7.8513962030410767e-01" nType="0">
                <Node pos="l" depth="5" NCoef="0" IVar="4" Cut="-1.4531733989715576e+00" cType="1" res="9.4884680584073067e-03" rms="4.0404155850410461e-01" purity="7.7218419313430786e-01" nType="0">
                  <Node pos="l" depth="6" NCoef="0" IVar="-1" Cut="0.0000000000000000e+00" cType="1" res="-1.3608393492177129e-03" rms="4.3911269307136536e-01" purity="7.0819324254989624e-01" nType="-99"/>
                  <Node pos="r" depth="6" NCoef="0" IVar="3" Cut="9.9420237541198730e-01" cType="1" res="1.4205526560544968e-02" rms="3.9639613032341003e-01" purity="7.8514134883880615e-01" nType="0">
                    <Node pos="l" depth="7" NCoef="0" IVar="-1" Cut="0.0000000000000000e+00" cType="1" res="2.0660883456002921e-04" rms="4.0075120329856873e-01" purity="7.7273714542388916e-01" nType="-99"/>
                    <Node pos="r" depth="7" NCoef="0" IVar="-1" Cut="0.0000000000000000e+00" cType="1" res="2.0828153938055038e-03" rms="3.9528477191925049e-01" purity="7.8811872005462646e-01" nType="-99"/>
                  </Node>
                </Node>
                <Node pos="r" depth="5" NCoef="0" IVar="4" Cut="-1.7757043838500977e+00" cType="1" res="2.6718975976109505e-02" rms="3.9130219817161560e-01" purity="7.9172021150588989e-01" nType="0">
                  <Node pos="l" depth="6" NCoef="0" IVar="-1" Cut="0.0000000000000000e+00" cType="1" res="1.3422380434349179e-03" rms="4.2154341936111450e-01" purity="7.4460369348526001e-01" nType="-99"/>
                  <Node pos="r" depth="6" NCoef="0" IVar="3" Cut="1.0030581951141357e+00" cType="1" res="2.8754552826285362e-02" rms="3.8613188266754150e-01" purity="7.9936784505844116e-01" nType="0">
                    <Node pos="l" depth="7" NCoef="0" IVar="-1" Cut="0.0000000000000000e+00" cType="1" res="3.9454470388591290e-03" rms="3.8495504856109619e-01" purity="8.0189555883407593e-01" nType="-99"/>
                    <Node pos="r" depth="7" NCoef="0" IVar="-1" Cut="0.0000000000000000e+00" cType="1" res="2.7751000598073006e-03" rms="3.8701277971267700e-01" purity="7.9732567071914673e-01" nType="-99"/>
                  </Node>
                </Node>
              </Node>
            </Node>
            <Node pos="r" depth="3" NCoef="0" IVar="-1" Cut="0.0000000000000000e+00" cType="1" res="-2.4105519987642765e-03" rms="4.0656349062919617e-01" purity="7.1757405996322632e-01" nType="-99"/>
          </Node>
          <Node pos="r" depth="2" NCoef="0" IVar="-1" Cut="0.0000000000000000e+00" cType="1" res="-6.4511075615882874e-03" rms="4.0796285867691040e-01" purity="2.5773358345031738e-01" nType="-99"/>
        </Node>
      </Node>
    </BinaryTree>
    <BinaryTree type="DecisionTree" boostWeight="1.0000000000000000e+00" itree="79">
      <Node pos="s" depth="0" NCoef="0" IVar="2" Cut="6.9694526672363281e+01" cType="1" res="4.7511267475783825e-03" rms="4.0101718902587891e-01" purity="5.0005090236663818e-01" nType="0">
        <Node pos="l" depth="1" NCoef="0" IVar="5" Cut="-8.9197736978530884e-01" cType="1" res="1.3968143612146378e-02" rms="4.1014957427978516e-01" purity="6.9181382656097412e-01" nType="0">
          <Node pos="l" depth="2" NCoef="0" IVar="3" Cut="4.5137530565261841e-01" cType="1" res="1.6265586018562317e-02" rms="4.0794333815574646e-01" purity="7.1686428785324097e-01" nType="0">
            <Node pos="l" depth="3" NCoef="0" IVar="-1" Cut="0.0000000000000000e+00" cType="1" res="-4.5370720326900482e-03" rms="2.6884800195693970e-01" purity="8.1791669130325317e-02" nType="-99"/>
            <Node pos="r" depth="3" NCoef="0" IVar="6" Cut="5.8088496327400208e-02" cType="1" res="1.7235333099961281e-02" rms="4.1168338060379028e-01" purity="7.3774343729019165e-01" nType="0">
              <Node pos="l" depth="4" NCoef="0" IVar="5" Cut="-2.7700171470642090e+00" cType="1" res="1.6094563528895378e-02" rms="4.1000738739967346e-01" purity="7.4216145277023315e-01" nType="0">
                <Node pos="l" depth="5" NCoef="0" IVar="6" Cut="2.6222055777907372e-02" cType="1" res="2.2561740130186081e-02" rms="3.8662222027778625e-01" purity="7.8057682514190674e-01" nType="0">
                  <Node pos="l" depth="6" NCoef="0" IVar="3" Cut="9.1914731264114380e-01" cType="1" res="1.9157698377966881e-02" rms="3.8201141357421875e-01" purity="7.9410856962203979e-01" nType="0">
                    <Node pos="l" depth="7" NCoef="0" IVar="-1" Cut="0.0000000000000000e+00" cType="1" res="4.7745517804287374e-05" rms="4.4101530313491821e-01" purity="6.1835885047912598e-01" nType="-99"/>
                    <Node pos="r" depth="7" NCoef="0" IVar="-1" Cut="0.0000000000000000e+00" cType="1" res="2.7456029783934355e-03" rms="3.7131017446517944e-01" purity="8.2304108142852783e-01" nType="-99"/>
                  </Node>
                  <Node pos="r" depth="6" NCoef="0" IVar="-1" Cut="0.0000000000000000e+00" cType="1" res="5.4671848192811012e-03" rms="4.2694079875946045e-01" purity="6.5084165334701538e-01" nType="-99"/>
                </Node>
                <Node pos="r" depth="5" NCoef="0" IVar="1" Cut="1.4445713758468628e+00" cType="1" res="1.0880331508815289e-02" rms="4.2786124348640442e-01" purity="7.1118873357772827e-01" nType="0">
                  <Node pos="l" depth="6" NCoef="0" IVar="4" Cut="-2.5934779644012451e-01" cType="1" res="1.2937304563820362e-02" rms="4.2244216799736023e-01" purity="7.3290842771530151e-01" nType="0">
                    <Node pos="l" depth="7" NCoef="0" IVar="-1" Cut="0.0000000000000000e+00" cType="1" res="1.0170518653467298e-03" rms="4.2831107974052429e-01" purity="7.3023229837417603e-01" nType="-99"/>
                    <Node pos="r" depth="7" NCoef="0" IVar="-1" Cut="0.0000000000000000e+00" cType="1" res="2.0826230756938457e-03" rms="4.1116949915885925e-01" purity="7.3791998624801636e-01" nType="-99"/>
                  </Node>
                  <Node pos="r" depth="6" NCoef="0" IVar="1" Cut="2.2718617916107178e+00" cType="1" res="-8.7406318634748459e-03" rms="4.7601807117462158e-01" purity="5.0401037931442261e-01" nType="0">
                    <Node pos="l" depth="7" NCoef="0" IVar="-1" Cut="0.0000000000000000e+00" cType="1" res="1.1221743625355884e-04" rms="4.7620373964309692e-01" purity="5.2299088239669800e-01" nType="-99"/>
                    <Node pos="r" depth="7" NCoef="0" IVar="-1" Cut="0.0000000000000000e+00" cType="1" res="-1.7165744211524725e-03" rms="4.7563716769218445e-01" purity="4.8561114072799683e-01" nType="-99"/>
                  </Node>
                </Node>
              </Node>
              <Node pos="r" depth="4" NCoef="0" IVar="-1" Cut="0.0000000000000000e+00" cType="1" res="4.3071843683719635e-03" rms="4.6070387959480286e-01" purity="5.9612500667572021e-01" nType="-99"/>
            </Node>
          </Node>
          <Node pos="r" depth="2" NCoef="0" IVar="3" Cut="7.1910995244979858e-01" cType="1" res="-1.2563589960336685e-02" rms="4.3393719196319580e-01" purity="4.0252158045768738e-01" nType="0">
            <Node pos="l" depth="3" NCoef="0" IVar="-1" Cut="0.0000000000000000e+00" cType="1" res="1.2599066831171513e-03" rms="3.1016597151756287e-01" purity="1.3939559459686279e-01" nType="-99"/>
            <Node pos="r" depth="3" NCoef="0" IVar="5" Cut="-3.9612454175949097e-01" cType="1" res="-1.9943026825785637e-02" rms="4.7584110498428345e-01" purity="5.1196962594985962e-01" nType="0">
              <Node pos="l" depth="4" NCoef="0" IVar="-1" Cut="0.0000000000000000e+00" cType="1" res="-8.8400923414155841e-04" rms="4.7908857464790344e-01" purity="5.6127381324768066e-01" nType="-99"/>
              <Node pos="r" depth="4" NCoef="0" IVar="-1" Cut="0.0000000000000000e+00" cType="1" res="-3.1713491771370173e-03" rms="4.7103768587112427e-01" purity="4.4493672251701355e-01" nType="-99"/>
            </Node>
          </Node>
        </Node>
        <Node pos="r" depth="1" NCoef="0" IVar="4" Cut="1.7983483076095581e+00" cType="1" res="-3.6762498784810305e-03" rms="3.9229181408882141e-01" purity="3.2471674680709839e-01" nType="0">
          <Node pos="l" depth="2" NCoef="0" IVar="6" Cut="4.9378652125597000e-02" cType="1" res="-1.1655761627480388e-03" rms="4.1279771924018860e-01" purity="3.6499419808387756e-01" nType="0">
            <Node pos="l" depth="3" NCoef="0" IVar="4" Cut="-1.1454838514328003e+00" cType="1" res="-1.3616333715617657e-02" rms="4.2939293384552002e-01" purity="5.0296461582183838e-01" nType="0">
              <Node pos="l" depth="4" NCoef="0" IVar="3" Cut="8.0223327875137329e-01" cType="1" res="-3.1281316187232733e-03" rms="4.3995782732963562e-01" purity="6.0300451517105103e-01" nType="0">
                <Node pos="l" depth="5" NCoef="0" IVar="4" Cut="-2.1016023159027100e+00" cType="1" res="-1.7724344506859779e-02" rms="4.3762317299842834e-01" purity="3.9962351322174072e-01" nType="0">
                  <Node pos="l" depth="6" NCoef="0" IVar="-1" Cut="0.0000000000000000e+00" cType="1" res="-2.7198242023587227e-03" rms="4.4283154606819153e-01" purity="4.4218218326568604e-01" nType="-99"/>
                  <Node pos="r" depth="6" NCoef="0" IVar="-1" Cut="0.0000000000000000e+00" cType="1" res="-1.3747136108577251e-03" rms="4.3250927329063416e-01" purity="3.5913032293319702e-01" nType="-99"/>
                </Node>
                <Node pos="r" depth="5" NCoef="0" IVar="6" Cut="2.9025277122855186e-02" cType="1" res="4.3293065391480923e-03" rms="4.4095942378044128e-01" purity="7.0691514015197754e-01" nType="0">
                  <Node pos="l" depth="6" NCoef="0" IVar="-1" Cut="0.0000000000000000e+00" cType="1" res="-1.3543782988563180e-03" rms="4.4565036892890930e-01" purity="6.8932509422302246e-01" nType="-99"/>
                  <Node pos="r" depth="6" NCoef="0" IVar="5" Cut="-2.1957190036773682e+00" cType="1" res="9.9693397060036659e-03" rms="4.3918484449386597e-01" purity="7.1299731731414795e-01" nType="0">
                    <Node pos="l" depth="7" NCoef="0" IVar="-1" Cut="0.0000000000000000e+00" cType="1" res="4.9471692182123661e-04" rms="4.3002647161483765e-01" purity="7.3082184791564941e-01" nType="-99"/>
                    <Node pos="r" depth="7" NCoef="0" IVar="-1" Cut="0.0000000000000000e+00" cType="1" res="2.0353191066533327e-03" rms="4.5619583129882812e-01" purity="6.7850500345230103e-01" nType="-99"/>
                  </Node>
                </Node>
              </Node>
              <Node pos="r" depth="4" NCoef="0" IVar="6" Cut="3.1342130154371262e-02" cType="1" res="-3.1104642897844315e-02" rms="4.1057813167572021e-01" purity="3.3615547418594360e-01" nType="0">
                <Node pos="l" depth="5" NCoef="0" IVar="-1" Cut="0.0000000000000000e+00" cType="1" res="-8.0776438117027283e-03" rms="4.0471273660659790e-01" purity="3.0912148952484131e-01" nType="-99"/>
                <Node pos="r" depth="5" NCoef="0" IVar="4" Cut="-6.0182004235684872e-03" cType="1" res="-2.0749699324369431e-02" rms="4.1217151284217834e-01" purity="3.4586128592491150e-01" nType="0">
                  <Node pos="l" depth="6" NCoef="0" IVar="-1" Cut="0.0000000000000000e+00" cType="1" res="-1.6560972435399890e-03" rms="4.2521384358406067e-01" purity="3.9305794239044189e-01" nType="-99"/>
                  <Node pos="r" depth="6" NCoef="0" IVar="-1" Cut="0.0000000000000000e+00" cType="1" res="-4.2876172810792923e-03" rms="3.9548876881599426e-01" purity="2.8832787275314331e-01" nType="-99"/>
                </Node>
              </Node>
            </Node>
            <Node pos="r" depth="3" NCoef="0" IVar="0" Cut="1.6120336055755615e+00" cType="1" res="2.6913918554782867e-03" rms="4.0744262933731079e-01" purity="3.2225403189659119e-01" nType="0">
              <Node pos="l" depth="4" NCoef="0" IVar="2" Cut="3.3948150634765625e+02" cType="1" res="7.0947832427918911e-03" rms="4.4294422864913940e-01" purity="4.0350544452667236e-01" nType="0">
                <Node pos="l" depth="5" NCoef="0" IVar="6" Cut="7.1715362370014191e-02" cType="1" res="1.1169309727847576e-02" rms="4.4775050878524780e-01" purity="4.3864876031875610e-01" nType="0">
                  <Node pos="l" depth="6" NCoef="0" IVar="0" Cut="2.5996962189674377e-01" cType="1" res="2.7739703655242920e-03" rms="4.4432485103607178e-01" purity="4.8751091957092285e-01" nType="0">
                    <Node pos="l" depth="7" NCoef="0" IVar="-1" Cut="0.0000000000000000e+00" cType="1" res="1.9847366493195295e-03" rms="4.5628476142883301e-01" purity="6.7294019460678101e-01" nType="-99"/>
                    <Node pos="r" depth="7" NCoef="0" IVar="-1" Cut="0.0000000000000000e+00" cType="1" res="-1.3322161976248026e-03" rms="4.3440756201744080e-01" purity="3.4517425298690796e-01" nType="-99"/>
                  </Node>
                  <Node pos="r" depth="6" NCoef="0" IVar="1" Cut="-1.9696319103240967e-01" cType="1" res="1.7129417508840561e-02" rms="4.5007163286209106e-01" purity="4.0395995974540710e-01" nType="0">
                    <Node pos="l" depth="7" NCoef="0" IVar="-1" Cut="0.0000000000000000e+00" cType="1" res="3.2741865143179893e-03" rms="4.6828478574752808e-01" purity="5.1973873376846313e-01" nType="-99"/>
                    <Node pos="r" depth="7" NCoef="0" IVar="-1" Cut="0.0000000000000000e+00" cType="1" res="1.4427517307922244e-03" rms="4.4543769955635071e-01" purity="3.7588652968406677e-01" nType="-99"/>
                  </Node>
                </Node>
                <Node pos="r" depth="5" NCoef="0" IVar="6" Cut="1.1185225099325180e-01" cType="1" res="-4.5030065812170506e-03" rms="4.2875698208808899e-01" purity="3.0347305536270142e-01" nType="0">
                  <Node pos="l" depth="6" NCoef="0" IVar="2" Cut="4.1185873413085938e+02" cType="1" res="-1.5683900564908981e-02" rms="4.2887759208679199e-01" purity="3.3544826507568359e-01" nType="0">
                    <Node pos="l" depth="7" NCoef="0" IVar="-1" Cut="0.0000000000000000e+00" cType="1" res="-6.2741659348830581e-04" rms="4.3438836932182312e-01" purity="3.5724434256553650e-01" nType="-99"/>
                    <Node pos="r" depth="7" NCoef="0" IVar="-1" Cut="0.0000000000000000e+00" cType="1" res="-3.6987820640206337e-03" rms="4.2121547460556030e-01" purity="3.0714178085327148e-01" nType="-99"/>
                  </Node>
                  <Node pos="r" depth="6" NCoef="0" IVar="0" Cut="7.7993506193161011e-01" cType="1" res="1.7765987431630492e-03" rms="4.2856132984161377e-01" purity="2.8551459312438965e-01" nType="0">
                    <Node pos="l" depth="7" NCoef="0" IVar="-1" Cut="0.0000000000000000e+00" cType="1" res="1.5441911527886987e-03" rms="4.6965271234512329e-01" purity="3.8640537858009338e-01" nType="-99"/>
                    <Node pos="r" depth="7" NCoef="0" IVar="-1" Cut="0.0000000000000000e+00" cType="1" res="-1.5058681601658463e-03" rms="3.8906624913215637e-01" purity="1.9796070456504822e-01" nType="-99"/>
                  </Node>
                </Node>
              </Node>
              <Node pos="r" depth="4" NCoef="0" IVar="3" Cut="3.9992949366569519e-01" cType="1" res="-9.4265453517436981e-03" rms="2.8762382268905640e-01" purity="9.8653756082057953e-02" nType="0">
                <Node pos="l" depth="5" NCoef="0" IVar="7" Cut="4.0000000000000000e+00" cType="1" res="-5.8859959244728088e-03" rms="2.6648059487342834e-01" purity="8.5399344563484192e-02" nType="0">
                  <Node pos="l" depth="6" NCoef="0" IVar="-1" Cut="0.0000000000000000e+00" cType="1" res="7.9363323748111725e-03" rms="3.3955916762351990e-01" purity="1.4965720474720001e-01" nType="-99"/>
                  <Node pos="r" depth="6" NCoef="0" IVar="6" Cut="1.0522975772619247e-01" cType="1" res="-1.0855008848011494e-02" rms="2.5687232613563538e-01" purity="7.4944086372852325e-02" nType="0">
                    <Node pos="l" depth="7" NCoef="0" IVar="-1" Cut="0.0000000000000000e+00" cType="1" res="-1.0955261066555977e-02" rms="1.8236304819583893e-01" purity="3.4829095005989075e-02" nType="-99"/>
                    <Node pos="r" depth="7" NCoef="0" IVar="-1" Cut="0.0000000000000000e+00" cType="1" res="-2.0755927544087172e-03" rms="2.8858831524848938e-01" purity="9.6215009689331055e-02" nType="-99"/>
                  </Node>
                </Node>
                <Node pos="r" depth="5" NCoef="0" IVar="-1" Cut="0.0000000000000000e+00" cType="1" res="-5.8555607683956623e-03" rms="3.7675926089286804e-01" purity="1.8116685748100281e-01" nType="-99"/>
              </Node>
            </Node>
          </Node>
          <Node pos="r" depth="2" NCoef="0" IVar="7" Cut="4.0000000000000000e+00" cType="1" res="-2.1675642579793930e-02" rms="1.9313640892505646e-01" purity="4.2836934328079224e-02" nType="0">
            <Node pos="l" depth="3" NCoef="0" IVar="-1" Cut="0.0000000000000000e+00" cType="1" res="-1.4085490256547928e-02" rms="2.3420760035514832e-01" purity="6.3796363770961761e-02" nType="-99"/>
            <Node pos="r" depth="3" NCoef="0" IVar="3" Cut="2.1910896897315979e-01" cType="1" res="-1.3775033876299858e-02" rms="1.8142460286617279e-01" purity="3.6821100860834122e-02" nType="0">
              <Node pos="l" depth="4" NCoef="0" IVar="-1" Cut="0.0000000000000000e+00" cType="1" res="-1.6369024524465203e-03" rms="2.1664391458034515e-01" purity="5.3297348320484161e-02" nType="-99"/>
              <Node pos="r" depth="4" NCoef="0" IVar="4" Cut="2.6836137771606445e+00" cType="1" res="-1.6550781205296516e-02" rms="1.7123560607433319e-01" purity="3.2643001526594162e-02" nType="0">
                <Node pos="l" depth="5" NCoef="0" IVar="-1" Cut="0.0000000000000000e+00" cType="1" res="-1.9436432048678398e-03" rms="2.2548298537731171e-01" purity="5.9866752475500107e-02" nType="-99"/>
                <Node pos="r" depth="5" NCoef="0" IVar="2" Cut="3.7108041381835938e+02" cType="1" res="-2.3128362372517586e-02" rms="1.3301084935665131e-01" purity="1.8088605254888535e-02" nType="0">
                  <Node pos="l" depth="6" NCoef="0" IVar="-1" Cut="0.0000000000000000e+00" cType="1" res="-1.4114100486040115e-02" rms="1.3911820948123932e-01" purity="1.9746948033571243e-02" nType="-99"/>
                  <Node pos="r" depth="6" NCoef="0" IVar="-1" Cut="0.0000000000000000e+00" cType="1" res="-1.8567422404885292e-02" rms="1.2241467833518982e-01" purity="1.5475632622838020e-02" nType="-99"/>
                </Node>
              </Node>
            </Node>
          </Node>
        </Node>
      </Node>
    </BinaryTree>
    <BinaryTree type="DecisionTree" boostWeight="1.0000000000000000e+00" itree="80">
      <Node pos="s" depth="0" NCoef="0" IVar="1" Cut="1.1168624460697174e-01" cType="1" res="4.3959543108940125e-03" rms="4.0053468942642212e-01" purity="5.0051116943359375e-01" nType="0">
        <Node pos="l" depth="1" NCoef="0" IVar="5" Cut="-1.5441930294036865e+00" cType="1" res="1.4433035627007484e-02" rms="4.0876784920692444e-01" purity="6.5158802270889282e-01" nType="0">
          <Node pos="l" depth="2" NCoef="0" IVar="4" Cut="-2.7679190635681152e+00" cType="1" res="1.7879361286759377e-02" rms="4.0383812785148621e-01" purity="7.0936703681945801e-01" nType="0">
            <Node pos="l" depth="3" NCoef="0" IVar="-1" Cut="0.0000000000000000e+00" cType="1" res="4.6445941552519798e-03" rms="3.8954457640647888e-01" purity="7.9190331697463989e-01" nType="-99"/>
            <Node pos="r" depth="3" NCoef="0" IVar="4" Cut="-1.2899066209793091e+00" cType="1" res="1.6311233863234520e-02" rms="4.0481200814247131e-01" purity="7.0337104797363281e-01" nType="0">
              <Node pos="l" depth="4" NCoef="0" IVar="5" Cut="-3.1653048992156982e+00" cType="1" res="8.5718892514705658e-03" rms="4.2835757136344910e-01" purity="6.7766541242599487e-01" nType="0">
                <Node pos="l" depth="5" NCoef="0" IVar="-1" Cut="0.0000000000000000e+00" cType="1" res="-3.0432522762566805e-03" rms="4.1019093990325928e-01" purity="5.7654553651809692e-01" nType="-99"/>
                <Node pos="r" depth="5" NCoef="0" IVar="4" Cut="-2.4341342449188232e+00" cType="1" res="1.2999380007386208e-02" rms="4.3040347099304199e-01" purity="6.9048440456390381e-01" nType="0">
                  <Node pos="l" depth="6" NCoef="0" IVar="-1" Cut="0.0000000000000000e+00" cType="1" res="2.8190533630549908e-03" rms="4.2670851945877075e-01" purity="7.1673291921615601e-01" nType="-99"/>
                  <Node pos="r" depth="6" NCoef="0" IVar="2" Cut="6.0115901947021484e+01" cType="1" res="8.8193155825138092e-03" rms="4.3144583702087402e-01" purity="6.8242228031158447e-01" nType="0">
                    <Node pos="l" depth="7" NCoef="0" IVar="-1" Cut="0.0000000000000000e+00" cType="1" res="1.6409537056460977e-03" rms="4.0935561060905457e-01" purity="7.7041399478912354e-01" nType="-99"/>
                    <Node pos="r" depth="7" NCoef="0" IVar="-1" Cut="0.0000000000000000e+00" cType="1" res="3.0708478880114853e-04" rms="4.4792249798774719e-01" purity="6.1341488361358643e-01" nType="-99"/>
                  </Node>
                </Node>
              </Node>
              <Node pos="r" depth="4" NCoef="0" IVar="7" Cut="4.0000000000000000e+00" cType="1" res="2.0339736714959145e-02" rms="3.9158847928047180e-01" purity="7.1692728996276855e-01" nType="0">
                <Node pos="l" depth="5" NCoef="0" IVar="3" Cut="6.4573937654495239e-01" cType="1" res="1.8906019628047943e-02" rms="3.8519385457038879e-01" purity="7.7887052297592163e-01" nType="0">
                  <Node pos="l" depth="6" NCoef="0" IVar="-1" Cut="0.0000000000000000e+00" cType="1" res="-1.7484044656157494e-03" rms="4.5955228805541992e-01" purity="3.5888758301734924e-01" nType="-99"/>
                  <Node pos="r" depth="6" NCoef="0" IVar="3" Cut="8.5584920644760132e-01" cType="1" res="2.1688986569643021e-02" rms="3.7864497303962708e-01" purity="8.1160032749176025e-01" nType="0">
                    <Node pos="l" depth="7" NCoef="0" IVar="-1" Cut="0.0000000000000000e+00" cType="1" res="1.4855257468298078e-03" rms="4.6288919448852539e-01" purity="6.6315859556198120e-01" nType="-99"/>
                    <Node pos="r" depth="7" NCoef="0" IVar="-1" Cut="0.0000000000000000e+00" cType="1" res="3.0931183136999607e-03" rms="3.5652846097946167e-01" purity="8.4562754631042480e-01" nType="-99"/>
                  </Node>
                </Node>
                <Node pos="r" depth="5" NCoef="0" IVar="3" Cut="4.1704061627388000e-01" cType="1" res="2.9459027573466301e-02" rms="4.2955029010772705e-01" purity="3.3917313814163208e-01" nType="0">
                  <Node pos="l" depth="6" NCoef="0" IVar="-1" Cut="0.0000000000000000e+00" cType="1" res="8.7989785242825747e-04" rms="3.4024769067764282e-01" purity="1.4900681376457214e-01" nType="-99"/>
                  <Node pos="r" depth="6" NCoef="0" IVar="-1" Cut="0.0000000000000000e+00" cType="1" res="4.6058488078415394e-03" rms="4.7357007861137390e-01" purity="4.5082536339759827e-01" nType="-99"/>
                </Node>
              </Node>
            </Node>
          </Node>
          <Node pos="r" depth="2" NCoef="0" IVar="5" Cut="6.4140689373016357e-01" cType="1" res="1.9159016665071249e-03" rms="4.2595887184143066e-01" purity="4.4173315167427063e-01" nType="0">
            <Node pos="l" depth="3" NCoef="0" IVar="4" Cut="5.3571909666061401e-01" cType="1" res="5.3004291839897633e-03" rms="4.4669523835182190e-01" purity="5.0014334917068481e-01" nType="0">
              <Node pos="l" depth="4" NCoef="0" IVar="6" Cut="5.1507934927940369e-02" cType="1" res="-2.0568573381751776e-03" rms="4.5614618062973022e-01" purity="5.5453878641128540e-01" nType="0">
                <Node pos="l" depth="5" NCoef="0" IVar="3" Cut="8.7783539295196533e-01" cType="1" res="-1.0795045644044876e-02" rms="4.6060055494308472e-01" purity="6.3468742370605469e-01" nType="0">
                  <Node pos="l" depth="6" NCoef="0" IVar="-1" Cut="0.0000000000000000e+00" cType="1" res="-2.4533746764063835e-03" rms="4.7126978635787964e-01" purity="5.2480936050415039e-01" nType="-99"/>
                  <Node pos="r" depth="6" NCoef="0" IVar="-1" Cut="0.0000000000000000e+00" cType="1" res="-3.1380413565784693e-04" rms="4.5471823215484619e-01" purity="6.9233644008636475e-01" nType="-99"/>
                </Node>
                <Node pos="r" depth="5" NCoef="0" IVar="4" Cut="-2.2141613066196442e-01" cType="1" res="1.0205809958279133e-02" rms="4.4953447580337524e-01" purity="4.4206273555755615e-01" nType="0">
                  <Node pos="l" depth="6" NCoef="0" IVar="-1" Cut="0.0000000000000000e+00" cType="1" res="2.4408653844147921e-03" rms="4.5900267362594604e-01" purity="5.0035506486892700e-01" nType="-99"/>
                  <Node pos="r" depth="6" NCoef="0" IVar="-1" Cut="0.0000000000000000e+00" cType="1" res="-3.5800205660052598e-04" rms="4.4029170274734497e-01" purity="3.8888520002365112e-01" nType="-99"/>
                </Node>
              </Node>
              <Node pos="r" depth="4" NCoef="0" IVar="3" Cut="6.5845340490341187e-01" cType="1" res="2.2217210382223129e-02" rms="4.2368215322494507e-01" purity="3.7507066130638123e-01" nType="0">
                <Node pos="l" depth="5" NCoef="0" IVar="-1" Cut="0.0000000000000000e+00" cType="1" res="2.2289960179477930e-03" rms="3.6870434880256653e-01" purity="1.9441950321197510e-01" nType="-99"/>
                <Node pos="r" depth="5" NCoef="0" IVar="-1" Cut="0.0000000000000000e+00" cType="1" res="3.0646121595054865e-03" rms="4.7433286905288696e-01" purity="5.6459254026412964e-01" nType="-99"/>
              </Node>
            </Node>
            <Node pos="r" depth="3" NCoef="0" IVar="-1" Cut="0.0000000000000000e+00" cType="1" res="-5.4301666095852852e-03" rms="2.7171811461448669e-01" purity="9.5898598432540894e-02" nType="-99"/>
          </Node>
        </Node>
        <Node pos="r" depth="1" NCoef="0" IVar="5" Cut="-1.5001565217971802e+00" cType="1" res="-2.3565744049847126e-03" rms="3.9475560188293457e-01" purity="3.9887300133705139e-01" nType="0">
          <Node pos="l" depth="2" NCoef="0" IVar="3" Cut="6.4545428752899170e-01" cType="1" res="2.4419443216174841e-03" rms="4.1419643163681030e-01" purity="4.8121905326843262e-01" nType="0">
            <Node pos="l" depth="3" NCoef="0" IVar="6" Cut="3.8563001900911331e-02" cType="1" res="-6.3383197411894798e-03" rms="3.5793933272361755e-01" purity="1.7783440649509430e-01" nType="0">
              <Node pos="l" depth="4" NCoef="0" IVar="-1" Cut="0.0000000000000000e+00" cType="1" res="-5.7401512749493122e-03" rms="3.2276383042335510e-01" purity="1.3198187947273254e-01" nType="-99"/>
              <Node pos="r" depth="4" NCoef="0" IVar="3" Cut="5.0246316194534302e-01" cType="1" res="-3.3632121048867702e-03" rms="3.6258834600448608e-01" purity="1.8438471853733063e-01" nType="0">
                <Node pos="l" depth="5" NCoef="0" IVar="6" Cut="1.9965966045856476e-01" cType="1" res="-8.1940097734332085e-03" rms="3.1557396054267883e-01" purity="1.2334798276424408e-01" nType="0">
                  <Node pos="l" depth="6" NCoef="0" IVar="7" Cut="4.0000000000000000e+00" cType="1" res="-1.1200651526451111e-02" rms="2.9653188586235046e-01" purity="1.0678114742040634e-01" nType="0">
                    <Node pos="l" depth="7" NCoef="0" IVar="-1" Cut="0.0000000000000000e+00" cType="1" res="-7.2886045090854168e-03" rms="3.1020519137382507e-01" purity="1.1305525898933411e-01" nType="-99"/>
                    <Node pos="r" depth="7" NCoef="0" IVar="-1" Cut="0.0000000000000000e+00" cType="1" res="-1.8631187267601490e-03" rms="2.9472506046295166e-01" purity="1.0511390119791031e-01" nType="-99"/>
                  </Node>
                  <Node pos="r" depth="6" NCoef="0" IVar="-1" Cut="0.0000000000000000e+00" cType="1" res="1.7564393347129226e-03" rms="3.9968511462211609e-01" purity="2.1748681366443634e-01" nType="-99"/>
                </Node>
                <Node pos="r" depth="5" NCoef="0" IVar="7" Cut="4.0000000000000000e+00" cType="1" res="8.8598802685737610e-03" rms="4.5427837967872620e-01" purity="3.3347573876380920e-01" nType="0">
                  <Node pos="l" depth="6" NCoef="0" IVar="3" Cut="5.7627600431442261e-01" cType="1" res="-8.7762868497520685e-04" rms="4.5139229297637939e-01" purity="3.1456729769706726e-01" nType="0">
                    <Node pos="l" depth="7" NCoef="0" IVar="-1" Cut="0.0000000000000000e+00" cType="1" res="1.6398547450080514e-03" rms="4.3651363253593445e-01" purity="2.7950188517570496e-01" nType="-99"/>
                    <Node pos="r" depth="7" NCoef="0" IVar="-1" Cut="0.0000000000000000e+00" cType="1" res="-1.2814514338970184e-03" rms="4.6303334832191467e-01" purity="3.4360033273696899e-01" nType="-99"/>
                  </Node>
                  <Node pos="r" depth="6" NCoef="0" IVar="-1" Cut="0.0000000000000000e+00" cType="1" res="2.3170672357082367e-03" rms="4.6521452069282532e-01" purity="3.5996183753013611e-01" nType="-99"/>
                </Node>
              </Node>
            </Node>
            <Node pos="r" depth="3" NCoef="0" IVar="4" Cut="-4.0661928057670593e-01" cType="1" res="7.8582419082522392e-03" rms="4.4528365135192871e-01" purity="6.6836851835250854e-01" nType="0">
              <Node pos="l" depth="4" NCoef="0" IVar="4" Cut="-2.6576378345489502e+00" cType="1" res="2.7994096744805574e-03" rms="4.5230263471603394e-01" purity="6.5272408723831177e-01" nType="0">
                <Node pos="l" depth="5" NCoef="0" IVar="2" Cut="4.7504440307617188e+01" cType="1" res="1.7610287293791771e-02" rms="4.4921764731407166e-01" purity="6.8697947263717651e-01" nType="0">
                  <Node pos="l" depth="6" NCoef="0" IVar="-1" Cut="0.0000000000000000e+00" cType="1" res="2.0279895979911089e-03" rms="4.4144961237907410e-01" purity="7.0518934726715088e-01" nType="-99"/>
                  <Node pos="r" depth="6" NCoef="0" IVar="-1" Cut="0.0000000000000000e+00" cType="1" res="1.4912640908733010e-03" rms="4.5650061964988708e-01" purity="6.6957378387451172e-01" nType="-99"/>
                </Node>
                <Node pos="r" depth="5" NCoef="0" IVar="0" Cut="6.3548105955123901e-01" cType="1" res="5.8335630455985665e-04" rms="4.5272073149681091e-01" purity="6.4759862422943115e-01" nType="0">
                  <Node pos="l" depth="6" NCoef="0" IVar="4" Cut="-9.1490656137466431e-01" cType="1" res="2.3621632717549801e-03" rms="4.4939500093460083e-01" purity="6.7490744590759277e-01" nType="0">
                    <Node pos="l" depth="7" NCoef="0" IVar="-1" Cut="0.0000000000000000e+00" cType="1" res="-8.4325030911713839e-05" rms="4.6175271272659302e-01" purity="6.4538216590881348e-01" nType="-99"/>
                    <Node pos="r" depth="7" NCoef="0" IVar="-1" Cut="0.0000000000000000e+00" cType="1" res="1.0273716179654002e-03" rms="4.2045617103576660e-01" purity="7.4071174860000610e-01" nType="-99"/>
                  </Node>
                  <Node pos="r" depth="6" NCoef="0" IVar="-1" Cut="0.0000000000000000e+00" cType="1" res="-1.5172285493463278e-03" rms="4.8202610015869141e-01" purity="3.9553803205490112e-01" nType="-99"/>
                </Node>
              </Node>
              <Node pos="r" depth="4" NCoef="0" IVar="5" Cut="-2.4195375442504883e+00" cType="1" res="1.8721144646406174e-02" rms="4.2962336540222168e-01" purity="7.0196223258972168e-01" nType="0">
                <Node pos="l" depth="5" NCoef="0" IVar="4" Cut="-2.0642885565757751e-01" cType="1" res="2.4556837975978851e-02" rms="4.0973803400993347e-01" purity="7.5079363584518433e-01" nType="0">
                  <Node pos="l" depth="6" NCoef="0" IVar="-1" Cut="0.0000000000000000e+00" cType="1" res="1.9601373933255672e-03" rms="4.1089606285095215e-01" purity="7.4062615633010864e-01" nType="-99"/>
                  <Node pos="r" depth="6" NCoef="0" IVar="1" Cut="4.3060964345932007e-01" cType="1" res="2.7056401595473289e-02" rms="4.0928131341934204e-01" purity="7.5454789400100708e-01" nType="0">
                    <Node pos="l" depth="7" NCoef="0" IVar="-1" Cut="0.0000000000000000e+00" cType="1" res="3.7657483480870724e-03" rms="3.7790742516517639e-01" purity="8.1387966871261597e-01" nType="-99"/>
                    <Node pos="r" depth="7" NCoef="0" IVar="-1" Cut="0.0000000000000000e+00" cType="1" res="2.7609355747699738e-03" rms="4.2511221766471863e-01" purity="7.2280639410018921e-01" nType="-99"/>
                  </Node>
                </Node>
                <Node pos="r" depth="5" NCoef="0" IVar="5" Cut="-2.1229355335235596e+00" cType="1" res="1.0756443254649639e-02" rms="4.5524343848228455e-01" purity="6.3531589508056641e-01" nType="0">
                  <Node pos="l" depth="6" NCoef="0" IVar="-1" Cut="0.0000000000000000e+00" cType="1" res="2.6930395979434252e-03" rms="4.4055432081222534e-01" purity="6.8799859285354614e-01" nType="-99"/>
                  <Node pos="r" depth="6" NCoef="0" IVar="7" Cut="2.0000000000000000e+00" cType="1" res="1.0668658651411533e-03" rms="4.5537886023521423e-01" purity="6.0499691963195801e-01" nType="0">
                    <Node pos="l" depth="7" NCoef="0" IVar="-1" Cut="0.0000000000000000e+00" cType="1" res="1.5093986876308918e-03" rms="4.4667384028434753e-01" purity="6.9986712932586670e-01" nType="-99"/>
                    <Node pos="r" depth="7" NCoef="0" IVar="-1" Cut="0.0000000000000000e+00" cType="1" res="-1.2798822717741132e-03" rms="4.8062878847122192e-01" purity="4.9874094128608704e-01" nType="-99"/>
                  </Node>
                </Node>
              </Node>
            </Node>
          </Node>
          <Node pos="r" depth="2" NCoef="0" IVar="4" Cut="-6.5404945611953735e-01" cType="1" res="-1.3569498434662819e-02" rms="3.4482333064079285e-01" purity="2.0645114779472351e-01" nType="0">
            <Node pos="l" depth="3" NCoef="0" IVar="4" Cut="-1.4330614805221558e+00" cType="1" res="5.4763182997703552e-03" rms="4.5293742418289185e-01" purity="4.2404675483703613e-01" nType="0">
              <Node pos="l" depth="4" NCoef="0" IVar="-1" Cut="0.0000000000000000e+00" cType="1" res="1.8463979940861464e-03" rms="4.6890169382095337e-01" purity="4.7306787967681885e-01" nType="-99"/>
              <Node pos="r" depth="4" NCoef="0" IVar="-1" Cut="0.0000000000000000e+00" cType="1" res="-6.8395439302548766e-04" rms="4.3807280063629150e-01" purity="3.8086441159248352e-01" nType="-99"/>
            </Node>
            <Node pos="r" depth="3" NCoef="0" IVar="5" Cut="6.8877917528152466e-01" cType="1" res="-1.6783412545919418e-02" rms="3.2292002439498901e-01" purity="1.6973267495632172e-01" nType="0">
              <Node pos="l" depth="4" NCoef="0" IVar="1" Cut="2.6571202278137207e+00" cType="1" res="-1.3064959086477757e-02" rms="3.6952883005142212e-01" purity="2.3072569072246552e-01" nType="0">
                <Node pos="l" depth="5" NCoef="0" IVar="0" Cut="1.5987918376922607e+00" cType="1" res="-1.0475205257534981e-02" rms="3.7416139245033264e-01" purity="2.4127414822578430e-01" nType="0">
                  <Node pos="l" depth="6" NCoef="0" IVar="0" Cut="9.7987985610961914e-01" cType="1" res="-6.6245044581592083e-03" rms="4.1668441891670227e-01" purity="3.1122437119483948e-01" nType="0">
                    <Node pos="l" depth="7" NCoef="0" IVar="-1" Cut="0.0000000000000000e+00" cType="1" res="-1.2287041172385216e-03" rms="4.4390183687210083e-01" purity="3.7050577998161316e-01" nType="-99"/>
                    <Node pos="r" depth="7" NCoef="0" IVar="-1" Cut="0.0000000000000000e+00" cType="1" res="1.6847150400280952e-03" rms="3.1888177990913391e-01" purity="1.2974968552589417e-01" nType="-99"/>
                  </Node>
                  <Node pos="r" depth="6" NCoef="0" IVar="1" Cut="1.1789121627807617e+00" cType="1" res="-2.0530050620436668e-02" rms="2.2813451290130615e-01" purity="5.8622069656848907e-02" nType="0">
                    <Node pos="l" depth="7" NCoef="0" IVar="-1" Cut="0.0000000000000000e+00" cType="1" res="-1.0124619118869305e-02" rms="2.2023187577724457e-01" purity="5.5295765399932861e-02" nType="-99"/>
                    <Node pos="r" depth="7" NCoef="0" IVar="-1" Cut="0.0000000000000000e+00" cType="1" res="-6.3725770451128483e-03" rms="2.3770208656787872e-01" purity="6.2854096293449402e-02" nType="-99"/>
                  </Node>
                </Node>
                <Node pos="r" depth="5" NCoef="0" IVar="-1" Cut="0.0000000000000000e+00" cType="1" res="-7.7754170633852482e-03" rms="3.2241606712341309e-01" purity="1.3287065923213959e-01" nType="-99"/>
              </Node>
              <Node pos="r" depth="4" NCoef="0" IVar="3" Cut="4.5964831113815308e-01" cType="1" res="-2.4808067828416824e-02" rms="1.8583141267299652e-01" purity="3.8105919957160950e-02" nType="0">
                <Node pos="l" depth="5" NCoef="0" IVar="3" Cut="2.3086947202682495e-01" cType="1" res="-1.3274541124701500e-02" rms="1.5934582054615021e-01" purity="2.7848279103636742e-02" nType="0">
                  <Node pos="l" depth="6" NCoef="0" IVar="-1" Cut="0.0000000000000000e+00" cType="1" res="3.7007157225161791e-03" rms="2.2371402382850647e-01" purity="5.7818755507469177e-02" nType="-99"/>
                  <Node pos="r" depth="6" NCoef="0" IVar="3" Cut="3.3419331908226013e-01" cType="1" res="-2.0842310041189194e-02" rms="1.2468343973159790e-01" purity="1.6129149124026299e-02" nType="0">
                    <Node pos="l" depth="7" NCoef="0" IVar="-1" Cut="0.0000000000000000e+00" cType="1" res="-1.4133216813206673e-02" rms="1.3223050534725189e-01" purity="1.8613506108522415e-02" nType="-99"/>
                    <Node pos="r" depth="7" NCoef="0" IVar="-1" Cut="0.0000000000000000e+00" cType="1" res="-1.9448094069957733e-02" rms="1.1494871973991394e-01" purity="1.3206925243139267e-02" nType="-99"/>
                  </Node>
                </Node>
                <Node pos="r" depth="5" NCoef="0" IVar="-1" Cut="0.0000000000000000e+00" cType="1" res="-1.5478167682886124e-02" rms="2.4784830212593079e-01" purity="7.0212185382843018e-02" nType="-99"/>
              </Node>
            </Node>
          </Node>
        </Node>
      </Node>
    </BinaryTree>
    <BinaryTree type="DecisionTree" boostWeight="1.0000000000000000e+00" itree="81">
      <Node pos="s" depth="0" NCoef="0" IVar="1" Cut="1.6120876371860504e-01" cType="1" res="4.5021432451903820e-03" rms="4.0002217888832092e-01" purity="4.9961149692535400e-01" nType="0">
        <Node pos="l" depth="1" NCoef="0" IVar="2" Cut="1.9059664916992188e+02" cType="1" res="1.4343112707138062e-02" rms="4.0796488523483276e-01" purity="6.4658111333847046e-01" nType="0">
          <Node pos="l" depth="2" NCoef="0" IVar="0" Cut="1.2823506593704224e+00" cType="1" res="1.8504371866583824e-02" rms="4.0496242046356201e-01" purity="7.2087991237640381e-01" nType="0">
            <Node pos="l" depth="3" NCoef="0" IVar="3" Cut="5.8846998214721680e-01" cType="1" res="1.9407644867897034e-02" rms="4.0692019462585449e-01" purity="7.4118959903717041e-01" nType="0">
              <Node pos="l" depth="4" NCoef="0" IVar="-1" Cut="0.0000000000000000e+00" cType="1" res="2.5354218087159097e-04" rms="4.3588963150978088e-01" purity="3.0051463842391968e-01" nType="-99"/>
              <Node pos="r" depth="4" NCoef="0" IVar="7" Cut="3.0000000000000000e+00" cType="1" res="1.6930593177676201e-02" rms="3.5015925765037537e-01" purity="7.6724350452423096e-01" nType="0">
                <Node pos="l" depth="5" NCoef="0" IVar="3" Cut="8.7333774566650391e-01" cType="1" res="1.8223781138658524e-02" rms="3.9525184035301208e-01" purity="7.8870570659637451e-01" nType="0">
                  <Node pos="l" depth="6" NCoef="0" IVar="6" Cut="4.7682419419288635e-02" cType="1" res="8.4305480122566223e-03" rms="4.5027303695678711e-01" purity="6.8414813280105591e-01" nType="0">
                    <Node pos="l" depth="7" NCoef="0" IVar="-1" Cut="0.0000000000000000e+00" cType="1" res="-9.4713112048339099e-05" rms="4.4938060641288757e-01" purity="6.8710136413574219e-01" nType="-99"/>
                    <Node pos="r" depth="7" NCoef="0" IVar="-1" Cut="0.0000000000000000e+00" cType="1" res="1.9995684269815683e-03" rms="4.5126301050186157e-01" purity="6.7958354949951172e-01" nType="-99"/>
                  </Node>
                  <Node pos="r" depth="6" NCoef="0" IVar="6" Cut="3.1085312366485596e-02" cType="1" res="2.1205175668001175e-02" rms="3.7685954570770264e-01" purity="8.2053655385971069e-01" nType="0">
                    <Node pos="l" depth="7" NCoef="0" IVar="-1" Cut="0.0000000000000000e+00" cType="1" res="2.4298634380102158e-03" rms="3.7615892291069031e-01" purity="8.2142269611358643e-01" nType="-99"/>
                    <Node pos="r" depth="7" NCoef="0" IVar="-1" Cut="0.0000000000000000e+00" cType="1" res="5.4653682745993137e-03" rms="3.8557070493698120e-01" purity="8.0834645032882690e-01" nType="-99"/>
                  </Node>
                </Node>
                <Node pos="r" depth="5" NCoef="0" IVar="2" Cut="7.4579124450683594e+01" cType="1" res="3.4943234175443649e-02" rms="4.6452996134757996e-01" purity="6.2618035078048706e-01" nType="0">
                  <Node pos="l" depth="6" NCoef="0" IVar="-1" Cut="0.0000000000000000e+00" cType="1" res="5.0579756498336792e-03" rms="4.5535853505134583e-01" purity="6.6531085968017578e-01" nType="-99"/>
                  <Node pos="r" depth="6" NCoef="0" IVar="6" Cut="5.3419470787048340e-02" cType="1" res="2.0131478086113930e-02" rms="4.7028407454490662e-01" purity="5.9876191616058350e-01" nType="0">
                    <Node pos="l" depth="7" NCoef="0" IVar="-1" Cut="0.0000000000000000e+00" cType="1" res="1.0417423909530044e-03" rms="4.7300785779953003e-01" purity="5.7732611894607544e-01" nType="-99"/>
                    <Node pos="r" depth="7" NCoef="0" IVar="-1" Cut="0.0000000000000000e+00" cType="1" res="2.6136394590139389e-03" rms="4.6777409315109253e-01" purity="6.1721104383468628e-01" nType="-99"/>
                  </Node>
                </Node>
              </Node>
            </Node>
            <Node pos="r" depth="3" NCoef="0" IVar="-1" Cut="0.0000000000000000e+00" cType="1" res="-1.1456841602921486e-03" rms="3.4739032387733459e-01" purity="1.7523415386676788e-01" nType="-99"/>
          </Node>
          <Node pos="r" depth="2" NCoef="0" IVar="4" Cut="2.1443586051464081e-01" cType="1" res="-1.4820066280663013e-03" rms="4.1880929470062256e-01" purity="3.6402535438537598e-01" nType="0">
            <Node pos="l" depth="3" NCoef="0" IVar="5" Cut="-1.5281106233596802e+00" cType="1" res="5.6941239163279533e-03" rms="4.4837328791618347e-01" purity="4.4583016633987427e-01" nType="0">
              <Node pos="l" depth="4" NCoef="0" IVar="0" Cut="3.2077616453170776e-01" cType="1" res="2.9749223031103611e-03" rms="4.4717678427696228e-01" purity="4.5071986317634583e-01" nType="0">
                <Node pos="l" depth="5" NCoef="0" IVar="-1" Cut="0.0000000000000000e+00" cType="1" res="-7.3822826379910111e-04" rms="4.5692262053489685e-01" purity="6.6434395313262939e-01" nType="-99"/>
                <Node pos="r" depth="5" NCoef="0" IVar="5" Cut="-2.3156976699829102e+00" cType="1" res="7.7289491891860962e-03" rms="4.4243785738945007e-01" purity="3.5022196173667908e-01" nType="0">
                  <Node pos="l" depth="6" NCoef="0" IVar="6" Cut="1.1218583583831787e-01" cType="1" res="1.4115082100033760e-02" rms="4.4049528241157532e-01" purity="3.4504002332687378e-01" nType="0">
                    <Node pos="l" depth="7" NCoef="0" IVar="-1" Cut="0.0000000000000000e+00" cType="1" res="2.9837226975359954e-05" rms="4.3565601110458374e-01" purity="3.5316058993339539e-01" nType="-99"/>
                    <Node pos="r" depth="7" NCoef="0" IVar="-1" Cut="0.0000000000000000e+00" cType="1" res="3.6788757424801588e-03" rms="4.4536304473876953e-01" purity="3.3589974045753479e-01" nType="-99"/>
                  </Node>
                  <Node pos="r" depth="6" NCoef="0" IVar="-1" Cut="0.0000000000000000e+00" cType="1" res="-3.6828714655712247e-04" rms="4.4553849101066589e-01" purity="3.5911467671394348e-01" nType="-99"/>
                </Node>
              </Node>
              <Node pos="r" depth="4" NCoef="0" IVar="-1" Cut="0.0000000000000000e+00" cType="1" res="1.8504026811569929e-03" rms="4.5306718349456787e-01" purity="4.2581877112388611e-01" nType="-99"/>
            </Node>
            <Node pos="r" depth="3" NCoef="0" IVar="7" Cut="5.0000000000000000e+00" cType="1" res="-1.8466131761670113e-02" rms="3.3788365125656128e-01" purity="1.7159128189086914e-01" nType="0">
              <Node pos="l" depth="4" NCoef="0" IVar="-1" Cut="0.0000000000000000e+00" cType="1" res="-4.4510411098599434e-03" rms="3.7478041648864746e-01" purity="2.2279734909534454e-01" nType="-99"/>
              <Node pos="r" depth="4" NCoef="0" IVar="-1" Cut="0.0000000000000000e+00" cType="1" res="-1.4755176380276680e-03" rms="2.8441533446311951e-01" purity="1.0506788641214371e-01" nType="-99"/>
            </Node>
          </Node>
        </Node>
        <Node pos="r" depth="1" NCoef="0" IVar="4" Cut="-2.8487479686737061e+00" cType="1" res="-3.0064629390835762e-03" rms="3.9368879795074463e-01" purity="3.8747447729110718e-01" nType="0">
          <Node pos="l" depth="2" NCoef="0" IVar="-1" Cut="0.0000000000000000e+00" cType="1" res="4.0212986059486866e-03" rms="4.4073930382728577e-01" purity="6.5469503402709961e-01" nType="-99"/>
          <Node pos="r" depth="2" NCoef="0" IVar="1" Cut="5.5565409660339355e+00" cType="1" res="-4.2551746591925621e-03" rms="3.9213815331459045e-01" purity="3.7954902648925781e-01" nType="0">
            <Node pos="l" depth="3" NCoef="0" IVar="5" Cut="3.4857779741287231e-02" cType="1" res="-5.3721689619123936e-03" rms="3.9212158322334290e-01" purity="3.8136109709739685e-01" nType="0">
              <Node pos="l" depth="4" NCoef="0" IVar="3" Cut="7.1570873260498047e-01" cType="1" res="-3.1300797127187252e-03" rms="4.0987119078636169e-01" purity="4.2514428496360779e-01" nType="0">
                <Node pos="l" depth="5" NCoef="0" IVar="6" Cut="7.6638482511043549e-02" cType="1" res="-9.4555420801043510e-03" rms="3.6389279365539551e-01" purity="1.9262807071208954e-01" nType="0">
                  <Node pos="l" depth="6" NCoef="0" IVar="7" Cut="3.0000000000000000e+00" cType="1" res="-1.5975987538695335e-02" rms="3.5364773869514465e-01" purity="1.8232034146785736e-01" nType="0">
                    <Node pos="l" depth="7" NCoef="0" IVar="-1" Cut="0.0000000000000000e+00" cType="1" res="-6.1178733594715595e-03" rms="3.7953564524650574e-01" purity="1.9888597726821899e-01" nType="-99"/>
                    <Node pos="r" depth="7" NCoef="0" IVar="-1" Cut="0.0000000000000000e+00" cType="1" res="-2.1373101044446230e-03" rms="3.5042002797126770e-01" purity="1.7955425381660461e-01" nType="-99"/>
                  </Node>
                  <Node pos="r" depth="6" NCoef="0" IVar="2" Cut="3.7556524658203125e+02" cType="1" res="-5.2960151806473732e-03" rms="3.6953100562095642e-01" purity="1.9928379356861115e-01" nType="0">
                    <Node pos="l" depth="7" NCoef="0" IVar="-1" Cut="0.0000000000000000e+00" cType="1" res="1.3097966439090669e-04" rms="3.7867388129234314e-01" purity="2.1657745540142059e-01" nType="-99"/>
                    <Node pos="r" depth="7" NCoef="0" IVar="-1" Cut="0.0000000000000000e+00" cType="1" res="-2.8624131809920073e-03" rms="3.5358032584190369e-01" purity="1.7053866386413574e-01" nType="-99"/>
                  </Node>
                </Node>
                <Node pos="r" depth="5" NCoef="0" IVar="1" Cut="1.9016256332397461e+00" cType="1" res="3.1528363469988108e-03" rms="4.5083513855934143e-01" purity="6.5609651803970337e-01" nType="0">
                  <Node pos="l" depth="6" NCoef="0" IVar="6" Cut="5.0491835922002792e-02" cType="1" res="6.3178893178701401e-03" rms="4.4757938385009766e-01" purity="6.7592960596084595e-01" nType="0">
                    <Node pos="l" depth="7" NCoef="0" IVar="-1" Cut="0.0000000000000000e+00" cType="1" res="3.6637971061281860e-04" rms="4.4248408079147339e-01" purity="6.9210994243621826e-01" nType="-99"/>
                    <Node pos="r" depth="7" NCoef="0" IVar="-1" Cut="0.0000000000000000e+00" cType="1" res="1.7874055774882436e-03" rms="4.7310212254524231e-01" purity="5.9124767780303955e-01" nType="-99"/>
                  </Node>
                  <Node pos="r" depth="6" NCoef="0" IVar="4" Cut="-1.2278169393539429e+00" cType="1" res="-2.0923975855112076e-02" rms="4.7418069839477539e-01" purity="5.0522476434707642e-01" nType="0">
                    <Node pos="l" depth="7" NCoef="0" IVar="-1" Cut="0.0000000000000000e+00" cType="1" res="-6.6088553285226226e-04" rms="4.8317599296569824e-01" purity="5.0751417875289917e-01" nType="-99"/>
                    <Node pos="r" depth="7" NCoef="0" IVar="-1" Cut="0.0000000000000000e+00" cType="1" res="-2.8110204730182886e-03" rms="4.6827903389930725e-01" purity="5.0379335880279541e-01" nType="-99"/>
                  </Node>
                </Node>
              </Node>
              <Node pos="r" depth="4" NCoef="0" IVar="3" Cut="5.3443491458892822e-01" cType="1" res="-2.1836429834365845e-02" rms="2.2117750346660614e-01" purity="5.9849530458450317e-02" nType="0">
                <Node pos="l" depth="5" NCoef="0" IVar="6" Cut="1.5414650738239288e-01" cType="1" res="-1.2583813630044460e-02" rms="1.7716380953788757e-01" purity="3.4451223909854889e-02" nType="0">
                  <Node pos="l" depth="6" NCoef="0" IVar="5" Cut="2.4130020141601562e+00" cType="1" res="-1.6614694148302078e-02" rms="1.3618460297584534e-01" purity="1.9603099673986435e-02" nType="0">
                    <Node pos="l" depth="7" NCoef="0" IVar="-1" Cut="0.0000000000000000e+00" cType="1" res="-1.0012549348175526e-02" rms="1.6374643146991730e-01" purity="2.8513323515653610e-02" nType="-99"/>
                    <Node pos="r" depth="7" NCoef="0" IVar="-1" Cut="0.0000000000000000e+00" cType="1" res="-2.2836398333311081e-02" rms="7.2828121483325958e-02" purity="5.3506558761000633e-03" nType="-99"/>
                  </Node>
                  <Node pos="r" depth="6" NCoef="0" IVar="-1" Cut="0.0000000000000000e+00" cType="1" res="-1.9323667511343956e-03" rms="2.4018160998821259e-01" purity="6.4980901777744293e-02" nType="-99"/>
                </Node>
                <Node pos="r" depth="5" NCoef="0" IVar="-1" Cut="0.0000000000000000e+00" cType="1" res="-9.4438558444380760e-03" rms="3.3884415030479431e-01" purity="1.5762455761432648e-01" nType="-99"/>
              </Node>
            </Node>
            <Node pos="r" depth="3" NCoef="0" IVar="-1" Cut="0.0000000000000000e+00" cType="1" res="5.0672306679189205e-03" rms="3.9074844121932983e-01" purity="3.1684279441833496e-01" nType="-99"/>
          </Node>
        </Node>
      </Node>
    </BinaryTree>
    <BinaryTree type="DecisionTree" boostWeight="1.0000000000000000e+00" itree="82">
      <Node pos="s" depth="0" NCoef="0" IVar="0" Cut="3.2252842187881470e-01" cType="1" res="4.9862153828144073e-03" rms="4.0074813365936279e-01" purity="5.0032436847686768e-01" nType="0">
        <Node pos="l" depth="1" NCoef="0" IVar="0" Cut="1.9767506420612335e-01" cType="1" res="1.1227685026824474e-02" rms="4.2005991935729980e-01" purity="7.3067706823348999e-01" nType="0">
          <Node pos="l" depth="2" NCoef="0" IVar="1" Cut="1.2964895367622375e-01" cType="1" res="1.3449097983539104e-02" rms="4.1143316030502319e-01" purity="7.5668531656265259e-01" nType="0">
            <Node pos="l" depth="3" NCoef="0" IVar="7" Cut="3.0000000000000000e+00" cType="1" res="1.8551766872406006e-02" rms="3.8473555445671082e-01" purity="8.0222415924072266e-01" nType="0">
              <Node pos="l" depth="4" NCoef="0" IVar="3" Cut="8.3234113454818726e-01" cType="1" res="1.8123699352145195e-02" rms="3.8025385141372681e-01" purity="8.1656932830810547e-01" nType="0">
                <Node pos="l" depth="5" NCoef="0" IVar="-1" Cut="0.0000000000000000e+00" cType="1" res="-1.8932958482764661e-04" rms="4.4876953959465027e-01" purity="7.0087432861328125e-01" nType="-99"/>
                <Node pos="r" depth="5" NCoef="0" IVar="4" Cut="-2.4526388645172119e+00" cType="1" res="1.9471008330583572e-02" rms="3.7524598836898804e-01" purity="8.2421600818634033e-01" nType="0">
                  <Node pos="l" depth="6" NCoef="0" IVar="5" Cut="-2.5850186347961426e+00" cType="1" res="2.9714345932006836e-02" rms="3.7800773978233337e-01" purity="8.2349663972854614e-01" nType="0">
                    <Node pos="l" depth="7" NCoef="0" IVar="-1" Cut="0.0000000000000000e+00" cType="1" res="5.6905150413513184e-03" rms="3.5010406374931335e-01" purity="8.5592615604400635e-01" nType="-99"/>
                    <Node pos="r" depth="7" NCoef="0" IVar="-1" Cut="0.0000000000000000e+00" cType="1" res="1.4239270240068436e-03" rms="4.1151109337806702e-01" purity="7.8043133020401001e-01" nType="-99"/>
                  </Node>
                  <Node pos="r" depth="6" NCoef="0" IVar="4" Cut="-1.4157352447509766e+00" cType="1" res="1.7920816317200661e-02" rms="3.7480187416076660e-01" purity="8.2432484626770020e-01" nType="0">
                    <Node pos="l" depth="7" NCoef="0" IVar="-1" Cut="0.0000000000000000e+00" cType="1" res="6.4691406441852450e-04" rms="4.0854731202125549e-01" purity="7.8560668230056763e-01" nType="-99"/>
                    <Node pos="r" depth="7" NCoef="0" IVar="-1" Cut="0.0000000000000000e+00" cType="1" res="2.7173475828021765e-03" rms="3.6603382229804993e-01" purity="8.3377617597579956e-01" nType="-99"/>
                  </Node>
                </Node>
              </Node>
              <Node pos="r" depth="4" NCoef="0" IVar="2" Cut="1.0110282897949219e+02" cType="1" res="2.9482882469892502e-02" rms="4.5336860418319702e-01" purity="6.7942970991134644e-01" nType="0">
                <Node pos="l" depth="5" NCoef="0" IVar="-1" Cut="0.0000000000000000e+00" cType="1" res="3.2676791306585073e-03" rms="4.4872981309890747e-01" purity="7.0327132940292358e-01" nType="-99"/>
                <Node pos="r" depth="5" NCoef="0" IVar="-1" Cut="0.0000000000000000e+00" cType="1" res="2.2503908257931471e-03" rms="4.5731905102729797e-01" purity="6.5853273868560791e-01" nType="-99"/>
              </Node>
            </Node>
            <Node pos="r" depth="3" NCoef="0" IVar="3" Cut="8.2190221548080444e-01" cType="1" res="6.4376136288046837e-03" rms="4.3711376190185547e-01" purity="7.0222413539886475e-01" nType="0">
              <Node pos="l" depth="4" NCoef="0" IVar="6" Cut="5.7475458830595016e-02" cType="1" res="-8.4536820650100708e-03" rms="4.7872465848922729e-01" purity="5.3197675943374634e-01" nType="0">
                <Node pos="l" depth="5" NCoef="0" IVar="-1" Cut="0.0000000000000000e+00" cType="1" res="-2.4894978851079941e-03" rms="4.8182207345962524e-01" purity="5.2737480401992798e-01" nType="-99"/>
                <Node pos="r" depth="5" NCoef="0" IVar="-1" Cut="0.0000000000000000e+00" cType="1" res="1.2982630869373679e-03" rms="4.7392988204956055e-01" purity="5.3747195005416870e-01" nType="-99"/>
              </Node>
              <Node pos="r" depth="4" NCoef="0" IVar="6" Cut="3.6950144916772842e-02" cType="1" res="9.3696201220154762e-03" rms="4.2838388681411743e-01" purity="7.3574483394622803e-01" nType="0">
                <Node pos="l" depth="5" NCoef="0" IVar="3" Cut="9.9472475051879883e-01" cType="1" res="6.2542865052819252e-03" rms="4.2568024992942810e-01" purity="7.4024713039398193e-01" nType="0">
                  <Node pos="l" depth="6" NCoef="0" IVar="5" Cut="-2.8269255161285400e+00" cType="1" res="-6.3115609809756279e-03" rms="4.4291314482688904e-01" purity="7.0107769966125488e-01" nType="0">
                    <Node pos="l" depth="7" NCoef="0" IVar="-1" Cut="0.0000000000000000e+00" cType="1" res="7.8875676263123751e-04" rms="4.1701075434684753e-01" purity="7.6485311985015869e-01" nType="-99"/>
                    <Node pos="r" depth="7" NCoef="0" IVar="-1" Cut="0.0000000000000000e+00" cType="1" res="-1.4199141878634691e-03" rms="4.5744636654853821e-01" purity="6.6311758756637573e-01" nType="-99"/>
                  </Node>
                  <Node pos="r" depth="6" NCoef="0" IVar="3" Cut="1.0181386470794678e+00" cType="1" res="1.5499489381909370e-02" rms="4.1229742765426636e-01" purity="7.6906579732894897e-01" nType="0">
                    <Node pos="l" depth="7" NCoef="0" IVar="-1" Cut="0.0000000000000000e+00" cType="1" res="2.0243644248694181e-03" rms="4.1133728623390198e-01" purity="7.7253907918930054e-01" nType="-99"/>
                    <Node pos="r" depth="7" NCoef="0" IVar="-1" Cut="0.0000000000000000e+00" cType="1" res="1.2291513849049807e-04" rms="4.1577264666557312e-01" purity="7.5529664754867554e-01" nType="-99"/>
                  </Node>
                </Node>
                <Node pos="r" depth="5" NCoef="0" IVar="-1" Cut="0.0000000000000000e+00" cType="1" res="3.0175279825925827e-03" rms="4.4736996293067932e-01" purity="7.0212870836257935e-01" nType="-99"/>
              </Node>
            </Node>
          </Node>
          <Node pos="r" depth="2" NCoef="0" IVar="6" Cut="6.3227467238903046e-02" cType="1" res="-1.6029549296945333e-03" rms="4.6657067537307739e-01" purity="5.8045655488967896e-01" nType="0">
            <Node pos="l" depth="3" NCoef="0" IVar="1" Cut="1.1752134561538696e-01" cType="1" res="-1.2423635460436344e-02" rms="4.6632787585258484e-01" purity="5.9458172321319580e-01" nType="0">
              <Node pos="l" depth="4" NCoef="0" IVar="6" Cut="3.2632812857627869e-02" cType="1" res="-9.2044894699938595e-05" rms="4.5744055509567261e-01" purity="6.6660064458847046e-01" nType="0">
                <Node pos="l" depth="5" NCoef="0" IVar="-1" Cut="0.0000000000000000e+00" cType="1" res="-1.6521156067028642e-03" rms="4.5063266158103943e-01" purity="6.8551564216613770e-01" nType="-99"/>
                <Node pos="r" depth="5" NCoef="0" IVar="-1" Cut="0.0000000000000000e+00" cType="1" res="1.3531974982470274e-03" rms="4.6323448419570923e-01" purity="6.4910590648651123e-01" nType="-99"/>
              </Node>
              <Node pos="r" depth="4" NCoef="0" IVar="1" Cut="7.4719017744064331e-01" cType="1" res="-2.4182608351111412e-02" rms="4.7434902191162109e-01" purity="5.2590698003768921e-01" nType="0">
                <Node pos="l" depth="5" NCoef="0" IVar="-1" Cut="0.0000000000000000e+00" cType="1" res="-1.6165212728083134e-03" rms="4.7236850857734680e-01" purity="5.7870316505432129e-01" nType="-99"/>
                <Node pos="r" depth="5" NCoef="0" IVar="-1" Cut="0.0000000000000000e+00" cType="1" res="-3.6442428827285767e-03" rms="4.7701796889305115e-01" purity="4.4762742519378662e-01" nType="-99"/>
              </Node>
            </Node>
            <Node pos="r" depth="3" NCoef="0" IVar="2" Cut="2.0896241760253906e+02" cType="1" res="1.9096082076430321e-02" rms="4.6633580327033997e-01" purity="5.5343633890151978e-01" nType="0">
              <Node pos="l" depth="4" NCoef="0" IVar="-1" Cut="0.0000000000000000e+00" cType="1" res="3.0811131000518799e-03" rms="4.6215265989303589e-01" purity="5.9640324115753174e-01" nType="-99"/>
              <Node pos="r" depth="4" NCoef="0" IVar="-1" Cut="0.0000000000000000e+00" cType="1" res="8.2890433259308338e-04" rms="4.6951261162757874e-01" purity="5.1767528057098389e-01" nType="-99"/>
            </Node>
          </Node>
        </Node>
        <Node pos="r" depth="1" NCoef="0" IVar="2" Cut="6.9694587707519531e+01" cType="1" res="-2.0083885174244642e-03" rms="3.7781280279159546e-01" purity="2.4217580258846283e-01" nType="0">
          <Node pos="l" depth="2" NCoef="0" IVar="6" Cut="2.5611069053411484e-02" cType="1" res="9.3043809756636620e-03" rms="4.3422254920005798e-01" purity="3.8789972662925720e-01" nType="0">
            <Node pos="l" depth="3" NCoef="0" IVar="2" Cut="2.4725116729736328e+01" cType="1" res="9.0732966782525182e-04" rms="4.5130613446235657e-01" purity="4.4094482064247131e-01" nType="0">
              <Node pos="l" depth="4" NCoef="0" IVar="4" Cut="-7.9489821195602417e-01" cType="1" res="7.7643087133765221e-03" rms="4.6816840767860413e-01" purity="4.9714452028274536e-01" nType="0">
                <Node pos="l" depth="5" NCoef="0" IVar="-1" Cut="0.0000000000000000e+00" cType="1" res="-2.5839841327979229e-05" rms="4.7322100400924683e-01" purity="4.9993836879730225e-01" nType="-99"/>
                <Node pos="r" depth="5" NCoef="0" IVar="-1" Cut="0.0000000000000000e+00" cType="1" res="1.3086636317893863e-03" rms="4.6465611457824707e-01" purity="4.9526292085647583e-01" nType="-99"/>
              </Node>
              <Node pos="r" depth="4" NCoef="0" IVar="-1" Cut="0.0000000000000000e+00" cType="1" res="-3.1211571767926216e-03" rms="3.9073172211647034e-01" purity="2.5841256976127625e-01" nType="-99"/>
            </Node>
            <Node pos="r" depth="3" NCoef="0" IVar="1" Cut="2.4802854657173157e-01" cType="1" res="2.0287334918975830e-02" rms="4.1054803133010864e-01" purity="3.1851920485496521e-01" nType="0">
              <Node pos="l" depth="4" NCoef="0" IVar="-1" Cut="0.0000000000000000e+00" cType="1" res="4.2590438388288021e-03" rms="4.6218922734260559e-01" purity="4.8215094208717346e-01" nType="-99"/>
              <Node pos="r" depth="4" NCoef="0" IVar="1" Cut="1.1898360252380371e+00" cType="1" res="9.4248363748192787e-03" rms="3.8470470905303955e-01" purity="2.4528729915618896e-01" nType="0">
                <Node pos="l" depth="5" NCoef="0" IVar="-1" Cut="0.0000000000000000e+00" cType="1" res="2.8294373769313097e-03" rms="4.1417378187179565e-01" purity="3.0760461091995239e-01" nType="-99"/>
                <Node pos="r" depth="5" NCoef="0" IVar="-1" Cut="0.0000000000000000e+00" cType="1" res="-1.2362222187221050e-03" rms="3.4370464086532593e-01" purity="1.6741742193698883e-01" nType="-99"/>
              </Node>
            </Node>
          </Node>
          <Node pos="r" depth="2" NCoef="0" IVar="6" Cut="6.2049932777881622e-02" cType="1" res="-4.9588442780077457e-03" rms="3.6159878969192505e-01" purity="2.0416988432407379e-01" nType="0">
            <Node pos="l" depth="3" NCoef="0" IVar="7" Cut="3.0000000000000000e+00" cType="1" res="-1.8754400312900543e-02" rms="3.6138698458671570e-01" purity="2.1071881055831909e-01" nType="0">
              <Node pos="l" depth="4" NCoef="0" IVar="6" Cut="4.5933932065963745e-02" cType="1" res="-3.1915552914142609e-02" rms="4.4289037585258484e-01" purity="3.5183703899383545e-01" nType="0">
                <Node pos="l" depth="5" NCoef="0" IVar="-1" Cut="0.0000000000000000e+00" cType="1" res="-5.1176762208342552e-03" rms="4.3807566165924072e-01" purity="3.3765572309494019e-01" nType="-99"/>
                <Node pos="r" depth="5" NCoef="0" IVar="-1" Cut="0.0000000000000000e+00" cType="1" res="-1.8138841260224581e-03" rms="4.4784244894981384e-01" purity="3.6803719401359558e-01" nType="-99"/>
              </Node>
              <Node pos="r" depth="4" NCoef="0" IVar="3" Cut="4.9548417329788208e-01" cType="1" res="-1.3637507334351540e-02" rms="3.2253557443618774e-01" purity="1.5159061551094055e-01" nType="0">
                <Node pos="l" depth="5" NCoef="0" IVar="5" Cut="-2.4041578769683838e+00" cType="1" res="-2.2540699690580368e-02" rms="2.0151719450950623e-01" purity="4.3979350477457047e-02" nType="0">
                  <Node pos="l" depth="6" NCoef="0" IVar="-1" Cut="0.0000000000000000e+00" cType="1" res="-1.1750584468245506e-02" rms="2.1339002251625061e-01" purity="4.8245802521705627e-02" nType="-99"/>
                  <Node pos="r" depth="6" NCoef="0" IVar="-1" Cut="0.0000000000000000e+00" cType="1" res="-8.6203310638666153e-03" rms="1.9280499219894409e-01" purity="4.1068498045206070e-02" nType="-99"/>
                </Node>
                <Node pos="r" depth="5" NCoef="0" IVar="2" Cut="1.3546435546875000e+02" cType="1" res="-2.4758251383900642e-03" rms="4.2815083265304565e-01" purity="2.8649979829788208e-01" nType="0">
                  <Node pos="l" depth="6" NCoef="0" IVar="-1" Cut="0.0000000000000000e+00" cType="1" res="-1.3751046499237418e-03" rms="4.3018239736557007e-01" purity="2.8928348422050476e-01" nType="-99"/>
                  <Node pos="r" depth="6" NCoef="0" IVar="-1" Cut="0.0000000000000000e+00" cType="1" res="7.8122923150658607e-04" rms="4.2596378922462463e-01" purity="2.8375020623207092e-01" nType="-99"/>
                </Node>
              </Node>
            </Node>
            <Node pos="r" depth="3" NCoef="0" IVar="2" Cut="2.0458901977539062e+02" cType="1" res="-1.3227813178673387e-03" rms="3.6131432652473450e-01" purity="2.0247815549373627e-01" nType="0">
              <Node pos="l" depth="4" NCoef="0" IVar="3" Cut="6.4737015962600708e-01" cType="1" res="8.5374107584357262e-03" rms="3.8028946518898010e-01" purity="2.4898320436477661e-01" nType="0">
                <Node pos="l" depth="5" NCoef="0" IVar="6" Cut="1.3461424410343170e-01" cType="1" res="2.8433429542928934e-03" rms="3.5463419556617737e-01" purity="1.8700081110000610e-01" nType="0">
                  <Node pos="l" depth="6" NCoef="0" IVar="2" Cut="1.0015163421630859e+02" cType="1" res="-4.4486247934401035e-03" rms="3.4559300541877747e-01" purity="1.7579059302806854e-01" nType="0">
                    <Node pos="l" depth="7" NCoef="0" IVar="-1" Cut="0.0000000000000000e+00" cType="1" res="2.1861805580556393e-03" rms="3.7261155247688293e-01" purity="2.0996417105197906e-01" nType="-99"/>
                    <Node pos="r" depth="7" NCoef="0" IVar="-1" Cut="0.0000000000000000e+00" cType="1" res="-2.0158356055617332e-03" rms="3.3618754148483276e-01" purity="1.6471010446548462e-01" nType="-99"/>
                  </Node>
                  <Node pos="r" depth="6" NCoef="0" IVar="-1" Cut="0.0000000000000000e+00" cType="1" res="5.1291622221469879e-03" rms="3.8592520356178284e-01" purity="2.2976250946521759e-01" nType="-99"/>
                </Node>
                <Node pos="r" depth="5" NCoef="0" IVar="-1" Cut="0.0000000000000000e+00" cType="1" res="2.9585347510874271e-03" rms="4.7641736268997192e-01" purity="5.2225136756896973e-01" nType="-99"/>
              </Node>
              <Node pos="r" depth="4" NCoef="0" IVar="3" Cut="7.1458750963211060e-01" cType="1" res="-6.0887127183377743e-03" rms="3.5167685151100159e-01" purity="1.7999991774559021e-01" nType="0">
                <Node pos="l" depth="5" NCoef="0" IVar="6" Cut="1.9184401631355286e-01" cType="1" res="-4.6752388589084148e-03" rms="3.4499815106391907e-01" purity="1.6730178892612457e-01" nType="0">
                  <Node pos="l" depth="6" NCoef="0" IVar="2" Cut="3.9174981689453125e+02" cType="1" res="-9.0838894248008728e-03" rms="3.4061324596405029e-01" purity="1.6733838617801666e-01" nType="0">
                    <Node pos="l" depth="7" NCoef="0" IVar="-1" Cut="0.0000000000000000e+00" cType="1" res="-8.3998445188626647e-04" rms="3.4846901893615723e-01" purity="1.7927616834640503e-01" nType="-99"/>
                    <Node pos="r" depth="7" NCoef="0" IVar="-1" Cut="0.0000000000000000e+00" cType="1" res="-3.2641894649714231e-03" rms="3.2962256669998169e-01" purity="1.5125301480293274e-01" nType="-99"/>
                  </Node>
                  <Node pos="r" depth="6" NCoef="0" IVar="6" Cut="2.7139836549758911e-01" cType="1" res="1.1399912647902966e-02" rms="3.6007836461067200e-01" purity="1.6716830432415009e-01" nType="0">
                    <Node pos="l" depth="7" NCoef="0" IVar="-1" Cut="0.0000000000000000e+00" cType="1" res="1.0354929836466908e-03" rms="3.4498545527458191e-01" purity="1.5290352702140808e-01" nType="-99"/>
                    <Node pos="r" depth="7" NCoef="0" IVar="-1" Cut="0.0000000000000000e+00" cType="1" res="5.4233367554843426e-03" rms="3.9658227562904358e-01" purity="2.0477449893951416e-01" nType="-99"/>
                  </Node>
                </Node>
                <Node pos="r" depth="5" NCoef="0" IVar="-1" Cut="0.0000000000000000e+00" cType="1" res="-3.2732863910496235e-03" rms="4.5822381973266602e-01" purity="4.1750952601432800e-01" nType="-99"/>
              </Node>
            </Node>
          </Node>
        </Node>
      </Node>
    </BinaryTree>
    <BinaryTree type="DecisionTree" boostWeight="1.0000000000000000e+00" itree="83">
      <Node pos="s" depth="0" NCoef="0" IVar="1" Cut="1.1168624460697174e-01" cType="1" res="4.1409772820770741e-03" rms="4.0006569027900696e-01" purity="5.0015109777450562e-01" nType="0">
        <Node pos="l" depth="1" NCoef="0" IVar="5" Cut="-2.4572222232818604e+00" cType="1" res="1.3336690142750740e-02" rms="4.0811815857887268e-01" purity="6.5118402242660522e-01" nType="0">
          <Node pos="l" depth="2" NCoef="0" IVar="5" Cut="-3.3457093238830566e+00" cType="1" res="1.9349906593561172e-02" rms="3.8754928112030029e-01" purity="7.3533606529235840e-01" nType="0">
            <Node pos="l" depth="3" NCoef="0" IVar="-1" Cut="0.0000000000000000e+00" cType="1" res="-3.2999760005623102e-03" rms="3.9491131901741028e-01" purity="4.9042600393295288e-01" nType="-99"/>
            <Node pos="r" depth="3" NCoef="0" IVar="4" Cut="-2.8238646984100342e+00" cType="1" res="2.2078365087509155e-02" rms="3.8692945241928101e-01" purity="7.5022149085998535e-01" nType="0">
              <Node pos="l" depth="4" NCoef="0" IVar="-1" Cut="0.0000000000000000e+00" cType="1" res="5.6459801271557808e-03" rms="3.7066236138343811e-01" purity="8.2125115394592285e-01" nType="-99"/>
              <Node pos="r" depth="4" NCoef="0" IVar="4" Cut="-1.5546529293060303e+00" cType="1" res="2.0186793059110641e-02" rms="3.8810935616493225e-01" purity="7.4466651678085327e-01" nType="0">
                <Node pos="l" depth="5" NCoef="0" IVar="4" Cut="-2.4553806781768799e+00" cType="1" res="1.1085703969001770e-02" rms="4.1981744766235352e-01" purity="7.0235049724578857e-01" nType="0">
                  <Node pos="l" depth="6" NCoef="0" IVar="-1" Cut="0.0000000000000000e+00" cType="1" res="2.9910439625382423e-03" rms="4.0993565320968628e-01" purity="7.1840804815292358e-01" nType="-99"/>
                  <Node pos="r" depth="6" NCoef="0" IVar="6" Cut="2.4289453402161598e-02" cType="1" res="3.9028881583362818e-03" rms="4.2401006817817688e-01" purity="6.9509726762771606e-01" nType="0">
                    <Node pos="l" depth="7" NCoef="0" IVar="-1" Cut="0.0000000000000000e+00" cType="1" res="-6.6355138551443815e-04" rms="4.1214355826377869e-01" purity="7.6693898439407349e-01" nType="-99"/>
                    <Node pos="r" depth="7" NCoef="0" IVar="-1" Cut="0.0000000000000000e+00" cType="1" res="1.1993082007393241e-03" rms="4.3247029185295105e-01" purity="6.4165222644805908e-01" nType="-99"/>
                  </Node>
                </Node>
                <Node pos="r" depth="5" NCoef="0" IVar="6" Cut="3.7929523736238480e-02" cType="1" res="2.3856965824961662e-02" rms="3.7450122833251953e-01" purity="7.6173126697540283e-01" nType="0">
                  <Node pos="l" depth="6" NCoef="0" IVar="3" Cut="1.0052006244659424e+00" cType="1" res="2.0603155717253685e-02" rms="3.5149967670440674e-01" purity="8.3996427059173584e-01" nType="0">
                    <Node pos="l" depth="7" NCoef="0" IVar="-1" Cut="0.0000000000000000e+00" cType="1" res="2.3868607822805643e-03" rms="3.5767874121665955e-01" purity="8.2915002107620239e-01" nType="-99"/>
                    <Node pos="r" depth="7" NCoef="0" IVar="-1" Cut="0.0000000000000000e+00" cType="1" res="4.3786983005702496e-03" rms="3.3136519789695740e-01" purity="8.7354958057403564e-01" nType="-99"/>
                  </Node>
                  <Node pos="r" depth="6" NCoef="0" IVar="4" Cut="-7.0150756835937500e-01" cType="1" res="3.4097146242856979e-02" rms="4.3893897533416748e-01" purity="5.1552128791809082e-01" nType="0">
                    <Node pos="l" depth="7" NCoef="0" IVar="-1" Cut="0.0000000000000000e+00" cType="1" res="2.1150913089513779e-03" rms="4.3606522679328918e-01" purity="5.1715755462646484e-01" nType="-99"/>
                    <Node pos="r" depth="7" NCoef="0" IVar="-1" Cut="0.0000000000000000e+00" cType="1" res="4.8068789765238762e-03" rms="4.4076970219612122e-01" purity="5.1429355144500732e-01" nType="-99"/>
                  </Node>
                </Node>
              </Node>
            </Node>
          </Node>
          <Node pos="r" depth="2" NCoef="0" IVar="5" Cut="9.2751175165176392e-01" cType="1" res="7.6921996660530567e-03" rms="4.2644703388214111e-01" purity="5.7219219207763672e-01" nType="0">
            <Node pos="l" depth="3" NCoef="0" IVar="2" Cut="4.0506478881835938e+02" cType="1" res="9.8113054409623146e-03" rms="4.3415385484695435e-01" purity="5.9913349151611328e-01" nType="0">
              <Node pos="l" depth="4" NCoef="0" IVar="6" Cut="1.1247762292623520e-01" cType="1" res="1.1892369948327541e-02" rms="4.3604177236557007e-01" purity="6.2674653530120850e-01" nType="0">
                <Node pos="l" depth="5" NCoef="0" IVar="6" Cut="3.2653953880071640e-02" cType="1" res="9.7698327153921127e-03" rms="4.3474659323692322e-01" purity="6.4564859867095947e-01" nType="0">
                  <Node pos="l" depth="6" NCoef="0" IVar="3" Cut="8.6945009231567383e-01" cType="1" res="4.3858564458787441e-03" rms="4.2109671235084534e-01" purity="7.2946912050247192e-01" nType="0">
                    <Node pos="l" depth="7" NCoef="0" IVar="-1" Cut="0.0000000000000000e+00" cType="1" res="-1.8448363989591599e-03" rms="4.5759272575378418e-01" purity="5.5026781558990479e-01" nType="-99"/>
                    <Node pos="r" depth="7" NCoef="0" IVar="-1" Cut="0.0000000000000000e+00" cType="1" res="1.0330321965739131e-03" rms="4.1268777847290039e-01" purity="7.6788699626922607e-01" nType="-99"/>
                  </Node>
                  <Node pos="r" depth="6" NCoef="0" IVar="2" Cut="8.0445449829101562e+01" cType="1" res="1.5636214986443520e-02" rms="4.4907405972480774e-01" purity="5.5431765317916870e-01" nType="0">
                    <Node pos="l" depth="7" NCoef="0" IVar="-1" Cut="0.0000000000000000e+00" cType="1" res="3.6176845896989107e-03" rms="4.5437273383140564e-01" purity="6.4248889684677124e-01" nType="-99"/>
                    <Node pos="r" depth="7" NCoef="0" IVar="-1" Cut="0.0000000000000000e+00" cType="1" res="8.7474117754027247e-04" rms="4.4720786809921265e-01" purity="5.2777671813964844e-01" nType="-99"/>
                  </Node>
                </Node>
                <Node pos="r" depth="5" NCoef="0" IVar="-1" Cut="0.0000000000000000e+00" cType="1" res="4.5426189899444580e-03" rms="4.5194959640502930e-01" purity="3.7567505240440369e-01" nType="-99"/>
              </Node>
              <Node pos="r" depth="4" NCoef="0" IVar="-1" Cut="0.0000000000000000e+00" cType="1" res="-2.0438304636627436e-03" rms="4.1045898199081421e-01" purity="2.7372676134109497e-01" nType="-99"/>
            </Node>
            <Node pos="r" depth="3" NCoef="0" IVar="-1" Cut="0.0000000000000000e+00" cType="1" res="-1.0846121236681938e-02" rms="2.3668748140335083e-01" purity="6.7778483033180237e-02" nType="-99"/>
          </Node>
        </Node>
        <Node pos="r" depth="1" NCoef="0" IVar="3" Cut="9.7191470861434937e-01" cType="1" res="-2.0958473905920982e-03" rms="3.9438873529434204e-01" purity="3.9771574735641479e-01" nType="0">
          <Node pos="l" depth="2" NCoef="0" IVar="4" Cut="1.6872793436050415e+00" cType="1" res="-5.6749079376459122e-03" rms="3.8452711701393127e-01" purity="2.9718977212905884e-01" nType="0">
            <Node pos="l" depth="3" NCoef="0" IVar="6" Cut="2.5710113346576691e-02" cType="1" res="-3.5565884318202734e-03" rms="4.0648406744003296e-01" purity="3.3715790510177612e-01" nType="0">
              <Node pos="l" depth="4" NCoef="0" IVar="2" Cut="4.4036960601806641e+01" cType="1" res="-1.8207397311925888e-02" rms="4.4203868508338928e-01" purity="4.9817484617233276e-01" nType="0">
                <Node pos="l" depth="5" NCoef="0" IVar="6" Cut="1.4134990051388741e-02" cType="1" res="-8.9948046952486038e-03" rms="4.4800922274589539e-01" purity="5.3462404012680054e-01" nType="0">
                  <Node pos="l" depth="6" NCoef="0" IVar="4" Cut="-1.2341887950897217e+00" cType="1" res="-2.2777793928980827e-02" rms="4.4854468107223511e-01" purity="5.6153172254562378e-01" nType="0">
                    <Node pos="l" depth="7" NCoef="0" IVar="-1" Cut="0.0000000000000000e+00" cType="1" res="-5.2285562269389629e-03" rms="4.6419733762741089e-01" purity="5.3827279806137085e-01" nType="-99"/>
                    <Node pos="r" depth="7" NCoef="0" IVar="-1" Cut="0.0000000000000000e+00" cType="1" res="-1.8031592844636180e-05" rms="4.3431329727172852e-01" purity="5.8011257648468018e-01" nType="-99"/>
                  </Node>
                  <Node pos="r" depth="6" NCoef="0" IVar="-1" Cut="0.0000000000000000e+00" cType="1" res="1.9806227646768093e-03" rms="4.4570267200469971e-01" purity="4.8153731226921082e-01" nType="-99"/>
                </Node>
                <Node pos="r" depth="5" NCoef="0" IVar="-1" Cut="0.0000000000000000e+00" cType="1" res="-4.9350461922585964e-03" rms="4.2649069428443909e-01" purity="4.1033548116683960e-01" nType="-99"/>
              </Node>
              <Node pos="r" depth="4" NCoef="0" IVar="3" Cut="6.3075208663940430e-01" cType="1" res="-1.0687339818105102e-03" rms="4.0007957816123962e-01" purity="3.0981564521789551e-01" nType="0">
                <Node pos="l" depth="5" NCoef="0" IVar="6" Cut="2.0553626120090485e-01" cType="1" res="-7.0983716286718845e-03" rms="3.4328907728195190e-01" purity="1.5769961476325989e-01" nType="0">
                  <Node pos="l" depth="6" NCoef="0" IVar="2" Cut="1.2763307189941406e+02" cType="1" res="-9.0990671887993813e-03" rms="3.3764508366584778e-01" purity="1.5315063297748566e-01" nType="0">
                    <Node pos="l" depth="7" NCoef="0" IVar="-1" Cut="0.0000000000000000e+00" cType="1" res="3.1768978806212544e-04" rms="3.5507810115814209e-01" purity="1.7677444219589233e-01" nType="-99"/>
                    <Node pos="r" depth="7" NCoef="0" IVar="-1" Cut="0.0000000000000000e+00" cType="1" res="-2.9057133942842484e-03" rms="3.3010587096214294e-01" purity="1.4343349635601044e-01" nType="-99"/>
                  </Node>
                  <Node pos="r" depth="6" NCoef="0" IVar="2" Cut="6.3171649169921875e+02" cType="1" res="9.8253134638071060e-03" rms="3.8734516501426697e-01" purity="1.9617882370948792e-01" nType="0">
                    <Node pos="l" depth="7" NCoef="0" IVar="-1" Cut="0.0000000000000000e+00" cType="1" res="3.9839562959969044e-03" rms="3.9724808931350708e-01" purity="2.1195487678050995e-01" nType="-99"/>
                    <Node pos="r" depth="7" NCoef="0" IVar="-1" Cut="0.0000000000000000e+00" cType="1" res="-4.6172807924449444e-04" rms="3.7728482484817505e-01" purity="1.8119722604751587e-01" nType="-99"/>
                  </Node>
                </Node>
                <Node pos="r" depth="5" NCoef="0" IVar="4" Cut="-2.4743680953979492e+00" cType="1" res="8.1075755879282951e-03" rms="4.7346776723861694e-01" purity="5.4131609201431274e-01" nType="0">
                  <Node pos="l" depth="6" NCoef="0" IVar="-1" Cut="0.0000000000000000e+00" cType="1" res="2.7327679563313723e-03" rms="4.5739549398422241e-01" purity="6.5404695272445679e-01" nType="-99"/>
                  <Node pos="r" depth="6" NCoef="0" IVar="6" Cut="4.9505680799484253e-02" cType="1" res="4.5187077485024929e-03" rms="4.7611212730407715e-01" purity="5.2173984050750732e-01" nType="0">
                    <Node pos="l" depth="7" NCoef="0" IVar="-1" Cut="0.0000000000000000e+00" cType="1" res="-6.9683894980698824e-04" rms="4.7246325016021729e-01" purity="5.3667742013931274e-01" nType="-99"/>
                    <Node pos="r" depth="7" NCoef="0" IVar="-1" Cut="0.0000000000000000e+00" cType="1" res="1.1800196953117847e-03" rms="4.7848951816558838e-01" purity="5.1121824979782104e-01" nType="-99"/>
                  </Node>
                </Node>
              </Node>
            </Node>
            <Node pos="r" depth="3" NCoef="0" IVar="3" Cut="5.0876438617706299e-01" cType="1" res="-1.9241327419877052e-02" rms="1.9083140790462494e-01" purity="4.1220471262931824e-02" nType="0">
              <Node pos="l" depth="4" NCoef="0" IVar="7" Cut="5.0000000000000000e+00" cType="1" res="-1.3464615680277348e-02" rms="1.6280186176300049e-01" purity="2.8994154185056686e-02" nType="0">
                <Node pos="l" depth="5" NCoef="0" IVar="-1" Cut="0.0000000000000000e+00" cType="1" res="-1.5109036117792130e-02" rms="1.4355054497718811e-01" purity="2.1793790161609650e-02" nType="-99"/>
                <Node pos="r" depth="5" NCoef="0" IVar="6" Cut="1.4025914669036865e-01" cType="1" res="-9.7803557291626930e-03" rms="1.7212285101413727e-01" purity="3.2292738556861877e-02" nType="0">
                  <Node pos="l" depth="6" NCoef="0" IVar="3" Cut="2.9268929362297058e-01" cType="1" res="-1.5948742628097534e-02" rms="1.1079290509223938e-01" purity="1.2665065005421638e-02" nType="0">
                    <Node pos="l" depth="7" NCoef="0" IVar="-1" Cut="0.0000000000000000e+00" cType="1" res="-1.8904957920312881e-02" rms="9.6086613833904266e-02" purity="9.3218823894858360e-03" nType="-99"/>
                    <Node pos="r" depth="7" NCoef="0" IVar="-1" Cut="0.0000000000000000e+00" cType="1" res="-1.4369583688676357e-02" rms="1.2374126166105270e-01" purity="1.6006611287593842e-02" nType="-99"/>
                  </Node>
                  <Node pos="r" depth="6" NCoef="0" IVar="-1" Cut="0.0000000000000000e+00" cType="1" res="-3.4123312798328698e-04" rms="2.3461069166660309e-01" purity="6.1199925839900970e-02" nType="-99"/>
                </Node>
              </Node>
              <Node pos="r" depth="4" NCoef="0" IVar="-1" Cut="0.0000000000000000e+00" cType="1" res="-1.0517489165067673e-02" rms="2.8383439779281616e-01" purity="9.8649188876152039e-02" nType="-99"/>
            </Node>
          </Node>
          <Node pos="r" depth="2" NCoef="0" IVar="0" Cut="6.4337998628616333e-01" cType="1" res="9.4416169449687004e-03" rms="4.2441692948341370e-01" purity="7.2177147865295410e-01" nType="0">
            <Node pos="l" depth="3" NCoef="0" IVar="4" Cut="-1.6109453141689301e-01" cType="1" res="1.1804676614701748e-02" rms="4.1896298527717590e-01" purity="7.5292235612869263e-01" nType="0">
              <Node pos="l" depth="4" NCoef="0" IVar="1" Cut="4.2816340923309326e-01" cType="1" res="8.5185766220092773e-03" rms="4.2188555002212524e-01" purity="7.5087857246398926e-01" nType="0">
                <Node pos="l" depth="5" NCoef="0" IVar="5" Cut="-2.8334898948669434e+00" cType="1" res="1.5411999076604843e-02" rms="3.8911885023117065e-01" purity="8.0745959281921387e-01" nType="0">
                  <Node pos="l" depth="6" NCoef="0" IVar="-1" Cut="0.0000000000000000e+00" cType="1" res="2.8578857891261578e-03" rms="3.5728129744529724e-01" purity="8.4688758850097656e-01" nType="-99"/>
                  <Node pos="r" depth="6" NCoef="0" IVar="-1" Cut="0.0000000000000000e+00" cType="1" res="1.0165645508095622e-03" rms="4.1448476910591125e-01" purity="7.7351003885269165e-01" nType="-99"/>
                </Node>
                <Node pos="r" depth="5" NCoef="0" IVar="5" Cut="-2.9025747776031494e+00" cType="1" res="3.6796862259507179e-03" rms="4.4337844848632812e-01" purity="7.1116107702255249e-01" nType="0">
                  <Node pos="l" depth="6" NCoef="0" IVar="-1" Cut="0.0000000000000000e+00" cType="1" res="1.2053906684741378e-03" rms="4.2159071564674377e-01" purity="7.6269853115081787e-01" nType="-99"/>
                  <Node pos="r" depth="6" NCoef="0" IVar="1" Cut="1.0407075881958008e+00" cType="1" res="-2.0791669376194477e-03" rms="4.5738738775253296e-01" purity="6.7642706632614136e-01" nType="0">
                    <Node pos="l" depth="7" NCoef="0" IVar="-1" Cut="0.0000000000000000e+00" cType="1" res="5.1182258175686002e-04" rms="4.4138780236244202e-01" purity="7.2545689344406128e-01" nType="-99"/>
                    <Node pos="r" depth="7" NCoef="0" IVar="-1" Cut="0.0000000000000000e+00" cType="1" res="-1.0267540346831083e-03" rms="4.7840496897697449e-01" purity="6.0874301195144653e-01" nType="-99"/>
                  </Node>
                </Node>
              </Node>
              <Node pos="r" depth="4" NCoef="0" IVar="4" Cut="2.0466352999210358e-01" cType="1" res="1.8203666433691978e-02" rms="4.1313758492469788e-01" purity="7.5690209865570068e-01" nType="0">
                <Node pos="l" depth="5" NCoef="0" IVar="3" Cut="9.9931323528289795e-01" cType="1" res="2.2448224946856499e-02" rms="4.0176254510879517e-01" purity="7.8563964366912842e-01" nType="0">
                  <Node pos="l" depth="6" NCoef="0" IVar="-1" Cut="0.0000000000000000e+00" cType="1" res="1.1831161100417376e-03" rms="4.1280654072761536e-01" purity="7.6814889907836914e-01" nType="-99"/>
                  <Node pos="r" depth="6" NCoef="0" IVar="-1" Cut="0.0000000000000000e+00" cType="1" res="3.8994194474071264e-03" rms="3.9115536212921143e-01" purity="8.0148237943649292e-01" nType="-99"/>
                </Node>
                <Node pos="r" depth="5" NCoef="0" IVar="-1" Cut="0.0000000000000000e+00" cType="1" res="1.0700437705963850e-03" rms="4.3391689658164978e-01" purity="7.0202416181564331e-01" nType="-99"/>
              </Node>
            </Node>
            <Node pos="r" depth="3" NCoef="0" IVar="-1" Cut="0.0000000000000000e+00" cType="1" res="-1.3477773172780871e-03" rms="4.7474539279937744e-01" purity="4.1116535663604736e-01" nType="-99"/>
          </Node>
        </Node>
      </Node>
    </BinaryTree>
    <BinaryTree type="DecisionTree" boostWeight="1.0000000000000000e+00" itree="84">
      <Node pos="s" depth="0" NCoef="0" IVar="2" Cut="6.9694526672363281e+01" cType="1" res="4.3742307461798191e-03" rms="4.0033763647079468e-01" purity="5.0136542320251465e-01" nType="0">
        <Node pos="l" depth="1" NCoef="0" IVar="1" Cut="7.9031026363372803e-01" cType="1" res="1.1817552149295807e-02" rms="4.1036468744277954e-01" purity="6.9207072257995605e-01" nType="0">
          <Node pos="l" depth="2" NCoef="0" IVar="6" Cut="4.6953614801168442e-02" cType="1" res="1.5913508832454681e-02" rms="4.0223944187164307e-01" purity="7.4674654006958008e-01" nType="0">
            <Node pos="l" depth="3" NCoef="0" IVar="2" Cut="4.9453472137451172e+01" cType="1" res="1.4041704125702381e-02" rms="3.9892852306365967e-01" purity="7.5751870870590210e-01" nType="0">
              <Node pos="l" depth="4" NCoef="0" IVar="6" Cut="1.9690191373229027e-02" cType="1" res="1.5809200704097748e-02" rms="3.9647051692008972e-01" purity="7.7058839797973633e-01" nType="0">
                <Node pos="l" depth="5" NCoef="0" IVar="2" Cut="2.3920309066772461e+01" cType="1" res="1.3616772368550301e-02" rms="3.9088061451911926e-01" purity="7.8635096549987793e-01" nType="0">
                  <Node pos="l" depth="6" NCoef="0" IVar="4" Cut="1.7888583242893219e-01" cType="1" res="1.5544442459940910e-02" rms="3.8885167241096497e-01" purity="7.9529857635498047e-01" nType="0">
                    <Node pos="l" depth="7" NCoef="0" IVar="-1" Cut="0.0000000000000000e+00" cType="1" res="1.6829144442453980e-03" rms="3.8709670305252075e-01" purity="8.0069392919540405e-01" nType="-99"/>
                    <Node pos="r" depth="7" NCoef="0" IVar="-1" Cut="0.0000000000000000e+00" cType="1" res="3.1041670590639114e-03" rms="4.0211480855941772e-01" purity="7.5315898656845093e-01" nType="-99"/>
                  </Node>
                  <Node pos="r" depth="6" NCoef="0" IVar="-1" Cut="0.0000000000000000e+00" cType="1" res="-3.9505222812294960e-03" rms="4.3571287393569946e-01" purity="5.6315940618515015e-01" nType="-99"/>
                </Node>
                <Node pos="r" depth="5" NCoef="0" IVar="0" Cut="3.1140819191932678e-01" cType="1" res="3.3547934144735336e-02" rms="4.3868568539619446e-01" purity="6.4305514097213745e-01" nType="0">
                  <Node pos="l" depth="6" NCoef="0" IVar="4" Cut="-1.6823408603668213e+00" cType="1" res="2.4584040045738220e-02" rms="4.3240177631378174e-01" purity="7.2381919622421265e-01" nType="0">
                    <Node pos="l" depth="7" NCoef="0" IVar="-1" Cut="0.0000000000000000e+00" cType="1" res="3.8779510650783777e-03" rms="4.1527649760246277e-01" purity="7.6277118921279907e-01" nType="-99"/>
                    <Node pos="r" depth="7" NCoef="0" IVar="-1" Cut="0.0000000000000000e+00" cType="1" res="9.4324466772377491e-04" rms="4.4855907559394836e-01" purity="6.8442630767822266e-01" nType="-99"/>
                  </Node>
                  <Node pos="r" depth="6" NCoef="0" IVar="-1" Cut="0.0000000000000000e+00" cType="1" res="5.5817565880715847e-03" rms="4.5236143469810486e-01" purity="4.5398667454719543e-01" nType="-99"/>
                </Node>
              </Node>
              <Node pos="r" depth="4" NCoef="0" IVar="3" Cut="8.0017483234405518e-01" cType="1" res="-9.8624322563409805e-03" rms="4.3008315563201904e-01" purity="5.8075976371765137e-01" nType="0">
                <Node pos="l" depth="5" NCoef="0" IVar="-1" Cut="0.0000000000000000e+00" cType="1" res="-3.9744675159454346e-03" rms="4.2894041538238525e-01" purity="3.8850152492523193e-01" nType="-99"/>
                <Node pos="r" depth="5" NCoef="0" IVar="-1" Cut="0.0000000000000000e+00" cType="1" res="9.3306985218077898e-04" rms="4.3004024028778076e-01" purity="7.2672379016876221e-01" nType="-99"/>
              </Node>
            </Node>
            <Node pos="r" depth="3" NCoef="0" IVar="7" Cut="3.0000000000000000e+00" cType="1" res="4.2749702930450439e-02" rms="4.4520714879035950e-01" purity="5.9269583225250244e-01" nType="0">
              <Node pos="l" depth="4" NCoef="0" IVar="-1" Cut="0.0000000000000000e+00" cType="1" res="2.6450618170201778e-03" rms="4.4192156195640564e-01" purity="6.8252557516098022e-01" nType="-99"/>
              <Node pos="r" depth="4" NCoef="0" IVar="-1" Cut="0.0000000000000000e+00" cType="1" res="5.2949837408959866e-03" rms="4.5020878314971924e-01" purity="4.9517595767974854e-01" nType="-99"/>
            </Node>
          </Node>
          <Node pos="r" depth="2" NCoef="0" IVar="4" Cut="-2.1567823886871338e+00" cType="1" res="-3.1929619144648314e-03" rms="4.3853059411048889e-01" purity="4.9169948697090149e-01" nType="0">
            <Node pos="l" depth="3" NCoef="0" IVar="-1" Cut="0.0000000000000000e+00" cType="1" res="2.8390223160386086e-03" rms="4.7420576214790344e-01" purity="5.5185973644256592e-01" nType="-99"/>
            <Node pos="r" depth="3" NCoef="0" IVar="3" Cut="9.6712458133697510e-01" cType="1" res="-7.6514212414622307e-03" rms="4.3345388770103455e-01" purity="4.8383849859237671e-01" nType="0">
              <Node pos="l" depth="4" NCoef="0" IVar="7" Cut="3.0000000000000000e+00" cType="1" res="-1.8895318731665611e-02" rms="3.9864519238471985e-01" purity="2.8074088692665100e-01" nType="0">
                <Node pos="l" depth="5" NCoef="0" IVar="-1" Cut="0.0000000000000000e+00" cType="1" res="-3.8250829093158245e-03" rms="4.5801997184753418e-01" purity="4.0949907898902893e-01" nType="-99"/>
                <Node pos="r" depth="5" NCoef="0" IVar="2" Cut="4.5369434356689453e+01" cType="1" res="-1.9864179193973541e-03" rms="3.4182986617088318e-01" purity="1.6816629469394684e-01" nType="0">
                  <Node pos="l" depth="6" NCoef="0" IVar="-1" Cut="0.0000000000000000e+00" cType="1" res="8.5755897453054786e-04" rms="3.5302543640136719e-01" purity="1.7780737578868866e-01" nType="-99"/>
                  <Node pos="r" depth="6" NCoef="0" IVar="-1" Cut="0.0000000000000000e+00" cType="1" res="-1.6226076986640692e-03" rms="3.3106788992881775e-01" purity="1.5927819907665253e-01" nType="-99"/>
                </Node>
              </Node>
              <Node pos="r" depth="4" NCoef="0" IVar="5" Cut="-2.8076708316802979e+00" cType="1" res="1.3095185859128833e-03" rms="4.5702898502349854e-01" purity="6.4113438129425049e-01" nType="0">
                <Node pos="l" depth="5" NCoef="0" IVar="-1" Cut="0.0000000000000000e+00" cType="1" res="1.3417174341157079e-03" rms="4.3929758667945862e-01" purity="7.1456724405288696e-01" nType="-99"/>
                <Node pos="r" depth="5" NCoef="0" IVar="1" Cut="1.6802750825881958e+00" cType="1" res="-7.4775130487978458e-03" rms="4.6879863739013672e-01" purity="5.8991891145706177e-01" nType="0">
                  <Node pos="l" depth="6" NCoef="0" IVar="-1" Cut="0.0000000000000000e+00" cType="1" res="2.5513503351248801e-04" rms="4.6256691217422485e-01" purity="6.3749122619628906e-01" nType="-99"/>
                  <Node pos="r" depth="6" NCoef="0" IVar="-1" Cut="0.0000000000000000e+00" cType="1" res="-1.9851925317198038e-03" rms="4.7717279195785522e-01" purity="5.2197259664535522e-01" nType="-99"/>
                </Node>
              </Node>
            </Node>
          </Node>
        </Node>
        <Node pos="r" depth="1" NCoef="0" IVar="4" Cut="-1.5868370532989502e+00" cType="1" res="-2.4501632433384657e-03" rms="3.9079383015632629e-01" purity="3.2651752233505249e-01" nType="0">
          <Node pos="l" depth="2" NCoef="0" IVar="6" Cut="8.5494123399257660e-02" cType="1" res="7.4188448488712311e-03" rms="4.3812388181686401e-01" purity="5.2695834636688232e-01" nType="0">
            <Node pos="l" depth="3" NCoef="0" IVar="3" Cut="8.6431139707565308e-01" cType="1" res="2.6502565015107393e-03" rms="4.4080743193626404e-01" purity="5.9303575754165649e-01" nType="0">
              <Node pos="l" depth="4" NCoef="0" IVar="5" Cut="-2.4555718898773193e+00" cType="1" res="-4.3577319011092186e-03" rms="4.4824001193046570e-01" purity="5.3384739160537720e-01" nType="0">
                <Node pos="l" depth="5" NCoef="0" IVar="3" Cut="7.5566971302032471e-01" cType="1" res="-1.4650431461632252e-02" rms="4.3472868204116821e-01" purity="5.0000226497650146e-01" nType="0">
                  <Node pos="l" depth="6" NCoef="0" IVar="6" Cut="5.4678641259670258e-02" cType="1" res="-2.6737349107861519e-02" rms="4.1507786512374878e-01" purity="3.2522648572921753e-01" nType="0">
                    <Node pos="l" depth="7" NCoef="0" IVar="-1" Cut="0.0000000000000000e+00" cType="1" res="-3.1584159005433321e-03" rms="4.1479846835136414e-01" purity="3.2883653044700623e-01" nType="-99"/>
                    <Node pos="r" depth="7" NCoef="0" IVar="-1" Cut="0.0000000000000000e+00" cType="1" res="-3.5887672565877438e-03" rms="4.1535693407058716e-01" purity="3.2157215476036072e-01" nType="-99"/>
                  </Node>
                  <Node pos="r" depth="6" NCoef="0" IVar="-1" Cut="0.0000000000000000e+00" cType="1" res="-2.2544748208019882e-04" rms="4.5364403724670410e-01" purity="6.7904263734817505e-01" nType="-99"/>
                </Node>
                <Node pos="r" depth="5" NCoef="0" IVar="4" Cut="-2.3662095069885254e+00" cType="1" res="9.1450205072760582e-03" rms="4.6502539515495300e-01" purity="5.7824808359146118e-01" nType="0">
                  <Node pos="l" depth="6" NCoef="0" IVar="-1" Cut="0.0000000000000000e+00" cType="1" res="3.0720285139977932e-03" rms="4.6323150396347046e-01" purity="6.3842880725860596e-01" nType="-99"/>
                  <Node pos="r" depth="6" NCoef="0" IVar="-1" Cut="0.0000000000000000e+00" cType="1" res="-3.9915129309520125e-04" rms="4.6554532647132874e-01" purity="5.4331225156784058e-01" nType="-99"/>
                </Node>
              </Node>
              <Node pos="r" depth="4" NCoef="0" IVar="3" Cut="8.9046156406402588e-01" cType="1" res="2.1511534228920937e-02" rms="4.1956964135169983e-01" purity="7.5233495235443115e-01" nType="0">
                <Node pos="l" depth="5" NCoef="0" IVar="-1" Cut="0.0000000000000000e+00" cType="1" res="7.7361764851957560e-04" rms="4.3102073669433594e-01" purity="7.3073780536651611e-01" nType="-99"/>
                <Node pos="r" depth="5" NCoef="0" IVar="-1" Cut="0.0000000000000000e+00" cType="1" res="4.8662815243005753e-03" rms="4.0427267551422119e-01" purity="7.7896386384963989e-01" nType="-99"/>
              </Node>
            </Node>
            <Node pos="r" depth="3" NCoef="0" IVar="5" Cut="-2.5245444774627686e+00" cType="1" res="2.0635209977626801e-02" rms="4.3032279610633850e-01" purity="3.4382179379463196e-01" nType="0">
              <Node pos="l" depth="4" NCoef="0" IVar="-1" Cut="0.0000000000000000e+00" cType="1" res="1.1421439703553915e-03" rms="4.1083660721778870e-01" purity="2.9269292950630188e-01" nType="-99"/>
              <Node pos="r" depth="4" NCoef="0" IVar="-1" Cut="0.0000000000000000e+00" cType="1" res="3.6809002049267292e-03" rms="4.4813030958175659e-01" purity="3.9352437853813171e-01" nType="-99"/>
            </Node>
          </Node>
          <Node pos="r" depth="2" NCoef="0" IVar="1" Cut="-2.9657280445098877e-01" cType="1" res="-5.8016311377286911e-03" rms="3.7329915165901184e-01" purity="2.5844883918762207e-01" nType="0">
            <Node pos="l" depth="3" NCoef="0" IVar="2" Cut="1.2615946960449219e+02" cType="1" res="8.9762276038527489e-03" rms="4.2942708730697632e-01" purity="4.2301535606384277e-01" nType="0">
              <Node pos="l" depth="4" NCoef="0" IVar="-1" Cut="0.0000000000000000e+00" cType="1" res="2.8847043868154287e-03" rms="4.4590589404106140e-01" purity="5.4949498176574707e-01" nType="-99"/>
              <Node pos="r" depth="4" NCoef="0" IVar="3" Cut="5.2437049150466919e-01" cType="1" res="3.1597570050507784e-03" rms="4.2425280809402466e-01" purity="3.8558253645896912e-01" nType="0">
                <Node pos="l" depth="5" NCoef="0" IVar="-1" Cut="0.0000000000000000e+00" cType="1" res="-1.7927163280546665e-03" rms="3.4478655457496643e-01" purity="1.6203157603740692e-01" nType="-99"/>
                <Node pos="r" depth="5" NCoef="0" IVar="-1" Cut="0.0000000000000000e+00" cType="1" res="1.0910322889685631e-03" rms="4.6918663382530212e-01" purity="5.3301918506622314e-01" nType="-99"/>
              </Node>
            </Node>
            <Node pos="r" depth="3" NCoef="0" IVar="6" Cut="6.2198668718338013e-02" cType="1" res="-7.7341506257653236e-03" rms="3.6527800559997559e-01" purity="2.3692826926708221e-01" nType="0">
              <Node pos="l" depth="4" NCoef="0" IVar="3" Cut="8.4441012144088745e-01" cType="1" res="-1.8262052908539772e-02" rms="3.8867890834808350e-01" purity="3.0937492847442627e-01" nType="0">
                <Node pos="l" depth="5" NCoef="0" IVar="7" Cut="3.0000000000000000e+00" cType="1" res="-2.3904306814074516e-02" rms="3.7241333723068237e-01" purity="2.4882949888706207e-01" nType="0">
                  <Node pos="l" depth="6" NCoef="0" IVar="-1" Cut="0.0000000000000000e+00" cType="1" res="-4.5699123293161392e-03" rms="4.4511154294013977e-01" purity="3.9931419491767883e-01" nType="-99"/>
                  <Node pos="r" depth="6" NCoef="0" IVar="4" Cut="-5.7769131660461426e-01" cType="1" res="-1.7251556739211082e-02" rms="3.4258627891540527e-01" purity="1.9242936372756958e-01" nType="0">
                    <Node pos="l" depth="7" NCoef="0" IVar="-1" Cut="0.0000000000000000e+00" cType="1" res="-1.1067407904192805e-03" rms="3.9483177661895752e-01" purity="2.8433546423912048e-01" nType="-99"/>
                    <Node pos="r" depth="7" NCoef="0" IVar="-1" Cut="0.0000000000000000e+00" cType="1" res="-4.4847163371741772e-03" rms="3.1968024373054504e-01" purity="1.5636503696441650e-01" nType="-99"/>
                  </Node>
                </Node>
                <Node pos="r" depth="5" NCoef="0" IVar="-1" Cut="0.0000000000000000e+00" cType="1" res="1.2873164378106594e-03" rms="4.6143335103988647e-01" purity="6.3888734579086304e-01" nType="-99"/>
              </Node>
              <Node pos="r" depth="4" NCoef="0" IVar="2" Cut="2.6819216918945312e+02" cType="1" res="-4.3969042599201202e-03" rms="3.5747587680816650e-01" purity="2.1396332979202271e-01" nType="0">
                <Node pos="l" depth="5" NCoef="0" IVar="1" Cut="1.0300180912017822e+00" cType="1" res="3.3657741732895374e-03" rms="3.7892302870750427e-01" purity="2.6374822854995728e-01" nType="0">
                  <Node pos="l" depth="6" NCoef="0" IVar="3" Cut="4.0231171250343323e-01" cType="1" res="1.0285422205924988e-02" rms="4.0650701522827148e-01" purity="3.3024954795837402e-01" nType="0">
                    <Node pos="l" depth="7" NCoef="0" IVar="-1" Cut="0.0000000000000000e+00" cType="1" res="-3.3368375152349472e-03" rms="2.5382459163665771e-01" purity="7.5884521007537842e-02" nType="-99"/>
                    <Node pos="r" depth="7" NCoef="0" IVar="-1" Cut="0.0000000000000000e+00" cType="1" res="1.8274964531883597e-03" rms="4.4645935297012329e-01" purity="4.1663634777069092e-01" nType="-99"/>
                  </Node>
                  <Node pos="r" depth="6" NCoef="0" IVar="1" Cut="2.4742169380187988e+00" cType="1" res="-8.9359255507588387e-03" rms="3.2377436757087708e-01" purity="1.4552263915538788e-01" nType="0">
                    <Node pos="l" depth="7" NCoef="0" IVar="-1" Cut="0.0000000000000000e+00" cType="1" res="-2.9477674979716539e-03" rms="3.1728059053421021e-01" purity="1.4269897341728210e-01" nType="-99"/>
                    <Node pos="r" depth="7" NCoef="0" IVar="-1" Cut="0.0000000000000000e+00" cType="1" res="7.4603193206712604e-04" rms="3.4289982914924622e-01" purity="1.5430599451065063e-01" nType="-99"/>
                  </Node>
                </Node>
                <Node pos="r" depth="5" NCoef="0" IVar="6" Cut="8.3984911441802979e-02" cType="1" res="-1.2449448928236961e-02" rms="3.3358389139175415e-01" purity="1.6231945157051086e-01" nType="0">
                  <Node pos="l" depth="6" NCoef="0" IVar="-1" Cut="0.0000000000000000e+00" cType="1" res="-5.1683401688933372e-03" rms="3.5005351901054382e-01" purity="2.1535210311412811e-01" nType="-99"/>
                  <Node pos="r" depth="6" NCoef="0" IVar="1" Cut="3.5334873944520950e-02" cType="1" res="-9.8043726757168770e-03" rms="3.3100843429565430e-01" purity="1.5451426804065704e-01" nType="0">
                    <Node pos="l" depth="7" NCoef="0" IVar="-1" Cut="0.0000000000000000e+00" cType="1" res="-1.8806409570970573e-05" rms="3.8500308990478516e-01" purity="2.4782285094261169e-01" nType="-99"/>
                    <Node pos="r" depth="7" NCoef="0" IVar="-1" Cut="0.0000000000000000e+00" cType="1" res="-2.6025953702628613e-03" rms="3.2146787643432617e-01" purity="1.3953235745429993e-01" nType="-99"/>
                  </Node>
                </Node>
              </Node>
            </Node>
          </Node>
        </Node>
      </Node>
    </BinaryTree>
    <BinaryTree type="DecisionTree" boostWeight="1.0000000000000000e+00" itree="85">
      <Node pos="s" depth="0" NCoef="0" IVar="1" Cut="1.6120876371860504e-01" cType="1" res="3.4779568668454885e-03" rms="4.0115690231323242e-01" purity="4.9912860989570618e-01" nType="0">
        <Node pos="l" depth="1" NCoef="0" IVar="4" Cut="2.0563538074493408e+00" cType="1" res="1.2238609604537487e-02" rms="4.0964728593826294e-01" purity="6.4750307798385620e-01" nType="0">
          <Node pos="l" depth="2" NCoef="0" IVar="0" Cut="1.6096618175506592e+00" cType="1" res="1.3344915583729744e-02" rms="4.1385126113891602e-01" purity="6.6574704647064209e-01" nType="0">
            <Node pos="l" depth="3" NCoef="0" IVar="5" Cut="-2.8833532333374023e+00" cType="1" res="1.4088056981563568e-02" rms="4.1707491874694824e-01" purity="6.8962514400482178e-01" nType="0">
              <Node pos="l" depth="4" NCoef="0" IVar="7" Cut="3.0000000000000000e+00" cType="1" res="1.8142160028219223e-02" rms="3.5685712099075317e-01" purity="7.6804703474044800e-01" nType="0">
                <Node pos="l" depth="5" NCoef="0" IVar="3" Cut="8.8631331920623779e-01" cType="1" res="1.7015265300869942e-02" rms="3.6349838972091675e-01" purity="8.2426387071609497e-01" nType="0">
                  <Node pos="l" depth="6" NCoef="0" IVar="-1" Cut="0.0000000000000000e+00" cType="1" res="4.9133523134514689e-04" rms="4.3370279669761658e-01" purity="6.7488342523574829e-01" nType="-99"/>
                  <Node pos="r" depth="6" NCoef="0" IVar="3" Cut="1.0042773485183716e+00" cType="1" res="1.9879920408129692e-02" rms="3.4496176242828369e-01" purity="8.5919982194900513e-01" nType="0">
                    <Node pos="l" depth="7" NCoef="0" IVar="-1" Cut="0.0000000000000000e+00" cType="1" res="2.4199283216148615e-03" rms="3.5106167197227478e-01" purity="8.5310429334640503e-01" nType="-99"/>
                    <Node pos="r" depth="7" NCoef="0" IVar="-1" Cut="0.0000000000000000e+00" cType="1" res="4.0052873082458973e-03" rms="3.2673934102058411e-01" purity="8.7665349245071411e-01" nType="-99"/>
                  </Node>
                </Node>
                <Node pos="r" depth="5" NCoef="0" IVar="-1" Cut="0.0000000000000000e+00" cType="1" res="3.2985180150717497e-03" rms="4.5061406493186951e-01" purity="4.5536214113235474e-01" nType="-99"/>
              </Node>
              <Node pos="r" depth="4" NCoef="0" IVar="5" Cut="-3.3205538988113403e-01" cType="1" res="1.2269638478755951e-02" rms="4.3063044548034668e-01" purity="6.6051632165908813e-01" nType="0">
                <Node pos="l" depth="5" NCoef="0" IVar="5" Cut="-2.1426618099212646e+00" cType="1" res="1.1089099571108818e-02" rms="4.2971977591514587e-01" purity="6.7573887109756470e-01" nType="0">
                  <Node pos="l" depth="6" NCoef="0" IVar="6" Cut="5.0331383943557739e-02" cType="1" res="1.5571041032671928e-02" rms="4.1397860646247864e-01" purity="7.2523021697998047e-01" nType="0">
                    <Node pos="l" depth="7" NCoef="0" IVar="-1" Cut="0.0000000000000000e+00" cType="1" res="1.3341044541448355e-03" rms="3.9395290613174438e-01" purity="7.8682005405426025e-01" nType="-99"/>
                    <Node pos="r" depth="7" NCoef="0" IVar="-1" Cut="0.0000000000000000e+00" cType="1" res="2.4792121257632971e-03" rms="4.5551273226737976e-01" purity="5.8719915151596069e-01" nType="-99"/>
                  </Node>
                  <Node pos="r" depth="6" NCoef="0" IVar="3" Cut="7.3215943574905396e-01" cType="1" res="6.0359626077115536e-03" rms="4.4674855470657349e-01" purity="6.1994016170501709e-01" nType="0">
                    <Node pos="l" depth="7" NCoef="0" IVar="-1" Cut="0.0000000000000000e+00" cType="1" res="-4.2113231029361486e-04" rms="4.6129557490348816e-01" purity="4.0468168258666992e-01" nType="-99"/>
                    <Node pos="r" depth="7" NCoef="0" IVar="-1" Cut="0.0000000000000000e+00" cType="1" res="1.0976119665428996e-03" rms="4.3957209587097168e-01" purity="7.2241353988647461e-01" nType="-99"/>
                  </Node>
                </Node>
                <Node pos="r" depth="5" NCoef="0" IVar="-1" Cut="0.0000000000000000e+00" cType="1" res="3.8102683611214161e-03" rms="4.4598498940467834e-01" purity="3.8996738195419312e-01" nType="-99"/>
              </Node>
            </Node>
            <Node pos="r" depth="3" NCoef="0" IVar="-1" Cut="0.0000000000000000e+00" cType="1" res="-5.9378938749432564e-04" rms="3.3664017915725708e-01" purity="1.5158164501190186e-01" nType="-99"/>
          </Node>
          <Node pos="r" depth="2" NCoef="0" IVar="-1" Cut="0.0000000000000000e+00" cType="1" res="-8.6990147829055786e-03" rms="2.3612512648105621e-01" purity="6.3794441521167755e-02" nType="-99"/>
        </Node>
        <Node pos="r" depth="1" NCoef="0" IVar="1" Cut="6.5086593627929688e+00" cType="1" res="-3.1521667260676622e-03" rms="3.9448058605194092e-01" purity="3.8683778047561646e-01" nType="0">
          <Node pos="l" depth="2" NCoef="0" IVar="1" Cut="1.5943800210952759e+00" cType="1" res="-4.2824316769838333e-03" rms="3.9439389109611511e-01" purity="3.8767430186271667e-01" nType="0">
            <Node pos="l" depth="3" NCoef="0" IVar="3" Cut="4.4789567589759827e-01" cType="1" res="-1.6632078913971782e-03" rms="3.9865967631340027e-01" purity="4.2112919688224792e-01" nType="0">
              <Node pos="l" depth="4" NCoef="0" IVar="6" Cut="2.0355036854743958e-01" cType="1" res="-1.1721970513463020e-02" rms="2.5468680262565613e-01" purity="7.6406404376029968e-02" nType="0">
                <Node pos="l" depth="5" NCoef="0" IVar="2" Cut="1.8836935424804688e+02" cType="1" res="-1.4586943201720715e-02" rms="2.3251338303089142e-01" purity="6.1288911849260330e-02" nType="0">
                  <Node pos="l" depth="6" NCoef="0" IVar="6" Cut="9.2189021408557892e-02" cType="1" res="-7.1284044533967972e-03" rms="2.4234820902347565e-01" purity="6.7756317555904388e-02" nType="0">
                    <Node pos="l" depth="7" NCoef="0" IVar="-1" Cut="0.0000000000000000e+00" cType="1" res="-6.9055627100169659e-03" rms="2.1165281534194946e-01" purity="4.9122903496026993e-02" nType="-99"/>
                    <Node pos="r" depth="7" NCoef="0" IVar="-1" Cut="0.0000000000000000e+00" cType="1" res="3.0150413513183594e-03" rms="3.0201315879821777e-01" purity="1.1171513050794601e-01" nType="-99"/>
                  </Node>
                  <Node pos="r" depth="6" NCoef="0" IVar="4" Cut="-5.6215983629226685e-01" cType="1" res="-2.0304577425122261e-02" rms="2.2451509535312653e-01" purity="5.6331075727939606e-02" nType="0">
                    <Node pos="l" depth="7" NCoef="0" IVar="-1" Cut="0.0000000000000000e+00" cType="1" res="-9.4119720160961151e-03" rms="2.5604063272476196e-01" purity="7.4267789721488953e-02" nType="-99"/>
                    <Node pos="r" depth="7" NCoef="0" IVar="-1" Cut="0.0000000000000000e+00" cType="1" res="-7.7398992143571377e-03" rms="2.1155770123004913e-01" purity="4.9692042171955109e-02" nType="-99"/>
                  </Node>
                </Node>
                <Node pos="r" depth="5" NCoef="0" IVar="-1" Cut="0.0000000000000000e+00" cType="1" res="9.0986309805884957e-04" rms="3.5374167561531067e-01" purity="1.6117034852504730e-01" nType="-99"/>
              </Node>
              <Node pos="r" depth="4" NCoef="0" IVar="4" Cut="1.3087780475616455e+00" cType="1" res="2.0348688121885061e-03" rms="4.3984213471412659e-01" purity="5.4786562919616699e-01" nType="0">
                <Node pos="l" depth="5" NCoef="0" IVar="4" Cut="-2.7513325214385986e+00" cType="1" res="3.5215569660067558e-03" rms="4.4602209329605103e-01" purity="5.7268571853637695e-01" nType="0">
                  <Node pos="l" depth="6" NCoef="0" IVar="-1" Cut="0.0000000000000000e+00" cType="1" res="2.7194379363209009e-03" rms="4.4590747356414795e-01" purity="6.9693106412887573e-01" nType="-99"/>
                  <Node pos="r" depth="6" NCoef="0" IVar="4" Cut="-9.1776835918426514e-01" cType="1" res="2.2418079897761345e-03" rms="4.4599300622940063e-01" purity="5.6588208675384521e-01" nType="0">
                    <Node pos="l" depth="7" NCoef="0" IVar="-1" Cut="0.0000000000000000e+00" cType="1" res="-3.7972841528244317e-04" rms="4.6011999249458313e-01" purity="5.6064540147781372e-01" nType="-99"/>
                    <Node pos="r" depth="7" NCoef="0" IVar="-1" Cut="0.0000000000000000e+00" cType="1" res="7.0095568662509322e-04" rms="4.3613809347152710e-01" purity="5.6942099332809448e-01" nType="-99"/>
                  </Node>
                </Node>
                <Node pos="r" depth="5" NCoef="0" IVar="-1" Cut="0.0000000000000000e+00" cType="1" res="-4.5411097817122936e-03" rms="3.2282793521881104e-01" purity="1.4605313539505005e-01" nType="-99"/>
              </Node>
            </Node>
            <Node pos="r" depth="3" NCoef="0" IVar="3" Cut="4.6625319123268127e-01" cType="1" res="-1.4223085716366768e-02" rms="3.7760078907012939e-01" purity="2.6070404052734375e-01" nType="0">
              <Node pos="l" depth="4" NCoef="0" IVar="1" Cut="3.6549744606018066e+00" cType="1" res="-5.3553087636828423e-03" rms="2.6462966203689575e-01" purity="8.1801578402519226e-02" nType="0">
                <Node pos="l" depth="5" NCoef="0" IVar="1" Cut="2.0595798492431641e+00" cType="1" res="-1.0707751847803593e-02" rms="2.5445622205734253e-01" purity="7.4590042233467102e-02" nType="0">
                  <Node pos="l" depth="6" NCoef="0" IVar="-1" Cut="0.0000000000000000e+00" cType="1" res="-6.6030966117978096e-03" rms="2.4031315743923187e-01" purity="6.6240303218364716e-02" nType="-99"/>
                  <Node pos="r" depth="6" NCoef="0" IVar="3" Cut="2.5097683072090149e-01" cType="1" res="-5.6106275878846645e-03" rms="2.6596832275390625e-01" purity="8.1805832684040070e-02" nType="0">
                    <Node pos="l" depth="7" NCoef="0" IVar="-1" Cut="0.0000000000000000e+00" cType="1" res="-1.2105827045161277e-04" rms="2.6217603683471680e-01" purity="8.0497540533542633e-02" nType="-99"/>
                    <Node pos="r" depth="7" NCoef="0" IVar="-1" Cut="0.0000000000000000e+00" cType="1" res="-3.7347916513681412e-03" rms="2.6931700110435486e-01" purity="8.3009243011474609e-02" nType="-99"/>
                  </Node>
                </Node>
                <Node pos="r" depth="5" NCoef="0" IVar="-1" Cut="0.0000000000000000e+00" cType="1" res="5.2932682447135448e-03" rms="3.0065941810607910e-01" purity="1.1038453876972198e-01" nType="-99"/>
              </Node>
              <Node pos="r" depth="4" NCoef="0" IVar="5" Cut="-2.1729533672332764e+00" cType="1" res="-2.1304700523614883e-02" rms="4.4767069816589355e-01" purity="4.0357169508934021e-01" nType="0">
                <Node pos="l" depth="5" NCoef="0" IVar="4" Cut="-2.9879012703895569e-01" cType="1" res="-9.7392033785581589e-03" rms="4.6155130863189697e-01" purity="4.8198959231376648e-01" nType="0">
                  <Node pos="l" depth="6" NCoef="0" IVar="4" Cut="-1.4396811723709106e+00" cType="1" res="-1.5854535624384880e-02" rms="4.6590489149093628e-01" purity="4.6035379171371460e-01" nType="0">
                    <Node pos="l" depth="7" NCoef="0" IVar="-1" Cut="0.0000000000000000e+00" cType="1" res="-6.4714951440691948e-04" rms="4.7344493865966797e-01" purity="4.6749913692474365e-01" nType="-99"/>
                    <Node pos="r" depth="7" NCoef="0" IVar="-1" Cut="0.0000000000000000e+00" cType="1" res="-2.6630572974681854e-03" rms="4.5650801062583923e-01" purity="4.5182317495346069e-01" nType="-99"/>
                  </Node>
                  <Node pos="r" depth="6" NCoef="0" IVar="-1" Cut="0.0000000000000000e+00" cType="1" res="6.5883778734132648e-04" rms="4.4956171512603760e-01" purity="5.3862601518630981e-01" nType="-99"/>
                </Node>
                <Node pos="r" depth="5" NCoef="0" IVar="1" Cut="2.5452997684478760e+00" cType="1" res="-3.6538884043693542e-02" rms="4.2822524905204773e-01" purity="3.0027890205383301e-01" nType="0">
                  <Node pos="l" depth="6" NCoef="0" IVar="-1" Cut="0.0000000000000000e+00" cType="1" res="-2.0098499953746796e-03" rms="4.3309399485588074e-01" purity="3.2228159904479980e-01" nType="-99"/>
                  <Node pos="r" depth="6" NCoef="0" IVar="-1" Cut="0.0000000000000000e+00" cType="1" res="-7.2983126156032085e-03" rms="4.2059636116027832e-01" purity="2.7179691195487976e-01" nType="-99"/>
                </Node>
              </Node>
            </Node>
          </Node>
          <Node pos="r" depth="2" NCoef="0" IVar="-1" Cut="0.0000000000000000e+00" cType="1" res="8.0028893426060677e-03" rms="3.9449402689933777e-01" purity="3.4303471446037292e-01" nType="-99"/>
        </Node>
      </Node>
    </BinaryTree>
    <BinaryTree type="DecisionTree" boostWeight="1.0000000000000000e+00" itree="86">
      <Node pos="s" depth="0" NCoef="0" IVar="4" Cut="1.5574682950973511e+00" cType="1" res="3.4062475897371769e-03" rms="4.0006476640701294e-01" purity="5.0005954504013062e-01" nType="0">
        <Node pos="l" depth="1" NCoef="0" IVar="3" Cut="6.5178853273391724e-01" cType="1" res="5.3786747157573700e-03" rms="4.1236126422882080e-01" purity="5.4004913568496704e-01" nType="0">
          <Node pos="l" depth="2" NCoef="0" IVar="5" Cut="-3.5321276187896729e+00" cType="1" res="-2.8585970867425203e-03" rms="3.7293246388435364e-01" purity="2.0505496859550476e-01" nType="0">
            <Node pos="l" depth="3" NCoef="0" IVar="-1" Cut="0.0000000000000000e+00" cType="1" res="-8.4587344899773598e-03" rms="2.7741336822509766e-01" purity="9.5093265175819397e-02" nType="-99"/>
            <Node pos="r" depth="3" NCoef="0" IVar="4" Cut="-2.1203072071075439e+00" cType="1" res="-1.2135748984292150e-03" rms="3.7742489576339722e-01" purity="2.1111370623111725e-01" nType="0">
              <Node pos="l" depth="4" NCoef="0" IVar="5" Cut="-2.8123533725738525e+00" cType="1" res="2.4777719751000404e-02" rms="4.2524027824401855e-01" purity="2.9192683100700378e-01" nType="0">
                <Node pos="l" depth="5" NCoef="0" IVar="-1" Cut="0.0000000000000000e+00" cType="1" res="-1.7573181539773941e-03" rms="3.8177523016929626e-01" purity="2.1602588891983032e-01" nType="-99"/>
                <Node pos="r" depth="5" NCoef="0" IVar="-1" Cut="0.0000000000000000e+00" cType="1" res="5.9791854582726955e-03" rms="4.5120003819465637e-01" purity="3.4441843628883362e-01" nType="-99"/>
              </Node>
              <Node pos="r" depth="4" NCoef="0" IVar="6" Cut="1.0266032069921494e-01" cType="1" res="-3.8960354868322611e-03" rms="3.7203711271286011e-01" purity="2.0277331769466400e-01" nType="0">
                <Node pos="l" depth="5" NCoef="0" IVar="7" Cut="3.0000000000000000e+00" cType="1" res="-8.7043233215808868e-03" rms="3.6002653837203979e-01" purity="1.9097721576690674e-01" nType="0">
                  <Node pos="l" depth="6" NCoef="0" IVar="-1" Cut="0.0000000000000000e+00" cType="1" res="-6.5663470886647701e-03" rms="3.7291276454925537e-01" purity="1.8446454405784607e-01" nType="-99"/>
                  <Node pos="r" depth="6" NCoef="0" IVar="2" Cut="9.6599563598632812e+01" cType="1" res="-5.1493765786290169e-03" rms="3.5976874828338623e-01" purity="1.9166271388530731e-01" nType="0">
                    <Node pos="l" depth="7" NCoef="0" IVar="-1" Cut="0.0000000000000000e+00" cType="1" res="1.1747904354706407e-03" rms="3.8520246744155884e-01" purity="2.3001901805400848e-01" nType="-99"/>
                    <Node pos="r" depth="7" NCoef="0" IVar="-1" Cut="0.0000000000000000e+00" cType="1" res="-2.3541767150163651e-03" rms="3.4432321786880493e-01" purity="1.6992929577827454e-01" nType="-99"/>
                  </Node>
                </Node>
                <Node pos="r" depth="5" NCoef="0" IVar="2" Cut="1.8302659606933594e+02" cType="1" res="1.2440099380910397e-03" rms="3.8339528441429138e-01" purity="2.1558649837970734e-01" nType="0">
                  <Node pos="l" depth="6" NCoef="0" IVar="1" Cut="7.5920045375823975e-01" cType="1" res="1.8549796193838120e-02" rms="4.1547802090644836e-01" purity="2.8103274106979370e-01" nType="0">
                    <Node pos="l" depth="7" NCoef="0" IVar="-1" Cut="0.0000000000000000e+00" cType="1" res="3.5113380290567875e-03" rms="4.5748201012611389e-01" purity="3.8388055562973022e-01" nType="-99"/>
                    <Node pos="r" depth="7" NCoef="0" IVar="-1" Cut="0.0000000000000000e+00" cType="1" res="8.5619016317650676e-04" rms="3.7052249908447266e-01" purity="1.8305966258049011e-01" nType="-99"/>
                  </Node>
                  <Node pos="r" depth="6" NCoef="0" IVar="6" Cut="2.4516326189041138e-01" cType="1" res="-3.3970072399824858e-03" rms="3.7418806552886963e-01" purity="1.9803531467914581e-01" nType="0">
                    <Node pos="l" depth="7" NCoef="0" IVar="-1" Cut="0.0000000000000000e+00" cType="1" res="-1.0681474814191461e-03" rms="3.7068441510200500e-01" purity="1.9660730659961700e-01" nType="-99"/>
                    <Node pos="r" depth="7" NCoef="0" IVar="-1" Cut="0.0000000000000000e+00" cType="1" res="2.8278215322643518e-03" rms="3.9866921305656433e-01" purity="2.0863215625286102e-01" nType="-99"/>
                  </Node>
                </Node>
              </Node>
            </Node>
          </Node>
          <Node pos="r" depth="2" NCoef="0" IVar="1" Cut="7.7954667806625366e-01" cType="1" res="9.3373311683535576e-03" rms="4.2996948957443237e-01" purity="7.0104014873504639e-01" nType="0">
            <Node pos="l" depth="3" NCoef="0" IVar="5" Cut="-2.5238091945648193e+00" cType="1" res="1.1932335793972015e-02" rms="4.1970276832580566e-01" purity="7.3878628015518188e-01" nType="0">
              <Node pos="l" depth="4" NCoef="0" IVar="4" Cut="-2.7984113693237305e+00" cType="1" res="1.7213761806488037e-02" rms="3.9074048399925232e-01" purity="7.9307931661605835e-01" nType="0">
                <Node pos="l" depth="5" NCoef="0" IVar="-1" Cut="0.0000000000000000e+00" cType="1" res="4.3924362398684025e-03" rms="3.8516983389854431e-01" purity="8.1107103824615479e-01" nType="-99"/>
                <Node pos="r" depth="5" NCoef="0" IVar="2" Cut="1.9969340515136719e+02" cType="1" res="1.5440886840224266e-02" rms="3.9119297266006470e-01" purity="7.9144912958145142e-01" nType="0">
                  <Node pos="l" depth="6" NCoef="0" IVar="6" Cut="4.7263879328966141e-02" cType="1" res="1.6737112775444984e-02" rms="3.8668084144592285e-01" purity="8.0023288726806641e-01" nType="0">
                    <Node pos="l" depth="7" NCoef="0" IVar="-1" Cut="0.0000000000000000e+00" cType="1" res="1.7542983405292034e-03" rms="3.8146126270294189e-01" purity="8.0791437625885010e-01" nType="-99"/>
                    <Node pos="r" depth="7" NCoef="0" IVar="-1" Cut="0.0000000000000000e+00" cType="1" res="3.9666881784796715e-03" rms="4.3513703346252441e-01" purity="7.2236710786819458e-01" nType="-99"/>
                  </Node>
                  <Node pos="r" depth="6" NCoef="0" IVar="-1" Cut="0.0000000000000000e+00" cType="1" res="-1.0849152458831668e-03" rms="4.7280016541481018e-01" purity="6.1317795515060425e-01" nType="-99"/>
                </Node>
              </Node>
              <Node pos="r" depth="4" NCoef="0" IVar="3" Cut="7.3851418495178223e-01" cType="1" res="6.8224892020225525e-03" rms="4.4587782025337219e-01" purity="6.8625712394714355e-01" nType="0">
                <Node pos="l" depth="5" NCoef="0" IVar="6" Cut="7.7288858592510223e-02" cType="1" res="-4.0083224885165691e-03" rms="4.8640373349189758e-01" purity="5.3018176555633545e-01" nType="0">
                  <Node pos="l" depth="6" NCoef="0" IVar="4" Cut="-4.8501828312873840e-01" cType="1" res="-2.1928435191512108e-02" rms="4.8793455958366394e-01" purity="4.9789267778396606e-01" nType="0">
                    <Node pos="l" depth="7" NCoef="0" IVar="-1" Cut="0.0000000000000000e+00" cType="1" res="-6.7744427360594273e-04" rms="4.8808187246322632e-01" purity="5.5004918575286865e-01" nType="-99"/>
                    <Node pos="r" depth="7" NCoef="0" IVar="-1" Cut="0.0000000000000000e+00" cType="1" res="-3.4090990666300058e-03" rms="4.8738098144531250e-01" purity="4.4645106792449951e-01" nType="-99"/>
                  </Node>
                  <Node pos="r" depth="6" NCoef="0" IVar="-1" Cut="0.0000000000000000e+00" cType="1" res="1.7077286029234529e-03" rms="4.8337486386299133e-01" purity="5.7262194156646729e-01" nType="-99"/>
                </Node>
                <Node pos="r" depth="5" NCoef="0" IVar="4" Cut="-6.0929393768310547e-01" cType="1" res="8.7298620492219925e-03" rms="4.3832543492317200e-01" purity="7.1374297142028809e-01" nType="0">
                  <Node pos="l" depth="6" NCoef="0" IVar="6" Cut="3.8403511047363281e-02" cType="1" res="2.7138777077198029e-03" rms="4.4291210174560547e-01" purity="7.1206390857696533e-01" nType="0">
                    <Node pos="l" depth="7" NCoef="0" IVar="-1" Cut="0.0000000000000000e+00" cType="1" res="-2.9657690902240574e-04" rms="4.3933585286140442e-01" purity="7.1993213891983032e-01" nType="-99"/>
                    <Node pos="r" depth="7" NCoef="0" IVar="-1" Cut="0.0000000000000000e+00" cType="1" res="1.3780826702713966e-03" rms="4.5011398196220398e-01" purity="6.9551014900207520e-01" nType="-99"/>
                  </Node>
                  <Node pos="r" depth="6" NCoef="0" IVar="7" Cut="2.0000000000000000e+00" cType="1" res="1.5754148364067078e-02" rms="4.3082875013351440e-01" purity="7.1564167737960815e-01" nType="0">
                    <Node pos="l" depth="7" NCoef="0" IVar="-1" Cut="0.0000000000000000e+00" cType="1" res="2.2869219537824392e-03" rms="4.0889632701873779e-01" purity="7.7260643243789673e-01" nType="-99"/>
                    <Node pos="r" depth="7" NCoef="0" IVar="-1" Cut="0.0000000000000000e+00" cType="1" res="6.7354791099205613e-04" rms="4.7230300307273865e-01" purity="6.1531901359558105e-01" nType="-99"/>
                  </Node>
                </Node>
              </Node>
            </Node>
            <Node pos="r" depth="3" NCoef="0" IVar="6" Cut="6.4286522567272186e-02" cType="1" res="-1.1539403349161148e-03" rms="4.6904575824737549e-01" purity="5.4843723773956299e-01" nType="0">
              <Node pos="l" depth="4" NCoef="0" IVar="3" Cut="8.6386537551879883e-01" cType="1" res="-4.5521911233663559e-03" rms="4.6797555685043335e-01" purity="5.6569665670394897e-01" nType="0">
                <Node pos="l" depth="5" NCoef="0" IVar="6" Cut="3.3217966556549072e-02" cType="1" res="-1.8970426172018051e-02" rms="4.7815725207328796e-01" purity="4.3398696184158325e-01" nType="0">
                  <Node pos="l" depth="6" NCoef="0" IVar="-1" Cut="0.0000000000000000e+00" cType="1" res="-4.2059635743498802e-03" rms="4.7326451539993286e-01" purity="4.0112909674644470e-01" nType="-99"/>
                  <Node pos="r" depth="6" NCoef="0" IVar="4" Cut="-1.3652249574661255e+00" cType="1" res="-4.4418429024517536e-03" rms="4.8033732175827026e-01" purity="4.5282509922981262e-01" nType="0">
                    <Node pos="l" depth="7" NCoef="0" IVar="-1" Cut="0.0000000000000000e+00" cType="1" res="5.1844789413735271e-04" rms="4.8478075861930847e-01" purity="5.1406800746917725e-01" nType="-99"/>
                    <Node pos="r" depth="7" NCoef="0" IVar="-1" Cut="0.0000000000000000e+00" cType="1" res="-1.4002864481881261e-03" rms="4.7590336203575134e-01" purity="3.9511051774024963e-01" nType="-99"/>
                  </Node>
                </Node>
                <Node pos="r" depth="5" NCoef="0" IVar="6" Cut="1.8612919375300407e-02" cType="1" res="2.2894574794918299e-03" rms="4.6290880441665649e-01" purity="6.2819468975067139e-01" nType="0">
                  <Node pos="l" depth="6" NCoef="0" IVar="3" Cut="9.9605941772460938e-01" cType="1" res="-1.0851240949705243e-03" rms="4.6111732721328735e-01" purity="6.3360106945037842e-01" nType="0">
                    <Node pos="l" depth="7" NCoef="0" IVar="-1" Cut="0.0000000000000000e+00" cType="1" res="-2.5165411643683910e-03" rms="4.7525608539581299e-01" purity="5.7978075742721558e-01" nType="-99"/>
                    <Node pos="r" depth="7" NCoef="0" IVar="-1" Cut="0.0000000000000000e+00" cType="1" res="1.2351085897535086e-03" rms="4.5231729745864868e-01" purity="6.6386735439300537e-01" nType="-99"/>
                  </Node>
                  <Node pos="r" depth="6" NCoef="0" IVar="-1" Cut="0.0000000000000000e+00" cType="1" res="2.0157783292233944e-03" rms="4.7232660651206970e-01" purity="5.9806579351425171e-01" nType="-99"/>
                </Node>
              </Node>
              <Node pos="r" depth="4" NCoef="0" IVar="-1" Cut="0.0000000000000000e+00" cType="1" res="1.7983043799176812e-03" rms="4.7495877742767334e-01" purity="4.4386470317840576e-01" nType="-99"/>
            </Node>
          </Node>
        </Node>
        <Node pos="r" depth="1" NCoef="0" IVar="7" Cut="4.0000000000000000e+00" cType="1" res="-1.8382396548986435e-02" rms="2.2422732412815094e-01" purity="6.4699590206146240e-02" nType="0">
          <Node pos="l" depth="2" NCoef="0" IVar="5" Cut="8.5196685791015625e-01" cType="1" res="-3.5490106791257858e-02" rms="2.9925400018692017e-01" purity="1.2650416791439056e-01" nType="0">
            <Node pos="l" depth="3" NCoef="0" IVar="-1" Cut="0.0000000000000000e+00" cType="1" res="-2.3583220317959785e-03" rms="3.7046551704406738e-01" purity="2.0984856784343719e-01" nType="-99"/>
            <Node pos="r" depth="3" NCoef="0" IVar="-1" Cut="0.0000000000000000e+00" cType="1" res="-2.0064868032932281e-02" rms="1.9695442914962769e-01" purity="3.9539750665426254e-02" nType="-99"/>
          </Node>
          <Node pos="r" depth="2" NCoef="0" IVar="4" Cut="2.5516655445098877e+00" cType="1" res="-1.1434507556259632e-02" rms="1.8940037488937378e-01" purity="4.1171085089445114e-02" nType="0">
            <Node pos="l" depth="3" NCoef="0" IVar="3" Cut="3.5625436902046204e-01" cType="1" res="-2.7675007004290819e-03" rms="2.4009388685226440e-01" purity="6.9089852273464203e-02" nType="0">
              <Node pos="l" depth="4" NCoef="0" IVar="-1" Cut="0.0000000000000000e+00" cType="1" res="-1.0634443722665310e-02" rms="1.7536270618438721e-01" purity="3.2847866415977478e-02" nType="-99"/>
              <Node pos="r" depth="4" NCoef="0" IVar="-1" Cut="0.0000000000000000e+00" cType="1" res="3.8246687036007643e-03" rms="2.9400572180747986e-01" purity="1.0848879814147949e-01" nType="-99"/>
            </Node>
            <Node pos="r" depth="3" NCoef="0" IVar="3" Cut="3.2325282692909241e-01" cType="1" res="-1.6646999865770340e-02" rms="1.5068423748016357e-01" purity="2.4380242452025414e-02" nType="0">
              <Node pos="l" depth="4" NCoef="0" IVar="2" Cut="3.3462405395507812e+02" cType="1" res="-9.4112576916813850e-03" rms="1.6379766166210175e-01" purity="2.9784940183162689e-02" nType="0">
                <Node pos="l" depth="5" NCoef="0" IVar="-1" Cut="0.0000000000000000e+00" cType="1" res="-1.9321784377098083e-02" rms="1.0326173156499863e-01" purity="1.0999630205333233e-02" nType="-99"/>
                <Node pos="r" depth="5" NCoef="0" IVar="-1" Cut="0.0000000000000000e+00" cType="1" res="-4.9999891780316830e-04" rms="2.1505095064640045e-01" purity="5.2501529455184937e-02" nType="-99"/>
              </Node>
              <Node pos="r" depth="4" NCoef="0" IVar="-1" Cut="0.0000000000000000e+00" cType="1" res="-1.7434384673833847e-02" rms="1.2900181114673615e-01" purity="1.6670113429427147e-02" nType="-99"/>
            </Node>
          </Node>
        </Node>
      </Node>
    </BinaryTree>
    <BinaryTree type="DecisionTree" boostWeight="1.0000000000000000e+00" itree="87">
      <Node pos="s" depth="0" NCoef="0" IVar="5" Cut="-1.2603518962860107e+00" cType="1" res="5.1512052305042744e-03" rms="3.9995878934860229e-01" purity="5.0151467323303223e-01" nType="0">
        <Node pos="l" depth="1" NCoef="0" IVar="1" Cut="1.5940882265567780e-01" cType="1" res="8.5141435265541077e-03" rms="4.1040980815887451e-01" purity="5.7281529903411865e-01" nType="0">
          <Node pos="l" depth="2" NCoef="0" IVar="2" Cut="4.2579046630859375e+02" cType="1" res="1.5317504294216633e-02" rms="4.0508320927619934e-01" purity="7.0159578323364258e-01" nType="0">
            <Node pos="l" depth="3" NCoef="0" IVar="2" Cut="8.2406494140625000e+01" cType="1" res="1.6379335895180702e-02" rms="4.0365746617317200e-01" purity="7.1734154224395752e-01" nType="0">
              <Node pos="l" depth="4" NCoef="0" IVar="6" Cut="2.9020357877016068e-02" cType="1" res="1.9473684951663017e-02" rms="3.8333296775817871e-01" purity="7.9509925842285156e-01" nType="0">
                <Node pos="l" depth="5" NCoef="0" IVar="2" Cut="3.7213909149169922e+01" cType="1" res="1.6798451542854309e-02" rms="3.7462902069091797e-01" purity="8.1249731779098511e-01" nType="0">
                  <Node pos="l" depth="6" NCoef="0" IVar="3" Cut="1.0099186897277832e+00" cType="1" res="1.9682388752698898e-02" rms="3.6928427219390869e-01" purity="8.2529389858245850e-01" nType="0">
                    <Node pos="l" depth="7" NCoef="0" IVar="-1" Cut="0.0000000000000000e+00" cType="1" res="2.1668905392289162e-03" rms="3.7405341863632202e-01" purity="8.1866532564163208e-01" nType="-99"/>
                    <Node pos="r" depth="7" NCoef="0" IVar="-1" Cut="0.0000000000000000e+00" cType="1" res="4.0931841358542442e-03" rms="3.4610348939895630e-01" purity="8.5598689317703247e-01" nType="-99"/>
                  </Node>
                  <Node pos="r" depth="6" NCoef="0" IVar="-1" Cut="0.0000000000000000e+00" cType="1" res="-2.3569376207888126e-03" rms="4.3581795692443848e-01" purity="6.4813339710235596e-01" nType="-99"/>
                </Node>
                <Node pos="r" depth="5" NCoef="0" IVar="5" Cut="-2.1878349781036377e+00" cType="1" res="3.4126110374927521e-02" rms="4.2757895588874817e-01" purity="6.9980943202972412e-01" nType="0">
                  <Node pos="l" depth="6" NCoef="0" IVar="4" Cut="-1.3696054220199585e+00" cType="1" res="4.2755726724863052e-02" rms="4.1484028100967407e-01" purity="7.2131335735321045e-01" nType="0">
                    <Node pos="l" depth="7" NCoef="0" IVar="-1" Cut="0.0000000000000000e+00" cType="1" res="4.6196240000426769e-03" rms="4.0068599581718445e-01" purity="7.6952069997787476e-01" nType="-99"/>
                    <Node pos="r" depth="7" NCoef="0" IVar="-1" Cut="0.0000000000000000e+00" cType="1" res="3.6191234830766916e-03" rms="4.2821979522705078e-01" purity="6.7403763532638550e-01" nType="-99"/>
                  </Node>
                  <Node pos="r" depth="6" NCoef="0" IVar="-1" Cut="0.0000000000000000e+00" cType="1" res="1.4796111499890685e-03" rms="4.5248565077781677e-01" purity="6.5492433309555054e-01" nType="-99"/>
                </Node>
              </Node>
              <Node pos="r" depth="4" NCoef="0" IVar="6" Cut="1.2250626087188721e-01" cType="1" res="9.9719623103737831e-03" rms="4.4271799921989441e-01" purity="5.5633097887039185e-01" nType="0">
                <Node pos="l" depth="5" NCoef="0" IVar="3" Cut="8.5256469249725342e-01" cType="1" res="6.2838764861226082e-03" rms="4.4028863310813904e-01" purity="5.7255345582962036e-01" nType="0">
                  <Node pos="l" depth="6" NCoef="0" IVar="6" Cut="4.9247156828641891e-02" cType="1" res="1.4963228022679687e-03" rms="4.5043063163757324e-01" purity="5.1748740673065186e-01" nType="0">
                    <Node pos="l" depth="7" NCoef="0" IVar="-1" Cut="0.0000000000000000e+00" cType="1" res="-1.2810833286494017e-03" rms="4.5078489184379578e-01" purity="5.3639948368072510e-01" nType="-99"/>
                    <Node pos="r" depth="7" NCoef="0" IVar="-1" Cut="0.0000000000000000e+00" cType="1" res="6.2573811737820506e-04" rms="4.5022526383399963e-01" purity="5.1123666763305664e-01" nType="-99"/>
                  </Node>
                  <Node pos="r" depth="6" NCoef="0" IVar="-1" Cut="0.0000000000000000e+00" cType="1" res="3.2326502259820700e-03" rms="3.9487737417221069e-01" purity="8.0075842142105103e-01" nType="-99"/>
                </Node>
                <Node pos="r" depth="5" NCoef="0" IVar="-1" Cut="0.0000000000000000e+00" cType="1" res="4.3713613413274288e-03" rms="4.6197399497032166e-01" purity="4.1600084304809570e-01" nType="-99"/>
              </Node>
            </Node>
            <Node pos="r" depth="3" NCoef="0" IVar="-1" Cut="0.0000000000000000e+00" cType="1" res="-1.2772866757586598e-03" rms="4.3722298741340637e-01" purity="3.2262179255485535e-01" nType="-99"/>
          </Node>
          <Node pos="r" depth="2" NCoef="0" IVar="4" Cut="-2.5127470493316650e+00" cType="1" res="2.7341251261532307e-03" rms="4.1479378938674927e-01" purity="4.6340566873550415e-01" nType="0">
            <Node pos="l" depth="3" NCoef="0" IVar="2" Cut="6.9695625305175781e+01" cType="1" res="2.1010922268033028e-02" rms="4.3718460202217102e-01" purity="5.7089400291442871e-01" nType="0">
              <Node pos="l" depth="4" NCoef="0" IVar="-1" Cut="0.0000000000000000e+00" cType="1" res="3.3882302232086658e-03" rms="4.4718161225318909e-01" purity="6.7613989114761353e-01" nType="-99"/>
              <Node pos="r" depth="4" NCoef="0" IVar="5" Cut="-2.7561864852905273e+00" cType="1" res="9.5177087932825089e-03" rms="4.2843317985534668e-01" purity="4.8419582843780518e-01" nType="0">
                <Node pos="l" depth="5" NCoef="0" IVar="-1" Cut="0.0000000000000000e+00" cType="1" res="-4.4850990525446832e-04" rms="3.9257666468620300e-01" purity="4.0190964937210083e-01" nType="-99"/>
                <Node pos="r" depth="5" NCoef="0" IVar="-1" Cut="0.0000000000000000e+00" cType="1" res="2.0980164408683777e-03" rms="4.5709380507469177e-01" purity="5.5587702989578247e-01" nType="-99"/>
              </Node>
            </Node>
            <Node pos="r" depth="3" NCoef="0" IVar="1" Cut="5.5545964241027832e+00" cType="1" res="8.6347892647609115e-04" rms="4.1238781809806824e-01" purity="4.5240417122840881e-01" nType="0">
              <Node pos="l" depth="4" NCoef="0" IVar="1" Cut="2.5957581996917725e+00" cType="1" res="2.7183967176824808e-05" rms="4.1285979747772217e-01" purity="4.5543950796127319e-01" nType="0">
                <Node pos="l" depth="5" NCoef="0" IVar="3" Cut="3.2889521121978760e-01" cType="1" res="1.8316113855689764e-03" rms="4.1407221555709839e-01" purity="4.6810719370841980e-01" nType="0">
                  <Node pos="l" depth="6" NCoef="0" IVar="6" Cut="1.5140783786773682e-01" cType="1" res="-1.1851097457110882e-02" rms="2.5982812047004700e-01" purity="7.8531704843044281e-02" nType="0">
                    <Node pos="l" depth="7" NCoef="0" IVar="-1" Cut="0.0000000000000000e+00" cType="1" res="-9.8255863413214684e-03" rms="1.9579336047172546e-01" purity="4.0654677897691727e-02" nType="-99"/>
                    <Node pos="r" depth="7" NCoef="0" IVar="-1" Cut="0.0000000000000000e+00" cType="1" res="-6.1724153056275100e-05" rms="3.4955722093582153e-01" purity="1.4978550374507904e-01" nType="-99"/>
                  </Node>
                  <Node pos="r" depth="6" NCoef="0" IVar="4" Cut="-1.1115400791168213e+00" cType="1" res="3.7800269201397896e-03" rms="4.3154039978981018e-01" purity="5.2358263731002808e-01" nType="0">
                    <Node pos="l" depth="7" NCoef="0" IVar="-1" Cut="0.0000000000000000e+00" cType="1" res="-4.1877507464960217e-04" rms="4.5037400722503662e-01" purity="5.1071798801422119e-01" nType="-99"/>
                    <Node pos="r" depth="7" NCoef="0" IVar="-1" Cut="0.0000000000000000e+00" cType="1" res="8.9936255244538188e-04" rms="4.2196604609489441e-01" purity="5.2987658977508545e-01" nType="-99"/>
                  </Node>
                </Node>
                <Node pos="r" depth="5" NCoef="0" IVar="3" Cut="4.4416809082031250e-01" cType="1" res="-2.1356128156185150e-02" rms="3.9758798480033875e-01" purity="3.0532118678092957e-01" nType="0">
                  <Node pos="l" depth="6" NCoef="0" IVar="-1" Cut="0.0000000000000000e+00" cType="1" res="-1.6852272674441338e-03" rms="2.8574222326278687e-01" purity="9.7340054810047150e-02" nType="-99"/>
                  <Node pos="r" depth="6" NCoef="0" IVar="-1" Cut="0.0000000000000000e+00" cType="1" res="-3.1919111497700214e-03" rms="4.4982683658599854e-01" purity="4.2642673850059509e-01" nType="-99"/>
                </Node>
              </Node>
              <Node pos="r" depth="4" NCoef="0" IVar="-1" Cut="0.0000000000000000e+00" cType="1" res="3.9344932883977890e-03" rms="3.9522829651832581e-01" purity="3.5070860385894775e-01" nType="-99"/>
            </Node>
          </Node>
        </Node>
        <Node pos="r" depth="1" NCoef="0" IVar="5" Cut="9.4699603319168091e-01" cType="1" res="-6.9423983804881573e-03" rms="3.5961610078811646e-01" purity="2.4510756134986877e-01" nType="0">
          <Node pos="l" depth="2" NCoef="0" IVar="4" Cut="-1.1013143062591553e+00" cType="1" res="-2.6093521155416965e-03" rms="3.9962011575698853e-01" purity="3.1148749589920044e-01" nType="0">
            <Node pos="l" depth="3" NCoef="0" IVar="6" Cut="3.7695948034524918e-02" cType="1" res="1.8195394426584244e-02" rms="4.6601605415344238e-01" purity="5.0733691453933716e-01" nType="0">
              <Node pos="l" depth="4" NCoef="0" IVar="-1" Cut="0.0000000000000000e+00" cType="1" res="-3.1925825169309974e-05" rms="4.7315567731857300e-01" purity="5.7489889860153198e-01" nType="-99"/>
              <Node pos="r" depth="4" NCoef="0" IVar="-1" Cut="0.0000000000000000e+00" cType="1" res="4.2051114141941071e-03" rms="4.5710313320159912e-01" purity="4.3252068758010864e-01" nType="-99"/>
            </Node>
            <Node pos="r" depth="3" NCoef="0" IVar="0" Cut="2.2543408870697021e+00" cType="1" res="-5.7043465785682201e-03" rms="3.8867995142936707e-01" purity="2.8235217928886414e-01" nType="0">
              <Node pos="l" depth="4" NCoef="0" IVar="5" Cut="-1.1178942918777466e+00" cType="1" res="-2.9096149373799562e-03" rms="4.1070735454559326e-01" purity="3.2201918959617615e-01" nType="0">
                <Node pos="l" depth="5" NCoef="0" IVar="-1" Cut="0.0000000000000000e+00" cType="1" res="-1.9902335479855537e-03" rms="4.3389314413070679e-01" purity="4.0601554512977600e-01" nType="-99"/>
                <Node pos="r" depth="5" NCoef="0" IVar="1" Cut="1.4726731181144714e-01" cType="1" res="-1.0488500120118260e-03" rms="4.0750521421432495e-01" purity="3.1090813875198364e-01" nType="0">
                  <Node pos="l" depth="6" NCoef="0" IVar="5" Cut="-7.8485077619552612e-01" cType="1" res="6.7023769952356815e-03" rms="4.4512170553207397e-01" purity="4.2569634318351746e-01" nType="0">
                    <Node pos="l" depth="7" NCoef="0" IVar="-1" Cut="0.0000000000000000e+00" cType="1" res="-1.1723813368007541e-03" rms="4.6080696582794189e-01" purity="4.9746498465538025e-01" nType="-99"/>
                    <Node pos="r" depth="7" NCoef="0" IVar="-1" Cut="0.0000000000000000e+00" cType="1" res="1.6494619194418192e-03" rms="4.3820002675056458e-01" purity="3.9577609300613403e-01" nType="-99"/>
                  </Node>
                  <Node pos="r" depth="6" NCoef="0" IVar="0" Cut="2.9084262251853943e-01" cType="1" res="-5.8002485893666744e-03" rms="3.8254526257514954e-01" purity="2.4054449796676636e-01" nType="0">
                    <Node pos="l" depth="7" NCoef="0" IVar="-1" Cut="0.0000000000000000e+00" cType="1" res="-1.6730672214180231e-03" rms="4.7544696927070618e-01" purity="4.5283946394920349e-01" nType="-99"/>
                    <Node pos="r" depth="7" NCoef="0" IVar="-1" Cut="0.0000000000000000e+00" cType="1" res="-3.2946720602922142e-04" rms="3.4372377395629883e-01" purity="1.6562807559967041e-01" nType="-99"/>
                  </Node>
                </Node>
              </Node>
              <Node pos="r" depth="4" NCoef="0" IVar="5" Cut="-4.0582993626594543e-01" cType="1" res="-2.1680405363440514e-02" rms="2.2386120259761810e-01" purity="5.5595904588699341e-02" nType="0">
                <Node pos="l" depth="5" NCoef="0" IVar="-1" Cut="0.0000000000000000e+00" cType="1" res="-1.1426414363086224e-02" rms="2.3191563785076141e-01" purity="5.8642804622650146e-02" nType="-99"/>
                <Node pos="r" depth="5" NCoef="0" IVar="-1" Cut="0.0000000000000000e+00" cType="1" res="-6.8460609763860703e-03" rms="2.1587921679019928e-01" purity="5.2775315940380096e-02" nType="-99"/>
              </Node>
            </Node>
          </Node>
          <Node pos="r" depth="2" NCoef="0" IVar="3" Cut="4.5964831113815308e-01" cType="1" res="-2.0237792283296585e-02" rms="1.8946042656898499e-01" purity="4.1429392993450165e-02" nType="0">
            <Node pos="l" depth="3" NCoef="0" IVar="3" Cut="2.3086693882942200e-01" cType="1" res="-1.0195643641054630e-02" rms="1.6085949540138245e-01" purity="2.8461657464504242e-02" nType="0">
              <Node pos="l" depth="4" NCoef="0" IVar="-1" Cut="0.0000000000000000e+00" cType="1" res="4.8360526561737061e-03" rms="2.2245775163173676e-01" purity="5.7828418910503387e-02" nType="-99"/>
              <Node pos="r" depth="4" NCoef="0" IVar="3" Cut="3.4159475564956665e-01" cType="1" res="-1.6982216387987137e-02" rms="1.2952859699726105e-01" purity="1.7354710027575493e-02" nType="0">
                <Node pos="l" depth="5" NCoef="0" IVar="-1" Cut="0.0000000000000000e+00" cType="1" res="-1.2903260067105293e-02" rms="1.3414756953716278e-01" purity="1.8800916150212288e-02" nType="-99"/>
                <Node pos="r" depth="5" NCoef="0" IVar="-1" Cut="0.0000000000000000e+00" cType="1" res="-1.6766369342803955e-02" rms="1.2300461530685425e-01" purity="1.5431918203830719e-02" nType="-99"/>
              </Node>
            </Node>
            <Node pos="r" depth="3" NCoef="0" IVar="-1" Cut="0.0000000000000000e+00" cType="1" res="-1.2966553680598736e-02" rms="2.5298452377319336e-01" purity="7.9299829900264740e-02" nType="-99"/>
          </Node>
        </Node>
      </Node>
    </BinaryTree>
    <BinaryTree type="DecisionTree" boostWeight="1.0000000000000000e+00" itree="88">
      <Node pos="s" depth="0" NCoef="0" IVar="3" Cut="7.7941602468490601e-01" cType="1" res="4.2712739668786526e-03" rms="4.0005031228065491e-01" purity="5.0161564350128174e-01" nType="0">
        <Node pos="l" depth="1" NCoef="0" IVar="4" Cut="-1.7267955541610718e+00" cType="1" res="-2.1019191481173038e-03" rms="3.8174462318420410e-01" purity="2.5932848453521729e-01" nType="0">
          <Node pos="l" depth="2" NCoef="0" IVar="5" Cut="-2.6654684543609619e+00" cType="1" res="1.0293816216289997e-02" rms="4.4098606705665588e-01" purity="4.0334445238113403e-01" nType="0">
            <Node pos="l" depth="3" NCoef="0" IVar="0" Cut="3.2244300842285156e-01" cType="1" res="-6.3809491693973541e-03" rms="4.1682365536689758e-01" purity="3.4402033686637878e-01" nType="0">
              <Node pos="l" depth="4" NCoef="0" IVar="-1" Cut="0.0000000000000000e+00" cType="1" res="1.9774390384554863e-03" rms="4.7282102704048157e-01" purity="5.9104102849960327e-01" nType="-99"/>
              <Node pos="r" depth="4" NCoef="0" IVar="6" Cut="7.6314851641654968e-02" cType="1" res="-1.8511990085244179e-02" rms="3.8934335112571716e-01" purity="2.3657880723476410e-01" nType="0">
                <Node pos="l" depth="5" NCoef="0" IVar="-1" Cut="0.0000000000000000e+00" cType="1" res="-4.3421792797744274e-03" rms="3.8679650425910950e-01" purity="2.3628586530685425e-01" nType="-99"/>
                <Node pos="r" depth="5" NCoef="0" IVar="-1" Cut="0.0000000000000000e+00" cType="1" res="-7.3283270467072725e-04" rms="3.9190044999122620e-01" purity="2.3692660033702850e-01" nType="-99"/>
              </Node>
            </Node>
            <Node pos="r" depth="3" NCoef="0" IVar="4" Cut="-2.4854421615600586e+00" cType="1" res="2.5445910170674324e-02" rms="4.6132475137710571e-01" purity="4.5725134015083313e-01" nType="0">
              <Node pos="l" depth="4" NCoef="0" IVar="-1" Cut="0.0000000000000000e+00" cType="1" res="4.9664182588458061e-03" rms="4.6987697482109070e-01" purity="5.2859312295913696e-01" nType="-99"/>
              <Node pos="r" depth="4" NCoef="0" IVar="3" Cut="6.8124443292617798e-01" cType="1" res="1.6874404624104500e-02" rms="4.5804631710052490e-01" purity="4.3283155560493469e-01" nType="0">
                <Node pos="l" depth="5" NCoef="0" IVar="-1" Cut="0.0000000000000000e+00" cType="1" res="3.2408256083726883e-03" rms="4.4078594446182251e-01" purity="3.3837682008743286e-01" nType="-99"/>
                <Node pos="r" depth="5" NCoef="0" IVar="-1" Cut="0.0000000000000000e+00" cType="1" res="1.6539539501536638e-04" rms="4.8221591114997864e-01" purity="5.7348018884658813e-01" nType="-99"/>
              </Node>
            </Node>
          </Node>
          <Node pos="r" depth="2" NCoef="0" IVar="7" Cut="3.0000000000000000e+00" cType="1" res="-4.6963873319327831e-03" rms="3.6791181564331055e-01" purity="2.3028513789176941e-01" nType="0">
            <Node pos="l" depth="3" NCoef="0" IVar="6" Cut="1.1565148085355759e-01" cType="1" res="-1.7312718555331230e-02" rms="4.3688887357711792e-01" purity="3.5628229379653931e-01" nType="0">
              <Node pos="l" depth="4" NCoef="0" IVar="3" Cut="6.8269115686416626e-01" cType="1" res="-2.4764973670244217e-02" rms="4.3847885727882385e-01" purity="3.6791336536407471e-01" nType="0">
                <Node pos="l" depth="5" NCoef="0" IVar="2" Cut="1.3100093078613281e+02" cType="1" res="-4.1668832302093506e-02" rms="3.8055053353309631e-01" purity="2.1291218698024750e-01" nType="0">
                  <Node pos="l" depth="6" NCoef="0" IVar="-1" Cut="0.0000000000000000e+00" cType="1" res="-4.4417367316782475e-03" rms="4.0006980299949646e-01" purity="2.3986442387104034e-01" nType="-99"/>
                  <Node pos="r" depth="6" NCoef="0" IVar="-1" Cut="0.0000000000000000e+00" cType="1" res="-8.1449570134282112e-03" rms="3.5845300555229187e-01" purity="1.8434281647205353e-01" nType="-99"/>
                </Node>
                <Node pos="r" depth="5" NCoef="0" IVar="3" Cut="7.5133603811264038e-01" cType="1" res="-1.2750899419188499e-02" rms="4.7501248121261597e-01" purity="4.7807732224464417e-01" nType="0">
                  <Node pos="l" depth="6" NCoef="0" IVar="-1" Cut="0.0000000000000000e+00" cType="1" res="-2.1767143625766039e-03" rms="4.7420492768287659e-01" purity="4.4124379754066467e-01" nType="-99"/>
                  <Node pos="r" depth="6" NCoef="0" IVar="-1" Cut="0.0000000000000000e+00" cType="1" res="3.7389760836958885e-04" rms="4.7582656145095825e-01" purity="5.3747308254241943e-01" nType="-99"/>
                </Node>
              </Node>
              <Node pos="r" depth="4" NCoef="0" IVar="-1" Cut="0.0000000000000000e+00" cType="1" res="2.1901845466345549e-03" rms="4.2783507704734802e-01" purity="3.0280235409736633e-01" nType="-99"/>
            </Node>
            <Node pos="r" depth="3" NCoef="0" IVar="3" Cut="5.8114314079284668e-01" cType="1" res="-2.3230949882417917e-03" rms="3.5491833090782166e-01" purity="2.0769815146923065e-01" nType="0">
              <Node pos="l" depth="4" NCoef="0" IVar="6" Cut="1.2832888960838318e-01" cType="1" res="-6.5131979063153267e-03" rms="3.0777823925018311e-01" purity="1.2551403045654297e-01" nType="0">
                <Node pos="l" depth="5" NCoef="0" IVar="3" Cut="3.8071727752685547e-01" cType="1" res="-1.1227730661630630e-02" rms="2.8799241781234741e-01" purity="1.0831919312477112e-01" nType="0">
                  <Node pos="l" depth="6" NCoef="0" IVar="1" Cut="1.4029753208160400e+00" cType="1" res="-1.7831804230809212e-02" rms="1.7751801013946533e-01" purity="3.3082131296396255e-02" nType="0">
                    <Node pos="l" depth="7" NCoef="0" IVar="-1" Cut="0.0000000000000000e+00" cType="1" res="-1.2964631430804729e-02" rms="1.7007340490818024e-01" purity="3.0327487736940384e-02" nType="-99"/>
                    <Node pos="r" depth="7" NCoef="0" IVar="-1" Cut="0.0000000000000000e+00" cType="1" res="-6.1567295342683792e-03" rms="1.9149842858314514e-01" purity="3.8689460605382919e-02" nType="-99"/>
                  </Node>
                  <Node pos="r" depth="6" NCoef="0" IVar="7" Cut="4.0000000000000000e+00" cType="1" res="-5.4834252223372459e-03" rms="3.5482329130172729e-01" purity="1.7333158850669861e-01" nType="0">
                    <Node pos="l" depth="7" NCoef="0" IVar="-1" Cut="0.0000000000000000e+00" cType="1" res="-3.6730810534209013e-03" rms="3.5138466954231262e-01" purity="1.6074137389659882e-01" nType="-99"/>
                    <Node pos="r" depth="7" NCoef="0" IVar="-1" Cut="0.0000000000000000e+00" cType="1" res="2.7511393909662729e-06" rms="3.5874226689338684e-01" purity="1.7824685573577881e-01" nType="-99"/>
                  </Node>
                </Node>
                <Node pos="r" depth="5" NCoef="0" IVar="5" Cut="-1.8129684925079346e+00" cType="1" res="1.2562001356855035e-03" rms="3.3772233128547668e-01" purity="1.5385057032108307e-01" nType="0">
                  <Node pos="l" depth="6" NCoef="0" IVar="3" Cut="2.6855227351188660e-01" cType="1" res="1.3038570992648602e-02" rms="4.0015855431556702e-01" purity="2.3301023244857788e-01" nType="0">
                    <Node pos="l" depth="7" NCoef="0" IVar="-1" Cut="0.0000000000000000e+00" cType="1" res="-2.6748494710773230e-03" rms="3.2125642895698547e-01" purity="1.2319710850715637e-01" nType="-99"/>
                    <Node pos="r" depth="7" NCoef="0" IVar="-1" Cut="0.0000000000000000e+00" cType="1" res="3.3806990832090378e-03" rms="4.3421196937561035e-01" purity="2.8866884112358093e-01" nType="-99"/>
                  </Node>
                  <Node pos="r" depth="6" NCoef="0" IVar="2" Cut="3.2806506347656250e+02" cType="1" res="-5.9387912042438984e-03" rms="2.9289340972900391e-01" purity="1.0551113635301590e-01" nType="0">
                    <Node pos="l" depth="7" NCoef="0" IVar="-1" Cut="0.0000000000000000e+00" cType="1" res="1.8266636179760098e-03" rms="3.1335517764091492e-01" purity="1.2644164264202118e-01" nType="-99"/>
                    <Node pos="r" depth="7" NCoef="0" IVar="-1" Cut="0.0000000000000000e+00" cType="1" res="-3.7075257860124111e-03" rms="2.8160598874092102e-01" purity="9.4776727259159088e-02" nType="-99"/>
                  </Node>
                </Node>
              </Node>
              <Node pos="r" depth="4" NCoef="0" IVar="6" Cut="3.8101732730865479e-02" cType="1" res="1.0399639606475830e-02" rms="4.6968823671340942e-01" purity="4.5724022388458252e-01" nType="0">
                <Node pos="l" depth="5" NCoef="0" IVar="-1" Cut="0.0000000000000000e+00" cType="1" res="-5.7628349168226123e-04" rms="4.7211959958076477e-01" purity="4.2003127932548523e-01" nType="-99"/>
                <Node pos="r" depth="5" NCoef="0" IVar="2" Cut="1.1730899810791016e+02" cType="1" res="1.3877153396606445e-02" rms="4.6908843517303467e-01" purity="4.6528434753417969e-01" nType="0">
                  <Node pos="l" depth="6" NCoef="0" IVar="2" Cut="7.4145187377929688e+01" cType="1" res="3.3144325017929077e-02" rms="4.7367769479751587e-01" purity="5.2820587158203125e-01" nType="0">
                    <Node pos="l" depth="7" NCoef="0" IVar="-1" Cut="0.0000000000000000e+00" cType="1" res="3.5584657453000546e-03" rms="4.7270727157592773e-01" purity="5.4844826459884644e-01" nType="-99"/>
                    <Node pos="r" depth="7" NCoef="0" IVar="-1" Cut="0.0000000000000000e+00" cType="1" res="2.5631666649132967e-03" rms="4.7440114617347717e-01" purity="5.1112586259841919e-01" nType="-99"/>
                  </Node>
                  <Node pos="r" depth="6" NCoef="0" IVar="3" Cut="6.1950552463531494e-01" cType="1" res="3.5875188186764717e-03" rms="4.6629306674003601e-01" purity="4.3168109655380249e-01" nType="0">
                    <Node pos="l" depth="7" NCoef="0" IVar="-1" Cut="0.0000000000000000e+00" cType="1" res="-1.8356844084337354e-03" rms="4.4650024175643921e-01" purity="3.2769832015037537e-01" nType="-99"/>
                    <Node pos="r" depth="7" NCoef="0" IVar="-1" Cut="0.0000000000000000e+00" cType="1" res="1.1085747973993421e-03" rms="4.7339394688606262e-01" purity="4.7124680876731873e-01" nType="-99"/>
                  </Node>
                </Node>
              </Node>
            </Node>
          </Node>
        </Node>
        <Node pos="r" depth="1" NCoef="0" IVar="3" Cut="1.0540994405746460e+00" cType="1" res="1.0507054626941681e-02" rms="4.1709032654762268e-01" purity="7.3867893218994141e-01" nType="0">
          <Node pos="l" depth="2" NCoef="0" IVar="3" Cut="1.0009264945983887e+00" cType="1" res="1.1562558822333813e-02" rms="4.1739615797996521e-01" purity="7.4028152227401733e-01" nType="0">
            <Node pos="l" depth="3" NCoef="0" IVar="6" Cut="3.8644470274448395e-02" cType="1" res="8.3656916394829750e-03" rms="4.2583772540092468e-01" purity="7.2412902116775513e-01" nType="0">
              <Node pos="l" depth="4" NCoef="0" IVar="5" Cut="-2.9696998596191406e+00" cType="1" res="5.4978597909212112e-03" rms="4.1950389742851257e-01" purity="7.3774766921997070e-01" nType="0">
                <Node pos="l" depth="5" NCoef="0" IVar="3" Cut="8.8662207126617432e-01" cType="1" res="1.4571944251656532e-02" rms="3.8825252652168274e-01" purity="7.9722756147384644e-01" nType="0">
                  <Node pos="l" depth="6" NCoef="0" IVar="-1" Cut="0.0000000000000000e+00" cType="1" res="-3.5859344643540680e-04" rms="4.4507673382759094e-01" purity="6.9451028108596802e-01" nType="-99"/>
                  <Node pos="r" depth="6" NCoef="0" IVar="1" Cut="-4.1255272924900055e-02" cType="1" res="1.7921362072229385e-02" rms="3.7663367390632629e-01" purity="8.1635016202926636e-01" nType="0">
                    <Node pos="l" depth="7" NCoef="0" IVar="-1" Cut="0.0000000000000000e+00" cType="1" res="3.3393828198313713e-03" rms="3.4290850162506104e-01" purity="8.6072653532028198e-01" nType="-99"/>
                    <Node pos="r" depth="7" NCoef="0" IVar="-1" Cut="0.0000000000000000e+00" cType="1" res="1.6559597570449114e-03" rms="3.9766836166381836e-01" purity="7.8650224208831787e-01" nType="-99"/>
                  </Node>
                </Node>
                <Node pos="r" depth="5" NCoef="0" IVar="1" Cut="8.8003325462341309e-01" cType="1" res="2.0218612626194954e-03" rms="4.3082466721534729e-01" purity="7.1496284008026123e-01" nType="0">
                  <Node pos="l" depth="6" NCoef="0" IVar="2" Cut="8.8275711059570312e+01" cType="1" res="4.4050961732864380e-03" rms="4.2136484384536743e-01" purity="7.4786388874053955e-01" nType="0">
                    <Node pos="l" depth="7" NCoef="0" IVar="-1" Cut="0.0000000000000000e+00" cType="1" res="7.1651471080258489e-04" rms="4.1794446110725403e-01" purity="7.5494319200515747e-01" nType="-99"/>
                    <Node pos="r" depth="7" NCoef="0" IVar="-1" Cut="0.0000000000000000e+00" cType="1" res="-1.3865445507690310e-03" rms="4.4808775186538696e-01" purity="6.8978923559188843e-01" nType="-99"/>
                  </Node>
                  <Node pos="r" depth="6" NCoef="0" IVar="5" Cut="-1.7564977407455444e+00" cType="1" res="-9.7153317183256149e-03" rms="4.7449600696563721e-01" purity="5.5292803049087524e-01" nType="0">
                    <Node pos="l" depth="7" NCoef="0" IVar="-1" Cut="0.0000000000000000e+00" cType="1" res="-2.9483608159353025e-05" rms="4.7391274571418762e-01" purity="6.1007332801818848e-01" nType="-99"/>
                    <Node pos="r" depth="7" NCoef="0" IVar="-1" Cut="0.0000000000000000e+00" cType="1" res="-3.2009787391871214e-03" rms="4.7514045238494873e-01" purity="4.0880754590034485e-01" nType="-99"/>
                  </Node>
                </Node>
              </Node>
              <Node pos="r" depth="4" NCoef="0" IVar="2" Cut="1.3491415405273438e+02" cType="1" res="1.8336648121476173e-02" rms="4.4701847434043884e-01" purity="6.7677921056747437e-01" nType="0">
                <Node pos="l" depth="5" NCoef="0" IVar="6" Cut="4.6921219676733017e-02" cType="1" res="2.4389399215579033e-02" rms="4.4155099987983704e-01" purity="6.9618397951126099e-01" nType="0">
                  <Node pos="l" depth="6" NCoef="0" IVar="-1" Cut="0.0000000000000000e+00" cType="1" res="1.3040497433394194e-03" rms="4.4458016753196716e-01" purity="6.9680970907211304e-01" nType="-99"/>
                  <Node pos="r" depth="6" NCoef="0" IVar="5" Cut="-2.2876577377319336e+00" cType="1" res="3.2010242342948914e-02" rms="4.3927597999572754e-01" purity="6.9574987888336182e-01" nType="0">
                    <Node pos="l" depth="7" NCoef="0" IVar="-1" Cut="0.0000000000000000e+00" cType="1" res="3.9345445111393929e-03" rms="4.1279211640357971e-01" purity="7.6311618089675903e-01" nType="-99"/>
                    <Node pos="r" depth="7" NCoef="0" IVar="-1" Cut="0.0000000000000000e+00" cType="1" res="2.0484277047216892e-03" rms="4.6052518486976624e-01" purity="6.3820284605026245e-01" nType="-99"/>
                  </Node>
                </Node>
                <Node pos="r" depth="5" NCoef="0" IVar="2" Cut="2.4171844482421875e+02" cType="1" res="1.1816467158496380e-02" rms="4.5274379849433899e-01" purity="6.5587604045867920e-01" nType="0">
                  <Node pos="l" depth="6" NCoef="0" IVar="2" Cut="1.8659625244140625e+02" cType="1" res="6.7362054251134396e-03" rms="4.5214560627937317e-01" purity="6.6441082954406738e-01" nType="0">
                    <Node pos="l" depth="7" NCoef="0" IVar="-1" Cut="0.0000000000000000e+00" cType="1" res="1.0605908464640379e-03" rms="4.4855612516403198e-01" purity="6.7570060491561890e-01" nType="-99"/>
                    <Node pos="r" depth="7" NCoef="0" IVar="-1" Cut="0.0000000000000000e+00" cType="1" res="1.2653147859964520e-04" rms="4.5671918988227844e-01" purity="6.4970880746841431e-01" nType="-99"/>
                  </Node>
                  <Node pos="r" depth="6" NCoef="0" IVar="-1" Cut="0.0000000000000000e+00" cType="1" res="2.6622067671269178e-03" rms="4.5409518480300903e-01" purity="6.3233518600463867e-01" nType="-99"/>
                </Node>
              </Node>
            </Node>
            <Node pos="r" depth="3" NCoef="0" IVar="3" Cut="1.0043565034866333e+00" cType="1" res="2.1973611786961555e-02" rms="3.8845387101173401e-01" purity="7.9288452863693237e-01" nType="0">
              <Node pos="l" depth="4" NCoef="0" IVar="3" Cut="1.0017011165618896e+00" cType="1" res="2.7409264817833900e-02" rms="3.8635599613189697e-01" purity="7.9736602306365967e-01" nType="0">
                <Node pos="l" depth="5" NCoef="0" IVar="-1" Cut="0.0000000000000000e+00" cType="1" res="2.2985367104411125e-03" rms="3.9500761032104492e-01" purity="7.8784000873565674e-01" nType="-99"/>
                <Node pos="r" depth="5" NCoef="0" IVar="3" Cut="1.0026432275772095e+00" cType="1" res="3.0738875269889832e-02" rms="3.8192442059516907e-01" purity="8.0211675167083740e-01" nType="0">
                  <Node pos="l" depth="6" NCoef="0" IVar="-1" Cut="0.0000000000000000e+00" cType="1" res="4.0955501608550549e-03" rms="3.8079965114593506e-01" purity="8.0450242757797241e-01" nType="-99"/>
                  <Node pos="r" depth="6" NCoef="0" IVar="-1" Cut="0.0000000000000000e+00" cType="1" res="2.9312118422240019e-03" rms="3.8289105892181396e-01" purity="7.9987585544586182e-01" nType="-99"/>
                </Node>
              </Node>
              <Node pos="r" depth="4" NCoef="0" IVar="5" Cut="-2.1879541873931885e+00" cType="1" res="1.9168024882674217e-02" rms="3.8950255513191223e-01" purity="7.9057139158248901e-01" nType="0">
                <Node pos="l" depth="5" NCoef="0" IVar="3" Cut="1.0091694593429565e+00" cType="1" res="2.2033909335732460e-02" rms="3.6871889233589172e-01" purity="8.2715994119644165e-01" nType="0">
                  <Node pos="l" depth="6" NCoef="0" IVar="-1" Cut="0.0000000000000000e+00" cType="1" res="1.8957167631015182e-03" rms="3.7053680419921875e-01" purity="8.2401990890502930e-01" nType="-99"/>
                  <Node pos="r" depth="6" NCoef="0" IVar="4" Cut="-4.1549560427665710e-01" cType="1" res="2.4633297696709633e-02" rms="3.6801818013191223e-01" purity="8.2830715179443359e-01" nType="0">
                    <Node pos="l" depth="7" NCoef="0" IVar="-1" Cut="0.0000000000000000e+00" cType="1" res="3.3630104735493660e-03" rms="3.6552464962005615e-01" purity="8.2975757122039795e-01" nType="-99"/>
                    <Node pos="r" depth="7" NCoef="0" IVar="-1" Cut="0.0000000000000000e+00" cType="1" res="2.2412296384572983e-03" rms="3.7285187840461731e-01" purity="8.2540363073348999e-01" nType="-99"/>
                  </Node>
                </Node>
                <Node pos="r" depth="5" NCoef="0" IVar="-1" Cut="0.0000000000000000e+00" cType="1" res="1.2025808682665229e-03" rms="4.3724635243415833e-01" purity="6.9875681400299072e-01" nType="-99"/>
              </Node>
            </Node>
          </Node>
          <Node pos="r" depth="2" NCoef="0" IVar="-1" Cut="0.0000000000000000e+00" cType="1" res="-3.6691944114863873e-03" rms="4.0240177512168884e-01" purity="6.7456418275833130e-01" nType="-99"/>
        </Node>
      </Node>
    </BinaryTree>
    <BinaryTree type="DecisionTree" boostWeight="1.0000000000000000e+00" itree="89">
      <Node pos="s" depth="0" NCoef="0" IVar="4" Cut="2.6993718147277832e+00" cType="1" res="4.6704858541488647e-03" rms="4.0019616484642029e-01" purity="5.0064003467559814e-01" nType="0">
        <Node pos="l" depth="1" NCoef="0" IVar="3" Cut="4.5950278639793396e-01" cType="1" res="5.8759236708283424e-03" rms="4.0768975019454956e-01" purity="5.2197182178497314e-01" nType="0">
          <Node pos="l" depth="2" NCoef="0" IVar="7" Cut="3.0000000000000000e+00" cType="1" res="-4.8784189857542515e-03" rms="2.9109448194503784e-01" purity="1.0414285212755203e-01" nType="0">
            <Node pos="l" depth="3" NCoef="0" IVar="-1" Cut="0.0000000000000000e+00" cType="1" res="6.4897830598056316e-03" rms="3.5414668917655945e-01" purity="1.7038042843341827e-01" nType="-99"/>
            <Node pos="r" depth="3" NCoef="0" IVar="0" Cut="4.8365616798400879e+00" cType="1" res="-6.4126504585146904e-03" rms="2.8915444016456604e-01" purity="1.0025241971015930e-01" nType="0">
              <Node pos="l" depth="4" NCoef="0" IVar="3" Cut="1.8469965457916260e-01" cType="1" res="-8.0362139269709587e-03" rms="2.8909021615982056e-01" purity="1.0017253458499908e-01" nType="0">
                <Node pos="l" depth="5" NCoef="0" IVar="-1" Cut="0.0000000000000000e+00" cType="1" res="-8.9593138545751572e-03" rms="2.7682048082351685e-01" purity="9.0835660696029663e-02" nType="-99"/>
                <Node pos="r" depth="5" NCoef="0" IVar="6" Cut="2.1507997810840607e-01" cType="1" res="-5.7985563762485981e-03" rms="2.9006099700927734e-01" purity="1.0101030766963959e-01" nType="0">
                  <Node pos="l" depth="6" NCoef="0" IVar="3" Cut="3.3540382981300354e-01" cType="1" res="-7.9488651826977730e-03" rms="2.7699539065361023e-01" purity="9.0403348207473755e-02" nType="0">
                    <Node pos="l" depth="7" NCoef="0" IVar="-1" Cut="0.0000000000000000e+00" cType="1" res="-7.0795621722936630e-03" rms="2.1713091433048248e-01" purity="5.0756338983774185e-02" nType="-99"/>
                    <Node pos="r" depth="7" NCoef="0" IVar="-1" Cut="0.0000000000000000e+00" cType="1" res="-6.2827090732753277e-04" rms="3.1945273280143738e-01" purity="1.2443052977323532e-01" nType="-99"/>
                  </Node>
                  <Node pos="r" depth="6" NCoef="0" IVar="-1" Cut="0.0000000000000000e+00" cType="1" res="2.5463893543928862e-03" rms="3.9006638526916504e-01" purity="1.9901192188262939e-01" nType="-99"/>
                </Node>
              </Node>
              <Node pos="r" depth="4" NCoef="0" IVar="-1" Cut="0.0000000000000000e+00" cType="1" res="6.2559442594647408e-03" rms="2.8907695412635803e-01" purity="1.0139299929141998e-01" nType="-99"/>
            </Node>
          </Node>
          <Node pos="r" depth="2" NCoef="0" IVar="1" Cut="6.7235571146011353e-01" cType="1" res="8.4033748134970665e-03" rms="4.3095797300338745e-01" purity="6.2378191947937012e-01" nType="0">
            <Node pos="l" depth="3" NCoef="0" IVar="0" Cut="1.2871485948562622e+00" cType="1" res="1.1610060930252075e-02" rms="4.2409458756446838e-01" purity="6.7709207534790039e-01" nType="0">
              <Node pos="l" depth="4" NCoef="0" IVar="4" Cut="-1.5069590806961060e+00" cType="1" res="1.2217745184898376e-02" rms="4.2357134819030762e-01" purity="6.8511229753494263e-01" nType="0">
                <Node pos="l" depth="5" NCoef="0" IVar="4" Cut="-2.0211641788482666e+00" cType="1" res="6.2970002181828022e-03" rms="4.3752682209014893e-01" purity="6.9663238525390625e-01" nType="0">
                  <Node pos="l" depth="6" NCoef="0" IVar="2" Cut="4.1681915283203125e+01" cType="1" res="1.1078330688178539e-02" rms="4.3409842252731323e-01" purity="7.0453578233718872e-01" nType="0">
                    <Node pos="l" depth="7" NCoef="0" IVar="-1" Cut="0.0000000000000000e+00" cType="1" res="2.4547164794057608e-03" rms="4.1596564650535583e-01" purity="7.5906032323837280e-01" nType="-99"/>
                    <Node pos="r" depth="7" NCoef="0" IVar="-1" Cut="0.0000000000000000e+00" cType="1" res="4.8393773613497615e-04" rms="4.4314500689506531e-01" purity="6.7603635787963867e-01" nType="-99"/>
                  </Node>
                  <Node pos="r" depth="6" NCoef="0" IVar="3" Cut="9.6386814117431641e-01" cType="1" res="-5.0509865395724773e-03" rms="4.4535276293754578e-01" purity="6.7787468433380127e-01" nType="0">
                    <Node pos="l" depth="7" NCoef="0" IVar="-1" Cut="0.0000000000000000e+00" cType="1" res="6.3060293905436993e-04" rms="4.5610809326171875e-01" purity="6.2901622056961060e-01" nType="-99"/>
                    <Node pos="r" depth="7" NCoef="0" IVar="-1" Cut="0.0000000000000000e+00" cType="1" res="-2.2589704021811485e-03" rms="4.2758604884147644e-01" purity="7.5338351726531982e-01" nType="-99"/>
                  </Node>
                </Node>
                <Node pos="r" depth="5" NCoef="0" IVar="5" Cut="-2.8833532333374023e+00" cType="1" res="1.4707918278872967e-02" rms="4.1753748059272766e-01" purity="6.8026709556579590e-01" nType="0">
                  <Node pos="l" depth="6" NCoef="0" IVar="7" Cut="3.0000000000000000e+00" cType="1" res="1.8855813890695572e-02" rms="3.1584125757217407e-01" purity="7.9503124952316284e-01" nType="0">
                    <Node pos="l" depth="7" NCoef="0" IVar="-1" Cut="0.0000000000000000e+00" cType="1" res="2.8580771759152412e-03" rms="3.5126852989196777e-01" purity="8.3965653181076050e-01" nType="-99"/>
                    <Node pos="r" depth="7" NCoef="0" IVar="-1" Cut="0.0000000000000000e+00" cType="1" res="4.1658640839159489e-03" rms="4.6293798089027405e-01" purity="4.4796773791313171e-01" nType="-99"/>
                  </Node>
                  <Node pos="r" depth="6" NCoef="0" IVar="6" Cut="8.9706756174564362e-02" cType="1" res="1.1885060928761959e-02" rms="4.3435451388359070e-01" purity="6.3963919878005981e-01" nType="0">
                    <Node pos="l" depth="7" NCoef="0" IVar="-1" Cut="0.0000000000000000e+00" cType="1" res="1.0496075265109539e-03" rms="4.2812904715538025e-01" purity="6.7422729730606079e-01" nType="-99"/>
                    <Node pos="r" depth="7" NCoef="0" IVar="-1" Cut="0.0000000000000000e+00" cType="1" res="2.4242119397968054e-03" rms="4.6794229745864868e-01" purity="4.4325873255729675e-01" nType="-99"/>
                  </Node>
                </Node>
              </Node>
              <Node pos="r" depth="4" NCoef="0" IVar="-1" Cut="0.0000000000000000e+00" cType="1" res="-1.9777091220021248e-03" rms="4.4684639573097229e-01" purity="3.0401217937469482e-01" nType="-99"/>
            </Node>
            <Node pos="r" depth="3" NCoef="0" IVar="1" Cut="1.5742764472961426e+00" cType="1" res="-1.0404896456748247e-03" rms="4.5043152570724487e-01" purity="4.6678066253662109e-01" nType="0">
              <Node pos="l" depth="4" NCoef="0" IVar="6" Cut="3.8232970982789993e-02" cType="1" res="5.7354159653186798e-03" rms="4.5093387365341187e-01" purity="4.9665328860282898e-01" nType="0">
                <Node pos="l" depth="5" NCoef="0" IVar="2" Cut="4.2487033843994141e+01" cType="1" res="-1.6563574317842722e-03" rms="4.5194071531295776e-01" purity="6.0406988859176636e-01" nType="0">
                  <Node pos="l" depth="6" NCoef="0" IVar="1" Cut="1.1960148811340332e+00" cType="1" res="3.7904414348304272e-03" rms="4.5073813199996948e-01" purity="6.4741301536560059e-01" nType="0">
                    <Node pos="l" depth="7" NCoef="0" IVar="-1" Cut="0.0000000000000000e+00" cType="1" res="7.0675677852705121e-04" rms="4.4649091362953186e-01" purity="6.6747123003005981e-01" nType="-99"/>
                    <Node pos="r" depth="7" NCoef="0" IVar="-1" Cut="0.0000000000000000e+00" cType="1" res="-5.8873306261375546e-04" rms="4.6282324194908142e-01" purity="5.8856463432312012e-01" nType="-99"/>
                  </Node>
                  <Node pos="r" depth="6" NCoef="0" IVar="-1" Cut="0.0000000000000000e+00" cType="1" res="-2.4887814652174711e-03" rms="4.5598128437995911e-01" purity="4.3493524193763733e-01" nType="-99"/>
                </Node>
                <Node pos="r" depth="5" NCoef="0" IVar="2" Cut="7.7579551696777344e+01" cType="1" res="1.3744071125984192e-02" rms="4.4970330595970154e-01" purity="3.8027223944664001e-01" nType="0">
                  <Node pos="l" depth="6" NCoef="0" IVar="-1" Cut="0.0000000000000000e+00" cType="1" res="3.5825052764266729e-03" rms="4.6980398893356323e-01" purity="4.6813237667083740e-01" nType="-99"/>
                  <Node pos="r" depth="6" NCoef="0" IVar="4" Cut="-1.4268904924392700e+00" cType="1" res="8.0649023875594139e-03" rms="4.4490081071853638e-01" purity="3.6069020628929138e-01" nType="0">
                    <Node pos="l" depth="7" NCoef="0" IVar="-1" Cut="0.0000000000000000e+00" cType="1" res="2.2417725995182991e-03" rms="4.6702313423156738e-01" purity="4.7963735461235046e-01" nType="-99"/>
                    <Node pos="r" depth="7" NCoef="0" IVar="-1" Cut="0.0000000000000000e+00" cType="1" res="2.3241240705829114e-04" rms="4.3532702326774597e-01" purity="3.1177151203155518e-01" nType="-99"/>
                  </Node>
                </Node>
              </Node>
              <Node pos="r" depth="4" NCoef="0" IVar="1" Cut="5.1043043136596680e+00" cType="1" res="-1.2922251597046852e-02" rms="4.4930264353752136e-01" purity="4.1439807415008545e-01" nType="0">
                <Node pos="l" depth="5" NCoef="0" IVar="4" Cut="1.0381542146205902e-01" cType="1" res="-1.9813669845461845e-02" rms="4.4989556074142456e-01" purity="4.0530368685722351e-01" nType="0">
                  <Node pos="l" depth="6" NCoef="0" IVar="7" Cut="3.0000000000000000e+00" cType="1" res="-1.1486053466796875e-02" rms="4.5142972469329834e-01" purity="4.3958666920661926e-01" nType="0">
                    <Node pos="l" depth="7" NCoef="0" IVar="-1" Cut="0.0000000000000000e+00" cType="1" res="-1.9425508799031377e-03" rms="4.6661296486854553e-01" purity="4.8331806063652039e-01" nType="-99"/>
                    <Node pos="r" depth="7" NCoef="0" IVar="-1" Cut="0.0000000000000000e+00" cType="1" res="9.0108643053099513e-04" rms="4.4127565622329712e-01" purity="3.0357313156127930e-01" nType="-99"/>
                  </Node>
                  <Node pos="r" depth="6" NCoef="0" IVar="-1" Cut="0.0000000000000000e+00" cType="1" res="-5.3266277536749840e-03" rms="4.1005498170852661e-01" purity="2.8825947642326355e-01" nType="-99"/>
                </Node>
                <Node pos="r" depth="5" NCoef="0" IVar="-1" Cut="0.0000000000000000e+00" cType="1" res="2.6605501770973206e-03" rms="4.4399529695510864e-01" purity="4.6532768011093140e-01" nType="-99"/>
              </Node>
            </Node>
          </Node>
        </Node>
        <Node pos="r" depth="1" NCoef="0" IVar="3" Cut="4.0023085474967957e-01" cType="1" res="-2.2207934409379959e-02" rms="1.5624621510505676e-01" purity="2.4990901350975037e-02" nType="0">
          <Node pos="l" depth="2" NCoef="0" IVar="7" Cut="7.0000000000000000e+00" cType="1" res="-1.1278879828751087e-02" rms="1.4968712627887726e-01" purity="2.4669677019119263e-02" nType="0">
            <Node pos="l" depth="3" NCoef="0" IVar="-1" Cut="0.0000000000000000e+00" cType="1" res="-1.4115124940872192e-02" rms="1.3035058975219727e-01" purity="1.7685934901237488e-02" nType="-99"/>
            <Node pos="r" depth="3" NCoef="0" IVar="-1" Cut="0.0000000000000000e+00" cType="1" res="-3.8118725642561913e-03" rms="1.7750425636768341e-01" purity="3.5169266164302826e-02" nType="-99"/>
          </Node>
          <Node pos="r" depth="2" NCoef="0" IVar="-1" Cut="0.0000000000000000e+00" cType="1" res="-2.0276265218853951e-02" rms="1.6499044001102448e-01" purity="2.5755308568477631e-02" nType="-99"/>
        </Node>
      </Node>
    </BinaryTree>
    <BinaryTree type="DecisionTree" boostWeight="1.0000000000000000e+00" itree="90">
      <Node pos="s" depth="0" NCoef="0" IVar="3" Cut="5.8636254072189331e-01" cType="1" res="3.8526756688952446e-03" rms="3.9998987317085266e-01" purity="5.0024676322937012e-01" nType="0">
        <Node pos="l" depth="1" NCoef="0" IVar="6" Cut="1.4113941788673401e-01" cType="1" res="-4.9552731215953827e-03" rms="3.2038033008575439e-01" purity="1.3725182414054871e-01" nType="0">
          <Node pos="l" depth="2" NCoef="0" IVar="5" Cut="-2.6153244972229004e+00" cType="1" res="-8.8735781610012054e-03" rms="3.0344483256340027e-01" purity="1.2142812460660934e-01" nType="0">
            <Node pos="l" depth="3" NCoef="0" IVar="4" Cut="-4.1611865162849426e-01" cType="1" res="-1.5261241234838963e-02" rms="3.1618687510490417e-01" purity="1.3031414151191711e-01" nType="0">
              <Node pos="l" depth="4" NCoef="0" IVar="4" Cut="-9.6848016977310181e-01" cType="1" res="-2.5769533589482307e-02" rms="3.0945071578025818e-01" purity="1.2195912003517151e-01" nType="0">
                <Node pos="l" depth="5" NCoef="0" IVar="0" Cut="1.2897492647171021e+00" cType="1" res="-3.2493419945240021e-02" rms="3.0402195453643799e-01" purity="1.1635333299636841e-01" nType="0">
                  <Node pos="l" depth="6" NCoef="0" IVar="-1" Cut="0.0000000000000000e+00" cType="1" res="-6.7868712358176708e-03" rms="3.6993244290351868e-01" purity="1.8008443713188171e-01" nType="-99"/>
                  <Node pos="r" depth="6" NCoef="0" IVar="-1" Cut="0.0000000000000000e+00" cType="1" res="-9.7997859120368958e-03" rms="2.1285092830657959e-01" purity="4.9098756164312363e-02" nType="-99"/>
                </Node>
                <Node pos="r" depth="5" NCoef="0" IVar="-1" Cut="0.0000000000000000e+00" cType="1" res="-1.3708921615034342e-03" rms="3.2411023974418640e-01" purity="1.3847734034061432e-01" nType="-99"/>
              </Node>
              <Node pos="r" depth="4" NCoef="0" IVar="3" Cut="3.8283360004425049e-01" cType="1" res="4.2752019362524152e-04" rms="3.2535395026206970e-01" purity="1.4278809726238251e-01" nType="0">
                <Node pos="l" depth="5" NCoef="0" IVar="-1" Cut="0.0000000000000000e+00" cType="1" res="-7.1797161363065243e-03" rms="2.1619600057601929e-01" purity="5.0021782517433167e-02" nType="-99"/>
                <Node pos="r" depth="5" NCoef="0" IVar="-1" Cut="0.0000000000000000e+00" cType="1" res="2.1969154477119446e-03" rms="3.9636397361755371e-01" purity="2.2382329404354095e-01" nType="-99"/>
              </Node>
            </Node>
            <Node pos="r" depth="3" NCoef="0" IVar="4" Cut="-1.4084098339080811e+00" cType="1" res="-6.0998639091849327e-03" rms="2.9769942164421082e-01" purity="1.1756955832242966e-01" nType="0">
              <Node pos="l" depth="4" NCoef="0" IVar="-1" Cut="0.0000000000000000e+00" cType="1" res="4.9943188205361366e-03" rms="4.0806990861892700e-01" purity="2.3589009046554565e-01" nType="-99"/>
              <Node pos="r" depth="4" NCoef="0" IVar="5" Cut="-2.1294486522674561e+00" cType="1" res="-9.0164029970765114e-03" rms="2.8675842285156250e-01" purity="1.0802970826625824e-01" nType="0">
                <Node pos="l" depth="5" NCoef="0" IVar="6" Cut="7.3909334838390350e-02" cType="1" res="-1.4971618657000363e-04" rms="3.5869014263153076e-01" purity="1.7959199845790863e-01" nType="0">
                  <Node pos="l" depth="6" NCoef="0" IVar="-1" Cut="0.0000000000000000e+00" cType="1" res="-2.7902494184672832e-03" rms="3.2864075899124146e-01" purity="1.3864848017692566e-01" nType="-99"/>
                  <Node pos="r" depth="6" NCoef="0" IVar="-1" Cut="0.0000000000000000e+00" cType="1" res="1.4391451841220260e-03" rms="3.7692227959632874e-01" purity="2.0652370154857635e-01" nType="-99"/>
                </Node>
                <Node pos="r" depth="5" NCoef="0" IVar="4" Cut="-3.4289902448654175e-01" cType="1" res="-1.1087635532021523e-02" rms="2.6713711023330688e-01" purity="9.1312967240810394e-02" nType="0">
                  <Node pos="l" depth="6" NCoef="0" IVar="-1" Cut="0.0000000000000000e+00" cType="1" res="1.3058920158073306e-03" rms="3.6206033825874329e-01" purity="1.7628306150436401e-01" nType="-99"/>
                  <Node pos="r" depth="6" NCoef="0" IVar="7" Cut="4.0000000000000000e+00" cType="1" res="-1.3144353404641151e-02" rms="2.5272372364997864e-01" purity="8.1736057996749878e-02" nType="0">
                    <Node pos="l" depth="7" NCoef="0" IVar="-1" Cut="0.0000000000000000e+00" cType="1" res="-5.5559035390615463e-03" rms="2.8960719704627991e-01" purity="1.0657422989606857e-01" nType="-99"/>
                    <Node pos="r" depth="7" NCoef="0" IVar="-1" Cut="0.0000000000000000e+00" cType="1" res="-3.9610886014997959e-03" rms="2.4368467926979065e-01" purity="7.5058616697788239e-02" nType="-99"/>
                  </Node>
                </Node>
              </Node>
            </Node>
          </Node>
          <Node pos="r" depth="2" NCoef="0" IVar="7" Cut="4.0000000000000000e+00" cType="1" res="2.7264445088803768e-03" rms="3.5242608189582825e-01" purity="1.7190165817737579e-01" nType="0">
            <Node pos="l" depth="3" NCoef="0" IVar="2" Cut="4.3267739868164062e+02" cType="1" res="2.1299792453646660e-02" rms="4.1367802023887634e-01" purity="2.5735178589820862e-01" nType="0">
              <Node pos="l" depth="4" NCoef="0" IVar="-1" Cut="0.0000000000000000e+00" cType="1" res="2.6028791908174753e-03" rms="4.1567149758338928e-01" purity="2.6445960998535156e-01" nType="-99"/>
              <Node pos="r" depth="4" NCoef="0" IVar="-1" Cut="0.0000000000000000e+00" cType="1" res="3.6964868195354939e-03" rms="4.1163289546966553e-01" purity="2.5016456842422485e-01" nType="-99"/>
            </Node>
            <Node pos="r" depth="3" NCoef="0" IVar="2" Cut="4.1200549316406250e+02" cType="1" res="-8.8565290207043290e-04" rms="3.3759412169456482e-01" purity="1.5009573101997375e-01" nType="0">
              <Node pos="l" depth="4" NCoef="0" IVar="3" Cut="2.7382633090019226e-01" cType="1" res="9.3640955165028572e-03" rms="3.4826731681823730e-01" purity="1.6946817934513092e-01" nType="0">
                <Node pos="l" depth="5" NCoef="0" IVar="-1" Cut="0.0000000000000000e+00" cType="1" res="-5.0442884676158428e-03" rms="2.7003541588783264e-01" purity="8.3023160696029663e-02" nType="-99"/>
                <Node pos="r" depth="5" NCoef="0" IVar="-1" Cut="0.0000000000000000e+00" cType="1" res="4.0903440676629543e-03" rms="3.8832947611808777e-01" purity="2.2319200634956360e-01" nType="-99"/>
              </Node>
              <Node pos="r" depth="4" NCoef="0" IVar="6" Cut="2.5685057044029236e-01" cType="1" res="-7.9248389229178429e-03" rms="3.2987987995147705e-01" purity="1.3679139316082001e-01" nType="0">
                <Node pos="l" depth="5" NCoef="0" IVar="0" Cut="1.2901259660720825e+00" cType="1" res="-1.4023493975400925e-02" rms="3.1346473097801208e-01" purity="1.2455726414918900e-01" nType="0">
                  <Node pos="l" depth="6" NCoef="0" IVar="-1" Cut="0.0000000000000000e+00" cType="1" res="-3.6150184459984303e-03" rms="3.8134577870368958e-01" purity="2.0131939649581909e-01" nType="-99"/>
                  <Node pos="r" depth="6" NCoef="0" IVar="3" Cut="2.7430978417396545e-01" cType="1" res="-9.3664964661002159e-03" rms="2.7072808146476746e-01" purity="8.4025464951992035e-02" nType="0">
                    <Node pos="l" depth="7" NCoef="0" IVar="-1" Cut="0.0000000000000000e+00" cType="1" res="-6.4700869843363762e-03" rms="2.3853535950183868e-01" purity="6.2975592911243439e-02" nType="-99"/>
                    <Node pos="r" depth="7" NCoef="0" IVar="-1" Cut="0.0000000000000000e+00" cType="1" res="-5.1822140812873840e-04" rms="3.0240431427955627e-01" purity="1.0747441649436951e-01" nType="-99"/>
                  </Node>
                </Node>
                <Node pos="r" depth="5" NCoef="0" IVar="-1" Cut="0.0000000000000000e+00" cType="1" res="2.3122020065784454e-03" rms="3.7684932351112366e-01" purity="1.7582242190837860e-01" nType="-99"/>
              </Node>
            </Node>
          </Node>
        </Node>
        <Node pos="r" depth="1" NCoef="0" IVar="5" Cut="3.5677805542945862e-01" cType="1" res="7.9596089199185371e-03" rms="4.3206363916397095e-01" purity="6.6950249671936035e-01" nType="0">
          <Node pos="l" depth="2" NCoef="0" IVar="0" Cut="1.9307230710983276e+00" cType="1" res="8.8860103860497475e-03" rms="4.3311846256256104e-01" purity="6.7839545011520386e-01" nType="0">
            <Node pos="l" depth="3" NCoef="0" IVar="7" Cut="3.0000000000000000e+00" cType="1" res="8.8527593761682510e-03" rms="3.9205887913703918e-01" purity="6.8471997976303101e-01" nType="0">
              <Node pos="l" depth="4" NCoef="0" IVar="3" Cut="7.6597911119461060e-01" cType="1" res="7.7293915674090385e-03" rms="4.2245844006538391e-01" purity="7.1990984678268433e-01" nType="0">
                <Node pos="l" depth="5" NCoef="0" IVar="6" Cut="4.5904330909252167e-02" cType="1" res="-1.7916239798069000e-02" rms="4.7569403052330017e-01" purity="4.4885334372520447e-01" nType="0">
                  <Node pos="l" depth="6" NCoef="0" IVar="-1" Cut="0.0000000000000000e+00" cType="1" res="-6.3195549882948399e-03" rms="4.5791590213775635e-01" purity="3.6929658055305481e-01" nType="-99"/>
                  <Node pos="r" depth="6" NCoef="0" IVar="6" Cut="9.4742298126220703e-02" cType="1" res="-2.6594912633299828e-03" rms="4.8040717840194702e-01" purity="4.7496739029884338e-01" nType="0">
                    <Node pos="l" depth="7" NCoef="0" IVar="-1" Cut="0.0000000000000000e+00" cType="1" res="-1.3943956000730395e-03" rms="4.7656041383743286e-01" purity="4.6349453926086426e-01" nType="-99"/>
                    <Node pos="r" depth="7" NCoef="0" IVar="-1" Cut="0.0000000000000000e+00" cType="1" res="1.9578416831791401e-03" rms="4.8708701133728027e-01" purity="4.9804061651229858e-01" nType="-99"/>
                  </Node>
                </Node>
                <Node pos="r" depth="5" NCoef="0" IVar="3" Cut="1.0005486011505127e+00" cType="1" res="1.0337244719266891e-02" rms="4.1657578945159912e-01" purity="7.4747306108474731e-01" nType="0">
                  <Node pos="l" depth="6" NCoef="0" IVar="6" Cut="5.8011528104543686e-02" cType="1" res="7.5586754828691483e-03" rms="4.2589926719665527e-01" purity="7.3013234138488770e-01" nType="0">
                    <Node pos="l" depth="7" NCoef="0" IVar="-1" Cut="0.0000000000000000e+00" cType="1" res="6.2952033476904035e-04" rms="4.2307764291763306e-01" purity="7.3552513122558594e-01" nType="-99"/>
                    <Node pos="r" depth="7" NCoef="0" IVar="-1" Cut="0.0000000000000000e+00" cType="1" res="2.5026102084666491e-03" rms="4.5729911327362061e-01" purity="6.6662758588790894e-01" nType="-99"/>
                  </Node>
                  <Node pos="r" depth="6" NCoef="0" IVar="3" Cut="1.0320751667022705e+00" cType="1" res="1.7896089702844620e-02" rms="3.8998582959175110e-01" purity="7.9464679956436157e-01" nType="0">
                    <Node pos="l" depth="7" NCoef="0" IVar="-1" Cut="0.0000000000000000e+00" cType="1" res="2.6391341816633940e-03" rms="3.8709425926208496e-01" purity="8.0156022310256958e-01" nType="-99"/>
                    <Node pos="r" depth="7" NCoef="0" IVar="-1" Cut="0.0000000000000000e+00" cType="1" res="-4.0369227644987404e-04" rms="4.0140390396118164e-01" purity="7.6510000228881836e-01" nType="-99"/>
                  </Node>
                </Node>
              </Node>
              <Node pos="r" depth="4" NCoef="0" IVar="2" Cut="2.6934378051757812e+02" cType="1" res="1.7963042482733727e-02" rms="4.7510889172554016e-01" purity="5.3302741050720215e-01" nType="0">
                <Node pos="l" depth="5" NCoef="0" IVar="0" Cut="6.8401211500167847e-01" cType="1" res="2.1597415208816528e-02" rms="4.7428011894226074e-01" purity="5.4515761137008667e-01" nType="0">
                  <Node pos="l" depth="6" NCoef="0" IVar="6" Cut="3.8421209901571274e-02" cType="1" res="1.7984764650464058e-02" rms="4.7346630692481995e-01" purity="5.6019383668899536e-01" nType="0">
                    <Node pos="l" depth="7" NCoef="0" IVar="-1" Cut="0.0000000000000000e+00" cType="1" res="1.2684585817623883e-04" rms="4.7145670652389526e-01" purity="5.3920012712478638e-01" nType="-99"/>
                    <Node pos="r" depth="7" NCoef="0" IVar="-1" Cut="0.0000000000000000e+00" cType="1" res="2.3820851929485798e-03" rms="4.7420963644981384e-01" purity="5.7012838125228882e-01" nType="-99"/>
                  </Node>
                  <Node pos="r" depth="6" NCoef="0" IVar="-1" Cut="0.0000000000000000e+00" cType="1" res="5.4527004249393940e-03" rms="4.8016175627708435e-01" purity="4.1420260071754456e-01" nType="-99"/>
                </Node>
                <Node pos="r" depth="5" NCoef="0" IVar="6" Cut="9.1820314526557922e-02" cType="1" res="2.4140425957739353e-03" rms="4.7832679748535156e-01" purity="4.8113048076629639e-01" nType="0">
                  <Node pos="l" depth="6" NCoef="0" IVar="-1" Cut="0.0000000000000000e+00" cType="1" res="-1.3765883632004261e-03" rms="4.7404685616493225e-01" purity="4.6923762559890747e-01" nType="-99"/>
                  <Node pos="r" depth="6" NCoef="0" IVar="-1" Cut="0.0000000000000000e+00" cType="1" res="1.6387103823944926e-03" rms="4.8179754614830017e-01" purity="4.9214911460876465e-01" nType="-99"/>
                </Node>
              </Node>
            </Node>
            <Node pos="r" depth="3" NCoef="0" IVar="-1" Cut="0.0000000000000000e+00" cType="1" res="-4.4285366311669350e-03" rms="4.4490149617195129e-01" purity="2.9128614068031311e-01" nType="-99"/>
          </Node>
          <Node pos="r" depth="2" NCoef="0" IVar="-1" Cut="0.0000000000000000e+00" cType="1" res="-6.2476242892444134e-03" rms="3.6837399005889893e-01" purity="1.9679976999759674e-01" nType="-99"/>
        </Node>
      </Node>
    </BinaryTree>
    <BinaryTree type="DecisionTree" boostWeight="1.0000000000000000e+00" itree="91">
      <Node pos="s" depth="0" NCoef="0" IVar="2" Cut="2.0908357238769531e+02" cType="1" res="4.0358081459999084e-03" rms="4.0029802918434143e-01" purity="5.0081777572631836e-01" nType="0">
        <Node pos="l" depth="1" NCoef="0" IVar="1" Cut="1.5627876520156860e+00" cType="1" res="7.5335074216127396e-03" rms="4.0977215766906738e-01" purity="5.8823716640472412e-01" nType="0">
          <Node pos="l" depth="2" NCoef="0" IVar="3" Cut="3.4479466080665588e-01" cType="1" res="9.4362655654549599e-03" rms="4.1080364584922791e-01" purity="6.2135374546051025e-01" nType="0">
            <Node pos="l" depth="3" NCoef="0" IVar="6" Cut="8.8410228490829468e-02" cType="1" res="-1.4610088430345058e-02" rms="1.9616274535655975e-01" purity="4.3504569679498672e-02" nType="0">
              <Node pos="l" depth="4" NCoef="0" IVar="6" Cut="5.1576163619756699e-02" cType="1" res="-2.0450351759791374e-02" rms="1.6255046427249908e-01" purity="2.7708357200026512e-02" nType="0">
                <Node pos="l" depth="5" NCoef="0" IVar="-1" Cut="0.0000000000000000e+00" cType="1" res="-1.0518761351704597e-02" rms="1.7445898056030273e-01" purity="3.1890437006950378e-02" nType="-99"/>
                <Node pos="r" depth="5" NCoef="0" IVar="-1" Cut="0.0000000000000000e+00" cType="1" res="-1.6882451251149178e-02" rms="1.4774543046951294e-01" purity="2.2956980392336845e-02" nType="-99"/>
              </Node>
              <Node pos="r" depth="4" NCoef="0" IVar="-1" Cut="0.0000000000000000e+00" cType="1" res="-1.3172146864235401e-03" rms="2.4888339638710022e-01" purity="7.4503630399703979e-02" nType="-99"/>
            </Node>
            <Node pos="r" depth="3" NCoef="0" IVar="6" Cut="7.0144183933734894e-02" cType="1" res="1.0666210204362869e-02" rms="4.1879853606224060e-01" purity="6.5091013908386230e-01" nType="0">
              <Node pos="l" depth="4" NCoef="0" IVar="2" Cut="8.7675453186035156e+01" cType="1" res="8.5947867482900620e-03" rms="4.1577774286270142e-01" purity="6.8240094184875488e-01" nType="0">
                <Node pos="l" depth="5" NCoef="0" IVar="6" Cut="2.2627035155892372e-02" cType="1" res="1.1865180917084217e-02" rms="4.1074270009994507e-01" purity="7.2112745046615601e-01" nType="0">
                  <Node pos="l" depth="6" NCoef="0" IVar="2" Cut="2.5449159622192383e+01" cType="1" res="8.6542647331953049e-03" rms="4.0175795555114746e-01" purity="7.6053327322006226e-01" nType="0">
                    <Node pos="l" depth="7" NCoef="0" IVar="-1" Cut="0.0000000000000000e+00" cType="1" res="1.2582325143739581e-03" rms="3.9864665269851685e-01" purity="7.7756947278976440e-01" nType="-99"/>
                    <Node pos="r" depth="7" NCoef="0" IVar="-1" Cut="0.0000000000000000e+00" cType="1" res="-1.9096428295597434e-03" rms="4.3583753705024719e-01" purity="5.6046432256698608e-01" nType="-99"/>
                  </Node>
                  <Node pos="r" depth="6" NCoef="0" IVar="2" Cut="7.5559257507324219e+01" cType="1" res="2.2642390802502632e-02" rms="4.3938714265823364e-01" purity="5.8886480331420898e-01" nType="0">
                    <Node pos="l" depth="7" NCoef="0" IVar="-1" Cut="0.0000000000000000e+00" cType="1" res="2.6574358344078064e-03" rms="4.3942442536354065e-01" purity="5.9624540805816650e-01" nType="-99"/>
                    <Node pos="r" depth="7" NCoef="0" IVar="-1" Cut="0.0000000000000000e+00" cType="1" res="1.9888996030203998e-04" rms="4.3859693408012390e-01" purity="5.4801064729690552e-01" nType="-99"/>
                  </Node>
                </Node>
                <Node pos="r" depth="5" NCoef="0" IVar="3" Cut="8.7248378992080688e-01" cType="1" res="-4.8163798637688160e-03" rms="4.3556064367294312e-01" purity="5.2359175682067871e-01" nType="0">
                  <Node pos="l" depth="6" NCoef="0" IVar="6" Cut="3.9778389036655426e-02" cType="1" res="-9.2252613976597786e-03" rms="4.3784675002098083e-01" purity="4.7066053748130798e-01" nType="0">
                    <Node pos="l" depth="7" NCoef="0" IVar="-1" Cut="0.0000000000000000e+00" cType="1" res="-2.7371875476092100e-03" rms="4.3823328614234924e-01" purity="4.5201870799064636e-01" nType="-99"/>
                    <Node pos="r" depth="7" NCoef="0" IVar="-1" Cut="0.0000000000000000e+00" cType="1" res="-3.0535992118529975e-04" rms="4.3751934170722961e-01" purity="4.7902444005012512e-01" nType="-99"/>
                  </Node>
                  <Node pos="r" depth="6" NCoef="0" IVar="-1" Cut="0.0000000000000000e+00" cType="1" res="1.5759173547849059e-03" rms="4.2556238174438477e-01" purity="7.4101746082305908e-01" nType="-99"/>
                </Node>
              </Node>
              <Node pos="r" depth="4" NCoef="0" IVar="5" Cut="-2.2299990653991699e+00" cType="1" res="2.5861058384180069e-02" rms="4.4002625346183777e-01" purity="4.1991055011749268e-01" nType="0">
                <Node pos="l" depth="5" NCoef="0" IVar="4" Cut="-2.6670706272125244e-01" cType="1" res="3.8601260632276535e-02" rms="4.5768770575523376e-01" purity="4.9398043751716614e-01" nType="0">
                  <Node pos="l" depth="6" NCoef="0" IVar="-1" Cut="0.0000000000000000e+00" cType="1" res="2.2561282385140657e-03" rms="4.5518881082534790e-01" purity="5.0755894184112549e-01" nType="-99"/>
                  <Node pos="r" depth="6" NCoef="0" IVar="-1" Cut="0.0000000000000000e+00" cType="1" res="5.5839410051703453e-03" rms="4.5987692475318909e-01" purity="4.7873747348785400e-01" nType="-99"/>
                </Node>
                <Node pos="r" depth="5" NCoef="0" IVar="6" Cut="1.1223583668470383e-01" cType="1" res="1.7252996563911438e-02" rms="4.2746552824974060e-01" purity="3.6986437439918518e-01" nType="0">
                  <Node pos="l" depth="6" NCoef="0" IVar="2" Cut="1.4785234069824219e+02" cType="1" res="9.8087619990110397e-03" rms="4.2851629853248596e-01" purity="3.9003986120223999e-01" nType="0">
                    <Node pos="l" depth="7" NCoef="0" IVar="-1" Cut="0.0000000000000000e+00" cType="1" res="1.9202033290639520e-03" rms="4.3403470516204834e-01" purity="4.1262432932853699e-01" nType="-99"/>
                    <Node pos="r" depth="7" NCoef="0" IVar="-1" Cut="0.0000000000000000e+00" cType="1" res="-8.7500025983899832e-04" rms="4.1608545184135437e-01" purity="3.4220951795578003e-01" nType="-99"/>
                  </Node>
                  <Node pos="r" depth="6" NCoef="0" IVar="-1" Cut="0.0000000000000000e+00" cType="1" res="4.6064639464020729e-03" rms="4.2422419786453247e-01" purity="3.1898257136344910e-01" nType="-99"/>
                </Node>
              </Node>
            </Node>
          </Node>
          <Node pos="r" depth="2" NCoef="0" IVar="1" Cut="5.0985007286071777e+00" cType="1" res="-7.2935158386826515e-03" rms="4.0133479237556458e-01" purity="3.3017978072166443e-01" nType="0">
            <Node pos="l" depth="3" NCoef="0" IVar="5" Cut="-1.7607227563858032e+00" cType="1" res="-1.2678228318691254e-02" rms="3.9966765046119690e-01" purity="3.2082602381706238e-01" nType="0">
              <Node pos="l" depth="4" NCoef="0" IVar="7" Cut="3.0000000000000000e+00" cType="1" res="-5.8415126986801624e-03" rms="4.2414802312850952e-01" purity="3.9482909440994263e-01" nType="0">
                <Node pos="l" depth="5" NCoef="0" IVar="1" Cut="2.2470459938049316e+00" cType="1" res="-1.4182772487401962e-02" rms="4.6400690078735352e-01" purity="5.2019780874252319e-01" nType="0">
                  <Node pos="l" depth="6" NCoef="0" IVar="-1" Cut="0.0000000000000000e+00" cType="1" res="-1.8185348017141223e-04" rms="4.6318900585174561e-01" purity="5.4714787006378174e-01" nType="-99"/>
                  <Node pos="r" depth="6" NCoef="0" IVar="-1" Cut="0.0000000000000000e+00" cType="1" res="-2.4400071706622839e-03" rms="4.6445930004119873e-01" purity="4.9654164910316467e-01" nType="-99"/>
                </Node>
                <Node pos="r" depth="5" NCoef="0" IVar="-1" Cut="0.0000000000000000e+00" cType="1" res="1.6085267998278141e-03" rms="3.4804394841194153e-01" purity="1.7736525833606720e-01" nType="-99"/>
              </Node>
              <Node pos="r" depth="4" NCoef="0" IVar="3" Cut="5.3236794471740723e-01" cType="1" res="-2.5635713711380959e-02" rms="3.4272876381874084e-01" purity="1.7446260154247284e-01" nType="0">
                <Node pos="l" depth="5" NCoef="0" IVar="-1" Cut="0.0000000000000000e+00" cType="1" res="-6.0585881583392620e-03" rms="2.1012030541896820e-01" purity="4.9586329609155655e-02" nType="-99"/>
                <Node pos="r" depth="5" NCoef="0" IVar="-1" Cut="0.0000000000000000e+00" cType="1" res="-4.4993683695793152e-03" rms="4.3776220083236694e-01" purity="3.0152872204780579e-01" nType="-99"/>
              </Node>
            </Node>
            <Node pos="r" depth="3" NCoef="0" IVar="-1" Cut="0.0000000000000000e+00" cType="1" res="3.3095767721533775e-03" rms="4.0994560718536377e-01" purity="3.8817897439002991e-01" nType="-99"/>
          </Node>
        </Node>
        <Node pos="r" depth="1" NCoef="0" IVar="6" Cut="2.8220069408416748e-01" cType="1" res="-6.4880182035267353e-03" rms="3.7013426423072815e-01" purity="2.3779159784317017e-01" nType="0">
          <Node pos="l" depth="2" NCoef="0" IVar="6" Cut="9.8925940692424774e-02" cType="1" res="-7.6322094537317753e-03" rms="3.6841571331024170e-01" purity="2.3890730738639832e-01" nType="0">
            <Node pos="l" depth="3" NCoef="0" IVar="2" Cut="3.4320980834960938e+02" cType="1" res="-1.4206118881702423e-02" rms="3.9017698168754578e-01" purity="3.1248202919960022e-01" nType="0">
              <Node pos="l" depth="4" NCoef="0" IVar="6" Cut="5.9857778251171112e-02" cType="1" res="-9.2038437724113464e-03" rms="3.9702403545379639e-01" purity="3.3517566323280334e-01" nType="0">
                <Node pos="l" depth="5" NCoef="0" IVar="-1" Cut="0.0000000000000000e+00" cType="1" res="-3.0365206766873598e-03" rms="4.0383765101432800e-01" purity="3.9071980118751526e-01" nType="-99"/>
                <Node pos="r" depth="5" NCoef="0" IVar="2" Cut="2.3504251098632812e+02" cType="1" res="-4.0324609726667404e-03" rms="3.9420831203460693e-01" purity="3.1346687674522400e-01" nType="0">
                  <Node pos="l" depth="6" NCoef="0" IVar="-1" Cut="0.0000000000000000e+00" cType="1" res="1.6335588879883289e-03" rms="4.0237373113632202e-01" purity="3.4974247217178345e-01" nType="-99"/>
                  <Node pos="r" depth="6" NCoef="0" IVar="6" Cut="8.1282019615173340e-02" cType="1" res="-8.7935039773583412e-03" rms="3.9163091778755188e-01" purity="3.0272415280342102e-01" nType="0">
                    <Node pos="l" depth="7" NCoef="0" IVar="-1" Cut="0.0000000000000000e+00" cType="1" res="-2.4787045549601316e-03" rms="3.9355766773223877e-01" purity="3.1257322430610657e-01" nType="-99"/>
                    <Node pos="r" depth="7" NCoef="0" IVar="-1" Cut="0.0000000000000000e+00" cType="1" res="5.3480005590245128e-04" rms="3.8831508159637451e-01" purity="2.8752955794334412e-01" nType="-99"/>
                  </Node>
                </Node>
              </Node>
              <Node pos="r" depth="4" NCoef="0" IVar="5" Cut="-2.0138432979583740e+00" cType="1" res="-3.0599441379308701e-02" rms="3.6636501550674438e-01" purity="2.3811103403568268e-01" nType="0">
                <Node pos="l" depth="5" NCoef="0" IVar="-1" Cut="0.0000000000000000e+00" cType="1" res="-5.6207799352705479e-03" rms="3.8730445504188538e-01" purity="2.7456820011138916e-01" nType="-99"/>
                <Node pos="r" depth="5" NCoef="0" IVar="-1" Cut="0.0000000000000000e+00" cType="1" res="-4.1572288610041142e-03" rms="3.4662598371505737e-01" purity="2.0585927367210388e-01" nType="-99"/>
              </Node>
            </Node>
            <Node pos="r" depth="3" NCoef="0" IVar="2" Cut="3.8703247070312500e+02" cType="1" res="-3.3268874976783991e-03" rms="3.5337242484092712e-01" purity="1.9072246551513672e-01" nType="0">
              <Node pos="l" depth="4" NCoef="0" IVar="5" Cut="-1.5514303445816040e+00" cType="1" res="7.6770796440541744e-03" rms="3.6747997999191284e-01" purity="2.1939474344253540e-01" nType="0">
                <Node pos="l" depth="5" NCoef="0" IVar="0" Cut="1.2895615100860596e+00" cType="1" res="1.8349237740039825e-02" rms="4.1095653176307678e-01" purity="2.9327398538589478e-01" nType="0">
                  <Node pos="l" depth="6" NCoef="0" IVar="-1" Cut="0.0000000000000000e+00" cType="1" res="3.5317328292876482e-03" rms="4.7099390625953674e-01" purity="4.2719283699989319e-01" nType="-99"/>
                  <Node pos="r" depth="6" NCoef="0" IVar="-1" Cut="0.0000000000000000e+00" cType="1" res="-7.1636709617450833e-04" rms="3.1774336099624634e-01" purity="1.2348489463329315e-01" nType="-99"/>
                </Node>
                <Node pos="r" depth="5" NCoef="0" IVar="2" Cut="2.9518353271484375e+02" cType="1" res="-4.8622479662299156e-03" rms="3.0819725990295410e-01" purity="1.3258974254131317e-01" nType="0">
                  <Node pos="l" depth="6" NCoef="0" IVar="-1" Cut="0.0000000000000000e+00" cType="1" res="-3.4302368294447660e-03" rms="3.0284675955772400e-01" purity="1.2286692112684250e-01" nType="-99"/>
                  <Node pos="r" depth="6" NCoef="0" IVar="-1" Cut="0.0000000000000000e+00" cType="1" res="9.8044460173696280e-04" rms="3.1366479396820068e-01" purity="1.4315462112426758e-01" nType="-99"/>
                </Node>
              </Node>
              <Node pos="r" depth="4" NCoef="0" IVar="0" Cut="9.6552723646163940e-01" cType="1" res="-1.0582017712295055e-02" rms="3.4356173872947693e-01" purity="1.7181825637817383e-01" nType="0">
                <Node pos="l" depth="5" NCoef="0" IVar="3" Cut="5.7641410827636719e-01" cType="1" res="1.3575908960774541e-03" rms="4.3604624271392822e-01" purity="3.1926691532135010e-01" nType="0">
                  <Node pos="l" depth="6" NCoef="0" IVar="-1" Cut="0.0000000000000000e+00" cType="1" res="-1.2742397375404835e-03" rms="4.1198018193244934e-01" purity="2.5042799115180969e-01" nType="-99"/>
                  <Node pos="r" depth="6" NCoef="0" IVar="-1" Cut="0.0000000000000000e+00" cType="1" res="2.1130959503352642e-03" rms="4.7613498568534851e-01" purity="4.4455137848854065e-01" nType="-99"/>
                </Node>
                <Node pos="r" depth="5" NCoef="0" IVar="7" Cut="4.0000000000000000e+00" cType="1" res="-1.6058370471000671e-02" rms="2.8227347135543823e-01" purity="9.5559112727642059e-02" nType="0">
                  <Node pos="l" depth="6" NCoef="0" IVar="-1" Cut="0.0000000000000000e+00" cType="1" res="-6.3075739890336990e-03" rms="3.3924368023872375e-01" purity="1.4101505279541016e-01" nType="-99"/>
                  <Node pos="r" depth="6" NCoef="0" IVar="3" Cut="2.2904741764068604e-01" cType="1" res="-1.3220201246440411e-02" rms="2.6850461959838867e-01" purity="8.4378600120544434e-02" nType="0">
                    <Node pos="l" depth="7" NCoef="0" IVar="-1" Cut="0.0000000000000000e+00" cType="1" res="-1.2070129625499249e-02" rms="2.1622851490974426e-01" purity="5.0598971545696259e-02" nType="-99"/>
                    <Node pos="r" depth="7" NCoef="0" IVar="-1" Cut="0.0000000000000000e+00" cType="1" res="-2.1967976354062557e-03" rms="2.8494015336036682e-01" purity="9.6680663526058197e-02" nType="-99"/>
                  </Node>
                </Node>
              </Node>
            </Node>
          </Node>
          <Node pos="r" depth="2" NCoef="0" IVar="-1" Cut="0.0000000000000000e+00" cType="1" res="3.5481029190123081e-03" rms="4.0724161267280579e-01" purity="2.1178232133388519e-01" nType="-99"/>
        </Node>
      </Node>
    </BinaryTree>
    <BinaryTree type="DecisionTree" boostWeight="1.0000000000000000e+00" itree="92">
      <Node pos="s" depth="0" NCoef="0" IVar="3" Cut="8.4007465839385986e-01" cType="1" res="2.0345875527709723e-03" rms="3.9989408850669861e-01" purity="4.9848747253417969e-01" nType="0">
        <Node pos="l" depth="1" NCoef="0" IVar="4" Cut="-2.7178006172180176e+00" cType="1" res="-2.8631077148020267e-03" rms="3.9210408926010132e-01" purity="3.0421259999275208e-01" nType="0">
          <Node pos="l" depth="2" NCoef="0" IVar="-1" Cut="0.0000000000000000e+00" cType="1" res="2.6103379204869270e-03" rms="4.3755793571472168e-01" purity="5.5463153123855591e-01" nType="-99"/>
          <Node pos="r" depth="2" NCoef="0" IVar="6" Cut="6.4313888549804688e-02" cType="1" res="-3.6919449921697378e-03" rms="3.9060777425765991e-01" purity="2.9658982157707214e-01" nType="0">
            <Node pos="l" depth="3" NCoef="0" IVar="7" Cut="3.0000000000000000e+00" cType="1" res="-1.0097547434270382e-02" rms="4.1192117333412170e-01" purity="3.6664977669715881e-01" nType="0">
              <Node pos="l" depth="4" NCoef="0" IVar="6" Cut="2.2994386032223701e-02" cType="1" res="-2.2177977487444878e-02" rms="4.5644590258598328e-01" purity="4.9603450298309326e-01" nType="0">
                <Node pos="l" depth="5" NCoef="0" IVar="-1" Cut="0.0000000000000000e+00" cType="1" res="-4.8875524662435055e-03" rms="4.5896548032760620e-01" purity="4.5633098483085632e-01" nType="-99"/>
                <Node pos="r" depth="5" NCoef="0" IVar="3" Cut="8.1537228822708130e-01" cType="1" res="-1.7179364338517189e-02" rms="4.5578917860984802e-01" purity="5.0368475914001465e-01" nType="0">
                  <Node pos="l" depth="6" NCoef="0" IVar="4" Cut="-7.8799635171890259e-02" cType="1" res="-2.5090828537940979e-02" rms="4.5199796557426453e-01" purity="4.4912636280059814e-01" nType="0">
                    <Node pos="l" depth="7" NCoef="0" IVar="-1" Cut="0.0000000000000000e+00" cType="1" res="-1.5986512880772352e-03" rms="4.5881006121635437e-01" purity="4.8771354556083679e-01" nType="-99"/>
                    <Node pos="r" depth="7" NCoef="0" IVar="-1" Cut="0.0000000000000000e+00" cType="1" res="-5.4913908243179321e-03" rms="4.3163153529167175e-01" purity="3.4218180179595947e-01" nType="-99"/>
                  </Node>
                  <Node pos="r" depth="6" NCoef="0" IVar="-1" Cut="0.0000000000000000e+00" cType="1" res="2.0458563813008368e-04" rms="4.6439424157142639e-01" purity="6.3762551546096802e-01" nType="-99"/>
                </Node>
              </Node>
              <Node pos="r" depth="4" NCoef="0" IVar="3" Cut="4.9620398879051208e-01" cType="1" res="-3.4121042117476463e-03" rms="3.8648927211761475e-01" purity="2.9565608501434326e-01" nType="0">
                <Node pos="l" depth="5" NCoef="0" IVar="4" Cut="-5.0282138586044312e-01" cType="1" res="-1.5047462657094002e-02" rms="2.2448970377445221e-01" purity="5.6892603635787964e-02" nType="0">
                  <Node pos="l" depth="6" NCoef="0" IVar="-1" Cut="0.0000000000000000e+00" cType="1" res="-2.3088883608579636e-03" rms="2.7125012874603271e-01" purity="8.3785519003868103e-02" nType="-99"/>
                  <Node pos="r" depth="6" NCoef="0" IVar="3" Cut="4.0403455495834351e-01" cType="1" res="-1.8370086327195168e-02" rms="2.0293036103248596e-01" purity="4.6247314661741257e-02" nType="0">
                    <Node pos="l" depth="7" NCoef="0" IVar="-1" Cut="0.0000000000000000e+00" cType="1" res="-1.3381478376686573e-02" rms="1.5743270516395569e-01" purity="2.6178214699029922e-02" nType="-99"/>
                    <Node pos="r" depth="7" NCoef="0" IVar="-1" Cut="0.0000000000000000e+00" cType="1" res="-3.7999297492206097e-03" rms="2.8217855095863342e-01" purity="9.3348018825054169e-02" nType="-99"/>
                  </Node>
                </Node>
                <Node pos="r" depth="5" NCoef="0" IVar="2" Cut="4.9792301177978516e+01" cType="1" res="3.7012957036495209e-03" rms="4.5798695087432861e-01" purity="4.4162666797637939e-01" nType="0">
                  <Node pos="l" depth="6" NCoef="0" IVar="0" Cut="3.0306854844093323e-01" cType="1" res="2.1389458328485489e-02" rms="4.6746933460235596e-01" purity="4.9229663610458374e-01" nType="0">
                    <Node pos="l" depth="7" NCoef="0" IVar="-1" Cut="0.0000000000000000e+00" cType="1" res="1.0329405777156353e-03" rms="4.7008237242698669e-01" purity="5.9368747472763062e-01" nType="-99"/>
                    <Node pos="r" depth="7" NCoef="0" IVar="-1" Cut="0.0000000000000000e+00" cType="1" res="3.4007001668214798e-03" rms="4.6440917253494263e-01" purity="3.8355043530464172e-01" nType="-99"/>
                  </Node>
                  <Node pos="r" depth="6" NCoef="0" IVar="6" Cut="3.3948611468076706e-02" cType="1" res="-3.0176776926964521e-03" rms="4.5415261387825012e-01" purity="4.2237931489944458e-01" nType="0">
                    <Node pos="l" depth="7" NCoef="0" IVar="-1" Cut="0.0000000000000000e+00" cType="1" res="-3.6982167512178421e-03" rms="4.4872036576271057e-01" purity="3.8682988286018372e-01" nType="-99"/>
                    <Node pos="r" depth="7" NCoef="0" IVar="-1" Cut="0.0000000000000000e+00" cType="1" res="6.3740735640749335e-04" rms="4.5532843470573425e-01" purity="4.3266975879669189e-01" nType="-99"/>
                  </Node>
                </Node>
              </Node>
            </Node>
            <Node pos="r" depth="3" NCoef="0" IVar="3" Cut="6.7983382940292358e-01" cType="1" res="1.8269332940690219e-04" rms="3.7646028399467468e-01" purity="2.5396734476089478e-01" nType="0">
              <Node pos="l" depth="4" NCoef="0" IVar="6" Cut="1.3951556384563446e-01" cType="1" res="-2.9530441388487816e-03" rms="3.5534450411796570e-01" purity="1.9099856913089752e-01" nType="0">
                <Node pos="l" depth="5" NCoef="0" IVar="7" Cut="4.0000000000000000e+00" cType="1" res="-7.2958203963935375e-03" rms="3.5348784923553467e-01" purity="1.9677647948265076e-01" nType="0">
                  <Node pos="l" depth="6" NCoef="0" IVar="7" Cut="3.0000000000000000e+00" cType="1" res="-1.4846459031105042e-02" rms="3.5630291700363159e-01" purity="2.6475465297698975e-01" nType="0">
                    <Node pos="l" depth="7" NCoef="0" IVar="-1" Cut="0.0000000000000000e+00" cType="1" res="-4.7958591021597385e-03" rms="4.0033864974975586e-01" purity="2.4813464283943176e-01" nType="-99"/>
                    <Node pos="r" depth="7" NCoef="0" IVar="-1" Cut="0.0000000000000000e+00" cType="1" res="-2.1442277356982231e-03" rms="4.0667417645454407e-01" purity="2.7203893661499023e-01" nType="-99"/>
                  </Node>
                  <Node pos="r" depth="6" NCoef="0" IVar="2" Cut="1.3614102172851562e+02" cType="1" res="9.7245693905279040e-04" rms="3.2115626335144043e-01" purity="1.5737493336200714e-01" nType="0">
                    <Node pos="l" depth="7" NCoef="0" IVar="-1" Cut="0.0000000000000000e+00" cType="1" res="4.1284183971583843e-03" rms="3.5756212472915649e-01" purity="2.1214921772480011e-01" nType="-99"/>
                    <Node pos="r" depth="7" NCoef="0" IVar="-1" Cut="0.0000000000000000e+00" cType="1" res="-1.3893928844481707e-03" rms="3.0804365873336792e-01" purity="1.3948853313922882e-01" nType="-99"/>
                  </Node>
                </Node>
                <Node pos="r" depth="5" NCoef="0" IVar="3" Cut="4.2285716533660889e-01" cType="1" res="4.7819605097174644e-03" rms="3.5693860054016113e-01" purity="1.8097908794879913e-01" nType="0">
                  <Node pos="l" depth="6" NCoef="0" IVar="6" Cut="2.7259081602096558e-01" cType="1" res="-1.8601462943479419e-03" rms="3.2113113999366760e-01" purity="1.2759910523891449e-01" nType="0">
                    <Node pos="l" depth="7" NCoef="0" IVar="-1" Cut="0.0000000000000000e+00" cType="1" res="-1.9796434789896011e-03" rms="3.0532336235046387e-01" purity="1.1415407061576843e-01" nType="-99"/>
                    <Node pos="r" depth="7" NCoef="0" IVar="-1" Cut="0.0000000000000000e+00" cType="1" res="5.6050354614853859e-03" rms="4.0031978487968445e-01" purity="2.0679762959480286e-01" nType="-99"/>
                  </Node>
                  <Node pos="r" depth="6" NCoef="0" IVar="2" Cut="3.7388513183593750e+02" cType="1" res="2.3080570623278618e-02" rms="4.4027110934257507e-01" purity="3.2803773880004883e-01" nType="0">
                    <Node pos="l" depth="7" NCoef="0" IVar="-1" Cut="0.0000000000000000e+00" cType="1" res="4.2914287187159061e-03" rms="4.5239141583442688e-01" purity="3.7081882357597351e-01" nType="-99"/>
                    <Node pos="r" depth="7" NCoef="0" IVar="-1" Cut="0.0000000000000000e+00" cType="1" res="1.0878642788156867e-03" rms="4.2819848656654358e-01" purity="2.8834682703018188e-01" nType="-99"/>
                  </Node>
                </Node>
              </Node>
              <Node pos="r" depth="4" NCoef="0" IVar="2" Cut="1.7979525756835938e+02" cType="1" res="1.6130140051245689e-02" rms="4.6904763579368591e-01" purity="5.7420808076858521e-01" nType="0">
                <Node pos="l" depth="5" NCoef="0" IVar="3" Cut="7.3668944835662842e-01" cType="1" res="2.7467116713523865e-02" rms="4.6323904395103455e-01" purity="6.1554414033889771e-01" nType="0">
                  <Node pos="l" depth="6" NCoef="0" IVar="-1" Cut="0.0000000000000000e+00" cType="1" res="2.9158443212509155e-03" rms="4.7100785374641418e-01" purity="5.8286201953887939e-01" nType="-99"/>
                  <Node pos="r" depth="6" NCoef="0" IVar="-1" Cut="0.0000000000000000e+00" cType="1" res="1.9737237598747015e-03" rms="4.5702734589576721e-01" purity="6.4104127883911133e-01" nType="-99"/>
                </Node>
                <Node pos="r" depth="5" NCoef="0" IVar="7" Cut="3.0000000000000000e+00" cType="1" res="7.8722918406128883e-03" rms="4.6891078352928162e-01" purity="5.3861099481582642e-01" nType="0">
                  <Node pos="l" depth="6" NCoef="0" IVar="-1" Cut="0.0000000000000000e+00" cType="1" res="1.2256386980880052e-04" rms="4.7400245070457458e-01" purity="5.2716875076293945e-01" nType="-99"/>
                  <Node pos="r" depth="6" NCoef="0" IVar="-1" Cut="0.0000000000000000e+00" cType="1" res="1.3332233065739274e-03" rms="4.7334751486778259e-01" purity="5.5528622865676880e-01" nType="-99"/>
                </Node>
              </Node>
            </Node>
          </Node>
        </Node>
        <Node pos="r" depth="1" NCoef="0" IVar="3" Cut="1.0249571800231934e+00" cType="1" res="8.4882462397217751e-03" rms="4.0984356403350830e-01" purity="7.5448209047317505e-01" nType="0">
          <Node pos="l" depth="2" NCoef="0" IVar="3" Cut="9.9513733386993408e-01" cType="1" res="1.0140964761376381e-02" rms="4.1053628921508789e-01" purity="7.5605291128158569e-01" nType="0">
            <Node pos="l" depth="3" NCoef="0" IVar="6" Cut="2.5134533643722534e-02" cType="1" res="5.4979529231786728e-03" rms="4.2340433597564697e-01" purity="7.3110872507095337e-01" nType="0">
              <Node pos="l" depth="4" NCoef="0" IVar="1" Cut="3.6536839604377747e-01" cType="1" res="-3.6921040737070143e-04" rms="4.1817253828048706e-01" purity="7.4061983823776245e-01" nType="0">
                <Node pos="l" depth="5" NCoef="0" IVar="2" Cut="3.8100452423095703e+01" cType="1" res="6.6801202483475208e-03" rms="3.9619052410125732e-01" purity="7.9187619686126709e-01" nType="0">
                  <Node pos="l" depth="6" NCoef="0" IVar="5" Cut="-1.9174313545227051e+00" cType="1" res="8.8938903063535690e-03" rms="3.9156991243362427e-01" purity="7.9896932840347290e-01" nType="0">
                    <Node pos="l" depth="7" NCoef="0" IVar="-1" Cut="0.0000000000000000e+00" cType="1" res="1.5644954983144999e-03" rms="3.7547963857650757e-01" purity="8.2508176565170288e-01" nType="-99"/>
                    <Node pos="r" depth="7" NCoef="0" IVar="-1" Cut="0.0000000000000000e+00" cType="1" res="-3.3195962896570563e-04" rms="4.4958862662315369e-01" purity="6.9532305002212524e-01" nType="-99"/>
                  </Node>
                  <Node pos="r" depth="6" NCoef="0" IVar="-1" Cut="0.0000000000000000e+00" cType="1" res="-1.2041094014421105e-03" rms="4.2890673875808716e-01" purity="7.3866343498229980e-01" nType="-99"/>
                </Node>
                <Node pos="r" depth="5" NCoef="0" IVar="1" Cut="9.8532795906066895e-01" cType="1" res="-1.5234284102916718e-02" rms="4.6075102686882019e-01" purity="6.3253456354141235e-01" nType="0">
                  <Node pos="l" depth="6" NCoef="0" IVar="1" Cut="6.2538468837738037e-01" cType="1" res="-7.5246463529765606e-03" rms="4.4751542806625366e-01" purity="6.9651734828948975e-01" nType="0">
                    <Node pos="l" depth="7" NCoef="0" IVar="-1" Cut="0.0000000000000000e+00" cType="1" res="-1.5738001093268394e-03" rms="4.4491088390350342e-01" purity="7.0913589000701904e-01" nType="-99"/>
                    <Node pos="r" depth="7" NCoef="0" IVar="-1" Cut="0.0000000000000000e+00" cType="1" res="1.7631279479246587e-04" rms="4.5058670639991760e-01" purity="6.8069076538085938e-01" nType="-99"/>
                  </Node>
                  <Node pos="r" depth="6" NCoef="0" IVar="-1" Cut="0.0000000000000000e+00" cType="1" res="-2.4138889275491238e-03" rms="4.7866463661193848e-01" purity="5.4188418388366699e-01" nType="-99"/>
                </Node>
              </Node>
              <Node pos="r" depth="4" NCoef="0" IVar="2" Cut="1.3016152954101562e+02" cType="1" res="1.6229234635829926e-02" rms="4.3260410428047180e-01" purity="7.1371257305145264e-01" nType="0">
                <Node pos="l" depth="5" NCoef="0" IVar="5" Cut="-1.7291870117187500e+00" cType="1" res="2.2280663251876831e-02" rms="4.2893391847610474e-01" purity="7.2788518667221069e-01" nType="0">
                  <Node pos="l" depth="6" NCoef="0" IVar="1" Cut="3.1787222623825073e-01" cType="1" res="2.8011837974190712e-02" rms="4.1372355818748474e-01" purity="7.6906424760818481e-01" nType="0">
                    <Node pos="l" depth="7" NCoef="0" IVar="-1" Cut="0.0000000000000000e+00" cType="1" res="2.3637595586478710e-03" rms="3.9497736096382141e-01" purity="8.0263090133666992e-01" nType="-99"/>
                    <Node pos="r" depth="7" NCoef="0" IVar="-1" Cut="0.0000000000000000e+00" cType="1" res="4.0423711761832237e-03" rms="4.4647327065467834e-01" purity="7.0589476823806763e-01" nType="-99"/>
                  </Node>
                  <Node pos="r" depth="6" NCoef="0" IVar="-1" Cut="0.0000000000000000e+00" cType="1" res="4.1584097198210657e-04" rms="4.7294169664382935e-01" purity="5.9900611639022827e-01" nType="-99"/>
                </Node>
                <Node pos="r" depth="5" NCoef="0" IVar="3" Cut="8.8006687164306641e-01" cType="1" res="5.6632678024470806e-03" rms="4.3873873353004456e-01" purity="6.8896681070327759e-01" nType="0">
                  <Node pos="l" depth="6" NCoef="0" IVar="-1" Cut="0.0000000000000000e+00" cType="1" res="8.0053396231960505e-05" rms="4.4858831167221069e-01" purity="6.7027318477630615e-01" nType="-99"/>
                  <Node pos="r" depth="6" NCoef="0" IVar="-1" Cut="0.0000000000000000e+00" cType="1" res="1.5102216275408864e-03" rms="4.2390173673629761e-01" purity="7.1616005897521973e-01" nType="-99"/>
                </Node>
              </Node>
            </Node>
            <Node pos="r" depth="3" NCoef="0" IVar="3" Cut="9.9898588657379150e-01" cType="1" res="1.5493801794946194e-02" rms="3.9511358737945557e-01" purity="7.8481060266494751e-01" nType="0">
              <Node pos="l" depth="4" NCoef="0" IVar="4" Cut="-1.1157214641571045e+00" cType="1" res="7.8515494242310524e-03" rms="4.0166956186294556e-01" purity="7.7485841512680054e-01" nType="0">
                <Node pos="l" depth="5" NCoef="0" IVar="-1" Cut="0.0000000000000000e+00" cType="1" res="-3.1878784648142755e-04" rms="4.3397048115730286e-01" purity="7.2550106048583984e-01" nType="-99"/>
                <Node pos="r" depth="5" NCoef="0" IVar="5" Cut="-2.2011640071868896e+00" cType="1" res="1.1341140605509281e-02" rms="3.9089763164520264e-01" purity="7.9037684202194214e-01" nType="0">
                  <Node pos="l" depth="6" NCoef="0" IVar="3" Cut="9.9724835157394409e-01" cType="1" res="7.0851771160960197e-03" rms="3.7414926290512085e-01" purity="8.1886404752731323e-01" nType="0">
                    <Node pos="l" depth="7" NCoef="0" IVar="-1" Cut="0.0000000000000000e+00" cType="1" res="1.7393998568877578e-03" rms="3.6770412325859070e-01" purity="8.2511407136917114e-01" nType="-99"/>
                    <Node pos="r" depth="7" NCoef="0" IVar="-1" Cut="0.0000000000000000e+00" cType="1" res="1.8824172730091959e-04" rms="3.8075417280197144e-01" purity="8.1226372718811035e-01" nType="-99"/>
                  </Node>
                  <Node pos="r" depth="6" NCoef="0" IVar="-1" Cut="0.0000000000000000e+00" cType="1" res="2.2749574854969978e-03" rms="4.2693421244621277e-01" purity="7.2454541921615601e-01" nType="-99"/>
                </Node>
              </Node>
              <Node pos="r" depth="4" NCoef="0" IVar="4" Cut="-3.5764861106872559e-01" cType="1" res="1.8839273601770401e-02" rms="3.9216226339340210e-01" purity="7.8916728496551514e-01" nType="0">
                <Node pos="l" depth="5" NCoef="0" IVar="5" Cut="-2.5457079410552979e+00" cType="1" res="1.3986038975417614e-02" rms="3.9997494220733643e-01" purity="7.7938723564147949e-01" nType="0">
                  <Node pos="l" depth="6" NCoef="0" IVar="3" Cut="1.0098761320114136e+00" cType="1" res="1.9037971273064613e-02" rms="3.7769648432731628e-01" purity="8.1620240211486816e-01" nType="0">
                    <Node pos="l" depth="7" NCoef="0" IVar="-1" Cut="0.0000000000000000e+00" cType="1" res="1.5733973123133183e-03" rms="3.8708722591400146e-01" purity="8.0475664138793945e-01" nType="-99"/>
                    <Node pos="r" depth="7" NCoef="0" IVar="-1" Cut="0.0000000000000000e+00" cType="1" res="3.7505899090319872e-03" rms="3.5448202490806580e-01" purity="8.4299868345260620e-01" nType="-99"/>
                  </Node>
                  <Node pos="r" depth="6" NCoef="0" IVar="3" Cut="1.0031737089157104e+00" cType="1" res="6.2796776182949543e-03" rms="4.3163660168647766e-01" purity="7.2322821617126465e-01" nType="0">
                    <Node pos="l" depth="7" NCoef="0" IVar="-1" Cut="0.0000000000000000e+00" cType="1" res="1.4513307251036167e-03" rms="4.3215113878250122e-01" purity="7.2297662496566772e-01" nType="-99"/>
                    <Node pos="r" depth="7" NCoef="0" IVar="-1" Cut="0.0000000000000000e+00" cType="1" res="-3.3862018608488142e-04" rms="4.3090969324111938e-01" purity="7.2347903251647949e-01" nType="-99"/>
                  </Node>
                </Node>
                <Node pos="r" depth="5" NCoef="0" IVar="3" Cut="1.0006614923477173e+00" cType="1" res="2.4301424622535706e-02" rms="3.8310539722442627e-01" purity="8.0017435550689697e-01" nType="0">
                  <Node pos="l" depth="6" NCoef="0" IVar="-1" Cut="0.0000000000000000e+00" cType="1" res="4.1031460277736187e-03" rms="3.7682271003723145e-01" purity="8.1291216611862183e-01" nType="-99"/>
                  <Node pos="r" depth="6" NCoef="0" IVar="5" Cut="-2.8498191833496094e+00" cType="1" res="2.1490987390279770e-02" rms="3.8516378402709961e-01" purity="7.9587179422378540e-01" nType="0">
                    <Node pos="l" depth="7" NCoef="0" IVar="-1" Cut="0.0000000000000000e+00" cType="1" res="4.1732392273843288e-03" rms="3.4265145659446716e-01" purity="8.5801237821578979e-01" nType="-99"/>
                    <Node pos="r" depth="7" NCoef="0" IVar="-1" Cut="0.0000000000000000e+00" cType="1" res="1.9943313673138618e-03" rms="4.0718850493431091e-01" purity="7.6072567701339722e-01" nType="-99"/>
                  </Node>
                </Node>
              </Node>
            </Node>
          </Node>
          <Node pos="r" depth="2" NCoef="0" IVar="5" Cut="-2.2356259822845459e+00" cType="1" res="-1.0068665258586407e-02" rms="4.0151688456535339e-01" purity="7.3684424161911011e-01" nType="0">
            <Node pos="l" depth="3" NCoef="0" IVar="-1" Cut="0.0000000000000000e+00" cType="1" res="6.9428660208359361e-04" rms="3.8238096237182617e-01" purity="8.0312079191207886e-01" nType="-99"/>
            <Node pos="r" depth="3" NCoef="0" IVar="-1" Cut="0.0000000000000000e+00" cType="1" res="-4.4854697771370411e-03" rms="4.3751180171966553e-01" purity="5.9610080718994141e-01" nType="-99"/>
          </Node>
        </Node>
      </Node>
    </BinaryTree>
    <BinaryTree type="DecisionTree" boostWeight="1.0000000000000000e+00" itree="93">
      <Node pos="s" depth="0" NCoef="0" IVar="4" Cut="1.5467342138290405e+00" cType="1" res="2.9492487665265799e-03" rms="3.9934363961219788e-01" purity="4.9961787462234497e-01" nType="0">
        <Node pos="l" depth="1" NCoef="0" IVar="3" Cut="7.7941602468490601e-01" cType="1" res="4.6892249956727028e-03" rms="4.1184759140014648e-01" purity="5.4032891988754272e-01" nType="0">
          <Node pos="l" depth="2" NCoef="0" IVar="6" Cut="5.1201056689023972e-02" cType="1" res="-6.4239435596391559e-04" rms="4.0527591109275818e-01" purity="2.9847288131713867e-01" nType="0">
            <Node pos="l" depth="3" NCoef="0" IVar="2" Cut="3.9339527130126953e+01" cType="1" res="-1.2717220932245255e-02" rms="4.1174939274787903e-01" purity="3.2029971480369568e-01" nType="0">
              <Node pos="l" depth="4" NCoef="0" IVar="6" Cut="1.9867906346917152e-02" cType="1" res="1.4765451662242413e-02" rms="4.3329101800918579e-01" purity="3.9311423897743225e-01" nType="0">
                <Node pos="l" depth="5" NCoef="0" IVar="-1" Cut="0.0000000000000000e+00" cType="1" res="-1.4014010084792972e-03" rms="4.2563703656196594e-01" purity="3.4826686978340149e-01" nType="-99"/>
                <Node pos="r" depth="5" NCoef="0" IVar="-1" Cut="0.0000000000000000e+00" cType="1" res="3.7781817372888327e-03" rms="4.3813189864158630e-01" purity="4.2856121063232422e-01" nType="-99"/>
              </Node>
              <Node pos="r" depth="4" NCoef="0" IVar="6" Cut="2.7019923552870750e-02" cType="1" res="-2.3053776472806931e-02" rms="4.0286484360694885e-01" purity="2.9291334748268127e-01" nType="0">
                <Node pos="l" depth="5" NCoef="0" IVar="-1" Cut="0.0000000000000000e+00" cType="1" res="-7.2686681523919106e-03" rms="3.8828870654106140e-01" purity="2.5622752308845520e-01" nType="-99"/>
                <Node pos="r" depth="5" NCoef="0" IVar="7" Cut="4.0000000000000000e+00" cType="1" res="-1.6129946336150169e-02" rms="4.0484923124313354e-01" purity="3.0237436294555664e-01" nType="0">
                  <Node pos="l" depth="6" NCoef="0" IVar="4" Cut="-3.6478883028030396e-01" cType="1" res="-2.4553986266255379e-02" rms="4.4123157858848572e-01" purity="3.7579533457756042e-01" nType="0">
                    <Node pos="l" depth="7" NCoef="0" IVar="-1" Cut="0.0000000000000000e+00" cType="1" res="-1.6829525120556355e-03" rms="4.5062202215194702e-01" purity="4.1440850496292114e-01" nType="-99"/>
                    <Node pos="r" depth="7" NCoef="0" IVar="-1" Cut="0.0000000000000000e+00" cType="1" res="-5.1127253100275993e-03" rms="4.2200040817260742e-01" purity="3.0132377147674561e-01" nType="-99"/>
                  </Node>
                  <Node pos="r" depth="6" NCoef="0" IVar="3" Cut="5.1020646095275879e-01" cType="1" res="-3.8990704342722893e-03" rms="3.5366261005401611e-01" purity="2.0416975021362305e-01" nType="0">
                    <Node pos="l" depth="7" NCoef="0" IVar="-1" Cut="0.0000000000000000e+00" cType="1" res="-6.0723945498466492e-03" rms="2.4220927059650421e-01" purity="6.7496761679649353e-02" nType="-99"/>
                    <Node pos="r" depth="7" NCoef="0" IVar="-1" Cut="0.0000000000000000e+00" cType="1" res="1.4947664458304644e-03" rms="4.6542236208915710e-01" purity="3.9365485310554504e-01" nType="-99"/>
                  </Node>
                </Node>
              </Node>
            </Node>
            <Node pos="r" depth="3" NCoef="0" IVar="2" Cut="1.6129533386230469e+02" cType="1" res="3.2335240393877029e-03" rms="4.0309926867485046e-01" purity="2.9146662354469299e-01" nType="0">
              <Node pos="l" depth="4" NCoef="0" IVar="5" Cut="-1.8888617753982544e+00" cType="1" res="1.2355897575616837e-02" rms="4.2350721359252930e-01" purity="3.6150676012039185e-01" nType="0">
                <Node pos="l" depth="5" NCoef="0" IVar="4" Cut="-1.1333683729171753e+00" cType="1" res="2.0187327638268471e-02" rms="4.2712455987930298e-01" purity="3.8841342926025391e-01" nType="0">
                  <Node pos="l" depth="6" NCoef="0" IVar="-1" Cut="0.0000000000000000e+00" cType="1" res="-2.3811927530914545e-04" rms="4.3648716807365417e-01" purity="4.3457427620887756e-01" nType="-99"/>
                  <Node pos="r" depth="6" NCoef="0" IVar="5" Cut="-2.2711033821105957e+00" cType="1" res="2.7224302291870117e-02" rms="4.2389905452728271e-01" purity="3.7392583489418030e-01" nType="0">
                    <Node pos="l" depth="7" NCoef="0" IVar="-1" Cut="0.0000000000000000e+00" cType="1" res="4.2891735211014748e-03" rms="4.2110037803649902e-01" purity="3.7126654386520386e-01" nType="-99"/>
                    <Node pos="r" depth="7" NCoef="0" IVar="-1" Cut="0.0000000000000000e+00" cType="1" res="6.4249796560034156e-04" rms="4.3071672320365906e-01" purity="3.8119599223136902e-01" nType="-99"/>
                  </Node>
                </Node>
                <Node pos="r" depth="5" NCoef="0" IVar="1" Cut="6.8481242656707764e-01" cType="1" res="-4.5310246059671044e-04" rms="4.1720643639564514e-01" purity="3.1749841570854187e-01" nType="0">
                  <Node pos="l" depth="6" NCoef="0" IVar="6" Cut="7.8321188688278198e-02" cType="1" res="8.6195617914199829e-03" rms="4.5483413338661194e-01" purity="4.1842928528785706e-01" nType="0">
                    <Node pos="l" depth="7" NCoef="0" IVar="-1" Cut="0.0000000000000000e+00" cType="1" res="-1.9722169963642955e-04" rms="4.5577156543731689e-01" purity="4.1801553964614868e-01" nType="-99"/>
                    <Node pos="r" depth="7" NCoef="0" IVar="-1" Cut="0.0000000000000000e+00" cType="1" res="1.9240820547565818e-03" rms="4.5366817712783813e-01" purity="4.1883805394172668e-01" nType="-99"/>
                  </Node>
                  <Node pos="r" depth="6" NCoef="0" IVar="-1" Cut="0.0000000000000000e+00" cType="1" res="-2.1552722901105881e-03" rms="3.6245629191398621e-01" purity="1.8694743514060974e-01" nType="-99"/>
                </Node>
              </Node>
              <Node pos="r" depth="4" NCoef="0" IVar="6" Cut="1.0685874521732330e-01" cType="1" res="-9.7603542963042855e-04" rms="3.9325371384620667e-01" purity="2.5914633274078369e-01" nType="0">
                <Node pos="l" depth="5" NCoef="0" IVar="3" Cut="6.3295185565948486e-01" cType="1" res="-8.2891182973980904e-03" rms="3.9734610915184021e-01" purity="2.8889262676239014e-01" nType="0">
                  <Node pos="l" depth="6" NCoef="0" IVar="7" Cut="4.0000000000000000e+00" cType="1" res="-1.5281580388545990e-02" rms="3.3046114444732666e-01" purity="1.4953473210334778e-01" nType="0">
                    <Node pos="l" depth="7" NCoef="0" IVar="-1" Cut="0.0000000000000000e+00" cType="1" res="-4.2439280077815056e-03" rms="3.6475950479507446e-01" purity="1.8000839650630951e-01" nType="-99"/>
                    <Node pos="r" depth="7" NCoef="0" IVar="-1" Cut="0.0000000000000000e+00" cType="1" res="-2.4844431318342686e-03" rms="3.1442031264305115e-01" purity="1.3505223393440247e-01" nType="-99"/>
                  </Node>
                  <Node pos="r" depth="6" NCoef="0" IVar="5" Cut="-2.2392733097076416e+00" cType="1" res="2.6574968360364437e-03" rms="4.8230957984924316e-01" purity="5.0660693645477295e-01" nType="0">
                    <Node pos="l" depth="7" NCoef="0" IVar="-1" Cut="0.0000000000000000e+00" cType="1" res="-1.8281969241797924e-03" rms="4.8168563842773438e-01" purity="5.1423144340515137e-01" nType="-99"/>
                    <Node pos="r" depth="7" NCoef="0" IVar="-1" Cut="0.0000000000000000e+00" cType="1" res="1.7788754776120186e-03" rms="4.8213505744934082e-01" purity="5.0090986490249634e-01" nType="-99"/>
                  </Node>
                </Node>
                <Node pos="r" depth="5" NCoef="0" IVar="7" Cut="3.0000000000000000e+00" cType="1" res="4.3588094413280487e-03" rms="3.8797220587730408e-01" purity="2.3465865850448608e-01" nType="0">
                  <Node pos="l" depth="6" NCoef="0" IVar="-1" Cut="0.0000000000000000e+00" cType="1" res="4.8411074094474316e-03" rms="4.6079990267753601e-01" purity="3.8288003206253052e-01" nType="-99"/>
                  <Node pos="r" depth="6" NCoef="0" IVar="3" Cut="5.3077971935272217e-01" cType="1" res="2.5953937438316643e-04" rms="3.7975859642028809e-01" purity="2.1631166338920593e-01" nType="0">
                    <Node pos="l" depth="7" NCoef="0" IVar="-1" Cut="0.0000000000000000e+00" cType="1" res="-9.0503663523122668e-04" rms="3.5371935367584229e-01" purity="1.6420260071754456e-01" nType="-99"/>
                    <Node pos="r" depth="7" NCoef="0" IVar="-1" Cut="0.0000000000000000e+00" cType="1" res="2.1640290506184101e-03" rms="4.8059922456741333e-01" purity="4.5461979508399963e-01" nType="-99"/>
                  </Node>
                </Node>
              </Node>
            </Node>
          </Node>
          <Node pos="r" depth="2" NCoef="0" IVar="3" Cut="1.0540964603424072e+00" cType="1" res="9.1258985921740532e-03" rms="4.1718533635139465e-01" purity="7.4158793687820435e-01" nType="0">
            <Node pos="l" depth="3" NCoef="0" IVar="3" Cut="1.0009257793426514e+00" cType="1" res="9.8995147272944450e-03" rms="4.1738241910934448e-01" purity="7.4272936582565308e-01" nType="0">
              <Node pos="l" depth="4" NCoef="0" IVar="6" Cut="2.5130394846200943e-02" cType="1" res="6.9852280430495739e-03" rms="4.2607063055038452e-01" purity="7.2677809000015259e-01" nType="0">
                <Node pos="l" depth="5" NCoef="0" IVar="3" Cut="9.3662393093109131e-01" cType="1" res="2.2070175036787987e-03" rms="4.1461825370788574e-01" purity="7.4835431575775146e-01" nType="0">
                  <Node pos="l" depth="6" NCoef="0" IVar="6" Cut="1.0645109228789806e-02" cType="1" res="-1.4783729799091816e-02" rms="4.4778874516487122e-01" purity="6.7382591962814331e-01" nType="0">
                    <Node pos="l" depth="7" NCoef="0" IVar="-1" Cut="0.0000000000000000e+00" cType="1" res="-3.6968805361539125e-03" rms="4.4756379723548889e-01" purity="6.7088478803634644e-01" nType="-99"/>
                    <Node pos="r" depth="7" NCoef="0" IVar="-1" Cut="0.0000000000000000e+00" cType="1" res="-4.7433140571229160e-04" rms="4.4756463170051575e-01" purity="6.7537772655487061e-01" nType="-99"/>
                  </Node>
                  <Node pos="r" depth="6" NCoef="0" IVar="4" Cut="-1.5062915086746216e+00" cType="1" res="6.8568577989935875e-03" rms="4.0494319796562195e-01" purity="7.6875042915344238e-01" nType="0">
                    <Node pos="l" depth="7" NCoef="0" IVar="-1" Cut="0.0000000000000000e+00" cType="1" res="-4.2039764230139554e-04" rms="4.3271452188491821e-01" purity="7.2560501098632812e-01" nType="-99"/>
                    <Node pos="r" depth="7" NCoef="0" IVar="-1" Cut="0.0000000000000000e+00" cType="1" res="1.0995212942361832e-03" rms="3.9872524142265320e-01" purity="7.7795970439910889e-01" nType="-99"/>
                  </Node>
                </Node>
                <Node pos="r" depth="5" NCoef="0" IVar="4" Cut="-2.4995393753051758e+00" cType="1" res="1.5570159070193768e-02" rms="4.4577988982200623e-01" purity="6.8801254034042358e-01" nType="0">
                  <Node pos="l" depth="6" NCoef="0" IVar="5" Cut="-2.5458717346191406e+00" cType="1" res="2.8523121029138565e-02" rms="4.1795310378074646e-01" purity="7.5535935163497925e-01" nType="0">
                    <Node pos="l" depth="7" NCoef="0" IVar="-1" Cut="0.0000000000000000e+00" cType="1" res="3.8566831499338150e-03" rms="4.0208634734153748e-01" purity="7.8024089336395264e-01" nType="-99"/>
                    <Node pos="r" depth="7" NCoef="0" IVar="-1" Cut="0.0000000000000000e+00" cType="1" res="2.0923581905663013e-03" rms="4.3819966912269592e-01" purity="7.2199505567550659e-01" nType="-99"/>
                  </Node>
                  <Node pos="r" depth="6" NCoef="0" IVar="0" Cut="3.1810817122459412e-01" cType="1" res="1.2003273703157902e-02" rms="4.5307761430740356e-01" purity="6.6946703195571899e-01" nType="0">
                    <Node pos="l" depth="7" NCoef="0" IVar="-1" Cut="0.0000000000000000e+00" cType="1" res="8.8855554349720478e-04" rms="4.4770428538322449e-01" purity="6.9693100452423096e-01" nType="-99"/>
                    <Node pos="r" depth="7" NCoef="0" IVar="-1" Cut="0.0000000000000000e+00" cType="1" res="2.5505891535431147e-03" rms="4.8087161779403687e-01" purity="5.2038043737411499e-01" nType="-99"/>
                  </Node>
                </Node>
              </Node>
              <Node pos="r" depth="4" NCoef="0" IVar="5" Cut="-2.5443849563598633e+00" cType="1" res="1.9412361085414886e-02" rms="3.8751694560050964e-01" purity="7.9479759931564331e-01" nType="0">
                <Node pos="l" depth="5" NCoef="0" IVar="3" Cut="1.0095005035400391e+00" cType="1" res="2.4321382865309715e-02" rms="3.6004528403282166e-01" purity="8.3763015270233154e-01" nType="0">
                  <Node pos="l" depth="6" NCoef="0" IVar="4" Cut="-2.8069236874580383e-01" cType="1" res="1.7337789759039879e-02" rms="3.6596637964248657e-01" purity="8.3060657978057861e-01" nType="0">
                    <Node pos="l" depth="7" NCoef="0" IVar="-1" Cut="0.0000000000000000e+00" cType="1" res="1.0857675224542618e-03" rms="3.8027206063270569e-01" purity="8.1274348497390747e-01" nType="-99"/>
                    <Node pos="r" depth="7" NCoef="0" IVar="-1" Cut="0.0000000000000000e+00" cType="1" res="3.9868229068815708e-03" rms="3.4647500514984131e-01" purity="8.5351741313934326e-01" nType="-99"/>
                  </Node>
                  <Node pos="r" depth="6" NCoef="0" IVar="3" Cut="1.0195714235305786e+00" cType="1" res="3.1880419701337814e-02" rms="3.5336905717849731e-01" purity="8.4523242712020874e-01" nType="0">
                    <Node pos="l" depth="7" NCoef="0" IVar="-1" Cut="0.0000000000000000e+00" cType="1" res="4.6023488976061344e-03" rms="3.4987872838973999e-01" purity="8.5203582048416138e-01" nType="-99"/>
                    <Node pos="r" depth="7" NCoef="0" IVar="-1" Cut="0.0000000000000000e+00" cType="1" res="3.6380200181156397e-03" rms="3.5581877827644348e-01" purity="8.4036266803741455e-01" nType="-99"/>
                  </Node>
                </Node>
                <Node pos="r" depth="5" NCoef="0" IVar="3" Cut="1.0163569450378418e+00" cType="1" res="1.2921846471726894e-02" rms="4.2100864648818970e-01" purity="7.3816603422164917e-01" nType="0">
                  <Node pos="l" depth="6" NCoef="0" IVar="4" Cut="-5.5758082866668701e-01" cType="1" res="1.9413480535149574e-02" rms="4.1682770848274231e-01" purity="7.4735891819000244e-01" nType="0">
                    <Node pos="l" depth="7" NCoef="0" IVar="-1" Cut="0.0000000000000000e+00" cType="1" res="8.6314644431695342e-04" rms="4.2961317300796509e-01" purity="7.2370958328247070e-01" nType="-99"/>
                    <Node pos="r" depth="7" NCoef="0" IVar="-1" Cut="0.0000000000000000e+00" cType="1" res="2.8299286495894194e-03" rms="4.0899920463562012e-01" purity="7.6126801967620850e-01" nType="-99"/>
                  </Node>
                  <Node pos="r" depth="6" NCoef="0" IVar="-1" Cut="0.0000000000000000e+00" cType="1" res="-1.2057717685820535e-04" rms="4.2960524559020996e-01" purity="7.1821510791778564e-01" nType="-99"/>
                </Node>
              </Node>
            </Node>
            <Node pos="r" depth="3" NCoef="0" IVar="-1" Cut="0.0000000000000000e+00" cType="1" res="-2.5958144105970860e-03" rms="4.0764385461807251e-01" purity="6.9427692890167236e-01" nType="-99"/>
          </Node>
        </Node>
        <Node pos="r" depth="1" NCoef="0" IVar="3" Cut="6.4185410737991333e-01" cType="1" res="-1.5605002641677856e-02" rms="2.2569410502910614e-01" purity="6.5495178103446960e-02" nType="0">
          <Node pos="l" depth="2" NCoef="0" IVar="6" Cut="1.2900754809379578e-01" cType="1" res="-1.0082351043820381e-02" rms="1.9146926701068878e-01" purity="4.1280470788478851e-02" nType="0">
            <Node pos="l" depth="3" NCoef="0" IVar="2" Cut="2.9430734252929688e+02" cType="1" res="-1.6947025433182716e-02" rms="1.5313009917736053e-01" purity="2.6215899735689163e-02" nType="0">
              <Node pos="l" depth="4" NCoef="0" IVar="6" Cut="8.7783262133598328e-02" cType="1" res="-1.4355357736349106e-02" rms="1.6174907982349396e-01" purity="2.9799999669194221e-02" nType="0">
                <Node pos="l" depth="5" NCoef="0" IVar="4" Cut="2.5166437625885010e+00" cType="1" res="-1.6852715983986855e-02" rms="1.4635621011257172e-01" purity="2.4090586230158806e-02" nType="0">
                  <Node pos="l" depth="6" NCoef="0" IVar="-1" Cut="0.0000000000000000e+00" cType="1" res="-6.6399425268173218e-03" rms="1.9883947074413300e-01" purity="4.5784913003444672e-02" nType="-99"/>
                  <Node pos="r" depth="6" NCoef="0" IVar="-1" Cut="0.0000000000000000e+00" cType="1" res="-2.1615948528051376e-02" rms="8.3371557295322418e-02" purity="6.7862044088542461e-03" nType="-99"/>
                </Node>
                <Node pos="r" depth="5" NCoef="0" IVar="-1" Cut="0.0000000000000000e+00" cType="1" res="-5.3449086844921112e-03" rms="1.9124865531921387e-01" purity="4.2389094829559326e-02" nType="-99"/>
              </Node>
              <Node pos="r" depth="4" NCoef="0" IVar="-1" Cut="0.0000000000000000e+00" cType="1" res="-1.7065398395061493e-02" rms="1.2309858947992325e-01" purity="1.5368642285466194e-02" nType="-99"/>
            </Node>
            <Node pos="r" depth="3" NCoef="0" IVar="5" Cut="1.4125972986221313e+00" cType="1" res="-4.0835113031789660e-04" rms="2.3477418720722198e-01" purity="6.2510132789611816e-02" nType="0">
              <Node pos="l" depth="4" NCoef="0" IVar="-1" Cut="0.0000000000000000e+00" cType="1" res="4.2177909053862095e-03" rms="2.7773323655128479e-01" purity="8.9267462491989136e-02" nType="-99"/>
              <Node pos="r" depth="4" NCoef="0" IVar="-1" Cut="0.0000000000000000e+00" cType="1" res="-6.1033917590975761e-03" rms="1.8993766605854034e-01" purity="3.9611052721738815e-02" nType="-99"/>
            </Node>
          </Node>
          <Node pos="r" depth="2" NCoef="0" IVar="-1" Cut="0.0000000000000000e+00" cType="1" res="-7.2640571743249893e-03" rms="3.8844320178031921e-01" purity="2.3800708353519440e-01" nType="-99"/>
        </Node>
      </Node>
    </BinaryTree>
    <BinaryTree type="DecisionTree" boostWeight="1.0000000000000000e+00" itree="94">
      <Node pos="s" depth="0" NCoef="0" IVar="2" Cut="6.9694526672363281e+01" cType="1" res="3.5789937246590853e-03" rms="3.9960286021232605e-01" purity="5.0187999010086060e-01" nType="0">
        <Node pos="l" depth="1" NCoef="0" IVar="4" Cut="-2.0292174816131592e+00" cType="1" res="9.0176500380039215e-03" rms="4.0853303670883179e-01" purity="6.9267141819000244e-01" nType="0">
          <Node pos="l" depth="2" NCoef="0" IVar="6" Cut="3.2981965690851212e-02" cType="1" res="2.3144453763961792e-02" rms="4.2963016033172607e-01" purity="7.0104920864105225e-01" nType="0">
            <Node pos="l" depth="3" NCoef="0" IVar="3" Cut="9.4027864933013916e-01" cType="1" res="1.9023375585675240e-02" rms="4.2914816737174988e-01" purity="7.0061814785003662e-01" nType="0">
              <Node pos="l" depth="4" NCoef="0" IVar="6" Cut="1.3985085301101208e-02" cType="1" res="1.1980133131146431e-02" rms="4.4075745344161987e-01" purity="6.6038584709167480e-01" nType="0">
                <Node pos="l" depth="5" NCoef="0" IVar="-1" Cut="0.0000000000000000e+00" cType="1" res="-1.4720244798809290e-03" rms="4.5028132200241089e-01" purity="6.3229846954345703e-01" nType="-99"/>
                <Node pos="r" depth="5" NCoef="0" IVar="6" Cut="2.3176519200205803e-02" cType="1" res="2.5730224326252937e-02" rms="4.3495365977287292e-01" purity="6.7541235685348511e-01" nType="0">
                  <Node pos="l" depth="6" NCoef="0" IVar="-1" Cut="0.0000000000000000e+00" cType="1" res="3.5134225618094206e-03" rms="4.3605959415435791e-01" purity="6.7482554912567139e-01" nType="-99"/>
                  <Node pos="r" depth="6" NCoef="0" IVar="-1" Cut="0.0000000000000000e+00" cType="1" res="1.6082896618172526e-03" rms="4.3339413404464722e-01" purity="6.7612224817276001e-01" nType="-99"/>
                </Node>
              </Node>
              <Node pos="r" depth="4" NCoef="0" IVar="4" Cut="-2.8168628215789795e+00" cType="1" res="3.0152726918458939e-02" rms="4.0988779067993164e-01" purity="7.6419103145599365e-01" nType="0">
                <Node pos="l" depth="5" NCoef="0" IVar="-1" Cut="0.0000000000000000e+00" cType="1" res="3.9067077450454235e-03" rms="3.9331302046775818e-01" purity="7.9353028535842896e-01" nType="-99"/>
                <Node pos="r" depth="5" NCoef="0" IVar="-1" Cut="0.0000000000000000e+00" cType="1" res="2.3946582805365324e-03" rms="4.2679825425148010e-01" purity="7.3287498950958252e-01" nType="-99"/>
              </Node>
            </Node>
            <Node pos="r" depth="3" NCoef="0" IVar="-1" Cut="0.0000000000000000e+00" cType="1" res="4.1110073216259480e-03" rms="4.3146723508834839e-01" purity="7.0324599742889404e-01" nType="-99"/>
          </Node>
          <Node pos="r" depth="2" NCoef="0" IVar="1" Cut="6.7718607187271118e-01" cType="1" res="6.4457836560904980e-03" rms="4.0452075004577637e-01" purity="6.9114619493484497e-01" nType="0">
            <Node pos="l" depth="3" NCoef="0" IVar="4" Cut="-1.1072562932968140e+00" cType="1" res="9.8543195053935051e-03" rms="3.9654466509819031e-01" purity="7.5391274690628052e-01" nType="0">
              <Node pos="l" depth="4" NCoef="0" IVar="2" Cut="1.3488744735717773e+01" cType="1" res="1.1780838249251246e-03" rms="4.2171651124954224e-01" purity="7.2896516323089600e-01" nType="0">
                <Node pos="l" depth="5" NCoef="0" IVar="4" Cut="-1.3451840877532959e+00" cType="1" res="-7.8436462208628654e-03" rms="4.1471898555755615e-01" purity="7.6220679283142090e-01" nType="0">
                  <Node pos="l" depth="6" NCoef="0" IVar="4" Cut="-1.6982697248458862e+00" cType="1" res="-1.4185576699674129e-02" rms="4.1916531324386597e-01" purity="7.5555241107940674e-01" nType="0">
                    <Node pos="l" depth="7" NCoef="0" IVar="-1" Cut="0.0000000000000000e+00" cType="1" res="-1.8699127249419689e-03" rms="4.2139634490013123e-01" purity="7.5248467922210693e-01" nType="-99"/>
                    <Node pos="r" depth="7" NCoef="0" IVar="-1" Cut="0.0000000000000000e+00" cType="1" res="-8.8487745961174369e-04" rms="4.1636744141578674e-01" purity="7.5928258895874023e-01" nType="-99"/>
                  </Node>
                  <Node pos="r" depth="6" NCoef="0" IVar="-1" Cut="0.0000000000000000e+00" cType="1" res="5.0123536493629217e-04" rms="4.0555527806282043e-01" purity="7.7527695894241333e-01" nType="-99"/>
                </Node>
                <Node pos="r" depth="5" NCoef="0" IVar="-1" Cut="0.0000000000000000e+00" cType="1" res="2.2672361228615046e-03" rms="4.3746483325958252e-01" purity="6.4827269315719604e-01" nType="-99"/>
              </Node>
              <Node pos="r" depth="4" NCoef="0" IVar="5" Cut="-2.1382179260253906e+00" cType="1" res="1.2028285302221775e-02" rms="3.8995274901390076e-01" purity="7.6016378402709961e-01" nType="0">
                <Node pos="l" depth="5" NCoef="0" IVar="3" Cut="1.0287765264511108e+00" cType="1" res="1.4585316181182861e-02" rms="3.6633217334747314e-01" purity="8.1272286176681519e-01" nType="0">
                  <Node pos="l" depth="6" NCoef="0" IVar="3" Cut="9.9622315168380737e-01" cType="1" res="1.3674391433596611e-02" rms="3.6819919943809509e-01" purity="8.0874520540237427e-01" nType="0">
                    <Node pos="l" depth="7" NCoef="0" IVar="-1" Cut="0.0000000000000000e+00" cType="1" res="1.2112120166420937e-03" rms="3.8909852504730225e-01" purity="7.6073491573333740e-01" nType="-99"/>
                    <Node pos="r" depth="7" NCoef="0" IVar="-1" Cut="0.0000000000000000e+00" cType="1" res="2.5566660333424807e-03" rms="3.4668627381324768e-01" purity="8.5530507564544678e-01" nType="-99"/>
                  </Node>
                  <Node pos="r" depth="6" NCoef="0" IVar="-1" Cut="0.0000000000000000e+00" cType="1" res="3.3204155042767525e-03" rms="3.4489989280700684e-01" purity="8.5661566257476807e-01" nType="-99"/>
                </Node>
                <Node pos="r" depth="5" NCoef="0" IVar="1" Cut="-3.5573282837867737e-01" cType="1" res="6.6074151545763016e-03" rms="4.3576490879058838e-01" purity="6.4873927831649780e-01" nType="0">
                  <Node pos="l" depth="6" NCoef="0" IVar="-1" Cut="0.0000000000000000e+00" cType="1" res="1.8132929690182209e-03" rms="4.2459207773208618e-01" purity="7.1990603208541870e-01" nType="-99"/>
                  <Node pos="r" depth="6" NCoef="0" IVar="5" Cut="-1.4028326272964478e+00" cType="1" res="4.0035853162407875e-03" rms="4.3841063976287842e-01" purity="6.3136065006256104e-01" nType="0">
                    <Node pos="l" depth="7" NCoef="0" IVar="-1" Cut="0.0000000000000000e+00" cType="1" res="9.8028557840734720e-04" rms="4.2321023344993591e-01" purity="7.1701365709304810e-01" nType="-99"/>
                    <Node pos="r" depth="7" NCoef="0" IVar="-1" Cut="0.0000000000000000e+00" cType="1" res="-2.1778246446046978e-04" rms="4.5605623722076416e-01" purity="5.2769178152084351e-01" nType="-99"/>
                  </Node>
                </Node>
              </Node>
            </Node>
            <Node pos="r" depth="3" NCoef="0" IVar="3" Cut="9.5534545183181763e-01" cType="1" res="-3.8176085799932480e-03" rms="4.2747595906257629e-01" purity="5.0215083360671997e-01" nType="0">
              <Node pos="l" depth="4" NCoef="0" IVar="6" Cut="2.1010277792811394e-02" cType="1" res="-1.6526322811841965e-02" rms="3.9363333582878113e-01" purity="2.7487206459045410e-01" nType="0">
                <Node pos="l" depth="5" NCoef="0" IVar="-1" Cut="0.0000000000000000e+00" cType="1" res="-5.7161669246852398e-03" rms="4.0368789434432983e-01" purity="2.9828798770904541e-01" nType="-99"/>
                <Node pos="r" depth="5" NCoef="0" IVar="1" Cut="1.5792798995971680e+00" cType="1" res="-5.9619145467877388e-03" rms="3.8916102051734924e-01" purity="2.6581510901451111e-01" nType="0">
                  <Node pos="l" depth="6" NCoef="0" IVar="-1" Cut="0.0000000000000000e+00" cType="1" res="7.3077296838164330e-04" rms="4.0617248415946960e-01" purity="3.1182977557182312e-01" nType="-99"/>
                  <Node pos="r" depth="6" NCoef="0" IVar="-1" Cut="0.0000000000000000e+00" cType="1" res="-3.8116385694593191e-03" rms="3.6175501346588135e-01" purity="1.9750376045703888e-01" nType="-99"/>
                </Node>
              </Node>
              <Node pos="r" depth="4" NCoef="0" IVar="4" Cut="-2.0428304374217987e-01" cType="1" res="5.0225728191435337e-03" rms="4.4930490851402283e-01" purity="6.6024589538574219e-01" nType="0">
                <Node pos="l" depth="5" NCoef="0" IVar="3" Cut="9.9606567621231079e-01" cType="1" res="-3.9470172487199306e-03" rms="4.5738902688026428e-01" purity="6.4701104164123535e-01" nType="0">
                  <Node pos="l" depth="6" NCoef="0" IVar="-1" Cut="0.0000000000000000e+00" cType="1" res="-1.5545735368505120e-03" rms="4.6406897902488708e-01" purity="6.2269097566604614e-01" nType="-99"/>
                  <Node pos="r" depth="6" NCoef="0" IVar="4" Cut="-7.9274338483810425e-01" cType="1" res="2.9590358026325703e-03" rms="4.5360559225082397e-01" purity="6.6009044647216797e-01" nType="0">
                    <Node pos="l" depth="7" NCoef="0" IVar="-1" Cut="0.0000000000000000e+00" cType="1" res="6.5849773818627000e-04" rms="4.6396788954734802e-01" purity="6.3941478729248047e-01" nType="-99"/>
                    <Node pos="r" depth="7" NCoef="0" IVar="-1" Cut="0.0000000000000000e+00" cType="1" res="-2.3695932759437710e-04" rms="4.4286474585533142e-01" purity="6.8090319633483887e-01" nType="-99"/>
                  </Node>
                </Node>
                <Node pos="r" depth="5" NCoef="0" IVar="5" Cut="-2.3483519554138184e+00" cType="1" res="1.7850220203399658e-02" rms="4.3716439604759216e-01" purity="6.7917340993881226e-01" nType="0">
                  <Node pos="l" depth="6" NCoef="0" IVar="-1" Cut="0.0000000000000000e+00" cType="1" res="2.9998787213116884e-03" rms="4.1428869962692261e-01" purity="7.6205664873123169e-01" nType="-99"/>
                  <Node pos="r" depth="6" NCoef="0" IVar="-1" Cut="0.0000000000000000e+00" cType="1" res="4.8692236305214465e-04" rms="4.6475592255592346e-01" purity="5.7203507423400879e-01" nType="-99"/>
                </Node>
              </Node>
            </Node>
          </Node>
        </Node>
        <Node pos="r" depth="1" NCoef="0" IVar="1" Cut="5.0561118125915527e+00" cType="1" res="-1.4376946492120624e-03" rms="3.9111775159835815e-01" purity="3.2589146494865417e-01" nType="0">
          <Node pos="l" depth="2" NCoef="0" IVar="6" Cut="3.7228386849164963e-02" cType="1" res="-2.4696837645024061e-03" rms="3.9153593778610229e-01" purity="3.2814890146255493e-01" nType="0">
            <Node pos="l" depth="3" NCoef="0" IVar="3" Cut="8.7808215618133545e-01" cType="1" res="-1.5341065824031830e-02" rms="4.2320999503135681e-01" purity="4.9922177195549011e-01" nType="0">
              <Node pos="l" depth="4" NCoef="0" IVar="6" Cut="2.8369985520839691e-02" cType="1" res="-2.5160813704133034e-02" rms="4.1966027021408081e-01" purity="4.0465277433395386e-01" nType="0">
                <Node pos="l" depth="5" NCoef="0" IVar="-1" Cut="0.0000000000000000e+00" cType="1" res="-5.9021757915616035e-03" rms="4.1722351312637329e-01" purity="3.7712681293487549e-01" nType="-99"/>
                <Node pos="r" depth="5" NCoef="0" IVar="6" Cut="3.2942503690719604e-02" cType="1" res="-1.1556959711015224e-02" rms="4.2071175575256348e-01" purity="4.2285546660423279e-01" nType="0">
                  <Node pos="l" depth="6" NCoef="0" IVar="-1" Cut="0.0000000000000000e+00" cType="1" res="-2.3240065202116966e-03" rms="4.2539495229721069e-01" purity="4.1725569963455200e-01" nType="-99"/>
                  <Node pos="r" depth="6" NCoef="0" IVar="-1" Cut="0.0000000000000000e+00" cType="1" res="-6.7449861671775579e-04" rms="4.1650396585464478e-01" purity="4.2772197723388672e-01" nType="-99"/>
                </Node>
              </Node>
              <Node pos="r" depth="4" NCoef="0" IVar="-1" Cut="0.0000000000000000e+00" cType="1" res="1.0053529404103756e-03" rms="4.3073913455009460e-01" purity="7.2757405042648315e-01" nType="-99"/>
            </Node>
            <Node pos="r" depth="3" NCoef="0" IVar="2" Cut="2.0458866882324219e+02" cType="1" res="-8.7521312525495887e-04" rms="3.8740223646163940e-01" purity="3.0695685744285583e-01" nType="0">
              <Node pos="l" depth="4" NCoef="0" IVar="3" Cut="3.3154746890068054e-01" cType="1" res="5.6622331030666828e-03" rms="4.0632441639900208e-01" purity="3.8465037941932678e-01" nType="0">
                <Node pos="l" depth="5" NCoef="0" IVar="6" Cut="1.0603096336126328e-01" cType="1" res="-1.1553299613296986e-02" rms="2.0069296658039093e-01" purity="4.4842116534709930e-02" nType="0">
                  <Node pos="l" depth="6" NCoef="0" IVar="-1" Cut="0.0000000000000000e+00" cType="1" res="-1.2862499803304672e-02" rms="1.5774387121200562e-01" purity="2.6326794177293777e-02" nType="-99"/>
                  <Node pos="r" depth="6" NCoef="0" IVar="-1" Cut="0.0000000000000000e+00" cType="1" res="-7.5116142397746444e-04" rms="2.5730139017105103e-01" purity="7.6208971440792084e-02" nType="-99"/>
                </Node>
                <Node pos="r" depth="5" NCoef="0" IVar="6" Cut="1.3394837081432343e-01" cType="1" res="8.6321290582418442e-03" rms="4.3194088339805603e-01" purity="4.4327157735824585e-01" nType="0">
                  <Node pos="l" depth="6" NCoef="0" IVar="3" Cut="6.4881944656372070e-01" cType="1" res="6.2813046388328075e-03" rms="4.3127048015594482e-01" purity="4.5104375481605530e-01" nType="0">
                    <Node pos="l" depth="7" NCoef="0" IVar="-1" Cut="0.0000000000000000e+00" cType="1" res="-4.0142502984963357e-04" rms="3.8734143972396851e-01" purity="2.2976320981979370e-01" nType="-99"/>
                    <Node pos="r" depth="7" NCoef="0" IVar="-1" Cut="0.0000000000000000e+00" cType="1" res="1.2116241268813610e-03" rms="4.6076235175132751e-01" purity="6.1353760957717896e-01" nType="-99"/>
                  </Node>
                  <Node pos="r" depth="6" NCoef="0" IVar="-1" Cut="0.0000000000000000e+00" cType="1" res="4.9251946620643139e-03" rms="4.3986767530441284e-01" purity="3.3502492308616638e-01" nType="-99"/>
                </Node>
              </Node>
              <Node pos="r" depth="4" NCoef="0" IVar="4" Cut="4.9461600184440613e-01" cType="1" res="-6.3490602187812328e-03" rms="3.7072798609733582e-01" purity="2.4190354347229004e-01" nType="0">
                <Node pos="l" depth="5" NCoef="0" IVar="3" Cut="2.0823982357978821e-01" cType="1" res="-2.9963059350848198e-03" rms="4.0786617994308472e-01" purity="3.0708834528923035e-01" nType="0">
                  <Node pos="l" depth="6" NCoef="0" IVar="-1" Cut="0.0000000000000000e+00" cType="1" res="-4.2829657904803753e-03" rms="3.0635863542556763e-01" purity="1.2112412601709366e-01" nType="-99"/>
                  <Node pos="r" depth="6" NCoef="0" IVar="6" Cut="1.0729704797267914e-01" cType="1" res="-1.6003859927877784e-03" rms="4.1623079776763916e-01" purity="3.2482731342315674e-01" nType="0">
                    <Node pos="l" depth="7" NCoef="0" IVar="-1" Cut="0.0000000000000000e+00" cType="1" res="-8.8627834338694811e-04" rms="4.2096883058547974e-01" purity="3.7967890501022339e-01" nType="-99"/>
                    <Node pos="r" depth="7" NCoef="0" IVar="-1" Cut="0.0000000000000000e+00" cType="1" res="6.4098130678758025e-04" rms="4.1077080368995667e-01" purity="2.6334038376808167e-01" nType="-99"/>
                  </Node>
                </Node>
                <Node pos="r" depth="5" NCoef="0" IVar="3" Cut="5.2297586202621460e-01" cType="1" res="-1.4311058446764946e-02" rms="2.6207152009010315e-01" purity="8.7105050683021545e-02" nType="0">
                  <Node pos="l" depth="6" NCoef="0" IVar="6" Cut="1.4228422939777374e-01" cType="1" res="-8.8043324649333954e-03" rms="2.2307388484477997e-01" purity="5.7413563132286072e-02" nType="0">
                    <Node pos="l" depth="7" NCoef="0" IVar="-1" Cut="0.0000000000000000e+00" cType="1" res="-1.0384100489318371e-02" rms="1.6964831948280334e-01" purity="3.1568977981805801e-02" nType="-99"/>
                    <Node pos="r" depth="7" NCoef="0" IVar="-1" Cut="0.0000000000000000e+00" cType="1" res="-4.0984907536767423e-04" rms="2.6291021704673767e-01" purity="8.1412971019744873e-02" nType="-99"/>
                  </Node>
                  <Node pos="r" depth="6" NCoef="0" IVar="-1" Cut="0.0000000000000000e+00" cType="1" res="-5.4395897313952446e-03" rms="3.7301462888717651e-01" purity="1.9852827489376068e-01" nType="-99"/>
                </Node>
              </Node>
            </Node>
          </Node>
          <Node pos="r" depth="2" NCoef="0" IVar="-1" Cut="0.0000000000000000e+00" cType="1" res="7.4849925003945827e-03" rms="3.7112623453140259e-01" purity="2.3341345787048340e-01" nType="-99"/>
        </Node>
      </Node>
    </BinaryTree>
    <BinaryTree type="DecisionTree" boostWeight="1.0000000000000000e+00" itree="95">
      <Node pos="s" depth="0" NCoef="0" IVar="3" Cut="7.1677774190902710e-01" cType="1" res="1.4039409579709172e-03" rms="3.9927795529365540e-01" purity="4.9882349371910095e-01" nType="0">
        <Node pos="l" depth="1" NCoef="0" IVar="6" Cut="1.0278382152318954e-01" cType="1" res="-4.5507661998271942e-03" rms="3.6326435208320618e-01" purity="2.1140819787979126e-01" nType="0">
          <Node pos="l" depth="2" NCoef="0" IVar="2" Cut="9.7900520324707031e+01" cType="1" res="-9.1526862233877182e-03" rms="3.6586937308311462e-01" purity="2.2188791632652283e-01" nType="0">
            <Node pos="l" depth="3" NCoef="0" IVar="6" Cut="4.3144255876541138e-02" cType="1" res="1.6687739116605371e-04" rms="3.8783717155456543e-01" purity="2.6308017969131470e-01" nType="0">
              <Node pos="l" depth="4" NCoef="0" IVar="2" Cut="2.8458147048950195e+01" cType="1" res="-1.1365070939064026e-02" rms="3.7746378779411316e-01" purity="2.3139204084873199e-01" nType="0">
                <Node pos="l" depth="5" NCoef="0" IVar="-1" Cut="0.0000000000000000e+00" cType="1" res="2.2248663008213043e-03" rms="4.0495845675468445e-01" purity="2.8448149561882019e-01" nType="-99"/>
                <Node pos="r" depth="5" NCoef="0" IVar="7" Cut="4.0000000000000000e+00" cType="1" res="-2.1851697936654091e-02" rms="3.6323335766792297e-01" purity="2.1186484396457672e-01" nType="0">
                  <Node pos="l" depth="6" NCoef="0" IVar="-1" Cut="0.0000000000000000e+00" cType="1" res="-5.0329873338341713e-03" rms="4.1319099068641663e-01" purity="2.6442813873291016e-01" nType="-99"/>
                  <Node pos="r" depth="6" NCoef="0" IVar="-1" Cut="0.0000000000000000e+00" cType="1" res="-1.7089671455323696e-03" rms="3.2545903325080872e-01" purity="1.7175745964050293e-01" nType="-99"/>
                </Node>
              </Node>
              <Node pos="r" depth="4" NCoef="0" IVar="3" Cut="3.8262113928794861e-01" cType="1" res="1.1360701173543930e-02" rms="3.9732766151428223e-01" purity="2.9383921623229980e-01" nType="0">
                <Node pos="l" depth="5" NCoef="0" IVar="-1" Cut="0.0000000000000000e+00" cType="1" res="-5.8543379418551922e-03" rms="2.0559284090995789e-01" purity="4.6009115874767303e-02" nType="-99"/>
                <Node pos="r" depth="5" NCoef="0" IVar="5" Cut="-1.9140838384628296e+00" cType="1" res="1.8043722957372665e-02" rms="4.4044110178947449e-01" purity="3.7167349457740784e-01" nType="0">
                  <Node pos="l" depth="6" NCoef="0" IVar="-1" Cut="0.0000000000000000e+00" cType="1" res="2.9927203431725502e-03" rms="4.5903229713439941e-01" purity="4.2528370022773743e-01" nType="-99"/>
                  <Node pos="r" depth="6" NCoef="0" IVar="-1" Cut="0.0000000000000000e+00" cType="1" res="2.9380447813309729e-04" rms="4.1324308514595032e-01" purity="2.9861322045326233e-01" nType="-99"/>
                </Node>
              </Node>
            </Node>
            <Node pos="r" depth="3" NCoef="0" IVar="7" Cut="3.0000000000000000e+00" cType="1" res="-1.4799774624407291e-02" rms="3.5104486346244812e-01" purity="1.9705519080162048e-01" nType="0">
              <Node pos="l" depth="4" NCoef="0" IVar="-1" Cut="0.0000000000000000e+00" cType="1" res="-5.1961699500679970e-03" rms="3.9681914448738098e-01" purity="2.4518403410911560e-01" nType="-99"/>
              <Node pos="r" depth="4" NCoef="0" IVar="6" Cut="8.0491587519645691e-02" cType="1" res="-1.1384421959519386e-02" rms="3.4469848871231079e-01" purity="1.9006907939910889e-01" nType="0">
                <Node pos="l" depth="5" NCoef="0" IVar="0" Cut="3.2245418429374695e-01" cType="1" res="-1.5399374999105930e-02" rms="3.4012386202812195e-01" purity="1.8152819573879242e-01" nType="0">
                  <Node pos="l" depth="6" NCoef="0" IVar="-1" Cut="0.0000000000000000e+00" cType="1" res="-3.2302290201187134e-03" rms="4.7809553146362305e-01" purity="4.4703218340873718e-01" nType="-99"/>
                  <Node pos="r" depth="6" NCoef="0" IVar="3" Cut="6.0313910245895386e-01" cType="1" res="-1.2577527202665806e-02" rms="3.1305983662605286e-01" purity="1.4009128510951996e-01" nType="0">
                    <Node pos="l" depth="7" NCoef="0" IVar="-1" Cut="0.0000000000000000e+00" cType="1" res="-5.3052534349262714e-03" rms="2.6672604680061340e-01" purity="8.7796002626419067e-02" nType="-99"/>
                    <Node pos="r" depth="7" NCoef="0" IVar="-1" Cut="0.0000000000000000e+00" cType="1" res="9.2697836225852370e-04" rms="4.6247026324272156e-01" purity="3.6672651767730713e-01" nType="-99"/>
                  </Node>
                </Node>
                <Node pos="r" depth="5" NCoef="0" IVar="2" Cut="3.6051901245117188e+02" cType="1" res="-4.6116556040942669e-03" rms="3.5217702388763428e-01" purity="2.0447660982608795e-01" nType="0">
                  <Node pos="l" depth="6" NCoef="0" IVar="0" Cut="1.2875630855560303e+00" cType="1" res="4.2026099981740117e-04" rms="3.5875457525253296e-01" purity="2.1691642701625824e-01" nType="0">
                    <Node pos="l" depth="7" NCoef="0" IVar="-1" Cut="0.0000000000000000e+00" cType="1" res="1.2056409614160657e-03" rms="4.3301412463188171e-01" purity="3.3853060007095337e-01" nType="-99"/>
                    <Node pos="r" depth="7" NCoef="0" IVar="-1" Cut="0.0000000000000000e+00" cType="1" res="-6.3960510306060314e-03" rms="2.2021992504596710e-01" purity="5.1600933074951172e-02" nType="-99"/>
                  </Node>
                  <Node pos="r" depth="6" NCoef="0" IVar="-1" Cut="0.0000000000000000e+00" cType="1" res="-4.1351569816470146e-03" rms="3.2965633273124695e-01" purity="1.6453799605369568e-01" nType="-99"/>
                </Node>
              </Node>
            </Node>
          </Node>
          <Node pos="r" depth="2" NCoef="0" IVar="3" Cut="6.0347682237625122e-01" cType="1" res="1.3153104810044169e-03" rms="3.5983106493949890e-01" purity="1.9804967939853668e-01" nType="0">
            <Node pos="l" depth="3" NCoef="0" IVar="6" Cut="2.7371653914451599e-01" cType="1" res="-2.0607765763998032e-03" rms="3.4345275163650513e-01" purity="1.6357158124446869e-01" nType="0">
              <Node pos="l" depth="4" NCoef="0" IVar="4" Cut="2.4520545005798340e+00" cType="1" res="-4.1066273115575314e-03" rms="3.3887007832527161e-01" purity="1.6039675474166870e-01" nType="0">
                <Node pos="l" depth="5" NCoef="0" IVar="6" Cut="1.4689101278781891e-01" cType="1" res="-1.5542967012152076e-03" rms="3.6376851797103882e-01" purity="1.8628127872943878e-01" nType="0">
                  <Node pos="l" depth="6" NCoef="0" IVar="4" Cut="-8.0626744031906128e-01" cType="1" res="-8.8734375312924385e-03" rms="3.5140827298164368e-01" purity="1.7413438856601715e-01" nType="0">
                    <Node pos="l" depth="7" NCoef="0" IVar="-1" Cut="0.0000000000000000e+00" cType="1" res="-3.4605422988533974e-03" rms="3.6523011326789856e-01" purity="1.9173865020275116e-01" nType="-99"/>
                    <Node pos="r" depth="7" NCoef="0" IVar="-1" Cut="0.0000000000000000e+00" cType="1" res="-9.6021272474899888e-04" rms="3.4611642360687256e-01" purity="1.6768679022789001e-01" nType="-99"/>
                  </Node>
                  <Node pos="r" depth="6" NCoef="0" IVar="7" Cut="7.0000000000000000e+00" cType="1" res="5.6967516429722309e-03" rms="3.7357002496719360e-01" purity="1.9811367988586426e-01" nType="0">
                    <Node pos="l" depth="7" NCoef="0" IVar="-1" Cut="0.0000000000000000e+00" cType="1" res="1.8132819095626473e-03" rms="3.9623910188674927e-01" purity="2.2664503753185272e-01" nType="-99"/>
                    <Node pos="r" depth="7" NCoef="0" IVar="-1" Cut="0.0000000000000000e+00" cType="1" res="-3.7889359518885612e-03" rms="2.9432711005210876e-01" purity="1.0329728573560715e-01" nType="-99"/>
                  </Node>
                </Node>
                <Node pos="r" depth="5" NCoef="0" IVar="5" Cut="2.4989607334136963e+00" cType="1" res="-1.7812211066484451e-02" rms="1.4376045763492584e-01" purity="2.1401293575763702e-02" nType="0">
                  <Node pos="l" depth="6" NCoef="0" IVar="-1" Cut="0.0000000000000000e+00" cType="1" res="-8.6058350279927254e-03" rms="1.7375130951404572e-01" purity="3.1633425503969193e-02" nType="-99"/>
                  <Node pos="r" depth="6" NCoef="0" IVar="-1" Cut="0.0000000000000000e+00" cType="1" res="-2.0267678424715996e-02" rms="1.0439369827508926e-01" purity="1.0960169136524200e-02" nType="-99"/>
                </Node>
              </Node>
              <Node pos="r" depth="4" NCoef="0" IVar="-1" Cut="0.0000000000000000e+00" cType="1" res="4.8703583888709545e-03" rms="4.0152111649513245e-01" purity="2.0840179920196533e-01" nType="-99"/>
            </Node>
            <Node pos="r" depth="3" NCoef="0" IVar="-1" Cut="0.0000000000000000e+00" cType="1" res="2.7438348624855280e-03" rms="4.7369641065597534e-01" purity="4.8478257656097412e-01" nType="-99"/>
          </Node>
        </Node>
        <Node pos="r" depth="1" NCoef="0" IVar="3" Cut="1.0470911264419556e+00" cType="1" res="5.9101493097841740e-03" rms="4.2444959282875061e-01" purity="7.1632421016693115e-01" nType="0">
          <Node pos="l" depth="2" NCoef="0" IVar="5" Cut="-1.2502042949199677e-01" cType="1" res="6.9644935429096222e-03" rms="4.2489334940910339e-01" purity="7.1720558404922485e-01" nType="0">
            <Node pos="l" depth="3" NCoef="0" IVar="5" Cut="-2.0524456501007080e+00" cType="1" res="7.7921533957123756e-03" rms="4.2432135343551636e-01" purity="7.2546875476837158e-01" nType="0">
              <Node pos="l" depth="4" NCoef="0" IVar="7" Cut="3.0000000000000000e+00" cType="1" res="1.0151796042919159e-02" rms="4.0328201651573181e-01" purity="7.6316839456558228e-01" nType="0">
                <Node pos="l" depth="5" NCoef="0" IVar="3" Cut="1.0044587850570679e+00" cType="1" res="8.8499747216701508e-03" rms="4.0369692444801331e-01" purity="7.6987284421920776e-01" nType="0">
                  <Node pos="l" depth="6" NCoef="0" IVar="4" Cut="-2.7108542919158936e+00" cType="1" res="6.7872405052185059e-03" rms="4.0984448790550232e-01" purity="7.5922775268554688e-01" nType="0">
                    <Node pos="l" depth="7" NCoef="0" IVar="-1" Cut="0.0000000000000000e+00" cType="1" res="2.3460830561816692e-03" rms="4.0929511189460754e-01" purity="7.7320611476898193e-01" nType="-99"/>
                    <Node pos="r" depth="7" NCoef="0" IVar="-1" Cut="0.0000000000000000e+00" cType="1" res="5.9346447233110666e-04" rms="4.0987595915794373e-01" purity="7.5770151615142822e-01" nType="-99"/>
                  </Node>
                  <Node pos="r" depth="6" NCoef="0" IVar="3" Cut="1.0085835456848145e+00" cType="1" res="2.0126726478338242e-02" rms="3.6807498335838318e-01" purity="8.2806867361068726e-01" nType="0">
                    <Node pos="l" depth="7" NCoef="0" IVar="-1" Cut="0.0000000000000000e+00" cType="1" res="1.7792696598917246e-03" rms="3.6961427330970764e-01" purity="8.2407665252685547e-01" nType="-99"/>
                    <Node pos="r" depth="7" NCoef="0" IVar="-1" Cut="0.0000000000000000e+00" cType="1" res="2.7377749793231487e-03" rms="3.6752837896347046e-01" purity="8.2942360639572144e-01" nType="-99"/>
                  </Node>
                </Node>
                <Node pos="r" depth="5" NCoef="0" IVar="2" Cut="9.6837593078613281e+01" cType="1" res="2.7597052976489067e-02" rms="4.5581561326980591e-01" purity="6.7810297012329102e-01" nType="0">
                  <Node pos="l" depth="6" NCoef="0" IVar="-1" Cut="0.0000000000000000e+00" cType="1" res="4.2714681476354599e-03" rms="4.4626396894454956e-01" purity="7.0297199487686157e-01" nType="-99"/>
                  <Node pos="r" depth="6" NCoef="0" IVar="-1" Cut="0.0000000000000000e+00" cType="1" res="1.1949016479775310e-03" rms="4.6428871154785156e-01" purity="6.5413337945938110e-01" nType="-99"/>
                </Node>
              </Node>
              <Node pos="r" depth="4" NCoef="0" IVar="6" Cut="3.8427844643592834e-02" cType="1" res="1.9338029669597745e-03" rms="4.6179923415184021e-01" purity="6.3448518514633179e-01" nType="0">
                <Node pos="l" depth="5" NCoef="0" IVar="3" Cut="8.6593610048294067e-01" cType="1" res="-3.3415239304304123e-03" rms="4.5509219169616699e-01" purity="6.5354639291763306e-01" nType="0">
                  <Node pos="l" depth="6" NCoef="0" IVar="-1" Cut="0.0000000000000000e+00" cType="1" res="-2.6948757003992796e-03" rms="4.8003098368644714e-01" purity="5.3065174818038940e-01" nType="-99"/>
                  <Node pos="r" depth="6" NCoef="0" IVar="4" Cut="5.8180101215839386e-02" cType="1" res="2.5014707352966070e-03" rms="4.4906547665596008e-01" purity="6.8128460645675659e-01" nType="0">
                    <Node pos="l" depth="7" NCoef="0" IVar="-1" Cut="0.0000000000000000e+00" cType="1" res="-5.4292049026116729e-04" rms="4.5281597971916199e-01" purity="6.7382544279098511e-01" nType="-99"/>
                    <Node pos="r" depth="7" NCoef="0" IVar="-1" Cut="0.0000000000000000e+00" cType="1" res="2.2803465835750103e-03" rms="4.3920478224754333e-01" purity="6.9942378997802734e-01" nType="-99"/>
                  </Node>
                </Node>
                <Node pos="r" depth="5" NCoef="0" IVar="5" Cut="-1.2444413900375366e+00" cType="1" res="1.2362961657345295e-02" rms="4.7460758686065674e-01" purity="5.9680187702178955e-01" nType="0">
                  <Node pos="l" depth="6" NCoef="0" IVar="2" Cut="1.8198587036132812e+02" cType="1" res="3.3617056906223297e-03" rms="4.6952515840530396e-01" purity="6.2614965438842773e-01" nType="0">
                    <Node pos="l" depth="7" NCoef="0" IVar="-1" Cut="0.0000000000000000e+00" cType="1" res="9.4805320259183645e-04" rms="4.6642148494720459e-01" purity="6.4765095710754395e-01" nType="-99"/>
                    <Node pos="r" depth="7" NCoef="0" IVar="-1" Cut="0.0000000000000000e+00" cType="1" res="-9.6999132074415684e-04" rms="4.7483193874359131e-01" purity="5.8700335025787354e-01" nType="-99"/>
                  </Node>
                  <Node pos="r" depth="6" NCoef="0" IVar="-1" Cut="0.0000000000000000e+00" cType="1" res="2.4753010366111994e-03" rms="4.8274683952331543e-01" purity="5.4686677455902100e-01" nType="-99"/>
                </Node>
              </Node>
            </Node>
            <Node pos="r" depth="3" NCoef="0" IVar="-1" Cut="0.0000000000000000e+00" cType="1" res="-2.9429234564304352e-03" rms="4.4711592793464661e-01" purity="3.6601987481117249e-01" nType="-99"/>
          </Node>
          <Node pos="r" depth="2" NCoef="0" IVar="-1" Cut="0.0000000000000000e+00" cType="1" res="-3.9308476261794567e-03" rms="4.0543827414512634e-01" purity="6.8319898843765259e-01" nType="-99"/>
        </Node>
      </Node>
    </BinaryTree>
    <BinaryTree type="DecisionTree" boostWeight="1.0000000000000000e+00" itree="96">
      <Node pos="s" depth="0" NCoef="0" IVar="2" Cut="2.0775650024414062e+02" cType="1" res="2.6330717373639345e-03" rms="3.9987927675247192e-01" purity="4.9884828925132751e-01" nType="0">
        <Node pos="l" depth="1" NCoef="0" IVar="5" Cut="1.2141143083572388e+00" cType="1" res="5.7499562390148640e-03" rms="4.0994337201118469e-01" purity="5.8692824840545654e-01" nType="0">
          <Node pos="l" depth="2" NCoef="0" IVar="6" Cut="4.1757058352231979e-02" cType="1" res="6.4934990368783474e-03" rms="4.1411542892456055e-01" purity="6.0062122344970703e-01" nType="0">
            <Node pos="l" depth="3" NCoef="0" IVar="3" Cut="8.1626594066619873e-01" cType="1" res="3.8517422508448362e-03" rms="4.1159945726394653e-01" purity="6.8567287921905518e-01" nType="0">
              <Node pos="l" depth="4" NCoef="0" IVar="4" Cut="-1.8510452508926392e+00" cType="1" res="-1.0851874016225338e-02" rms="4.1851603984832764e-01" purity="3.6159494519233704e-01" nType="0">
                <Node pos="l" depth="5" NCoef="0" IVar="4" Cut="-2.3181681632995605e+00" cType="1" res="6.1587500385940075e-03" rms="4.5391371846199036e-01" purity="5.0762450695037842e-01" nType="0">
                  <Node pos="l" depth="6" NCoef="0" IVar="-1" Cut="0.0000000000000000e+00" cType="1" res="1.9605692941695452e-03" rms="4.5521837472915649e-01" purity="5.5288708209991455e-01" nType="-99"/>
                  <Node pos="r" depth="6" NCoef="0" IVar="-1" Cut="0.0000000000000000e+00" cType="1" res="-1.3943570666015148e-03" rms="4.5134875178337097e-01" purity="4.4304892420768738e-01" nType="-99"/>
                </Node>
                <Node pos="r" depth="5" NCoef="0" IVar="2" Cut="2.7182914733886719e+01" cType="1" res="-1.8995583057403564e-02" rms="4.0020781755447388e-01" purity="2.9168435931205750e-01" nType="0">
                  <Node pos="l" depth="6" NCoef="0" IVar="-1" Cut="0.0000000000000000e+00" cType="1" res="3.3964894828386605e-04" rms="4.2093747854232788e-01" purity="3.5316962003707886e-01" nType="-99"/>
                  <Node pos="r" depth="6" NCoef="0" IVar="0" Cut="9.6736598014831543e-01" cType="1" res="-2.4194959551095963e-02" rms="3.9492657780647278e-01" purity="2.7702322602272034e-01" nType="0">
                    <Node pos="l" depth="7" NCoef="0" IVar="-1" Cut="0.0000000000000000e+00" cType="1" res="-3.6777979694306850e-03" rms="4.4956749677658081e-01" purity="3.8308304548263550e-01" nType="-99"/>
                    <Node pos="r" depth="7" NCoef="0" IVar="-1" Cut="0.0000000000000000e+00" cType="1" res="-2.3686299100518227e-03" rms="2.7528107166290283e-01" purity="9.3722335994243622e-02" nType="-99"/>
                  </Node>
                </Node>
              </Node>
              <Node pos="r" depth="4" NCoef="0" IVar="5" Cut="-2.8142690658569336e+00" cType="1" res="7.1174399927258492e-03" rms="4.0997588634490967e-01" purity="7.5765109062194824e-01" nType="0">
                <Node pos="l" depth="5" NCoef="0" IVar="4" Cut="-2.6242847442626953e+00" cType="1" res="1.3372995890676975e-02" rms="3.7938067317008972e-01" purity="8.1171870231628418e-01" nType="0">
                  <Node pos="l" depth="6" NCoef="0" IVar="-1" Cut="0.0000000000000000e+00" cType="1" res="3.5032494924962521e-03" rms="3.9057981967926025e-01" purity="8.0234450101852417e-01" nType="-99"/>
                  <Node pos="r" depth="6" NCoef="0" IVar="4" Cut="-1.8709188699722290e+00" cType="1" res="1.1686235666275024e-02" rms="3.7809684872627258e-01" purity="8.1274455785751343e-01" nType="0">
                    <Node pos="l" depth="7" NCoef="0" IVar="-1" Cut="0.0000000000000000e+00" cType="1" res="-5.2565307123586535e-04" rms="4.2734915018081665e-01" purity="7.3664152622222900e-01" nType="-99"/>
                    <Node pos="r" depth="7" NCoef="0" IVar="-1" Cut="0.0000000000000000e+00" cType="1" res="1.8307809950783849e-03" rms="3.7044638395309448e-01" purity="8.2364320755004883e-01" nType="-99"/>
                  </Node>
                </Node>
                <Node pos="r" depth="5" NCoef="0" IVar="3" Cut="9.2504942417144775e-01" cType="1" res="3.0765638221055269e-03" rms="4.2853128910064697e-01" purity="7.2272527217864990e-01" nType="0">
                  <Node pos="l" depth="6" NCoef="0" IVar="6" Cut="1.4994687400758266e-02" cType="1" res="-5.4123559966683388e-03" rms="4.5103958249092102e-01" purity="6.7007130384445190e-01" nType="0">
                    <Node pos="l" depth="7" NCoef="0" IVar="-1" Cut="0.0000000000000000e+00" cType="1" res="-3.1264305580407381e-03" rms="4.6124693751335144e-01" purity="6.3926118612289429e-01" nType="-99"/>
                    <Node pos="r" depth="7" NCoef="0" IVar="-1" Cut="0.0000000000000000e+00" cType="1" res="2.4082501113298349e-05" rms="4.4847327470779419e-01" purity="6.7714482545852661e-01" nType="-99"/>
                  </Node>
                  <Node pos="r" depth="6" NCoef="0" IVar="3" Cut="1.0345362424850464e+00" cType="1" res="6.1082607135176659e-03" rms="4.2015910148620605e-01" purity="7.4152988195419312e-01" nType="0">
                    <Node pos="l" depth="7" NCoef="0" IVar="-1" Cut="0.0000000000000000e+00" cType="1" res="8.1467477139085531e-04" rms="4.1926747560501099e-01" purity="7.4341464042663574e-01" nType="-99"/>
                    <Node pos="r" depth="7" NCoef="0" IVar="-1" Cut="0.0000000000000000e+00" cType="1" res="-1.4580591814592481e-03" rms="4.3184089660644531e-01" purity="7.1539628505706787e-01" nType="-99"/>
                  </Node>
                </Node>
              </Node>
            </Node>
            <Node pos="r" depth="3" NCoef="0" IVar="3" Cut="5.1898390054702759e-01" cType="1" res="1.2260463088750839e-02" rms="4.1949757933616638e-01" purity="4.1495314240455627e-01" nType="0">
              <Node pos="l" depth="4" NCoef="0" IVar="6" Cut="1.1449531465768814e-01" cType="1" res="3.2111713662743568e-03" rms="3.1536290049552917e-01" purity="1.2686628103256226e-01" nType="0">
                <Node pos="l" depth="5" NCoef="0" IVar="5" Cut="-2.8137316703796387e+00" cType="1" res="-2.4998330045491457e-03" rms="2.8901001811027527e-01" purity="1.0072159767150879e-01" nType="0">
                  <Node pos="l" depth="6" NCoef="0" IVar="-1" Cut="0.0000000000000000e+00" cType="1" res="-5.4166400805115700e-03" rms="2.7296647429466248e-01" purity="8.5682302713394165e-02" nType="-99"/>
                  <Node pos="r" depth="6" NCoef="0" IVar="4" Cut="-1.1394310742616653e-01" cType="1" res="2.9487162828445435e-03" rms="2.9484117031097412e-01" purity="1.0657718777656555e-01" nType="0">
                    <Node pos="l" depth="7" NCoef="0" IVar="-1" Cut="0.0000000000000000e+00" cType="1" res="4.4904598034918308e-03" rms="3.3966913819313049e-01" purity="1.4561133086681366e-01" nType="-99"/>
                    <Node pos="r" depth="7" NCoef="0" IVar="-1" Cut="0.0000000000000000e+00" cType="1" res="-1.0848280508071184e-03" rms="2.7357614040374756e-01" purity="9.0165913105010986e-02" nType="-99"/>
                  </Node>
                </Node>
                <Node pos="r" depth="5" NCoef="0" IVar="3" Cut="3.6072257161140442e-01" cType="1" res="1.8039058893918991e-02" rms="3.7483534216880798e-01" purity="1.9474756717681885e-01" nType="0">
                  <Node pos="l" depth="6" NCoef="0" IVar="-1" Cut="0.0000000000000000e+00" cType="1" res="1.2102631153538823e-03" rms="2.9988750815391541e-01" purity="1.0603179037570953e-01" nType="-99"/>
                  <Node pos="r" depth="6" NCoef="0" IVar="-1" Cut="0.0000000000000000e+00" cType="1" res="4.3131806887686253e-03" rms="4.3591150641441345e-01" purity="2.8232586383819580e-01" nType="-99"/>
                </Node>
              </Node>
              <Node pos="r" depth="4" NCoef="0" IVar="7" Cut="4.0000000000000000e+00" cType="1" res="1.6840996220707893e-02" rms="4.5987665653228760e-01" purity="5.5490076541900635e-01" nType="0">
                <Node pos="l" depth="5" NCoef="0" IVar="3" Cut="7.5210386514663696e-01" cType="1" res="1.2878736481070518e-02" rms="4.6006277203559875e-01" purity="5.7180315256118774e-01" nType="0">
                  <Node pos="l" depth="6" NCoef="0" IVar="5" Cut="-1.8092268705368042e+00" cType="1" res="6.8579316139221191e-03" rms="4.6995124220848083e-01" purity="4.6100041270256042e-01" nType="0">
                    <Node pos="l" depth="7" NCoef="0" IVar="-1" Cut="0.0000000000000000e+00" cType="1" res="1.5131110558286309e-03" rms="4.7692567110061646e-01" purity="5.0681006908416748e-01" nType="-99"/>
                    <Node pos="r" depth="7" NCoef="0" IVar="-1" Cut="0.0000000000000000e+00" cType="1" res="-1.0594781488180161e-03" rms="4.5720219612121582e-01" purity="3.8222402334213257e-01" nType="-99"/>
                  </Node>
                  <Node pos="r" depth="6" NCoef="0" IVar="2" Cut="1.6564959716796875e+02" cType="1" res="1.8418077379465103e-02" rms="4.5070242881774902e-01" purity="6.7374533414840698e-01" nType="0">
                    <Node pos="l" depth="7" NCoef="0" IVar="-1" Cut="0.0000000000000000e+00" cType="1" res="2.0221003796905279e-03" rms="4.4850662350654602e-01" purity="6.8040484189987183e-01" nType="-99"/>
                    <Node pos="r" depth="7" NCoef="0" IVar="-1" Cut="0.0000000000000000e+00" cType="1" res="3.6408612504601479e-04" rms="4.5938667654991150e-01" purity="6.4619112014770508e-01" nType="-99"/>
                  </Node>
                </Node>
                <Node pos="r" depth="5" NCoef="0" IVar="2" Cut="1.0764536285400391e+02" cType="1" res="3.7851791828870773e-02" rms="4.6970069408416748e-01" purity="4.6006804704666138e-01" nType="0">
                  <Node pos="l" depth="6" NCoef="0" IVar="-1" Cut="0.0000000000000000e+00" cType="1" res="4.9439412541687489e-03" rms="4.7320896387100220e-01" purity="4.9113872647285461e-01" nType="-99"/>
                  <Node pos="r" depth="6" NCoef="0" IVar="-1" Cut="0.0000000000000000e+00" cType="1" res="2.8299475088715553e-03" rms="4.6666267514228821e-01" purity="4.3584218621253967e-01" nType="-99"/>
                </Node>
              </Node>
            </Node>
          </Node>
          <Node pos="r" depth="2" NCoef="0" IVar="-1" Cut="0.0000000000000000e+00" cType="1" res="-1.4679504558444023e-02" rms="1.6656236350536346e-01" purity="3.1806152313947678e-02" nType="-99"/>
        </Node>
        <Node pos="r" depth="1" NCoef="0" IVar="4" Cut="-1.6897747516632080e+00" cType="1" res="-6.6168298944830894e-03" rms="3.6824187636375427e-01" purity="2.3745577037334442e-01" nType="0">
          <Node pos="l" depth="2" NCoef="0" IVar="5" Cut="-2.6052174568176270e+00" cType="1" res="3.6278369370847940e-03" rms="4.3012034893035889e-01" purity="3.9944636821746826e-01" nType="0">
            <Node pos="l" depth="3" NCoef="0" IVar="6" Cut="1.0400073230266571e-01" cType="1" res="-9.6267806366086006e-03" rms="4.0669181942939758e-01" purity="3.2990583777427673e-01" nType="0">
              <Node pos="l" depth="4" NCoef="0" IVar="-1" Cut="0.0000000000000000e+00" cType="1" res="-2.1004967857152224e-03" rms="4.1064819693565369e-01" purity="4.0157875418663025e-01" nType="-99"/>
              <Node pos="r" depth="4" NCoef="0" IVar="-1" Cut="0.0000000000000000e+00" cType="1" res="-3.7749222246930003e-04" rms="4.0214994549751282e-01" purity="2.5058060884475708e-01" nType="-99"/>
            </Node>
            <Node pos="r" depth="3" NCoef="0" IVar="2" Cut="3.8067764282226562e+02" cType="1" res="1.3796953484416008e-02" rms="4.4699746370315552e-01" purity="4.5279875397682190e-01" nType="0">
              <Node pos="l" depth="4" NCoef="0" IVar="-1" Cut="0.0000000000000000e+00" cType="1" res="2.0981326233595610e-03" rms="4.5663699507713318e-01" purity="5.3182363510131836e-01" nType="-99"/>
              <Node pos="r" depth="4" NCoef="0" IVar="-1" Cut="0.0000000000000000e+00" cType="1" res="2.8232767363078892e-04" rms="4.3009808659553528e-01" purity="3.2028409838676453e-01" nType="-99"/>
            </Node>
          </Node>
          <Node pos="r" depth="2" NCoef="0" IVar="1" Cut="1.6120876371860504e-01" cType="1" res="-9.1459508985280991e-03" rms="3.5124626755714417e-01" purity="1.9746483862400055e-01" nType="0">
            <Node pos="l" depth="3" NCoef="0" IVar="2" Cut="3.2141815185546875e+02" cType="1" res="-2.7352184988558292e-03" rms="4.0377888083457947e-01" purity="3.0146333575248718e-01" nType="0">
              <Node pos="l" depth="4" NCoef="0" IVar="2" Cut="2.4808485412597656e+02" cType="1" res="5.0891241990029812e-03" rms="4.2328679561614990e-01" purity="3.6891999840736389e-01" nType="0">
                <Node pos="l" depth="5" NCoef="0" IVar="-1" Cut="0.0000000000000000e+00" cType="1" res="1.9637106452137232e-03" rms="4.2641222476959229e-01" purity="4.0311181545257568e-01" nType="-99"/>
                <Node pos="r" depth="5" NCoef="0" IVar="-1" Cut="0.0000000000000000e+00" cType="1" res="-4.1084026452153921e-04" rms="4.2073309421539307e-01" purity="3.4317716956138611e-01" nType="-99"/>
              </Node>
              <Node pos="r" depth="4" NCoef="0" IVar="6" Cut="1.4356689155101776e-01" cType="1" res="-8.9914705604314804e-03" rms="3.8736093044281006e-01" purity="2.4752575159072876e-01" nType="0">
                <Node pos="l" depth="5" NCoef="0" IVar="-1" Cut="0.0000000000000000e+00" cType="1" res="-2.3585888557136059e-03" rms="3.9764475822448730e-01" purity="2.8857356309890747e-01" nType="-99"/>
                <Node pos="r" depth="5" NCoef="0" IVar="-1" Cut="0.0000000000000000e+00" cType="1" res="5.5241551308427006e-05" rms="3.7441882491111755e-01" purity="1.9820137321949005e-01" nType="-99"/>
              </Node>
            </Node>
            <Node pos="r" depth="3" NCoef="0" IVar="3" Cut="7.0548856258392334e-01" cType="1" res="-1.1957709677517414e-02" rms="3.2550200819969177e-01" purity="1.5185090899467468e-01" nType="0">
              <Node pos="l" depth="4" NCoef="0" IVar="6" Cut="7.0808239281177521e-02" cType="1" res="-1.0488495230674744e-02" rms="3.0773663520812988e-01" purity="1.2472847104072571e-01" nType="0">
                <Node pos="l" depth="5" NCoef="0" IVar="-1" Cut="0.0000000000000000e+00" cType="1" res="-6.7451284267008305e-03" rms="2.7606114745140076e-01" purity="9.6840329468250275e-02" nType="-99"/>
                <Node pos="r" depth="5" NCoef="0" IVar="3" Cut="1.9077782332897186e-01" cType="1" res="-8.7826577946543694e-03" rms="3.1101691722869873e-01" purity="1.2783326208591461e-01" nType="0">
                  <Node pos="l" depth="6" NCoef="0" IVar="-1" Cut="0.0000000000000000e+00" cType="1" res="-6.3922144472599030e-03" rms="2.6476728916168213e-01" purity="8.1287831068038940e-02" nType="-99"/>
                  <Node pos="r" depth="6" NCoef="0" IVar="4" Cut="2.3652756214141846e+00" cType="1" res="-7.0686880499124527e-03" rms="3.1784740090370178e-01" purity="1.3537795841693878e-01" nType="0">
                    <Node pos="l" depth="7" NCoef="0" IVar="-1" Cut="0.0000000000000000e+00" cType="1" res="-9.7708101384341717e-04" rms="3.4587582945823669e-01" purity="1.6168825328350067e-01" nType="-99"/>
                    <Node pos="r" depth="7" NCoef="0" IVar="-1" Cut="0.0000000000000000e+00" cType="1" res="-1.3544786721467972e-02" rms="1.3858358561992645e-01" purity="1.9839050248265266e-02" nType="-99"/>
                  </Node>
                </Node>
              </Node>
              <Node pos="r" depth="4" NCoef="0" IVar="-1" Cut="0.0000000000000000e+00" cType="1" res="-2.7394017670303583e-03" rms="4.6636170148849487e-01" purity="4.2133700847625732e-01" nType="-99"/>
            </Node>
          </Node>
        </Node>
      </Node>
    </BinaryTree>
    <BinaryTree type="DecisionTree" boostWeight="1.0000000000000000e+00" itree="97">
      <Node pos="s" depth="0" NCoef="0" IVar="3" Cut="7.7573716640472412e-01" cType="1" res="1.9836407154798508e-03" rms="3.9964583516120911e-01" purity="4.9894490838050842e-01" nType="0">
        <Node pos="l" depth="1" NCoef="0" IVar="6" Cut="1.2787631154060364e-01" cType="1" res="-3.1308236066251993e-03" rms="3.7933820486068726e-01" purity="2.5317263603210449e-01" nType="0">
          <Node pos="l" depth="2" NCoef="0" IVar="3" Cut="6.0321837663650513e-01" cType="1" res="-6.1490908265113831e-03" rms="3.8615429401397705e-01" purity="2.7595278620719910e-01" nType="0">
            <Node pos="l" depth="3" NCoef="0" IVar="2" Cut="4.8201427459716797e+01" cType="1" res="-1.0146475397050381e-02" rms="3.0830207467079163e-01" purity="1.2678225338459015e-01" nType="0">
              <Node pos="l" depth="4" NCoef="0" IVar="-1" Cut="0.0000000000000000e+00" cType="1" res="5.7568470947444439e-04" rms="3.4332740306854248e-01" purity="1.6615577042102814e-01" nType="-99"/>
              <Node pos="r" depth="4" NCoef="0" IVar="0" Cut="9.6736472845077515e-01" cType="1" res="-1.1494458653032780e-02" rms="3.0440339446067810e-01" purity="1.2269467860460281e-01" nType="0">
                <Node pos="l" depth="5" NCoef="0" IVar="7" Cut="5.0000000000000000e+00" cType="1" res="-4.7793244011700153e-03" rms="1.6026595234870911e-01" purity="2.3442879319190979e-01" nType="0">
                  <Node pos="l" depth="6" NCoef="0" IVar="0" Cut="6.2409341335296631e-01" cType="1" res="-2.4119712412357330e-02" rms="4.0528109669685364e-01" purity="2.3643581569194794e-01" nType="0">
                    <Node pos="l" depth="7" NCoef="0" IVar="-1" Cut="0.0000000000000000e+00" cType="1" res="-3.9611072279512882e-03" rms="4.3506518006324768e-01" purity="2.9567104578018188e-01" nType="-99"/>
                    <Node pos="r" depth="7" NCoef="0" IVar="-1" Cut="0.0000000000000000e+00" cType="1" res="-2.7413156349211931e-03" rms="3.8727757334709167e-01" purity="2.0290714502334595e-01" nType="-99"/>
                  </Node>
                  <Node pos="r" depth="6" NCoef="0" IVar="-1" Cut="0.0000000000000000e+00" cType="1" res="-1.1730827391147614e-03" rms="3.9587584137916565e-01" purity="2.2985793650150299e-01" nType="-99"/>
                </Node>
                <Node pos="r" depth="5" NCoef="0" IVar="2" Cut="2.9236123657226562e+02" cType="1" res="-7.6553975231945515e-03" rms="2.4070675671100616e-01" purity="6.6822044551372528e-02" nType="0">
                  <Node pos="l" depth="6" NCoef="0" IVar="6" Cut="7.4368640780448914e-02" cType="1" res="-5.3380238823592663e-03" rms="2.4607954919338226e-01" purity="7.0337951183319092e-02" nType="0">
                    <Node pos="l" depth="7" NCoef="0" IVar="-1" Cut="0.0000000000000000e+00" cType="1" res="-4.6683740802109241e-03" rms="2.2498169541358948e-01" purity="5.6634001433849335e-02" nType="-99"/>
                    <Node pos="r" depth="7" NCoef="0" IVar="-1" Cut="0.0000000000000000e+00" cType="1" res="2.0315784786362201e-04" rms="2.6956403255462646e-01" purity="8.7122522294521332e-02" nType="-99"/>
                  </Node>
                  <Node pos="r" depth="6" NCoef="0" IVar="5" Cut="-1.2460906505584717e+00" cType="1" res="-1.4546703547239304e-02" rms="2.2382740676403046e-01" purity="5.6366559118032455e-02" nType="0">
                    <Node pos="l" depth="7" NCoef="0" IVar="-1" Cut="0.0000000000000000e+00" cType="1" res="-6.2651801854372025e-03" rms="2.5085866451263428e-01" purity="7.1994371712207794e-02" nType="-99"/>
                    <Node pos="r" depth="7" NCoef="0" IVar="-1" Cut="0.0000000000000000e+00" cType="1" res="-5.9892381541430950e-03" rms="1.7809458076953888e-01" purity="3.4044176340103149e-02" nType="-99"/>
                  </Node>
                </Node>
              </Node>
            </Node>
            <Node pos="r" depth="3" NCoef="0" IVar="7" Cut="3.0000000000000000e+00" cType="1" res="-4.6036363346502185e-04" rms="4.6996802091598511e-01" purity="4.8207321763038635e-01" nType="0">
              <Node pos="l" depth="4" NCoef="0" IVar="3" Cut="6.8669384717941284e-01" cType="1" res="-1.2944579124450684e-02" rms="4.6865516901016235e-01" purity="4.5054492354393005e-01" nType="0">
                <Node pos="l" depth="5" NCoef="0" IVar="-1" Cut="0.0000000000000000e+00" cType="1" res="-3.7805011961609125e-03" rms="4.4773221015930176e-01" purity="3.3334621787071228e-01" nType="-99"/>
                <Node pos="r" depth="5" NCoef="0" IVar="6" Cut="4.5416086912155151e-02" cType="1" res="-3.8144984282553196e-03" rms="4.7645050287246704e-01" purity="4.9736350774765015e-01" nType="0">
                  <Node pos="l" depth="6" NCoef="0" IVar="-1" Cut="0.0000000000000000e+00" cType="1" res="-2.4725238326936960e-03" rms="4.7310772538185120e-01" purity="4.4991177320480347e-01" nType="-99"/>
                  <Node pos="r" depth="6" NCoef="0" IVar="2" Cut="1.5548266601562500e+02" cType="1" res="4.6956026926636696e-03" rms="4.7741389274597168e-01" purity="5.1508283615112305e-01" nType="0">
                    <Node pos="l" depth="7" NCoef="0" IVar="-1" Cut="0.0000000000000000e+00" cType="1" res="1.0914177400991321e-03" rms="4.7641739249229431e-01" purity="5.4894989728927612e-01" nType="-99"/>
                    <Node pos="r" depth="7" NCoef="0" IVar="-1" Cut="0.0000000000000000e+00" cType="1" res="-2.4270803260151297e-04" rms="4.7818002104759216e-01" purity="4.8497936129570007e-01" nType="-99"/>
                  </Node>
                </Node>
              </Node>
              <Node pos="r" depth="4" NCoef="0" IVar="0" Cut="6.4409768581390381e-01" cType="1" res="6.2133288010954857e-03" rms="4.7532141208648682e-01" purity="4.9957630038261414e-01" nType="0">
                <Node pos="l" depth="5" NCoef="0" IVar="5" Cut="-2.2389504909515381e+00" cType="1" res="2.3094783537089825e-03" rms="4.7690394520759583e-01" purity="5.2040070295333862e-01" nType="0">
                  <Node pos="l" depth="6" NCoef="0" IVar="2" Cut="7.0053703308105469e+01" cType="1" res="1.6227511689066887e-02" rms="4.7828957438468933e-01" purity="5.7611948251724243e-01" nType="0">
                    <Node pos="l" depth="7" NCoef="0" IVar="-1" Cut="0.0000000000000000e+00" cType="1" res="2.9275608249008656e-03" rms="4.7187027335166931e-01" purity="6.0915428400039673e-01" nType="-99"/>
                    <Node pos="r" depth="7" NCoef="0" IVar="-1" Cut="0.0000000000000000e+00" cType="1" res="8.0479873577132821e-04" rms="4.8095563054084778e-01" purity="5.6123697757720947e-01" nType="-99"/>
                  </Node>
                  <Node pos="r" depth="6" NCoef="0" IVar="6" Cut="4.5545928180217743e-02" cType="1" res="-1.0564342141151428e-02" rms="4.7525590658187866e-01" purity="4.6886229515075684e-01" nType="0">
                    <Node pos="l" depth="7" NCoef="0" IVar="-1" Cut="0.0000000000000000e+00" cType="1" res="-3.3740091603249311e-03" rms="4.7363179922103882e-01" purity="4.3219834566116333e-01" nType="-99"/>
                    <Node pos="r" depth="7" NCoef="0" IVar="-1" Cut="0.0000000000000000e+00" cType="1" res="-1.9478032481856644e-04" rms="4.7555354237556458e-01" purity="4.8212692141532898e-01" nType="-99"/>
                  </Node>
                </Node>
                <Node pos="r" depth="5" NCoef="0" IVar="-1" Cut="0.0000000000000000e+00" cType="1" res="3.4340440761297941e-03" rms="4.6433636546134949e-01" purity="3.6683076620101929e-01" nType="-99"/>
              </Node>
            </Node>
          </Node>
          <Node pos="r" depth="2" NCoef="0" IVar="7" Cut="3.0000000000000000e+00" cType="1" res="5.1539014093577862e-03" rms="3.5828623175621033e-01" purity="1.8848110735416412e-01" nType="0">
            <Node pos="l" depth="3" NCoef="0" IVar="-1" Cut="0.0000000000000000e+00" cType="1" res="5.9593054465949535e-03" rms="4.4491389393806458e-01" purity="3.2996025681495667e-01" nType="-99"/>
            <Node pos="r" depth="3" NCoef="0" IVar="3" Cut="5.0419288873672485e-01" cType="1" res="1.7272664699703455e-03" rms="3.5027593374252319e-01" purity="1.7592994868755341e-01" nType="0">
              <Node pos="l" depth="4" NCoef="0" IVar="6" Cut="2.7504846453666687e-01" cType="1" res="-1.9546609837561846e-03" rms="3.2786145806312561e-01" purity="1.3798700273036957e-01" nType="0">
                <Node pos="l" depth="5" NCoef="0" IVar="3" Cut="2.0198841392993927e-01" cType="1" res="-4.5783491805195808e-03" rms="3.1920456886291504e-01" purity="1.3110356032848358e-01" nType="0">
                  <Node pos="l" depth="6" NCoef="0" IVar="-1" Cut="0.0000000000000000e+00" cType="1" res="-1.0168876498937607e-02" rms="2.4019895493984222e-01" purity="6.4946152269840240e-02" nType="-99"/>
                  <Node pos="r" depth="6" NCoef="0" IVar="5" Cut="-1.8926686048507690e+00" cType="1" res="-2.6583168073557317e-04" rms="3.3171510696411133e-01" purity="1.4347018301486969e-01" nType="0">
                    <Node pos="l" depth="7" NCoef="0" IVar="-1" Cut="0.0000000000000000e+00" cType="1" res="1.8522797618061304e-03" rms="3.9659240841865540e-01" purity="2.1861976385116577e-01" nType="-99"/>
                    <Node pos="r" depth="7" NCoef="0" IVar="-1" Cut="0.0000000000000000e+00" cType="1" res="-2.4672686122357845e-03" rms="2.8101500868797302e-01" purity="9.4291992485523224e-02" nType="-99"/>
                  </Node>
                </Node>
                <Node pos="r" depth="5" NCoef="0" IVar="-1" Cut="0.0000000000000000e+00" cType="1" res="3.9045747835189104e-03" rms="3.9482399821281433e-01" purity="1.9817481935024261e-01" nType="-99"/>
              </Node>
              <Node pos="r" depth="4" NCoef="0" IVar="-1" Cut="0.0000000000000000e+00" cType="1" res="2.4976665154099464e-03" rms="4.6203628182411194e-01" purity="4.0397426486015320e-01" nType="-99"/>
            </Node>
          </Node>
        </Node>
        <Node pos="r" depth="1" NCoef="0" IVar="2" Cut="1.8177961730957031e+02" cType="1" res="6.9178347475826740e-03" rms="4.1824507713317871e-01" purity="7.3605436086654663e-01" nType="0">
          <Node pos="l" depth="2" NCoef="0" IVar="6" Cut="4.4078808277845383e-02" cType="1" res="8.5291853174567223e-03" rms="4.1577994823455811e-01" purity="7.4473279714584351e-01" nType="0">
            <Node pos="l" depth="3" NCoef="0" IVar="3" Cut="8.6536800861358643e-01" cType="1" res="6.6659394651651382e-03" rms="4.1278731822967529e-01" purity="7.5028222799301147e-01" nType="0">
              <Node pos="l" depth="4" NCoef="0" IVar="2" Cut="8.2324264526367188e+01" cType="1" res="-1.0295558720827103e-02" rms="4.6276003122329712e-01" purity="6.3439255952835083e-01" nType="0">
                <Node pos="l" depth="5" NCoef="0" IVar="5" Cut="-2.5504844188690186e+00" cType="1" res="-3.7801160942763090e-03" rms="4.5897838473320007e-01" purity="6.4528936147689819e-01" nType="0">
                  <Node pos="l" depth="6" NCoef="0" IVar="-1" Cut="0.0000000000000000e+00" cType="1" res="1.2372265337035060e-03" rms="4.4367483258247375e-01" purity="7.0669019222259521e-01" nType="-99"/>
                  <Node pos="r" depth="6" NCoef="0" IVar="-1" Cut="0.0000000000000000e+00" cType="1" res="-1.6609027516096830e-03" rms="4.7121357917785645e-01" purity="5.9275424480438232e-01" nType="-99"/>
                </Node>
                <Node pos="r" depth="5" NCoef="0" IVar="-1" Cut="0.0000000000000000e+00" cType="1" res="-2.5169209111481905e-03" rms="4.7115293145179749e-01" purity="6.0884863138198853e-01" nType="-99"/>
              </Node>
              <Node pos="r" depth="4" NCoef="0" IVar="3" Cut="1.0002868175506592e+00" cType="1" res="9.1635873541235924e-03" rms="4.0484797954559326e-01" purity="7.6734751462936401e-01" nType="0">
                <Node pos="l" depth="5" NCoef="0" IVar="6" Cut="2.2748552262783051e-02" cType="1" res="5.7180700823664665e-03" rms="4.1175705194473267e-01" purity="7.5520551204681396e-01" nType="0">
                  <Node pos="l" depth="6" NCoef="0" IVar="3" Cut="9.2194783687591553e-01" cType="1" res="3.5769143141806126e-03" rms="4.0969285368919373e-01" purity="7.5861847400665283e-01" nType="0">
                    <Node pos="l" depth="7" NCoef="0" IVar="-1" Cut="0.0000000000000000e+00" cType="1" res="-1.6920638736337423e-03" rms="4.3942898511886597e-01" purity="6.9692194461822510e-01" nType="-99"/>
                    <Node pos="r" depth="7" NCoef="0" IVar="-1" Cut="0.0000000000000000e+00" cType="1" res="6.7833717912435532e-04" rms="4.0576595067977905e-01" purity="7.6632678508758545e-01" nType="-99"/>
                  </Node>
                  <Node pos="r" depth="6" NCoef="0" IVar="2" Cut="8.3532485961914062e+01" cType="1" res="1.7938949167728424e-02" rms="4.2313885688781738e-01" purity="7.3572552204132080e-01" nType="0">
                    <Node pos="l" depth="7" NCoef="0" IVar="-1" Cut="0.0000000000000000e+00" cType="1" res="3.2645438332110643e-03" rms="4.1204079985618591e-01" purity="7.5223863124847412e-01" nType="-99"/>
                    <Node pos="r" depth="7" NCoef="0" IVar="-1" Cut="0.0000000000000000e+00" cType="1" res="9.9368521478027105e-04" rms="4.3271085619926453e-01" purity="7.2079658508300781e-01" nType="-99"/>
                  </Node>
                </Node>
                <Node pos="r" depth="5" NCoef="0" IVar="3" Cut="1.0229182243347168e+00" cType="1" res="1.5174319036304951e-02" rms="3.9243158698081970e-01" purity="7.8852921724319458e-01" nType="0">
                  <Node pos="l" depth="6" NCoef="0" IVar="1" Cut="7.5197011232376099e-01" cType="1" res="1.9029868766665459e-02" rms="3.8919943571090698e-01" purity="7.9428166151046753e-01" nType="0">
                    <Node pos="l" depth="7" NCoef="0" IVar="-1" Cut="0.0000000000000000e+00" cType="1" res="2.0482346881181002e-03" rms="3.7417009472846985e-01" purity="8.2012981176376343e-01" nType="-99"/>
                    <Node pos="r" depth="7" NCoef="0" IVar="-1" Cut="0.0000000000000000e+00" cType="1" res="2.6674102991819382e-03" rms="4.4573456048965454e-01" purity="6.8763285875320435e-01" nType="-99"/>
                  </Node>
                  <Node pos="r" depth="6" NCoef="0" IVar="5" Cut="-2.3601844310760498e+00" cType="1" res="4.5402743853628635e-03" rms="4.0101918578147888e-01" purity="7.7266347408294678e-01" nType="0">
                    <Node pos="l" depth="7" NCoef="0" IVar="-1" Cut="0.0000000000000000e+00" cType="1" res="1.4452626928687096e-03" rms="3.7707337737083435e-01" purity="8.1760489940643311e-01" nType="-99"/>
                    <Node pos="r" depth="7" NCoef="0" IVar="-1" Cut="0.0000000000000000e+00" cType="1" res="-9.4111508224159479e-04" rms="4.4302552938461304e-01" purity="6.8643724918365479e-01" nType="-99"/>
                  </Node>
                </Node>
              </Node>
            </Node>
            <Node pos="r" depth="3" NCoef="0" IVar="4" Cut="-3.0966737866401672e-01" cType="1" res="2.6480445638298988e-02" rms="4.4317796826362610e-01" purity="6.9126749038696289e-01" nType="0">
              <Node pos="l" depth="4" NCoef="0" IVar="3" Cut="8.3846509456634521e-01" cType="1" res="2.9945850372314453e-02" rms="4.3553093075752258e-01" purity="7.2362554073333740e-01" nType="0">
                <Node pos="l" depth="5" NCoef="0" IVar="-1" Cut="0.0000000000000000e+00" cType="1" res="1.8252567388117313e-03" rms="4.5040050148963928e-01" purity="6.9341939687728882e-01" nType="-99"/>
                <Node pos="r" depth="5" NCoef="0" IVar="-1" Cut="0.0000000000000000e+00" cType="1" res="3.9319032803177834e-03" rms="4.1682669520378113e-01" purity="7.5969821214675903e-01" nType="-99"/>
              </Node>
              <Node pos="r" depth="4" NCoef="0" IVar="-1" Cut="0.0000000000000000e+00" cType="1" res="1.7269117524847388e-03" rms="4.5989033579826355e-01" purity="6.1816418170928955e-01" nType="-99"/>
            </Node>
          </Node>
          <Node pos="r" depth="2" NCoef="0" IVar="4" Cut="-1.6009180545806885e+00" cType="1" res="-1.9574882462620735e-02" rms="4.5605623722076416e-01" purity="5.9336847066879272e-01" nType="0">
            <Node pos="l" depth="3" NCoef="0" IVar="-1" Cut="0.0000000000000000e+00" cType="1" res="-2.9912983882240951e-04" rms="4.5226514339447021e-01" purity="6.7621690034866333e-01" nType="-99"/>
            <Node pos="r" depth="3" NCoef="0" IVar="-1" Cut="0.0000000000000000e+00" cType="1" res="-3.8127084262669086e-03" rms="4.5923355221748352e-01" purity="5.0975233316421509e-01" nType="-99"/>
          </Node>
        </Node>
      </Node>
    </BinaryTree>
    <BinaryTree type="DecisionTree" boostWeight="1.0000000000000000e+00" itree="98">
      <Node pos="s" depth="0" NCoef="0" IVar="3" Cut="8.4440094232559204e-01" cType="1" res="2.5075636804103851e-03" rms="3.9926651120185852e-01" purity="5.0012552738189697e-01" nType="0">
        <Node pos="l" depth="1" NCoef="0" IVar="6" Cut="1.3139466755092144e-02" cType="1" res="-1.9351516384631395e-03" rms="3.9308175444602966e-01" purity="3.0890578031539917e-01" nType="0">
          <Node pos="l" depth="2" NCoef="0" IVar="-1" Cut="0.0000000000000000e+00" cType="1" res="-4.1131959296762943e-03" rms="4.2636397480964661e-01" purity="3.9621180295944214e-01" nType="-99"/>
          <Node pos="r" depth="2" NCoef="0" IVar="6" Cut="2.6229232549667358e-01" cType="1" res="-1.1512319324538112e-03" rms="3.9220857620239258e-01" purity="3.0679404735565186e-01" nType="0">
            <Node pos="l" depth="3" NCoef="0" IVar="4" Cut="2.5003685951232910e+00" cType="1" res="-1.8461243016645312e-03" rms="3.9201912283897400e-01" purity="3.0934938788414001e-01" nType="0">
              <Node pos="l" depth="4" NCoef="0" IVar="3" Cut="7.3709332942962646e-01" cType="1" res="-4.5543583109974861e-04" rms="4.0662589669227600e-01" purity="3.3460444211959839e-01" nType="0">
                <Node pos="l" depth="5" NCoef="0" IVar="5" Cut="-3.4267742633819580e+00" cType="1" res="-2.9300753958523273e-03" rms="3.8692653179168701e-01" purity="2.5017321109771729e-01" nType="0">
                  <Node pos="l" depth="6" NCoef="0" IVar="4" Cut="-1.1788867712020874e+00" cType="1" res="-2.6742883026599884e-02" rms="3.0923870205879211e-01" purity="1.3250644505023956e-01" nType="0">
                    <Node pos="l" depth="7" NCoef="0" IVar="-1" Cut="0.0000000000000000e+00" cType="1" res="-9.2573901638388634e-03" rms="3.1183531880378723e-01" purity="1.3587531447410583e-01" nType="-99"/>
                    <Node pos="r" depth="7" NCoef="0" IVar="-1" Cut="0.0000000000000000e+00" cType="1" res="-1.8395631341263652e-03" rms="3.0529239773750305e-01" purity="1.2896910309791565e-01" nType="-99"/>
                  </Node>
                  <Node pos="r" depth="6" NCoef="0" IVar="4" Cut="-2.5929362773895264e+00" cType="1" res="-1.5597260789945722e-03" rms="3.9088356494903564e-01" purity="2.5694450736045837e-01" nType="0">
                    <Node pos="l" depth="7" NCoef="0" IVar="-1" Cut="0.0000000000000000e+00" cType="1" res="4.2806970886886120e-03" rms="4.4744941592216492e-01" purity="4.1117763519287109e-01" nType="-99"/>
                    <Node pos="r" depth="7" NCoef="0" IVar="-1" Cut="0.0000000000000000e+00" cType="1" res="-4.1394343134015799e-04" rms="3.8902014493942261e-01" purity="2.5236782431602478e-01" nType="-99"/>
                  </Node>
                </Node>
                <Node pos="r" depth="5" NCoef="0" IVar="6" Cut="6.9156192243099213e-02" cType="1" res="7.8149670735001564e-03" rms="4.6636950969696045e-01" purity="6.1677902936935425e-01" nType="0">
                  <Node pos="l" depth="6" NCoef="0" IVar="4" Cut="-1.8111476302146912e-01" cType="1" res="5.6083186063915491e-04" rms="4.6753159165382385e-01" purity="6.1227172613143921e-01" nType="0">
                    <Node pos="l" depth="7" NCoef="0" IVar="-1" Cut="0.0000000000000000e+00" cType="1" res="5.0562788965180516e-04" rms="4.6457660198211670e-01" purity="6.4015388488769531e-01" nType="-99"/>
                    <Node pos="r" depth="7" NCoef="0" IVar="-1" Cut="0.0000000000000000e+00" cType="1" res="-1.5614578733220696e-03" rms="4.7723212838172913e-01" purity="5.1572620868682861e-01" nType="-99"/>
                  </Node>
                  <Node pos="r" depth="6" NCoef="0" IVar="2" Cut="1.9906747436523438e+02" cType="1" res="3.4826058894395828e-02" rms="4.6101397275924683e-01" purity="6.3356250524520874e-01" nType="0">
                    <Node pos="l" depth="7" NCoef="0" IVar="-1" Cut="0.0000000000000000e+00" cType="1" res="4.2582610622048378e-03" rms="4.5098707079887390e-01" purity="6.7368829250335693e-01" nType="-99"/>
                    <Node pos="r" depth="7" NCoef="0" IVar="-1" Cut="0.0000000000000000e+00" cType="1" res="1.7859367653727531e-03" rms="4.7031626105308533e-01" purity="5.9338933229446411e-01" nType="-99"/>
                  </Node>
                </Node>
              </Node>
              <Node pos="r" depth="4" NCoef="0" IVar="3" Cut="4.2767655849456787e-01" cType="1" res="-1.7764998599886894e-02" rms="1.4096017181873322e-01" purity="2.0260864868760109e-02" nType="0">
                <Node pos="l" depth="5" NCoef="0" IVar="4" Cut="7.7718410491943359e+00" cType="1" res="-1.0509263724088669e-02" rms="1.2653417885303497e-01" purity="1.6448598355054855e-02" nType="0">
                  <Node pos="l" depth="6" NCoef="0" IVar="2" Cut="2.5274662780761719e+02" cType="1" res="-8.8865337893366814e-03" rms="1.3529194891452789e-01" purity="1.8827904015779495e-02" nType="0">
                    <Node pos="l" depth="7" NCoef="0" IVar="-1" Cut="0.0000000000000000e+00" cType="1" res="-8.5018435493111610e-03" rms="1.2786978483200073e-01" purity="1.7039589583873749e-02" nType="-99"/>
                    <Node pos="r" depth="7" NCoef="0" IVar="-1" Cut="0.0000000000000000e+00" cType="1" res="-1.0372791439294815e-02" rms="1.4216533303260803e-01" purity="2.0584873855113983e-02" nType="-99"/>
                  </Node>
                  <Node pos="r" depth="6" NCoef="0" IVar="-1" Cut="0.0000000000000000e+00" cType="1" res="-1.5584972687065601e-02" rms="1.0796531289815903e-01" purity="1.1945305392146111e-02" nType="-99"/>
                </Node>
                <Node pos="r" depth="5" NCoef="0" IVar="-1" Cut="0.0000000000000000e+00" cType="1" res="-1.6475427895784378e-02" rms="1.7374385893344879e-01" purity="3.1013919040560722e-02" nType="-99"/>
              </Node>
            </Node>
            <Node pos="r" depth="3" NCoef="0" IVar="-1" Cut="0.0000000000000000e+00" cType="1" res="4.6615353785455227e-03" rms="3.9855369925498962e-01" purity="2.0768715441226959e-01" nType="-99"/>
          </Node>
        </Node>
        <Node pos="r" depth="1" NCoef="0" IVar="5" Cut="-8.5891050100326538e-01" cType="1" res="8.5144191980361938e-03" rms="4.0740242600440979e-01" purity="7.5866770744323730e-01" nType="0">
          <Node pos="l" depth="2" NCoef="0" IVar="4" Cut="-2.3372821807861328e+00" cType="1" res="9.6367252990603447e-03" rms="4.0247499942779541e-01" purity="7.7415096759796143e-01" nType="0">
            <Node pos="l" depth="3" NCoef="0" IVar="5" Cut="-2.6883900165557861e+00" cType="1" res="2.0515397191047668e-02" rms="4.1206234693527222e-01" purity="7.6606303453445435e-01" nType="0">
              <Node pos="l" depth="4" NCoef="0" IVar="3" Cut="8.9565855264663696e-01" cType="1" res="3.2806817442178726e-02" rms="3.8694465160369873e-01" purity="8.0419182777404785e-01" nType="0">
                <Node pos="l" depth="5" NCoef="0" IVar="-1" Cut="0.0000000000000000e+00" cType="1" res="2.2333592642098665e-03" rms="4.0387785434722900e-01" purity="7.7762526273727417e-01" nType="-99"/>
                <Node pos="r" depth="5" NCoef="0" IVar="-1" Cut="0.0000000000000000e+00" cType="1" res="5.7436055503785610e-03" rms="3.6859190464019775e-01" purity="8.3092510700225830e-01" nType="-99"/>
              </Node>
              <Node pos="r" depth="4" NCoef="0" IVar="6" Cut="2.4766424670815468e-02" cType="1" res="9.0143727138638496e-03" rms="4.3393597006797791e-01" purity="7.3038619756698608e-01" nType="0">
                <Node pos="l" depth="5" NCoef="0" IVar="-1" Cut="0.0000000000000000e+00" cType="1" res="-4.3402906158007681e-04" rms="4.4176226854324341e-01" purity="7.1388840675354004e-01" nType="-99"/>
                <Node pos="r" depth="5" NCoef="0" IVar="-1" Cut="0.0000000000000000e+00" cType="1" res="2.7706720866262913e-03" rms="4.2371237277984619e-01" purity="7.5039267539978027e-01" nType="-99"/>
              </Node>
            </Node>
            <Node pos="r" depth="3" NCoef="0" IVar="4" Cut="-1.7686008214950562e+00" cType="1" res="7.8514823690056801e-03" rms="4.0085157752037048e-01" purity="7.7547818422317505e-01" nType="0">
              <Node pos="l" depth="4" NCoef="0" IVar="3" Cut="9.8742347955703735e-01" cType="1" res="-7.2401473298668861e-03" rms="4.3655097484588623e-01" purity="7.1720242500305176e-01" nType="0">
                <Node pos="l" depth="5" NCoef="0" IVar="4" Cut="-2.0988366603851318e+00" cType="1" res="1.4324402436614037e-02" rms="4.3235242366790771e-01" purity="7.2875702381134033e-01" nType="0">
                  <Node pos="l" depth="6" NCoef="0" IVar="-1" Cut="0.0000000000000000e+00" cType="1" res="1.9912994466722012e-03" rms="4.3019762635231018e-01" purity="7.3395073413848877e-01" nType="-99"/>
                  <Node pos="r" depth="6" NCoef="0" IVar="-1" Cut="0.0000000000000000e+00" cType="1" res="1.0321232257410884e-03" rms="4.3440276384353638e-01" purity="7.2367304563522339e-01" nType="-99"/>
                </Node>
                <Node pos="r" depth="5" NCoef="0" IVar="-1" Cut="0.0000000000000000e+00" cType="1" res="-3.0373695772141218e-03" rms="4.4001585245132446e-01" purity="7.0396029949188232e-01" nType="-99"/>
              </Node>
              <Node pos="r" depth="4" NCoef="0" IVar="1" Cut="7.7457374334335327e-01" cType="1" res="1.0008179582655430e-02" rms="3.9543977379798889e-01" purity="7.8380620479583740e-01" nType="0">
                <Node pos="l" depth="5" NCoef="0" IVar="3" Cut="8.8089472055435181e-01" cType="1" res="1.1565651744604111e-02" rms="3.8077709078788757e-01" purity="8.1380689144134521e-01" nType="0">
                  <Node pos="l" depth="6" NCoef="0" IVar="-1" Cut="0.0000000000000000e+00" cType="1" res="-2.3490893363486975e-04" rms="4.4239267706871033e-01" purity="7.1968191862106323e-01" nType="-99"/>
                  <Node pos="r" depth="6" NCoef="0" IVar="0" Cut="3.0373427271842957e-01" cType="1" res="1.2451495975255966e-02" rms="3.7647804617881775e-01" purity="8.1982409954071045e-01" nType="0">
                    <Node pos="l" depth="7" NCoef="0" IVar="-1" Cut="0.0000000000000000e+00" cType="1" res="1.7772325081750751e-03" rms="3.6813923716545105e-01" purity="8.3467274904251099e-01" nType="-99"/>
                    <Node pos="r" depth="7" NCoef="0" IVar="-1" Cut="0.0000000000000000e+00" cType="1" res="7.7840370067860931e-05" rms="4.6704849600791931e-01" purity="6.3677829504013062e-01" nType="-99"/>
                  </Node>
                </Node>
                <Node pos="r" depth="5" NCoef="0" IVar="4" Cut="-9.1226351261138916e-01" cType="1" res="2.9634810052812099e-03" rms="4.5584219694137573e-01" purity="6.4810824394226074e-01" nType="0">
                  <Node pos="l" depth="6" NCoef="0" IVar="-1" Cut="0.0000000000000000e+00" cType="1" res="-9.9148496519774199e-04" rms="4.7718310356140137e-01" purity="5.8417898416519165e-01" nType="-99"/>
                  <Node pos="r" depth="6" NCoef="0" IVar="5" Cut="-2.7391438484191895e+00" cType="1" res="7.3510347865521908e-03" rms="4.4914948940277100e-01" purity="6.6728681325912476e-01" nType="0">
                    <Node pos="l" depth="7" NCoef="0" IVar="-1" Cut="0.0000000000000000e+00" cType="1" res="1.5929925721138716e-03" rms="4.2687648534774780e-01" purity="7.3707640171051025e-01" nType="-99"/>
                    <Node pos="r" depth="7" NCoef="0" IVar="-1" Cut="0.0000000000000000e+00" cType="1" res="7.2008697316050529e-05" rms="4.6631973981857300e-01" purity="6.1071705818176270e-01" nType="-99"/>
                  </Node>
                </Node>
              </Node>
            </Node>
          </Node>
          <Node pos="r" depth="2" NCoef="0" IVar="1" Cut="3.1337049603462219e-01" cType="1" res="-8.4769502282142639e-03" rms="4.7548446059226990e-01" purity="5.2425652742385864e-01" nType="0">
            <Node pos="l" depth="3" NCoef="0" IVar="-1" Cut="0.0000000000000000e+00" cType="1" res="1.5946965140756220e-04" rms="4.7861781716346741e-01" purity="6.0359054803848267e-01" nType="-99"/>
            <Node pos="r" depth="3" NCoef="0" IVar="-1" Cut="0.0000000000000000e+00" cType="1" res="-2.1781532559543848e-03" rms="4.7077792882919312e-01" purity="4.1512221097946167e-01" nType="-99"/>
          </Node>
        </Node>
      </Node>
    </BinaryTree>
    <BinaryTree type="DecisionTree" boostWeight="1.0000000000000000e+00" itree="99">
      <Node pos="s" depth="0" NCoef="0" IVar="1" Cut="6.7885851860046387e-01" cType="1" res="2.0897444337606430e-03" rms="3.9909693598747253e-01" purity="4.9981519579887390e-01" nType="0">
        <Node pos="l" depth="1" NCoef="0" IVar="2" Cut="6.8413490295410156e+01" cType="1" res="5.6962906382977962e-03" rms="4.0744256973266602e-01" purity="5.9360074996948242e-01" nType="0">
          <Node pos="l" depth="2" NCoef="0" IVar="6" Cut="1.9824540242552757e-02" cType="1" res="1.0932553559541702e-02" rms="3.9996081590652466e-01" purity="7.5270158052444458e-01" nType="0">
            <Node pos="l" depth="3" NCoef="0" IVar="2" Cut="1.3240790367126465e+01" cType="1" res="8.3605693653225899e-03" rms="3.9000406861305237e-01" purity="7.8584116697311401e-01" nType="0">
              <Node pos="l" depth="4" NCoef="0" IVar="4" Cut="1.5414871275424957e-01" cType="1" res="1.0590065270662308e-02" rms="3.8572174310684204e-01" purity="8.0391281843185425e-01" nType="0">
                <Node pos="l" depth="5" NCoef="0" IVar="5" Cut="-3.2111599445343018e+00" cType="1" res="8.8176587596535683e-03" rms="3.8388115167617798e-01" purity="8.0746531486511230e-01" nType="0">
                  <Node pos="l" depth="6" NCoef="0" IVar="4" Cut="-6.7431503534317017e-01" cType="1" res="2.2488433867692947e-02" rms="3.4469294548034668e-01" purity="8.5142260789871216e-01" nType="0">
                    <Node pos="l" depth="7" NCoef="0" IVar="-1" Cut="0.0000000000000000e+00" cType="1" res="2.5350516662001610e-03" rms="3.6122795939445496e-01" purity="8.3110630512237549e-01" nType="-99"/>
                    <Node pos="r" depth="7" NCoef="0" IVar="-1" Cut="0.0000000000000000e+00" cType="1" res="3.9953328669071198e-03" rms="3.2416859269142151e-01" purity="8.7529581785202026e-01" nType="-99"/>
                  </Node>
                  <Node pos="r" depth="6" NCoef="0" IVar="5" Cut="-1.6796337366104126e+00" cType="1" res="6.3214823603630066e-03" rms="3.9056071639060974e-01" purity="7.9943901300430298e-01" nType="0">
                    <Node pos="l" depth="7" NCoef="0" IVar="-1" Cut="0.0000000000000000e+00" cType="1" res="9.8870589863508940e-04" rms="3.7934669852256775e-01" purity="8.1703954935073853e-01" nType="-99"/>
                    <Node pos="r" depth="7" NCoef="0" IVar="-1" Cut="0.0000000000000000e+00" cType="1" res="-3.6903010914102197e-04" rms="4.5680737495422363e-01" purity="6.8476080894470215e-01" nType="-99"/>
                  </Node>
                </Node>
                <Node pos="r" depth="5" NCoef="0" IVar="5" Cut="-1.7433810234069824e+00" cType="1" res="2.3541793227195740e-02" rms="3.9867487549781799e-01" purity="7.7795350551605225e-01" nType="0">
                  <Node pos="l" depth="6" NCoef="0" IVar="-1" Cut="0.0000000000000000e+00" cType="1" res="2.7842060662806034e-03" rms="3.6451664566993713e-01" purity="8.3557713031768799e-01" nType="-99"/>
                  <Node pos="r" depth="6" NCoef="0" IVar="-1" Cut="0.0000000000000000e+00" cType="1" res="2.8512843418866396e-03" rms="4.4323745369911194e-01" purity="6.9494384527206421e-01" nType="-99"/>
                </Node>
              </Node>
              <Node pos="r" depth="4" NCoef="0" IVar="6" Cut="1.4216734096407890e-02" cType="1" res="-1.6673265025019646e-02" rms="4.3441998958587646e-01" purity="5.8292418718338013e-01" nType="0">
                <Node pos="l" depth="5" NCoef="0" IVar="-1" Cut="0.0000000000000000e+00" cType="1" res="-4.2829406447708607e-03" rms="4.3813729286193848e-01" purity="5.6273132562637329e-01" nType="-99"/>
                <Node pos="r" depth="5" NCoef="0" IVar="-1" Cut="0.0000000000000000e+00" cType="1" res="3.6133962566964328e-04" rms="4.2974835634231567e-01" purity="6.0313302278518677e-01" nType="-99"/>
              </Node>
            </Node>
            <Node pos="r" depth="3" NCoef="0" IVar="5" Cut="-2.0701093673706055e+00" cType="1" res="2.0974293351173401e-02" rms="4.3652141094207764e-01" purity="6.2331551313400269e-01" nType="0">
              <Node pos="l" depth="4" NCoef="0" IVar="7" Cut="3.0000000000000000e+00" cType="1" res="2.7761887758970261e-02" rms="4.2336326837539673e-01" purity="6.7870169878005981e-01" nType="0">
                <Node pos="l" depth="5" NCoef="0" IVar="3" Cut="8.5026723146438599e-01" cType="1" res="2.2019125521183014e-02" rms="4.1370612382888794e-01" purity="7.4937540292739868e-01" nType="0">
                  <Node pos="l" depth="6" NCoef="0" IVar="-1" Cut="0.0000000000000000e+00" cType="1" res="6.9960590917617083e-04" rms="4.4499269127845764e-01" purity="6.8204963207244873e-01" nType="-99"/>
                  <Node pos="r" depth="6" NCoef="0" IVar="-1" Cut="0.0000000000000000e+00" cType="1" res="4.6523176133632660e-03" rms="3.7195855379104614e-01" purity="8.3024394512176514e-01" nType="-99"/>
                </Node>
                <Node pos="r" depth="5" NCoef="0" IVar="-1" Cut="0.0000000000000000e+00" cType="1" res="3.8036732003092766e-03" rms="4.4204896688461304e-01" purity="5.4800069332122803e-01" nType="-99"/>
              </Node>
              <Node pos="r" depth="4" NCoef="0" IVar="0" Cut="3.1140860915184021e-01" cType="1" res="9.7911944612860680e-03" rms="4.5670455694198608e-01" purity="5.3008013963699341e-01" nType="0">
                <Node pos="l" depth="5" NCoef="0" IVar="-1" Cut="0.0000000000000000e+00" cType="1" res="-3.6529326462186873e-04" rms="4.6980336308479309e-01" purity="6.3098126649856567e-01" nType="-99"/>
                <Node pos="r" depth="5" NCoef="0" IVar="-1" Cut="0.0000000000000000e+00" cType="1" res="3.3917429391294718e-03" rms="4.3608176708221436e-01" purity="3.8267442584037781e-01" nType="-99"/>
              </Node>
            </Node>
          </Node>
          <Node pos="r" depth="2" NCoef="0" IVar="4" Cut="-2.7795801162719727e+00" cType="1" res="-3.0047431937418878e-04" rms="4.1576462984085083e-01" purity="4.1139250993728638e-01" nType="0">
            <Node pos="l" depth="3" NCoef="0" IVar="-1" Cut="0.0000000000000000e+00" cType="1" res="2.9895191546529531e-03" rms="4.1414964199066162e-01" purity="7.2419136762619019e-01" nType="-99"/>
            <Node pos="r" depth="3" NCoef="0" IVar="6" Cut="8.6986750364303589e-02" cType="1" res="-1.4821900986135006e-03" rms="4.1580253839492798e-01" purity="3.9674645662307739e-01" nType="0">
              <Node pos="l" depth="4" NCoef="0" IVar="3" Cut="7.3636460304260254e-01" cType="1" res="-5.9502902440726757e-03" rms="4.2799177765846252e-01" purity="4.8039886355400085e-01" nType="0">
                <Node pos="l" depth="5" NCoef="0" IVar="7" Cut="4.0000000000000000e+00" cType="1" res="-1.3239481486380100e-02" rms="4.0059679746627808e-01" purity="2.8524723649024963e-01" nType="0">
                  <Node pos="l" depth="6" NCoef="0" IVar="2" Cut="1.2502391052246094e+02" cType="1" res="-2.4332532659173012e-02" rms="4.4199407100677490e-01" purity="3.6557877063751221e-01" nType="0">
                    <Node pos="l" depth="7" NCoef="0" IVar="-1" Cut="0.0000000000000000e+00" cType="1" res="-1.0848571546375751e-03" rms="4.5235157012939453e-01" purity="4.0948235988616943e-01" nType="-99"/>
                    <Node pos="r" depth="7" NCoef="0" IVar="-1" Cut="0.0000000000000000e+00" cType="1" res="-3.7674030754715204e-03" rms="4.3566042184829712e-01" purity="3.4008580446243286e-01" nType="-99"/>
                  </Node>
                  <Node pos="r" depth="6" NCoef="0" IVar="3" Cut="4.6071049571037292e-01" cType="1" res="-2.8255775105208158e-03" rms="3.5743820667266846e-01" purity="2.0942534506320953e-01" nType="0">
                    <Node pos="l" depth="7" NCoef="0" IVar="-1" Cut="0.0000000000000000e+00" cType="1" res="-4.5928307808935642e-03" rms="2.1880260109901428e-01" purity="5.3516648709774017e-02" nType="-99"/>
                    <Node pos="r" depth="7" NCoef="0" IVar="-1" Cut="0.0000000000000000e+00" cType="1" res="3.8174228393472731e-04" rms="4.4443461298942566e-01" purity="3.4571999311447144e-01" nType="-99"/>
                  </Node>
                </Node>
                <Node pos="r" depth="5" NCoef="0" IVar="6" Cut="4.3460704386234283e-02" cType="1" res="1.2980499304831028e-03" rms="4.5313778519630432e-01" purity="6.7368733882904053e-01" nType="0">
                  <Node pos="l" depth="6" NCoef="0" IVar="3" Cut="8.5872733592987061e-01" cType="1" res="-1.0334440506994724e-02" rms="4.4992777705192566e-01" purity="6.7912560701370239e-01" nType="0">
                    <Node pos="l" depth="7" NCoef="0" IVar="-1" Cut="0.0000000000000000e+00" cType="1" res="-2.3382061626762152e-03" rms="4.7323751449584961e-01" purity="6.1276161670684814e-01" nType="-99"/>
                    <Node pos="r" depth="7" NCoef="0" IVar="-1" Cut="0.0000000000000000e+00" cType="1" res="1.0468147229403257e-04" rms="4.2924365401268005e-01" purity="7.3435342311859131e-01" nType="-99"/>
                  </Node>
                  <Node pos="r" depth="6" NCoef="0" IVar="2" Cut="1.9257652282714844e+02" cType="1" res="9.4506647437810898e-03" rms="4.5519688725471497e-01" purity="6.6987586021423340e-01" nType="0">
                    <Node pos="l" depth="7" NCoef="0" IVar="-1" Cut="0.0000000000000000e+00" cType="1" res="1.8072259845212102e-03" rms="4.4717407226562500e-01" purity="6.9351154565811157e-01" nType="-99"/>
                    <Node pos="r" depth="7" NCoef="0" IVar="-1" Cut="0.0000000000000000e+00" cType="1" res="-7.0647412212565541e-04" rms="4.6832397580146790e-01" purity="6.2890565395355225e-01" nType="-99"/>
                  </Node>
                </Node>
              </Node>
              <Node pos="r" depth="4" NCoef="0" IVar="2" Cut="2.0084577941894531e+02" cType="1" res="4.5158327557146549e-03" rms="3.9877566695213318e-01" purity="2.8445056080818176e-01" nType="0">
                <Node pos="l" depth="5" NCoef="0" IVar="7" Cut="4.0000000000000000e+00" cType="1" res="2.2224171087145805e-02" rms="4.3451857566833496e-01" purity="3.9758795499801636e-01" nType="0">
                  <Node pos="l" depth="6" NCoef="0" IVar="-1" Cut="0.0000000000000000e+00" cType="1" res="8.7627058383077383e-04" rms="4.5397064089775085e-01" purity="4.7968113422393799e-01" nType="-99"/>
                  <Node pos="r" depth="6" NCoef="0" IVar="-1" Cut="0.0000000000000000e+00" cType="1" res="5.0781443715095520e-03" rms="4.1297653317451477e-01" purity="3.1021273136138916e-01" nType="-99"/>
                </Node>
                <Node pos="r" depth="5" NCoef="0" IVar="6" Cut="1.7766726016998291e-01" cType="1" res="-1.2832228094339371e-03" rms="3.8597145676612854e-01" purity="2.4710313975811005e-01" nType="0">
                  <Node pos="l" depth="6" NCoef="0" IVar="3" Cut="5.3069001436233521e-01" cType="1" res="-5.5793761275708675e-03" rms="3.8852795958518982e-01" purity="2.6285839080810547e-01" nType="0">
                    <Node pos="l" depth="7" NCoef="0" IVar="-1" Cut="0.0000000000000000e+00" cType="1" res="-3.4286752343177795e-03" rms="3.1438705325126648e-01" purity="1.2542732059955597e-01" nType="-99"/>
                    <Node pos="r" depth="7" NCoef="0" IVar="-1" Cut="0.0000000000000000e+00" cType="1" res="5.8758392697200179e-04" rms="4.6831840276718140e-01" purity="4.4375345110893250e-01" nType="-99"/>
                  </Node>
                  <Node pos="r" depth="6" NCoef="0" IVar="5" Cut="-1.2884340286254883e+00" cType="1" res="1.1402772739529610e-02" rms="3.7803682684898376e-01" purity="2.0057985186576843e-01" nType="0">
                    <Node pos="l" depth="7" NCoef="0" IVar="-1" Cut="0.0000000000000000e+00" cType="1" res="3.6884553264826536e-03" rms="4.3788653612136841e-01" purity="2.8500407934188843e-01" nType="-99"/>
                    <Node pos="r" depth="7" NCoef="0" IVar="-1" Cut="0.0000000000000000e+00" cType="1" res="-1.6471948474645615e-03" rms="2.9898542165756226e-01" purity="1.0905318707227707e-01" nType="-99"/>
                  </Node>
                </Node>
              </Node>
            </Node>
          </Node>
        </Node>
        <Node pos="r" depth="1" NCoef="0" IVar="1" Cut="6.3916630744934082e+00" cType="1" res="-5.3510582074522972e-03" rms="3.8119417428970337e-01" purity="3.0632266402244568e-01" nType="0">
          <Node pos="l" depth="2" NCoef="0" IVar="1" Cut="2.1530811786651611e+00" cType="1" res="-6.7005506716668606e-03" rms="3.8083305954933167e-01" purity="3.0570018291473389e-01" nType="0">
            <Node pos="l" depth="3" NCoef="0" IVar="4" Cut="4.8147031664848328e-01" cType="1" res="-3.3916425891220570e-03" rms="3.8218569755554199e-01" purity="3.1871724128723145e-01" nType="0">
              <Node pos="l" depth="4" NCoef="0" IVar="4" Cut="-2.4640438556671143e+00" cType="1" res="1.4737209130544215e-04" rms="4.1382989287376404e-01" purity="3.9045983552932739e-01" nType="0">
                <Node pos="l" depth="5" NCoef="0" IVar="-1" Cut="0.0000000000000000e+00" cType="1" res="2.7408571913838387e-03" rms="4.4358113408088684e-01" purity="5.1374274492263794e-01" nType="-99"/>
                <Node pos="r" depth="5" NCoef="0" IVar="1" Cut="7.2642040252685547e-01" cType="1" res="-2.5875328574329615e-03" rms="4.1048836708068848e-01" purity="3.7752845883369446e-01" nType="0">
                  <Node pos="l" depth="6" NCoef="0" IVar="-1" Cut="0.0000000000000000e+00" cType="1" res="-2.5077818427234888e-03" rms="4.1461771726608276e-01" purity="4.5007893443107605e-01" nType="-99"/>
                  <Node pos="r" depth="6" NCoef="0" IVar="3" Cut="3.2837751507759094e-01" cType="1" res="-1.2707514688372612e-03" rms="4.1015610098838806e-01" purity="3.7226852774620056e-01" nType="0">
                    <Node pos="l" depth="7" NCoef="0" IVar="-1" Cut="0.0000000000000000e+00" cType="1" res="-4.9333940260112286e-03" rms="2.4786083400249481e-01" purity="6.9959372282028198e-02" nType="-99"/>
                    <Node pos="r" depth="7" NCoef="0" IVar="-1" Cut="0.0000000000000000e+00" cType="1" res="1.1171174264745787e-04" rms="4.3587026000022888e-01" purity="4.3393754959106445e-01" nType="-99"/>
                  </Node>
                </Node>
              </Node>
              <Node pos="r" depth="4" NCoef="0" IVar="6" Cut="5.1592126488685608e-02" cType="1" res="-1.4185382984578609e-02" rms="2.6284173130989075e-01" purity="9.9907718598842621e-02" nType="0">
                <Node pos="l" depth="5" NCoef="0" IVar="-1" Cut="0.0000000000000000e+00" cType="1" res="-6.0868142172694206e-03" rms="3.1799176335334778e-01" purity="1.7844796180725098e-01" nType="-99"/>
                <Node pos="r" depth="5" NCoef="0" IVar="2" Cut="2.8495242309570312e+02" cType="1" res="-9.8405117169022560e-03" rms="2.4572822451591492e-01" purity="7.8786626458168030e-02" nType="0">
                  <Node pos="l" depth="6" NCoef="0" IVar="5" Cut="-1.4302112162113190e-01" cType="1" res="-3.2738903537392616e-03" rms="2.6729142665863037e-01" purity="9.8814107477664948e-02" nType="0">
                    <Node pos="l" depth="7" NCoef="0" IVar="-1" Cut="0.0000000000000000e+00" cType="1" res="1.9356546690687537e-03" rms="3.3800679445266724e-01" purity="1.6711555421352386e-01" nType="-99"/>
                    <Node pos="r" depth="7" NCoef="0" IVar="-1" Cut="0.0000000000000000e+00" cType="1" res="-8.1151854246854782e-03" rms="1.8495301902294159e-01" purity="3.9786249399185181e-02" nType="-99"/>
                  </Node>
                  <Node pos="r" depth="6" NCoef="0" IVar="5" Cut="8.6751925945281982e-01" cType="1" res="-1.8823860213160515e-02" rms="2.1238882839679718e-01" purity="5.1388360559940338e-02" nType="0">
                    <Node pos="l" depth="7" NCoef="0" IVar="-1" Cut="0.0000000000000000e+00" cType="1" res="-7.7643655240535736e-03" rms="2.5032016634941101e-01" purity="7.3504790663719177e-02" nType="-99"/>
                    <Node pos="r" depth="7" NCoef="0" IVar="-1" Cut="0.0000000000000000e+00" cType="1" res="-9.5733525231480598e-03" rms="1.6576908528804779e-01" purity="2.9237892478704453e-02" nType="-99"/>
                  </Node>
                </Node>
              </Node>
            </Node>
            <Node pos="r" depth="3" NCoef="0" IVar="3" Cut="4.5527866482734680e-01" cType="1" res="-1.8766259774565697e-02" rms="3.7561264634132385e-01" purity="2.5823423266410828e-01" nType="0">
              <Node pos="l" depth="4" NCoef="0" IVar="7" Cut="5.0000000000000000e+00" cType="1" res="-6.5061467466875911e-04" rms="2.6937600970268250e-01" purity="8.5779055953025818e-02" nType="0">
                <Node pos="l" depth="5" NCoef="0" IVar="-1" Cut="0.0000000000000000e+00" cType="1" res="4.2864456772804260e-03" rms="3.1060868501663208e-01" purity="1.1578784137964249e-01" nType="-99"/>
                <Node pos="r" depth="5" NCoef="0" IVar="-1" Cut="0.0000000000000000e+00" cType="1" res="-4.0954160504043102e-03" rms="2.4601732194423676e-01" purity="6.8552896380424500e-02" nType="-99"/>
              </Node>
              <Node pos="r" depth="4" NCoef="0" IVar="5" Cut="-2.1259143352508545e+00" cType="1" res="-3.2075762748718262e-02" rms="4.3826037645339966e-01" purity="3.8989740610122681e-01" nType="0">
                <Node pos="l" depth="5" NCoef="0" IVar="3" Cut="8.9176112413406372e-01" cType="1" res="-1.3144990429282188e-02" rms="4.5429813861846924e-01" purity="4.7888955473899841e-01" nType="0">
                  <Node pos="l" depth="6" NCoef="0" IVar="-1" Cut="0.0000000000000000e+00" cType="1" res="-3.2645964529365301e-03" rms="4.4102698564529419e-01" purity="3.3438608050346375e-01" nType="-99"/>
                  <Node pos="r" depth="6" NCoef="0" IVar="-1" Cut="0.0000000000000000e+00" cType="1" res="3.7859129952266812e-04" rms="4.6748965978622437e-01" purity="6.3382750749588013e-01" nType="-99"/>
                </Node>
                <Node pos="r" depth="5" NCoef="0" IVar="-1" Cut="0.0000000000000000e+00" cType="1" res="-7.3334453627467155e-03" rms="4.1205593943595886e-01" purity="2.5942823290824890e-01" nType="-99"/>
              </Node>
            </Node>
          </Node>
          <Node pos="r" depth="2" NCoef="0" IVar="-1" Cut="0.0000000000000000e+00" cType="1" res="4.9663768149912357e-03" rms="3.8952308893203735e-01" purity="3.2446083426475525e-01" nType="-99"/>
        </Node>
      </Node>
    </BinaryTree>
  </Weights>
</MethodSetup>
