<?xml version="1.0"?>
<MethodSetup Method="BDT::BDTG">
  <GeneralInfo>
    <Info name="TMVA Release" value="4.2.1 [262657]"/>
    <Info name="ROOT Release" value="6.04/16 [394256]"/>
    <Info name="Training events" value="18768"/>
    <Info name="AnalysisType" value="Classification"/>
  </GeneralInfo>
  <Options>
    <Option name="V" modified="Yes">False</Option>
    <Option name="VerbosityLevel" modified="No">Default</Option>
    <Option name="VarTransform" modified="No">None</Option>
    <Option name="H" modified="Yes">False</Option>
    <Option name="CreateMVAPdfs" modified="No">False</Option>
    <Option name="IgnoreNegWeightsInTraining" modified="No">False</Option>
    <Option name="NTrees" modified="Yes">200</Option>
    <Option name="MaxDepth" modified="Yes">4</Option>
    <Option name="MinNodeSize" modified="Yes">10%</Option>
    <Option name="nCuts" modified="No">20</Option>
    <Option name="BoostType" modified="Yes">Grad</Option>
    <Option name="AdaBoostR2Loss" modified="No">quadratic</Option>
    <Option name="UseBaggedBoost" modified="Yes">True</Option>
    <Option name="Shrinkage" modified="Yes">2.000000e-01</Option>
    <Option name="AdaBoostBeta" modified="No">5.000000e-01</Option>
    <Option name="UseRandomisedTrees" modified="Yes">True</Option>
    <Option name="UseNvars" modified="Yes">10</Option>
    <Option name="UsePoissonNvars" modified="No">True</Option>
    <Option name="BaggedSampleFraction" modified="Yes">6.000000e-01</Option>
    <Option name="UseYesNoLeaf" modified="No">True</Option>
    <Option name="NegWeightTreatment" modified="No">ignorenegweightsintraining</Option>
    <Option name="Css" modified="No">1.000000e+00</Option>
    <Option name="Cts_sb" modified="No">1.000000e+00</Option>
    <Option name="Ctb_ss" modified="No">1.000000e+00</Option>
    <Option name="Cbb" modified="No">1.000000e+00</Option>
    <Option name="NodePurityLimit" modified="No">5.000000e-01</Option>
    <Option name="SeparationType" modified="No">giniindex</Option>
    <Option name="DoBoostMonitor" modified="No">False</Option>
    <Option name="UseFisherCuts" modified="No">False</Option>
    <Option name="MinLinCorrForFisher" modified="No">8.000000e-01</Option>
    <Option name="UseExclusiveVars" modified="No">False</Option>
    <Option name="DoPreselection" modified="No">False</Option>
    <Option name="SigToBkgFraction" modified="No">1.000000e+00</Option>
    <Option name="PruneMethod" modified="No">nopruning</Option>
    <Option name="PruneStrength" modified="No">0.000000e+00</Option>
    <Option name="PruningValFraction" modified="No">5.000000e-01</Option>
    <Option name="nEventsMin" modified="No">0</Option>
    <Option name="UseBaggedGrad" modified="No">False</Option>
    <Option name="GradBaggingFraction" modified="No">6.000000e-01</Option>
    <Option name="UseNTrainEvents" modified="No">0</Option>
    <Option name="NNodesMax" modified="No">0</Option>
  </Options>
  <Variables NVar="10">
    <Variable VarIndex="0" Expression="mt" Label="mt" Title="m_{T}" Unit="GeV" Internal="mt" Type="F" Min="1.20006094e+05" Max="6.22048200e+06"/>
    <Variable VarIndex="1" Expression="dphi_ttbar" Label="dphi_ttbar" Title="dphi_ttbar" Unit="" Internal="dphi_ttbar" Type="F" Min="-3.14140677e+00" Max="3.14157319e+00"/>
    <Variable VarIndex="2" Expression="dr_bjet_lep" Label="dr_bjet_lep" Title="dr_bjet_lep" Unit="" Internal="dr_bjet_lep" Type="F" Min="7.70962462e-02" Max="5.66642046e+00"/>
    <Variable VarIndex="3" Expression="jetPt3" Label="jetPt3" Title="jet3Pt" Unit="" Internal="jetPt3" Type="F" Min="2.56655352e+04" Max="7.99749000e+05"/>
    <Variable VarIndex="4" Expression="jetPt4" Label="jetPt4" Title="jet4Pt" Unit="" Internal="jetPt4" Type="F" Min="2.51757188e+04" Max="4.80144312e+05"/>
    <Variable VarIndex="5" Expression="m_top_chi2" Label="m_top_chi2" Title="m_top_chi2" Unit="" Internal="m_top_chi2" Type="F" Min="9.40108185e+01" Max="2.11745386e+03"/>
    <Variable VarIndex="6" Expression="RJR_RISR" Label="RJR_RISR" Title="R_{ISR}" Unit="" Internal="RJR_RISR" Type="F" Min="4.00034279e-01" Max="9.95268285e-01"/>
    <Variable VarIndex="7" Expression="RJR_MS" Label="RJR_MS" Title="M_{T}^{S}" Unit="GeV" Internal="RJR_MS" Type="F" Min="7.27691936e+00" Max="2.08015234e+03"/>
    <Variable VarIndex="8" Expression="RJR_dphiISRI" Label="RJR_dphiISRI" Title="|#Delta#phi(ISR,I)|" Unit="" Internal="RJR_dphiISRI" Type="F" Min="2.06757140e+00" Max="3.14157462e+00"/>
    <Variable VarIndex="9" Expression="RJR_NjV" Label="RJR_NjV" Title="NjV" Unit="" Internal="RJR_NjV" Type="I" Min="1.00000000e+00" Max="8.00000000e+00"/>
  </Variables>
  <Spectators NSpec="0"/>
  <Classes NClass="2">
    <Class Name="Signal" Index="0"/>
    <Class Name="Background" Index="1"/>
  </Classes>
  <Transformations NTransformations="0"/>
  <MVAPdfs/>
  <Weights NTrees="200" AnalysisType="1">
    <BinaryTree type="DecisionTree" boostWeight="1.0000000000000000e+00" itree="0">
      <Node pos="s" depth="0" NCoef="0" IVar="7" Cut="2.2079129028320312e+02" cType="1" res="-1.0056041181087494e-02" rms="4.9989885091781616e-01" purity="4.8994395136833191e-01" nType="0">
        <Node pos="l" depth="1" NCoef="0" IVar="0" Cut="2.7378209375000000e+05" cType="1" res="-1.4946702122688293e-01" rms="4.7713688015937805e-01" purity="3.5053297877311707e-01" nType="0">
          <Node pos="l" depth="2" NCoef="0" IVar="7" Cut="1.3944946289062500e+02" cType="1" res="0.0000000000000000e+00" rms="0.0000000000000000e+00" purity="4.4559744000434875e-01" nType="0">
            <Node pos="l" depth="3" NCoef="0" IVar="-1" Cut="0.0000000000000000e+00" cType="1" res="-2.1646650508046150e-02" rms="4.7264233231544495e-01" purity="3.3687663078308105e-01" nType="-99"/>
            <Node pos="r" depth="3" NCoef="0" IVar="-1" Cut="0.0000000000000000e+00" cType="1" res="1.2668529525399208e-03" rms="4.9996498227119446e-01" purity="5.0591850280761719e-01" nType="-99"/>
          </Node>
          <Node pos="r" depth="2" NCoef="0" IVar="-1" Cut="0.0000000000000000e+00" cType="1" res="-7.8995354473590851e-02" rms="3.1310942769050598e-01" purity="1.1017632484436035e-01" nType="-99"/>
        </Node>
        <Node pos="r" depth="1" NCoef="0" IVar="6" Cut="5.1301419734954834e-01" cType="1" res="9.7135879099369049e-02" rms="4.9047386646270752e-01" purity="5.9713584184646606e-01" nType="0">
          <Node pos="l" depth="2" NCoef="0" IVar="-1" Cut="0.0000000000000000e+00" cType="1" res="-1.3878867961466312e-02" rms="4.9631100893020630e-01" purity="4.3937495350837708e-01" nType="-99"/>
          <Node pos="r" depth="2" NCoef="0" IVar="4" Cut="5.9549402343750000e+04" cType="1" res="0.0000000000000000e+00" rms="0.0000000000000000e+00" purity="6.4171755313873291e-01" nType="0">
            <Node pos="l" depth="3" NCoef="0" IVar="-1" Cut="0.0000000000000000e+00" cType="1" res="3.6107548512518406e-03" rms="4.9858713150024414e-01" purity="5.3756171464920044e-01" nType="-99"/>
            <Node pos="r" depth="3" NCoef="0" IVar="4" Cut="7.9049898437500000e+04" cType="1" res="2.3415720462799072e-01" rms="4.4178095459938049e-01" purity="7.3415726423263550e-01" nType="0">
              <Node pos="l" depth="4" NCoef="0" IVar="-1" Cut="0.0000000000000000e+00" cType="1" res="4.4841863214969635e-02" rms="4.6441090106964111e-01" purity="6.8526339530944824e-01" nType="-99"/>
              <Node pos="r" depth="4" NCoef="0" IVar="-1" Cut="0.0000000000000000e+00" cType="1" res="5.6597135961055756e-02" rms="4.1557514667510986e-01" purity="7.7802389860153198e-01" nType="-99"/>
            </Node>
          </Node>
        </Node>
      </Node>
    </BinaryTree>
    <BinaryTree type="DecisionTree" boostWeight="1.0000000000000000e+00" itree="1">
      <Node pos="s" depth="0" NCoef="0" IVar="2" Cut="1.2839672565460205e+00" cType="1" res="0.0000000000000000e+00" rms="0.0000000000000000e+00" purity="4.9796313047409058e-01" nType="0">
        <Node pos="l" depth="1" NCoef="0" IVar="0" Cut="2.2574728125000000e+05" cType="1" res="-1.5802226960659027e-01" rms="4.6472907066345215e-01" purity="3.3906829357147217e-01" nType="0">
          <Node pos="l" depth="2" NCoef="0" IVar="-1" Cut="0.0000000000000000e+00" cType="1" res="-3.8503368850797415e-03" rms="4.9468439817428589e-01" purity="4.8661914467811584e-01" nType="-99"/>
          <Node pos="r" depth="2" NCoef="0" IVar="-1" Cut="0.0000000000000000e+00" cType="1" res="-9.4713106751441956e-02" rms="3.4402781724929810e-01" purity="1.4377467334270477e-01" nType="-99"/>
        </Node>
        <Node pos="r" depth="1" NCoef="0" IVar="0" Cut="2.5765300000000000e+05" cType="1" res="6.2707185745239258e-02" rms="4.9030837416648865e-01" purity="5.6410461664199829e-01" nType="0">
          <Node pos="l" depth="2" NCoef="0" IVar="7" Cut="1.7470094299316406e+02" cType="1" res="1.1862495541572571e-01" rms="4.8122012615203857e-01" purity="6.2360990047454834e-01" nType="0">
            <Node pos="l" depth="3" NCoef="0" IVar="-1" Cut="0.0000000000000000e+00" cType="1" res="-6.4284154213964939e-03" rms="4.9716520309448242e-01" purity="4.5152974128723145e-01" nType="-99"/>
            <Node pos="r" depth="3" NCoef="0" IVar="6" Cut="5.6623744964599609e-01" cType="1" res="1.7237123847007751e-01" rms="4.6348261833190918e-01" purity="6.8093872070312500e-01" nType="0">
              <Node pos="l" depth="4" NCoef="0" IVar="-1" Cut="0.0000000000000000e+00" cType="1" res="4.9201948568224907e-03" rms="4.9677538871765137e-01" purity="5.2436465024948120e-01" nType="-99"/>
              <Node pos="r" depth="4" NCoef="0" IVar="-1" Cut="0.0000000000000000e+00" cType="1" res="4.5726165175437927e-02" rms="4.3504732847213745e-01" purity="7.4374669790267944e-01" nType="-99"/>
            </Node>
          </Node>
          <Node pos="r" depth="2" NCoef="0" IVar="-1" Cut="0.0000000000000000e+00" cType="1" res="-1.0692385956645012e-02" rms="4.6939632296562195e-01" purity="3.4961724281311035e-01" nType="-99"/>
        </Node>
      </Node>
    </BinaryTree>
    <BinaryTree type="DecisionTree" boostWeight="1.0000000000000000e+00" itree="2">
      <Node pos="s" depth="0" NCoef="0" IVar="0" Cut="2.7378768750000000e+05" cType="1" res="-1.5219283523038030e-03" rms="4.8601043224334717e-01" purity="4.9635687470436096e-01" nType="0">
        <Node pos="l" depth="1" NCoef="0" IVar="7" Cut="2.2192062377929688e+02" cType="1" res="6.6625051200389862e-02" rms="4.8696300387382507e-01" purity="5.7611674070358276e-01" nType="0">
          <Node pos="l" depth="2" NCoef="0" IVar="2" Cut="1.7728625535964966e+00" cType="1" res="-4.2596008628606796e-02" rms="4.9366745352745056e-01" purity="4.5380797982215881e-01" nType="0">
            <Node pos="l" depth="3" NCoef="0" IVar="-1" Cut="0.0000000000000000e+00" cType="1" res="-2.8269607573747635e-02" rms="4.7265145182609558e-01" purity="3.4805959463119507e-01" nType="-99"/>
            <Node pos="r" depth="3" NCoef="0" IVar="-1" Cut="0.0000000000000000e+00" cType="1" res="5.0062756054103374e-03" rms="4.9630600214004517e-01" purity="5.2994447946548462e-01" nType="-99"/>
          </Node>
          <Node pos="r" depth="2" NCoef="0" IVar="6" Cut="5.3752779960632324e-01" cType="1" res="1.4400367438793182e-01" rms="4.6694356203079224e-01" purity="6.6276741027832031e-01" nType="0">
            <Node pos="l" depth="3" NCoef="0" IVar="-1" Cut="0.0000000000000000e+00" cType="1" res="-4.1979941306635737e-04" rms="4.9768438935279846e-01" purity="4.9570694565773010e-01" nType="-99"/>
            <Node pos="r" depth="3" NCoef="0" IVar="8" Cut="3.0237638950347900e+00" cType="1" res="1.9743089377880096e-01" rms="4.4331383705139160e-01" purity="7.2395980358123779e-01" nType="0">
              <Node pos="l" depth="4" NCoef="0" IVar="-1" Cut="0.0000000000000000e+00" cType="1" res="3.0377887189388275e-02" rms="4.6976134181022644e-01" purity="6.5771079063415527e-01" nType="-99"/>
              <Node pos="r" depth="4" NCoef="0" IVar="-1" Cut="0.0000000000000000e+00" cType="1" res="6.1375059187412262e-02" rms="3.8979473710060120e-01" purity="8.1144970655441284e-01" nType="-99"/>
            </Node>
          </Node>
        </Node>
        <Node pos="r" depth="1" NCoef="0" IVar="2" Cut="1.6309695243835449e+00" cType="1" res="0.0000000000000000e+00" rms="0.0000000000000000e+00" purity="2.1750873327255249e-01" nType="0">
          <Node pos="l" depth="2" NCoef="0" IVar="-1" Cut="0.0000000000000000e+00" cType="1" res="-8.1839181482791901e-02" rms="3.2542172074317932e-01" purity="1.2887747585773468e-01" nType="-99"/>
          <Node pos="r" depth="2" NCoef="0" IVar="-1" Cut="0.0000000000000000e+00" cType="1" res="-2.5529110804200172e-02" rms="4.4610977172851562e-01" purity="2.9355651140213013e-01" nType="-99"/>
        </Node>
      </Node>
    </BinaryTree>
    <BinaryTree type="DecisionTree" boostWeight="1.0000000000000000e+00" itree="3">
      <Node pos="s" depth="0" NCoef="0" IVar="0" Cut="3.4394775000000000e+05" cType="1" res="7.7534564770758152e-03" rms="4.7981882095336914e-01" purity="5.0656026601791382e-01" nType="0">
        <Node pos="l" depth="1" NCoef="0" IVar="2" Cut="1.2978549003601074e+00" cType="1" res="5.0077665597200394e-02" rms="4.8210966587066650e-01" purity="5.5871748924255371e-01" nType="0">
          <Node pos="l" depth="2" NCoef="0" IVar="7" Cut="2.5546849060058594e+02" cType="1" res="-8.0909967422485352e-02" rms="4.7204890847206116e-01" purity="4.0148973464965820e-01" nType="0">
            <Node pos="l" depth="3" NCoef="0" IVar="-1" Cut="0.0000000000000000e+00" cType="1" res="-5.0774253904819489e-02" rms="4.3307709693908691e-01" purity="2.7359047532081604e-01" nType="-99"/>
            <Node pos="r" depth="3" NCoef="0" IVar="-1" Cut="0.0000000000000000e+00" cType="1" res="9.0469438582658768e-03" rms="4.8553478717803955e-01" purity="5.4011774063110352e-01" nType="-99"/>
          </Node>
          <Node pos="r" depth="2" NCoef="0" IVar="7" Cut="2.3496734619140625e+02" cType="1" res="1.0015442222356796e-01" rms="4.7647932171821594e-01" purity="6.1882585287094116e-01" nType="0">
            <Node pos="l" depth="3" NCoef="0" IVar="3" Cut="7.2234648437500000e+04" cType="1" res="2.2942340001463890e-02" rms="4.9423608183860779e-01" purity="5.2137696743011475e-01" nType="0">
              <Node pos="l" depth="4" NCoef="0" IVar="-1" Cut="0.0000000000000000e+00" cType="1" res="-9.5780985429883003e-03" rms="4.9160188436508179e-01" purity="4.5389673113822937e-01" nType="-99"/>
              <Node pos="r" depth="4" NCoef="0" IVar="-1" Cut="0.0000000000000000e+00" cType="1" res="1.1510497890412807e-02" rms="4.8916861414909363e-01" purity="5.8079940080642700e-01" nType="-99"/>
            </Node>
            <Node pos="r" depth="3" NCoef="0" IVar="5" Cut="2.0238720703125000e+02" cType="1" res="1.6816002130508423e-01" rms="4.4941675662994385e-01" purity="7.0465534925460815e-01" nType="0">
              <Node pos="l" depth="4" NCoef="0" IVar="-1" Cut="0.0000000000000000e+00" cType="1" res="3.9311476051807404e-02" rms="4.3141710758209229e-01" purity="7.4352669715881348e-01" nType="-99"/>
              <Node pos="r" depth="4" NCoef="0" IVar="-1" Cut="0.0000000000000000e+00" cType="1" res="1.8673857674002647e-02" rms="4.7138813138008118e-01" purity="6.3753890991210938e-01" nType="-99"/>
            </Node>
          </Node>
        </Node>
        <Node pos="r" depth="1" NCoef="0" IVar="-1" Cut="0.0000000000000000e+00" cType="1" res="-1.9198592752218246e-02" rms="3.3580279350280762e-01" purity="1.3838163018226624e-01" nType="-99"/>
      </Node>
    </BinaryTree>
    <BinaryTree type="DecisionTree" boostWeight="1.0000000000000000e+00" itree="4">
      <Node pos="s" depth="0" NCoef="0" IVar="7" Cut="2.0469363403320312e+02" cType="1" res="-6.8873044801875949e-04" rms="4.7611328959465027e-01" purity="4.9930348992347717e-01" nType="0">
        <Node pos="l" depth="1" NCoef="0" IVar="0" Cut="2.1324212500000000e+05" cType="1" res="-1.1270298063755035e-01" rms="4.5815059542655945e-01" purity="3.4493026137351990e-01" nType="0">
          <Node pos="l" depth="2" NCoef="0" IVar="-1" Cut="0.0000000000000000e+00" cType="1" res="-7.4020077590830624e-05" rms="4.9547570943832397e-01" purity="4.8743447661399841e-01" nType="-99"/>
          <Node pos="r" depth="2" NCoef="0" IVar="-1" Cut="0.0000000000000000e+00" cType="1" res="-5.2598819136619568e-02" rms="3.8216546177864075e-01" purity="1.9661611318588257e-01" nType="-99"/>
        </Node>
        <Node pos="r" depth="1" NCoef="0" IVar="6" Cut="5.4153990745544434e-01" cType="1" res="6.9820716977119446e-02" rms="4.7368541359901428e-01" purity="5.9647655487060547e-01" nType="0">
          <Node pos="l" depth="2" NCoef="0" IVar="-1" Cut="0.0000000000000000e+00" cType="1" res="-1.7723886296153069e-02" rms="4.8653626441955566e-01" purity="4.2222559452056885e-01" nType="-99"/>
          <Node pos="r" depth="2" NCoef="0" IVar="8" Cut="2.8378713130950928e+00" cType="1" res="0.0000000000000000e+00" rms="0.0000000000000000e+00" purity="6.6354423761367798e-01" nType="0">
            <Node pos="l" depth="3" NCoef="0" IVar="-1" Cut="0.0000000000000000e+00" cType="1" res="-8.8218254968523979e-03" rms="4.8469612002372742e-01" purity="4.8443984985351562e-01" nType="-99"/>
            <Node pos="r" depth="3" NCoef="0" IVar="7" Cut="3.0145410156250000e+02" cType="1" res="1.7892360687255859e-01" rms="4.3393167853355408e-01" purity="7.2212350368499756e-01" nType="0">
              <Node pos="l" depth="4" NCoef="0" IVar="-1" Cut="0.0000000000000000e+00" cType="1" res="3.0568424612283707e-02" rms="4.5915290713310242e-01" purity="6.5458130836486816e-01" nType="-99"/>
              <Node pos="r" depth="4" NCoef="0" IVar="-1" Cut="0.0000000000000000e+00" cType="1" res="4.9615770578384399e-02" rms="3.9559003710746765e-01" purity="7.9537963867187500e-01" nType="-99"/>
            </Node>
          </Node>
        </Node>
      </Node>
    </BinaryTree>
    <BinaryTree type="DecisionTree" boostWeight="1.0000000000000000e+00" itree="5">
      <Node pos="s" depth="0" NCoef="0" IVar="4" Cut="5.6126378906250000e+04" cType="1" res="0.0000000000000000e+00" rms="0.0000000000000000e+00" purity="4.9792176485061646e-01" nType="0">
        <Node pos="l" depth="1" NCoef="0" IVar="2" Cut="1.0208300352096558e+00" cType="1" res="-9.2187196016311646e-02" rms="4.5835837721824646e-01" purity="3.9020833373069763e-01" nType="0">
          <Node pos="l" depth="2" NCoef="0" IVar="-1" Cut="0.0000000000000000e+00" cType="1" res="-6.4571037888526917e-02" rms="3.2748097181320190e-01" purity="1.4491531252861023e-01" nType="-99"/>
          <Node pos="r" depth="2" NCoef="0" IVar="7" Cut="1.7939074707031250e+02" cType="1" res="-4.1020043194293976e-02" rms="4.7650218009948730e-01" purity="4.5912948250770569e-01" nType="0">
            <Node pos="l" depth="3" NCoef="0" IVar="-1" Cut="0.0000000000000000e+00" cType="1" res="-2.9289577156305313e-02" rms="4.6079418063163757e-01" purity="3.3716464042663574e-01" nType="-99"/>
            <Node pos="r" depth="3" NCoef="0" IVar="1" Cut="-4.4817209243774414e-01" cType="1" res="5.0330581143498421e-03" rms="4.7987794876098633e-01" purity="5.3260678052902222e-01" nType="0">
              <Node pos="l" depth="4" NCoef="0" IVar="-1" Cut="0.0000000000000000e+00" cType="1" res="-4.0112640708684921e-03" rms="4.7751879692077637e-01" purity="4.5002698898315430e-01" nType="-99"/>
              <Node pos="r" depth="4" NCoef="0" IVar="-1" Cut="0.0000000000000000e+00" cType="1" res="1.7021134495735168e-02" rms="4.7242018580436707e-01" purity="6.0080337524414062e-01" nType="-99"/>
            </Node>
          </Node>
        </Node>
        <Node pos="r" depth="1" NCoef="0" IVar="6" Cut="5.9643942117691040e-01" cType="1" res="8.2503877580165863e-02" rms="4.6750250458717346e-01" purity="5.9720003604888916e-01" nType="0">
          <Node pos="l" depth="2" NCoef="0" IVar="4" Cut="8.4138859375000000e+04" cType="1" res="0.0000000000000000e+00" rms="0.0000000000000000e+00" purity="5.0895327329635620e-01" nType="0">
            <Node pos="l" depth="3" NCoef="0" IVar="-1" Cut="0.0000000000000000e+00" cType="1" res="-1.3177548535168171e-02" rms="4.8027044534683228e-01" purity="4.4201970100402832e-01" nType="-99"/>
            <Node pos="r" depth="3" NCoef="0" IVar="-1" Cut="0.0000000000000000e+00" cType="1" res="1.8938984721899033e-02" rms="4.8231881856918335e-01" purity="5.7398593425750732e-01" nType="-99"/>
          </Node>
          <Node pos="r" depth="2" NCoef="0" IVar="7" Cut="2.4895439147949219e+02" cType="1" res="1.4244504272937775e-01" rms="4.4249030947685242e-01" purity="6.7198878526687622e-01" nType="0">
            <Node pos="l" depth="3" NCoef="0" IVar="-1" Cut="0.0000000000000000e+00" cType="1" res="1.2517727911472321e-02" rms="4.7465568780899048e-01" purity="5.4596298933029175e-01" nType="-99"/>
            <Node pos="r" depth="3" NCoef="0" IVar="-1" Cut="0.0000000000000000e+00" cType="1" res="3.9665609598159790e-02" rms="3.9902231097221375e-01" purity="7.8531277179718018e-01" nType="-99"/>
          </Node>
        </Node>
      </Node>
    </BinaryTree>
    <BinaryTree type="DecisionTree" boostWeight="1.0000000000000000e+00" itree="6">
      <Node pos="s" depth="0" NCoef="0" IVar="0" Cut="3.4395631250000000e+05" cType="1" res="3.4999500494450331e-03" rms="4.6878084540367126e-01" purity="5.0307220220565796e-01" nType="0">
        <Node pos="l" depth="1" NCoef="0" IVar="4" Cut="4.6840890625000000e+04" cType="1" res="4.0387023240327835e-02" rms="4.7251290082931519e-01" purity="5.5260288715362549e-01" nType="0">
          <Node pos="l" depth="2" NCoef="0" IVar="4" Cut="3.5491074218750000e+04" cType="1" res="0.0000000000000000e+00" rms="0.0000000000000000e+00" purity="4.2065328359603882e-01" nType="0">
            <Node pos="l" depth="3" NCoef="0" IVar="-1" Cut="0.0000000000000000e+00" cType="1" res="-2.2457219660282135e-02" rms="4.4940170645713806e-01" purity="3.5312253236770630e-01" nType="-99"/>
            <Node pos="r" depth="3" NCoef="0" IVar="-1" Cut="0.0000000000000000e+00" cType="1" res="-5.6080133654177189e-03" rms="4.7696965932846069e-01" purity="4.6322435140609741e-01" nType="-99"/>
          </Node>
          <Node pos="r" depth="2" NCoef="0" IVar="6" Cut="5.1083642244338989e-01" cType="1" res="9.0538397431373596e-02" rms="4.6624159812927246e-01" purity="6.1714220046997070e-01" nType="0">
            <Node pos="l" depth="3" NCoef="0" IVar="-1" Cut="0.0000000000000000e+00" cType="1" res="-1.1463645845651627e-02" rms="4.9117666482925415e-01" purity="4.3009284138679504e-01" nType="-99"/>
            <Node pos="r" depth="3" NCoef="0" IVar="7" Cut="3.5008044433593750e+02" cType="1" res="1.2472713738679886e-01" rms="4.5346078276634216e-01" purity="6.6120362281799316e-01" nType="0">
              <Node pos="l" depth="4" NCoef="0" IVar="-1" Cut="0.0000000000000000e+00" cType="1" res="2.1615287289023399e-02" rms="4.6804544329643250e-01" purity="6.1389672756195068e-01" nType="-99"/>
              <Node pos="r" depth="4" NCoef="0" IVar="-1" Cut="0.0000000000000000e+00" cType="1" res="5.1571018993854523e-02" rms="3.8849708437919617e-01" purity="8.0548769235610962e-01" nType="-99"/>
            </Node>
          </Node>
        </Node>
        <Node pos="r" depth="1" NCoef="0" IVar="-1" Cut="0.0000000000000000e+00" cType="1" res="-1.8053302541375160e-02" rms="3.3369475603103638e-01" purity="1.4086435735225677e-01" nType="-99"/>
      </Node>
    </BinaryTree>
    <BinaryTree type="DecisionTree" boostWeight="1.0000000000000000e+00" itree="7">
      <Node pos="s" depth="0" NCoef="0" IVar="7" Cut="2.0588569641113281e+02" cType="1" res="-7.7008460648357868e-03" rms="4.6556827425956726e-01" purity="4.9539291858673096e-01" nType="0">
        <Node pos="l" depth="1" NCoef="0" IVar="0" Cut="2.6670756250000000e+05" cType="1" res="-9.7310826182365417e-02" rms="4.5022749900817871e-01" purity="3.4282636642456055e-01" nType="0">
          <Node pos="l" depth="2" NCoef="0" IVar="2" Cut="1.7750409841537476e+00" cType="1" res="-3.3555120229721069e-02" rms="4.8428806662559509e-01" purity="4.3936908245086670e-01" nType="0">
            <Node pos="l" depth="3" NCoef="0" IVar="-1" Cut="0.0000000000000000e+00" cType="1" res="-2.2770022973418236e-02" rms="4.5477524399757385e-01" purity="3.1580981612205505e-01" nType="-99"/>
            <Node pos="r" depth="3" NCoef="0" IVar="-1" Cut="0.0000000000000000e+00" cType="1" res="4.8468685708940029e-03" rms="4.9341639876365662e-01" purity="5.2564620971679688e-01" nType="-99"/>
          </Node>
          <Node pos="r" depth="2" NCoef="0" IVar="-1" Cut="0.0000000000000000e+00" cType="1" res="-6.9242119789123535e-02" rms="3.0594268441200256e-01" purity="1.1192090064287186e-01" nType="-99"/>
        </Node>
        <Node pos="r" depth="1" NCoef="0" IVar="2" Cut="1.1200073957443237e+00" cType="1" res="5.1932502537965775e-02" rms="4.6605068445205688e-01" purity="5.9692233800888062e-01" nType="0">
          <Node pos="l" depth="2" NCoef="0" IVar="-1" Cut="0.0000000000000000e+00" cType="1" res="-1.3952300883829594e-02" rms="4.6372908353805542e-01" purity="4.4170835614204407e-01" nType="-99"/>
          <Node pos="r" depth="2" NCoef="0" IVar="6" Cut="5.4153990745544434e-01" cType="1" res="8.5599213838577271e-02" rms="4.6183118224143982e-01" purity="6.4741814136505127e-01" nType="0">
            <Node pos="l" depth="3" NCoef="0" IVar="-1" Cut="0.0000000000000000e+00" cType="1" res="-2.5970565620809793e-03" rms="4.9453547596931458e-01" purity="4.8957532644271851e-01" nType="-99"/>
            <Node pos="r" depth="3" NCoef="0" IVar="8" Cut="2.9203326702117920e+00" cType="1" res="1.2043686211109161e-01" rms="4.4443550705909729e-01" purity="7.0366531610488892e-01" nType="0">
              <Node pos="l" depth="4" NCoef="0" IVar="-1" Cut="0.0000000000000000e+00" cType="1" res="1.2931326404213905e-02" rms="4.7433024644851685e-01" purity="6.1636334657669067e-01" nType="-99"/>
              <Node pos="r" depth="4" NCoef="0" IVar="-1" Cut="0.0000000000000000e+00" cType="1" res="3.4758239984512329e-02" rms="4.2550903558731079e-01" purity="7.4560433626174927e-01" nType="-99"/>
            </Node>
          </Node>
        </Node>
      </Node>
    </BinaryTree>
    <BinaryTree type="DecisionTree" boostWeight="1.0000000000000000e+00" itree="8">
      <Node pos="s" depth="0" NCoef="0" IVar="0" Cut="3.4394775000000000e+05" cType="1" res="4.7412752173841000e-03" rms="4.6126377582550049e-01" purity="5.0620257854461670e-01" nType="0">
        <Node pos="l" depth="1" NCoef="0" IVar="4" Cut="4.6840890625000000e+04" cType="1" res="3.4196212887763977e-02" rms="4.6677184104919434e-01" purity="5.5246978998184204e-01" nType="0">
          <Node pos="l" depth="2" NCoef="0" IVar="2" Cut="1.6707619428634644e+00" cType="1" res="0.0000000000000000e+00" rms="0.0000000000000000e+00" purity="4.0231615304946899e-01" nType="0">
            <Node pos="l" depth="3" NCoef="0" IVar="-1" Cut="0.0000000000000000e+00" cType="1" res="-3.1506184488534927e-02" rms="4.1515779495239258e-01" purity="2.6215147972106934e-01" nType="-99"/>
            <Node pos="r" depth="3" NCoef="0" IVar="-1" Cut="0.0000000000000000e+00" cType="1" res="-1.3162376126274467e-03" rms="4.8185554146766663e-01" purity="5.0748395919799805e-01" nType="-99"/>
          </Node>
          <Node pos="r" depth="2" NCoef="0" IVar="5" Cut="2.0091436767578125e+02" cType="1" res="8.5497632622718811e-02" rms="4.6034222841262817e-01" purity="6.2303954362869263e-01" nType="0">
            <Node pos="l" depth="3" NCoef="0" IVar="4" Cut="6.8547632812500000e+04" cType="1" res="1.2650664150714874e-01" rms="4.4635221362113953e-01" purity="6.6876024007797241e-01" nType="0">
              <Node pos="l" depth="4" NCoef="0" IVar="-1" Cut="0.0000000000000000e+00" cType="1" res="1.7745463177561760e-02" rms="4.6643868088722229e-01" purity="5.9291535615921021e-01" nType="-99"/>
              <Node pos="r" depth="4" NCoef="0" IVar="-1" Cut="0.0000000000000000e+00" cType="1" res="3.5229068249464035e-02" rms="4.1559413075447083e-01" purity="7.4545317888259888e-01" nType="-99"/>
            </Node>
            <Node pos="r" depth="3" NCoef="0" IVar="2" Cut="1.9588737487792969e+00" cType="1" res="2.4659547954797745e-02" rms="4.7385317087173462e-01" purity="5.5521148443222046e-01" nType="0">
              <Node pos="l" depth="4" NCoef="0" IVar="-1" Cut="0.0000000000000000e+00" cType="1" res="-1.7337860539555550e-02" rms="4.7247940301895142e-01" purity="4.4882187247276306e-01" nType="-99"/>
              <Node pos="r" depth="4" NCoef="0" IVar="-1" Cut="0.0000000000000000e+00" cType="1" res="1.7872020602226257e-02" rms="4.6045255661010742e-01" purity="6.5373343229293823e-01" nType="-99"/>
            </Node>
          </Node>
        </Node>
        <Node pos="r" depth="1" NCoef="0" IVar="-1" Cut="0.0000000000000000e+00" cType="1" res="-4.8020198941230774e-02" rms="3.4777995944023132e-01" purity="1.6368447244167328e-01" nType="-99"/>
      </Node>
    </BinaryTree>
    <BinaryTree type="DecisionTree" boostWeight="1.0000000000000000e+00" itree="9">
      <Node pos="s" depth="0" NCoef="0" IVar="0" Cut="3.4396384375000000e+05" cType="1" res="-7.9701030626893044e-03" rms="4.5974457263946533e-01" purity="4.9503782391548157e-01" nType="0">
        <Node pos="l" depth="1" NCoef="0" IVar="4" Cut="6.8564039062500000e+04" cType="1" res="0.0000000000000000e+00" rms="0.0000000000000000e+00" purity="5.4222679138183594e-01" nType="0">
          <Node pos="l" depth="2" NCoef="0" IVar="0" Cut="2.3728548437500000e+05" cType="1" res="-1.9774187356233597e-02" rms="4.7084662318229675e-01" purity="4.8144540190696716e-01" nType="0">
            <Node pos="l" depth="3" NCoef="0" IVar="6" Cut="5.9759157896041870e-01" cType="1" res="1.1046417988836765e-02" rms="4.7986918687820435e-01" purity="5.3348946571350098e-01" nType="0">
              <Node pos="l" depth="4" NCoef="0" IVar="-1" Cut="0.0000000000000000e+00" cType="1" res="-1.6238007694482803e-02" rms="4.8337474465370178e-01" purity="4.2310866713523865e-01" nType="-99"/>
              <Node pos="r" depth="4" NCoef="0" IVar="-1" Cut="0.0000000000000000e+00" cType="1" res="1.0365399532020092e-02" rms="4.7382363677024841e-01" purity="5.7249742746353149e-01" nType="-99"/>
            </Node>
            <Node pos="r" depth="3" NCoef="0" IVar="-1" Cut="0.0000000000000000e+00" cType="1" res="-3.6413021385669708e-02" rms="4.2058435082435608e-01" purity="2.9986539483070374e-01" nType="-99"/>
          </Node>
          <Node pos="r" depth="2" NCoef="0" IVar="6" Cut="5.6516027450561523e-01" cType="1" res="8.9195534586906433e-02" rms="4.5208719372749329e-01" purity="6.5158736705780029e-01" nType="0">
            <Node pos="l" depth="3" NCoef="0" IVar="-1" Cut="0.0000000000000000e+00" cType="1" res="2.1198962349444628e-03" rms="4.8708757758140564e-01" purity="5.2518939971923828e-01" nType="-99"/>
            <Node pos="r" depth="3" NCoef="0" IVar="-1" Cut="0.0000000000000000e+00" cType="1" res="2.9099501669406891e-02" rms="4.1547548770904541e-01" purity="7.4321335554122925e-01" nType="-99"/>
          </Node>
        </Node>
        <Node pos="r" depth="1" NCoef="0" IVar="-1" Cut="0.0000000000000000e+00" cType="1" res="-4.9115274101495743e-02" rms="3.4496104717254639e-01" purity="1.5671834349632263e-01" nType="-99"/>
      </Node>
    </BinaryTree>
    <BinaryTree type="DecisionTree" boostWeight="1.0000000000000000e+00" itree="10">
      <Node pos="s" depth="0" NCoef="0" IVar="0" Cut="3.4395631250000000e+05" cType="1" res="-2.5722919963300228e-03" rms="4.5595899224281311e-01" purity="4.9650320410728455e-01" nType="0">
        <Node pos="l" depth="1" NCoef="0" IVar="7" Cut="1.5914988708496094e+02" cType="1" res="2.9303511604666710e-02" rms="4.6411034464836121e-01" purity="5.5189454555511475e-01" nType="0">
          <Node pos="l" depth="2" NCoef="0" IVar="-1" Cut="0.0000000000000000e+00" cType="1" res="-1.6742557287216187e-02" rms="4.4944131374359131e-01" purity="3.2865604758262634e-01" nType="-99"/>
          <Node pos="r" depth="2" NCoef="0" IVar="8" Cut="2.9369418621063232e+00" cType="1" res="0.0000000000000000e+00" rms="0.0000000000000000e+00" purity="6.1467236280441284e-01" nType="0">
            <Node pos="l" depth="3" NCoef="0" IVar="4" Cut="7.1787312500000000e+04" cType="1" res="8.8475784286856651e-03" rms="4.7632455825805664e-01" purity="5.3347790241241455e-01" nType="0">
              <Node pos="l" depth="4" NCoef="0" IVar="-1" Cut="0.0000000000000000e+00" cType="1" res="-1.0766124352812767e-02" rms="4.7554516792297363e-01" purity="4.6020734310150146e-01" nType="-99"/>
              <Node pos="r" depth="4" NCoef="0" IVar="-1" Cut="0.0000000000000000e+00" cType="1" res="1.9535252824425697e-02" rms="4.6257647871971130e-01" purity="6.5409141778945923e-01" nType="-99"/>
            </Node>
            <Node pos="r" depth="3" NCoef="0" IVar="6" Cut="6.2179535627365112e-01" cType="1" res="0.0000000000000000e+00" rms="0.0000000000000000e+00" purity="6.7635196447372437e-01" nType="0">
              <Node pos="l" depth="4" NCoef="0" IVar="-1" Cut="0.0000000000000000e+00" cType="1" res="9.1575291007757187e-03" rms="4.7206076979637146e-01" purity="5.9062707424163818e-01" nType="-99"/>
              <Node pos="r" depth="4" NCoef="0" IVar="-1" Cut="0.0000000000000000e+00" cType="1" res="3.5349659621715546e-02" rms="4.1956856846809387e-01" purity="7.3369854688644409e-01" nType="-99"/>
            </Node>
          </Node>
        </Node>
        <Node pos="r" depth="1" NCoef="0" IVar="-1" Cut="0.0000000000000000e+00" cType="1" res="-8.6623318493366241e-03" rms="3.2759019732475281e-01" purity="1.3062076270580292e-01" nType="-99"/>
      </Node>
    </BinaryTree>
    <BinaryTree type="DecisionTree" boostWeight="1.0000000000000000e+00" itree="11">
      <Node pos="s" depth="0" NCoef="0" IVar="7" Cut="3.0507104492187500e+02" cType="1" res="0.0000000000000000e+00" rms="0.0000000000000000e+00" purity="5.0942379236221313e-01" nType="0">
        <Node pos="l" depth="1" NCoef="0" IVar="0" Cut="2.6666790625000000e+05" cType="1" res="-3.6546926945447922e-02" rms="4.5460751652717590e-01" purity="4.3866145610809326e-01" nType="0">
          <Node pos="l" depth="2" NCoef="0" IVar="2" Cut="1.7168993949890137e+00" cType="1" res="1.1438257992267609e-02" rms="4.7542887926101685e-01" purity="5.3217852115631104e-01" nType="0">
            <Node pos="l" depth="3" NCoef="0" IVar="2" Cut="1.1241964101791382e+00" cType="1" res="-5.4024700075387955e-02" rms="4.6322655677795410e-01" purity="4.2998245358467102e-01" nType="0">
              <Node pos="l" depth="4" NCoef="0" IVar="-1" Cut="0.0000000000000000e+00" cType="1" res="-2.3604175075888634e-02" rms="4.4896677136421204e-01" purity="3.5642662644386292e-01" nType="-99"/>
              <Node pos="r" depth="4" NCoef="0" IVar="-1" Cut="0.0000000000000000e+00" cType="1" res="-3.5549132153391838e-03" rms="4.7337406873703003e-01" purity="4.9947008490562439e-01" nType="-99"/>
            </Node>
            <Node pos="r" depth="3" NCoef="0" IVar="9" Cut="3.0000000000000000e+00" cType="1" res="2.5359604042023420e-03" rms="3.0693021416664124e-01" purity="6.0099369287490845e-01" nType="0">
              <Node pos="l" depth="4" NCoef="0" IVar="-1" Cut="0.0000000000000000e+00" cType="1" res="-1.2434503878466785e-04" rms="4.8560780286788940e-01" purity="5.3776037693023682e-01" nType="-99"/>
              <Node pos="r" depth="4" NCoef="0" IVar="-1" Cut="0.0000000000000000e+00" cType="1" res="2.6159271597862244e-02" rms="4.5864570140838623e-01" purity="6.8380725383758545e-01" nType="-99"/>
            </Node>
          </Node>
          <Node pos="r" depth="2" NCoef="0" IVar="-1" Cut="0.0000000000000000e+00" cType="1" res="-1.4553370885550976e-02" rms="3.5301956534385681e-01" purity="1.6787432134151459e-01" nType="-99"/>
        </Node>
        <Node pos="r" depth="1" NCoef="0" IVar="6" Cut="5.6862992048263550e-01" cType="1" res="9.3874059617519379e-02" rms="4.3765410780906677e-01" purity="6.6519296169281006e-01" nType="0">
          <Node pos="l" depth="2" NCoef="0" IVar="-1" Cut="0.0000000000000000e+00" cType="1" res="-1.5428083133883774e-04" rms="4.8387265205383301e-01" purity="5.0643217563629150e-01" nType="-99"/>
          <Node pos="r" depth="2" NCoef="0" IVar="-1" Cut="0.0000000000000000e+00" cType="1" res="3.1468532979488373e-02" rms="3.8958534598350525e-01" purity="7.7469098567962646e-01" nType="-99"/>
        </Node>
      </Node>
    </BinaryTree>
    <BinaryTree type="DecisionTree" boostWeight="1.0000000000000000e+00" itree="12">
      <Node pos="s" depth="0" NCoef="0" IVar="7" Cut="1.9582687377929688e+02" cType="1" res="-2.6871960144490004e-03" rms="4.5191156864166260e-01" purity="5.0237649679183960e-01" nType="0">
        <Node pos="l" depth="1" NCoef="0" IVar="2" Cut="1.7114489078521729e+00" cType="1" res="0.0000000000000000e+00" rms="0.0000000000000000e+00" purity="3.2105749845504761e-01" nType="0">
          <Node pos="l" depth="2" NCoef="0" IVar="-1" Cut="0.0000000000000000e+00" cType="1" res="-3.3040057867765427e-02" rms="3.7556210160255432e-01" purity="1.9913075864315033e-01" nType="-99"/>
          <Node pos="r" depth="2" NCoef="0" IVar="-1" Cut="0.0000000000000000e+00" cType="1" res="-8.5408790037035942e-03" rms="4.6916827559471130e-01" purity="4.2075693607330322e-01" nType="-99"/>
        </Node>
        <Node pos="r" depth="1" NCoef="0" IVar="5" Cut="1.9036524963378906e+02" cType="1" res="0.0000000000000000e+00" rms="0.0000000000000000e+00" purity="6.0232347249984741e-01" nType="0">
          <Node pos="l" depth="2" NCoef="0" IVar="4" Cut="4.9073042968750000e+04" cType="1" res="8.7727412581443787e-02" rms="4.4029572606086731e-01" purity="6.5416997671127319e-01" nType="0">
            <Node pos="l" depth="3" NCoef="0" IVar="-1" Cut="0.0000000000000000e+00" cType="1" res="-4.2778826318681240e-03" rms="4.5685669779777527e-01" purity="5.0670963525772095e-01" nType="-99"/>
            <Node pos="r" depth="3" NCoef="0" IVar="8" Cut="2.9526612758636475e+00" cType="1" res="1.3440822064876556e-01" rms="4.2445960640907288e-01" purity="7.2004473209381104e-01" nType="0">
              <Node pos="l" depth="4" NCoef="0" IVar="-1" Cut="0.0000000000000000e+00" cType="1" res="2.2157534956932068e-02" rms="4.5752081274986267e-01" purity="6.4655756950378418e-01" nType="-99"/>
              <Node pos="r" depth="4" NCoef="0" IVar="-1" Cut="0.0000000000000000e+00" cType="1" res="3.8674864917993546e-02" rms="3.9181917905807495e-01" purity="7.8022837638854980e-01" nType="-99"/>
            </Node>
          </Node>
          <Node pos="r" depth="2" NCoef="0" IVar="6" Cut="6.2603485584259033e-01" cType="1" res="-6.8485341034829617e-03" rms="4.6645170450210571e-01" purity="5.3782504796981812e-01" nType="0">
            <Node pos="l" depth="3" NCoef="0" IVar="-1" Cut="0.0000000000000000e+00" cType="1" res="-1.4784175902605057e-02" rms="4.7666335105895996e-01" purity="4.5197707414627075e-01" nType="-99"/>
            <Node pos="r" depth="3" NCoef="0" IVar="-1" Cut="0.0000000000000000e+00" cType="1" res="1.4109496027231216e-02" rms="4.4391602277755737e-01" purity="6.4789414405822754e-01" nType="-99"/>
          </Node>
        </Node>
      </Node>
    </BinaryTree>
    <BinaryTree type="DecisionTree" boostWeight="1.0000000000000000e+00" itree="13">
      <Node pos="s" depth="0" NCoef="0" IVar="4" Cut="5.4575234375000000e+04" cType="1" res="3.3281750511378050e-03" rms="4.5279923081398010e-01" purity="5.0941693782806396e-01" nType="0">
        <Node pos="l" depth="1" NCoef="0" IVar="0" Cut="2.7891381250000000e+05" cType="1" res="-5.3616922348737717e-02" rms="4.4358223676681519e-01" purity="4.0377953648567200e-01" nType="0">
          <Node pos="l" depth="2" NCoef="0" IVar="2" Cut="1.7226135730743408e+00" cType="1" res="-6.6378582268953323e-03" rms="4.7114080190658569e-01" purity="4.9494132399559021e-01" nType="0">
            <Node pos="l" depth="3" NCoef="0" IVar="-1" Cut="0.0000000000000000e+00" cType="1" res="-1.8812209367752075e-02" rms="4.5354673266410828e-01" purity="3.6395519971847534e-01" nType="-99"/>
            <Node pos="r" depth="3" NCoef="0" IVar="4" Cut="4.2013835937500000e+04" cType="1" res="4.3234329670667648e-02" rms="4.7567519545555115e-01" purity="5.8027255535125732e-01" nType="0">
              <Node pos="l" depth="4" NCoef="0" IVar="-1" Cut="0.0000000000000000e+00" cType="1" res="5.4253693670034409e-03" rms="4.7944843769073486e-01" purity="5.4829078912734985e-01" nType="-99"/>
              <Node pos="r" depth="4" NCoef="0" IVar="-1" Cut="0.0000000000000000e+00" cType="1" res="1.4348151162266731e-02" rms="4.7147983312606812e-01" purity="6.1093574762344360e-01" nType="-99"/>
            </Node>
          </Node>
          <Node pos="r" depth="2" NCoef="0" IVar="-1" Cut="0.0000000000000000e+00" cType="1" res="-6.0906406491994858e-02" rms="2.9183050990104675e-01" purity="1.0927777737379074e-01" nType="-99"/>
        </Node>
        <Node pos="r" depth="1" NCoef="0" IVar="6" Cut="5.1089572906494141e-01" cType="1" res="5.2400447428226471e-02" rms="4.5491132140159607e-01" purity="6.0044962167739868e-01" nType="0">
          <Node pos="l" depth="2" NCoef="0" IVar="-1" Cut="0.0000000000000000e+00" cType="1" res="-5.2041057497262955e-03" rms="4.9211320281028748e-01" purity="4.3993282318115234e-01" nType="-99"/>
          <Node pos="r" depth="2" NCoef="0" IVar="2" Cut="1.4651534557342529e+00" cType="1" res="7.6384484767913818e-02" rms="4.4087457656860352e-01" purity="6.4585089683532715e-01" nType="0">
            <Node pos="l" depth="3" NCoef="0" IVar="-1" Cut="0.0000000000000000e+00" cType="1" res="3.8922284729778767e-03" rms="4.4652929902076721e-01" purity="5.3781384229660034e-01" nType="-99"/>
            <Node pos="r" depth="3" NCoef="0" IVar="4" Cut="7.5537656250000000e+04" cType="1" res="0.0000000000000000e+00" rms="0.0000000000000000e+00" purity="7.0195651054382324e-01" nType="0">
              <Node pos="l" depth="4" NCoef="0" IVar="-1" Cut="0.0000000000000000e+00" cType="1" res="2.1455766633152962e-02" rms="4.5036762952804565e-01" purity="6.6170001029968262e-01" nType="-99"/>
              <Node pos="r" depth="4" NCoef="0" IVar="-1" Cut="0.0000000000000000e+00" cType="1" res="2.4805249646306038e-02" rms="4.1323488950729370e-01" purity="7.4852091073989868e-01" nType="-99"/>
            </Node>
          </Node>
        </Node>
      </Node>
    </BinaryTree>
    <BinaryTree type="DecisionTree" boostWeight="1.0000000000000000e+00" itree="14">
      <Node pos="s" depth="0" NCoef="0" IVar="3" Cut="6.2526652343750000e+04" cType="1" res="-1.1999812908470631e-02" rms="4.5023056864738464e-01" purity="4.9187141656875610e-01" nType="0">
        <Node pos="l" depth="1" NCoef="0" IVar="2" Cut="1.8630293607711792e+00" cType="1" res="-8.5377834737300873e-02" rms="4.3142113089561462e-01" purity="3.5265973210334778e-01" nType="0">
          <Node pos="l" depth="2" NCoef="0" IVar="-1" Cut="0.0000000000000000e+00" cType="1" res="-2.5647114962339401e-02" rms="3.7504753470420837e-01" purity="2.1798045933246613e-01" nType="-99"/>
          <Node pos="r" depth="2" NCoef="0" IVar="-1" Cut="0.0000000000000000e+00" cType="1" res="-2.8522685170173645e-03" rms="4.7035369277000427e-01" purity="4.8852574825286865e-01" nType="-99"/>
        </Node>
        <Node pos="r" depth="1" NCoef="0" IVar="7" Cut="2.0758033752441406e+02" cType="1" res="1.4996816404163837e-02" rms="4.5398128032684326e-01" purity="5.4308903217315674e-01" nType="0">
          <Node pos="l" depth="2" NCoef="0" IVar="7" Cut="1.5124415588378906e+02" cType="1" res="-4.7806885093450546e-02" rms="4.4993487000465393e-01" purity="3.8452696800231934e-01" nType="0">
            <Node pos="l" depth="3" NCoef="0" IVar="-1" Cut="0.0000000000000000e+00" cType="1" res="-2.6648305356502533e-02" rms="4.1765618324279785e-01" purity="3.0164727568626404e-01" nType="-99"/>
            <Node pos="r" depth="3" NCoef="0" IVar="-1" Cut="0.0000000000000000e+00" cType="1" res="-8.7890372378751636e-04" rms="4.7305887937545776e-01" purity="4.5939704775810242e-01" nType="-99"/>
          </Node>
          <Node pos="r" depth="2" NCoef="0" IVar="8" Cut="2.9001975059509277e+00" cType="1" res="4.5071836560964584e-02" rms="4.5283243060112000e-01" purity="6.1902016401290894e-01" nType="0">
            <Node pos="l" depth="3" NCoef="0" IVar="-1" Cut="0.0000000000000000e+00" cType="1" res="-7.8448583371937275e-04" rms="4.7257974743843079e-01" purity="5.2759408950805664e-01" nType="-99"/>
            <Node pos="r" depth="3" NCoef="0" IVar="6" Cut="6.2486076354980469e-01" cType="1" res="7.9174749553203583e-02" rms="4.3526312708854675e-01" purity="6.8294185400009155e-01" nType="0">
              <Node pos="l" depth="4" NCoef="0" IVar="-1" Cut="0.0000000000000000e+00" cType="1" res="3.1037381850183010e-03" rms="4.7012212872505188e-01" purity="5.7868188619613647e-01" nType="-99"/>
              <Node pos="r" depth="4" NCoef="0" IVar="-1" Cut="0.0000000000000000e+00" cType="1" res="3.3598456531763077e-02" rms="3.8397568464279175e-01" purity="7.9060828685760498e-01" nType="-99"/>
            </Node>
          </Node>
        </Node>
      </Node>
    </BinaryTree>
    <BinaryTree type="DecisionTree" boostWeight="1.0000000000000000e+00" itree="15">
      <Node pos="s" depth="0" NCoef="0" IVar="0" Cut="2.7378209375000000e+05" cType="1" res="-7.4411877430975437e-03" rms="4.4583824276924133e-01" purity="4.9532702565193176e-01" nType="0">
        <Node pos="l" depth="1" NCoef="0" IVar="4" Cut="4.6840890625000000e+04" cType="1" res="2.3763209581375122e-02" rms="4.6049544215202332e-01" purity="5.6920516490936279e-01" nType="0">
          <Node pos="l" depth="2" NCoef="0" IVar="0" Cut="1.8590381250000000e+05" cType="1" res="-4.6641629189252853e-02" rms="4.6273136138916016e-01" purity="4.2949521541595459e-01" nType="0">
            <Node pos="l" depth="3" NCoef="0" IVar="-1" Cut="0.0000000000000000e+00" cType="1" res="-7.5798705220222473e-03" rms="4.7062531113624573e-01" purity="4.5394581556320190e-01" nType="-99"/>
            <Node pos="r" depth="3" NCoef="0" IVar="-1" Cut="0.0000000000000000e+00" cType="1" res="-1.0481743142008781e-02" rms="4.5107704401016235e-01" purity="3.9505851268768311e-01" nType="-99"/>
          </Node>
          <Node pos="r" depth="2" NCoef="0" IVar="0" Cut="1.4198293750000000e+05" cType="1" res="5.6743718683719635e-02" rms="4.5571851730346680e-01" purity="6.3465106487274170e-01" nType="0">
            <Node pos="l" depth="3" NCoef="0" IVar="-1" Cut="0.0000000000000000e+00" cType="1" res="-2.1994872950017452e-03" rms="4.7822326421737671e-01" purity="5.6105601787567139e-01" nType="-99"/>
            <Node pos="r" depth="3" NCoef="0" IVar="9" Cut="3.0000000000000000e+00" cType="1" res="4.9533855170011520e-02" rms="3.0807912349700928e-01" purity="6.5743976831436157e-01" nType="0">
              <Node pos="l" depth="4" NCoef="0" IVar="-1" Cut="0.0000000000000000e+00" cType="1" res="4.3302862904965878e-03" rms="4.6432331204414368e-01" purity="5.6899446249008179e-01" nType="-99"/>
              <Node pos="r" depth="4" NCoef="0" IVar="-1" Cut="0.0000000000000000e+00" cType="1" res="2.5885304436087608e-02" rms="4.3187108635902405e-01" purity="7.1119284629821777e-01" nType="-99"/>
            </Node>
          </Node>
        </Node>
        <Node pos="r" depth="1" NCoef="0" IVar="2" Cut="1.6422753334045410e+00" cType="1" res="-1.1899002641439438e-01" rms="3.6791217327117920e-01" purity="2.3122897744178772e-01" nType="0">
          <Node pos="l" depth="2" NCoef="0" IVar="-1" Cut="0.0000000000000000e+00" cType="1" res="-5.6309632956981659e-02" rms="2.9193195700645447e-01" purity="1.3039530813694000e-01" nType="-99"/>
          <Node pos="r" depth="2" NCoef="0" IVar="-1" Cut="0.0000000000000000e+00" cType="1" res="-1.7013797536492348e-02" rms="4.2889362573623657e-01" purity="3.3674654364585876e-01" nType="-99"/>
        </Node>
      </Node>
    </BinaryTree>
    <BinaryTree type="DecisionTree" boostWeight="1.0000000000000000e+00" itree="16">
      <Node pos="s" depth="0" NCoef="0" IVar="7" Cut="3.0507104492187500e+02" cType="1" res="0.0000000000000000e+00" rms="0.0000000000000000e+00" purity="5.0074416399002075e-01" nType="0">
        <Node pos="l" depth="1" NCoef="0" IVar="0" Cut="2.7376578125000000e+05" cType="1" res="-2.8835942968726158e-02" rms="4.4620880484580994e-01" purity="4.3346133828163147e-01" nType="0">
          <Node pos="l" depth="2" NCoef="0" IVar="5" Cut="2.1730276489257812e+02" cType="1" res="5.0504151731729507e-03" rms="4.7185164690017700e-01" purity="5.2182298898696899e-01" nType="0">
            <Node pos="l" depth="3" NCoef="0" IVar="8" Cut="2.9392683506011963e+00" cType="1" res="3.1086672097444534e-02" rms="4.7124594449996948e-01" purity="5.5422729253768921e-01" nType="0">
              <Node pos="l" depth="4" NCoef="0" IVar="-1" Cut="0.0000000000000000e+00" cType="1" res="-3.5989957395941019e-03" rms="4.7936940193176270e-01" purity="5.0150525569915771e-01" nType="-99"/>
              <Node pos="r" depth="4" NCoef="0" IVar="-1" Cut="0.0000000000000000e+00" cType="1" res="1.2373695150017738e-02" rms="4.6527740359306335e-01" purity="5.7954931259155273e-01" nType="-99"/>
            </Node>
            <Node pos="r" depth="3" NCoef="0" IVar="-1" Cut="0.0000000000000000e+00" cType="1" res="-6.6051399335265160e-03" rms="4.6763321757316589e-01" purity="4.4597968459129333e-01" nType="-99"/>
          </Node>
          <Node pos="r" depth="2" NCoef="0" IVar="-1" Cut="0.0000000000000000e+00" cType="1" res="-4.8017371445894241e-02" rms="3.3328893780708313e-01" purity="1.5829968452453613e-01" nType="-99"/>
        </Node>
        <Node pos="r" depth="1" NCoef="0" IVar="8" Cut="2.8858320713043213e+00" cType="1" res="6.9419451057910919e-02" rms="4.3692669272422791e-01" purity="6.5444481372833252e-01" nType="0">
          <Node pos="l" depth="2" NCoef="0" IVar="-1" Cut="0.0000000000000000e+00" cType="1" res="2.1776582580059767e-03" rms="4.6853691339492798e-01" purity="5.3524440526962280e-01" nType="-99"/>
          <Node pos="r" depth="2" NCoef="0" IVar="-1" Cut="0.0000000000000000e+00" cType="1" res="2.9382092878222466e-02" rms="4.0697947144508362e-01" purity="7.4054390192031860e-01" nType="-99"/>
        </Node>
      </Node>
    </BinaryTree>
    <BinaryTree type="DecisionTree" boostWeight="1.0000000000000000e+00" itree="17">
      <Node pos="s" depth="0" NCoef="0" IVar="0" Cut="3.4395631250000000e+05" cType="1" res="-9.5399804413318634e-03" rms="4.4492205977439880e-01" purity="4.8992827534675598e-01" nType="0">
        <Node pos="l" depth="1" NCoef="0" IVar="3" Cut="5.1833921875000000e+04" cType="1" res="1.0095207951962948e-02" rms="4.5658296346664429e-01" purity="5.3972691297531128e-01" nType="0">
          <Node pos="l" depth="2" NCoef="0" IVar="-1" Cut="0.0000000000000000e+00" cType="1" res="-1.9302347674965858e-02" rms="4.3991604447364807e-01" purity="3.3276352286338806e-01" nType="-99"/>
          <Node pos="r" depth="2" NCoef="0" IVar="6" Cut="5.9844559431076050e-01" cType="1" res="2.7998980134725571e-02" rms="4.5661410689353943e-01" purity="5.7255351543426514e-01" nType="0">
            <Node pos="l" depth="3" NCoef="0" IVar="0" Cut="1.6266557812500000e+05" cType="1" res="-1.9126718863844872e-02" rms="4.7655162215232849e-01" purity="5.0260037183761597e-01" nType="0">
              <Node pos="l" depth="4" NCoef="0" IVar="-1" Cut="0.0000000000000000e+00" cType="1" res="-1.9614553079009056e-02" rms="4.7870916128158569e-01" purity="4.3236669898033142e-01" nType="-99"/>
              <Node pos="r" depth="4" NCoef="0" IVar="-1" Cut="0.0000000000000000e+00" cType="1" res="6.2883161008358002e-03" rms="4.6871027350425720e-01" purity="5.4361402988433838e-01" nType="-99"/>
            </Node>
            <Node pos="r" depth="3" NCoef="0" IVar="0" Cut="2.1585900000000000e+05" cType="1" res="5.8728113770484924e-02" rms="4.4042289257049561e-01" purity="6.1816763877868652e-01" nType="0">
              <Node pos="l" depth="4" NCoef="0" IVar="-1" Cut="0.0000000000000000e+00" cType="1" res="2.3005129769444466e-02" rms="4.3616279959678650e-01" purity="6.9615948200225830e-01" nType="-99"/>
              <Node pos="r" depth="4" NCoef="0" IVar="-1" Cut="0.0000000000000000e+00" cType="1" res="-6.0648303478956223e-03" rms="4.3471607565879822e-01" purity="4.5236733555793762e-01" nType="-99"/>
            </Node>
          </Node>
        </Node>
        <Node pos="r" depth="1" NCoef="0" IVar="-1" Cut="0.0000000000000000e+00" cType="1" res="-1.0456434451043606e-02" rms="3.1938320398330688e-01" purity="1.3897818326950073e-01" nType="-99"/>
      </Node>
    </BinaryTree>
    <BinaryTree type="DecisionTree" boostWeight="1.0000000000000000e+00" itree="18">
      <Node pos="s" depth="0" NCoef="0" IVar="0" Cut="3.4396384375000000e+05" cType="1" res="-1.3328540138900280e-02" rms="4.4094046950340271e-01" purity="4.8439669609069824e-01" nType="0">
        <Node pos="l" depth="1" NCoef="0" IVar="9" Cut="3.0000000000000000e+00" cType="1" res="1.4526433311402798e-02" rms="3.4814217686653137e-01" purity="5.4044687747955322e-01" nType="0">
          <Node pos="l" depth="2" NCoef="0" IVar="3" Cut="8.7487648437500000e+04" cType="1" res="-4.1906967759132385e-02" rms="4.5986095070838928e-01" purity="4.4732356071472168e-01" nType="0">
            <Node pos="l" depth="3" NCoef="0" IVar="0" Cut="1.8393692187500000e+05" cType="1" res="-7.6922073960304260e-02" rms="4.5085099339485168e-01" purity="3.8403367996215820e-01" nType="0">
              <Node pos="l" depth="4" NCoef="0" IVar="-1" Cut="0.0000000000000000e+00" cType="1" res="-1.0550878010690212e-02" rms="4.7468033432960510e-01" purity="4.6819806098937988e-01" nType="-99"/>
              <Node pos="r" depth="4" NCoef="0" IVar="-1" Cut="0.0000000000000000e+00" cType="1" res="-2.6885982602834702e-02" rms="4.1938740015029907e-01" purity="2.8861969709396362e-01" nType="-99"/>
            </Node>
            <Node pos="r" depth="3" NCoef="0" IVar="-1" Cut="0.0000000000000000e+00" cType="1" res="1.5415039379149675e-03" rms="4.6788641810417175e-01" purity="5.3732240200042725e-01" nType="-99"/>
          </Node>
          <Node pos="r" depth="2" NCoef="0" IVar="5" Cut="2.2035780334472656e+02" cType="1" res="5.5238358676433563e-02" rms="4.4263693690299988e-01" purity="6.2449771165847778e-01" nType="0">
            <Node pos="l" depth="3" NCoef="0" IVar="2" Cut="1.5131833553314209e+00" cType="1" res="7.7870681881904602e-02" rms="4.3629595637321472e-01" purity="6.5377593040466309e-01" nType="0">
              <Node pos="l" depth="4" NCoef="0" IVar="-1" Cut="0.0000000000000000e+00" cType="1" res="3.5218084231019020e-03" rms="4.4708818197250366e-01" purity="5.3183305263519287e-01" nType="-99"/>
              <Node pos="r" depth="4" NCoef="0" IVar="-1" Cut="0.0000000000000000e+00" cType="1" res="2.7024742215871811e-02" rms="4.2728045582771301e-01" purity="7.1389597654342651e-01" nType="-99"/>
            </Node>
            <Node pos="r" depth="3" NCoef="0" IVar="-1" Cut="0.0000000000000000e+00" cType="1" res="-4.6157478354871273e-03" rms="4.5480155944824219e-01" purity="5.3135210275650024e-01" nType="-99"/>
          </Node>
        </Node>
        <Node pos="r" depth="1" NCoef="0" IVar="-1" Cut="0.0000000000000000e+00" cType="1" res="-6.7259785719215870e-03" rms="3.1895405054092407e-01" purity="1.3523280620574951e-01" nType="-99"/>
      </Node>
    </BinaryTree>
    <BinaryTree type="DecisionTree" boostWeight="1.0000000000000000e+00" itree="19">
      <Node pos="s" depth="0" NCoef="0" IVar="0" Cut="3.4394775000000000e+05" cType="1" res="4.7859732876531780e-04" rms="4.3989369273185730e-01" purity="5.0735282897949219e-01" nType="0">
        <Node pos="l" depth="1" NCoef="0" IVar="6" Cut="5.1341217756271362e-01" cType="1" res="2.0010106265544891e-02" rms="4.5016816258430481e-01" purity="5.5752432346343994e-01" nType="0">
          <Node pos="l" depth="2" NCoef="0" IVar="-1" Cut="0.0000000000000000e+00" cType="1" res="-1.5789818018674850e-02" rms="4.7747430205345154e-01" purity="3.8649985194206238e-01" nType="-99"/>
          <Node pos="r" depth="2" NCoef="0" IVar="7" Cut="1.3941136169433594e+02" cType="1" res="4.1183624416589737e-02" rms="4.4166043400764465e-01" purity="5.8957332372665405e-01" nType="0">
            <Node pos="l" depth="3" NCoef="0" IVar="-1" Cut="0.0000000000000000e+00" cType="1" res="-1.2482048012316227e-02" rms="4.2737212777137756e-01" purity="3.1465142965316772e-01" nType="-99"/>
            <Node pos="r" depth="3" NCoef="0" IVar="8" Cut="2.8319256305694580e+00" cType="1" res="6.4519971609115601e-02" rms="4.4118717312812805e-01" purity="6.4856898784637451e-01" nType="0">
              <Node pos="l" depth="4" NCoef="0" IVar="-1" Cut="0.0000000000000000e+00" cType="1" res="-5.2616228349506855e-03" rms="4.6242853999137878e-01" purity="5.2407032251358032e-01" nType="-99"/>
              <Node pos="r" depth="4" NCoef="0" IVar="-1" Cut="0.0000000000000000e+00" cType="1" res="2.0006306469440460e-02" rms="4.3370592594146729e-01" purity="6.7682635784149170e-01" nType="-99"/>
            </Node>
          </Node>
        </Node>
        <Node pos="r" depth="1" NCoef="0" IVar="-1" Cut="0.0000000000000000e+00" cType="1" res="-1.0373719967901707e-02" rms="3.1971323490142822e-01" purity="1.3639920949935913e-01" nType="-99"/>
      </Node>
    </BinaryTree>
    <BinaryTree type="DecisionTree" boostWeight="1.0000000000000000e+00" itree="20">
      <Node pos="s" depth="0" NCoef="0" IVar="0" Cut="3.4395631250000000e+05" cType="1" res="-8.6862416937947273e-03" rms="4.4136834144592285e-01" purity="4.9697732925415039e-01" nType="0">
        <Node pos="l" depth="1" NCoef="0" IVar="2" Cut="2.2227439880371094e+00" cType="1" res="7.5114476494491100e-03" rms="4.5194634795188904e-01" purity="5.4490959644317627e-01" nType="0">
          <Node pos="l" depth="2" NCoef="0" IVar="4" Cut="7.1665578125000000e+04" cType="1" res="-2.8688473626971245e-02" rms="4.4811102747917175e-01" purity="4.8219165205955505e-01" nType="0">
            <Node pos="l" depth="3" NCoef="0" IVar="8" Cut="2.9484655857086182e+00" cType="1" res="-6.6988162696361542e-02" rms="4.4455438852310181e-01" purity="4.0704023838043213e-01" nType="0">
              <Node pos="l" depth="4" NCoef="0" IVar="-1" Cut="0.0000000000000000e+00" cType="1" res="-2.2595766931772232e-02" rms="4.4169953465461731e-01" purity="3.3383068442344666e-01" nType="-99"/>
              <Node pos="r" depth="4" NCoef="0" IVar="-1" Cut="0.0000000000000000e+00" cType="1" res="-8.3369081839919090e-03" rms="4.4253414869308472e-01" purity="4.4860473275184631e-01" nType="-99"/>
            </Node>
            <Node pos="r" depth="3" NCoef="0" IVar="-1" Cut="0.0000000000000000e+00" cType="1" res="1.2253210879862309e-02" rms="4.4528755545616150e-01" purity="6.3377171754837036e-01" nType="-99"/>
          </Node>
          <Node pos="r" depth="2" NCoef="0" IVar="9" Cut="3.0000000000000000e+00" cType="1" res="3.4550078213214874e-02" rms="3.4686639904975891e-01" purity="6.3926470279693604e-01" nType="0">
            <Node pos="l" depth="3" NCoef="0" IVar="-1" Cut="0.0000000000000000e+00" cType="1" res="3.0043942388147116e-03" rms="4.7108146548271179e-01" purity="5.5348843336105347e-01" nType="-99"/>
            <Node pos="r" depth="3" NCoef="0" IVar="-1" Cut="0.0000000000000000e+00" cType="1" res="2.5823663920164108e-02" rms="4.3149837851524353e-01" purity="7.1200543642044067e-01" nType="-99"/>
          </Node>
        </Node>
        <Node pos="r" depth="1" NCoef="0" IVar="-1" Cut="0.0000000000000000e+00" cType="1" res="-9.4029456377029419e-03" rms="3.3160635828971863e-01" purity="1.4719419181346893e-01" nType="-99"/>
      </Node>
    </BinaryTree>
    <BinaryTree type="DecisionTree" boostWeight="1.0000000000000000e+00" itree="21">
      <Node pos="s" depth="0" NCoef="0" IVar="2" Cut="7.5530129671096802e-01" cType="1" res="-1.4975558035075665e-02" rms="4.3849891424179077e-01" purity="4.9200427532196045e-01" nType="0">
        <Node pos="l" depth="1" NCoef="0" IVar="-1" Cut="0.0000000000000000e+00" cType="1" res="-4.1742198169231415e-02" rms="3.5957798361778259e-01" purity="2.3988148570060730e-01" nType="-99"/>
        <Node pos="r" depth="1" NCoef="0" IVar="7" Cut="3.8437683105468750e+02" cType="1" res="-6.9764046929776669e-04" rms="4.4635117053985596e-01" purity="5.2658265829086304e-01" nType="0">
          <Node pos="l" depth="2" NCoef="0" IVar="0" Cut="2.8091703125000000e+05" cType="1" res="-1.7806695774197578e-02" rms="4.5005676150321960e-01" purity="4.9340009689331055e-01" nType="0">
            <Node pos="l" depth="3" NCoef="0" IVar="6" Cut="5.6802177429199219e-01" cType="1" res="4.5220674946904182e-03" rms="4.6415579319000244e-01" purity="5.5788540840148926e-01" nType="0">
              <Node pos="l" depth="4" NCoef="0" IVar="-1" Cut="0.0000000000000000e+00" cType="1" res="-1.5018024481832981e-02" rms="4.8184949159622192e-01" purity="4.5377579331398010e-01" nType="-99"/>
              <Node pos="r" depth="4" NCoef="0" IVar="-1" Cut="0.0000000000000000e+00" cType="1" res="5.8193136937916279e-03" rms="4.5670250058174133e-01" purity="5.8797037601470947e-01" nType="-99"/>
            </Node>
            <Node pos="r" depth="3" NCoef="0" IVar="-1" Cut="0.0000000000000000e+00" cType="1" res="-2.6766890659928322e-02" rms="3.5691055655479431e-01" purity="1.8594469130039215e-01" nType="-99"/>
          </Node>
          <Node pos="r" depth="2" NCoef="0" IVar="-1" Cut="0.0000000000000000e+00" cType="1" res="2.9077941551804543e-02" rms="4.0975457429885864e-01" purity="7.2149419784545898e-01" nType="-99"/>
        </Node>
      </Node>
    </BinaryTree>
    <BinaryTree type="DecisionTree" boostWeight="1.0000000000000000e+00" itree="22">
      <Node pos="s" depth="0" NCoef="0" IVar="7" Cut="2.3496734619140625e+02" cType="1" res="-5.5635035969316959e-03" rms="4.4034287333488464e-01" purity="4.9765425920486450e-01" nType="0">
        <Node pos="l" depth="1" NCoef="0" IVar="8" Cut="3.0114045143127441e+00" cType="1" res="-5.3138628602027893e-02" rms="4.3448308110237122e-01" purity="3.6322131752967834e-01" nType="0">
          <Node pos="l" depth="2" NCoef="0" IVar="0" Cut="1.8797873437500000e+05" cType="1" res="-9.3369521200656891e-02" rms="4.3792143464088440e-01" purity="3.3938461542129517e-01" nType="0">
            <Node pos="l" depth="3" NCoef="0" IVar="-1" Cut="0.0000000000000000e+00" cType="1" res="-8.3507103845477104e-03" rms="4.7505739331245422e-01" purity="4.3506744503974915e-01" nType="-99"/>
            <Node pos="r" depth="3" NCoef="0" IVar="-1" Cut="0.0000000000000000e+00" cType="1" res="-2.8399227187037468e-02" rms="3.9503553509712219e-01" purity="2.4484696984291077e-01" nType="-99"/>
          </Node>
          <Node pos="r" depth="2" NCoef="0" IVar="7" Cut="1.3810290527343750e+02" cType="1" res="-1.7758589237928391e-02" rms="4.2832520604133606e-01" purity="3.8418388366699219e-01" nType="0">
            <Node pos="l" depth="3" NCoef="0" IVar="-1" Cut="0.0000000000000000e+00" cType="1" res="-2.0626490935683250e-02" rms="3.9623042941093445e-01" purity="2.5563713908195496e-01" nType="-99"/>
            <Node pos="r" depth="3" NCoef="0" IVar="-1" Cut="0.0000000000000000e+00" cType="1" res="7.8962268307805061e-03" rms="4.4864618778228760e-01" purity="4.9900221824645996e-01" nType="-99"/>
          </Node>
        </Node>
        <Node pos="r" depth="1" NCoef="0" IVar="7" Cut="4.2846987915039062e+02" cType="1" res="0.0000000000000000e+00" rms="0.0000000000000000e+00" purity="6.2826293706893921e-01" nType="0">
          <Node pos="l" depth="2" NCoef="0" IVar="5" Cut="1.9842907714843750e+02" cType="1" res="2.5266289710998535e-02" rms="4.4815173745155334e-01" purity="6.0771214962005615e-01" nType="0">
            <Node pos="l" depth="3" NCoef="0" IVar="6" Cut="6.1154043674468994e-01" cType="1" res="5.5947124958038330e-02" rms="4.3627697229385376e-01" purity="6.5248751640319824e-01" nType="0">
              <Node pos="l" depth="4" NCoef="0" IVar="-1" Cut="0.0000000000000000e+00" cType="1" res="5.6235771626234055e-03" rms="4.6237480640411377e-01" purity="5.7554137706756592e-01" nType="-99"/>
              <Node pos="r" depth="4" NCoef="0" IVar="-1" Cut="0.0000000000000000e+00" cType="1" res="2.1248387172818184e-02" rms="4.1119900345802307e-01" purity="7.1689504384994507e-01" nType="-99"/>
            </Node>
            <Node pos="r" depth="3" NCoef="0" IVar="-1" Cut="0.0000000000000000e+00" cType="1" res="-5.7639437727630138e-03" rms="4.6209853887557983e-01" purity="5.3738445043563843e-01" nType="-99"/>
          </Node>
          <Node pos="r" depth="2" NCoef="0" IVar="-1" Cut="0.0000000000000000e+00" cType="1" res="2.6794448494911194e-02" rms="4.0880247950553894e-01" purity="7.0435738563537598e-01" nType="-99"/>
        </Node>
      </Node>
    </BinaryTree>
    <BinaryTree type="DecisionTree" boostWeight="1.0000000000000000e+00" itree="23">
      <Node pos="s" depth="0" NCoef="0" IVar="0" Cut="3.4395631250000000e+05" cType="1" res="6.4910752698779106e-03" rms="4.3648049235343933e-01" purity="5.1651602983474731e-01" nType="0">
        <Node pos="l" depth="1" NCoef="0" IVar="7" Cut="1.3789918518066406e+02" cType="1" res="0.0000000000000000e+00" rms="0.0000000000000000e+00" purity="5.6631708145141602e-01" nType="0">
          <Node pos="l" depth="2" NCoef="0" IVar="-1" Cut="0.0000000000000000e+00" cType="1" res="-1.2751201167702675e-02" rms="4.2797249555587769e-01" purity="3.1236344575881958e-01" nType="-99"/>
          <Node pos="r" depth="2" NCoef="0" IVar="8" Cut="2.9881377220153809e+00" cType="1" res="3.7954311817884445e-02" rms="4.4942525029182434e-01" purity="6.1237579584121704e-01" nType="0">
            <Node pos="l" depth="3" NCoef="0" IVar="3" Cut="9.9123523437500000e+04" cType="1" res="7.6768971048295498e-03" rms="4.6388241648674011e-01" purity="5.4877722263336182e-01" nType="0">
              <Node pos="l" depth="4" NCoef="0" IVar="-1" Cut="0.0000000000000000e+00" cType="1" res="-9.3036070466041565e-03" rms="4.6823784708976746e-01" purity="4.9083495140075684e-01" nType="-99"/>
              <Node pos="r" depth="4" NCoef="0" IVar="-1" Cut="0.0000000000000000e+00" cType="1" res="1.5011116862297058e-02" rms="4.4992333650588989e-01" purity="6.3596767187118530e-01" nType="-99"/>
            </Node>
            <Node pos="r" depth="3" NCoef="0" IVar="6" Cut="6.2179869413375854e-01" cType="1" res="7.2176232933998108e-02" rms="4.2994385957717896e-01" purity="6.8425983190536499e-01" nType="0">
              <Node pos="l" depth="4" NCoef="0" IVar="-1" Cut="0.0000000000000000e+00" cType="1" res="4.7192843630909920e-03" rms="4.5982688665390015e-01" purity="6.1193537712097168e-01" nType="-99"/>
              <Node pos="r" depth="4" NCoef="0" IVar="-1" Cut="0.0000000000000000e+00" cType="1" res="2.8758276253938675e-02" rms="4.0778413414955139e-01" purity="7.2779089212417603e-01" nType="-99"/>
            </Node>
          </Node>
        </Node>
        <Node pos="r" depth="1" NCoef="0" IVar="-1" Cut="0.0000000000000000e+00" cType="1" res="-4.3348375707864761e-02" rms="3.0844062566757202e-01" purity="1.2786775827407837e-01" nType="-99"/>
      </Node>
    </BinaryTree>
    <BinaryTree type="DecisionTree" boostWeight="1.0000000000000000e+00" itree="24">
      <Node pos="s" depth="0" NCoef="0" IVar="3" Cut="4.9835285156250000e+04" cType="1" res="-5.9017017483711243e-03" rms="4.3602952361106873e-01" purity="5.0239890813827515e-01" nType="0">
        <Node pos="l" depth="1" NCoef="0" IVar="-1" Cut="0.0000000000000000e+00" cType="1" res="-1.2573434039950371e-02" rms="4.0756580233573914e-01" purity="2.8365260362625122e-01" nType="-99"/>
        <Node pos="r" depth="1" NCoef="0" IVar="2" Cut="1.0142990350723267e+00" cType="1" res="7.0059383288025856e-03" rms="4.3872553110122681e-01" purity="5.3544729948043823e-01" nType="0">
          <Node pos="l" depth="2" NCoef="0" IVar="-1" Cut="0.0000000000000000e+00" cType="1" res="-1.7965497449040413e-02" rms="4.0338882803916931e-01" purity="3.3284863829612732e-01" nType="-99"/>
          <Node pos="r" depth="2" NCoef="0" IVar="4" Cut="7.8989359375000000e+04" cType="1" res="2.4256391450762749e-02" rms="4.4558456540107727e-01" purity="5.8676731586456299e-01" nType="0">
            <Node pos="l" depth="3" NCoef="0" IVar="6" Cut="5.9636616706848145e-01" cType="1" res="2.4645386729389429e-03" rms="4.5176005363464355e-01" purity="5.4136395454406738e-01" nType="0">
              <Node pos="l" depth="4" NCoef="0" IVar="-1" Cut="0.0000000000000000e+00" cType="1" res="-1.0120186954736710e-02" rms="4.7188255190849304e-01" purity="4.6471098065376282e-01" nType="-99"/>
              <Node pos="r" depth="4" NCoef="0" IVar="-1" Cut="0.0000000000000000e+00" cType="1" res="2.8041775804013014e-03" rms="4.4111418724060059e-01" purity="5.7487809658050537e-01" nType="-99"/>
            </Node>
            <Node pos="r" depth="3" NCoef="0" IVar="-1" Cut="0.0000000000000000e+00" cType="1" res="1.2924931012094021e-02" rms="4.2548751831054688e-01" purity="6.9754385948181152e-01" nType="-99"/>
          </Node>
        </Node>
      </Node>
    </BinaryTree>
    <BinaryTree type="DecisionTree" boostWeight="1.0000000000000000e+00" itree="25">
      <Node pos="s" depth="0" NCoef="0" IVar="2" Cut="1.3719906806945801e+00" cType="1" res="-4.0874695405364037e-03" rms="4.3841984868049622e-01" purity="4.9953308701515198e-01" nType="0">
        <Node pos="l" depth="1" NCoef="0" IVar="4" Cut="5.6113425781250000e+04" cType="1" res="-4.9140796065330505e-02" rms="4.0503022074699402e-01" purity="3.5476645827293396e-01" nType="0">
          <Node pos="l" depth="2" NCoef="0" IVar="-1" Cut="0.0000000000000000e+00" cType="1" res="-2.5672404095530510e-02" rms="3.6399424076080322e-01" purity="2.1104799211025238e-01" nType="-99"/>
          <Node pos="r" depth="2" NCoef="0" IVar="-1" Cut="0.0000000000000000e+00" cType="1" res="-1.3286954490467906e-03" rms="4.3471309542655945e-01" purity="4.8738312721252441e-01" nType="-99"/>
        </Node>
        <Node pos="r" depth="1" NCoef="0" IVar="9" Cut="2.0000000000000000e+00" cType="1" res="1.8484730273485184e-02" rms="4.5251956582069397e-01" purity="5.7199674844741821e-01" nType="0">
          <Node pos="l" depth="2" NCoef="0" IVar="-1" Cut="0.0000000000000000e+00" cType="1" res="-6.1131850816309452e-03" rms="4.6095749735832214e-01" purity="4.3368259072303772e-01" nType="-99"/>
          <Node pos="r" depth="2" NCoef="0" IVar="6" Cut="5.3719049692153931e-01" cType="1" res="3.1721647828817368e-02" rms="4.4972366094589233e-01" purity="5.9658640623092651e-01" nType="0">
            <Node pos="l" depth="3" NCoef="0" IVar="-1" Cut="0.0000000000000000e+00" cType="1" res="-8.9055420830845833e-03" rms="4.7982445359230042e-01" purity="4.5630636811256409e-01" nType="-99"/>
            <Node pos="r" depth="3" NCoef="0" IVar="1" Cut="1.3462049961090088e+00" cType="1" res="4.8257462680339813e-02" rms="4.4023942947387695e-01" purity="6.3212120532989502e-01" nType="0">
              <Node pos="l" depth="4" NCoef="0" IVar="-1" Cut="0.0000000000000000e+00" cType="1" res="3.4313981886953115e-03" rms="4.4313150644302368e-01" purity="6.0572576522827148e-01" nType="-99"/>
              <Node pos="r" depth="4" NCoef="0" IVar="-1" Cut="0.0000000000000000e+00" cType="1" res="1.7258048057556152e-02" rms="4.3412342667579651e-01" purity="6.7310929298400879e-01" nType="-99"/>
            </Node>
          </Node>
        </Node>
      </Node>
    </BinaryTree>
    <BinaryTree type="DecisionTree" boostWeight="1.0000000000000000e+00" itree="26">
      <Node pos="s" depth="0" NCoef="0" IVar="5" Cut="1.9036524963378906e+02" cType="1" res="-8.2649718970060349e-03" rms="4.3913009762763977e-01" purity="4.9505245685577393e-01" nType="0">
        <Node pos="l" depth="1" NCoef="0" IVar="7" Cut="2.9500885009765625e+02" cType="1" res="2.2384509444236755e-02" rms="4.3562456965446472e-01" purity="5.3811806440353394e-01" nType="0">
          <Node pos="l" depth="2" NCoef="0" IVar="0" Cut="2.3153154687500000e+05" cType="1" res="-9.5838000997900963e-03" rms="4.4237655401229858e-01" purity="4.4505071640014648e-01" nType="0">
            <Node pos="l" depth="3" NCoef="0" IVar="1" Cut="1.4983752369880676e-01" cType="1" res="0.0000000000000000e+00" rms="0.0000000000000000e+00" purity="5.6945914030075073e-01" nType="0">
              <Node pos="l" depth="4" NCoef="0" IVar="-1" Cut="0.0000000000000000e+00" cType="1" res="-4.4568808516487479e-04" rms="4.7438657283782959e-01" purity="5.2550876140594482e-01" nType="-99"/>
              <Node pos="r" depth="4" NCoef="0" IVar="-1" Cut="0.0000000000000000e+00" cType="1" res="1.9298357889056206e-02" rms="4.5866715908050537e-01" purity="6.1479932069778442e-01" nType="-99"/>
            </Node>
            <Node pos="r" depth="3" NCoef="0" IVar="-1" Cut="0.0000000000000000e+00" cType="1" res="-1.6933348029851913e-02" rms="3.7909224629402161e-01" purity="2.2239147126674652e-01" nType="-99"/>
          </Node>
          <Node pos="r" depth="2" NCoef="0" IVar="-1" Cut="0.0000000000000000e+00" cType="1" res="2.1980127319693565e-02" rms="4.1498374938964844e-01" purity="7.2060531377792358e-01" nType="-99"/>
        </Node>
        <Node pos="r" depth="1" NCoef="0" IVar="6" Cut="5.9680098295211792e-01" cType="1" res="-4.6160917729139328e-02" rms="4.4048738479614258e-01" purity="4.4180482625961304e-01" nType="0">
          <Node pos="l" depth="2" NCoef="0" IVar="-1" Cut="0.0000000000000000e+00" cType="1" res="-1.8548589199781418e-02" rms="4.5077082514762878e-01" purity="3.5238912701606750e-01" nType="-99"/>
          <Node pos="r" depth="2" NCoef="0" IVar="7" Cut="2.3740095520019531e+02" cType="1" res="-1.0342068970203400e-02" rms="4.3017980456352234e-01" purity="4.9630805850028992e-01" nType="0">
            <Node pos="l" depth="3" NCoef="0" IVar="-1" Cut="0.0000000000000000e+00" cType="1" res="-8.5187191143631935e-03" rms="4.2607736587524414e-01" purity="3.6539235711097717e-01" nType="-99"/>
            <Node pos="r" depth="3" NCoef="0" IVar="-1" Cut="0.0000000000000000e+00" cType="1" res="8.7675349786877632e-03" rms="4.3183487653732300e-01" purity="6.7091989517211914e-01" nType="-99"/>
          </Node>
        </Node>
      </Node>
    </BinaryTree>
    <BinaryTree type="DecisionTree" boostWeight="1.0000000000000000e+00" itree="27">
      <Node pos="s" depth="0" NCoef="0" IVar="2" Cut="8.7557113170623779e-01" cType="1" res="-6.4761191606521606e-03" rms="4.3042862415313721e-01" purity="5.0011122226715088e-01" nType="0">
        <Node pos="l" depth="1" NCoef="0" IVar="-1" Cut="0.0000000000000000e+00" cType="1" res="-2.4661330506205559e-02" rms="3.6603665351867676e-01" purity="2.6186907291412354e-01" nType="-99"/>
        <Node pos="r" depth="1" NCoef="0" IVar="6" Cut="5.1302021741867065e-01" cType="1" res="9.6620647236704826e-03" rms="4.4088539481163025e-01" purity="5.4948365688323975e-01" nType="0">
          <Node pos="l" depth="2" NCoef="0" IVar="-1" Cut="0.0000000000000000e+00" cType="1" res="-1.2285695411264896e-02" rms="4.7197580337524414e-01" purity="3.9101111888885498e-01" nType="-99"/>
          <Node pos="r" depth="2" NCoef="0" IVar="4" Cut="8.1876554687500000e+04" cType="1" res="2.3594494909048080e-02" rms="4.3407446146011353e-01" purity="5.7492291927337646e-01" nType="0">
            <Node pos="l" depth="3" NCoef="0" IVar="7" Cut="2.9612991333007812e+02" cType="1" res="3.3757471828721464e-04" rms="4.4139161705970764e-01" purity="5.2550679445266724e-01" nType="0">
              <Node pos="l" depth="4" NCoef="0" IVar="-1" Cut="0.0000000000000000e+00" cType="1" res="-4.5276121236383915e-03" rms="4.4610759615898132e-01" purity="4.6138447523117065e-01" nType="-99"/>
              <Node pos="r" depth="4" NCoef="0" IVar="-1" Cut="0.0000000000000000e+00" cType="1" res="1.6614390537142754e-02" rms="4.2048862576484680e-01" purity="7.2064679861068726e-01" nType="-99"/>
            </Node>
            <Node pos="r" depth="3" NCoef="0" IVar="-1" Cut="0.0000000000000000e+00" cType="1" res="2.4846196174621582e-02" rms="3.8839057087898254e-01" purity="7.7752590179443359e-01" nType="-99"/>
          </Node>
        </Node>
      </Node>
    </BinaryTree>
    <BinaryTree type="DecisionTree" boostWeight="1.0000000000000000e+00" itree="28">
      <Node pos="s" depth="0" NCoef="0" IVar="4" Cut="4.6840890625000000e+04" cType="1" res="-4.4828420504927635e-03" rms="4.3773305416107178e-01" purity="4.9988362193107605e-01" nType="0">
        <Node pos="l" depth="1" NCoef="0" IVar="8" Cut="2.9427821636199951e+00" cType="1" res="-5.3502582013607025e-02" rms="4.1582855582237244e-01" purity="3.4863179922103882e-01" nType="0">
          <Node pos="l" depth="2" NCoef="0" IVar="-1" Cut="0.0000000000000000e+00" cType="1" res="-2.7638772502541542e-02" rms="4.2348179221153259e-01" purity="3.1426617503166199e-01" nType="-99"/>
          <Node pos="r" depth="2" NCoef="0" IVar="8" Cut="3.0563836097717285e+00" cType="1" res="-3.3280801028013229e-02" rms="4.1048595309257507e-01" purity="3.6564314365386963e-01" nType="0">
            <Node pos="l" depth="3" NCoef="0" IVar="-1" Cut="0.0000000000000000e+00" cType="1" res="-1.4961270615458488e-02" rms="4.0840113162994385e-01" purity="3.3385437726974487e-01" nType="-99"/>
            <Node pos="r" depth="3" NCoef="0" IVar="-1" Cut="0.0000000000000000e+00" cType="1" res="-8.6155487224459648e-04" rms="4.1038343310356140e-01" purity="3.9795568585395813e-01" nType="-99"/>
          </Node>
        </Node>
        <Node pos="r" depth="1" NCoef="0" IVar="5" Cut="2.0535487365722656e+02" cType="1" res="1.9293842837214470e-02" rms="4.4603604078292847e-01" purity="5.7324725389480591e-01" nType="0">
          <Node pos="l" depth="2" NCoef="0" IVar="4" Cut="7.9395179687500000e+04" cType="1" res="4.5588646084070206e-02" rms="4.3830057978630066e-01" purity="6.1936509609222412e-01" nType="0">
            <Node pos="l" depth="3" NCoef="0" IVar="1" Cut="4.4961962103843689e-01" cType="1" res="0.0000000000000000e+00" rms="0.0000000000000000e+00" purity="5.6649571657180786e-01" nType="0">
              <Node pos="l" depth="4" NCoef="0" IVar="-1" Cut="0.0000000000000000e+00" cType="1" res="-5.7790493592619896e-03" rms="4.4626778364181519e-01" purity="5.1491534709930420e-01" nType="-99"/>
              <Node pos="r" depth="4" NCoef="0" IVar="-1" Cut="0.0000000000000000e+00" cType="1" res="1.6085889190435410e-02" rms="4.3405896425247192e-01" purity="6.2486106157302856e-01" nType="-99"/>
            </Node>
            <Node pos="r" depth="3" NCoef="0" IVar="-1" Cut="0.0000000000000000e+00" cType="1" res="2.4049311876296997e-02" rms="4.2157649993896484e-01" purity="7.2961741685867310e-01" nType="-99"/>
          </Node>
          <Node pos="r" depth="2" NCoef="0" IVar="2" Cut="1.6802186965942383e+00" cType="1" res="-2.3206470534205437e-02" rms="4.5506161451339722e-01" purity="4.9870696663856506e-01" nType="0">
            <Node pos="l" depth="3" NCoef="0" IVar="-1" Cut="0.0000000000000000e+00" cType="1" res="-2.1398404613137245e-02" rms="4.3227720260620117e-01" purity="3.9095783233642578e-01" nType="-99"/>
            <Node pos="r" depth="3" NCoef="0" IVar="-1" Cut="0.0000000000000000e+00" cType="1" res="5.4893549531698227e-04" rms="4.6835994720458984e-01" purity="5.7284289598464966e-01" nType="-99"/>
          </Node>
        </Node>
      </Node>
    </BinaryTree>
    <BinaryTree type="DecisionTree" boostWeight="1.0000000000000000e+00" itree="29">
      <Node pos="s" depth="0" NCoef="0" IVar="3" Cut="7.7942304687500000e+04" cType="1" res="-1.0019245557487011e-02" rms="4.3348860740661621e-01" purity="4.8914110660552979e-01" nType="0">
        <Node pos="l" depth="1" NCoef="0" IVar="5" Cut="1.8400158691406250e+02" cType="1" res="-4.5113027095794678e-02" rms="4.2430734634399414e-01" purity="3.9662694931030273e-01" nType="0">
          <Node pos="l" depth="2" NCoef="0" IVar="2" Cut="1.6812566518783569e+00" cType="1" res="-8.1744659692049026e-03" rms="4.2879036068916321e-01" purity="4.5045056939125061e-01" nType="0">
            <Node pos="l" depth="3" NCoef="0" IVar="-1" Cut="0.0000000000000000e+00" cType="1" res="-1.4758760109543800e-02" rms="3.9529812335968018e-01" purity="3.1012615561485291e-01" nType="-99"/>
            <Node pos="r" depth="3" NCoef="0" IVar="-1" Cut="0.0000000000000000e+00" cType="1" res="4.6976343728601933e-03" rms="4.4855198264122009e-01" purity="5.4766947031021118e-01" nType="-99"/>
          </Node>
          <Node pos="r" depth="2" NCoef="0" IVar="-1" Cut="0.0000000000000000e+00" cType="1" res="-1.8468871712684631e-02" rms="4.1303789615631104e-01" purity="3.2430082559585571e-01" nType="-99"/>
        </Node>
        <Node pos="r" depth="1" NCoef="0" IVar="2" Cut="1.1422513723373413e+00" cType="1" res="0.0000000000000000e+00" rms="0.0000000000000000e+00" purity="5.6646877527236938e-01" nType="0">
          <Node pos="l" depth="2" NCoef="0" IVar="-1" Cut="0.0000000000000000e+00" cType="1" res="-7.0349965244531631e-03" rms="4.2485541105270386e-01" purity="4.1137483716011047e-01" nType="-99"/>
          <Node pos="r" depth="2" NCoef="0" IVar="6" Cut="5.3719049692153931e-01" cType="1" res="3.3863741904497147e-02" rms="4.4292879104614258e-01" purity="6.2256383895874023e-01" nType="0">
            <Node pos="l" depth="3" NCoef="0" IVar="-1" Cut="0.0000000000000000e+00" cType="1" res="-5.0730300135910511e-03" rms="4.7768360376358032e-01" purity="4.7045424580574036e-01" nType="-99"/>
            <Node pos="r" depth="3" NCoef="0" IVar="1" Cut="1.0468840599060059e+00" cType="1" res="5.3968556225299835e-02" rms="4.2723527550697327e-01" purity="6.8052011728286743e-01" nType="0">
              <Node pos="l" depth="4" NCoef="0" IVar="-1" Cut="0.0000000000000000e+00" cType="1" res="9.3107772991061211e-03" rms="4.2963373661041260e-01" purity="6.5551513433456421e-01" nType="-99"/>
              <Node pos="r" depth="4" NCoef="0" IVar="-1" Cut="0.0000000000000000e+00" cType="1" res="1.9741965457797050e-02" rms="4.2213752865791321e-01" purity="7.1374809741973877e-01" nType="-99"/>
            </Node>
          </Node>
        </Node>
      </Node>
    </BinaryTree>
    <BinaryTree type="DecisionTree" boostWeight="1.0000000000000000e+00" itree="30">
      <Node pos="s" depth="0" NCoef="0" IVar="4" Cut="7.5642179687500000e+04" cType="1" res="-1.0596710490062833e-03" rms="4.3181791901588440e-01" purity="5.0037264823913574e-01" nType="0">
        <Node pos="l" depth="1" NCoef="0" IVar="5" Cut="2.0879103088378906e+02" cType="1" res="0.0000000000000000e+00" rms="0.0000000000000000e+00" purity="4.3927463889122009e-01" nType="0">
          <Node pos="l" depth="2" NCoef="0" IVar="0" Cut="2.5769267187500000e+05" cType="1" res="4.7048524720594287e-04" rms="4.3242549896240234e-01" purity="4.7583475708961487e-01" nType="0">
            <Node pos="l" depth="3" NCoef="0" IVar="9" Cut="3.0000000000000000e+00" cType="1" res="9.5007391646504402e-03" rms="3.3004775643348694e-01" purity="5.6358450651168823e-01" nType="0">
              <Node pos="l" depth="4" NCoef="0" IVar="-1" Cut="0.0000000000000000e+00" cType="1" res="-3.1897334847599268e-03" rms="4.6686103940010071e-01" purity="4.6920257806777954e-01" nType="-99"/>
              <Node pos="r" depth="4" NCoef="0" IVar="-1" Cut="0.0000000000000000e+00" cType="1" res="1.6537642106413841e-02" rms="4.4180589914321899e-01" purity="6.5644931793212891e-01" nType="-99"/>
            </Node>
            <Node pos="r" depth="3" NCoef="0" IVar="-1" Cut="0.0000000000000000e+00" cType="1" res="-2.5008507072925568e-02" rms="3.4608626365661621e-01" purity="2.1482889354228973e-01" nType="-99"/>
          </Node>
          <Node pos="r" depth="2" NCoef="0" IVar="6" Cut="6.5295588970184326e-01" cType="1" res="-8.2839116454124451e-02" rms="4.2504918575286865e-01" purity="3.5858380794525146e-01" nType="0">
            <Node pos="l" depth="3" NCoef="0" IVar="-1" Cut="0.0000000000000000e+00" cType="1" res="-1.7263796180486679e-02" rms="4.1768801212310791e-01" purity="2.9570862650871277e-01" nType="-99"/>
            <Node pos="r" depth="3" NCoef="0" IVar="-1" Cut="0.0000000000000000e+00" cType="1" res="-1.1154093779623508e-02" rms="4.2795729637145996e-01" purity="4.2205849289894104e-01" nType="-99"/>
          </Node>
        </Node>
        <Node pos="r" depth="1" NCoef="0" IVar="9" Cut="3.0000000000000000e+00" cType="1" res="6.1118472367525101e-02" rms="4.2523834109306335e-01" purity="6.5577620267868042e-01" nType="0">
          <Node pos="l" depth="2" NCoef="0" IVar="-1" Cut="0.0000000000000000e+00" cType="1" res="4.1194721125066280e-03" rms="4.3728736042976379e-01" purity="5.7246708869934082e-01" nType="-99"/>
          <Node pos="r" depth="2" NCoef="0" IVar="-1" Cut="0.0000000000000000e+00" cType="1" res="2.0873434841632843e-02" rms="4.1645663976669312e-01" purity="7.0534890890121460e-01" nType="-99"/>
        </Node>
      </Node>
    </BinaryTree>
    <BinaryTree type="DecisionTree" boostWeight="1.0000000000000000e+00" itree="31">
      <Node pos="s" depth="0" NCoef="0" IVar="0" Cut="3.4395631250000000e+05" cType="1" res="-4.3063187040388584e-03" rms="4.2913568019866943e-01" purity="4.9723827838897705e-01" nType="0">
        <Node pos="l" depth="1" NCoef="0" IVar="4" Cut="9.0226164062500000e+04" cType="1" res="9.9922120571136475e-03" rms="4.4167307019233704e-01" purity="5.4989081621170044e-01" nType="0">
          <Node pos="l" depth="2" NCoef="0" IVar="2" Cut="1.4571429491043091e+00" cType="1" res="-1.6457670135423541e-03" rms="4.4211575388908386e-01" purity="5.2186226844787598e-01" nType="0">
            <Node pos="l" depth="3" NCoef="0" IVar="0" Cut="1.8399340625000000e+05" cType="1" res="-4.2897939682006836e-02" rms="4.2112255096435547e-01" purity="3.7621089816093445e-01" nType="0">
              <Node pos="l" depth="4" NCoef="0" IVar="-1" Cut="0.0000000000000000e+00" cType="1" res="5.2108732052147388e-03" rms="4.5164960622787476e-01" purity="5.1226603984832764e-01" nType="-99"/>
              <Node pos="r" depth="4" NCoef="0" IVar="-1" Cut="0.0000000000000000e+00" cType="1" res="-3.0083589255809784e-02" rms="3.7842267751693726e-01" purity="2.4458825588226318e-01" nType="-99"/>
            </Node>
            <Node pos="r" depth="3" NCoef="0" IVar="1" Cut="-1.9444528818130493e+00" cType="1" res="1.8928281962871552e-02" rms="4.5081320405006409e-01" purity="5.9450423717498779e-01" nType="0">
              <Node pos="l" depth="4" NCoef="0" IVar="-1" Cut="0.0000000000000000e+00" cType="1" res="1.7938312143087387e-02" rms="4.5148012042045593e-01" purity="6.3481456041336060e-01" nType="-99"/>
              <Node pos="r" depth="4" NCoef="0" IVar="-1" Cut="0.0000000000000000e+00" cType="1" res="-7.1381982706952840e-05" rms="4.4907921552658081e-01" purity="5.7892280817031860e-01" nType="-99"/>
            </Node>
          </Node>
          <Node pos="r" depth="2" NCoef="0" IVar="-1" Cut="0.0000000000000000e+00" cType="1" res="1.5654599294066429e-02" rms="4.3497470021247864e-01" purity="6.8782413005828857e-01" nType="-99"/>
        </Node>
        <Node pos="r" depth="1" NCoef="0" IVar="-1" Cut="0.0000000000000000e+00" cType="1" res="-8.5569359362125397e-03" rms="3.1074041128158569e-01" purity="1.2970626354217529e-01" nType="-99"/>
      </Node>
    </BinaryTree>
    <BinaryTree type="DecisionTree" boostWeight="1.0000000000000000e+00" itree="32">
      <Node pos="s" depth="0" NCoef="0" IVar="7" Cut="4.0211032104492188e+02" cType="1" res="7.4015406426042318e-04" rms="4.3080347776412964e-01" purity="5.0344961881637573e-01" nType="0">
        <Node pos="l" depth="1" NCoef="0" IVar="7" Cut="1.3883389282226562e+02" cType="1" res="-1.1179296299815178e-02" rms="4.3306890130043030e-01" purity="4.7095665335655212e-01" nType="0">
          <Node pos="l" depth="2" NCoef="0" IVar="-1" Cut="0.0000000000000000e+00" cType="1" res="-1.8348902463912964e-02" rms="3.8765975832939148e-01" purity="2.3268623650074005e-01" nType="-99"/>
          <Node pos="r" depth="2" NCoef="0" IVar="0" Cut="2.7376578125000000e+05" cType="1" res="5.8879568241536617e-03" rms="4.4210821390151978e-01" purity="5.3081023693084717e-01" nType="0">
            <Node pos="l" depth="3" NCoef="0" IVar="0" Cut="1.3463898437500000e+05" cType="1" res="2.2252161055803299e-02" rms="4.5394027233123779e-01" purity="6.0404920578002930e-01" nType="0">
              <Node pos="l" depth="4" NCoef="0" IVar="-1" Cut="0.0000000000000000e+00" cType="1" res="-9.1892257332801819e-03" rms="4.6630012989044189e-01" purity="5.0479894876480103e-01" nType="-99"/>
              <Node pos="r" depth="4" NCoef="0" IVar="-1" Cut="0.0000000000000000e+00" cType="1" res="1.1243111453950405e-02" rms="4.4885808229446411e-01" purity="6.2932455539703369e-01" nType="-99"/>
            </Node>
            <Node pos="r" depth="3" NCoef="0" IVar="-1" Cut="0.0000000000000000e+00" cType="1" res="-4.8821088857948780e-03" rms="3.8370716571807861e-01" purity="2.3524290323257446e-01" nType="-99"/>
          </Node>
        </Node>
        <Node pos="r" depth="1" NCoef="0" IVar="-1" Cut="0.0000000000000000e+00" cType="1" res="2.4262035265564919e-02" rms="4.0741232037544250e-01" purity="7.1432453393936157e-01" nType="-99"/>
      </Node>
    </BinaryTree>
    <BinaryTree type="DecisionTree" boostWeight="1.0000000000000000e+00" itree="33">
      <Node pos="s" depth="0" NCoef="0" IVar="3" Cut="5.1958300781250000e+04" cType="1" res="-1.2436014600098133e-02" rms="4.3421301245689392e-01" purity="4.9208214879035950e-01" nType="0">
        <Node pos="l" depth="1" NCoef="0" IVar="-1" Cut="0.0000000000000000e+00" cType="1" res="-1.2663055211305618e-02" rms="3.9388915896415710e-01" purity="2.7888199687004089e-01" nType="-99"/>
        <Node pos="r" depth="1" NCoef="0" IVar="9" Cut="3.0000000000000000e+00" cType="1" res="0.0000000000000000e+00" rms="0.0000000000000000e+00" purity="5.3328686952590942e-01" nType="0">
          <Node pos="l" depth="2" NCoef="0" IVar="6" Cut="5.9895914793014526e-01" cType="1" res="-3.1918294727802277e-02" rms="4.4411751627922058e-01" purity="4.4998061656951904e-01" nType="0">
            <Node pos="l" depth="3" NCoef="0" IVar="-1" Cut="0.0000000000000000e+00" cType="1" res="-1.6518726944923401e-02" rms="4.5930600166320801e-01" purity="3.5422232747077942e-01" nType="-99"/>
            <Node pos="r" depth="3" NCoef="0" IVar="7" Cut="1.7675125122070312e+02" cType="1" res="-1.9087097607553005e-03" rms="4.3395444750785828e-01" purity="4.9146559834480286e-01" nType="0">
              <Node pos="l" depth="4" NCoef="0" IVar="-1" Cut="0.0000000000000000e+00" cType="1" res="-1.3212637044489384e-02" rms="4.2279195785522461e-01" purity="3.2222151756286621e-01" nType="-99"/>
              <Node pos="r" depth="4" NCoef="0" IVar="-1" Cut="0.0000000000000000e+00" cType="1" res="7.6475171372294426e-03" rms="4.4008839130401611e-01" purity="6.3101351261138916e-01" nType="-99"/>
            </Node>
          </Node>
          <Node pos="r" depth="2" NCoef="0" IVar="8" Cut="2.9098420143127441e+00" cType="1" res="2.7435017749667168e-02" rms="4.3544831871986389e-01" purity="6.0042041540145874e-01" nType="0">
            <Node pos="l" depth="3" NCoef="0" IVar="-1" Cut="0.0000000000000000e+00" cType="1" res="-4.1696210391819477e-03" rms="4.4973853230476379e-01" purity="5.2590572834014893e-01" nType="-99"/>
            <Node pos="r" depth="3" NCoef="0" IVar="8" Cut="3.0645539760589600e+00" cType="1" res="0.0000000000000000e+00" rms="0.0000000000000000e+00" purity="6.3691729307174683e-01" nType="0">
              <Node pos="l" depth="4" NCoef="0" IVar="-1" Cut="0.0000000000000000e+00" cType="1" res="9.0251546353101730e-03" rms="4.3353113532066345e-01" purity="6.0818076133728027e-01" nType="-99"/>
              <Node pos="r" depth="4" NCoef="0" IVar="-1" Cut="0.0000000000000000e+00" cType="1" res="2.2791212424635887e-02" rms="4.1536673903465271e-01" purity="6.7660260200500488e-01" nType="-99"/>
            </Node>
          </Node>
        </Node>
      </Node>
    </BinaryTree>
    <BinaryTree type="DecisionTree" boostWeight="1.0000000000000000e+00" itree="34">
      <Node pos="s" depth="0" NCoef="0" IVar="2" Cut="1.6309695243835449e+00" cType="1" res="4.9310349859297276e-03" rms="4.3209370970726013e-01" purity="5.1268261671066284e-01" nType="0">
        <Node pos="l" depth="1" NCoef="0" IVar="0" Cut="2.5269901562500000e+05" cType="1" res="-2.6204286143183708e-02" rms="4.1432580351829529e-01" purity="3.9414802193641663e-01" nType="0">
          <Node pos="l" depth="2" NCoef="0" IVar="8" Cut="2.9527144432067871e+00" cType="1" res="0.0000000000000000e+00" rms="0.0000000000000000e+00" purity="5.0922870635986328e-01" nType="0">
            <Node pos="l" depth="3" NCoef="0" IVar="-1" Cut="0.0000000000000000e+00" cType="1" res="-5.4182629100978374e-03" rms="4.6758010983467102e-01" purity="4.4269871711730957e-01" nType="-99"/>
            <Node pos="r" depth="3" NCoef="0" IVar="-1" Cut="0.0000000000000000e+00" cType="1" res="7.4655977077782154e-03" rms="4.4143015146255493e-01" purity="5.6042510271072388e-01" nType="-99"/>
          </Node>
          <Node pos="r" depth="2" NCoef="0" IVar="-1" Cut="0.0000000000000000e+00" cType="1" res="-4.6373698860406876e-02" rms="2.9825785756111145e-01" purity="1.3814930617809296e-01" nType="-99"/>
        </Node>
        <Node pos="r" depth="1" NCoef="0" IVar="1" Cut="1.3468478918075562e+00" cType="1" res="2.5757296010851860e-02" rms="4.4236001372337341e-01" purity="5.9196990728378296e-01" nType="0">
          <Node pos="l" depth="2" NCoef="0" IVar="1" Cut="-2.2854509353637695e+00" cType="1" res="7.2203315794467926e-03" rms="4.4328260421752930e-01" purity="5.6741333007812500e-01" nType="0">
            <Node pos="l" depth="3" NCoef="0" IVar="-1" Cut="0.0000000000000000e+00" cType="1" res="1.3736492954194546e-02" rms="4.4077816605567932e-01" purity="6.2275886535644531e-01" nType="-99"/>
            <Node pos="r" depth="3" NCoef="0" IVar="6" Cut="6.8354123830795288e-01" cType="1" res="-2.3489890620112419e-02" rms="4.4157293438911438e-01" purity="5.3771674633026123e-01" nType="0">
              <Node pos="l" depth="4" NCoef="0" IVar="-1" Cut="0.0000000000000000e+00" cType="1" res="-9.4777657068334520e-05" rms="4.4718483090400696e-01" purity="5.9293037652969360e-01" nType="-99"/>
              <Node pos="r" depth="4" NCoef="0" IVar="-1" Cut="0.0000000000000000e+00" cType="1" res="-3.5178381949663162e-03" rms="4.3227937817573547e-01" purity="4.6540641784667969e-01" nType="-99"/>
            </Node>
          </Node>
          <Node pos="r" depth="2" NCoef="0" IVar="6" Cut="6.4346623420715332e-01" cType="1" res="5.7729072868824005e-02" rms="4.3892854452133179e-01" purity="6.3432395458221436e-01" nType="0">
            <Node pos="l" depth="3" NCoef="0" IVar="-1" Cut="0.0000000000000000e+00" cType="1" res="6.7102983593940735e-03" rms="4.6148461103439331e-01" purity="5.8439129590988159e-01" nType="-99"/>
            <Node pos="r" depth="3" NCoef="0" IVar="-1" Cut="0.0000000000000000e+00" cType="1" res="2.2650094702839851e-02" rms="4.1422086954116821e-01" purity="6.8155169486999512e-01" nType="-99"/>
          </Node>
        </Node>
      </Node>
    </BinaryTree>
    <BinaryTree type="DecisionTree" boostWeight="1.0000000000000000e+00" itree="35">
      <Node pos="s" depth="0" NCoef="0" IVar="5" Cut="1.9286309814453125e+02" cType="1" res="0.0000000000000000e+00" rms="0.0000000000000000e+00" purity="5.0409734249114990e-01" nType="0">
        <Node pos="l" depth="1" NCoef="0" IVar="5" Cut="1.5160623168945312e+02" cType="1" res="2.0639255642890930e-02" rms="4.2710041999816895e-01" purity="5.4707962274551392e-01" nType="0">
          <Node pos="l" depth="2" NCoef="0" IVar="-1" Cut="0.0000000000000000e+00" cType="1" res="-1.1291694827377796e-02" rms="4.2919388413429260e-01" purity="4.4677668809890747e-01" nType="-99"/>
          <Node pos="r" depth="2" NCoef="0" IVar="4" Cut="4.6619156250000000e+04" cType="1" res="3.7577252835035324e-02" rms="4.2497920989990234e-01" purity="5.7549661397933960e-01" nType="0">
            <Node pos="l" depth="3" NCoef="0" IVar="-1" Cut="0.0000000000000000e+00" cType="1" res="1.5048916684463620e-03" rms="4.2418435215950012e-01" purity="4.1545855998992920e-01" nType="-99"/>
            <Node pos="r" depth="3" NCoef="0" IVar="5" Cut="1.7124562072753906e+02" cType="1" res="0.0000000000000000e+00" rms="0.0000000000000000e+00" purity="6.5188020467758179e-01" nType="0">
              <Node pos="l" depth="4" NCoef="0" IVar="-1" Cut="0.0000000000000000e+00" cType="1" res="1.5685642138123512e-02" rms="4.1589459776878357e-01" purity="6.8435919284820557e-01" nType="-99"/>
              <Node pos="r" depth="4" NCoef="0" IVar="-1" Cut="0.0000000000000000e+00" cType="1" res="6.4212465658783913e-03" rms="4.3089488148689270e-01" purity="6.2016099691390991e-01" nType="-99"/>
            </Node>
          </Node>
        </Node>
        <Node pos="r" depth="1" NCoef="0" IVar="3" Cut="9.6331609375000000e+04" cType="1" res="-3.2706756144762039e-02" rms="4.4366177916526794e-01" purity="4.4644138216972351e-01" nType="0">
          <Node pos="l" depth="2" NCoef="0" IVar="4" Cut="5.1786054687500000e+04" cType="1" res="-6.5695129334926605e-02" rms="4.3361270427703857e-01" purity="3.7304350733757019e-01" nType="0">
            <Node pos="l" depth="3" NCoef="0" IVar="-1" Cut="0.0000000000000000e+00" cType="1" res="-1.0833380743861198e-02" rms="4.2636379599571228e-01" purity="3.3590251207351685e-01" nType="-99"/>
            <Node pos="r" depth="3" NCoef="0" IVar="-1" Cut="0.0000000000000000e+00" cType="1" res="-2.1012911573052406e-02" rms="4.4029161334037781e-01" purity="4.1649886965751648e-01" nType="-99"/>
          </Node>
          <Node pos="r" depth="2" NCoef="0" IVar="-1" Cut="0.0000000000000000e+00" cType="1" res="8.6645194096490741e-04" rms="4.5161089301109314e-01" purity="5.2625995874404907e-01" nType="-99"/>
        </Node>
      </Node>
    </BinaryTree>
    <BinaryTree type="DecisionTree" boostWeight="1.0000000000000000e+00" itree="36">
      <Node pos="s" depth="0" NCoef="0" IVar="6" Cut="4.8465785384178162e-01" cType="1" res="-1.6160227358341217e-02" rms="4.2905497550964355e-01" purity="4.8431676626205444e-01" nType="0">
        <Node pos="l" depth="1" NCoef="0" IVar="-1" Cut="0.0000000000000000e+00" cType="1" res="-3.0191628262400627e-02" rms="4.5900389552116394e-01" purity="3.3229982852935791e-01" nType="-99"/>
        <Node pos="r" depth="1" NCoef="0" IVar="3" Cut="6.2526652343750000e+04" cType="1" res="-6.0368371196091175e-03" rms="4.2437830567359924e-01" purity="5.0130063295364380e-01" nType="0">
          <Node pos="l" depth="2" NCoef="0" IVar="1" Cut="4.4880813360214233e-01" cType="1" res="0.0000000000000000e+00" rms="0.0000000000000000e+00" purity="3.2167157530784607e-01" nType="0">
            <Node pos="l" depth="3" NCoef="0" IVar="-1" Cut="0.0000000000000000e+00" cType="1" res="-4.5925835147500038e-03" rms="3.9132064580917358e-01" purity="2.8059291839599609e-01" nType="-99"/>
            <Node pos="r" depth="3" NCoef="0" IVar="-1" Cut="0.0000000000000000e+00" cType="1" res="-4.4579710811376572e-03" rms="4.1788902878761292e-01" purity="3.7992006540298462e-01" nType="-99"/>
          </Node>
          <Node pos="r" depth="2" NCoef="0" IVar="2" Cut="1.6600044965744019e+00" cType="1" res="1.7493255436420441e-02" rms="4.3037548661231995e-01" purity="5.7686835527420044e-01" nType="0">
            <Node pos="l" depth="3" NCoef="0" IVar="7" Cut="2.2192062377929688e+02" cType="1" res="0.0000000000000000e+00" rms="0.0000000000000000e+00" purity="4.6190223097801208e-01" nType="0">
              <Node pos="l" depth="4" NCoef="0" IVar="-1" Cut="0.0000000000000000e+00" cType="1" res="-2.1349627524614334e-02" rms="3.9429512619972229e-01" purity="2.6512473821640015e-01" nType="-99"/>
              <Node pos="r" depth="4" NCoef="0" IVar="-1" Cut="0.0000000000000000e+00" cType="1" res="3.1061838380992413e-03" rms="4.3784400820732117e-01" purity="5.8584749698638916e-01" nType="-99"/>
            </Node>
            <Node pos="r" depth="3" NCoef="0" IVar="6" Cut="6.5280842781066895e-01" cType="1" res="4.1967917233705521e-02" rms="4.3392023444175720e-01" purity="6.5978902578353882e-01" nType="0">
              <Node pos="l" depth="4" NCoef="0" IVar="-1" Cut="0.0000000000000000e+00" cType="1" res="4.7642155550420284e-03" rms="4.4831803441047668e-01" purity="6.2561506032943726e-01" nType="-99"/>
              <Node pos="r" depth="4" NCoef="0" IVar="-1" Cut="0.0000000000000000e+00" cType="1" res="1.7787326127290726e-02" rms="4.1341885924339294e-01" purity="7.0381230115890503e-01" nType="-99"/>
            </Node>
          </Node>
        </Node>
      </Node>
    </BinaryTree>
    <BinaryTree type="DecisionTree" boostWeight="1.0000000000000000e+00" itree="37">
      <Node pos="s" depth="0" NCoef="0" IVar="9" Cut="2.0000000000000000e+00" cType="1" res="-2.8963368386030197e-03" rms="4.3469935655593872e-01" purity="5.0348359346389771e-01" nType="0">
        <Node pos="l" depth="1" NCoef="0" IVar="-1" Cut="0.0000000000000000e+00" cType="1" res="-7.6567847281694412e-03" rms="4.4476234912872314e-01" purity="3.5906442999839783e-01" nType="-99"/>
        <Node pos="r" depth="1" NCoef="0" IVar="6" Cut="5.0971919298171997e-01" cType="1" res="6.8535814061760902e-03" rms="4.3221819400787354e-01" purity="5.2792656421661377e-01" nType="0">
          <Node pos="l" depth="2" NCoef="0" IVar="-1" Cut="0.0000000000000000e+00" cType="1" res="-1.2301369570195675e-02" rms="4.7165611386299133e-01" purity="3.8672265410423279e-01" nType="-99"/>
          <Node pos="r" depth="2" NCoef="0" IVar="3" Cut="5.2179628906250000e+04" cType="1" res="1.9124256446957588e-02" rms="4.2278158664703369e-01" purity="5.5632436275482178e-01" nType="0">
            <Node pos="l" depth="3" NCoef="0" IVar="-1" Cut="0.0000000000000000e+00" cType="1" res="-8.5772620514035225e-03" rms="4.0507960319519043e-01" purity="3.2302188873291016e-01" nType="-99"/>
            <Node pos="r" depth="3" NCoef="0" IVar="5" Cut="1.8916732788085938e+02" cType="1" res="2.8449758887290955e-02" rms="4.2545053362846375e-01" purity="6.0098248720169067e-01" nType="0">
              <Node pos="l" depth="4" NCoef="0" IVar="-1" Cut="0.0000000000000000e+00" cType="1" res="1.4087351039052010e-02" rms="4.1581797599792480e-01" purity="6.5433084964752197e-01" nType="-99"/>
              <Node pos="r" depth="4" NCoef="0" IVar="-1" Cut="0.0000000000000000e+00" cType="1" res="8.4175134543329477e-04" rms="4.3547710776329041e-01" purity="5.3631192445755005e-01" nType="-99"/>
            </Node>
          </Node>
        </Node>
      </Node>
    </BinaryTree>
    <BinaryTree type="DecisionTree" boostWeight="1.0000000000000000e+00" itree="38">
      <Node pos="s" depth="0" NCoef="0" IVar="2" Cut="1.0142990350723267e+00" cType="1" res="-5.6014284491539001e-03" rms="4.2883864045143127e-01" purity="4.9345678091049194e-01" nType="0">
        <Node pos="l" depth="1" NCoef="0" IVar="2" Cut="7.0188689231872559e-01" cType="1" res="-4.8378504812717438e-02" rms="3.7541639804840088e-01" purity="2.8303870558738708e-01" nType="0">
          <Node pos="l" depth="2" NCoef="0" IVar="-1" Cut="0.0000000000000000e+00" cType="1" res="-2.6643848046660423e-02" rms="3.4266045689582825e-01" purity="2.2086127102375031e-01" nType="-99"/>
          <Node pos="r" depth="2" NCoef="0" IVar="-1" Cut="0.0000000000000000e+00" cType="1" res="-9.2862807214260101e-03" rms="4.0318363904953003e-01" purity="3.4211033582687378e-01" nType="-99"/>
        </Node>
        <Node pos="r" depth="1" NCoef="0" IVar="4" Cut="8.3960585937500000e+04" cType="1" res="6.1681484803557396e-03" rms="4.4168075919151306e-01" purity="5.5135077238082886e-01" nType="0">
          <Node pos="l" depth="2" NCoef="0" IVar="9" Cut="2.0000000000000000e+00" cType="1" res="-4.8387241549789906e-03" rms="4.4396677613258362e-01" purity="5.1552748680114746e-01" nType="0">
            <Node pos="l" depth="3" NCoef="0" IVar="-1" Cut="0.0000000000000000e+00" cType="1" res="-8.7013831362128258e-03" rms="4.4424566626548767e-01" purity="3.6209294199943542e-01" nType="-99"/>
            <Node pos="r" depth="3" NCoef="0" IVar="6" Cut="6.1903637647628784e-01" cType="1" res="5.2608596161007881e-03" rms="4.4323229789733887e-01" purity="5.4622840881347656e-01" nType="0">
              <Node pos="l" depth="4" NCoef="0" IVar="-1" Cut="0.0000000000000000e+00" cType="1" res="-3.9652055129408836e-03" rms="4.6039783954620361e-01" purity="4.9927493929862976e-01" nType="-99"/>
              <Node pos="r" depth="4" NCoef="0" IVar="-1" Cut="0.0000000000000000e+00" cType="1" res="6.1169564723968506e-03" rms="4.3092733621597290e-01" purity="5.7679253816604614e-01" nType="-99"/>
            </Node>
          </Node>
          <Node pos="r" depth="2" NCoef="0" IVar="-1" Cut="0.0000000000000000e+00" cType="1" res="1.5726353973150253e-02" rms="4.2885887622833252e-01" purity="7.0134997367858887e-01" nType="-99"/>
        </Node>
      </Node>
    </BinaryTree>
    <BinaryTree type="DecisionTree" boostWeight="1.0000000000000000e+00" itree="39">
      <Node pos="s" depth="0" NCoef="0" IVar="3" Cut="1.0445880468750000e+05" cType="1" res="-1.9262456335127354e-03" rms="4.3286740779876709e-01" purity="5.0004523992538452e-01" nType="0">
        <Node pos="l" depth="1" NCoef="0" IVar="8" Cut="2.9985895156860352e+00" cType="1" res="-2.3823084309697151e-02" rms="4.2723441123962402e-01" purity="4.4939404726028442e-01" nType="0">
          <Node pos="l" depth="2" NCoef="0" IVar="1" Cut="1.3463033437728882e+00" cType="1" res="-5.6046843528747559e-02" rms="4.3725532293319702e-01" purity="4.0841150283813477e-01" nType="0">
            <Node pos="l" depth="3" NCoef="0" IVar="1" Cut="-1.6457922458648682e+00" cType="1" res="-7.3065236210823059e-02" rms="4.3546518683433533e-01" purity="3.7970608472824097e-01" nType="0">
              <Node pos="l" depth="4" NCoef="0" IVar="-1" Cut="0.0000000000000000e+00" cType="1" res="-8.6693335324525833e-03" rms="4.3594738841056824e-01" purity="4.2559990286827087e-01" nType="-99"/>
              <Node pos="r" depth="4" NCoef="0" IVar="-1" Cut="0.0000000000000000e+00" cType="1" res="-3.3834815025329590e-02" rms="4.3074917793273926e-01" purity="3.3523255586624146e-01" nType="-99"/>
            </Node>
            <Node pos="r" depth="3" NCoef="0" IVar="-1" Cut="0.0000000000000000e+00" cType="1" res="-7.5094774365425110e-03" rms="4.3880832195281982e-01" purity="4.6113821864128113e-01" nType="-99"/>
          </Node>
          <Node pos="r" depth="2" NCoef="0" IVar="4" Cut="4.0032656250000000e+04" cType="1" res="0.0000000000000000e+00" rms="0.0000000000000000e+00" purity="4.8726227879524231e-01" nType="0">
            <Node pos="l" depth="3" NCoef="0" IVar="-1" Cut="0.0000000000000000e+00" cType="1" res="-1.0368814691901207e-02" rms="3.9672675728797913e-01" purity="3.2544305920600891e-01" nType="-99"/>
            <Node pos="r" depth="3" NCoef="0" IVar="9" Cut="3.0000000000000000e+00" cType="1" res="2.6971193030476570e-02" rms="4.2227059602737427e-01" purity="5.6189846992492676e-01" nType="0">
              <Node pos="l" depth="4" NCoef="0" IVar="-1" Cut="0.0000000000000000e+00" cType="1" res="3.0468588229268789e-03" rms="4.4090685248374939e-01" purity="4.7398528456687927e-01" nType="-99"/>
              <Node pos="r" depth="4" NCoef="0" IVar="-1" Cut="0.0000000000000000e+00" cType="1" res="1.2392659671604633e-02" rms="4.0586587786674500e-01" purity="6.3407021760940552e-01" nType="-99"/>
            </Node>
          </Node>
        </Node>
        <Node pos="r" depth="1" NCoef="0" IVar="5" Cut="2.0091436767578125e+02" cType="1" res="4.4547047466039658e-02" rms="4.4099843502044678e-01" purity="6.0754597187042236e-01" nType="0">
          <Node pos="l" depth="2" NCoef="0" IVar="-1" Cut="0.0000000000000000e+00" cType="1" res="1.8183559179306030e-02" rms="4.3534654378890991e-01" purity="6.7227250337600708e-01" nType="-99"/>
          <Node pos="r" depth="2" NCoef="0" IVar="-1" Cut="0.0000000000000000e+00" cType="1" res="3.0377784278243780e-03" rms="4.4477286934852600e-01" purity="5.3839915990829468e-01" nType="-99"/>
        </Node>
      </Node>
    </BinaryTree>
    <BinaryTree type="DecisionTree" boostWeight="1.0000000000000000e+00" itree="40">
      <Node pos="s" depth="0" NCoef="0" IVar="3" Cut="6.0776324218750000e+04" cType="1" res="0.0000000000000000e+00" rms="0.0000000000000000e+00" purity="4.9266812205314636e-01" nType="0">
        <Node pos="l" depth="1" NCoef="0" IVar="2" Cut="2.1051197052001953e+00" cType="1" res="-5.5126931518316269e-02" rms="4.0944531559944153e-01" purity="3.2369786500930786e-01" nType="0">
          <Node pos="l" depth="2" NCoef="0" IVar="-1" Cut="0.0000000000000000e+00" cType="1" res="-4.2557087726891041e-03" rms="3.7221738696098328e-01" purity="2.2829833626747131e-01" nType="-99"/>
          <Node pos="r" depth="2" NCoef="0" IVar="-1" Cut="0.0000000000000000e+00" cType="1" res="-3.1747065950185061e-03" rms="4.5177462697029114e-01" purity="4.5355182886123657e-01" nType="-99"/>
        </Node>
        <Node pos="r" depth="1" NCoef="0" IVar="5" Cut="2.4315802001953125e+02" cType="1" res="3.5035531036555767e-03" rms="4.3557158112525940e-01" purity="5.4882669448852539e-01" nType="0">
          <Node pos="l" depth="2" NCoef="0" IVar="5" Cut="1.8736466979980469e+02" cType="1" res="1.9841047003865242e-02" rms="4.3211904168128967e-01" purity="5.8436429500579834e-01" nType="0">
            <Node pos="l" depth="3" NCoef="0" IVar="5" Cut="1.6151580810546875e+02" cType="1" res="0.0000000000000000e+00" rms="0.0000000000000000e+00" purity="6.2812006473541260e-01" nType="0">
              <Node pos="l" depth="4" NCoef="0" IVar="-1" Cut="0.0000000000000000e+00" cType="1" res="1.2050129007548094e-03" rms="4.3607994914054871e-01" purity="5.8775019645690918e-01" nType="-99"/>
              <Node pos="r" depth="4" NCoef="0" IVar="-1" Cut="0.0000000000000000e+00" cType="1" res="1.9097194075584412e-02" rms="4.2105475068092346e-01" purity="6.5641093254089355e-01" nType="-99"/>
            </Node>
            <Node pos="r" depth="3" NCoef="0" IVar="-1" Cut="0.0000000000000000e+00" cType="1" res="-4.4611091725528240e-03" rms="4.3726456165313721e-01" purity="5.0017023086547852e-01" nType="-99"/>
          </Node>
          <Node pos="r" depth="2" NCoef="0" IVar="-1" Cut="0.0000000000000000e+00" cType="1" res="-1.1054703034460545e-02" rms="4.4208240509033203e-01" purity="4.4438868761062622e-01" nType="-99"/>
        </Node>
      </Node>
    </BinaryTree>
    <BinaryTree type="DecisionTree" boostWeight="1.0000000000000000e+00" itree="41">
      <Node pos="s" depth="0" NCoef="0" IVar="1" Cut="7.4822586774826050e-01" cType="1" res="0.0000000000000000e+00" rms="0.0000000000000000e+00" purity="5.0258314609527588e-01" nType="0">
        <Node pos="l" depth="1" NCoef="0" IVar="1" Cut="-7.3363834619522095e-01" cType="1" res="-1.8591895699501038e-02" rms="4.3186447024345398e-01" purity="4.6825897693634033e-01" nType="0">
          <Node pos="l" depth="2" NCoef="0" IVar="5" Cut="1.8666909790039062e+02" cType="1" res="-6.7110350355505943e-03" rms="4.3838956952095032e-01" purity="4.8682621121406555e-01" nType="0">
            <Node pos="l" depth="3" NCoef="0" IVar="6" Cut="6.5095275640487671e-01" cType="1" res="1.7328480258584023e-02" rms="4.4514867663383484e-01" purity="5.3681629896163940e-01" nType="0">
              <Node pos="l" depth="4" NCoef="0" IVar="-1" Cut="0.0000000000000000e+00" cType="1" res="6.4428225159645081e-03" rms="4.5999652147293091e-01" purity="5.6424283981323242e-01" nType="-99"/>
              <Node pos="r" depth="4" NCoef="0" IVar="-1" Cut="0.0000000000000000e+00" cType="1" res="3.5119948443025351e-03" rms="4.2851027846336365e-01" purity="5.0734990835189819e-01" nType="-99"/>
            </Node>
            <Node pos="r" depth="3" NCoef="0" IVar="-1" Cut="0.0000000000000000e+00" cType="1" res="-6.6940174438059330e-03" rms="4.2984303832054138e-01" purity="4.3494296073913574e-01" nType="-99"/>
          </Node>
          <Node pos="r" depth="2" NCoef="0" IVar="-1" Cut="0.0000000000000000e+00" cType="1" res="-1.3407868333160877e-02" rms="4.0955325961112976e-01" purity="4.1243553161621094e-01" nType="-99"/>
        </Node>
        <Node pos="r" depth="1" NCoef="0" IVar="4" Cut="6.3051835937500000e+04" cType="1" res="3.0479373410344124e-02" rms="4.4021007418632507e-01" purity="5.4516679048538208e-01" nType="0">
          <Node pos="l" depth="2" NCoef="0" IVar="4" Cut="4.1406273437500000e+04" cType="1" res="1.2065449263900518e-03" rms="4.3646121025085449e-01" purity="4.4955846667289734e-01" nType="0">
            <Node pos="l" depth="3" NCoef="0" IVar="-1" Cut="0.0000000000000000e+00" cType="1" res="-5.3062718361616135e-03" rms="4.3454325199127197e-01" purity="3.7894573807716370e-01" nType="-99"/>
            <Node pos="r" depth="3" NCoef="0" IVar="-1" Cut="0.0000000000000000e+00" cType="1" res="4.9170772545039654e-03" rms="4.3726706504821777e-01" purity="5.0070464611053467e-01" nType="-99"/>
          </Node>
          <Node pos="r" depth="2" NCoef="0" IVar="-1" Cut="0.0000000000000000e+00" cType="1" res="1.2328097596764565e-02" rms="4.4213527441024780e-01" purity="6.6487377882003784e-01" nType="-99"/>
        </Node>
      </Node>
    </BinaryTree>
    <BinaryTree type="DecisionTree" boostWeight="1.0000000000000000e+00" itree="42">
      <Node pos="s" depth="0" NCoef="0" IVar="4" Cut="7.8776234375000000e+04" cType="1" res="-4.3740030378103256e-04" rms="4.2918410897254944e-01" purity="5.0016105175018311e-01" nType="0">
        <Node pos="l" depth="1" NCoef="0" IVar="6" Cut="5.9857046604156494e-01" cType="1" res="0.0000000000000000e+00" rms="0.0000000000000000e+00" purity="4.4215211272239685e-01" nType="0">
          <Node pos="l" depth="2" NCoef="0" IVar="2" Cut="1.8963593244552612e+00" cType="1" res="-6.8276084959506989e-02" rms="4.3502014875411987e-01" purity="3.6383318901062012e-01" nType="0">
            <Node pos="l" depth="3" NCoef="0" IVar="-1" Cut="0.0000000000000000e+00" cType="1" res="-1.7701378092169762e-02" rms="4.0987533330917358e-01" purity="3.0149835348129272e-01" nType="-99"/>
            <Node pos="r" depth="3" NCoef="0" IVar="-1" Cut="0.0000000000000000e+00" cType="1" res="-1.5902822837233543e-02" rms="4.5908719301223755e-01" purity="4.2703285813331604e-01" nType="-99"/>
          </Node>
          <Node pos="r" depth="2" NCoef="0" IVar="6" Cut="7.6859587430953979e-01" cType="1" res="-1.2473543174564838e-03" rms="4.2016899585723877e-01" purity="4.7213980555534363e-01" nType="0">
            <Node pos="l" depth="3" NCoef="0" IVar="5" Cut="1.7004937744140625e+02" cType="1" res="0.0000000000000000e+00" rms="0.0000000000000000e+00" purity="5.3186005353927612e-01" nType="0">
              <Node pos="l" depth="4" NCoef="0" IVar="-1" Cut="0.0000000000000000e+00" cType="1" res="9.1681070625782013e-03" rms="4.1332960128784180e-01" purity="5.8103448152542114e-01" nType="-99"/>
              <Node pos="r" depth="4" NCoef="0" IVar="-1" Cut="0.0000000000000000e+00" cType="1" res="2.2463430650532246e-04" rms="4.2632192373275757e-01" purity="5.0350046157836914e-01" nType="-99"/>
            </Node>
            <Node pos="r" depth="3" NCoef="0" IVar="-1" Cut="0.0000000000000000e+00" cType="1" res="-1.0708461515605450e-02" rms="4.1351231932640076e-01" purity="3.4888991713523865e-01" nType="-99"/>
          </Node>
        </Node>
        <Node pos="r" depth="1" NCoef="0" IVar="3" Cut="1.2700135937500000e+05" cType="1" res="0.0000000000000000e+00" rms="0.0000000000000000e+00" purity="6.6430896520614624e-01" nType="0">
          <Node pos="l" depth="2" NCoef="0" IVar="-1" Cut="0.0000000000000000e+00" cType="1" res="5.1467018201947212e-03" rms="4.3152809143066406e-01" purity="6.5466046333312988e-01" nType="-99"/>
          <Node pos="r" depth="2" NCoef="0" IVar="-1" Cut="0.0000000000000000e+00" cType="1" res="1.7224986106157303e-02" rms="4.3650576472282410e-01" purity="6.7488217353820801e-01" nType="-99"/>
        </Node>
      </Node>
    </BinaryTree>
    <BinaryTree type="DecisionTree" boostWeight="1.0000000000000000e+00" itree="43">
      <Node pos="s" depth="0" NCoef="0" IVar="0" Cut="3.4394775000000000e+05" cType="1" res="-8.0797951668500900e-03" rms="4.2731350660324097e-01" purity="4.9402567744255066e-01" nType="0">
        <Node pos="l" depth="1" NCoef="0" IVar="0" Cut="2.1595298437500000e+05" cType="1" res="6.5174745395779610e-03" rms="4.4166749715805054e-01" purity="5.5105412006378174e-01" nType="0">
          <Node pos="l" depth="2" NCoef="0" IVar="6" Cut="5.4007971286773682e-01" cType="1" res="2.5157930329442024e-02" rms="4.4718262553215027e-01" purity="6.0603600740432739e-01" nType="0">
            <Node pos="l" depth="3" NCoef="0" IVar="-1" Cut="0.0000000000000000e+00" cType="1" res="-1.2076051905751228e-02" rms="4.7385767102241516e-01" purity="4.3959316611289978e-01" nType="-99"/>
            <Node pos="r" depth="3" NCoef="0" IVar="7" Cut="2.8231137084960938e+02" cType="1" res="0.0000000000000000e+00" rms="0.0000000000000000e+00" purity="6.4824682474136353e-01" nType="0">
              <Node pos="l" depth="4" NCoef="0" IVar="-1" Cut="0.0000000000000000e+00" cType="1" res="8.7012974545359612e-03" rms="4.6268308162689209e-01" purity="5.6497603654861450e-01" nType="-99"/>
              <Node pos="r" depth="4" NCoef="0" IVar="-1" Cut="0.0000000000000000e+00" cType="1" res="1.9080214202404022e-02" rms="3.8489344716072083e-01" purity="8.0185866355895996e-01" nType="-99"/>
            </Node>
          </Node>
          <Node pos="r" depth="2" NCoef="0" IVar="7" Cut="2.0494389343261719e+02" cType="1" res="-3.5383924841880798e-02" rms="4.2604464292526245e-01" purity="4.2746180295944214e-01" nType="0">
            <Node pos="l" depth="3" NCoef="0" IVar="-1" Cut="0.0000000000000000e+00" cType="1" res="-2.5953175500035286e-02" rms="3.9282482862472534e-01" purity="2.3904711008071899e-01" nType="-99"/>
            <Node pos="r" depth="3" NCoef="0" IVar="-1" Cut="0.0000000000000000e+00" cType="1" res="-1.4519094256684184e-03" rms="4.4715487957000732e-01" purity="5.6970024108886719e-01" nType="-99"/>
          </Node>
        </Node>
        <Node pos="r" depth="1" NCoef="0" IVar="-1" Cut="0.0000000000000000e+00" cType="1" res="-4.7319401055574417e-03" rms="3.0002242326736450e-01" purity="1.1921676993370056e-01" nType="-99"/>
      </Node>
    </BinaryTree>
    <BinaryTree type="DecisionTree" boostWeight="1.0000000000000000e+00" itree="44">
      <Node pos="s" depth="0" NCoef="0" IVar="4" Cut="4.0644570312500000e+04" cType="1" res="0.0000000000000000e+00" rms="0.0000000000000000e+00" purity="4.9852088093757629e-01" nType="0">
        <Node pos="l" depth="1" NCoef="0" IVar="4" Cut="3.4746070312500000e+04" cType="1" res="-4.6180587261915207e-02" rms="4.0726560354232788e-01" purity="3.1058949232101440e-01" nType="0">
          <Node pos="l" depth="2" NCoef="0" IVar="-1" Cut="0.0000000000000000e+00" cType="1" res="-2.3747745901346207e-02" rms="3.9052444696426392e-01" purity="2.6282644271850586e-01" nType="-99"/>
          <Node pos="r" depth="2" NCoef="0" IVar="-1" Cut="0.0000000000000000e+00" cType="1" res="-1.9424607744440436e-03" rms="4.2065936326980591e-01" purity="3.5778605937957764e-01" nType="-99"/>
        </Node>
        <Node pos="r" depth="1" NCoef="0" IVar="0" Cut="2.9263240625000000e+05" cType="1" res="6.8150744773447514e-03" rms="4.3519723415374756e-01" purity="5.5204719305038452e-01" nType="0">
          <Node pos="l" depth="2" NCoef="0" IVar="1" Cut="-1.6451966762542725e+00" cType="1" res="0.0000000000000000e+00" rms="0.0000000000000000e+00" purity="6.1169552803039551e-01" nType="0">
            <Node pos="l" depth="3" NCoef="0" IVar="-1" Cut="0.0000000000000000e+00" cType="1" res="1.3750312849879265e-02" rms="4.3925613164901733e-01" purity="6.4017856121063232e-01" nType="-99"/>
            <Node pos="r" depth="3" NCoef="0" IVar="6" Cut="5.3945428133010864e-01" cType="1" res="7.7948212856426835e-04" rms="4.4648715853691101e-01" purity="5.9756815433502197e-01" nType="0">
              <Node pos="l" depth="4" NCoef="0" IVar="-1" Cut="0.0000000000000000e+00" cType="1" res="-1.1319846846163273e-02" rms="4.7589263319969177e-01" purity="4.4450259208679199e-01" nType="-99"/>
              <Node pos="r" depth="4" NCoef="0" IVar="-1" Cut="0.0000000000000000e+00" cType="1" res="5.4839462973177433e-03" rms="4.3520447611808777e-01" purity="6.4603894948959351e-01" nType="-99"/>
            </Node>
          </Node>
          <Node pos="r" depth="2" NCoef="0" IVar="-1" Cut="0.0000000000000000e+00" cType="1" res="-3.7216751370579004e-03" rms="3.8210728764533997e-01" purity="2.6816892623901367e-01" nType="-99"/>
        </Node>
      </Node>
    </BinaryTree>
    <BinaryTree type="DecisionTree" boostWeight="1.0000000000000000e+00" itree="45">
      <Node pos="s" depth="0" NCoef="0" IVar="3" Cut="9.5330156250000000e+04" cType="1" res="-3.5841378848999739e-03" rms="4.2583969235420227e-01" purity="4.9516460299491882e-01" nType="0">
        <Node pos="l" depth="1" NCoef="0" IVar="0" Cut="2.5769267187500000e+05" cType="1" res="-2.5116950273513794e-02" rms="4.2110237479209900e-01" purity="4.3016874790191650e-01" nType="0">
          <Node pos="l" depth="2" NCoef="0" IVar="5" Cut="2.0689315795898438e+02" cType="1" res="4.3140142224729061e-03" rms="4.4860240817070007e-01" purity="5.3580725193023682e-01" nType="0">
            <Node pos="l" depth="3" NCoef="0" IVar="0" Cut="1.5279804687500000e+05" cType="1" res="2.7524253353476524e-02" rms="4.4931104779243469e-01" purity="5.8051222562789917e-01" nType="0">
              <Node pos="l" depth="4" NCoef="0" IVar="-1" Cut="0.0000000000000000e+00" cType="1" res="-7.5092329643666744e-03" rms="4.6449935436248779e-01" purity="5.3340643644332886e-01" nType="-99"/>
              <Node pos="r" depth="4" NCoef="0" IVar="-1" Cut="0.0000000000000000e+00" cType="1" res="1.4516790397465229e-02" rms="4.3869182467460632e-01" purity="6.0400646924972534e-01" nType="-99"/>
            </Node>
            <Node pos="r" depth="3" NCoef="0" IVar="-1" Cut="0.0000000000000000e+00" cType="1" res="-7.0596234872937202e-03" rms="4.4148766994476318e-01" purity="4.2371898889541626e-01" nType="-99"/>
          </Node>
          <Node pos="r" depth="2" NCoef="0" IVar="-1" Cut="0.0000000000000000e+00" cType="1" res="-5.9791514649987221e-03" rms="3.2230195403099060e-01" purity="1.4415627717971802e-01" nType="-99"/>
        </Node>
        <Node pos="r" depth="1" NCoef="0" IVar="8" Cut="3.0447726249694824e+00" cType="1" res="3.2893087714910507e-02" rms="4.3130058050155640e-01" purity="6.0526955127716064e-01" nType="0">
          <Node pos="l" depth="2" NCoef="0" IVar="8" Cut="2.8701241016387939e+00" cType="1" res="1.9989747554063797e-02" rms="4.4153782725334167e-01" purity="5.8013927936553955e-01" nType="0">
            <Node pos="l" depth="3" NCoef="0" IVar="-1" Cut="0.0000000000000000e+00" cType="1" res="1.1084038764238358e-02" rms="4.4954025745391846e-01" purity="5.9817743301391602e-01" nType="-99"/>
            <Node pos="r" depth="3" NCoef="0" IVar="-1" Cut="0.0000000000000000e+00" cType="1" res="-3.8305670022964478e-04" rms="4.3410015106201172e-01" purity="5.6635153293609619e-01" nType="-99"/>
          </Node>
          <Node pos="r" depth="2" NCoef="0" IVar="-1" Cut="0.0000000000000000e+00" cType="1" res="1.6643125563859940e-02" rms="4.0980413556098938e-01" purity="6.5349686145782471e-01" nType="-99"/>
        </Node>
      </Node>
    </BinaryTree>
    <BinaryTree type="DecisionTree" boostWeight="1.0000000000000000e+00" itree="46">
      <Node pos="s" depth="0" NCoef="0" IVar="1" Cut="2.5431864261627197e+00" cType="1" res="-4.7249714843928814e-03" rms="4.2698800563812256e-01" purity="4.9665185809135437e-01" nType="0">
        <Node pos="l" depth="1" NCoef="0" IVar="1" Cut="-1.7880913019180298e+00" cType="1" res="-1.3931737281382084e-02" rms="4.2685112357139587e-01" purity="4.8780855536460876e-01" nType="0">
          <Node pos="l" depth="2" NCoef="0" IVar="1" Cut="-2.4325964450836182e+00" cType="1" res="0.0000000000000000e+00" rms="0.0000000000000000e+00" purity="5.2476304769515991e-01" nType="0">
            <Node pos="l" depth="3" NCoef="0" IVar="-1" Cut="0.0000000000000000e+00" cType="1" res="9.0224333107471466e-03" rms="4.2992615699768066e-01" purity="5.1268106698989868e-01" nType="-99"/>
            <Node pos="r" depth="3" NCoef="0" IVar="-1" Cut="0.0000000000000000e+00" cType="1" res="7.7790895011276007e-04" rms="4.2357033491134644e-01" purity="5.4620510339736938e-01" nType="-99"/>
          </Node>
          <Node pos="r" depth="2" NCoef="0" IVar="8" Cut="2.9013643264770508e+00" cType="1" res="-3.2758302986621857e-02" rms="4.2513602972030640e-01" purity="4.6740555763244629e-01" nType="0">
            <Node pos="l" depth="3" NCoef="0" IVar="-1" Cut="0.0000000000000000e+00" cType="1" res="-2.3491600528359413e-02" rms="4.3910557031631470e-01" purity="3.9038035273551941e-01" nType="-99"/>
            <Node pos="r" depth="3" NCoef="0" IVar="8" Cut="3.0616471767425537e+00" cType="1" res="-1.0726388543844223e-02" rms="4.1751050949096680e-01" purity="4.9733316898345947e-01" nType="0">
              <Node pos="l" depth="4" NCoef="0" IVar="-1" Cut="0.0000000000000000e+00" cType="1" res="-7.6522268354892731e-03" rms="4.2472332715988159e-01" purity="4.6976235508918762e-01" nType="-99"/>
              <Node pos="r" depth="4" NCoef="0" IVar="-1" Cut="0.0000000000000000e+00" cType="1" res="6.8077123723924160e-03" rms="4.0370362997055054e-01" purity="5.3849697113037109e-01" nType="-99"/>
            </Node>
          </Node>
        </Node>
        <Node pos="r" depth="1" NCoef="0" IVar="-1" Cut="0.0000000000000000e+00" cType="1" res="1.2290845625102520e-02" rms="4.2448508739471436e-01" purity="5.4269957542419434e-01" nType="-99"/>
      </Node>
    </BinaryTree>
    <BinaryTree type="DecisionTree" boostWeight="1.0000000000000000e+00" itree="47">
      <Node pos="s" depth="0" NCoef="0" IVar="6" Cut="4.8476922512054443e-01" cType="1" res="-6.2066842801868916e-03" rms="4.2750966548919678e-01" purity="4.9364945292472839e-01" nType="0">
        <Node pos="l" depth="1" NCoef="0" IVar="-1" Cut="0.0000000000000000e+00" cType="1" res="-1.9588511437177658e-02" rms="4.5098814368247986e-01" purity="3.4604975581169128e-01" nType="-99"/>
        <Node pos="r" depth="1" NCoef="0" IVar="9" Cut="3.0000000000000000e+00" cType="1" res="0.0000000000000000e+00" rms="0.0000000000000000e+00" purity="5.1068246364593506e-01" nType="0">
          <Node pos="l" depth="2" NCoef="0" IVar="0" Cut="2.5539800000000000e+05" cType="1" res="-1.7960792407393456e-02" rms="4.3161147832870483e-01" purity="4.2281058430671692e-01" nType="0">
            <Node pos="l" depth="3" NCoef="0" IVar="8" Cut="3.0529830455780029e+00" cType="1" res="-1.2251456500962377e-03" rms="4.5970535278320312e-01" purity="5.0891041755676270e-01" nType="0">
              <Node pos="l" depth="4" NCoef="0" IVar="-1" Cut="0.0000000000000000e+00" cType="1" res="-2.8460139874368906e-03" rms="4.5516356825828552e-01" purity="4.7908350825309753e-01" nType="-99"/>
              <Node pos="r" depth="4" NCoef="0" IVar="-1" Cut="0.0000000000000000e+00" cType="1" res="7.0344121195375919e-03" rms="4.6688467264175415e-01" purity="5.7031041383743286e-01" nType="-99"/>
            </Node>
            <Node pos="r" depth="3" NCoef="0" IVar="-1" Cut="0.0000000000000000e+00" cType="1" res="-3.5285938531160355e-02" rms="3.1773704290390015e-01" purity="1.4272823929786682e-01" nType="-99"/>
          </Node>
          <Node pos="r" depth="2" NCoef="0" IVar="8" Cut="2.9060130119323730e+00" cType="1" res="2.0838627591729164e-02" rms="4.1569593548774719e-01" purity="5.9390759468078613e-01" nType="0">
            <Node pos="l" depth="3" NCoef="0" IVar="-1" Cut="0.0000000000000000e+00" cType="1" res="-5.5758422240614891e-03" rms="4.3431696295738220e-01" purity="5.0901478528976440e-01" nType="-99"/>
            <Node pos="r" depth="3" NCoef="0" IVar="2" Cut="2.1861708164215088e+00" cType="1" res="3.6831792443990707e-02" rms="4.0732905268669128e-01" purity="6.2581968307495117e-01" nType="0">
              <Node pos="l" depth="4" NCoef="0" IVar="-1" Cut="0.0000000000000000e+00" cType="1" res="7.1570817381143570e-03" rms="4.0731838345527649e-01" purity="5.7804512977600098e-01" nType="-99"/>
              <Node pos="r" depth="4" NCoef="0" IVar="-1" Cut="0.0000000000000000e+00" cType="1" res="1.5560817904770374e-02" rms="4.0659075975418091e-01" purity="6.9480365514755249e-01" nType="-99"/>
            </Node>
          </Node>
        </Node>
      </Node>
    </BinaryTree>
    <BinaryTree type="DecisionTree" boostWeight="1.0000000000000000e+00" itree="48">
      <Node pos="s" depth="0" NCoef="0" IVar="3" Cut="1.3630031250000000e+05" cType="1" res="0.0000000000000000e+00" rms="0.0000000000000000e+00" purity="4.9680826067924500e-01" nType="0">
        <Node pos="l" depth="1" NCoef="0" IVar="0" Cut="2.5324225000000000e+05" cType="1" res="-1.5094755217432976e-02" rms="4.2301633954048157e-01" purity="4.7510427236557007e-01" nType="0">
          <Node pos="l" depth="2" NCoef="0" IVar="6" Cut="5.6790423393249512e-01" cType="1" res="8.3757884567603469e-04" rms="4.4442903995513916e-01" purity="5.6631535291671753e-01" nType="0">
            <Node pos="l" depth="3" NCoef="0" IVar="-1" Cut="0.0000000000000000e+00" cType="1" res="-1.2027255259454250e-02" rms="4.5831918716430664e-01" purity="4.4946932792663574e-01" nType="-99"/>
            <Node pos="r" depth="3" NCoef="0" IVar="0" Cut="1.7705084375000000e+05" cType="1" res="1.6264965757727623e-02" rms="4.3910443782806396e-01" purity="6.0031306743621826e-01" nType="0">
              <Node pos="l" depth="4" NCoef="0" IVar="-1" Cut="0.0000000000000000e+00" cType="1" res="1.1709542945027351e-02" rms="4.4613394141197205e-01" purity="6.4864891767501831e-01" nType="-99"/>
              <Node pos="r" depth="4" NCoef="0" IVar="-1" Cut="0.0000000000000000e+00" cType="1" res="-3.4220246598124504e-03" rms="4.2838665843009949e-01" purity="5.4191392660140991e-01" nType="-99"/>
            </Node>
          </Node>
          <Node pos="r" depth="2" NCoef="0" IVar="1" Cut="4.4905743002891541e-01" cType="1" res="-6.0712255537509918e-02" rms="3.5064652562141418e-01" purity="2.1394865214824677e-01" nType="0">
            <Node pos="l" depth="3" NCoef="0" IVar="-1" Cut="0.0000000000000000e+00" cType="1" res="-2.9817022383213043e-02" rms="3.2268515229225159e-01" purity="1.7863930761814117e-01" nType="-99"/>
            <Node pos="r" depth="3" NCoef="0" IVar="-1" Cut="0.0000000000000000e+00" cType="1" res="-1.1423469521105289e-02" rms="3.7799420952796936e-01" purity="2.5350555777549744e-01" nType="-99"/>
          </Node>
        </Node>
        <Node pos="r" depth="1" NCoef="0" IVar="-1" Cut="0.0000000000000000e+00" cType="1" res="1.7082039266824722e-02" rms="4.4482418894767761e-01" purity="6.2166255712509155e-01" nType="-99"/>
      </Node>
    </BinaryTree>
    <BinaryTree type="DecisionTree" boostWeight="1.0000000000000000e+00" itree="49">
      <Node pos="s" depth="0" NCoef="0" IVar="7" Cut="4.0317691040039062e+02" cType="1" res="-1.8046764656901360e-02" rms="4.2683067917823792e-01" purity="4.8266318440437317e-01" nType="0">
        <Node pos="l" depth="1" NCoef="0" IVar="2" Cut="2.1496393680572510e+00" cType="1" res="-2.8479851782321930e-02" rms="4.3063765764236450e-01" purity="4.4807890057563782e-01" nType="0">
          <Node pos="l" depth="2" NCoef="0" IVar="2" Cut="1.2614349126815796e+00" cType="1" res="0.0000000000000000e+00" rms="0.0000000000000000e+00" purity="3.7994989752769470e-01" nType="0">
            <Node pos="l" depth="3" NCoef="0" IVar="0" Cut="2.3151209375000000e+05" cType="1" res="-2.7056831866502762e-02" rms="3.8176876306533813e-01" purity="2.9727089405059814e-01" nType="0">
              <Node pos="l" depth="4" NCoef="0" IVar="-1" Cut="0.0000000000000000e+00" cType="1" res="8.2395249046385288e-04" rms="4.4153690338134766e-01" purity="4.4873645901679993e-01" nType="-99"/>
              <Node pos="r" depth="4" NCoef="0" IVar="-1" Cut="0.0000000000000000e+00" cType="1" res="-3.4739892929792404e-02" rms="2.8806871175765991e-01" purity="1.1195632070302963e-01" nType="-99"/>
            </Node>
            <Node pos="r" depth="3" NCoef="0" IVar="9" Cut="3.0000000000000000e+00" cType="1" res="-5.8828629553318024e-02" rms="4.4205468893051147e-01" purity="4.6461018919944763e-01" nType="0">
              <Node pos="l" depth="4" NCoef="0" IVar="-1" Cut="0.0000000000000000e+00" cType="1" res="-1.7467623576521873e-02" rms="4.4824725389480591e-01" purity="3.8550242781639099e-01" nType="-99"/>
              <Node pos="r" depth="4" NCoef="0" IVar="-1" Cut="0.0000000000000000e+00" cType="1" res="-2.7784351259469986e-03" rms="4.4024524092674255e-01" purity="5.4539990425109863e-01" nType="-99"/>
            </Node>
          </Node>
          <Node pos="r" depth="2" NCoef="0" IVar="7" Cut="2.1696614074707031e+02" cType="1" res="-2.0733638666570187e-03" rms="4.4904425740242004e-01" purity="5.3795897960662842e-01" nType="0">
            <Node pos="l" depth="3" NCoef="0" IVar="-1" Cut="0.0000000000000000e+00" cType="1" res="4.1006812825798988e-03" rms="4.4865885376930237e-01" purity="4.6141478419303894e-01" nType="-99"/>
            <Node pos="r" depth="3" NCoef="0" IVar="-1" Cut="0.0000000000000000e+00" cType="1" res="-6.8535548634827137e-03" rms="4.4825658202171326e-01" purity="6.1620199680328369e-01" nType="-99"/>
          </Node>
        </Node>
        <Node pos="r" depth="1" NCoef="0" IVar="-1" Cut="0.0000000000000000e+00" cType="1" res="1.4989224262535572e-02" rms="3.9442357420921326e-01" purity="7.0810878276824951e-01" nType="-99"/>
      </Node>
    </BinaryTree>
    <BinaryTree type="DecisionTree" boostWeight="1.0000000000000000e+00" itree="50">
      <Node pos="s" depth="0" NCoef="0" IVar="9" Cut="4.0000000000000000e+00" cType="1" res="0.0000000000000000e+00" rms="0.0000000000000000e+00" purity="5.0103282928466797e-01" nType="0">
        <Node pos="l" depth="1" NCoef="0" IVar="2" Cut="3.0048375129699707e+00" cType="1" res="-1.0927979834377766e-02" rms="4.2908963561058044e-01" purity="4.6279779076576233e-01" nType="0">
          <Node pos="l" depth="2" NCoef="0" IVar="2" Cut="2.3077402114868164e+00" cType="1" res="0.0000000000000000e+00" rms="0.0000000000000000e+00" purity="4.6725672483444214e-01" nType="0">
            <Node pos="l" depth="3" NCoef="0" IVar="1" Cut="-2.2434070110321045e+00" cType="1" res="-1.5317036770284176e-02" rms="4.2056044936180115e-01" purity="4.1892653703689575e-01" nType="0">
              <Node pos="l" depth="4" NCoef="0" IVar="-1" Cut="0.0000000000000000e+00" cType="1" res="7.8190080821514130e-03" rms="4.4076740741729736e-01" purity="4.8506698012351990e-01" nType="-99"/>
              <Node pos="r" depth="4" NCoef="0" IVar="-1" Cut="0.0000000000000000e+00" cType="1" res="-4.0854569524526596e-03" rms="4.1347065567970276e-01" purity="3.9948812127113342e-01" nType="-99"/>
            </Node>
            <Node pos="r" depth="3" NCoef="0" IVar="-1" Cut="0.0000000000000000e+00" cType="1" res="8.7086698040366173e-03" rms="4.4105476140975952e-01" purity="5.9906327724456787e-01" nType="-99"/>
          </Node>
          <Node pos="r" depth="2" NCoef="0" IVar="-1" Cut="0.0000000000000000e+00" cType="1" res="-1.1873368173837662e-02" rms="4.3721142411231995e-01" purity="4.3484690785408020e-01" nType="-99"/>
        </Node>
        <Node pos="r" depth="1" NCoef="0" IVar="-1" Cut="0.0000000000000000e+00" cType="1" res="1.3805650174617767e-02" rms="4.0731170773506165e-01" purity="6.5003269910812378e-01" nType="-99"/>
      </Node>
    </BinaryTree>
    <BinaryTree type="DecisionTree" boostWeight="1.0000000000000000e+00" itree="51">
      <Node pos="s" depth="0" NCoef="0" IVar="9" Cut="2.0000000000000000e+00" cType="1" res="-1.2656615115702152e-02" rms="4.2622768878936768e-01" purity="4.8868545889854431e-01" nType="0">
        <Node pos="l" depth="1" NCoef="0" IVar="-1" Cut="0.0000000000000000e+00" cType="1" res="-6.8257176317274570e-03" rms="4.3197390437126160e-01" purity="3.3872511982917786e-01" nType="-99"/>
        <Node pos="r" depth="1" NCoef="0" IVar="2" Cut="2.2004454135894775e+00" cType="1" res="0.0000000000000000e+00" rms="0.0000000000000000e+00" purity="5.1654416322708130e-01" nType="0">
          <Node pos="l" depth="2" NCoef="0" IVar="8" Cut="3.0462539196014404e+00" cType="1" res="-2.2972539067268372e-02" rms="4.1754543781280518e-01" purity="4.5347875356674194e-01" nType="0">
            <Node pos="l" depth="3" NCoef="0" IVar="4" Cut="4.8428656250000000e+04" cType="1" res="-4.3121270835399628e-02" rms="4.2432844638824463e-01" purity="4.1369068622589111e-01" nType="0">
              <Node pos="l" depth="4" NCoef="0" IVar="-1" Cut="0.0000000000000000e+00" cType="1" res="-1.5483912080526352e-02" rms="3.8589310646057129e-01" purity="2.5255480408668518e-01" nType="-99"/>
              <Node pos="r" depth="4" NCoef="0" IVar="-1" Cut="0.0000000000000000e+00" cType="1" res="-8.3684073761105537e-03" rms="4.4197034835815430e-01" purity="4.9584576487541199e-01" nType="-99"/>
            </Node>
            <Node pos="r" depth="3" NCoef="0" IVar="-1" Cut="0.0000000000000000e+00" cType="1" res="5.4167974740266800e-03" rms="4.0171697735786438e-01" purity="5.2845722436904907e-01" nType="-99"/>
          </Node>
          <Node pos="r" depth="2" NCoef="0" IVar="6" Cut="5.8472537994384766e-01" cType="1" res="0.0000000000000000e+00" rms="0.0000000000000000e+00" purity="6.0540592670440674e-01" nType="0">
            <Node pos="l" depth="3" NCoef="0" IVar="-1" Cut="0.0000000000000000e+00" cType="1" res="9.0752332471311092e-04" rms="4.6047618985176086e-01" purity="5.2590095996856689e-01" nType="-99"/>
            <Node pos="r" depth="3" NCoef="0" IVar="4" Cut="4.9797355468750000e+04" cType="1" res="0.0000000000000000e+00" rms="0.0000000000000000e+00" purity="6.4631307125091553e-01" nType="0">
              <Node pos="l" depth="4" NCoef="0" IVar="-1" Cut="0.0000000000000000e+00" cType="1" res="8.1593552604317665e-03" rms="4.2822280526161194e-01" purity="5.4087203741073608e-01" nType="-99"/>
              <Node pos="r" depth="4" NCoef="0" IVar="-1" Cut="0.0000000000000000e+00" cType="1" res="1.1031274683773518e-02" rms="4.0833592414855957e-01" purity="7.3009389638900757e-01" nType="-99"/>
            </Node>
          </Node>
        </Node>
      </Node>
    </BinaryTree>
    <BinaryTree type="DecisionTree" boostWeight="1.0000000000000000e+00" itree="52">
      <Node pos="s" depth="0" NCoef="0" IVar="5" Cut="2.8909262084960938e+02" cType="1" res="-1.2291731545701623e-03" rms="4.2643567919731140e-01" purity="4.9549746513366699e-01" nType="0">
        <Node pos="l" depth="1" NCoef="0" IVar="3" Cut="1.3630031250000000e+05" cType="1" res="7.1227969601750374e-03" rms="4.2408764362335205e-01" purity="5.0595617294311523e-01" nType="0">
          <Node pos="l" depth="2" NCoef="0" IVar="9" Cut="2.0000000000000000e+00" cType="1" res="-1.1514992220327258e-03" rms="4.2277812957763672e-01" purity="4.8421776294708252e-01" nType="0">
            <Node pos="l" depth="3" NCoef="0" IVar="-1" Cut="0.0000000000000000e+00" cType="1" res="-6.7307180725038052e-03" rms="4.3390256166458130e-01" purity="3.2319501042366028e-01" nType="-99"/>
            <Node pos="r" depth="3" NCoef="0" IVar="2" Cut="2.4260301589965820e+00" cType="1" res="8.3535723388195038e-03" rms="4.2004042863845825e-01" purity="5.1385945081710815e-01" nType="0">
              <Node pos="l" depth="4" NCoef="0" IVar="-1" Cut="0.0000000000000000e+00" cType="1" res="-1.0303856106474996e-03" rms="4.1439548134803772e-01" purity="4.5974642038345337e-01" nType="-99"/>
              <Node pos="r" depth="4" NCoef="0" IVar="-1" Cut="0.0000000000000000e+00" cType="1" res="1.1147851124405861e-02" rms="4.2968508601188660e-01" purity="6.2503349781036377e-01" nType="-99"/>
            </Node>
          </Node>
          <Node pos="r" depth="2" NCoef="0" IVar="-1" Cut="0.0000000000000000e+00" cType="1" res="1.6900271177291870e-02" rms="4.2838603258132935e-01" purity="6.6119349002838135e-01" nType="-99"/>
        </Node>
        <Node pos="r" depth="1" NCoef="0" IVar="-1" Cut="0.0000000000000000e+00" cType="1" res="-1.6770754009485245e-02" rms="4.3737471103668213e-01" purity="4.2884874343872070e-01" nType="-99"/>
      </Node>
    </BinaryTree>
    <BinaryTree type="DecisionTree" boostWeight="1.0000000000000000e+00" itree="53">
      <Node pos="s" depth="0" NCoef="0" IVar="3" Cut="6.2526652343750000e+04" cType="1" res="-7.4070128612220287e-03" rms="4.2148214578628540e-01" purity="4.9131822586059570e-01" nType="0">
        <Node pos="l" depth="1" NCoef="0" IVar="1" Cut="4.4848743081092834e-01" cType="1" res="-4.3441120535135269e-02" rms="3.9772051572799683e-01" purity="3.2200112938880920e-01" nType="0">
          <Node pos="l" depth="2" NCoef="0" IVar="-1" Cut="0.0000000000000000e+00" cType="1" res="-3.9034506771713495e-03" rms="3.8451209664344788e-01" purity="2.7898800373077393e-01" nType="-99"/>
          <Node pos="r" depth="2" NCoef="0" IVar="-1" Cut="0.0000000000000000e+00" cType="1" res="4.9554789438843727e-04" rms="4.1077423095703125e-01" purity="3.8076353073120117e-01" nType="-99"/>
        </Node>
        <Node pos="r" depth="1" NCoef="0" IVar="5" Cut="2.0091436767578125e+02" cType="1" res="6.3882400281727314e-03" rms="4.2943212389945984e-01" purity="5.5613929033279419e-01" nType="0">
          <Node pos="l" depth="2" NCoef="0" IVar="8" Cut="2.9924464225769043e+00" cType="1" res="2.6265298947691917e-02" rms="4.2324700951576233e-01" purity="6.1424034833908081e-01" nType="0">
            <Node pos="l" depth="3" NCoef="0" IVar="8" Cut="2.8646268844604492e+00" cType="1" res="3.8556661456823349e-03" rms="4.4577792286872864e-01" purity="5.5827081203460693e-01" nType="0">
              <Node pos="l" depth="4" NCoef="0" IVar="-1" Cut="0.0000000000000000e+00" cType="1" res="2.9713406693190336e-03" rms="4.5945361256599426e-01" purity="5.4955255985260010e-01" nType="-99"/>
              <Node pos="r" depth="4" NCoef="0" IVar="-1" Cut="0.0000000000000000e+00" cType="1" res="-9.1282499488443136e-04" rms="4.3115973472595215e-01" purity="5.6719511747360229e-01" nType="-99"/>
            </Node>
            <Node pos="r" depth="3" NCoef="0" IVar="-1" Cut="0.0000000000000000e+00" cType="1" res="1.5805820003151894e-02" rms="3.9776688814163208e-01" purity="6.7109942436218262e-01" nType="-99"/>
          </Node>
          <Node pos="r" depth="2" NCoef="0" IVar="6" Cut="6.2024658918380737e-01" cType="1" res="-2.2117994725704193e-02" rms="4.3657323718070984e-01" purity="4.7281497716903687e-01" nType="0">
            <Node pos="l" depth="3" NCoef="0" IVar="-1" Cut="0.0000000000000000e+00" cType="1" res="-1.2550036422908306e-02" rms="4.5481738448143005e-01" purity="3.9783406257629395e-01" nType="-99"/>
            <Node pos="r" depth="3" NCoef="0" IVar="-1" Cut="0.0000000000000000e+00" cType="1" res="1.9375841366127133e-03" rms="4.1455158591270447e-01" purity="5.5182451009750366e-01" nType="-99"/>
          </Node>
        </Node>
      </Node>
    </BinaryTree>
    <BinaryTree type="DecisionTree" boostWeight="1.0000000000000000e+00" itree="54">
      <Node pos="s" depth="0" NCoef="0" IVar="5" Cut="2.1485014343261719e+02" cType="1" res="-1.7173317028209567e-03" rms="4.2276468873023987e-01" purity="5.0133544206619263e-01" nType="0">
        <Node pos="l" depth="1" NCoef="0" IVar="7" Cut="1.5795782470703125e+02" cType="1" res="0.0000000000000000e+00" rms="0.0000000000000000e+00" purity="5.3498196601867676e-01" nType="0">
          <Node pos="l" depth="2" NCoef="0" IVar="-1" Cut="0.0000000000000000e+00" cType="1" res="-4.6285418793559074e-03" rms="4.0779963135719299e-01" purity="2.9549986124038696e-01" nType="-99"/>
          <Node pos="r" depth="2" NCoef="0" IVar="0" Cut="2.5269878125000000e+05" cType="1" res="2.4750739336013794e-02" rms="4.2528685927391052e-01" purity="6.1216253042221069e-01" nType="0">
            <Node pos="l" depth="3" NCoef="0" IVar="0" Cut="1.5160865625000000e+05" cType="1" res="3.4181654453277588e-02" rms="4.3510198593139648e-01" purity="6.7749565839767456e-01" nType="0">
              <Node pos="l" depth="4" NCoef="0" IVar="-1" Cut="0.0000000000000000e+00" cType="1" res="-2.4315547198057175e-03" rms="4.5587211847305298e-01" purity="6.1701506376266479e-01" nType="-99"/>
              <Node pos="r" depth="4" NCoef="0" IVar="-1" Cut="0.0000000000000000e+00" cType="1" res="1.8354838714003563e-02" rms="4.2076534032821655e-01" purity="7.1208399534225464e-01" nType="-99"/>
            </Node>
            <Node pos="r" depth="3" NCoef="0" IVar="-1" Cut="0.0000000000000000e+00" cType="1" res="-1.9963551312685013e-03" rms="3.8906943798065186e-01" purity="3.9395746588706970e-01" nType="-99"/>
          </Node>
        </Node>
        <Node pos="r" depth="1" NCoef="0" IVar="6" Cut="6.2599956989288330e-01" cType="1" res="-2.9747819527983665e-02" rms="4.2356821894645691e-01" purity="4.2855629324913025e-01" nType="0">
          <Node pos="l" depth="2" NCoef="0" IVar="-1" Cut="0.0000000000000000e+00" cType="1" res="-1.7187040299177170e-02" rms="4.3422070145606995e-01" purity="3.3938297629356384e-01" nType="-99"/>
          <Node pos="r" depth="2" NCoef="0" IVar="-1" Cut="0.0000000000000000e+00" cType="1" res="2.0938743837177753e-03" rms="4.0964850783348083e-01" purity="5.0802659988403320e-01" nType="-99"/>
        </Node>
      </Node>
    </BinaryTree>
    <BinaryTree type="DecisionTree" boostWeight="1.0000000000000000e+00" itree="55">
      <Node pos="s" depth="0" NCoef="0" IVar="0" Cut="2.9264015625000000e+05" cType="1" res="-1.2852407526224852e-03" rms="4.2084994912147522e-01" purity="5.0295889377593994e-01" nType="0">
        <Node pos="l" depth="1" NCoef="0" IVar="0" Cut="1.3646107812500000e+05" cType="1" res="1.0296573862433434e-02" rms="4.3539741635322571e-01" purity="5.7169532775878906e-01" nType="0">
          <Node pos="l" depth="2" NCoef="0" IVar="-1" Cut="0.0000000000000000e+00" cType="1" res="-1.0547572746872902e-02" rms="4.5763388276100159e-01" purity="4.9698901176452637e-01" nType="-99"/>
          <Node pos="r" depth="2" NCoef="0" IVar="2" Cut="2.4885232448577881e+00" cType="1" res="2.2893670946359634e-02" rms="4.2962449789047241e-01" purity="5.8696395158767700e-01" nType="0">
            <Node pos="l" depth="3" NCoef="0" IVar="7" Cut="2.7073800659179688e+02" cType="1" res="5.4545834427699447e-04" rms="4.3304145336151123e-01" purity="5.3120917081832886e-01" nType="0">
              <Node pos="l" depth="4" NCoef="0" IVar="-1" Cut="0.0000000000000000e+00" cType="1" res="-4.7273011878132820e-03" rms="4.4171673059463501e-01" purity="4.1828069090843201e-01" nType="-99"/>
              <Node pos="r" depth="4" NCoef="0" IVar="-1" Cut="0.0000000000000000e+00" cType="1" res="9.0954201295971870e-03" rms="4.2025583982467651e-01" purity="6.7307299375534058e-01" nType="-99"/>
            </Node>
            <Node pos="r" depth="3" NCoef="0" IVar="-1" Cut="0.0000000000000000e+00" cType="1" res="1.2942261062562466e-02" rms="4.1912156343460083e-01" purity="6.9870126247406006e-01" nType="-99"/>
          </Node>
        </Node>
        <Node pos="r" depth="1" NCoef="0" IVar="-1" Cut="0.0000000000000000e+00" cType="1" res="-3.3386480063199997e-03" rms="3.4580698609352112e-01" purity="2.0282647013664246e-01" nType="-99"/>
      </Node>
    </BinaryTree>
    <BinaryTree type="DecisionTree" boostWeight="1.0000000000000000e+00" itree="56">
      <Node pos="s" depth="0" NCoef="0" IVar="3" Cut="1.3021389843750000e+05" cType="1" res="-2.2989388089627028e-03" rms="4.2400854825973511e-01" purity="5.0003069639205933e-01" nType="0">
        <Node pos="l" depth="1" NCoef="0" IVar="2" Cut="8.0810183286666870e-01" cType="1" res="0.0000000000000000e+00" rms="0.0000000000000000e+00" purity="4.7115191817283630e-01" nType="0">
          <Node pos="l" depth="2" NCoef="0" IVar="-1" Cut="0.0000000000000000e+00" cType="1" res="-2.6907166466116905e-02" rms="3.1173610687255859e-01" purity="1.9673857092857361e-01" nType="-99"/>
          <Node pos="r" depth="2" NCoef="0" IVar="7" Cut="2.9713375854492188e+02" cType="1" res="-5.5959406308829784e-03" rms="4.3471282720565796e-01" purity="5.1411557197570801e-01" nType="0">
            <Node pos="l" depth="3" NCoef="0" IVar="1" Cut="1.6453751325607300e+00" cType="1" res="-1.5801746398210526e-02" rms="4.4293949007987976e-01" purity="4.4967001676559448e-01" nType="0">
              <Node pos="l" depth="4" NCoef="0" IVar="-1" Cut="0.0000000000000000e+00" cType="1" res="-7.2737848386168480e-03" rms="4.3451753258705139e-01" purity="4.1915565729141235e-01" nType="-99"/>
              <Node pos="r" depth="4" NCoef="0" IVar="-1" Cut="0.0000000000000000e+00" cType="1" res="3.2673177774995565e-03" rms="4.5812517404556274e-01" purity="5.1206451654434204e-01" nType="-99"/>
            </Node>
            <Node pos="r" depth="3" NCoef="0" IVar="-1" Cut="0.0000000000000000e+00" cType="1" res="6.8354955874383450e-03" rms="4.1119062900543213e-01" purity="6.8290412425994873e-01" nType="-99"/>
          </Node>
        </Node>
        <Node pos="r" depth="1" NCoef="0" IVar="-1" Cut="0.0000000000000000e+00" cType="1" res="1.2482820078730583e-02" rms="4.3623778223991394e-01" purity="6.3322752714157104e-01" nType="-99"/>
      </Node>
    </BinaryTree>
    <BinaryTree type="DecisionTree" boostWeight="1.0000000000000000e+00" itree="57">
      <Node pos="s" depth="0" NCoef="0" IVar="4" Cut="8.7062718750000000e+04" cType="1" res="-1.1925159022212029e-02" rms="4.1771337389945984e-01" purity="4.9669852852821350e-01" nType="0">
        <Node pos="l" depth="1" NCoef="0" IVar="6" Cut="5.6867063045501709e-01" cType="1" res="-2.2451311349868774e-02" rms="4.1813352704048157e-01" purity="4.5453086495399475e-01" nType="0">
          <Node pos="l" depth="2" NCoef="0" IVar="-1" Cut="0.0000000000000000e+00" cType="1" res="-1.3452536426484585e-02" rms="4.3462678790092468e-01" purity="3.6805903911590576e-01" nType="-99"/>
          <Node pos="r" depth="2" NCoef="0" IVar="3" Cut="8.8343484375000000e+04" cType="1" res="-1.3986246660351753e-02" rms="4.1308289766311646e-01" purity="4.7829818725585938e-01" nType="0">
            <Node pos="l" depth="3" NCoef="0" IVar="6" Cut="7.2925019264221191e-01" cType="1" res="-2.5544192641973495e-02" rms="4.1216877102851868e-01" purity="4.2772945761680603e-01" nType="0">
              <Node pos="l" depth="4" NCoef="0" IVar="-1" Cut="0.0000000000000000e+00" cType="1" res="-2.5761402212083340e-03" rms="4.2429739236831665e-01" purity="5.0524032115936279e-01" nType="-99"/>
              <Node pos="r" depth="4" NCoef="0" IVar="-1" Cut="0.0000000000000000e+00" cType="1" res="-4.8603457398712635e-03" rms="3.9777660369873047e-01" purity="3.4381166100502014e-01" nType="-99"/>
            </Node>
            <Node pos="r" depth="3" NCoef="0" IVar="-1" Cut="0.0000000000000000e+00" cType="1" res="4.0474012494087219e-03" rms="4.1392064094543457e-01" purity="6.1915427446365356e-01" nType="-99"/>
          </Node>
        </Node>
        <Node pos="r" depth="1" NCoef="0" IVar="-1" Cut="0.0000000000000000e+00" cType="1" res="8.1096813082695007e-03" rms="4.1281765699386597e-01" purity="6.7893582582473755e-01" nType="-99"/>
      </Node>
    </BinaryTree>
    <BinaryTree type="DecisionTree" boostWeight="1.0000000000000000e+00" itree="58">
      <Node pos="s" depth="0" NCoef="0" IVar="6" Cut="5.1341933012008667e-01" cType="1" res="2.7951844967901707e-03" rms="4.2705306410789490e-01" purity="5.0796979665756226e-01" nType="0">
        <Node pos="l" depth="1" NCoef="0" IVar="-1" Cut="0.0000000000000000e+00" cType="1" res="-7.1786418557167053e-03" rms="4.5135486125946045e-01" purity="3.7563601136207581e-01" nType="-99"/>
        <Node pos="r" depth="1" NCoef="0" IVar="2" Cut="2.9258639812469482e+00" cType="1" res="1.0543268173933029e-02" rms="4.2214462161064148e-01" purity="5.3132897615432739e-01" nType="0">
          <Node pos="l" depth="2" NCoef="0" IVar="0" Cut="2.6666790625000000e+05" cType="1" res="1.9176464527845383e-02" rms="4.1967540979385376e-01" purity="5.2996152639389038e-01" nType="0">
            <Node pos="l" depth="3" NCoef="0" IVar="0" Cut="2.1062925000000000e+05" cType="1" res="3.5290084779262543e-02" rms="4.4089469313621521e-01" purity="6.2135058641433716e-01" nType="0">
              <Node pos="l" depth="4" NCoef="0" IVar="-1" Cut="0.0000000000000000e+00" cType="1" res="1.0998328216373920e-02" rms="4.4403743743896484e-01" purity="6.4854073524475098e-01" nType="-99"/>
              <Node pos="r" depth="4" NCoef="0" IVar="-1" Cut="0.0000000000000000e+00" cType="1" res="-1.3827449874952435e-03" rms="4.2864999175071716e-01" purity="5.3856271505355835e-01" nType="-99"/>
            </Node>
            <Node pos="r" depth="3" NCoef="0" IVar="-1" Cut="0.0000000000000000e+00" cType="1" res="-1.7121523618698120e-02" rms="3.2734736800193787e-01" purity="2.0574666559696198e-01" nType="-99"/>
          </Node>
          <Node pos="r" depth="2" NCoef="0" IVar="-1" Cut="0.0000000000000000e+00" cType="1" res="-4.8720445483922958e-03" rms="4.3157336115837097e-01" purity="5.3805005550384521e-01" nType="-99"/>
        </Node>
      </Node>
    </BinaryTree>
    <BinaryTree type="DecisionTree" boostWeight="1.0000000000000000e+00" itree="59">
      <Node pos="s" depth="0" NCoef="0" IVar="3" Cut="9.5421375000000000e+04" cType="1" res="-7.7286618761718273e-04" rms="4.2598783969879150e-01" purity="4.9876186251640320e-01" nType="0">
        <Node pos="l" depth="1" NCoef="0" IVar="1" Cut="-2.2435441017150879e+00" cType="1" res="-2.0830353721976280e-02" rms="4.2097866535186768e-01" purity="4.2891001701354980e-01" nType="0">
          <Node pos="l" depth="2" NCoef="0" IVar="-1" Cut="0.0000000000000000e+00" cType="1" res="5.7903914712369442e-03" rms="4.3564528226852417e-01" purity="4.7925484180450439e-01" nType="-99"/>
          <Node pos="r" depth="2" NCoef="0" IVar="0" Cut="2.6670756250000000e+05" cType="1" res="-3.3353887498378754e-02" rms="4.1595545411109924e-01" purity="4.1496026515960693e-01" nType="0">
            <Node pos="l" depth="3" NCoef="0" IVar="6" Cut="7.6414430141448975e-01" cType="1" res="-1.9852625206112862e-02" rms="4.4741138815879822e-01" purity="5.1078277826309204e-01" nType="0">
              <Node pos="l" depth="4" NCoef="0" IVar="-1" Cut="0.0000000000000000e+00" cType="1" res="-1.6088559059426188e-03" rms="4.5245161652565002e-01" purity="5.6437653303146362e-01" nType="-99"/>
              <Node pos="r" depth="4" NCoef="0" IVar="-1" Cut="0.0000000000000000e+00" cType="1" res="-9.9977776408195496e-03" rms="4.3393138051033020e-01" purity="3.8863980770111084e-01" nType="-99"/>
            </Node>
            <Node pos="r" depth="3" NCoef="0" IVar="-1" Cut="0.0000000000000000e+00" cType="1" res="-5.6247990578413010e-03" rms="2.9882439970970154e-01" purity="1.2728542089462280e-01" nType="-99"/>
          </Node>
        </Node>
        <Node pos="r" depth="1" NCoef="0" IVar="3" Cut="1.2693851562500000e+05" cType="1" res="0.0000000000000000e+00" rms="0.0000000000000000e+00" purity="6.1356592178344727e-01" nType="0">
          <Node pos="l" depth="2" NCoef="0" IVar="-1" Cut="0.0000000000000000e+00" cType="1" res="4.4645629823207855e-03" rms="4.2720398306846619e-01" purity="5.8995985984802246e-01" nType="-99"/>
          <Node pos="r" depth="2" NCoef="0" IVar="-1" Cut="0.0000000000000000e+00" cType="1" res="1.2346585281193256e-02" rms="4.3666875362396240e-01" purity="6.3888609409332275e-01" nType="-99"/>
        </Node>
      </Node>
    </BinaryTree>
    <BinaryTree type="DecisionTree" boostWeight="1.0000000000000000e+00" itree="60">
      <Node pos="s" depth="0" NCoef="0" IVar="3" Cut="6.0497847656250000e+04" cType="1" res="1.2703306972980499e-02" rms="4.2424100637435913e-01" purity="5.1158010959625244e-01" nType="0">
        <Node pos="l" depth="1" NCoef="0" IVar="1" Cut="-4.5059052109718323e-01" cType="1" res="-3.1966101378202438e-02" rms="4.0482255816459656e-01" purity="3.2319009304046631e-01" nType="0">
          <Node pos="l" depth="2" NCoef="0" IVar="-1" Cut="0.0000000000000000e+00" cType="1" res="-2.5513516739010811e-03" rms="3.9979633688926697e-01" purity="2.7220797538757324e-01" nType="-99"/>
          <Node pos="r" depth="2" NCoef="0" IVar="-1" Cut="0.0000000000000000e+00" cType="1" res="4.3852049857378006e-03" rms="4.0374362468719482e-01" purity="3.7040138244628906e-01" nType="-99"/>
        </Node>
        <Node pos="r" depth="1" NCoef="0" IVar="9" Cut="3.0000000000000000e+00" cType="1" res="2.7606800198554993e-02" rms="4.2947110533714294e-01" purity="5.7434374094009399e-01" nType="0">
          <Node pos="l" depth="2" NCoef="0" IVar="3" Cut="1.0967682031250000e+05" cType="1" res="1.0504781268537045e-02" rms="4.3614012002944946e-01" purity="4.9641183018684387e-01" nType="0">
            <Node pos="l" depth="3" NCoef="0" IVar="2" Cut="2.0014815330505371e+00" cType="1" res="-1.9322960870340466e-03" rms="4.3329304456710815e-01" purity="4.5894554257392883e-01" nType="0">
              <Node pos="l" depth="4" NCoef="0" IVar="-1" Cut="0.0000000000000000e+00" cType="1" res="8.4150731563568115e-03" rms="4.2869794368743896e-01" purity="4.1521310806274414e-01" nType="-99"/>
              <Node pos="r" depth="4" NCoef="0" IVar="-1" Cut="0.0000000000000000e+00" cType="1" res="-8.0150868743658066e-03" rms="4.3597859144210815e-01" purity="5.0595033168792725e-01" nType="-99"/>
            </Node>
            <Node pos="r" depth="3" NCoef="0" IVar="-1" Cut="0.0000000000000000e+00" cType="1" res="7.6109352521598339e-03" rms="4.4063377380371094e-01" purity="5.6953334808349609e-01" nType="-99"/>
          </Node>
          <Node pos="r" depth="2" NCoef="0" IVar="7" Cut="2.4719660949707031e+02" cType="1" res="4.1197378188371658e-02" rms="4.2361450195312500e-01" purity="6.3645070791244507e-01" nType="0">
            <Node pos="l" depth="3" NCoef="0" IVar="-1" Cut="0.0000000000000000e+00" cType="1" res="1.7913132905960083e-02" rms="4.3859085440635681e-01" purity="5.5328029394149780e-01" nType="-99"/>
            <Node pos="r" depth="3" NCoef="0" IVar="9" Cut="4.0000000000000000e+00" cType="1" res="2.3036142811179161e-02" rms="4.1541171073913574e-01" purity="6.7301565408706665e-01" nType="0">
              <Node pos="l" depth="4" NCoef="0" IVar="-1" Cut="0.0000000000000000e+00" cType="1" res="2.0554289221763611e-03" rms="4.2463281750679016e-01" purity="6.5665501356124878e-01" nType="-99"/>
              <Node pos="r" depth="4" NCoef="0" IVar="-1" Cut="0.0000000000000000e+00" cType="1" res="1.2925951741635799e-02" rms="4.0422514081001282e-01" purity="6.9156861305236816e-01" nType="-99"/>
            </Node>
          </Node>
        </Node>
      </Node>
    </BinaryTree>
    <BinaryTree type="DecisionTree" boostWeight="1.0000000000000000e+00" itree="61">
      <Node pos="s" depth="0" NCoef="0" IVar="1" Cut="-2.5425598621368408e+00" cType="1" res="-2.7064697351306677e-03" rms="4.2914757132530212e-01" purity="5.0283938646316528e-01" nType="0">
        <Node pos="l" depth="1" NCoef="0" IVar="-1" Cut="0.0000000000000000e+00" cType="1" res="1.3088778592646122e-02" rms="4.3578350543975830e-01" purity="5.4005545377731323e-01" nType="-99"/>
        <Node pos="r" depth="1" NCoef="0" IVar="6" Cut="5.1301419734954834e-01" cType="1" res="-1.1160884052515030e-02" rms="4.2735263705253601e-01" purity="4.9577647447586060e-01" nType="0">
          <Node pos="l" depth="2" NCoef="0" IVar="-1" Cut="0.0000000000000000e+00" cType="1" res="-1.1830383911728859e-02" rms="4.5977914333343506e-01" purity="3.7054654955863953e-01" nType="-99"/>
          <Node pos="r" depth="2" NCoef="0" IVar="8" Cut="2.9204356670379639e+00" cType="1" res="-1.9622903782874346e-03" rms="4.2062568664550781e-01" purity="5.1818192005157471e-01" nType="0">
            <Node pos="l" depth="3" NCoef="0" IVar="-1" Cut="0.0000000000000000e+00" cType="1" res="-1.0880200192332268e-02" rms="4.4591516256332397e-01" purity="4.6253186464309692e-01" nType="-99"/>
            <Node pos="r" depth="3" NCoef="0" IVar="6" Cut="7.6461946964263916e-01" cType="1" res="1.2441510334610939e-02" rms="4.0969106554985046e-01" purity="5.3932434320449829e-01" nType="0">
              <Node pos="l" depth="4" NCoef="0" IVar="-1" Cut="0.0000000000000000e+00" cType="1" res="6.1544682830572128e-03" rms="4.1379159688949585e-01" purity="6.0363155603408813e-01" nType="-99"/>
              <Node pos="r" depth="4" NCoef="0" IVar="-1" Cut="0.0000000000000000e+00" cType="1" res="-8.5797253996133804e-03" rms="3.9579024910926819e-01" purity="3.6608028411865234e-01" nType="-99"/>
            </Node>
          </Node>
        </Node>
      </Node>
    </BinaryTree>
    <BinaryTree type="DecisionTree" boostWeight="1.0000000000000000e+00" itree="62">
      <Node pos="s" depth="0" NCoef="0" IVar="0" Cut="3.4395631250000000e+05" cType="1" res="-1.2317636050283909e-02" rms="4.1788780689239502e-01" purity="4.8680371046066284e-01" nType="0">
        <Node pos="l" depth="1" NCoef="0" IVar="8" Cut="3.0450205802917480e+00" cType="1" res="0.0000000000000000e+00" rms="0.0000000000000000e+00" purity="5.4116767644882202e-01" nType="0">
          <Node pos="l" depth="2" NCoef="0" IVar="1" Cut="-1.9447102546691895e+00" cType="1" res="0.0000000000000000e+00" rms="0.0000000000000000e+00" purity="5.0475037097930908e-01" nType="0">
            <Node pos="l" depth="3" NCoef="0" IVar="-1" Cut="0.0000000000000000e+00" cType="1" res="4.1908156126737595e-03" rms="4.3603974580764771e-01" purity="5.5323600769042969e-01" nType="-99"/>
            <Node pos="r" depth="3" NCoef="0" IVar="1" Cut="1.9305233955383301e+00" cType="1" res="-3.5663604736328125e-02" rms="4.4072192907333374e-01" purity="4.8483490943908691e-01" nType="0">
              <Node pos="l" depth="4" NCoef="0" IVar="-1" Cut="0.0000000000000000e+00" cType="1" res="-1.1998976580798626e-02" rms="4.3749839067459106e-01" purity="4.4203665852546692e-01" nType="-99"/>
              <Node pos="r" depth="4" NCoef="0" IVar="-1" Cut="0.0000000000000000e+00" cType="1" res="1.5330788446590304e-03" rms="4.4277834892272949e-01" purity="5.5272471904754639e-01" nType="-99"/>
            </Node>
          </Node>
          <Node pos="r" depth="2" NCoef="0" IVar="6" Cut="6.5517216920852661e-01" cType="1" res="0.0000000000000000e+00" rms="0.0000000000000000e+00" purity="6.0675698518753052e-01" nType="0">
            <Node pos="l" depth="3" NCoef="0" IVar="-1" Cut="0.0000000000000000e+00" cType="1" res="-5.0671063363552094e-03" rms="4.4131341576576233e-01" purity="5.8175569772720337e-01" nType="-99"/>
            <Node pos="r" depth="3" NCoef="0" IVar="-1" Cut="0.0000000000000000e+00" cType="1" res="1.5141434036195278e-02" rms="3.9075639843940735e-01" purity="6.2475872039794922e-01" nType="-99"/>
          </Node>
        </Node>
        <Node pos="r" depth="1" NCoef="0" IVar="-1" Cut="0.0000000000000000e+00" cType="1" res="-5.7878233492374420e-03" rms="3.0322977900505066e-01" purity="1.2309703230857849e-01" nType="-99"/>
      </Node>
    </BinaryTree>
    <BinaryTree type="DecisionTree" boostWeight="1.0000000000000000e+00" itree="63">
      <Node pos="s" depth="0" NCoef="0" IVar="5" Cut="1.6975741577148438e+02" cType="1" res="0.0000000000000000e+00" rms="0.0000000000000000e+00" purity="5.1746296882629395e-01" nType="0">
        <Node pos="l" depth="1" NCoef="0" IVar="0" Cut="2.3034396875000000e+05" cType="1" res="3.2857261598110199e-02" rms="4.1401100158691406e-01" purity="5.6335616111755371e-01" nType="0">
          <Node pos="l" depth="2" NCoef="0" IVar="6" Cut="6.5090513229370117e-01" cType="1" res="5.4070506244897842e-02" rms="4.2548424005508423e-01" purity="6.7368489503860474e-01" nType="0">
            <Node pos="l" depth="3" NCoef="0" IVar="-1" Cut="0.0000000000000000e+00" cType="1" res="7.0282402448356152e-03" rms="4.4290554523468018e-01" purity="6.4764446020126343e-01" nType="-99"/>
            <Node pos="r" depth="3" NCoef="0" IVar="-1" Cut="0.0000000000000000e+00" cType="1" res="1.8994539976119995e-02" rms="4.0783515572547913e-01" purity="6.9646745920181274e-01" nType="-99"/>
          </Node>
          <Node pos="r" depth="2" NCoef="0" IVar="-1" Cut="0.0000000000000000e+00" cType="1" res="-2.4103734176605940e-03" rms="3.8734057545661926e-01" purity="3.4819751977920532e-01" nType="-99"/>
        </Node>
        <Node pos="r" depth="1" NCoef="0" IVar="7" Cut="3.5442755126953125e+02" cType="1" res="-5.9969360008835793e-03" rms="4.2846301198005676e-01" purity="4.9341839551925659e-01" nType="0">
          <Node pos="l" depth="2" NCoef="0" IVar="1" Cut="1.9447133541107178e+00" cType="1" res="-1.4632056467235088e-02" rms="4.3197610974311829e-01" purity="4.4474351406097412e-01" nType="0">
            <Node pos="l" depth="3" NCoef="0" IVar="1" Cut="-9.5985776185989380e-01" cType="1" res="-2.5012101978063583e-02" rms="4.2946448922157288e-01" purity="4.2303681373596191e-01" nType="0">
              <Node pos="l" depth="4" NCoef="0" IVar="-1" Cut="0.0000000000000000e+00" cType="1" res="-3.0858358368277550e-03" rms="4.4425275921821594e-01" purity="4.5747652649879456e-01" nType="-99"/>
              <Node pos="r" depth="4" NCoef="0" IVar="-1" Cut="0.0000000000000000e+00" cType="1" res="-1.6732109710574150e-02" rms="4.0678125619888306e-01" purity="3.7464091181755066e-01" nType="-99"/>
            </Node>
            <Node pos="r" depth="3" NCoef="0" IVar="-1" Cut="0.0000000000000000e+00" cType="1" res="2.4460218846797943e-03" rms="4.3673759698867798e-01" purity="4.9436041712760925e-01" nType="-99"/>
          </Node>
          <Node pos="r" depth="2" NCoef="0" IVar="-1" Cut="0.0000000000000000e+00" cType="1" res="7.4999644421041012e-03" rms="4.1384905576705933e-01" purity="6.7122352123260498e-01" nType="-99"/>
        </Node>
      </Node>
    </BinaryTree>
    <BinaryTree type="DecisionTree" boostWeight="1.0000000000000000e+00" itree="64">
      <Node pos="s" depth="0" NCoef="0" IVar="3" Cut="4.9502464843750000e+04" cType="1" res="1.0978917125612497e-03" rms="4.2613676190376282e-01" purity="5.0235778093338013e-01" nType="0">
        <Node pos="l" depth="1" NCoef="0" IVar="-1" Cut="0.0000000000000000e+00" cType="1" res="-9.8880780860781670e-03" rms="3.8771161437034607e-01" purity="2.6874607801437378e-01" nType="-99"/>
        <Node pos="r" depth="1" NCoef="0" IVar="6" Cut="4.8507526516914368e-01" cType="1" res="9.3138664960861206e-03" rms="4.3136370182037354e-01" purity="5.3951489925384521e-01" nType="0">
          <Node pos="l" depth="2" NCoef="0" IVar="-1" Cut="0.0000000000000000e+00" cType="1" res="-1.3221848756074905e-02" rms="4.4714888930320740e-01" purity="3.6344271898269653e-01" nType="-99"/>
          <Node pos="r" depth="2" NCoef="0" IVar="8" Cut="2.8761599063873291e+00" cType="1" res="1.8126862123608589e-02" rms="4.2845207452774048e-01" purity="5.6288498640060425e-01" nType="0">
            <Node pos="l" depth="3" NCoef="0" IVar="-1" Cut="0.0000000000000000e+00" cType="1" res="-5.1782908849418163e-03" rms="4.5549160242080688e-01" purity="5.0280416011810303e-01" nType="-99"/>
            <Node pos="r" depth="3" NCoef="0" IVar="6" Cut="7.5235402584075928e-01" cType="1" res="2.8602099046111107e-02" rms="4.1972690820693970e-01" purity="5.8025777339935303e-01" nType="0">
              <Node pos="l" depth="4" NCoef="0" IVar="-1" Cut="0.0000000000000000e+00" cType="1" res="4.7289063222706318e-03" rms="4.1708421707153320e-01" purity="5.9230870008468628e-01" nType="-99"/>
              <Node pos="r" depth="4" NCoef="0" IVar="-1" Cut="0.0000000000000000e+00" cType="1" res="2.1787321195006371e-02" rms="4.2652195692062378e-01" purity="5.3675585985183716e-01" nType="-99"/>
            </Node>
          </Node>
        </Node>
      </Node>
    </BinaryTree>
    <BinaryTree type="DecisionTree" boostWeight="1.0000000000000000e+00" itree="65">
      <Node pos="s" depth="0" NCoef="0" IVar="1" Cut="-2.2438395023345947e+00" cType="1" res="0.0000000000000000e+00" rms="0.0000000000000000e+00" purity="5.0029402971267700e-01" nType="0">
        <Node pos="l" depth="1" NCoef="0" IVar="8" Cut="2.9924945831298828e+00" cType="1" res="3.0605100095272064e-02" rms="4.3705019354820251e-01" purity="5.5048638582229614e-01" nType="0">
          <Node pos="l" depth="2" NCoef="0" IVar="-1" Cut="0.0000000000000000e+00" cType="1" res="9.7845075652003288e-03" rms="4.3890962004661560e-01" purity="5.4763633012771606e-01" nType="-99"/>
          <Node pos="r" depth="2" NCoef="0" IVar="-1" Cut="0.0000000000000000e+00" cType="1" res="3.9966297335922718e-03" rms="4.3417841196060181e-01" purity="5.5361878871917725e-01" nType="-99"/>
        </Node>
        <Node pos="r" depth="1" NCoef="0" IVar="6" Cut="5.1324594020843506e-01" cType="1" res="0.0000000000000000e+00" rms="0.0000000000000000e+00" purity="4.8590192198753357e-01" nType="0">
          <Node pos="l" depth="2" NCoef="0" IVar="-1" Cut="0.0000000000000000e+00" cType="1" res="-1.3148675672709942e-02" rms="4.5836189389228821e-01" purity="3.6080515384674072e-01" nType="-99"/>
          <Node pos="r" depth="2" NCoef="0" IVar="8" Cut="2.8886208534240723e+00" cType="1" res="-4.6694218181073666e-03" rms="4.1714566946029663e-01" purity="5.0815069675445557e-01" nType="0">
            <Node pos="l" depth="3" NCoef="0" IVar="-1" Cut="0.0000000000000000e+00" cType="1" res="-1.3026167638599873e-02" rms="4.3675607442855835e-01" purity="4.4105216860771179e-01" nType="-99"/>
            <Node pos="r" depth="3" NCoef="0" IVar="5" Cut="1.8222082519531250e+02" cType="1" res="6.4935595728456974e-03" rms="4.1066241264343262e-01" purity="5.2741760015487671e-01" nType="0">
              <Node pos="l" depth="4" NCoef="0" IVar="-1" Cut="0.0000000000000000e+00" cType="1" res="7.3228995315730572e-03" rms="3.9844438433647156e-01" purity="5.8268070220947266e-01" nType="-99"/>
              <Node pos="r" depth="4" NCoef="0" IVar="-1" Cut="0.0000000000000000e+00" cType="1" res="-3.3992910757660866e-03" rms="4.2242485284805298e-01" purity="4.6947228908538818e-01" nType="-99"/>
            </Node>
          </Node>
        </Node>
      </Node>
    </BinaryTree>
    <BinaryTree type="DecisionTree" boostWeight="1.0000000000000000e+00" itree="66">
      <Node pos="s" depth="0" NCoef="0" IVar="0" Cut="3.4394775000000000e+05" cType="1" res="-1.0076575912535191e-02" rms="4.2225489020347595e-01" purity="4.9080571532249451e-01" nType="0">
        <Node pos="l" depth="1" NCoef="0" IVar="0" Cut="1.4132900000000000e+05" cType="1" res="-1.0656125377863646e-03" rms="4.3560230731964111e-01" purity="5.4399132728576660e-01" nType="0">
          <Node pos="l" depth="2" NCoef="0" IVar="-1" Cut="0.0000000000000000e+00" cType="1" res="-1.2498833239078522e-02" rms="4.5373380184173584e-01" purity="5.1621228456497192e-01" nType="-99"/>
          <Node pos="r" depth="2" NCoef="0" IVar="0" Cut="2.1850040625000000e+05" cType="1" res="1.0961494408547878e-02" rms="4.3030133843421936e-01" purity="5.5060261487960815e-01" nType="0">
            <Node pos="l" depth="3" NCoef="0" IVar="0" Cut="1.8542078125000000e+05" cType="1" res="2.5711562484502792e-02" rms="4.3873101472854614e-01" purity="6.2231665849685669e-01" nType="0">
              <Node pos="l" depth="4" NCoef="0" IVar="-1" Cut="0.0000000000000000e+00" cType="1" res="2.8272790368646383e-03" rms="4.4381755590438843e-01" purity="6.0628378391265869e-01" nType="-99"/>
              <Node pos="r" depth="4" NCoef="0" IVar="-1" Cut="0.0000000000000000e+00" cType="1" res="1.4768977649509907e-02" rms="4.2761400341987610e-01" purity="6.5201890468597412e-01" nType="-99"/>
            </Node>
            <Node pos="r" depth="3" NCoef="0" IVar="4" Cut="5.0459816406250000e+04" cType="1" res="-1.4552435837686062e-02" rms="4.1407772898674011e-01" purity="4.2655521631240845e-01" nType="0">
              <Node pos="l" depth="4" NCoef="0" IVar="-1" Cut="0.0000000000000000e+00" cType="1" res="-2.2114429622888565e-02" rms="3.7081140279769897e-01" purity="2.3414577543735504e-01" nType="-99"/>
              <Node pos="r" depth="4" NCoef="0" IVar="-1" Cut="0.0000000000000000e+00" cType="1" res="4.2679673060774803e-03" rms="4.3778532743453979e-01" purity="5.5209136009216309e-01" nType="-99"/>
            </Node>
          </Node>
        </Node>
        <Node pos="r" depth="1" NCoef="0" IVar="-1" Cut="0.0000000000000000e+00" cType="1" res="-3.3159006852656603e-03" rms="3.1609842181205750e-01" purity="1.4511443674564362e-01" nType="-99"/>
      </Node>
    </BinaryTree>
    <BinaryTree type="DecisionTree" boostWeight="1.0000000000000000e+00" itree="67">
      <Node pos="s" depth="0" NCoef="0" IVar="0" Cut="3.4394775000000000e+05" cType="1" res="7.8515438362956047e-03" rms="4.2191976308822632e-01" purity="5.1094257831573486e-01" nType="0">
        <Node pos="l" depth="1" NCoef="0" IVar="4" Cut="6.3658300781250000e+04" cType="1" res="1.5214151702821255e-02" rms="4.3440032005310059e-01" purity="5.5870300531387329e-01" nType="0">
          <Node pos="l" depth="2" NCoef="0" IVar="1" Cut="-2.2436051368713379e+00" cType="1" res="0.0000000000000000e+00" rms="0.0000000000000000e+00" purity="4.6994584798812866e-01" nType="0">
            <Node pos="l" depth="3" NCoef="0" IVar="-1" Cut="0.0000000000000000e+00" cType="1" res="8.9588165283203125e-03" rms="4.4646164774894714e-01" purity="5.1295620203018188e-01" nType="-99"/>
            <Node pos="r" depth="3" NCoef="0" IVar="6" Cut="6.2607461214065552e-01" cType="1" res="-8.7378444150090218e-03" rms="4.3620356917381287e-01" purity="4.5719864964485168e-01" nType="0">
              <Node pos="l" depth="4" NCoef="0" IVar="-1" Cut="0.0000000000000000e+00" cType="1" res="-1.3679127208888531e-02" rms="4.4662693142890930e-01" purity="4.0657103061676025e-01" nType="-99"/>
              <Node pos="r" depth="4" NCoef="0" IVar="-1" Cut="0.0000000000000000e+00" cType="1" res="3.6483486182987690e-03" rms="4.2961391806602478e-01" purity="4.8179867863655090e-01" nType="-99"/>
            </Node>
          </Node>
          <Node pos="r" depth="2" NCoef="0" IVar="5" Cut="2.2287274169921875e+02" cType="1" res="3.2436132431030273e-02" rms="4.2778700590133667e-01" purity="6.7302745580673218e-01" nType="0">
            <Node pos="l" depth="3" NCoef="0" IVar="6" Cut="5.8914601802825928e-01" cType="1" res="4.9722246825695038e-02" rms="4.1463503241539001e-01" purity="7.2806155681610107e-01" nType="0">
              <Node pos="l" depth="4" NCoef="0" IVar="-1" Cut="0.0000000000000000e+00" cType="1" res="1.2962560169398785e-02" rms="4.4428393244743347e-01" purity="6.7334407567977905e-01" nType="-99"/>
              <Node pos="r" depth="4" NCoef="0" IVar="-1" Cut="0.0000000000000000e+00" cType="1" res="1.0020644403994083e-02" rms="3.8731932640075684e-01" purity="7.7475374937057495e-01" nType="-99"/>
            </Node>
            <Node pos="r" depth="3" NCoef="0" IVar="-1" Cut="0.0000000000000000e+00" cType="1" res="-4.3981654016533867e-05" rms="4.4974824786186218e-01" purity="5.6922054290771484e-01" nType="-99"/>
          </Node>
        </Node>
        <Node pos="r" depth="1" NCoef="0" IVar="-1" Cut="0.0000000000000000e+00" cType="1" res="-1.6289839521050453e-02" rms="3.0486288666725159e-01" purity="1.4669142663478851e-01" nType="-99"/>
      </Node>
    </BinaryTree>
    <BinaryTree type="DecisionTree" boostWeight="1.0000000000000000e+00" itree="68">
      <Node pos="s" depth="0" NCoef="0" IVar="6" Cut="7.9490900039672852e-01" cType="1" res="-3.5371708218008280e-03" rms="4.2478570342063904e-01" purity="5.0244194269180298e-01" nType="0">
        <Node pos="l" depth="1" NCoef="0" IVar="2" Cut="3.0089526176452637e+00" cType="1" res="4.8093274235725403e-03" rms="4.2807427048683167e-01" purity="5.3145748376846313e-01" nType="0">
          <Node pos="l" depth="2" NCoef="0" IVar="1" Cut="2.5429437160491943e+00" cType="1" res="1.2054648250341415e-02" rms="4.2850148677825928e-01" purity="5.3486996889114380e-01" nType="0">
            <Node pos="l" depth="3" NCoef="0" IVar="2" Cut="1.3385183811187744e+00" cType="1" res="4.6934690326452255e-03" rms="4.2913106083869934e-01" purity="5.3157591819763184e-01" nType="0">
              <Node pos="l" depth="4" NCoef="0" IVar="-1" Cut="0.0000000000000000e+00" cType="1" res="-7.4025364592671394e-03" rms="3.9806899428367615e-01" purity="3.7232950329780579e-01" nType="-99"/>
              <Node pos="r" depth="4" NCoef="0" IVar="-1" Cut="0.0000000000000000e+00" cType="1" res="4.8896581865847111e-03" rms="4.4481861591339111e-01" purity="6.2018728256225586e-01" nType="-99"/>
            </Node>
            <Node pos="r" depth="3" NCoef="0" IVar="-1" Cut="0.0000000000000000e+00" cType="1" res="1.0882141068577766e-02" rms="4.2406755685806274e-01" purity="5.4972201585769653e-01" nType="-99"/>
          </Node>
          <Node pos="r" depth="2" NCoef="0" IVar="-1" Cut="0.0000000000000000e+00" cType="1" res="-1.3553545810282230e-02" rms="4.2161375284194946e-01" purity="5.0760483741760254e-01" nType="-99"/>
        </Node>
        <Node pos="r" depth="1" NCoef="0" IVar="-1" Cut="0.0000000000000000e+00" cType="1" res="-1.4589436352252960e-02" rms="3.9955094456672668e-01" purity="3.2019737362861633e-01" nType="-99"/>
      </Node>
    </BinaryTree>
    <BinaryTree type="DecisionTree" boostWeight="1.0000000000000000e+00" itree="69">
      <Node pos="s" depth="0" NCoef="0" IVar="0" Cut="3.4394775000000000e+05" cType="1" res="-8.2388520240783691e-03" rms="4.1978597640991211e-01" purity="5.0193721055984497e-01" nType="0">
        <Node pos="l" depth="1" NCoef="0" IVar="9" Cut="2.0000000000000000e+00" cType="1" res="4.1195000521838665e-03" rms="3.5226032137870789e-01" purity="5.5845254659652710e-01" nType="0">
          <Node pos="l" depth="2" NCoef="0" IVar="-1" Cut="0.0000000000000000e+00" cType="1" res="-7.1535632014274597e-03" rms="4.5089262723922729e-01" purity="3.8879695534706116e-01" nType="-99"/>
          <Node pos="r" depth="2" NCoef="0" IVar="4" Cut="4.2178406250000000e+04" cType="1" res="1.0288222692906857e-02" rms="4.3105328083038330e-01" purity="5.8651208877563477e-01" nType="0">
            <Node pos="l" depth="3" NCoef="0" IVar="-1" Cut="0.0000000000000000e+00" cType="1" res="-7.5051728636026382e-03" rms="4.2719051241874695e-01" purity="3.9516609907150269e-01" nType="-99"/>
            <Node pos="r" depth="3" NCoef="0" IVar="0" Cut="1.6266062500000000e+05" cType="1" res="1.9581636413931847e-02" rms="4.3166127800941467e-01" purity="6.3970351219177246e-01" nType="0">
              <Node pos="l" depth="4" NCoef="0" IVar="-1" Cut="0.0000000000000000e+00" cType="1" res="-7.5683603063225746e-04" rms="4.3662706017494202e-01" purity="6.3813471794128418e-01" nType="-99"/>
              <Node pos="r" depth="4" NCoef="0" IVar="-1" Cut="0.0000000000000000e+00" cType="1" res="8.2696257159113884e-03" rms="4.2866638302803040e-01" purity="6.4050281047821045e-01" nType="-99"/>
            </Node>
          </Node>
        </Node>
        <Node pos="r" depth="1" NCoef="0" IVar="-1" Cut="0.0000000000000000e+00" cType="1" res="-3.5822156351059675e-03" rms="2.9444646835327148e-01" purity="1.2103842198848724e-01" nType="-99"/>
      </Node>
    </BinaryTree>
    <BinaryTree type="DecisionTree" boostWeight="1.0000000000000000e+00" itree="70">
      <Node pos="s" depth="0" NCoef="0" IVar="6" Cut="5.9844559431076050e-01" cType="1" res="-9.1639664024114609e-03" rms="4.2481026053428650e-01" purity="4.9416053295135498e-01" nType="0">
        <Node pos="l" depth="1" NCoef="0" IVar="9" Cut="3.0000000000000000e+00" cType="1" res="-3.0962396413087845e-02" rms="4.4563093781471252e-01" purity="4.4397601485252380e-01" nType="0">
          <Node pos="l" depth="2" NCoef="0" IVar="-1" Cut="0.0000000000000000e+00" cType="1" res="-1.2139028869569302e-02" rms="4.3557798862457275e-01" purity="3.2225719094276428e-01" nType="-99"/>
          <Node pos="r" depth="2" NCoef="0" IVar="6" Cut="5.1360845565795898e-01" cType="1" res="-1.3604403473436832e-02" rms="4.5128014683723450e-01" purity="5.0344991683959961e-01" nType="0">
            <Node pos="l" depth="3" NCoef="0" IVar="-1" Cut="0.0000000000000000e+00" cType="1" res="1.1895709903910756e-03" rms="4.6123945713043213e-01" purity="4.5345759391784668e-01" nType="-99"/>
            <Node pos="r" depth="3" NCoef="0" IVar="-1" Cut="0.0000000000000000e+00" cType="1" res="-9.2973662540316582e-03" rms="4.4281584024429321e-01" purity="5.4259926080703735e-01" nType="-99"/>
          </Node>
        </Node>
        <Node pos="r" depth="1" NCoef="0" IVar="7" Cut="3.3249291992187500e+02" cType="1" res="2.4969787336885929e-03" rms="4.1134893894195557e-01" purity="5.2267640829086304e-01" nType="0">
          <Node pos="l" depth="2" NCoef="0" IVar="2" Cut="1.9170386791229248e+00" cType="1" res="-4.5874677598476410e-03" rms="4.2000591754913330e-01" purity="4.6302089095115662e-01" nType="0">
            <Node pos="l" depth="3" NCoef="0" IVar="1" Cut="-7.4892598390579224e-01" cType="1" res="-3.4254401922225952e-02" rms="3.9309445023536682e-01" purity="3.3978185057640076e-01" nType="0">
              <Node pos="l" depth="4" NCoef="0" IVar="-1" Cut="0.0000000000000000e+00" cType="1" res="3.1507737003266811e-03" rms="4.0582421422004700e-01" purity="4.0501925349235535e-01" nType="-99"/>
              <Node pos="r" depth="4" NCoef="0" IVar="-1" Cut="0.0000000000000000e+00" cType="1" res="-2.2197719663381577e-02" rms="3.8045221567153931e-01" purity="2.9218500852584839e-01" nType="-99"/>
            </Node>
            <Node pos="r" depth="3" NCoef="0" IVar="1" Cut="1.0471321344375610e+00" cType="1" res="2.3770770058035851e-02" rms="4.4235274195671082e-01" purity="5.8082348108291626e-01" nType="0">
              <Node pos="l" depth="4" NCoef="0" IVar="-1" Cut="0.0000000000000000e+00" cType="1" res="2.0168926566839218e-03" rms="4.4529077410697937e-01" purity="5.4716229438781738e-01" nType="-99"/>
              <Node pos="r" depth="4" NCoef="0" IVar="-1" Cut="0.0000000000000000e+00" cType="1" res="1.1778527870774269e-02" rms="4.3735009431838989e-01" purity="6.2690001726150513e-01" nType="-99"/>
            </Node>
          </Node>
          <Node pos="r" depth="2" NCoef="0" IVar="-1" Cut="0.0000000000000000e+00" cType="1" res="1.2618634849786758e-02" rms="3.6826118826866150e-01" purity="7.9083847999572754e-01" nType="-99"/>
        </Node>
      </Node>
    </BinaryTree>
    <BinaryTree type="DecisionTree" boostWeight="1.0000000000000000e+00" itree="71">
      <Node pos="s" depth="0" NCoef="0" IVar="2" Cut="3.0702373981475830e+00" cType="1" res="2.7412066701799631e-03" rms="4.2176246643066406e-01" purity="5.0568383932113647e-01" nType="0">
        <Node pos="l" depth="1" NCoef="0" IVar="2" Cut="2.3574974536895752e+00" cType="1" res="8.7624434381723404e-03" rms="4.2283457517623901e-01" purity="5.0880271196365356e-01" nType="0">
          <Node pos="l" depth="2" NCoef="0" IVar="5" Cut="2.5661294555664062e+02" cType="1" res="-3.8776337169110775e-03" rms="4.1633492708206177e-01" purity="4.6316111087799072e-01" nType="0">
            <Node pos="l" depth="3" NCoef="0" IVar="7" Cut="1.6262837219238281e+02" cType="1" res="3.7257124204188585e-03" rms="4.1350886225700378e-01" purity="4.7934582829475403e-01" nType="0">
              <Node pos="l" depth="4" NCoef="0" IVar="-1" Cut="0.0000000000000000e+00" cType="1" res="-1.2175573036074638e-02" rms="3.8756459951400757e-01" purity="2.3587405681610107e-01" nType="-99"/>
              <Node pos="r" depth="4" NCoef="0" IVar="-1" Cut="0.0000000000000000e+00" cType="1" res="3.9157201535999775e-03" rms="4.2074254155158997e-01" purity="5.5624711513519287e-01" nType="-99"/>
            </Node>
            <Node pos="r" depth="3" NCoef="0" IVar="-1" Cut="0.0000000000000000e+00" cType="1" res="-8.8433083146810532e-03" rms="4.2638248205184937e-01" purity="3.9626055955886841e-01" nType="-99"/>
          </Node>
          <Node pos="r" depth="2" NCoef="0" IVar="4" Cut="5.8900691406250000e+04" cType="1" res="3.8884624838829041e-02" rms="4.3646183609962463e-01" purity="6.1756974458694458e-01" nType="0">
            <Node pos="l" depth="3" NCoef="0" IVar="-1" Cut="0.0000000000000000e+00" cType="1" res="1.6192812472581863e-02" rms="4.4204753637313843e-01" purity="5.6691414117813110e-01" nType="-99"/>
            <Node pos="r" depth="3" NCoef="0" IVar="-1" Cut="0.0000000000000000e+00" cType="1" res="4.1691963560879230e-03" rms="4.2986267805099487e-01" purity="6.7035257816314697e-01" nType="-99"/>
          </Node>
        </Node>
        <Node pos="r" depth="1" NCoef="0" IVar="-1" Cut="0.0000000000000000e+00" cType="1" res="-1.1095625348389149e-02" rms="4.0902042388916016e-01" purity="4.7925052046775818e-01" nType="-99"/>
      </Node>
    </BinaryTree>
    <BinaryTree type="DecisionTree" boostWeight="1.0000000000000000e+00" itree="72">
      <Node pos="s" depth="0" NCoef="0" IVar="9" Cut="3.0000000000000000e+00" cType="1" res="-2.1902870503254235e-04" rms="4.2341300845146179e-01" purity="5.1189255714416504e-01" nType="0">
        <Node pos="l" depth="1" NCoef="0" IVar="6" Cut="7.4017179012298584e-01" cType="1" res="-2.3507913574576378e-02" rms="4.2883366346359253e-01" purity="4.1903865337371826e-01" nType="0">
          <Node pos="l" depth="2" NCoef="0" IVar="7" Cut="2.0996575927734375e+02" cType="1" res="-4.4325042515993118e-02" rms="4.3664824962615967e-01" purity="4.2815810441970825e-01" nType="0">
            <Node pos="l" depth="3" NCoef="0" IVar="-1" Cut="0.0000000000000000e+00" cType="1" res="-9.2116342857480049e-03" rms="4.2188867926597595e-01" purity="3.2287308573722839e-01" nType="-99"/>
            <Node pos="r" depth="3" NCoef="0" IVar="-1" Cut="0.0000000000000000e+00" cType="1" res="-4.6053342521190643e-03" rms="4.5277807116508484e-01" purity="5.5832940340042114e-01" nType="-99"/>
          </Node>
          <Node pos="r" depth="2" NCoef="0" IVar="-1" Cut="0.0000000000000000e+00" cType="1" res="3.1762393191456795e-03" rms="4.1371700167655945e-01" purity="4.0432813763618469e-01" nType="-99"/>
        </Node>
        <Node pos="r" depth="1" NCoef="0" IVar="3" Cut="6.1056210937500000e+04" cType="1" res="1.9434941932559013e-02" rms="4.1778621077537537e-01" purity="5.9046715497970581e-01" nType="0">
          <Node pos="l" depth="2" NCoef="0" IVar="-1" Cut="0.0000000000000000e+00" cType="1" res="-1.1248975060880184e-02" rms="4.0458571910858154e-01" purity="3.8498708605766296e-01" nType="-99"/>
          <Node pos="r" depth="2" NCoef="0" IVar="1" Cut="1.9450726509094238e+00" cType="1" res="3.0928272753953934e-02" rms="4.2002248764038086e-01" purity="6.3901442289352417e-01" nType="0">
            <Node pos="l" depth="3" NCoef="0" IVar="8" Cut="2.9923934936523438e+00" cType="1" res="1.9140195101499557e-02" rms="4.2210415005683899e-01" purity="6.2869620323181152e-01" nType="0">
              <Node pos="l" depth="4" NCoef="0" IVar="-1" Cut="0.0000000000000000e+00" cType="1" res="-1.7359487246721983e-03" rms="4.3813478946685791e-01" purity="5.5862504243850708e-01" nType="-99"/>
              <Node pos="r" depth="4" NCoef="0" IVar="-1" Cut="0.0000000000000000e+00" cType="1" res="1.4410470612347126e-02" rms="4.0430709719657898e-01" purity="6.9680017232894897e-01" nType="-99"/>
            </Node>
            <Node pos="r" depth="3" NCoef="0" IVar="-1" Cut="0.0000000000000000e+00" cType="1" res="1.7795469611883163e-02" rms="4.1282889246940613e-01" purity="6.6636413335800171e-01" nType="-99"/>
          </Node>
        </Node>
      </Node>
    </BinaryTree>
    <BinaryTree type="DecisionTree" boostWeight="1.0000000000000000e+00" itree="73">
      <Node pos="s" depth="0" NCoef="0" IVar="4" Cut="9.0171234375000000e+04" cType="1" res="-9.4657884910702705e-03" rms="4.2375028133392334e-01" purity="4.9302318692207336e-01" nType="0">
        <Node pos="l" depth="1" NCoef="0" IVar="1" Cut="1.3465565443038940e+00" cType="1" res="-1.7768705263733864e-02" rms="4.2293867468833923e-01" purity="4.5968094468116760e-01" nType="0">
          <Node pos="l" depth="2" NCoef="0" IVar="4" Cut="6.8492945312500000e+04" cType="1" res="0.0000000000000000e+00" rms="0.0000000000000000e+00" purity="4.3544882535934448e-01" nType="0">
            <Node pos="l" depth="3" NCoef="0" IVar="1" Cut="-1.6457903385162354e+00" cType="1" res="-1.8501635640859604e-02" rms="4.1510486602783203e-01" purity="4.0991371870040894e-01" nType="0">
              <Node pos="l" depth="4" NCoef="0" IVar="-1" Cut="0.0000000000000000e+00" cType="1" res="1.6067698597908020e-03" rms="4.3325093388557434e-01" purity="4.8135071992874146e-01" nType="-99"/>
              <Node pos="r" depth="4" NCoef="0" IVar="-1" Cut="0.0000000000000000e+00" cType="1" res="-9.2795435339212418e-03" rms="3.9692342281341553e-01" purity="3.4616747498512268e-01" nType="-99"/>
            </Node>
            <Node pos="r" depth="3" NCoef="0" IVar="-1" Cut="0.0000000000000000e+00" cType="1" res="-2.0630348473787308e-02" rms="4.2443346977233887e-01" purity="5.2832973003387451e-01" nType="-99"/>
          </Node>
          <Node pos="r" depth="2" NCoef="0" IVar="6" Cut="7.0851027965545654e-01" cType="1" res="0.0000000000000000e+00" rms="0.0000000000000000e+00" purity="5.0309717655181885e-01" nType="0">
            <Node pos="l" depth="3" NCoef="0" IVar="-1" Cut="0.0000000000000000e+00" cType="1" res="-4.7209276817739010e-03" rms="4.3726649880409241e-01" purity="4.9545919895172119e-01" nType="-99"/>
            <Node pos="r" depth="3" NCoef="0" IVar="-1" Cut="0.0000000000000000e+00" cType="1" res="1.1023776605725288e-02" rms="4.1798317432403564e-01" purity="5.1745867729187012e-01" nType="-99"/>
          </Node>
        </Node>
        <Node pos="r" depth="1" NCoef="0" IVar="-1" Cut="0.0000000000000000e+00" cType="1" res="7.5650820508599281e-03" rms="4.2535594105720520e-01" purity="6.6169345378875732e-01" nType="-99"/>
      </Node>
    </BinaryTree>
    <BinaryTree type="DecisionTree" boostWeight="1.0000000000000000e+00" itree="74">
      <Node pos="s" depth="0" NCoef="0" IVar="9" Cut="2.0000000000000000e+00" cType="1" res="-1.4154805103316903e-04" rms="4.2575430870056152e-01" purity="5.0862973928451538e-01" nType="0">
        <Node pos="l" depth="1" NCoef="0" IVar="-1" Cut="0.0000000000000000e+00" cType="1" res="8.1856148317456245e-03" rms="4.3668398261070251e-01" purity="4.5557153224945068e-01" nType="-99"/>
        <Node pos="r" depth="1" NCoef="0" IVar="1" Cut="1.3465627431869507e+00" cType="1" res="-6.1895106919109821e-03" rms="4.2365291714668274e-01" purity="5.1723504066467285e-01" nType="0">
          <Node pos="l" depth="2" NCoef="0" IVar="6" Cut="5.6471991539001465e-01" cType="1" res="-1.8011525273323059e-02" rms="4.2188054323196411e-01" purity="4.9361819028854370e-01" nType="0">
            <Node pos="l" depth="3" NCoef="0" IVar="-1" Cut="0.0000000000000000e+00" cType="1" res="-9.9602350965142250e-03" rms="4.4950017333030701e-01" purity="4.2340576648712158e-01" nType="-99"/>
            <Node pos="r" depth="3" NCoef="0" IVar="6" Cut="7.0142173767089844e-01" cType="1" res="0.0000000000000000e+00" rms="0.0000000000000000e+00" purity="5.2566266059875488e-01" nType="0">
              <Node pos="l" depth="4" NCoef="0" IVar="-1" Cut="0.0000000000000000e+00" cType="1" res="2.0079938694834709e-03" rms="4.1725179553031921e-01" purity="5.8474439382553101e-01" nType="-99"/>
              <Node pos="r" depth="4" NCoef="0" IVar="-1" Cut="0.0000000000000000e+00" cType="1" res="-1.0341245681047440e-02" rms="3.9428538084030151e-01" purity="4.4227916002273560e-01" nType="-99"/>
            </Node>
          </Node>
          <Node pos="r" depth="2" NCoef="0" IVar="8" Cut="3.0488717555999756e+00" cType="1" res="1.4019189402461052e-02" rms="4.2590633034706116e-01" purity="5.5760598182678223e-01" nType="0">
            <Node pos="l" depth="3" NCoef="0" IVar="-1" Cut="0.0000000000000000e+00" cType="1" res="-2.0296222064644098e-03" rms="4.3276378512382507e-01" purity="5.1495999097824097e-01" nType="-99"/>
            <Node pos="r" depth="3" NCoef="0" IVar="-1" Cut="0.0000000000000000e+00" cType="1" res="1.4685587957501411e-02" rms="4.1010674834251404e-01" purity="6.3612806797027588e-01" nType="-99"/>
          </Node>
        </Node>
      </Node>
    </BinaryTree>
    <BinaryTree type="DecisionTree" boostWeight="1.0000000000000000e+00" itree="75">
      <Node pos="s" depth="0" NCoef="0" IVar="7" Cut="1.4961984252929688e+02" cType="1" res="1.2960805324837565e-03" rms="4.2223295569419861e-01" purity="5.0626295804977417e-01" nType="0">
        <Node pos="l" depth="1" NCoef="0" IVar="1" Cut="-1.4784395694732666e-01" cType="1" res="-3.1308181583881378e-02" rms="3.8830137252807617e-01" purity="2.6757586002349854e-01" nType="0">
          <Node pos="l" depth="2" NCoef="0" IVar="-1" Cut="0.0000000000000000e+00" cType="1" res="-9.2104291543364525e-03" rms="3.7026342749595642e-01" purity="2.3384943604469299e-01" nType="-99"/>
          <Node pos="r" depth="2" NCoef="0" IVar="-1" Cut="0.0000000000000000e+00" cType="1" res="-5.3198644891381264e-03" rms="4.0472856163978577e-01" purity="3.0051758885383606e-01" nType="-99"/>
        </Node>
        <Node pos="r" depth="1" NCoef="0" IVar="1" Cut="2.5431864261627197e+00" cType="1" res="9.8405806347727776e-03" rms="4.3027505278587341e-01" purity="5.6881505250930786e-01" nType="0">
          <Node pos="l" depth="2" NCoef="0" IVar="2" Cut="2.7848312854766846e+00" cType="1" res="0.0000000000000000e+00" rms="0.0000000000000000e+00" purity="5.6124973297119141e-01" nType="0">
            <Node pos="l" depth="3" NCoef="0" IVar="3" Cut="6.2526652343750000e+04" cType="1" res="-3.2481763046234846e-03" rms="4.3113923072814941e-01" purity="5.4429537057876587e-01" nType="0">
              <Node pos="l" depth="4" NCoef="0" IVar="-1" Cut="0.0000000000000000e+00" cType="1" res="-7.2076898068189621e-03" rms="4.2128106951713562e-01" purity="3.7636277079582214e-01" nType="-99"/>
              <Node pos="r" depth="4" NCoef="0" IVar="-1" Cut="0.0000000000000000e+00" cType="1" res="1.1438302462920547e-03" rms="4.3377757072448730e-01" purity="5.9442496299743652e-01" nType="-99"/>
            </Node>
            <Node pos="r" depth="3" NCoef="0" IVar="-1" Cut="0.0000000000000000e+00" cType="1" res="6.0190111398696899e-03" rms="4.3177476525306702e-01" purity="6.2138205766677856e-01" nType="-99"/>
          </Node>
          <Node pos="r" depth="2" NCoef="0" IVar="-1" Cut="0.0000000000000000e+00" cType="1" res="1.4608011581003666e-02" rms="4.2227920889854431e-01" purity="6.0882288217544556e-01" nType="-99"/>
        </Node>
      </Node>
    </BinaryTree>
    <BinaryTree type="DecisionTree" boostWeight="1.0000000000000000e+00" itree="76">
      <Node pos="s" depth="0" NCoef="0" IVar="0" Cut="2.5766156250000000e+05" cType="1" res="-4.4562900438904762e-03" rms="4.1950312256813049e-01" purity="4.9435973167419434e-01" nType="0">
        <Node pos="l" depth="1" NCoef="0" IVar="0" Cut="2.1830354687500000e+05" cType="1" res="7.5776148587465286e-03" rms="4.4174179434776306e-01" purity="5.8676016330718994e-01" nType="0">
          <Node pos="l" depth="2" NCoef="0" IVar="2" Cut="2.4347720146179199e+00" cType="1" res="1.8519429489970207e-02" rms="4.4288769364356995e-01" purity="6.0327380895614624e-01" nType="0">
            <Node pos="l" depth="3" NCoef="0" IVar="2" Cut="1.5472433567047119e+00" cType="1" res="5.3241439163684845e-03" rms="4.4720783829689026e-01" purity="5.6198745965957642e-01" nType="0">
              <Node pos="l" depth="4" NCoef="0" IVar="-1" Cut="0.0000000000000000e+00" cType="1" res="8.6573567241430283e-03" rms="4.4503322243690491e-01" purity="5.3703337907791138e-01" nType="-99"/>
              <Node pos="r" depth="4" NCoef="0" IVar="-1" Cut="0.0000000000000000e+00" cType="1" res="-5.8160312473773956e-03" rms="4.4781881570816040e-01" purity="5.9122204780578613e-01" nType="-99"/>
            </Node>
            <Node pos="r" depth="3" NCoef="0" IVar="-1" Cut="0.0000000000000000e+00" cType="1" res="8.7785357609391212e-03" rms="4.3309000134468079e-01" purity="6.8450707197189331e-01" nType="-99"/>
          </Node>
          <Node pos="r" depth="2" NCoef="0" IVar="-1" Cut="0.0000000000000000e+00" cType="1" res="-1.2227165512740612e-02" rms="4.3257105350494385e-01" purity="5.0880801677703857e-01" nType="-99"/>
        </Node>
        <Node pos="r" depth="1" NCoef="0" IVar="3" Cut="7.5026390625000000e+04" cType="1" res="-3.7098195403814316e-02" rms="3.5010322928428650e-01" purity="2.4372392892837524e-01" nType="0">
          <Node pos="l" depth="2" NCoef="0" IVar="-1" Cut="0.0000000000000000e+00" cType="1" res="-4.4046253897249699e-03" rms="2.7911213040351868e-01" purity="1.0685861110687256e-01" nType="-99"/>
          <Node pos="r" depth="2" NCoef="0" IVar="-1" Cut="0.0000000000000000e+00" cType="1" res="3.6126079503446817e-03" rms="3.9806696772575378e-01" purity="3.6962622404098511e-01" nType="-99"/>
        </Node>
      </Node>
    </BinaryTree>
    <BinaryTree type="DecisionTree" boostWeight="1.0000000000000000e+00" itree="77">
      <Node pos="s" depth="0" NCoef="0" IVar="7" Cut="3.0453131103515625e+02" cType="1" res="-3.6854073405265808e-03" rms="4.1709980368614197e-01" purity="5.0279301404953003e-01" nType="0">
        <Node pos="l" depth="1" NCoef="0" IVar="3" Cut="9.9387773437500000e+04" cType="1" res="-1.3770932331681252e-02" rms="4.2032742500305176e-01" purity="4.2926990985870361e-01" nType="0">
          <Node pos="l" depth="2" NCoef="0" IVar="0" Cut="2.6666790625000000e+05" cType="1" res="-4.1323397308588028e-03" rms="4.0967696905136108e-01" purity="4.1582381725311279e-01" nType="0">
            <Node pos="l" depth="3" NCoef="0" IVar="4" Cut="5.6128500000000000e+04" cType="1" res="0.0000000000000000e+00" rms="0.0000000000000000e+00" purity="5.1629877090454102e-01" nType="0">
              <Node pos="l" depth="4" NCoef="0" IVar="-1" Cut="0.0000000000000000e+00" cType="1" res="-1.3457880122587085e-03" rms="4.4597581028938293e-01" purity="4.5061480998992920e-01" nType="-99"/>
              <Node pos="r" depth="4" NCoef="0" IVar="-1" Cut="0.0000000000000000e+00" cType="1" res="1.2052841484546661e-02" rms="4.2804625630378723e-01" purity="6.5892946720123291e-01" nType="-99"/>
            </Node>
            <Node pos="r" depth="3" NCoef="0" IVar="-1" Cut="0.0000000000000000e+00" cType="1" res="-1.8583424389362335e-02" rms="2.9835626482963562e-01" purity="1.2654046714305878e-01" nType="-99"/>
          </Node>
          <Node pos="r" depth="2" NCoef="0" IVar="-1" Cut="0.0000000000000000e+00" cType="1" res="-6.0418373905122280e-03" rms="4.4748198986053467e-01" purity="4.6659499406814575e-01" nType="-99"/>
        </Node>
        <Node pos="r" depth="1" NCoef="0" IVar="5" Cut="2.0238720703125000e+02" cType="1" res="1.9629433751106262e-02" rms="4.0858933329582214e-01" purity="6.7275738716125488e-01" nType="0">
          <Node pos="l" depth="2" NCoef="0" IVar="-1" Cut="0.0000000000000000e+00" cType="1" res="1.4461025595664978e-02" rms="3.9146879315376282e-01" purity="7.3015671968460083e-01" nType="-99"/>
          <Node pos="r" depth="2" NCoef="0" IVar="-1" Cut="0.0000000000000000e+00" cType="1" res="-5.3618522360920906e-03" rms="4.3202689290046692e-01" purity="5.8065450191497803e-01" nType="-99"/>
        </Node>
      </Node>
    </BinaryTree>
    <BinaryTree type="DecisionTree" boostWeight="1.0000000000000000e+00" itree="78">
      <Node pos="s" depth="0" NCoef="0" IVar="6" Cut="6.8225896358489990e-01" cType="1" res="-1.9196183420717716e-03" rms="4.2446997761726379e-01" purity="5.0352042913436890e-01" nType="0">
        <Node pos="l" depth="1" NCoef="0" IVar="6" Cut="5.0747019052505493e-01" cType="1" res="-1.6120361164212227e-02" rms="4.3315488100051880e-01" purity="5.1258945465087891e-01" nType="0">
          <Node pos="l" depth="2" NCoef="0" IVar="-1" Cut="0.0000000000000000e+00" cType="1" res="-9.8617319017648697e-03" rms="4.4804382324218750e-01" purity="3.7124374508857727e-01" nType="-99"/>
          <Node pos="r" depth="2" NCoef="0" IVar="8" Cut="3.0530214309692383e+00" cType="1" res="-8.1784790381789207e-03" rms="4.2785057425498962e-01" purity="5.5904418230056763e-01" nType="0">
            <Node pos="l" depth="3" NCoef="0" IVar="0" Cut="2.1684521875000000e+05" cType="1" res="1.1962448479607701e-03" rms="4.2728021740913391e-01" purity="5.4744821786880493e-01" nType="0">
              <Node pos="l" depth="4" NCoef="0" IVar="-1" Cut="0.0000000000000000e+00" cType="1" res="8.1582469865679741e-03" rms="4.3656447529792786e-01" purity="6.4142584800720215e-01" nType="-99"/>
              <Node pos="r" depth="4" NCoef="0" IVar="-1" Cut="0.0000000000000000e+00" cType="1" res="-1.1256166733801365e-02" rms="4.0528920292854309e-01" purity="3.7992182374000549e-01" nType="-99"/>
            </Node>
            <Node pos="r" depth="3" NCoef="0" IVar="-1" Cut="0.0000000000000000e+00" cType="1" res="-1.1638619005680084e-02" rms="4.2838117480278015e-01" purity="5.8628839254379272e-01" nType="-99"/>
          </Node>
        </Node>
        <Node pos="r" depth="1" NCoef="0" IVar="8" Cut="3.0746023654937744e+00" cType="1" res="1.9808381795883179e-02" rms="4.0987509489059448e-01" purity="4.8964428901672363e-01" nType="0">
          <Node pos="l" depth="2" NCoef="0" IVar="6" Cut="7.5618129968643188e-01" cType="1" res="8.1704376498237252e-04" rms="4.1761660575866699e-01" purity="4.6365696191787720e-01" nType="0">
            <Node pos="l" depth="3" NCoef="0" IVar="-1" Cut="0.0000000000000000e+00" cType="1" res="8.2476902753114700e-03" rms="4.1403385996818542e-01" purity="5.5669438838958740e-01" nType="-99"/>
            <Node pos="r" depth="3" NCoef="0" IVar="-1" Cut="0.0000000000000000e+00" cType="1" res="-6.2239398248493671e-03" rms="4.1954648494720459e-01" purity="3.7949365377426147e-01" nType="-99"/>
          </Node>
          <Node pos="r" depth="2" NCoef="0" IVar="-1" Cut="0.0000000000000000e+00" cType="1" res="2.1566739305853844e-02" rms="3.8918688893318176e-01" purity="5.4650127887725830e-01" nType="-99"/>
        </Node>
      </Node>
    </BinaryTree>
    <BinaryTree type="DecisionTree" boostWeight="1.0000000000000000e+00" itree="79">
      <Node pos="s" depth="0" NCoef="0" IVar="3" Cut="1.3021389843750000e+05" cType="1" res="2.5610849261283875e-03" rms="4.2264181375503540e-01" purity="5.0822639465332031e-01" nType="0">
        <Node pos="l" depth="1" NCoef="0" IVar="9" Cut="2.0000000000000000e+00" cType="1" res="-3.6856355145573616e-03" rms="4.1891357302665710e-01" purity="4.8649165034294128e-01" nType="0">
          <Node pos="l" depth="2" NCoef="0" IVar="-1" Cut="0.0000000000000000e+00" cType="1" res="-6.0334410518407822e-03" rms="4.1796025633811951e-01" purity="3.3482053875923157e-01" nType="-99"/>
          <Node pos="r" depth="2" NCoef="0" IVar="2" Cut="8.8213640451431274e-01" cType="1" res="4.1792169213294983e-03" rms="4.1864374279975891e-01" purity="5.1553893089294434e-01" nType="0">
            <Node pos="l" depth="3" NCoef="0" IVar="-1" Cut="0.0000000000000000e+00" cType="1" res="-2.2426662966609001e-02" rms="3.4038719534873962e-01" purity="2.1923334896564484e-01" nType="-99"/>
            <Node pos="r" depth="3" NCoef="0" IVar="3" Cut="5.5737597656250000e+04" cType="1" res="1.2289487756788731e-02" rms="4.3106657266616821e-01" purity="5.7029896974563599e-01" nType="0">
              <Node pos="l" depth="4" NCoef="0" IVar="-1" Cut="0.0000000000000000e+00" cType="1" res="-2.8362227603793144e-03" rms="4.2157101631164551e-01" purity="3.9685967564582825e-01" nType="-99"/>
              <Node pos="r" depth="4" NCoef="0" IVar="-1" Cut="0.0000000000000000e+00" cType="1" res="5.3561232052743435e-03" rms="4.3326300382614136e-01" purity="6.1554080247879028e-01" nType="-99"/>
            </Node>
          </Node>
        </Node>
        <Node pos="r" depth="1" NCoef="0" IVar="-1" Cut="0.0000000000000000e+00" cType="1" res="7.7662314288318157e-03" rms="4.3902343511581421e-01" purity="6.1396247148513794e-01" nType="-99"/>
      </Node>
    </BinaryTree>
    <BinaryTree type="DecisionTree" boostWeight="1.0000000000000000e+00" itree="80">
      <Node pos="s" depth="0" NCoef="0" IVar="5" Cut="3.1751141357421875e+02" cType="1" res="2.0375363237690181e-04" rms="4.2345181107521057e-01" purity="5.0623202323913574e-01" nType="0">
        <Node pos="l" depth="1" NCoef="0" IVar="5" Cut="1.5051661682128906e+02" cType="1" res="6.2849223613739014e-03" rms="4.2161688208580017e-01" purity="5.1337867975234985e-01" nType="0">
          <Node pos="l" depth="2" NCoef="0" IVar="-1" Cut="0.0000000000000000e+00" cType="1" res="-8.4722470492124557e-03" rms="4.0680563449859619e-01" purity="4.4600954651832581e-01" nType="-99"/>
          <Node pos="r" depth="2" NCoef="0" IVar="2" Cut="1.7176308631896973e+00" cType="1" res="1.3379444368183613e-02" rms="4.2357194423675537e-01" purity="5.2441459894180298e-01" nType="0">
            <Node pos="l" depth="3" NCoef="0" IVar="0" Cut="2.5269901562500000e+05" cType="1" res="3.7642199546098709e-02" rms="4.0444359183311462e-01" purity="4.4680130481719971e-01" nType="0">
              <Node pos="l" depth="4" NCoef="0" IVar="-1" Cut="0.0000000000000000e+00" cType="1" res="1.4786991290748119e-02" rms="4.4053000211715698e-01" purity="5.6654697656631470e-01" nType="-99"/>
              <Node pos="r" depth="4" NCoef="0" IVar="-1" Cut="0.0000000000000000e+00" cType="1" res="-1.2207512743771076e-02" rms="2.9709038138389587e-01" purity="1.7057719826698303e-01" nType="-99"/>
            </Node>
            <Node pos="r" depth="3" NCoef="0" IVar="4" Cut="5.2063902343750000e+04" cType="1" res="-5.7102893479168415e-03" rms="4.3708950281143188e-01" purity="5.8548003435134888e-01" nType="0">
              <Node pos="l" depth="4" NCoef="0" IVar="-1" Cut="0.0000000000000000e+00" cType="1" res="7.4873841367661953e-03" rms="4.5094767212867737e-01" purity="5.1636993885040283e-01" nType="-99"/>
              <Node pos="r" depth="4" NCoef="0" IVar="-1" Cut="0.0000000000000000e+00" cType="1" res="-3.0385423451662064e-03" rms="4.2699885368347168e-01" purity="6.2927770614624023e-01" nType="-99"/>
            </Node>
          </Node>
        </Node>
        <Node pos="r" depth="1" NCoef="0" IVar="-1" Cut="0.0000000000000000e+00" cType="1" res="-1.3966361992061138e-02" rms="4.3558198213577271e-01" purity="4.4364055991172791e-01" nType="-99"/>
      </Node>
    </BinaryTree>
    <BinaryTree type="DecisionTree" boostWeight="1.0000000000000000e+00" itree="81">
      <Node pos="s" depth="0" NCoef="0" IVar="6" Cut="6.2679010629653931e-01" cType="1" res="-1.4268295839428902e-02" rms="4.2073339223861694e-01" purity="4.8909494280815125e-01" nType="0">
        <Node pos="l" depth="1" NCoef="0" IVar="8" Cut="2.9484474658966064e+00" cType="1" res="-3.4096006304025650e-02" rms="4.3883591890335083e-01" purity="4.7091704607009888e-01" nType="0">
          <Node pos="l" depth="2" NCoef="0" IVar="8" Cut="2.7921206951141357e+00" cType="1" res="-3.0729079153388739e-03" rms="4.4766196608543396e-01" purity="4.7284504771232605e-01" nType="0">
            <Node pos="l" depth="3" NCoef="0" IVar="-1" Cut="0.0000000000000000e+00" cType="1" res="-8.6512630805373192e-03" rms="4.4089451432228088e-01" purity="4.3824797868728638e-01" nType="-99"/>
            <Node pos="r" depth="3" NCoef="0" IVar="-1" Cut="0.0000000000000000e+00" cType="1" res="5.7931398041546345e-03" rms="4.5236766338348389e-01" purity="5.0548708438873291e-01" nType="-99"/>
          </Node>
          <Node pos="r" depth="2" NCoef="0" IVar="6" Cut="5.6200700998306274e-01" cType="1" res="-6.1866477131843567e-02" rms="4.2888262867927551e-01" purity="4.6919116377830505e-01" nType="0">
            <Node pos="l" depth="3" NCoef="0" IVar="-1" Cut="0.0000000000000000e+00" cType="1" res="-2.6162575930356979e-02" rms="4.3754267692565918e-01" purity="3.6975628137588501e-01" nType="-99"/>
            <Node pos="r" depth="3" NCoef="0" IVar="-1" Cut="0.0000000000000000e+00" cType="1" res="-6.5636783838272095e-03" rms="4.1528180241584778e-01" purity="5.8024138212203979e-01" nType="-99"/>
          </Node>
        </Node>
        <Node pos="r" depth="1" NCoef="0" IVar="7" Cut="2.7829025268554688e+02" cType="1" res="9.7282254137098789e-04" rms="4.0561211109161377e-01" purity="5.0306785106658936e-01" nType="0">
          <Node pos="l" depth="2" NCoef="0" IVar="2" Cut="1.9292129278182983e+00" cType="1" res="-1.0828822851181030e-02" rms="4.1647189855575562e-01" purity="4.0717473626136780e-01" nType="0">
            <Node pos="l" depth="3" NCoef="0" IVar="7" Cut="1.6252999877929688e+02" cType="1" res="-3.2702311873435974e-02" rms="3.8797086477279663e-01" purity="2.8629830479621887e-01" nType="0">
              <Node pos="l" depth="4" NCoef="0" IVar="-1" Cut="0.0000000000000000e+00" cType="1" res="-1.1439381167292595e-02" rms="3.4953093528747559e-01" purity="1.7331464588642120e-01" nType="-99"/>
              <Node pos="r" depth="4" NCoef="0" IVar="-1" Cut="0.0000000000000000e+00" cType="1" res="-3.9393417537212372e-03" rms="4.2238035798072815e-01" purity="4.0017154812812805e-01" nType="-99"/>
            </Node>
            <Node pos="r" depth="3" NCoef="0" IVar="-1" Cut="0.0000000000000000e+00" cType="1" res="2.4562506005167961e-03" rms="4.4316032528877258e-01" purity="5.3352165222167969e-01" nType="-99"/>
          </Node>
          <Node pos="r" depth="2" NCoef="0" IVar="-1" Cut="0.0000000000000000e+00" cType="1" res="1.1436286382377148e-02" rms="3.7134534120559692e-01" purity="7.7297526597976685e-01" nType="-99"/>
        </Node>
      </Node>
    </BinaryTree>
    <BinaryTree type="DecisionTree" boostWeight="1.0000000000000000e+00" itree="82">
      <Node pos="s" depth="0" NCoef="0" IVar="4" Cut="5.8777449218750000e+04" cType="1" res="-5.0577102228999138e-03" rms="4.1982659697532654e-01" purity="4.9297198653221130e-01" nType="0">
        <Node pos="l" depth="1" NCoef="0" IVar="6" Cut="6.2701278924942017e-01" cType="1" res="0.0000000000000000e+00" rms="0.0000000000000000e+00" purity="3.9425271749496460e-01" nType="0">
          <Node pos="l" depth="2" NCoef="0" IVar="-1" Cut="0.0000000000000000e+00" cType="1" res="-1.0981396771967411e-02" rms="4.1717725992202759e-01" purity="3.4489849209785461e-01" nType="-99"/>
          <Node pos="r" depth="2" NCoef="0" IVar="2" Cut="1.6257069110870361e+00" cType="1" res="-2.7493392117321491e-03" rms="4.1402480006217957e-01" purity="4.1600441932678223e-01" nType="0">
            <Node pos="l" depth="3" NCoef="0" IVar="-1" Cut="0.0000000000000000e+00" cType="1" res="7.4107814580202103e-03" rms="3.7556716799736023e-01" purity="3.0980277061462402e-01" nType="-99"/>
            <Node pos="r" depth="3" NCoef="0" IVar="6" Cut="7.4980044364929199e-01" cType="1" res="0.0000000000000000e+00" rms="0.0000000000000000e+00" purity="4.9305754899978638e-01" nType="0">
              <Node pos="l" depth="4" NCoef="0" IVar="-1" Cut="0.0000000000000000e+00" cType="1" res="5.0250877393409610e-04" rms="4.4613000750541687e-01" purity="5.7498580217361450e-01" nType="-99"/>
              <Node pos="r" depth="4" NCoef="0" IVar="-1" Cut="0.0000000000000000e+00" cType="1" res="-2.5706514716148376e-03" rms="4.3088036775588989e-01" purity="4.0849599242210388e-01" nType="-99"/>
            </Node>
          </Node>
        </Node>
        <Node pos="r" depth="1" NCoef="0" IVar="1" Cut="1.4967796206474304e-01" cType="1" res="7.5819049961864948e-03" rms="4.2436200380325317e-01" purity="6.0532093048095703e-01" nType="0">
          <Node pos="l" depth="2" NCoef="0" IVar="6" Cut="5.9420418739318848e-01" cType="1" res="-9.5186159014701843e-03" rms="4.2274388670921326e-01" purity="5.8268314599990845e-01" nType="0">
            <Node pos="l" depth="3" NCoef="0" IVar="-1" Cut="0.0000000000000000e+00" cType="1" res="2.1605079527944326e-03" rms="4.4955334067344666e-01" purity="5.3590822219848633e-01" nType="-99"/>
            <Node pos="r" depth="3" NCoef="0" IVar="-1" Cut="0.0000000000000000e+00" cType="1" res="-5.2533922716975212e-03" rms="3.9367976784706116e-01" purity="6.2885344028472900e-01" nType="-99"/>
          </Node>
          <Node pos="r" depth="2" NCoef="0" IVar="2" Cut="1.8584773540496826e+00" cType="1" res="2.5599200278520584e-02" rms="4.2531701922416687e-01" purity="6.2917238473892212e-01" nType="0">
            <Node pos="l" depth="3" NCoef="0" IVar="-1" Cut="0.0000000000000000e+00" cType="1" res="5.3319735452532768e-03" rms="4.3736588954925537e-01" purity="5.5487507581710815e-01" nType="-99"/>
            <Node pos="r" depth="3" NCoef="0" IVar="-1" Cut="0.0000000000000000e+00" cType="1" res="7.2232857346534729e-03" rms="4.1452234983444214e-01" purity="6.9370663166046143e-01" nType="-99"/>
          </Node>
        </Node>
      </Node>
    </BinaryTree>
    <BinaryTree type="DecisionTree" boostWeight="1.0000000000000000e+00" itree="83">
      <Node pos="s" depth="0" NCoef="0" IVar="3" Cut="1.3624889062500000e+05" cType="1" res="-1.6577244969084859e-04" rms="4.2481237649917603e-01" purity="5.0719738006591797e-01" nType="0">
        <Node pos="l" depth="1" NCoef="0" IVar="0" Cut="2.9262384375000000e+05" cType="1" res="-5.2767274901270866e-03" rms="4.2136964201927185e-01" purity="4.9032953381538391e-01" nType="0">
          <Node pos="l" depth="2" NCoef="0" IVar="1" Cut="-2.2434306144714355e+00" cType="1" res="0.0000000000000000e+00" rms="0.0000000000000000e+00" purity="5.6784993410110474e-01" nType="0">
            <Node pos="l" depth="3" NCoef="0" IVar="-1" Cut="0.0000000000000000e+00" cType="1" res="9.7756125032901764e-03" rms="4.5284315943717957e-01" purity="6.1785179376602173e-01" nType="-99"/>
            <Node pos="r" depth="3" NCoef="0" IVar="8" Cut="2.8556087017059326e+00" cType="1" res="0.0000000000000000e+00" rms="0.0000000000000000e+00" purity="5.5357974767684937e-01" nType="0">
              <Node pos="l" depth="4" NCoef="0" IVar="-1" Cut="0.0000000000000000e+00" cType="1" res="-1.1949614621698856e-02" rms="4.6054875850677490e-01" purity="4.3605637550354004e-01" nType="-99"/>
              <Node pos="r" depth="4" NCoef="0" IVar="-1" Cut="0.0000000000000000e+00" cType="1" res="1.4001297531649470e-03" rms="4.3217286467552185e-01" purity="5.8276855945587158e-01" nType="-99"/>
            </Node>
          </Node>
          <Node pos="r" depth="2" NCoef="0" IVar="-1" Cut="0.0000000000000000e+00" cType="1" res="-2.3380555212497711e-02" rms="3.1101506948471069e-01" purity="1.4808849990367889e-01" nType="-99"/>
        </Node>
        <Node pos="r" depth="1" NCoef="0" IVar="-1" Cut="0.0000000000000000e+00" cType="1" res="7.0320912636816502e-03" rms="4.4329419732093811e-01" purity="6.0619360208511353e-01" nType="-99"/>
      </Node>
    </BinaryTree>
    <BinaryTree type="DecisionTree" boostWeight="1.0000000000000000e+00" itree="84">
      <Node pos="s" depth="0" NCoef="0" IVar="1" Cut="-2.2435891628265381e+00" cType="1" res="-7.2506363503634930e-03" rms="4.2191526293754578e-01" purity="4.9668487906455994e-01" nType="0">
        <Node pos="l" depth="1" NCoef="0" IVar="9" Cut="3.0000000000000000e+00" cType="1" res="0.0000000000000000e+00" rms="0.0000000000000000e+00" purity="5.5042886734008789e-01" nType="0">
          <Node pos="l" depth="2" NCoef="0" IVar="-1" Cut="0.0000000000000000e+00" cType="1" res="2.6064543053507805e-03" rms="4.4082316756248474e-01" purity="4.9007925391197205e-01" nType="-99"/>
          <Node pos="r" depth="2" NCoef="0" IVar="-1" Cut="0.0000000000000000e+00" cType="1" res="1.2395131401717663e-02" rms="4.0517735481262207e-01" purity="6.1164981126785278e-01" nType="-99"/>
        </Node>
        <Node pos="r" depth="1" NCoef="0" IVar="1" Cut="1.3463493585586548e+00" cType="1" res="-1.6293574124574661e-02" rms="4.2095795273780823e-01" purity="4.8130333423614502e-01" nType="0">
          <Node pos="l" depth="2" NCoef="0" IVar="2" Cut="1.1699877977371216e+00" cType="1" res="-3.0631903558969498e-02" rms="4.1475805640220642e-01" purity="4.3524691462516785e-01" nType="0">
            <Node pos="l" depth="3" NCoef="0" IVar="-1" Cut="0.0000000000000000e+00" cType="1" res="2.7246030513197184e-03" rms="3.7713280320167542e-01" purity="3.3810934424400330e-01" nType="-99"/>
            <Node pos="r" depth="3" NCoef="0" IVar="2" Cut="2.2054784297943115e+00" cType="1" res="0.0000000000000000e+00" rms="0.0000000000000000e+00" purity="4.7088903188705444e-01" nType="0">
              <Node pos="l" depth="4" NCoef="0" IVar="-1" Cut="0.0000000000000000e+00" cType="1" res="-7.1327248588204384e-03" rms="4.1302481293678284e-01" purity="4.0460214018821716e-01" nType="-99"/>
              <Node pos="r" depth="4" NCoef="0" IVar="-1" Cut="0.0000000000000000e+00" cType="1" res="-1.3934950111433864e-03" rms="4.3655920028686523e-01" purity="5.3627651929855347e-01" nType="-99"/>
            </Node>
          </Node>
          <Node pos="r" depth="2" NCoef="0" IVar="3" Cut="1.0037195312500000e+05" cType="1" res="5.8804376749321818e-04" rms="4.2752656340599060e-01" purity="5.3552913665771484e-01" nType="0">
            <Node pos="l" depth="3" NCoef="0" IVar="3" Cut="6.8768414062500000e+04" cType="1" res="-1.0917885228991508e-02" rms="4.1809916496276855e-01" purity="4.9096772074699402e-01" nType="0">
              <Node pos="l" depth="4" NCoef="0" IVar="-1" Cut="0.0000000000000000e+00" cType="1" res="6.3964412547647953e-03" rms="4.1123685240745544e-01" purity="4.4287642836570740e-01" nType="-99"/>
              <Node pos="r" depth="4" NCoef="0" IVar="-1" Cut="0.0000000000000000e+00" cType="1" res="-1.1641191318631172e-02" rms="4.2251768708229065e-01" purity="5.3507542610168457e-01" nType="-99"/>
            </Node>
            <Node pos="r" depth="3" NCoef="0" IVar="-1" Cut="0.0000000000000000e+00" cType="1" res="4.4671497307717800e-03" rms="4.4171541929244995e-01" purity="6.0760265588760376e-01" nType="-99"/>
          </Node>
        </Node>
      </Node>
    </BinaryTree>
    <BinaryTree type="DecisionTree" boostWeight="1.0000000000000000e+00" itree="85">
      <Node pos="s" depth="0" NCoef="0" IVar="7" Cut="4.0414990234375000e+02" cType="1" res="-1.1717637069523335e-02" rms="4.1925919055938721e-01" purity="4.8729091882705688e-01" nType="0">
        <Node pos="l" depth="1" NCoef="0" IVar="1" Cut="2.5424954891204834e+00" cType="1" res="-1.7892792820930481e-02" rms="4.2218345403671265e-01" purity="4.5440831780433655e-01" nType="0">
          <Node pos="l" depth="2" NCoef="0" IVar="7" Cut="2.7265835571289062e+02" cType="1" res="-2.5612289085984230e-02" rms="4.2070606350898743e-01" purity="4.4278198480606079e-01" nType="0">
            <Node pos="l" depth="3" NCoef="0" IVar="3" Cut="9.8044875000000000e+04" cType="1" res="-1.1552399955689907e-02" rms="4.1645100712776184e-01" purity="3.9757409691810608e-01" nType="0">
              <Node pos="l" depth="4" NCoef="0" IVar="-1" Cut="0.0000000000000000e+00" cType="1" res="-6.4891590736806393e-03" rms="4.0387478470802307e-01" purity="3.6545556783676147e-01" nType="-99"/>
              <Node pos="r" depth="4" NCoef="0" IVar="-1" Cut="0.0000000000000000e+00" cType="1" res="4.6295993961393833e-03" rms="4.5335736870765686e-01" purity="5.0132393836975098e-01" nType="-99"/>
            </Node>
            <Node pos="r" depth="3" NCoef="0" IVar="1" Cut="-7.0648562908172607e-01" cType="1" res="-5.7234246283769608e-02" rms="4.2843976616859436e-01" purity="5.4445856809616089e-01" nType="0">
              <Node pos="l" depth="4" NCoef="0" IVar="-1" Cut="0.0000000000000000e+00" cType="1" res="-3.3289084676653147e-03" rms="4.2544382810592651e-01" purity="5.6190878152847290e-01" nType="-99"/>
              <Node pos="r" depth="4" NCoef="0" IVar="-1" Cut="0.0000000000000000e+00" cType="1" res="-2.0119732245802879e-02" rms="4.3116390705108643e-01" purity="5.2673906087875366e-01" nType="-99"/>
            </Node>
          </Node>
          <Node pos="r" depth="2" NCoef="0" IVar="-1" Cut="0.0000000000000000e+00" cType="1" res="6.2584485858678818e-03" rms="4.2726677656173706e-01" purity="5.1020848751068115e-01" nType="-99"/>
        </Node>
        <Node pos="r" depth="1" NCoef="0" IVar="-1" Cut="0.0000000000000000e+00" cType="1" res="1.1480825021862984e-02" rms="3.9753514528274536e-01" purity="6.9983226060867310e-01" nType="-99"/>
      </Node>
    </BinaryTree>
    <BinaryTree type="DecisionTree" boostWeight="1.0000000000000000e+00" itree="86">
      <Node pos="s" depth="0" NCoef="0" IVar="3" Cut="1.3624889062500000e+05" cType="1" res="1.1854432523250580e-03" rms="4.1907700896263123e-01" purity="5.0393885374069214e-01" nType="0">
        <Node pos="l" depth="1" NCoef="0" IVar="0" Cut="2.9262384375000000e+05" cType="1" res="-6.3078645616769791e-03" rms="4.1479393839836121e-01" purity="4.8189753293991089e-01" nType="0">
          <Node pos="l" depth="2" NCoef="0" IVar="2" Cut="2.5127391815185547e+00" cType="1" res="7.3689171113073826e-03" rms="4.3795856833457947e-01" purity="5.6215286254882812e-01" nType="0">
            <Node pos="l" depth="3" NCoef="0" IVar="0" Cut="2.1852323437500000e+05" cType="1" res="-6.8585393019020557e-03" rms="4.3743270635604858e-01" purity="5.1692038774490356e-01" nType="0">
              <Node pos="l" depth="4" NCoef="0" IVar="-1" Cut="0.0000000000000000e+00" cType="1" res="8.0061523476615548e-04" rms="4.4323915243148804e-01" purity="5.5776220560073853e-01" nType="-99"/>
              <Node pos="r" depth="4" NCoef="0" IVar="-1" Cut="0.0000000000000000e+00" cType="1" res="-1.4697859063744545e-02" rms="4.1467875242233276e-01" purity="3.7476751208305359e-01" nType="-99"/>
            </Node>
            <Node pos="r" depth="3" NCoef="0" IVar="-1" Cut="0.0000000000000000e+00" cType="1" res="9.2117525637149811e-03" rms="4.3750560283660889e-01" purity="6.6053158044815063e-01" nType="-99"/>
          </Node>
          <Node pos="r" depth="2" NCoef="0" IVar="-1" Cut="0.0000000000000000e+00" cType="1" res="-6.8182465620338917e-03" rms="2.8630775213241577e-01" purity="1.3353094458580017e-01" nType="-99"/>
        </Node>
        <Node pos="r" depth="1" NCoef="0" IVar="-1" Cut="0.0000000000000000e+00" cType="1" res="9.5111317932605743e-03" rms="4.4060787558555603e-01" purity="6.3185077905654907e-01" nType="-99"/>
      </Node>
    </BinaryTree>
    <BinaryTree type="DecisionTree" boostWeight="1.0000000000000000e+00" itree="87">
      <Node pos="s" depth="0" NCoef="0" IVar="8" Cut="2.7937393188476562e+00" cType="1" res="-1.7303650965914130e-03" rms="4.1898015141487122e-01" purity="5.0057196617126465e-01" nType="0">
        <Node pos="l" depth="1" NCoef="0" IVar="-1" Cut="0.0000000000000000e+00" cType="1" res="8.8727558031678200e-03" rms="4.4209876656532288e-01" purity="5.0392329692840576e-01" nType="-99"/>
        <Node pos="r" depth="1" NCoef="0" IVar="6" Cut="5.1346540451049805e-01" cType="1" res="-7.3501113802194595e-03" rms="4.1472002863883972e-01" purity="5.0001114606857300e-01" nType="0">
          <Node pos="l" depth="2" NCoef="0" IVar="-1" Cut="0.0000000000000000e+00" cType="1" res="-1.5017372556030750e-02" rms="4.3050792813301086e-01" purity="2.9935979843139648e-01" nType="-99"/>
          <Node pos="r" depth="2" NCoef="0" IVar="9" Cut="2.0000000000000000e+00" cType="1" res="3.7434089463204145e-03" rms="4.1109085083007812e-01" purity="5.2911227941513062e-01" nType="0">
            <Node pos="l" depth="3" NCoef="0" IVar="-1" Cut="0.0000000000000000e+00" cType="1" res="-3.8469240535050631e-03" rms="4.1896086931228638e-01" purity="3.7070071697235107e-01" nType="-99"/>
            <Node pos="r" depth="3" NCoef="0" IVar="1" Cut="-2.5428304672241211e+00" cType="1" res="1.1478494852781296e-02" rms="4.0913468599319458e-01" purity="5.6190419197082520e-01" nType="0">
              <Node pos="l" depth="4" NCoef="0" IVar="-1" Cut="0.0000000000000000e+00" cType="1" res="-9.2490902170538902e-03" rms="4.1826918721199036e-01" purity="5.1169896125793457e-01" nType="-99"/>
              <Node pos="r" depth="4" NCoef="0" IVar="-1" Cut="0.0000000000000000e+00" cType="1" res="6.1115543358027935e-03" rms="4.0682211518287659e-01" purity="5.7191705703735352e-01" nType="-99"/>
            </Node>
          </Node>
        </Node>
      </Node>
    </BinaryTree>
    <BinaryTree type="DecisionTree" boostWeight="1.0000000000000000e+00" itree="88">
      <Node pos="s" depth="0" NCoef="0" IVar="5" Cut="1.9315438842773438e+02" cType="1" res="-1.4134382363408804e-03" rms="4.2140510678291321e-01" purity="5.0020945072174072e-01" nType="0">
        <Node pos="l" depth="1" NCoef="0" IVar="1" Cut="-2.2426805496215820e+00" cType="1" res="1.1008339002728462e-02" rms="4.1618800163269043e-01" purity="5.4390829801559448e-01" nType="0">
          <Node pos="l" depth="2" NCoef="0" IVar="-1" Cut="0.0000000000000000e+00" cType="1" res="1.0528609156608582e-02" rms="4.3700575828552246e-01" purity="5.7944053411483765e-01" nType="-99"/>
          <Node pos="r" depth="2" NCoef="0" IVar="0" Cut="2.5767493750000000e+05" cType="1" res="4.2304815724492073e-03" rms="4.1004049777984619e-01" purity="5.3417462110519409e-01" nType="0">
            <Node pos="l" depth="3" NCoef="0" IVar="1" Cut="5.7948440313339233e-01" cType="1" res="1.4956049621105194e-02" rms="4.2767676711082458e-01" purity="6.2369751930236816e-01" nType="0">
              <Node pos="l" depth="4" NCoef="0" IVar="-1" Cut="0.0000000000000000e+00" cType="1" res="-4.4643811997957528e-04" rms="4.3309617042541504e-01" purity="5.6867218017578125e-01" nType="-99"/>
              <Node pos="r" depth="4" NCoef="0" IVar="-1" Cut="0.0000000000000000e+00" cType="1" res="7.8961923718452454e-03" rms="4.2283034324645996e-01" purity="6.6772282123565674e-01" nType="-99"/>
            </Node>
            <Node pos="r" depth="3" NCoef="0" IVar="-1" Cut="0.0000000000000000e+00" cType="1" res="-1.1665923520922661e-02" rms="3.4599488973617554e-01" purity="2.5000980496406555e-01" nType="-99"/>
          </Node>
        </Node>
        <Node pos="r" depth="1" NCoef="0" IVar="2" Cut="1.1487251520156860e+00" cType="1" res="-1.8140241503715515e-02" rms="4.2776042222976685e-01" purity="4.4136580824851990e-01" nType="0">
          <Node pos="l" depth="2" NCoef="0" IVar="-1" Cut="0.0000000000000000e+00" cType="1" res="-1.3802043162286282e-02" rms="3.6697199940681458e-01" purity="2.3505121469497681e-01" nType="-99"/>
          <Node pos="r" depth="2" NCoef="0" IVar="3" Cut="8.8368601562500000e+04" cType="1" res="-4.0164971724152565e-03" rms="4.4945448637008667e-01" purity="5.2557587623596191e-01" nType="0">
            <Node pos="l" depth="3" NCoef="0" IVar="-1" Cut="0.0000000000000000e+00" cType="1" res="-6.1035053804516792e-03" rms="4.5460021495819092e-01" purity="4.4636318087577820e-01" nType="-99"/>
            <Node pos="r" depth="3" NCoef="0" IVar="-1" Cut="0.0000000000000000e+00" cType="1" res="3.8292312528938055e-03" rms="4.4427049160003662e-01" purity="5.9425318241119385e-01" nType="-99"/>
          </Node>
        </Node>
      </Node>
    </BinaryTree>
    <BinaryTree type="DecisionTree" boostWeight="1.0000000000000000e+00" itree="89">
      <Node pos="s" depth="0" NCoef="0" IVar="6" Cut="5.7015347480773926e-01" cType="1" res="2.5361374719068408e-04" rms="4.2227473855018616e-01" purity="5.0481140613555908e-01" nType="0">
        <Node pos="l" depth="1" NCoef="0" IVar="7" Cut="3.0967724609375000e+02" cType="1" res="-1.7724789679050446e-02" rms="4.5021742582321167e-01" purity="4.3234920501708984e-01" nType="0">
          <Node pos="l" depth="2" NCoef="0" IVar="-1" Cut="0.0000000000000000e+00" cType="1" res="-3.0471562058664858e-04" rms="4.4482430815696716e-01" purity="3.8918721675872803e-01" nType="-99"/>
          <Node pos="r" depth="2" NCoef="0" IVar="-1" Cut="0.0000000000000000e+00" cType="1" res="-1.2922479771077633e-02" rms="4.5653954148292542e-01" purity="4.9098214507102966e-01" nType="-99"/>
        </Node>
        <Node pos="r" depth="1" NCoef="0" IVar="0" Cut="2.7377434375000000e+05" cType="1" res="7.4552977457642555e-03" rms="4.1032758355140686e-01" purity="5.3383785486221313e-01" nType="0">
          <Node pos="l" depth="2" NCoef="0" IVar="8" Cut="3.0283789634704590e+00" cType="1" res="1.5931490808725357e-02" rms="4.2988190054893494e-01" purity="6.2214702367782593e-01" nType="0">
            <Node pos="l" depth="3" NCoef="0" IVar="1" Cut="-1.0472255945205688e+00" cType="1" res="-4.6145787928253412e-04" rms="4.4088843464851379e-01" purity="5.7444965839385986e-01" nType="0">
              <Node pos="l" depth="4" NCoef="0" IVar="-1" Cut="0.0000000000000000e+00" cType="1" res="5.1014409400522709e-03" rms="4.3739888072013855e-01" purity="6.0493922233581543e-01" nType="-99"/>
              <Node pos="r" depth="4" NCoef="0" IVar="-1" Cut="0.0000000000000000e+00" cType="1" res="-3.3985795453190804e-03" rms="4.4273835420608521e-01" purity="5.5394721031188965e-01" nType="-99"/>
            </Node>
            <Node pos="r" depth="3" NCoef="0" IVar="2" Cut="2.0197246074676514e+00" cType="1" res="3.4890025854110718e-02" rms="4.1598570346832275e-01" purity="6.7730933427810669e-01" nType="0">
              <Node pos="l" depth="4" NCoef="0" IVar="-1" Cut="0.0000000000000000e+00" cType="1" res="6.3621513545513153e-03" rms="4.1672894358634949e-01" purity="6.0262978076934814e-01" nType="-99"/>
              <Node pos="r" depth="4" NCoef="0" IVar="-1" Cut="0.0000000000000000e+00" cType="1" res="1.3402279466390610e-02" rms="4.1481831669807434e-01" purity="7.5274819135665894e-01" nType="-99"/>
            </Node>
          </Node>
          <Node pos="r" depth="2" NCoef="0" IVar="-1" Cut="0.0000000000000000e+00" cType="1" res="-8.4940772503614426e-03" rms="3.2724806666374207e-01" purity="2.1104547381401062e-01" nType="-99"/>
        </Node>
      </Node>
    </BinaryTree>
    <BinaryTree type="DecisionTree" boostWeight="1.0000000000000000e+00" itree="90">
      <Node pos="s" depth="0" NCoef="0" IVar="3" Cut="9.8226210937500000e+04" cType="1" res="0.0000000000000000e+00" rms="0.0000000000000000e+00" purity="4.9962288141250610e-01" nType="0">
        <Node pos="l" depth="1" NCoef="0" IVar="4" Cut="6.6403484375000000e+04" cType="1" res="-9.9528301507234573e-03" rms="4.1252261400222778e-01" purity="4.4189158082008362e-01" nType="0">
          <Node pos="l" depth="2" NCoef="0" IVar="3" Cut="4.6413769531250000e+04" cType="1" res="-1.8781466409564018e-02" rms="4.1182059049606323e-01" purity="3.9380964636802673e-01" nType="0">
            <Node pos="l" depth="3" NCoef="0" IVar="-1" Cut="0.0000000000000000e+00" cType="1" res="-1.3427633792161942e-02" rms="3.6686718463897705e-01" purity="2.3163090646266937e-01" nType="-99"/>
            <Node pos="r" depth="3" NCoef="0" IVar="3" Cut="7.3508484375000000e+04" cType="1" res="-1.1284169740974903e-02" rms="4.2187282443046570e-01" purity="4.3394970893859863e-01" nType="0">
              <Node pos="l" depth="4" NCoef="0" IVar="-1" Cut="0.0000000000000000e+00" cType="1" res="1.5063018072396517e-03" rms="4.2392730712890625e-01" purity="4.4053480029106140e-01" nType="-99"/>
              <Node pos="r" depth="4" NCoef="0" IVar="-1" Cut="0.0000000000000000e+00" cType="1" res="-1.0454001836478710e-02" rms="4.1577464342117310e-01" purity="4.2091172933578491e-01" nType="-99"/>
            </Node>
          </Node>
          <Node pos="r" depth="2" NCoef="0" IVar="-1" Cut="0.0000000000000000e+00" cType="1" res="7.8384922817349434e-03" rms="4.1339901089668274e-01" purity="6.4523017406463623e-01" nType="-99"/>
        </Node>
        <Node pos="r" depth="1" NCoef="0" IVar="8" Cut="2.9002099037170410e+00" cType="1" res="2.1788934245705605e-02" rms="4.2101240158081055e-01" purity="6.0669428110122681e-01" nType="0">
          <Node pos="l" depth="2" NCoef="0" IVar="-1" Cut="0.0000000000000000e+00" cType="1" res="1.3450893573462963e-02" rms="4.3774372339248657e-01" purity="6.1301219463348389e-01" nType="-99"/>
          <Node pos="r" depth="2" NCoef="0" IVar="3" Cut="1.3235806250000000e+05" cType="1" res="3.3270167186856270e-03" rms="4.1193893551826477e-01" purity="6.0385429859161377e-01" nType="0">
            <Node pos="l" depth="3" NCoef="0" IVar="-1" Cut="0.0000000000000000e+00" cType="1" res="-3.8194407243281603e-03" rms="4.0396896004676819e-01" purity="5.7457238435745239e-01" nType="-99"/>
            <Node pos="r" depth="3" NCoef="0" IVar="-1" Cut="0.0000000000000000e+00" cType="1" res="8.0388421192765236e-03" rms="4.2064681649208069e-01" purity="6.4107698202133179e-01" nType="-99"/>
          </Node>
        </Node>
      </Node>
    </BinaryTree>
    <BinaryTree type="DecisionTree" boostWeight="1.0000000000000000e+00" itree="91">
      <Node pos="s" depth="0" NCoef="0" IVar="9" Cut="2.0000000000000000e+00" cType="1" res="-7.6920688152313232e-03" rms="4.2059683799743652e-01" purity="4.9507555365562439e-01" nType="0">
        <Node pos="l" depth="1" NCoef="0" IVar="-1" Cut="0.0000000000000000e+00" cType="1" res="-7.9416465014219284e-03" rms="4.2439422011375427e-01" purity="3.3460509777069092e-01" nType="-99"/>
        <Node pos="r" depth="1" NCoef="0" IVar="3" Cut="1.2234453125000000e+05" cType="1" res="-6.4818747341632843e-04" rms="4.1957044601440430e-01" purity="5.1997447013854980e-01" nType="0">
          <Node pos="l" depth="2" NCoef="0" IVar="0" Cut="2.9262384375000000e+05" cType="1" res="-5.9183579869568348e-03" rms="4.1586658358573914e-01" purity="4.9105894565582275e-01" nType="0">
            <Node pos="l" depth="3" NCoef="0" IVar="1" Cut="7.4825870990753174e-01" cType="1" res="4.8953904770314693e-03" rms="4.3917235732078552e-01" purity="5.7828289270401001e-01" nType="0">
              <Node pos="l" depth="4" NCoef="0" IVar="-1" Cut="0.0000000000000000e+00" cType="1" res="5.6590568274259567e-03" rms="4.4338145852088928e-01" purity="5.8098626136779785e-01" nType="-99"/>
              <Node pos="r" depth="4" NCoef="0" IVar="-1" Cut="0.0000000000000000e+00" cType="1" res="-3.8681782316416502e-03" rms="4.3276211619377136e-01" purity="5.7473057508468628e-01" nType="-99"/>
            </Node>
            <Node pos="r" depth="3" NCoef="0" IVar="-1" Cut="0.0000000000000000e+00" cType="1" res="-2.3410364985466003e-02" rms="2.9904597997665405e-01" purity="1.3606062531471252e-01" nType="-99"/>
          </Node>
          <Node pos="r" depth="2" NCoef="0" IVar="-1" Cut="0.0000000000000000e+00" cType="1" res="5.5072619579732418e-03" rms="4.3265837430953979e-01" purity="6.2886136770248413e-01" nType="-99"/>
        </Node>
      </Node>
    </BinaryTree>
    <BinaryTree type="DecisionTree" boostWeight="1.0000000000000000e+00" itree="92">
      <Node pos="s" depth="0" NCoef="0" IVar="4" Cut="8.7062718750000000e+04" cType="1" res="-1.3618150725960732e-02" rms="4.2198538780212402e-01" purity="4.8484146595001221e-01" nType="0">
        <Node pos="l" depth="1" NCoef="0" IVar="6" Cut="7.6795226335525513e-01" cType="1" res="-1.8169339746236801e-02" rms="4.1875043511390686e-01" purity="4.5263949036598206e-01" nType="0">
          <Node pos="l" depth="2" NCoef="0" IVar="7" Cut="2.7338647460937500e+02" cType="1" res="-2.5277942419052124e-02" rms="4.2314517498016357e-01" purity="4.7186309099197388e-01" nType="0">
            <Node pos="l" depth="3" NCoef="0" IVar="6" Cut="6.2767732143402100e-01" cType="1" res="-1.5590729191899300e-02" rms="4.2284139990806580e-01" purity="4.2012336850166321e-01" nType="0">
              <Node pos="l" depth="4" NCoef="0" IVar="-1" Cut="0.0000000000000000e+00" cType="1" res="6.9539662217721343e-04" rms="4.2374727129936218e-01" purity="3.9837041497230530e-01" nType="-99"/>
              <Node pos="r" depth="4" NCoef="0" IVar="-1" Cut="0.0000000000000000e+00" cType="1" res="-5.3448234684765339e-03" rms="4.2161649465560913e-01" purity="4.3621483445167542e-01" nType="-99"/>
            </Node>
            <Node pos="r" depth="3" NCoef="0" IVar="1" Cut="4.4935292005538940e-01" cType="1" res="0.0000000000000000e+00" rms="0.0000000000000000e+00" purity="5.5210119485855103e-01" nType="0">
              <Node pos="l" depth="4" NCoef="0" IVar="-1" Cut="0.0000000000000000e+00" cType="1" res="-6.3599711284041405e-03" rms="4.1790205240249634e-01" purity="5.1866650581359863e-01" nType="-99"/>
              <Node pos="r" depth="4" NCoef="0" IVar="-1" Cut="0.0000000000000000e+00" cType="1" res="-1.5018478734418750e-03" rms="4.2665445804595947e-01" purity="5.9143096208572388e-01" nType="-99"/>
            </Node>
          </Node>
          <Node pos="r" depth="2" NCoef="0" IVar="-1" Cut="0.0000000000000000e+00" cType="1" res="1.7760319169610739e-03" rms="4.0161564946174622e-01" purity="3.8390052318572998e-01" nType="-99"/>
        </Node>
        <Node pos="r" depth="1" NCoef="0" IVar="-1" Cut="0.0000000000000000e+00" cType="1" res="2.3571443744003773e-03" rms="4.3654534220695496e-01" purity="6.3969522714614868e-01" nType="-99"/>
      </Node>
    </BinaryTree>
    <BinaryTree type="DecisionTree" boostWeight="1.0000000000000000e+00" itree="93">
      <Node pos="s" depth="0" NCoef="0" IVar="2" Cut="3.0048375129699707e+00" cType="1" res="-1.4864397235214710e-02" rms="4.2106768488883972e-01" purity="4.9196508526802063e-01" nType="0">
        <Node pos="l" depth="1" NCoef="0" IVar="6" Cut="5.9763538837432861e-01" cType="1" res="-9.7456928342580795e-03" rms="4.1966807842254639e-01" purity="4.9349969625473022e-01" nType="0">
          <Node pos="l" depth="2" NCoef="0" IVar="0" Cut="2.1199770312500000e+05" cType="1" res="-2.7202339842915535e-02" rms="4.3740391731262207e-01" purity="4.5696309208869934e-01" nType="0">
            <Node pos="l" depth="3" NCoef="0" IVar="-1" Cut="0.0000000000000000e+00" cType="1" res="-1.1216725222766399e-02" rms="4.5180320739746094e-01" purity="5.0102728605270386e-01" nType="-99"/>
            <Node pos="r" depth="3" NCoef="0" IVar="-1" Cut="0.0000000000000000e+00" cType="1" res="-1.3455745065584779e-03" rms="4.1156232357025146e-01" purity="3.8429057598114014e-01" nType="-99"/>
          </Node>
          <Node pos="r" depth="2" NCoef="0" IVar="7" Cut="3.1141336059570312e+02" cType="1" res="-1.1160688882227987e-04" rms="4.0923237800598145e-01" purity="5.1366370916366577e-01" nType="0">
            <Node pos="l" depth="3" NCoef="0" IVar="5" Cut="1.8549427795410156e+02" cType="1" res="-1.0311370715498924e-02" rms="4.2019388079643250e-01" purity="4.3922132253646851e-01" nType="0">
              <Node pos="l" depth="4" NCoef="0" IVar="-1" Cut="0.0000000000000000e+00" cType="1" res="2.4614906869828701e-03" rms="4.1604980826377869e-01" purity="4.7216287255287170e-01" nType="-99"/>
              <Node pos="r" depth="4" NCoef="0" IVar="-1" Cut="0.0000000000000000e+00" cType="1" res="-9.4448197633028030e-03" rms="4.2397299408912659e-01" purity="4.0230002999305725e-01" nType="-99"/>
            </Node>
            <Node pos="r" depth="3" NCoef="0" IVar="-1" Cut="0.0000000000000000e+00" cType="1" res="1.2845872901380062e-02" rms="3.6721408367156982e-01" purity="7.6794487237930298e-01" nType="-99"/>
          </Node>
        </Node>
        <Node pos="r" depth="1" NCoef="0" IVar="-1" Cut="0.0000000000000000e+00" cType="1" res="-1.4068556949496269e-02" rms="4.2873188853263855e-01" purity="4.8172000050544739e-01" nType="-99"/>
      </Node>
    </BinaryTree>
    <BinaryTree type="DecisionTree" boostWeight="1.0000000000000000e+00" itree="94">
      <Node pos="s" depth="0" NCoef="0" IVar="4" Cut="3.7802410156250000e+04" cType="1" res="-9.7361142979934812e-04" rms="4.1637191176414490e-01" purity="5.0012797117233276e-01" nType="0">
        <Node pos="l" depth="1" NCoef="0" IVar="-1" Cut="0.0000000000000000e+00" cType="1" res="-1.4739342965185642e-02" rms="3.8286331295967102e-01" purity="2.8533104062080383e-01" nType="-99"/>
        <Node pos="r" depth="1" NCoef="0" IVar="2" Cut="1.1422513723373413e+00" cType="1" res="6.5535521134734154e-03" rms="4.2252066731452942e-01" purity="5.4416924715042114e-01" nType="0">
          <Node pos="l" depth="2" NCoef="0" IVar="6" Cut="6.2398129701614380e-01" cType="1" res="2.6151699945330620e-02" rms="4.0846467018127441e-01" purity="4.1378703713417053e-01" nType="0">
            <Node pos="l" depth="3" NCoef="0" IVar="-1" Cut="0.0000000000000000e+00" cType="1" res="5.1234173588454723e-03" rms="4.2589655518531799e-01" purity="3.9825934171676636e-01" nType="-99"/>
            <Node pos="r" depth="3" NCoef="0" IVar="-1" Cut="0.0000000000000000e+00" cType="1" res="1.3587733730673790e-02" rms="3.8830229640007019e-01" purity="4.3061539530754089e-01" nType="-99"/>
          </Node>
          <Node pos="r" depth="2" NCoef="0" IVar="2" Cut="2.0041079521179199e+00" cType="1" res="-6.0299364849925041e-04" rms="4.2731425166130066e-01" purity="5.9178018569946289e-01" nType="0">
            <Node pos="l" depth="3" NCoef="0" IVar="2" Cut="1.5526380538940430e+00" cType="1" res="0.0000000000000000e+00" rms="0.0000000000000000e+00" purity="5.3396421670913696e-01" nType="0">
              <Node pos="l" depth="4" NCoef="0" IVar="-1" Cut="0.0000000000000000e+00" cType="1" res="-1.0013436898589134e-02" rms="4.2624676227569580e-01" purity="5.1896160840988159e-01" nType="-99"/>
              <Node pos="r" depth="4" NCoef="0" IVar="-1" Cut="0.0000000000000000e+00" cType="1" res="-7.7426694333553314e-03" rms="4.3450567126274109e-01" purity="5.4708808660507202e-01" nType="-99"/>
            </Node>
            <Node pos="r" depth="3" NCoef="0" IVar="1" Cut="-1.9446487426757812e+00" cType="1" res="1.9424749538302422e-02" rms="4.2403715848922729e-01" purity="6.2619256973266602e-01" nType="0">
              <Node pos="l" depth="4" NCoef="0" IVar="-1" Cut="0.0000000000000000e+00" cType="1" res="-3.5131033509969711e-03" rms="4.2615959048271179e-01" purity="6.0936033725738525e-01" nType="-99"/>
              <Node pos="r" depth="4" NCoef="0" IVar="-1" Cut="0.0000000000000000e+00" cType="1" res="7.9587306827306747e-03" rms="4.2268618941307068e-01" purity="6.3249582052230835e-01" nType="-99"/>
            </Node>
          </Node>
        </Node>
      </Node>
    </BinaryTree>
    <BinaryTree type="DecisionTree" boostWeight="1.0000000000000000e+00" itree="95">
      <Node pos="s" depth="0" NCoef="0" IVar="1" Cut="1.3465344905853271e+00" cType="1" res="-6.0702036134898663e-03" rms="4.2022264003753662e-01" purity="4.9320355057716370e-01" nType="0">
        <Node pos="l" depth="1" NCoef="0" IVar="6" Cut="7.1146732568740845e-01" cType="1" res="-2.2328581660985947e-02" rms="4.1262051463127136e-01" purity="4.5650342106819153e-01" nType="0">
          <Node pos="l" depth="2" NCoef="0" IVar="1" Cut="-5.7681709527969360e-01" cType="1" res="-1.0575127787888050e-02" rms="4.2173966765403748e-01" purity="5.0717109441757202e-01" nType="0">
            <Node pos="l" depth="3" NCoef="0" IVar="7" Cut="2.1725566101074219e+02" cType="1" res="4.7678043483756483e-04" rms="4.2406576871871948e-01" purity="5.2328103780746460e-01" nType="0">
              <Node pos="l" depth="4" NCoef="0" IVar="-1" Cut="0.0000000000000000e+00" cType="1" res="5.4330835118889809e-03" rms="4.1170430183410645e-01" purity="4.1302073001861572e-01" nType="-99"/>
              <Node pos="r" depth="4" NCoef="0" IVar="-1" Cut="0.0000000000000000e+00" cType="1" res="-4.8968372866511345e-03" rms="4.2961290478706360e-01" purity="5.8147042989730835e-01" nType="-99"/>
            </Node>
            <Node pos="r" depth="3" NCoef="0" IVar="-1" Cut="0.0000000000000000e+00" cType="1" res="-1.2813211418688297e-02" rms="4.1393986344337463e-01" purity="4.6375718712806702e-01" nType="-99"/>
          </Node>
          <Node pos="r" depth="2" NCoef="0" IVar="6" Cut="7.9233640432357788e-01" cType="1" res="-4.5288618654012680e-02" rms="3.9318618178367615e-01" purity="3.5752549767494202e-01" nType="0">
            <Node pos="l" depth="3" NCoef="0" IVar="-1" Cut="0.0000000000000000e+00" cType="1" res="-5.0577512010931969e-03" rms="4.0711191296577454e-01" purity="3.9953091740608215e-01" nType="-99"/>
            <Node pos="r" depth="3" NCoef="0" IVar="-1" Cut="0.0000000000000000e+00" cType="1" res="-3.8361207116395235e-03" rms="3.7649109959602356e-01" purity="3.1354928016662598e-01" nType="-99"/>
          </Node>
        </Node>
        <Node pos="r" depth="1" NCoef="0" IVar="4" Cut="6.3304441406250000e+04" cType="1" res="2.2145951166749001e-02" rms="4.3164822459220886e-01" purity="5.5689603090286255e-01" nType="0">
          <Node pos="l" depth="2" NCoef="0" IVar="-1" Cut="0.0000000000000000e+00" cType="1" res="4.1562621481716633e-04" rms="4.4315895438194275e-01" purity="4.5052760839462280e-01" nType="-99"/>
          <Node pos="r" depth="2" NCoef="0" IVar="-1" Cut="0.0000000000000000e+00" cType="1" res="1.1137689463794231e-02" rms="4.1639727354049683e-01" purity="6.8183392286300659e-01" nType="-99"/>
        </Node>
      </Node>
    </BinaryTree>
    <BinaryTree type="DecisionTree" boostWeight="1.0000000000000000e+00" itree="96">
      <Node pos="s" depth="0" NCoef="0" IVar="3" Cut="1.3624889062500000e+05" cType="1" res="-5.3519899956882000e-03" rms="4.1513487696647644e-01" purity="4.9442151188850403e-01" nType="0">
        <Node pos="l" depth="1" NCoef="0" IVar="0" Cut="2.7289275000000000e+05" cType="1" res="-1.5376106835901737e-02" rms="4.1189494729042053e-01" purity="4.6783757209777832e-01" nType="0">
          <Node pos="l" depth="2" NCoef="0" IVar="0" Cut="1.3455996875000000e+05" cType="1" res="-2.0330850966274738e-03" rms="4.3844449520111084e-01" purity="5.6273585557937622e-01" nType="0">
            <Node pos="l" depth="3" NCoef="0" IVar="-1" Cut="0.0000000000000000e+00" cType="1" res="-1.3925562612712383e-02" rms="4.4703164696693420e-01" purity="4.7685450315475464e-01" nType="-99"/>
            <Node pos="r" depth="3" NCoef="0" IVar="0" Cut="2.0041707812500000e+05" cType="1" res="9.8703773692250252e-03" rms="4.3577969074249268e-01" purity="5.7899439334869385e-01" nType="0">
              <Node pos="l" depth="4" NCoef="0" IVar="-1" Cut="0.0000000000000000e+00" cType="1" res="7.2249998338520527e-03" rms="4.3871724605560303e-01" purity="6.2073558568954468e-01" nType="-99"/>
              <Node pos="r" depth="4" NCoef="0" IVar="-1" Cut="0.0000000000000000e+00" cType="1" res="-5.3775585256516933e-03" rms="4.2884770035743713e-01" purity="5.0331526994705200e-01" nType="-99"/>
            </Node>
          </Node>
          <Node pos="r" depth="2" NCoef="0" IVar="-1" Cut="0.0000000000000000e+00" cType="1" res="-4.5494302175939083e-03" rms="2.9894042015075684e-01" purity="1.4174003899097443e-01" nType="-99"/>
        </Node>
        <Node pos="r" depth="1" NCoef="0" IVar="-1" Cut="0.0000000000000000e+00" cType="1" res="1.2602087110280991e-02" rms="4.2927417159080505e-01" purity="6.5552997589111328e-01" nType="-99"/>
      </Node>
    </BinaryTree>
    <BinaryTree type="DecisionTree" boostWeight="1.0000000000000000e+00" itree="97">
      <Node pos="s" depth="0" NCoef="0" IVar="6" Cut="5.6984102725982666e-01" cType="1" res="-7.2419731877744198e-03" rms="4.1814461350440979e-01" purity="4.9563133716583252e-01" nType="0">
        <Node pos="l" depth="1" NCoef="0" IVar="8" Cut="2.9423677921295166e+00" cType="1" res="-2.8990667313337326e-02" rms="4.4021841883659363e-01" purity="4.2601731419563293e-01" nType="0">
          <Node pos="l" depth="2" NCoef="0" IVar="-1" Cut="0.0000000000000000e+00" cType="1" res="-2.6350973639637232e-03" rms="4.4280278682708740e-01" purity="4.2999663949012756e-01" nType="-99"/>
          <Node pos="r" depth="2" NCoef="0" IVar="-1" Cut="0.0000000000000000e+00" cType="1" res="-1.3127847574651241e-02" rms="4.3623709678649902e-01" purity="4.2140251398086548e-01" nType="-99"/>
        </Node>
        <Node pos="r" depth="1" NCoef="0" IVar="7" Cut="3.4816644287109375e+02" cType="1" res="9.8670483566820621e-04" rms="4.0918144583702087e-01" purity="5.2197003364562988e-01" nType="0">
          <Node pos="l" depth="2" NCoef="0" IVar="6" Cut="7.3159039020538330e-01" cType="1" res="-7.1395304985344410e-03" rms="4.2029911279678345e-01" purity="4.6186020970344543e-01" nType="0">
            <Node pos="l" depth="3" NCoef="0" IVar="4" Cut="5.8870679687500000e+04" cType="1" res="5.2800811827182770e-03" rms="4.2980113625526428e-01" purity="5.2826446294784546e-01" nType="0">
              <Node pos="l" depth="4" NCoef="0" IVar="-1" Cut="0.0000000000000000e+00" cType="1" res="6.9954390637576580e-03" rms="4.2301651835441589e-01" purity="4.7347187995910645e-01" nType="-99"/>
              <Node pos="r" depth="4" NCoef="0" IVar="-1" Cut="0.0000000000000000e+00" cType="1" res="-3.4681463148444891e-03" rms="4.3701723217964172e-01" purity="5.9436011314392090e-01" nType="-99"/>
            </Node>
            <Node pos="r" depth="3" NCoef="0" IVar="4" Cut="4.2980195312500000e+04" cType="1" res="-2.6293586939573288e-02" rms="4.0446114540100098e-01" purity="3.5944885015487671e-01" nType="0">
              <Node pos="l" depth="4" NCoef="0" IVar="-1" Cut="0.0000000000000000e+00" cType="1" res="1.8301549062016420e-05" rms="3.8987013697624207e-01" purity="3.0447089672088623e-01" nType="-99"/>
              <Node pos="r" depth="4" NCoef="0" IVar="-1" Cut="0.0000000000000000e+00" cType="1" res="-4.2096804827451706e-03" rms="4.1627448797225952e-01" purity="4.1152092814445496e-01" nType="-99"/>
            </Node>
          </Node>
          <Node pos="r" depth="2" NCoef="0" IVar="-1" Cut="0.0000000000000000e+00" cType="1" res="1.1649427004158497e-02" rms="3.5033851861953735e-01" purity="8.0194020271301270e-01" nType="-99"/>
        </Node>
      </Node>
    </BinaryTree>
    <BinaryTree type="DecisionTree" boostWeight="1.0000000000000000e+00" itree="98">
      <Node pos="s" depth="0" NCoef="0" IVar="1" Cut="2.5432362556457520e+00" cType="1" res="-1.6806492349132895e-03" rms="4.2089292407035828e-01" purity="5.0236040353775024e-01" nType="0">
        <Node pos="l" depth="1" NCoef="0" IVar="8" Cut="2.9881455898284912e+00" cType="1" res="-8.4868511185050011e-03" rms="4.2123463749885559e-01" purity="4.9183729290962219e-01" nType="0">
          <Node pos="l" depth="2" NCoef="0" IVar="2" Cut="1.2458434104919434e+00" cType="1" res="-2.8830002993345261e-02" rms="4.3691545724868774e-01" purity="4.4557636976242065e-01" nType="0">
            <Node pos="l" depth="3" NCoef="0" IVar="-1" Cut="0.0000000000000000e+00" cType="1" res="-2.0547423046082258e-03" rms="4.1827934980392456e-01" purity="3.3757603168487549e-01" nType="-99"/>
            <Node pos="r" depth="3" NCoef="0" IVar="7" Cut="2.5187736511230469e+02" cType="1" res="0.0000000000000000e+00" rms="0.0000000000000000e+00" purity="4.9445599317550659e-01" nType="0">
              <Node pos="l" depth="4" NCoef="0" IVar="-1" Cut="0.0000000000000000e+00" cType="1" res="-1.0125456377863884e-02" rms="4.4085377454757690e-01" purity="3.9677271246910095e-01" nType="-99"/>
              <Node pos="r" depth="4" NCoef="0" IVar="-1" Cut="0.0000000000000000e+00" cType="1" res="-8.0910231918096542e-03" rms="4.4773632287979126e-01" purity="5.8200013637542725e-01" nType="-99"/>
            </Node>
          </Node>
          <Node pos="r" depth="2" NCoef="0" IVar="9" Cut="3.0000000000000000e+00" cType="1" res="9.8757045343518257e-03" rms="4.0563270449638367e-01" purity="5.3349995613098145e-01" nType="0">
            <Node pos="l" depth="3" NCoef="0" IVar="-1" Cut="0.0000000000000000e+00" cType="1" res="-3.1319060362875462e-03" rms="4.0938520431518555e-01" purity="4.0570884943008423e-01" nType="-99"/>
            <Node pos="r" depth="3" NCoef="0" IVar="6" Cut="6.2369853258132935e-01" cType="1" res="2.8277352452278137e-02" rms="4.0168091654777527e-01" purity="6.4142191410064697e-01" nType="0">
              <Node pos="l" depth="4" NCoef="0" IVar="-1" Cut="0.0000000000000000e+00" cType="1" res="1.0337264277040958e-02" rms="4.2634034156799316e-01" purity="6.2621980905532837e-01" nType="-99"/>
              <Node pos="r" depth="4" NCoef="0" IVar="-1" Cut="0.0000000000000000e+00" cType="1" res="6.7799892276525497e-03" rms="3.7685561180114746e-01" purity="6.5559804439544678e-01" nType="-99"/>
            </Node>
          </Node>
        </Node>
        <Node pos="r" depth="1" NCoef="0" IVar="-1" Cut="0.0000000000000000e+00" cType="1" res="8.8865840807557106e-03" rms="4.1756519675254822e-01" purity="5.5446779727935791e-01" nType="-99"/>
      </Node>
    </BinaryTree>
    <BinaryTree type="DecisionTree" boostWeight="1.0000000000000000e+00" itree="99">
      <Node pos="s" depth="0" NCoef="0" IVar="0" Cut="3.4396384375000000e+05" cType="1" res="-8.1503642722964287e-03" rms="4.1772624850273132e-01" purity="4.9188458919525146e-01" nType="0">
        <Node pos="l" depth="1" NCoef="0" IVar="0" Cut="1.4132270312500000e+05" cType="1" res="-3.9651570841670036e-04" rms="4.3326058983802795e-01" purity="5.4945141077041626e-01" nType="0">
          <Node pos="l" depth="2" NCoef="0" IVar="-1" Cut="0.0000000000000000e+00" cType="1" res="-1.4041123911738396e-02" rms="4.5413151383399963e-01" purity="4.9010711908340454e-01" nType="-99"/>
          <Node pos="r" depth="2" NCoef="0" IVar="8" Cut="2.9881377220153809e+00" cType="1" res="1.3760865665972233e-02" rms="4.2688927054405212e-01" purity="5.6369304656982422e-01" nType="0">
            <Node pos="l" depth="3" NCoef="0" IVar="6" Cut="5.6343811750411987e-01" cType="1" res="-6.3060349784791470e-03" rms="4.4145309925079346e-01" purity="5.1535117626190186e-01" nType="0">
              <Node pos="l" depth="4" NCoef="0" IVar="-1" Cut="0.0000000000000000e+00" cType="1" res="8.9834555983543396e-03" rms="4.6317085623741150e-01" purity="4.9675416946411133e-01" nType="-99"/>
              <Node pos="r" depth="4" NCoef="0" IVar="-1" Cut="0.0000000000000000e+00" cType="1" res="-7.2223930619657040e-03" rms="4.2934861779212952e-01" purity="5.2442884445190430e-01" nType="-99"/>
            </Node>
            <Node pos="r" depth="3" NCoef="0" IVar="3" Cut="7.3637703125000000e+04" cType="1" res="0.0000000000000000e+00" rms="0.0000000000000000e+00" purity="6.0828280448913574e-01" nType="0">
              <Node pos="l" depth="4" NCoef="0" IVar="-1" Cut="0.0000000000000000e+00" cType="1" res="1.7322085797786713e-02" rms="4.1040608286857605e-01" purity="5.1864737272262573e-01" nType="-99"/>
              <Node pos="r" depth="4" NCoef="0" IVar="-1" Cut="0.0000000000000000e+00" cType="1" res="6.4031532965600491e-03" rms="4.1285726428031921e-01" purity="6.6832613945007324e-01" nType="-99"/>
            </Node>
          </Node>
        </Node>
        <Node pos="r" depth="1" NCoef="0" IVar="-1" Cut="0.0000000000000000e+00" cType="1" res="-2.9766622465103865e-03" rms="2.9506960511207581e-01" purity="1.2355235219001770e-01" nType="-99"/>
      </Node>
    </BinaryTree>
    <BinaryTree type="DecisionTree" boostWeight="1.0000000000000000e+00" itree="100">
      <Node pos="s" depth="0" NCoef="0" IVar="1" Cut="-2.2434070110321045e+00" cType="1" res="1.5460707945749164e-03" rms="4.2062723636627197e-01" purity="5.0968879461288452e-01" nType="0">
        <Node pos="l" depth="1" NCoef="0" IVar="6" Cut="6.3348376750946045e-01" cType="1" res="0.0000000000000000e+00" rms="0.0000000000000000e+00" purity="5.4243695735931396e-01" nType="0">
          <Node pos="l" depth="2" NCoef="0" IVar="-1" Cut="0.0000000000000000e+00" cType="1" res="9.8797008395195007e-03" rms="4.2744544148445129e-01" purity="5.2756059169769287e-01" nType="-99"/>
          <Node pos="r" depth="2" NCoef="0" IVar="-1" Cut="0.0000000000000000e+00" cType="1" res="6.7788327578455210e-04" rms="4.2562529444694519e-01" purity="5.5821073055267334e-01" nType="-99"/>
        </Node>
        <Node pos="r" depth="1" NCoef="0" IVar="1" Cut="-9.6088778972625732e-01" cType="1" res="-4.8468150198459625e-03" rms="4.1847655177116394e-01" purity="4.9987876415252686e-01" nType="0">
          <Node pos="l" depth="2" NCoef="0" IVar="-1" Cut="0.0000000000000000e+00" cType="1" res="-3.6265936214476824e-03" rms="4.1247123479843140e-01" purity="4.5389106869697571e-01" nType="-99"/>
          <Node pos="r" depth="2" NCoef="0" IVar="8" Cut="3.0904166698455811e+00" cType="1" res="6.5310811623930931e-03" rms="4.1975656151771545e-01" purity="5.1466929912567139e-01" nType="0">
            <Node pos="l" depth="3" NCoef="0" IVar="2" Cut="2.4378285408020020e+00" cType="1" res="-2.4039354175329208e-03" rms="4.2515978217124939e-01" purity="4.9260345101356506e-01" nType="0">
              <Node pos="l" depth="4" NCoef="0" IVar="-1" Cut="0.0000000000000000e+00" cType="1" res="-5.2438420243561268e-03" rms="4.1852769255638123e-01" purity="4.3913650512695312e-01" nType="-99"/>
              <Node pos="r" depth="4" NCoef="0" IVar="-1" Cut="0.0000000000000000e+00" cType="1" res="7.0500578731298447e-03" rms="4.3665447831153870e-01" purity="5.9825330972671509e-01" nType="-99"/>
            </Node>
            <Node pos="r" depth="3" NCoef="0" IVar="-1" Cut="0.0000000000000000e+00" cType="1" res="1.2457140721380711e-02" rms="3.9711558818817139e-01" purity="5.9721833467483521e-01" nType="-99"/>
          </Node>
        </Node>
      </Node>
    </BinaryTree>
    <BinaryTree type="DecisionTree" boostWeight="1.0000000000000000e+00" itree="101">
      <Node pos="s" depth="0" NCoef="0" IVar="8" Cut="2.9493935108184814e+00" cType="1" res="0.0000000000000000e+00" rms="0.0000000000000000e+00" purity="5.0641822814941406e-01" nType="0">
        <Node pos="l" depth="1" NCoef="0" IVar="1" Cut="-1.3463621139526367e+00" cType="1" res="2.2769868373870850e-02" rms="4.3433874845504761e-01" purity="5.0584024190902710e-01" nType="0">
          <Node pos="l" depth="2" NCoef="0" IVar="-1" Cut="0.0000000000000000e+00" cType="1" res="1.0861631482839584e-02" rms="4.1762629151344299e-01" purity="5.5632698535919189e-01" nType="-99"/>
          <Node pos="r" depth="2" NCoef="0" IVar="1" Cut="2.0734927654266357e+00" cType="1" res="5.0383126363158226e-03" rms="4.4395640492439270e-01" purity="4.7305676341056824e-01" nType="0">
            <Node pos="l" depth="3" NCoef="0" IVar="-1" Cut="0.0000000000000000e+00" cType="1" res="-7.9993065446615219e-03" rms="4.4524121284484863e-01" purity="4.0408495068550110e-01" nType="-99"/>
            <Node pos="r" depth="3" NCoef="0" IVar="-1" Cut="0.0000000000000000e+00" cType="1" res="1.4406237751245499e-02" rms="4.3894574046134949e-01" purity="5.5934345722198486e-01" nType="-99"/>
          </Node>
        </Node>
        <Node pos="r" depth="1" NCoef="0" IVar="9" Cut="4.0000000000000000e+00" cType="1" res="-1.9098298624157906e-02" rms="4.0700396895408630e-01" purity="5.0676965713500977e-01" nType="0">
          <Node pos="l" depth="2" NCoef="0" IVar="7" Cut="2.8112222290039062e+02" cType="1" res="-2.9806831851601601e-02" rms="4.1154965758323669e-01" purity="4.6115076541900635e-01" nType="0">
            <Node pos="l" depth="3" NCoef="0" IVar="8" Cut="3.0226774215698242e+00" cType="1" res="-1.2667034752666950e-02" rms="4.1846519708633423e-01" purity="4.1388997435569763e-01" nType="0">
              <Node pos="l" depth="4" NCoef="0" IVar="-1" Cut="0.0000000000000000e+00" cType="1" res="-1.5866259112954140e-02" rms="4.2495074868202209e-01" purity="3.6560747027397156e-01" nType="-99"/>
              <Node pos="r" depth="4" NCoef="0" IVar="-1" Cut="0.0000000000000000e+00" cType="1" res="5.0000310875475407e-04" rms="4.1464498639106750e-01" purity="4.3570455908775330e-01" nType="-99"/>
            </Node>
            <Node pos="r" depth="3" NCoef="0" IVar="-1" Cut="0.0000000000000000e+00" cType="1" res="-3.9331070147454739e-03" rms="3.8587859272956848e-01" purity="6.0126751661300659e-01" nType="-99"/>
          </Node>
          <Node pos="r" depth="2" NCoef="0" IVar="-1" Cut="0.0000000000000000e+00" cType="1" res="7.7556627802550793e-03" rms="3.8715094327926636e-01" purity="6.8479818105697632e-01" nType="-99"/>
        </Node>
      </Node>
    </BinaryTree>
    <BinaryTree type="DecisionTree" boostWeight="1.0000000000000000e+00" itree="102">
      <Node pos="s" depth="0" NCoef="0" IVar="1" Cut="1.3464360237121582e+00" cType="1" res="4.9983225762844086e-03" rms="4.1995385289192200e-01" purity="5.1114016771316528e-01" nType="0">
        <Node pos="l" depth="1" NCoef="0" IVar="0" Cut="2.7378184375000000e+05" cType="1" res="-7.2543947026133537e-03" rms="4.1900286078453064e-01" purity="4.7958180308341980e-01" nType="0">
          <Node pos="l" depth="2" NCoef="0" IVar="8" Cut="2.9013574123382568e+00" cType="1" res="2.0265423227101564e-03" rms="4.4147592782974243e-01" purity="5.6354671716690063e-01" nType="0">
            <Node pos="l" depth="3" NCoef="0" IVar="-1" Cut="0.0000000000000000e+00" cType="1" res="-8.7779937312006950e-03" rms="4.4887790083885193e-01" purity="4.8582822084426880e-01" nType="-99"/>
            <Node pos="r" depth="3" NCoef="0" IVar="1" Cut="-7.9046797752380371e-01" cType="1" res="1.5920443460345268e-02" rms="4.3753784894943237e-01" purity="5.9676593542098999e-01" nType="0">
              <Node pos="l" depth="4" NCoef="0" IVar="-1" Cut="0.0000000000000000e+00" cType="1" res="-8.6335866944864392e-04" rms="4.4682031869888306e-01" purity="5.9418803453445435e-01" nType="-99"/>
              <Node pos="r" depth="4" NCoef="0" IVar="-1" Cut="0.0000000000000000e+00" cType="1" res="1.7253004014492035e-02" rms="4.1656336188316345e-01" purity="6.0174500942230225e-01" nType="-99"/>
            </Node>
          </Node>
          <Node pos="r" depth="2" NCoef="0" IVar="-1" Cut="0.0000000000000000e+00" cType="1" res="-4.1677928529679775e-03" rms="3.2526582479476929e-01" purity="1.8265555799007416e-01" nType="-99"/>
        </Node>
        <Node pos="r" depth="1" NCoef="0" IVar="1" Cut="2.2868323326110840e+00" cType="1" res="2.7590660378336906e-02" rms="4.2076724767684937e-01" purity="5.6932961940765381e-01" nType="0">
          <Node pos="l" depth="2" NCoef="0" IVar="-1" Cut="0.0000000000000000e+00" cType="1" res="1.7097376286983490e-02" rms="4.2330202460289001e-01" purity="6.0526245832443237e-01" nType="-99"/>
          <Node pos="r" depth="2" NCoef="0" IVar="6" Cut="6.3718301057815552e-01" cType="1" res="5.1977680996060371e-03" rms="4.1756838560104370e-01" purity="5.4531157016754150e-01" nType="0">
            <Node pos="l" depth="3" NCoef="0" IVar="-1" Cut="0.0000000000000000e+00" cType="1" res="-6.5425317734479904e-03" rms="4.3136912584304810e-01" purity="4.7150269150733948e-01" nType="-99"/>
            <Node pos="r" depth="3" NCoef="0" IVar="-1" Cut="0.0000000000000000e+00" cType="1" res="1.1803572997450829e-02" rms="4.0111887454986572e-01" purity="6.1997336149215698e-01" nType="-99"/>
          </Node>
        </Node>
      </Node>
    </BinaryTree>
    <BinaryTree type="DecisionTree" boostWeight="1.0000000000000000e+00" itree="103">
      <Node pos="s" depth="0" NCoef="0" IVar="3" Cut="1.3065657812500000e+05" cType="1" res="-1.4199029654264450e-02" rms="4.1902634501457214e-01" purity="4.9160668253898621e-01" nType="0">
        <Node pos="l" depth="1" NCoef="0" IVar="4" Cut="7.4852554687500000e+04" cType="1" res="-2.1531457081437111e-02" rms="4.1412016749382019e-01" purity="4.6368125081062317e-01" nType="0">
          <Node pos="l" depth="2" NCoef="0" IVar="0" Cut="2.9263240625000000e+05" cType="1" res="-7.9225786030292511e-03" rms="4.1331455111503601e-01" purity="4.4130200147628784e-01" nType="0">
            <Node pos="l" depth="3" NCoef="0" IVar="3" Cut="5.0668761718750000e+04" cType="1" res="-1.1021819664165378e-03" rms="4.3886303901672363e-01" purity="5.2229249477386475e-01" nType="0">
              <Node pos="l" depth="4" NCoef="0" IVar="-1" Cut="0.0000000000000000e+00" cType="1" res="-6.3464120030403137e-03" rms="4.3195769190788269e-01" purity="3.5520100593566895e-01" nType="-99"/>
              <Node pos="r" depth="4" NCoef="0" IVar="-1" Cut="0.0000000000000000e+00" cType="1" res="1.6543099191039801e-03" rms="4.4032478332519531e-01" purity="5.6371814012527466e-01" nType="-99"/>
            </Node>
            <Node pos="r" depth="3" NCoef="0" IVar="-1" Cut="0.0000000000000000e+00" cType="1" res="-3.5728444345295429e-03" rms="2.8512656688690186e-01" purity="1.1181531846523285e-01" nType="-99"/>
          </Node>
          <Node pos="r" depth="2" NCoef="0" IVar="-1" Cut="0.0000000000000000e+00" cType="1" res="-1.0346633382141590e-02" rms="4.1308161616325378e-01" purity="5.4906266927719116e-01" nType="-99"/>
        </Node>
        <Node pos="r" depth="1" NCoef="0" IVar="-1" Cut="0.0000000000000000e+00" cType="1" res="6.3623748719692230e-03" rms="4.4153565168380737e-01" purity="6.3560336828231812e-01" nType="-99"/>
      </Node>
    </BinaryTree>
    <BinaryTree type="DecisionTree" boostWeight="1.0000000000000000e+00" itree="104">
      <Node pos="s" depth="0" NCoef="0" IVar="5" Cut="2.4288128662109375e+02" cType="1" res="8.1646163016557693e-03" rms="4.1715803742408752e-01" purity="5.1750147342681885e-01" nType="0">
        <Node pos="l" depth="1" NCoef="0" IVar="3" Cut="1.2421258593750000e+05" cType="1" res="1.5359616838395596e-02" rms="4.1390395164489746e-01" purity="5.3815907239913940e-01" nType="0">
          <Node pos="l" depth="2" NCoef="0" IVar="0" Cut="2.7885696875000000e+05" cType="1" res="8.9407842606306076e-03" rms="4.1349563002586365e-01" purity="5.0956690311431885e-01" nType="0">
            <Node pos="l" depth="3" NCoef="0" IVar="4" Cut="4.7657160156250000e+04" cType="1" res="0.0000000000000000e+00" rms="0.0000000000000000e+00" purity="5.9315586090087891e-01" nType="0">
              <Node pos="l" depth="4" NCoef="0" IVar="-1" Cut="0.0000000000000000e+00" cType="1" res="9.8116565495729446e-03" rms="4.4496580958366394e-01" purity="4.9528974294662476e-01" nType="-99"/>
              <Node pos="r" depth="4" NCoef="0" IVar="-1" Cut="0.0000000000000000e+00" cType="1" res="6.8341771839186549e-04" rms="4.2334488034248352e-01" purity="6.5873324871063232e-01" nType="-99"/>
            </Node>
            <Node pos="r" depth="3" NCoef="0" IVar="-1" Cut="0.0000000000000000e+00" cType="1" res="-1.0116678662598133e-02" rms="3.2189130783081055e-01" purity="1.6362267732620239e-01" nType="-99"/>
          </Node>
          <Node pos="r" depth="2" NCoef="0" IVar="-1" Cut="0.0000000000000000e+00" cType="1" res="1.1000207625329494e-02" rms="4.1444015502929688e-01" purity="6.8330597877502441e-01" nType="-99"/>
        </Node>
        <Node pos="r" depth="1" NCoef="0" IVar="2" Cut="1.8376334905624390e+00" cType="1" res="-1.8935531377792358e-02" rms="4.2810907959938049e-01" purity="4.3969407677650452e-01" nType="0">
          <Node pos="l" depth="2" NCoef="0" IVar="-1" Cut="0.0000000000000000e+00" cType="1" res="-1.0655063204467297e-02" rms="4.1024330258369446e-01" purity="3.4514945745468140e-01" nType="-99"/>
          <Node pos="r" depth="2" NCoef="0" IVar="-1" Cut="0.0000000000000000e+00" cType="1" res="-1.1292088311165571e-03" rms="4.4368919730186462e-01" purity="5.2831900119781494e-01" nType="-99"/>
        </Node>
      </Node>
    </BinaryTree>
    <BinaryTree type="DecisionTree" boostWeight="1.0000000000000000e+00" itree="105">
      <Node pos="s" depth="0" NCoef="0" IVar="8" Cut="2.7324206829071045e+00" cType="1" res="-2.4748630821704865e-03" rms="4.1862425208091736e-01" purity="5.0127381086349487e-01" nType="0">
        <Node pos="l" depth="1" NCoef="0" IVar="-1" Cut="0.0000000000000000e+00" cType="1" res="1.2643347494304180e-02" rms="4.3755078315734863e-01" purity="5.2223813533782959e-01" nType="-99"/>
        <Node pos="r" depth="1" NCoef="0" IVar="2" Cut="1.2348885536193848e+00" cType="1" res="-7.5959591194987297e-03" rms="4.1608107089996338e-01" purity="4.9885544180870056e-01" nType="0">
          <Node pos="l" depth="2" NCoef="0" IVar="9" Cut="3.0000000000000000e+00" cType="1" res="1.4443826861679554e-02" rms="3.8159853219985962e-01" purity="3.6583757400512695e-01" nType="0">
            <Node pos="l" depth="3" NCoef="0" IVar="-1" Cut="0.0000000000000000e+00" cType="1" res="1.3848152011632919e-02" rms="3.8507074117660522e-01" purity="3.2955026626586914e-01" nType="-99"/>
            <Node pos="r" depth="3" NCoef="0" IVar="-1" Cut="0.0000000000000000e+00" cType="1" res="-8.2120699808001518e-03" rms="3.7501159310340881e-01" purity="4.0173000097274780e-01" nType="-99"/>
          </Node>
          <Node pos="r" depth="2" NCoef="0" IVar="7" Cut="2.5372535705566406e+02" cType="1" res="-1.6026422381401062e-02" rms="4.2830249667167664e-01" purity="5.5010765790939331e-01" nType="0">
            <Node pos="l" depth="3" NCoef="0" IVar="4" Cut="5.8868375000000000e+04" cType="1" res="-6.5407215151935816e-04" rms="4.3884363770484924e-01" purity="4.7697648406028748e-01" nType="0">
              <Node pos="l" depth="4" NCoef="0" IVar="-1" Cut="0.0000000000000000e+00" cType="1" res="-3.9303619414567947e-03" rms="4.3624818325042725e-01" purity="4.1655132174491882e-01" nType="-99"/>
              <Node pos="r" depth="4" NCoef="0" IVar="-1" Cut="0.0000000000000000e+00" cType="1" res="5.0523378886282444e-03" rms="4.4229081273078918e-01" purity="5.7961469888687134e-01" nType="-99"/>
            </Node>
            <Node pos="r" depth="3" NCoef="0" IVar="8" Cut="2.9856696128845215e+00" cType="1" res="0.0000000000000000e+00" rms="0.0000000000000000e+00" purity="6.5050375461578369e-01" nType="0">
              <Node pos="l" depth="4" NCoef="0" IVar="-1" Cut="0.0000000000000000e+00" cType="1" res="-7.4034050339832902e-04" rms="4.3672531843185425e-01" purity="6.3767367601394653e-01" nType="-99"/>
              <Node pos="r" depth="4" NCoef="0" IVar="-1" Cut="0.0000000000000000e+00" cType="1" res="-3.7050782702863216e-03" rms="3.9417091012001038e-01" purity="6.5888035297393799e-01" nType="-99"/>
            </Node>
          </Node>
        </Node>
      </Node>
    </BinaryTree>
    <BinaryTree type="DecisionTree" boostWeight="1.0000000000000000e+00" itree="106">
      <Node pos="s" depth="0" NCoef="0" IVar="2" Cut="3.0702373981475830e+00" cType="1" res="-7.2706793434917927e-03" rms="4.2477008700370789e-01" purity="5.0333201885223389e-01" nType="0">
        <Node pos="l" depth="1" NCoef="0" IVar="3" Cut="9.5421375000000000e+04" cType="1" res="4.4450402492657304e-04" rms="4.2365598678588867e-01" purity="5.0807934999465942e-01" nType="0">
          <Node pos="l" depth="2" NCoef="0" IVar="3" Cut="4.8984105468750000e+04" cType="1" res="-9.9572930485010147e-03" rms="4.2069166898727417e-01" purity="4.4348770380020142e-01" nType="0">
            <Node pos="l" depth="3" NCoef="0" IVar="-1" Cut="0.0000000000000000e+00" cType="1" res="-9.9962055683135986e-03" rms="3.7781986594200134e-01" purity="2.5607195496559143e-01" nType="-99"/>
            <Node pos="r" depth="3" NCoef="0" IVar="3" Cut="7.5525976562500000e+04" cType="1" res="-2.6043285615742207e-03" rms="4.3041008710861206e-01" purity="4.9025228619575500e-01" nType="0">
              <Node pos="l" depth="4" NCoef="0" IVar="-1" Cut="0.0000000000000000e+00" cType="1" res="5.0743855535984039e-03" rms="4.3254202604293823e-01" purity="4.6949532628059387e-01" nType="-99"/>
              <Node pos="r" depth="4" NCoef="0" IVar="-1" Cut="0.0000000000000000e+00" cType="1" res="-9.4484267756342888e-03" rms="4.2592450976371765e-01" purity="5.2103018760681152e-01" nType="-99"/>
            </Node>
          </Node>
          <Node pos="r" depth="2" NCoef="0" IVar="8" Cut="2.9000043869018555e+00" cType="1" res="1.6845710575580597e-02" rms="4.2777481675148010e-01" purity="6.0992521047592163e-01" nType="0">
            <Node pos="l" depth="3" NCoef="0" IVar="-1" Cut="0.0000000000000000e+00" cType="1" res="1.0969323106110096e-02" rms="4.4378259778022766e-01" purity="6.1832940578460693e-01" nType="-99"/>
            <Node pos="r" depth="3" NCoef="0" IVar="1" Cut="-1.4933159947395325e-01" cType="1" res="1.4382706722244620e-03" rms="4.1918483376502991e-01" purity="6.0599124431610107e-01" nType="0">
              <Node pos="l" depth="4" NCoef="0" IVar="-1" Cut="0.0000000000000000e+00" cType="1" res="-8.7627628818154335e-03" rms="4.2068424820899963e-01" purity="5.6964993476867676e-01" nType="-99"/>
              <Node pos="r" depth="4" NCoef="0" IVar="-1" Cut="0.0000000000000000e+00" cType="1" res="4.5522558502852917e-03" rms="4.1679784655570984e-01" purity="6.3507378101348877e-01" nType="-99"/>
            </Node>
          </Node>
        </Node>
        <Node pos="r" depth="1" NCoef="0" IVar="-1" Cut="0.0000000000000000e+00" cType="1" res="-1.0266671888530254e-02" rms="4.2855820059776306e-01" purity="4.6315741539001465e-01" nType="-99"/>
      </Node>
    </BinaryTree>
    <BinaryTree type="DecisionTree" boostWeight="1.0000000000000000e+00" itree="107">
      <Node pos="s" depth="0" NCoef="0" IVar="1" Cut="-7.4801385402679443e-01" cType="1" res="-8.6555751040577888e-03" rms="4.1678491234779358e-01" purity="4.9429789185523987e-01" nType="0">
        <Node pos="l" depth="1" NCoef="0" IVar="0" Cut="2.5766156250000000e+05" cType="1" res="6.4229709096252918e-03" rms="4.1720432043075562e-01" purity="5.0528204441070557e-01" nType="0">
          <Node pos="l" depth="2" NCoef="0" IVar="1" Cut="-2.5720348358154297e+00" cType="1" res="1.8113162368535995e-02" rms="4.4224515557289124e-01" purity="6.0127568244934082e-01" nType="0">
            <Node pos="l" depth="3" NCoef="0" IVar="-1" Cut="0.0000000000000000e+00" cType="1" res="-2.0352867431938648e-03" rms="4.5400905609130859e-01" purity="5.6554484367370605e-01" nType="-99"/>
            <Node pos="r" depth="3" NCoef="0" IVar="-1" Cut="0.0000000000000000e+00" cType="1" res="9.7986282780766487e-03" rms="4.3422830104827881e-01" purity="6.2253582477569580e-01" nType="-99"/>
          </Node>
          <Node pos="r" depth="2" NCoef="0" IVar="-1" Cut="0.0000000000000000e+00" cType="1" res="-2.2350528743118048e-03" rms="3.3266681432723999e-01" purity="2.2931759059429169e-01" nType="-99"/>
        </Node>
        <Node pos="r" depth="1" NCoef="0" IVar="6" Cut="5.4106098413467407e-01" cType="1" res="-2.0196365192532539e-02" rms="4.1609460115432739e-01" purity="4.8589086532592773e-01" nType="0">
          <Node pos="l" depth="2" NCoef="0" IVar="-1" Cut="0.0000000000000000e+00" cType="1" res="-1.3633843511343002e-02" rms="4.3131142854690552e-01" purity="3.4973704814910889e-01" nType="-99"/>
          <Node pos="r" depth="2" NCoef="0" IVar="7" Cut="3.1862185668945312e+02" cType="1" res="-1.0317413136363029e-02" rms="4.1163909435272217e-01" purity="5.1964443922042847e-01" nType="0">
            <Node pos="l" depth="3" NCoef="0" IVar="1" Cut="2.2151563167572021e+00" cType="1" res="-2.3901725187897682e-02" rms="4.2134195566177368e-01" purity="4.3472188711166382e-01" nType="0">
              <Node pos="l" depth="4" NCoef="0" IVar="-1" Cut="0.0000000000000000e+00" cType="1" res="-3.4814248792827129e-03" rms="4.1484773159027100e-01" purity="4.0612936019897461e-01" nType="-99"/>
              <Node pos="r" depth="4" NCoef="0" IVar="-1" Cut="0.0000000000000000e+00" cType="1" res="-1.3586703687906265e-02" rms="4.2920541763305664e-01" purity="4.7335857152938843e-01" nType="-99"/>
            </Node>
            <Node pos="r" depth="3" NCoef="0" IVar="-1" Cut="0.0000000000000000e+00" cType="1" res="8.7683331221342087e-03" rms="3.8045957684516907e-01" purity="7.5837093591690063e-01" nType="-99"/>
          </Node>
        </Node>
      </Node>
    </BinaryTree>
    <BinaryTree type="DecisionTree" boostWeight="1.0000000000000000e+00" itree="108">
      <Node pos="s" depth="0" NCoef="0" IVar="3" Cut="5.0393648437500000e+04" cType="1" res="-3.7207687273621559e-03" rms="4.1762486100196838e-01" purity="4.9704682826995850e-01" nType="0">
        <Node pos="l" depth="1" NCoef="0" IVar="-1" Cut="0.0000000000000000e+00" cType="1" res="-6.6289012320339680e-03" rms="3.8032349944114685e-01" purity="2.7575403451919556e-01" nType="-99"/>
        <Node pos="r" depth="1" NCoef="0" IVar="3" Cut="1.1937040625000000e+05" cType="1" res="1.2681392254307866e-03" rms="4.2324537038803101e-01" purity="5.3349310159683228e-01" nType="0">
          <Node pos="l" depth="2" NCoef="0" IVar="6" Cut="5.4123705625534058e-01" cType="1" res="-5.3260056301951408e-03" rms="4.1941168904304504e-01" purity="5.0287163257598877e-01" nType="0">
            <Node pos="l" depth="3" NCoef="0" IVar="-1" Cut="0.0000000000000000e+00" cType="1" res="9.2599466443061829e-03" rms="4.4028368592262268e-01" purity="4.1259032487869263e-01" nType="-99"/>
            <Node pos="r" depth="3" NCoef="0" IVar="3" Cut="7.0091953125000000e+04" cType="1" res="-1.2666084803640842e-02" rms="4.1478237509727478e-01" purity="5.2065438032150269e-01" nType="0">
              <Node pos="l" depth="4" NCoef="0" IVar="-1" Cut="0.0000000000000000e+00" cType="1" res="5.2167717367410660e-03" rms="4.1271361708641052e-01" purity="4.6814739704132080e-01" nType="-99"/>
              <Node pos="r" depth="4" NCoef="0" IVar="-1" Cut="0.0000000000000000e+00" cType="1" res="-9.0142423287034035e-03" rms="4.1515907645225525e-01" purity="5.5187118053436279e-01" nType="-99"/>
            </Node>
          </Node>
          <Node pos="r" depth="2" NCoef="0" IVar="-1" Cut="0.0000000000000000e+00" cType="1" res="5.4269265383481979e-03" rms="4.3370833992958069e-01" purity="6.2323176860809326e-01" nType="-99"/>
        </Node>
      </Node>
    </BinaryTree>
    <BinaryTree type="DecisionTree" boostWeight="1.0000000000000000e+00" itree="109">
      <Node pos="s" depth="0" NCoef="0" IVar="2" Cut="3.0670027732849121e+00" cType="1" res="2.1642872598022223e-03" rms="4.2130950093269348e-01" purity="5.0930488109588623e-01" nType="0">
        <Node pos="l" depth="1" NCoef="0" IVar="2" Cut="9.3127071857452393e-01" cType="1" res="7.4579166248440742e-03" rms="4.2126020789146423e-01" purity="5.1450306177139282e-01" nType="0">
          <Node pos="l" depth="2" NCoef="0" IVar="-1" Cut="0.0000000000000000e+00" cType="1" res="-1.0596957989037037e-02" rms="3.5782453417778015e-01" purity="2.7788081765174866e-01" nType="-99"/>
          <Node pos="r" depth="2" NCoef="0" IVar="4" Cut="8.4027515625000000e+04" cType="1" res="1.5965349972248077e-02" rms="4.3518647551536560e-01" purity="5.7334774732589722e-01" nType="0">
            <Node pos="l" depth="3" NCoef="0" IVar="3" Cut="8.7875476562500000e+04" cType="1" res="2.4387111887335777e-02" rms="4.3807914853096008e-01" purity="5.4629313945770264e-01" nType="0">
              <Node pos="l" depth="4" NCoef="0" IVar="-1" Cut="0.0000000000000000e+00" cType="1" res="3.9390590973198414e-03" rms="4.3859541416168213e-01" purity="4.9996298551559448e-01" nType="-99"/>
              <Node pos="r" depth="4" NCoef="0" IVar="-1" Cut="0.0000000000000000e+00" cType="1" res="1.1103735305368900e-02" rms="4.3612149357795715e-01" purity="6.4580845832824707e-01" nType="-99"/>
            </Node>
            <Node pos="r" depth="3" NCoef="0" IVar="-1" Cut="0.0000000000000000e+00" cType="1" res="-4.3244929984211922e-03" rms="4.2230156064033508e-01" purity="6.7749804258346558e-01" nType="-99"/>
          </Node>
        </Node>
        <Node pos="r" depth="1" NCoef="0" IVar="-1" Cut="0.0000000000000000e+00" cType="1" res="-6.6350763663649559e-03" rms="4.1964390873908997e-01" purity="4.7127902507781982e-01" nType="-99"/>
      </Node>
    </BinaryTree>
    <BinaryTree type="DecisionTree" boostWeight="1.0000000000000000e+00" itree="110">
      <Node pos="s" depth="0" NCoef="0" IVar="6" Cut="7.6853752136230469e-01" cType="1" res="-1.9693854264914989e-03" rms="4.1792735457420349e-01" purity="4.9940469861030579e-01" nType="0">
        <Node pos="l" depth="1" NCoef="0" IVar="2" Cut="2.2259967327117920e+00" cType="1" res="0.0000000000000000e+00" rms="0.0000000000000000e+00" purity="5.3381246328353882e-01" nType="0">
          <Node pos="l" depth="2" NCoef="0" IVar="8" Cut="3.0421602725982666e+00" cType="1" res="-8.6330873891711235e-03" rms="4.2298510670661926e-01" purity="4.7541031241416931e-01" nType="0">
            <Node pos="l" depth="3" NCoef="0" IVar="4" Cut="5.6548199218750000e+04" cType="1" res="3.8935182965360582e-04" rms="4.2389178276062012e-01" purity="4.5188263058662415e-01" nType="0">
              <Node pos="l" depth="4" NCoef="0" IVar="-1" Cut="0.0000000000000000e+00" cType="1" res="-7.4454559944570065e-03" rms="3.9913386106491089e-01" purity="3.1312048435211182e-01" nType="-99"/>
              <Node pos="r" depth="4" NCoef="0" IVar="-1" Cut="0.0000000000000000e+00" cType="1" res="4.4739935547113419e-03" rms="4.4010752439498901e-01" purity="5.5271077156066895e-01" nType="-99"/>
            </Node>
            <Node pos="r" depth="3" NCoef="0" IVar="-1" Cut="0.0000000000000000e+00" cType="1" res="-1.0198462754487991e-02" rms="4.2061811685562134e-01" purity="5.2191740274429321e-01" nType="-99"/>
          </Node>
          <Node pos="r" depth="2" NCoef="0" IVar="2" Cut="3.0452768802642822e+00" cType="1" res="2.6238210499286652e-02" rms="4.2458757758140564e-01" purity="6.1543160676956177e-01" nType="0">
            <Node pos="l" depth="3" NCoef="0" IVar="5" Cut="1.9036524963378906e+02" cType="1" res="4.1810546070337296e-02" rms="4.2983964085578918e-01" purity="6.4967823028564453e-01" nType="0">
              <Node pos="l" depth="4" NCoef="0" IVar="-1" Cut="0.0000000000000000e+00" cType="1" res="8.4731495007872581e-03" rms="4.1959771513938904e-01" purity="6.8275636434555054e-01" nType="-99"/>
              <Node pos="r" depth="4" NCoef="0" IVar="-1" Cut="0.0000000000000000e+00" cType="1" res="1.0458118282258511e-02" rms="4.4026893377304077e-01" purity="6.1275857686996460e-01" nType="-99"/>
            </Node>
            <Node pos="r" depth="3" NCoef="0" IVar="-1" Cut="0.0000000000000000e+00" cType="1" res="-2.8431874234229326e-03" rms="4.0956810116767883e-01" purity="5.3452104330062866e-01" nType="-99"/>
          </Node>
        </Node>
        <Node pos="r" depth="1" NCoef="0" IVar="-1" Cut="0.0000000000000000e+00" cType="1" res="-9.8002599552273750e-03" rms="3.8770502805709839e-01" purity="3.4581628441810608e-01" nType="-99"/>
      </Node>
    </BinaryTree>
    <BinaryTree type="DecisionTree" boostWeight="1.0000000000000000e+00" itree="111">
      <Node pos="s" depth="0" NCoef="0" IVar="0" Cut="3.4396406250000000e+05" cType="1" res="2.9544781427830458e-03" rms="4.1380909085273743e-01" purity="5.0645345449447632e-01" nType="0">
        <Node pos="l" depth="1" NCoef="0" IVar="5" Cut="2.6560083007812500e+02" cType="1" res="7.6389438472688198e-03" rms="4.2786157131195068e-01" purity="5.5526095628738403e-01" nType="0">
          <Node pos="l" depth="2" NCoef="0" IVar="7" Cut="1.5971961975097656e+02" cType="1" res="0.0000000000000000e+00" rms="0.0000000000000000e+00" purity="5.7461273670196533e-01" nType="0">
            <Node pos="l" depth="3" NCoef="0" IVar="-1" Cut="0.0000000000000000e+00" cType="1" res="-6.8715470843017101e-03" rms="4.2369595170021057e-01" purity="3.1777316331863403e-01" nType="-99"/>
            <Node pos="r" depth="3" NCoef="0" IVar="5" Cut="2.0269082641601562e+02" cType="1" res="2.9357884079217911e-02" rms="4.2406985163688660e-01" purity="6.4352190494537354e-01" nType="0">
              <Node pos="l" depth="4" NCoef="0" IVar="-1" Cut="0.0000000000000000e+00" cType="1" res="4.9236277118325233e-03" rms="4.1943177580833435e-01" purity="6.5234917402267456e-01" nType="-99"/>
              <Node pos="r" depth="4" NCoef="0" IVar="-1" Cut="0.0000000000000000e+00" cType="1" res="1.7573613673448563e-02" rms="4.3765795230865479e-01" purity="6.1350101232528687e-01" nType="-99"/>
            </Node>
          </Node>
          <Node pos="r" depth="2" NCoef="0" IVar="-1" Cut="0.0000000000000000e+00" cType="1" res="-7.8955106437206268e-03" rms="4.4022601842880249e-01" purity="4.6188828349113464e-01" nType="-99"/>
        </Node>
        <Node pos="r" depth="1" NCoef="0" IVar="-1" Cut="0.0000000000000000e+00" cType="1" res="-2.0162058994174004e-02" rms="2.8097936511039734e-01" purity="1.3165129721164703e-01" nType="-99"/>
      </Node>
    </BinaryTree>
    <BinaryTree type="DecisionTree" boostWeight="1.0000000000000000e+00" itree="112">
      <Node pos="s" depth="0" NCoef="0" IVar="6" Cut="6.5404152870178223e-01" cType="1" res="-2.6887417770922184e-03" rms="4.1758501529693604e-01" purity="5.0829541683197021e-01" nType="0">
        <Node pos="l" depth="1" NCoef="0" IVar="9" Cut="3.0000000000000000e+00" cType="1" res="-1.9176052883267403e-02" rms="4.3632173538208008e-01" purity="5.0002771615982056e-01" nType="0">
          <Node pos="l" depth="2" NCoef="0" IVar="-1" Cut="0.0000000000000000e+00" cType="1" res="-8.3627682179212570e-03" rms="4.3023604154586792e-01" purity="4.0612941980361938e-01" nType="-99"/>
          <Node pos="r" depth="2" NCoef="0" IVar="7" Cut="2.5291921997070312e+02" cType="1" res="0.0000000000000000e+00" rms="0.0000000000000000e+00" purity="5.4663932323455811e-01" nType="0">
            <Node pos="l" depth="3" NCoef="0" IVar="-1" Cut="0.0000000000000000e+00" cType="1" res="1.0030469857156277e-02" rms="4.3456882238388062e-01" purity="4.7910690307617188e-01" nType="-99"/>
            <Node pos="r" depth="3" NCoef="0" IVar="1" Cut="4.4890466332435608e-01" cType="1" res="-2.7736837044358253e-02" rms="4.3990868330001831e-01" purity="5.7799762487411499e-01" nType="0">
              <Node pos="l" depth="4" NCoef="0" IVar="-1" Cut="0.0000000000000000e+00" cType="1" res="-2.1142879500985146e-02" rms="4.4231298565864563e-01" purity="5.3628754615783691e-01" nType="-99"/>
              <Node pos="r" depth="4" NCoef="0" IVar="-1" Cut="0.0000000000000000e+00" cType="1" res="3.0476551037281752e-03" rms="4.3351945281028748e-01" purity="6.2598443031311035e-01" nType="-99"/>
            </Node>
          </Node>
        </Node>
        <Node pos="r" depth="1" NCoef="0" IVar="7" Cut="1.4314796447753906e+02" cType="1" res="0.0000000000000000e+00" rms="0.0000000000000000e+00" purity="5.1730996370315552e-01" nType="0">
          <Node pos="l" depth="2" NCoef="0" IVar="-1" Cut="0.0000000000000000e+00" cType="1" res="-6.3141523860394955e-03" rms="3.8054221868515015e-01" purity="2.5617045164108276e-01" nType="-99"/>
          <Node pos="r" depth="2" NCoef="0" IVar="8" Cut="2.9950921535491943e+00" cType="1" res="2.6795824989676476e-02" rms="3.9917263388633728e-01" purity="6.0256469249725342e-01" nType="0">
            <Node pos="l" depth="3" NCoef="0" IVar="-1" Cut="0.0000000000000000e+00" cType="1" res="-4.9083423800766468e-04" rms="4.0659633278846741e-01" purity="5.1595765352249146e-01" nType="-99"/>
            <Node pos="r" depth="3" NCoef="0" IVar="-1" Cut="0.0000000000000000e+00" cType="1" res="1.6933767125010490e-02" rms="3.9010331034660339e-01" purity="6.8440055847167969e-01" nType="-99"/>
          </Node>
        </Node>
      </Node>
    </BinaryTree>
    <BinaryTree type="DecisionTree" boostWeight="1.0000000000000000e+00" itree="113">
      <Node pos="s" depth="0" NCoef="0" IVar="6" Cut="6.2679010629653931e-01" cType="1" res="0.0000000000000000e+00" rms="0.0000000000000000e+00" purity="5.0254255533218384e-01" nType="0">
        <Node pos="l" depth="1" NCoef="0" IVar="7" Cut="2.1044044494628906e+02" cType="1" res="-1.9373346120119095e-02" rms="4.4144126772880554e-01" purity="4.7704991698265076e-01" nType="0">
          <Node pos="l" depth="2" NCoef="0" IVar="-1" Cut="0.0000000000000000e+00" cType="1" res="5.4465346038341522e-03" rms="4.3253651261329651e-01" purity="3.7674555182456970e-01" nType="-99"/>
          <Node pos="r" depth="2" NCoef="0" IVar="8" Cut="2.9369499683380127e+00" cType="1" res="-3.2700974494218826e-02" rms="4.4375121593475342e-01" purity="5.1222133636474609e-01" nType="0">
            <Node pos="l" depth="3" NCoef="0" IVar="-1" Cut="0.0000000000000000e+00" cType="1" res="-2.4310897570103407e-03" rms="4.4649377465248108e-01" purity="4.6954485774040222e-01" nType="-99"/>
            <Node pos="r" depth="3" NCoef="0" IVar="-1" Cut="0.0000000000000000e+00" cType="1" res="-1.7597580328583717e-02" rms="4.3909189105033875e-01" purity="5.5957520008087158e-01" nType="-99"/>
          </Node>
        </Node>
        <Node pos="r" depth="1" NCoef="0" IVar="4" Cut="5.9323746093750000e+04" cType="1" res="8.5630239918828011e-03" rms="3.9910545945167542e-01" purity="5.2268368005752563e-01" nType="0">
          <Node pos="l" depth="2" NCoef="0" IVar="1" Cut="-7.4768060445785522e-01" cType="1" res="-6.1639766208827496e-03" rms="4.0833753347396851e-01" purity="4.1999635100364685e-01" nType="0">
            <Node pos="l" depth="3" NCoef="0" IVar="-1" Cut="0.0000000000000000e+00" cType="1" res="2.3394038435071707e-03" rms="4.2181906104087830e-01" purity="4.5816001296043396e-01" nType="-99"/>
            <Node pos="r" depth="3" NCoef="0" IVar="6" Cut="7.4883848428726196e-01" cType="1" res="-1.6505872830748558e-02" rms="3.9753878116607666e-01" purity="3.9116871356964111e-01" nType="0">
              <Node pos="l" depth="4" NCoef="0" IVar="-1" Cut="0.0000000000000000e+00" cType="1" res="-2.1648118272423744e-03" rms="4.0003749728202820e-01" purity="4.6779561042785645e-01" nType="-99"/>
              <Node pos="r" depth="4" NCoef="0" IVar="-1" Cut="0.0000000000000000e+00" cType="1" res="-6.5025892108678818e-03" rms="3.9479541778564453e-01" purity="3.1626430153846741e-01" nType="-99"/>
            </Node>
          </Node>
          <Node pos="r" depth="2" NCoef="0" IVar="-1" Cut="0.0000000000000000e+00" cType="1" res="9.5456233248114586e-03" rms="3.7971118092536926e-01" purity="7.1471947431564331e-01" nType="-99"/>
        </Node>
      </Node>
    </BinaryTree>
    <BinaryTree type="DecisionTree" boostWeight="1.0000000000000000e+00" itree="114">
      <Node pos="s" depth="0" NCoef="0" IVar="6" Cut="6.2648403644561768e-01" cType="1" res="-3.8787468802183867e-03" rms="4.2072331905364990e-01" purity="5.0152063369750977e-01" nType="0">
        <Node pos="l" depth="1" NCoef="0" IVar="9" Cut="3.0000000000000000e+00" cType="1" res="-1.9330456852912903e-02" rms="4.3732607364654541e-01" purity="4.7758170962333679e-01" nType="0">
          <Node pos="l" depth="2" NCoef="0" IVar="-1" Cut="0.0000000000000000e+00" cType="1" res="-1.5256007201969624e-02" rms="4.3837633728981018e-01" purity="3.4903073310852051e-01" nType="-99"/>
          <Node pos="r" depth="2" NCoef="0" IVar="6" Cut="5.6172323226928711e-01" cType="1" res="-6.7097332794219255e-04" rms="4.3570783734321594e-01" purity="5.3651595115661621e-01" nType="0">
            <Node pos="l" depth="3" NCoef="0" IVar="-1" Cut="0.0000000000000000e+00" cType="1" res="5.0806580111384392e-03" rms="4.4802266359329224e-01" purity="4.9341654777526855e-01" nType="-99"/>
            <Node pos="r" depth="3" NCoef="0" IVar="-1" Cut="0.0000000000000000e+00" cType="1" res="-9.1481162235140800e-03" rms="4.1664096713066101e-01" purity="5.9698861837387085e-01" nType="-99"/>
          </Node>
        </Node>
        <Node pos="r" depth="1" NCoef="0" IVar="7" Cut="1.7101425170898438e+02" cType="1" res="7.7698719687759876e-03" rms="4.0735384821891785e-01" purity="5.1948416233062744e-01" nType="0">
          <Node pos="l" depth="2" NCoef="0" IVar="-1" Cut="0.0000000000000000e+00" cType="1" res="-7.4081295169889927e-03" rms="4.0489137172698975e-01" purity="2.7523237466812134e-01" nType="-99"/>
          <Node pos="r" depth="2" NCoef="0" IVar="2" Cut="1.6856132745742798e+00" cType="1" res="2.6231151074171066e-02" rms="4.0749832987785339e-01" purity="6.5212219953536987e-01" nType="0">
            <Node pos="l" depth="3" NCoef="0" IVar="-1" Cut="0.0000000000000000e+00" cType="1" res="1.5203809365630150e-02" rms="3.9723896980285645e-01" purity="5.8025324344635010e-01" nType="-99"/>
            <Node pos="r" depth="3" NCoef="0" IVar="-1" Cut="0.0000000000000000e+00" cType="1" res="2.2623525001108646e-03" rms="4.1282102465629578e-01" purity="6.9814956188201904e-01" nType="-99"/>
          </Node>
        </Node>
      </Node>
    </BinaryTree>
    <BinaryTree type="DecisionTree" boostWeight="1.0000000000000000e+00" itree="115">
      <Node pos="s" depth="0" NCoef="0" IVar="6" Cut="5.9826701879501343e-01" cType="1" res="-4.4932421296834946e-03" rms="4.1727510094642639e-01" purity="4.9285405874252319e-01" nType="0">
        <Node pos="l" depth="1" NCoef="0" IVar="9" Cut="4.0000000000000000e+00" cType="1" res="0.0000000000000000e+00" rms="0.0000000000000000e+00" purity="4.3154802918434143e-01" nType="0">
          <Node pos="l" depth="2" NCoef="0" IVar="8" Cut="2.9491934776306152e+00" cType="1" res="-4.5134525746107101e-02" rms="4.2952394485473633e-01" purity="3.6781841516494751e-01" nType="0">
            <Node pos="l" depth="3" NCoef="0" IVar="-1" Cut="0.0000000000000000e+00" cType="1" res="-3.4947551321238279e-03" rms="4.2750799655914307e-01" purity="3.8302540779113770e-01" nType="-99"/>
            <Node pos="r" depth="3" NCoef="0" IVar="-1" Cut="0.0000000000000000e+00" cType="1" res="-1.4890772290527821e-02" rms="4.2976763844490051e-01" purity="3.5163193941116333e-01" nType="-99"/>
          </Node>
          <Node pos="r" depth="2" NCoef="0" IVar="-1" Cut="0.0000000000000000e+00" cType="1" res="5.5613773874938488e-03" rms="4.3525469303131104e-01" purity="5.6174683570861816e-01" nType="-99"/>
        </Node>
        <Node pos="r" depth="1" NCoef="0" IVar="2" Cut="1.7081904411315918e+00" cType="1" res="6.7934803664684296e-03" rms="4.0808913111686707e-01" purity="5.2729910612106323e-01" nType="0">
          <Node pos="l" depth="2" NCoef="0" IVar="1" Cut="1.0461107492446899e+00" cType="1" res="2.8845090419054031e-02" rms="3.9764326810836792e-01" purity="4.3008813261985779e-01" nType="0">
            <Node pos="l" depth="3" NCoef="0" IVar="-1" Cut="0.0000000000000000e+00" cType="1" res="1.4617147855460644e-02" rms="3.9355802536010742e-01" purity="4.2798671126365662e-01" nType="-99"/>
            <Node pos="r" depth="3" NCoef="0" IVar="-1" Cut="0.0000000000000000e+00" cType="1" res="2.9441411606967449e-03" rms="4.0294274687767029e-01" purity="4.3329200148582458e-01" nType="-99"/>
          </Node>
          <Node pos="r" depth="2" NCoef="0" IVar="1" Cut="1.3474326133728027e+00" cType="1" res="0.0000000000000000e+00" rms="0.0000000000000000e+00" purity="6.0066223144531250e-01" nType="0">
            <Node pos="l" depth="3" NCoef="0" IVar="7" Cut="2.0645312500000000e+02" cType="1" res="-2.9360789805650711e-02" rms="4.2076876759529114e-01" purity="5.4914075136184692e-01" nType="0">
              <Node pos="l" depth="4" NCoef="0" IVar="-1" Cut="0.0000000000000000e+00" cType="1" res="-5.8721587993204594e-03" rms="4.3458199501037598e-01" purity="3.7927520275115967e-01" nType="-99"/>
              <Node pos="r" depth="4" NCoef="0" IVar="-1" Cut="0.0000000000000000e+00" cType="1" res="-4.5609986409544945e-03" rms="4.0678212046623230e-01" purity="7.0973855257034302e-01" nType="-99"/>
            </Node>
            <Node pos="r" depth="3" NCoef="0" IVar="-1" Cut="0.0000000000000000e+00" cType="1" res="5.5352482013404369e-03" rms="4.0393152832984924e-01" purity="6.8162375688552856e-01" nType="-99"/>
          </Node>
        </Node>
      </Node>
    </BinaryTree>
    <BinaryTree type="DecisionTree" boostWeight="1.0000000000000000e+00" itree="116">
      <Node pos="s" depth="0" NCoef="0" IVar="6" Cut="7.3965156078338623e-01" cType="1" res="7.0371381007134914e-03" rms="4.2226114869117737e-01" purity="5.1158803701400757e-01" nType="0">
        <Node pos="l" depth="1" NCoef="0" IVar="1" Cut="1.9449204206466675e+00" cType="1" res="-3.4683165722526610e-04" rms="4.2760571837425232e-01" purity="5.3320014476776123e-01" nType="0">
          <Node pos="l" depth="2" NCoef="0" IVar="1" Cut="-2.4143168926239014e+00" cType="1" res="0.0000000000000000e+00" rms="0.0000000000000000e+00" purity="5.3782975673675537e-01" nType="0">
            <Node pos="l" depth="3" NCoef="0" IVar="-1" Cut="0.0000000000000000e+00" cType="1" res="-5.7053719647228718e-03" rms="4.3340918421745300e-01" purity="4.9970197677612305e-01" nType="-99"/>
            <Node pos="r" depth="3" NCoef="0" IVar="8" Cut="2.9493587017059326e+00" cType="1" res="2.4585716426372528e-02" rms="4.2339605093002319e-01" purity="5.5402791500091553e-01" nType="0">
              <Node pos="l" depth="4" NCoef="0" IVar="-1" Cut="0.0000000000000000e+00" cType="1" res="-2.9547382146120071e-03" rms="4.4083133339881897e-01" purity="4.5112124085426331e-01" nType="-99"/>
              <Node pos="r" depth="4" NCoef="0" IVar="-1" Cut="0.0000000000000000e+00" cType="1" res="1.5081141144037247e-02" rms="4.0864551067352295e-01" purity="6.2709963321685791e-01" nType="-99"/>
            </Node>
          </Node>
          <Node pos="r" depth="2" NCoef="0" IVar="2" Cut="1.7660777568817139e+00" cType="1" res="0.0000000000000000e+00" rms="0.0000000000000000e+00" purity="5.2243405580520630e-01" nType="0">
            <Node pos="l" depth="3" NCoef="0" IVar="-1" Cut="0.0000000000000000e+00" cType="1" res="-5.7303399080410600e-04" rms="4.1630896925926208e-01" purity="4.7443011403083801e-01" nType="-99"/>
            <Node pos="r" depth="3" NCoef="0" IVar="-1" Cut="0.0000000000000000e+00" cType="1" res="-1.3910239562392235e-02" rms="4.3619221448898315e-01" purity="5.6158238649368286e-01" nType="-99"/>
          </Node>
        </Node>
        <Node pos="r" depth="1" NCoef="0" IVar="3" Cut="5.7245902343750000e+04" cType="1" res="3.0162114650011063e-02" rms="4.0419533848762512e-01" purity="4.4390374422073364e-01" nType="0">
          <Node pos="l" depth="2" NCoef="0" IVar="-1" Cut="0.0000000000000000e+00" cType="1" res="2.0256144925951958e-03" rms="3.8590824604034424e-01" purity="2.9090669751167297e-01" nType="-99"/>
          <Node pos="r" depth="2" NCoef="0" IVar="-1" Cut="0.0000000000000000e+00" cType="1" res="1.2773098424077034e-02" rms="4.1807261109352112e-01" purity="5.7309627532958984e-01" nType="-99"/>
        </Node>
      </Node>
    </BinaryTree>
    <BinaryTree type="DecisionTree" boostWeight="1.0000000000000000e+00" itree="117">
      <Node pos="s" depth="0" NCoef="0" IVar="8" Cut="2.8519487380981445e+00" cType="1" res="-6.4959521405398846e-03" rms="4.1908603906631470e-01" purity="4.9783942103385925e-01" nType="0">
        <Node pos="l" depth="1" NCoef="0" IVar="1" Cut="4.4828835129737854e-01" cType="1" res="2.0342322066426277e-02" rms="4.4224548339843750e-01" purity="4.9629363417625427e-01" nType="0">
          <Node pos="l" depth="2" NCoef="0" IVar="-1" Cut="0.0000000000000000e+00" cType="1" res="9.0871341526508331e-03" rms="4.3654397130012512e-01" purity="5.1524186134338379e-01" nType="-99"/>
          <Node pos="r" depth="2" NCoef="0" IVar="-1" Cut="0.0000000000000000e+00" cType="1" res="1.7103843856602907e-03" rms="4.4765207171440125e-01" purity="4.7664690017700195e-01" nType="-99"/>
        </Node>
        <Node pos="r" depth="1" NCoef="0" IVar="6" Cut="5.4180675745010376e-01" cType="1" res="-1.3487826101481915e-02" rms="4.1255271434783936e-01" purity="4.9824213981628418e-01" nType="0">
          <Node pos="l" depth="2" NCoef="0" IVar="-1" Cut="0.0000000000000000e+00" cType="1" res="-1.2996943667531013e-02" rms="4.3653887510299683e-01" purity="3.5824835300445557e-01" nType="-99"/>
          <Node pos="r" depth="2" NCoef="0" IVar="5" Cut="2.3168687438964844e+02" cType="1" res="-5.1805353723466396e-03" rms="4.0730938315391541e-01" purity="5.2481788396835327e-01" nType="0">
            <Node pos="l" depth="3" NCoef="0" IVar="5" Cut="1.5449577331542969e+02" cType="1" res="-1.6474092379212379e-02" rms="4.0235748887062073e-01" purity="5.2313560247421265e-01" nType="0">
              <Node pos="l" depth="4" NCoef="0" IVar="-1" Cut="0.0000000000000000e+00" cType="1" res="-1.9495066255331039e-02" rms="4.0376204252243042e-01" purity="4.2036452889442444e-01" nType="-99"/>
              <Node pos="r" depth="4" NCoef="0" IVar="-1" Cut="0.0000000000000000e+00" cType="1" res="-7.1424321504309773e-04" rms="4.0088644623756409e-01" purity="5.4916977882385254e-01" nType="-99"/>
            </Node>
            <Node pos="r" depth="3" NCoef="0" IVar="-1" Cut="0.0000000000000000e+00" cType="1" res="1.0215301997959614e-02" rms="4.2109301686286926e-01" purity="5.3036773204803467e-01" nType="-99"/>
          </Node>
        </Node>
      </Node>
    </BinaryTree>
    <BinaryTree type="DecisionTree" boostWeight="1.0000000000000000e+00" itree="118">
      <Node pos="s" depth="0" NCoef="0" IVar="2" Cut="2.2259967327117920e+00" cType="1" res="1.3949677813798189e-03" rms="4.2112499475479126e-01" purity="4.9947705864906311e-01" nType="0">
        <Node pos="l" depth="1" NCoef="0" IVar="9" Cut="3.0000000000000000e+00" cType="1" res="-1.4470084570348263e-02" rms="4.1050636768341064e-01" purity="4.3300172686576843e-01" nType="0">
          <Node pos="l" depth="2" NCoef="0" IVar="6" Cut="7.3964780569076538e-01" cType="1" res="3.0387795995920897e-03" rms="4.1494619846343994e-01" purity="3.8206687569618225e-01" nType="0">
            <Node pos="l" depth="3" NCoef="0" IVar="-1" Cut="0.0000000000000000e+00" cType="1" res="5.8730957098305225e-03" rms="4.2232012748718262e-01" purity="4.4442790746688843e-01" nType="-99"/>
            <Node pos="r" depth="3" NCoef="0" IVar="-1" Cut="0.0000000000000000e+00" cType="1" res="-7.8855240717530251e-03" rms="4.0125358104705811e-01" purity="2.8395035862922668e-01" nType="-99"/>
          </Node>
          <Node pos="r" depth="2" NCoef="0" IVar="4" Cut="6.3069820312500000e+04" cType="1" res="-3.1153401359915733e-02" rms="4.0576320886611938e-01" purity="4.8106694221496582e-01" nType="0">
            <Node pos="l" depth="3" NCoef="0" IVar="-1" Cut="0.0000000000000000e+00" cType="1" res="-5.6263082660734653e-03" rms="3.9125975966453552e-01" purity="3.6075934767723083e-01" nType="-99"/>
            <Node pos="r" depth="3" NCoef="0" IVar="-1" Cut="0.0000000000000000e+00" cType="1" res="-2.6884085964411497e-03" rms="4.1981905698776245e-01" purity="6.1265164613723755e-01" nType="-99"/>
          </Node>
        </Node>
        <Node pos="r" depth="1" NCoef="0" IVar="3" Cut="1.0740487500000000e+05" cType="1" res="2.5338904932141304e-02" rms="4.3535086512565613e-01" purity="5.9928268194198608e-01" nType="0">
          <Node pos="l" depth="2" NCoef="0" IVar="4" Cut="4.8045218750000000e+04" cType="1" res="1.2589239515364170e-02" rms="4.4082322716712952e-01" purity="5.6106925010681152e-01" nType="0">
            <Node pos="l" depth="3" NCoef="0" IVar="-1" Cut="0.0000000000000000e+00" cType="1" res="1.0912804864346981e-02" rms="4.4431781768798828e-01" purity="5.0025504827499390e-01" nType="-99"/>
            <Node pos="r" depth="3" NCoef="0" IVar="-1" Cut="0.0000000000000000e+00" cType="1" res="-3.6691785790026188e-03" rms="4.3634724617004395e-01" purity="6.1358678340911865e-01" nType="-99"/>
          </Node>
          <Node pos="r" depth="2" NCoef="0" IVar="-1" Cut="0.0000000000000000e+00" cType="1" res="1.0699375532567501e-02" rms="4.2055258154869080e-01" purity="6.8987572193145752e-01" nType="-99"/>
        </Node>
      </Node>
    </BinaryTree>
    <BinaryTree type="DecisionTree" boostWeight="1.0000000000000000e+00" itree="119">
      <Node pos="s" depth="0" NCoef="0" IVar="2" Cut="2.2063627243041992e+00" cType="1" res="-2.7115237899124622e-03" rms="4.2009198665618896e-01" purity="4.9767702817916870e-01" nType="0">
        <Node pos="l" depth="1" NCoef="0" IVar="6" Cut="5.4058128595352173e-01" cType="1" res="1.3170553371310234e-02" rms="4.1317105293273926e-01" purity="4.6431246399879456e-01" nType="0">
          <Node pos="l" depth="2" NCoef="0" IVar="-1" Cut="0.0000000000000000e+00" cType="1" res="-4.5750229619443417e-03" rms="4.3733689188957214e-01" purity="3.6323988437652588e-01" nType="-99"/>
          <Node pos="r" depth="2" NCoef="0" IVar="7" Cut="1.5308409118652344e+02" cType="1" res="2.0856859162449837e-02" rms="4.0596243739128113e-01" purity="4.9199885129928589e-01" nType="0">
            <Node pos="l" depth="3" NCoef="0" IVar="-1" Cut="0.0000000000000000e+00" cType="1" res="1.0823829506989568e-04" rms="3.7104207277297974e-01" purity="2.2692541778087616e-01" nType="-99"/>
            <Node pos="r" depth="3" NCoef="0" IVar="8" Cut="3.0237710475921631e+00" cType="1" res="2.8222603723406792e-02" rms="4.1747745871543884e-01" purity="5.8664512634277344e-01" nType="0">
              <Node pos="l" depth="4" NCoef="0" IVar="-1" Cut="0.0000000000000000e+00" cType="1" res="4.0769944898784161e-03" rms="4.3229860067367554e-01" purity="5.0427722930908203e-01" nType="-99"/>
              <Node pos="r" depth="4" NCoef="0" IVar="-1" Cut="0.0000000000000000e+00" cType="1" res="1.7066473141312599e-02" rms="3.9605796337127686e-01" purity="6.9593632221221924e-01" nType="-99"/>
            </Node>
          </Node>
        </Node>
        <Node pos="r" depth="1" NCoef="0" IVar="7" Cut="3.2113842773437500e+02" cType="1" res="-2.4781562387943268e-02" rms="4.2854818701744080e-01" purity="5.4404109716415405e-01" nType="0">
          <Node pos="l" depth="2" NCoef="0" IVar="4" Cut="4.7643863281250000e+04" cType="1" res="0.0000000000000000e+00" rms="0.0000000000000000e+00" purity="4.7848182916641235e-01" nType="0">
            <Node pos="l" depth="3" NCoef="0" IVar="-1" Cut="0.0000000000000000e+00" cType="1" res="-3.4869143273681402e-03" rms="4.3136247992515564e-01" purity="4.1650015115737915e-01" nType="-99"/>
            <Node pos="r" depth="3" NCoef="0" IVar="-1" Cut="0.0000000000000000e+00" cType="1" res="-1.0215586982667446e-02" rms="4.4311997294425964e-01" purity="5.1669460535049438e-01" nType="-99"/>
          </Node>
          <Node pos="r" depth="2" NCoef="0" IVar="-1" Cut="0.0000000000000000e+00" cType="1" res="1.0396454483270645e-02" rms="3.8924184441566467e-01" purity="7.4351704120635986e-01" nType="-99"/>
        </Node>
      </Node>
    </BinaryTree>
    <BinaryTree type="DecisionTree" boostWeight="1.0000000000000000e+00" itree="120">
      <Node pos="s" depth="0" NCoef="0" IVar="2" Cut="2.4341285228729248e+00" cType="1" res="-1.4951562508940697e-02" rms="4.1648069024085999e-01" purity="4.8506617546081543e-01" nType="0">
        <Node pos="l" depth="1" NCoef="0" IVar="8" Cut="3.0939128398895264e+00" cType="1" res="-2.5449302047491074e-02" rms="4.1309091448783875e-01" purity="4.3742603063583374e-01" nType="0">
          <Node pos="l" depth="2" NCoef="0" IVar="8" Cut="3.0029036998748779e+00" cType="1" res="-1.9561614841222763e-02" rms="4.1464236378669739e-01" purity="4.3417504429817200e-01" nType="0">
            <Node pos="l" depth="3" NCoef="0" IVar="0" Cut="2.1382134375000000e+05" cType="1" res="-3.2984293997287750e-02" rms="4.2436414957046509e-01" purity="4.0168380737304688e-01" nType="0">
              <Node pos="l" depth="4" NCoef="0" IVar="-1" Cut="0.0000000000000000e+00" cType="1" res="-4.7450861893594265e-03" rms="4.4846877455711365e-01" purity="4.9836745858192444e-01" nType="-99"/>
              <Node pos="r" depth="4" NCoef="0" IVar="-1" Cut="0.0000000000000000e+00" cType="1" res="-2.3161539807915688e-02" rms="3.8109180331230164e-01" purity="2.4609847366809845e-01" nType="-99"/>
            </Node>
            <Node pos="r" depth="3" NCoef="0" IVar="3" Cut="7.8872195312500000e+04" cType="1" res="1.1264487402513623e-03" rms="3.9831015467643738e-01" purity="4.8425298929214478e-01" nType="0">
              <Node pos="l" depth="4" NCoef="0" IVar="-1" Cut="0.0000000000000000e+00" cType="1" res="-1.6268293838948011e-03" rms="3.8929638266563416e-01" purity="3.5213789343833923e-01" nType="-99"/>
              <Node pos="r" depth="4" NCoef="0" IVar="-1" Cut="0.0000000000000000e+00" cType="1" res="8.6198756471276283e-03" rms="4.0558752417564392e-01" purity="6.1159360408782959e-01" nType="-99"/>
            </Node>
          </Node>
          <Node pos="r" depth="2" NCoef="0" IVar="-1" Cut="0.0000000000000000e+00" cType="1" res="-1.9185908138751984e-02" rms="4.0515494346618652e-01" purity="4.5176970958709717e-01" nType="-99"/>
        </Node>
        <Node pos="r" depth="1" NCoef="0" IVar="2" Cut="3.0455682277679443e+00" cType="1" res="0.0000000000000000e+00" rms="0.0000000000000000e+00" purity="5.7723945379257202e-01" nType="0">
          <Node pos="l" depth="2" NCoef="0" IVar="2" Cut="2.7550475597381592e+00" cType="1" res="0.0000000000000000e+00" rms="0.0000000000000000e+00" purity="6.2108230590820312e-01" nType="0">
            <Node pos="l" depth="3" NCoef="0" IVar="-1" Cut="0.0000000000000000e+00" cType="1" res="2.2938142064958811e-03" rms="4.2886066436767578e-01" purity="6.2363457679748535e-01" nType="-99"/>
            <Node pos="r" depth="3" NCoef="0" IVar="-1" Cut="0.0000000000000000e+00" cType="1" res="9.6544623374938965e-03" rms="4.2497107386589050e-01" purity="6.1840862035751343e-01" nType="-99"/>
          </Node>
          <Node pos="r" depth="2" NCoef="0" IVar="-1" Cut="0.0000000000000000e+00" cType="1" res="-6.7790099419653416e-03" rms="4.1069313883781433e-01" purity="4.9327480792999268e-01" nType="-99"/>
        </Node>
      </Node>
    </BinaryTree>
    <BinaryTree type="DecisionTree" boostWeight="1.0000000000000000e+00" itree="121">
      <Node pos="s" depth="0" NCoef="0" IVar="2" Cut="2.2063627243041992e+00" cType="1" res="3.5901870578527451e-03" rms="4.1803401708602905e-01" purity="5.0395113229751587e-01" nType="0">
        <Node pos="l" depth="1" NCoef="0" IVar="2" Cut="8.8792204856872559e-01" cType="1" res="1.4621266163885593e-02" rms="4.1396510601043701e-01" purity="4.6515518426895142e-01" nType="0">
          <Node pos="l" depth="2" NCoef="0" IVar="-1" Cut="0.0000000000000000e+00" cType="1" res="-5.7180081494152546e-03" rms="3.6637938022613525e-01" purity="2.8136661648750305e-01" nType="-99"/>
          <Node pos="r" depth="2" NCoef="0" IVar="1" Cut="1.6455024480819702e+00" cType="1" res="2.7268255129456520e-02" rms="4.3201246857643127e-01" purity="5.4337310791015625e-01" nType="0">
            <Node pos="l" depth="3" NCoef="0" IVar="1" Cut="-8.6178177595138550e-01" cType="1" res="1.2822921387851238e-02" rms="4.2729189991950989e-01" purity="5.0749921798706055e-01" nType="0">
              <Node pos="l" depth="4" NCoef="0" IVar="-1" Cut="0.0000000000000000e+00" cType="1" res="6.2503428198397160e-03" rms="4.3519175052642822e-01" purity="5.4532861709594727e-01" nType="-99"/>
              <Node pos="r" depth="4" NCoef="0" IVar="-1" Cut="0.0000000000000000e+00" cType="1" res="-2.6980501133948565e-03" rms="4.1359874606132507e-01" purity="4.4751676917076111e-01" nType="-99"/>
            </Node>
            <Node pos="r" depth="3" NCoef="0" IVar="-1" Cut="0.0000000000000000e+00" cType="1" res="1.6356971114873886e-02" rms="4.4021752476692200e-01" purity="6.1866879463195801e-01" nType="-99"/>
          </Node>
        </Node>
        <Node pos="r" depth="1" NCoef="0" IVar="3" Cut="7.2834398437500000e+04" cType="1" res="-1.1940235272049904e-02" rms="4.2320922017097473e-01" purity="5.5857104063034058e-01" nType="0">
          <Node pos="l" depth="2" NCoef="0" IVar="-1" Cut="0.0000000000000000e+00" cType="1" res="2.4756554048508406e-03" rms="4.2233896255493164e-01" purity="5.0320965051651001e-01" nType="-99"/>
          <Node pos="r" depth="2" NCoef="0" IVar="8" Cut="2.9564321041107178e+00" cType="1" res="-2.4662334471940994e-02" rms="4.2323815822601318e-01" purity="5.9247446060180664e-01" nType="0">
            <Node pos="l" depth="3" NCoef="0" IVar="-1" Cut="0.0000000000000000e+00" cType="1" res="3.9406298310495913e-04" rms="4.3935525417327881e-01" purity="6.0160976648330688e-01" nType="-99"/>
            <Node pos="r" depth="3" NCoef="0" IVar="-1" Cut="0.0000000000000000e+00" cType="1" res="-9.3937916681170464e-03" rms="4.1042423248291016e-01" purity="5.8602225780487061e-01" nType="-99"/>
          </Node>
        </Node>
      </Node>
    </BinaryTree>
    <BinaryTree type="DecisionTree" boostWeight="1.0000000000000000e+00" itree="122">
      <Node pos="s" depth="0" NCoef="0" IVar="4" Cut="9.2353273437500000e+04" cType="1" res="1.0148693108931184e-03" rms="4.1444474458694458e-01" purity="5.0704848766326904e-01" nType="0">
        <Node pos="l" depth="1" NCoef="0" IVar="3" Cut="4.6312910156250000e+04" cType="1" res="0.0000000000000000e+00" rms="0.0000000000000000e+00" purity="4.7472015023231506e-01" nType="0">
          <Node pos="l" depth="2" NCoef="0" IVar="-1" Cut="0.0000000000000000e+00" cType="1" res="-1.2619582004845142e-02" rms="3.6816793680191040e-01" purity="2.3380069434642792e-01" nType="-99"/>
          <Node pos="r" depth="2" NCoef="0" IVar="0" Cut="2.5766156250000000e+05" cType="1" res="-1.5428734477609396e-03" rms="4.2132037878036499e-01" purity="5.0807416439056396e-01" nType="0">
            <Node pos="l" depth="3" NCoef="0" IVar="4" Cut="4.7603917968750000e+04" cType="1" res="0.0000000000000000e+00" rms="0.0000000000000000e+00" purity="5.9414321184158325e-01" nType="0">
              <Node pos="l" depth="4" NCoef="0" IVar="-1" Cut="0.0000000000000000e+00" cType="1" res="8.4230965003371239e-03" rms="4.4963315129280090e-01" purity="5.2001404762268066e-01" nType="-99"/>
              <Node pos="r" depth="4" NCoef="0" IVar="-1" Cut="0.0000000000000000e+00" cType="1" res="-8.5587752982974052e-04" rms="4.3683692812919617e-01" purity="6.2673145532608032e-01" nType="-99"/>
            </Node>
            <Node pos="r" depth="3" NCoef="0" IVar="-1" Cut="0.0000000000000000e+00" cType="1" res="-1.2475096620619297e-02" rms="3.4781202673912048e-01" purity="2.2675952315330505e-01" nType="-99"/>
          </Node>
        </Node>
        <Node pos="r" depth="1" NCoef="0" IVar="-1" Cut="0.0000000000000000e+00" cType="1" res="9.3063758686184883e-03" rms="4.0725806355476379e-01" purity="6.8745565414428711e-01" nType="-99"/>
      </Node>
    </BinaryTree>
    <BinaryTree type="DecisionTree" boostWeight="1.0000000000000000e+00" itree="123">
      <Node pos="s" depth="0" NCoef="0" IVar="7" Cut="3.6556512451171875e+02" cType="1" res="-2.1709580905735493e-03" rms="4.1836702823638916e-01" purity="5.0055354833602905e-01" nType="0">
        <Node pos="l" depth="1" NCoef="0" IVar="8" Cut="2.8268356323242188e+00" cType="1" res="-8.6261155083775520e-03" rms="4.2257839441299438e-01" purity="4.5537596940994263e-01" nType="0">
          <Node pos="l" depth="2" NCoef="0" IVar="-1" Cut="0.0000000000000000e+00" cType="1" res="-9.1834748163819313e-03" rms="4.4497442245483398e-01" purity="4.1883701086044312e-01" nType="-99"/>
          <Node pos="r" depth="2" NCoef="0" IVar="1" Cut="2.2440464496612549e+00" cType="1" res="-4.2143291793763638e-03" rms="4.1846969723701477e-01" purity="4.6162375807762146e-01" nType="0">
            <Node pos="l" depth="3" NCoef="0" IVar="7" Cut="1.6257252502441406e+02" cType="1" res="5.1881880499422550e-03" rms="4.2132711410522461e-01" purity="4.5829144120216370e-01" nType="0">
              <Node pos="l" depth="4" NCoef="0" IVar="-1" Cut="0.0000000000000000e+00" cType="1" res="-3.3306078985333443e-03" rms="3.8781476020812988e-01" purity="2.6194509863853455e-01" nType="-99"/>
              <Node pos="r" depth="4" NCoef="0" IVar="-1" Cut="0.0000000000000000e+00" cType="1" res="4.1008833795785904e-03" rms="4.3766498565673828e-01" purity="5.6197029352188110e-01" nType="-99"/>
            </Node>
            <Node pos="r" depth="3" NCoef="0" IVar="-1" Cut="0.0000000000000000e+00" cType="1" res="-1.0653891600668430e-02" rms="4.0730518102645874e-01" purity="4.7267040610313416e-01" nType="-99"/>
          </Node>
        </Node>
        <Node pos="r" depth="1" NCoef="0" IVar="-1" Cut="0.0000000000000000e+00" cType="1" res="9.4841010868549347e-03" rms="3.9788752794265747e-01" purity="7.0097780227661133e-01" nType="-99"/>
      </Node>
    </BinaryTree>
    <BinaryTree type="DecisionTree" boostWeight="1.0000000000000000e+00" itree="124">
      <Node pos="s" depth="0" NCoef="0" IVar="5" Cut="2.6993542480468750e+02" cType="1" res="-3.0108769424259663e-03" rms="4.1945359110832214e-01" purity="4.9511781334877014e-01" nType="0">
        <Node pos="l" depth="1" NCoef="0" IVar="1" Cut="2.5431864261627197e+00" cType="1" res="0.0000000000000000e+00" rms="0.0000000000000000e+00" purity="5.1115500926971436e-01" nType="0">
          <Node pos="l" depth="2" NCoef="0" IVar="5" Cut="1.7979429626464844e+02" cType="1" res="0.0000000000000000e+00" rms="0.0000000000000000e+00" purity="5.0195401906967163e-01" nType="0">
            <Node pos="l" depth="3" NCoef="0" IVar="1" Cut="-1.7884540557861328e+00" cType="1" res="1.0670736432075500e-02" rms="4.1402879357337952e-01" purity="5.3581959009170532e-01" nType="0">
              <Node pos="l" depth="4" NCoef="0" IVar="-1" Cut="0.0000000000000000e+00" cType="1" res="1.3575180433690548e-02" rms="4.2780703306198120e-01" purity="5.9188938140869141e-01" nType="-99"/>
              <Node pos="r" depth="4" NCoef="0" IVar="-1" Cut="0.0000000000000000e+00" cType="1" res="-1.2822147691622376e-03" rms="4.0576949715614319e-01" purity="5.0661367177963257e-01" nType="-99"/>
            </Node>
            <Node pos="r" depth="3" NCoef="0" IVar="2" Cut="1.3969715833663940e+00" cType="1" res="-1.5551628544926643e-02" rms="4.2528507113456726e-01" purity="4.6304517984390259e-01" nType="0">
              <Node pos="l" depth="4" NCoef="0" IVar="-1" Cut="0.0000000000000000e+00" cType="1" res="2.9808648396283388e-03" rms="3.9675846695899963e-01" purity="3.5844793915748596e-01" nType="-99"/>
              <Node pos="r" depth="4" NCoef="0" IVar="-1" Cut="0.0000000000000000e+00" cType="1" res="-7.2050252929329872e-03" rms="4.3940752744674683e-01" purity="5.2014249563217163e-01" nType="-99"/>
            </Node>
          </Node>
          <Node pos="r" depth="2" NCoef="0" IVar="-1" Cut="0.0000000000000000e+00" cType="1" res="8.7966835126280785e-03" rms="4.2278236150741577e-01" purity="5.5994296073913574e-01" nType="-99"/>
        </Node>
        <Node pos="r" depth="1" NCoef="0" IVar="-1" Cut="0.0000000000000000e+00" cType="1" res="-1.0092397220432758e-02" rms="4.1413274407386780e-01" purity="4.1430073976516724e-01" nType="-99"/>
      </Node>
    </BinaryTree>
    <BinaryTree type="DecisionTree" boostWeight="1.0000000000000000e+00" itree="125">
      <Node pos="s" depth="0" NCoef="0" IVar="9" Cut="4.0000000000000000e+00" cType="1" res="-2.3911769967526197e-03" rms="4.1631725430488586e-01" purity="4.9921011924743652e-01" nType="0">
        <Node pos="l" depth="1" NCoef="0" IVar="8" Cut="3.0932509899139404e+00" cType="1" res="0.0000000000000000e+00" rms="0.0000000000000000e+00" purity="4.6890783309936523e-01" nType="0">
          <Node pos="l" depth="2" NCoef="0" IVar="1" Cut="2.5429015159606934e+00" cType="1" res="0.0000000000000000e+00" rms="0.0000000000000000e+00" purity="4.5510542392730713e-01" nType="0">
            <Node pos="l" depth="3" NCoef="0" IVar="7" Cut="2.7689544677734375e+02" cType="1" res="-2.2970272228121758e-02" rms="4.2314684391021729e-01" purity="4.3681082129478455e-01" nType="0">
              <Node pos="l" depth="4" NCoef="0" IVar="-1" Cut="0.0000000000000000e+00" cType="1" res="-9.6782110631465912e-04" rms="4.2492577433586121e-01" purity="4.0409702062606812e-01" nType="-99"/>
              <Node pos="r" depth="4" NCoef="0" IVar="-1" Cut="0.0000000000000000e+00" cType="1" res="-4.0874718688428402e-03" rms="4.1628015041351318e-01" purity="5.0760746002197266e-01" nType="-99"/>
            </Node>
            <Node pos="r" depth="3" NCoef="0" IVar="-1" Cut="0.0000000000000000e+00" cType="1" res="6.7004356533288956e-03" rms="4.1995626688003540e-01" purity="5.3973853588104248e-01" nType="-99"/>
          </Node>
          <Node pos="r" depth="2" NCoef="0" IVar="-1" Cut="0.0000000000000000e+00" cType="1" res="7.9981377348303795e-03" rms="3.9789691567420959e-01" purity="5.2988475561141968e-01" nType="-99"/>
        </Node>
        <Node pos="r" depth="1" NCoef="0" IVar="-1" Cut="0.0000000000000000e+00" cType="1" res="6.3379062339663506e-03" rms="4.0517488121986389e-01" purity="6.2916731834411621e-01" nType="-99"/>
      </Node>
    </BinaryTree>
    <BinaryTree type="DecisionTree" boostWeight="1.0000000000000000e+00" itree="126">
      <Node pos="s" depth="0" NCoef="0" IVar="5" Cut="2.0879103088378906e+02" cType="1" res="0.0000000000000000e+00" rms="0.0000000000000000e+00" purity="4.8464989662170410e-01" nType="0">
        <Node pos="l" depth="1" NCoef="0" IVar="8" Cut="2.9881377220153809e+00" cType="1" res="-4.4847624376416206e-03" rms="4.1876780986785889e-01" purity="5.1981514692306519e-01" nType="0">
          <Node pos="l" depth="2" NCoef="0" IVar="9" Cut="3.0000000000000000e+00" cType="1" res="0.0000000000000000e+00" rms="0.0000000000000000e+00" purity="5.1727545261383057e-01" nType="0">
            <Node pos="l" depth="3" NCoef="0" IVar="-1" Cut="0.0000000000000000e+00" cType="1" res="1.0743137449026108e-02" rms="4.5283514261245728e-01" purity="4.9369597434997559e-01" nType="-99"/>
            <Node pos="r" depth="3" NCoef="0" IVar="-1" Cut="0.0000000000000000e+00" cType="1" res="-2.2544579114764929e-03" rms="4.3112701177597046e-01" purity="5.3424167633056641e-01" nType="-99"/>
          </Node>
          <Node pos="r" depth="2" NCoef="0" IVar="6" Cut="7.3962652683258057e-01" cType="1" res="-2.2704422473907471e-02" rms="3.9693939685821533e-01" purity="5.2205920219421387e-01" nType="0">
            <Node pos="l" depth="3" NCoef="0" IVar="8" Cut="3.0684897899627686e+00" cType="1" res="-9.7647681832313538e-03" rms="4.0451225638389587e-01" purity="6.0111385583877563e-01" nType="0">
              <Node pos="l" depth="4" NCoef="0" IVar="-1" Cut="0.0000000000000000e+00" cType="1" res="-6.6078770905733109e-03" rms="4.0473636984825134e-01" purity="5.7123517990112305e-01" nType="-99"/>
              <Node pos="r" depth="4" NCoef="0" IVar="-1" Cut="0.0000000000000000e+00" cType="1" res="1.6179863596335053e-03" rms="4.0377745032310486e-01" purity="6.3235324621200562e-01" nType="-99"/>
            </Node>
            <Node pos="r" depth="3" NCoef="0" IVar="-1" Cut="0.0000000000000000e+00" cType="1" res="-3.9699235931038857e-03" rms="3.8047036528587341e-01" purity="3.6784598231315613e-01" nType="-99"/>
          </Node>
        </Node>
        <Node pos="r" depth="1" NCoef="0" IVar="5" Cut="2.6075546264648438e+02" cType="1" res="-2.7381036430597305e-02" rms="4.1501179337501526e-01" purity="4.1691672801971436e-01" nType="0">
          <Node pos="l" depth="2" NCoef="0" IVar="-1" Cut="0.0000000000000000e+00" cType="1" res="-9.0466374531388283e-03" rms="4.0055042505264282e-01" purity="3.8991525769233704e-01" nType="-99"/>
          <Node pos="r" depth="2" NCoef="0" IVar="-1" Cut="0.0000000000000000e+00" cType="1" res="-2.6976161170750856e-03" rms="4.2727118730545044e-01" purity="4.4209545850753784e-01" nType="-99"/>
        </Node>
      </Node>
    </BinaryTree>
    <BinaryTree type="DecisionTree" boostWeight="1.0000000000000000e+00" itree="127">
      <Node pos="s" depth="0" NCoef="0" IVar="2" Cut="2.7386791706085205e+00" cType="1" res="-8.0725401639938354e-03" rms="4.1804319620132446e-01" purity="4.9245095252990723e-01" nType="0">
        <Node pos="l" depth="1" NCoef="0" IVar="2" Cut="1.7247146368026733e+00" cType="1" res="-1.6011698171496391e-02" rms="4.2013579607009888e-01" purity="4.6907246112823486e-01" nType="0">
          <Node pos="l" depth="2" NCoef="0" IVar="1" Cut="7.4775391817092896e-01" cType="1" res="-4.0423213504254818e-03" rms="4.0028044581413269e-01" purity="3.9800751209259033e-01" nType="0">
            <Node pos="l" depth="3" NCoef="0" IVar="2" Cut="1.0183624029159546e+00" cType="1" res="1.2239368632435799e-02" rms="4.0277540683746338e-01" purity="4.0248271822929382e-01" nType="0">
              <Node pos="l" depth="4" NCoef="0" IVar="-1" Cut="0.0000000000000000e+00" cType="1" res="-4.5144166797399521e-03" rms="3.7085336446762085e-01" purity="2.9281958937644958e-01" nType="-99"/>
              <Node pos="r" depth="4" NCoef="0" IVar="-1" Cut="0.0000000000000000e+00" cType="1" res="1.0497074574232101e-02" rms="4.3000981211662292e-01" purity="5.0748449563980103e-01" nType="-99"/>
            </Node>
            <Node pos="r" depth="3" NCoef="0" IVar="-1" Cut="0.0000000000000000e+00" cType="1" res="-1.0368618182837963e-02" rms="3.9557781815528870e-01" purity="3.9167270064353943e-01" nType="-99"/>
          </Node>
          <Node pos="r" depth="2" NCoef="0" IVar="7" Cut="2.1292384338378906e+02" cType="1" res="-3.2419729977846146e-02" rms="4.4539746642112732e-01" purity="5.6649065017700195e-01" nType="0">
            <Node pos="l" depth="3" NCoef="0" IVar="-1" Cut="0.0000000000000000e+00" cType="1" res="-1.7762406496331096e-03" rms="4.6374726295471191e-01" purity="4.4957733154296875e-01" nType="-99"/>
            <Node pos="r" depth="3" NCoef="0" IVar="-1" Cut="0.0000000000000000e+00" cType="1" res="-1.5553973615169525e-02" rms="4.3187540769577026e-01" purity="6.4541852474212646e-01" nType="-99"/>
          </Node>
        </Node>
        <Node pos="r" depth="1" NCoef="0" IVar="9" Cut="3.0000000000000000e+00" cType="1" res="1.7141997814178467e-02" rms="4.1025334596633911e-01" purity="5.6544804573059082e-01" nType="0">
          <Node pos="l" depth="2" NCoef="0" IVar="-1" Cut="0.0000000000000000e+00" cType="1" res="-6.1977450968697667e-04" rms="4.0581265091896057e-01" purity="4.8733031749725342e-01" nType="-99"/>
          <Node pos="r" depth="2" NCoef="0" IVar="-1" Cut="0.0000000000000000e+00" cType="1" res="9.7373798489570618e-03" rms="4.1364517807960510e-01" purity="6.3388180732727051e-01" nType="-99"/>
        </Node>
      </Node>
    </BinaryTree>
    <BinaryTree type="DecisionTree" boostWeight="1.0000000000000000e+00" itree="128">
      <Node pos="s" depth="0" NCoef="0" IVar="1" Cut="1.0468224287033081e+00" cType="1" res="0.0000000000000000e+00" rms="0.0000000000000000e+00" purity="4.9632325768470764e-01" nType="0">
        <Node pos="l" depth="1" NCoef="0" IVar="8" Cut="2.8434188365936279e+00" cType="1" res="-1.2780322693288326e-02" rms="4.1476386785507202e-01" purity="4.6803507208824158e-01" nType="0">
          <Node pos="l" depth="2" NCoef="0" IVar="-1" Cut="0.0000000000000000e+00" cType="1" res="-1.4349421486258507e-02" rms="4.3481156229972839e-01" purity="4.1723120212554932e-01" nType="-99"/>
          <Node pos="r" depth="2" NCoef="0" IVar="7" Cut="1.4764886474609375e+02" cType="1" res="-5.7756053283810616e-03" rms="4.0961551666259766e-01" purity="4.7992303967475891e-01" nType="0">
            <Node pos="l" depth="3" NCoef="0" IVar="-1" Cut="0.0000000000000000e+00" cType="1" res="-8.9480495080351830e-03" rms="3.6194321513175964e-01" purity="2.1224860846996307e-01" nType="-99"/>
            <Node pos="r" depth="3" NCoef="0" IVar="6" Cut="5.9839075803756714e-01" cType="1" res="7.7443574555218220e-03" rms="4.2487713694572449e-01" purity="5.7758110761642456e-01" nType="0">
              <Node pos="l" depth="4" NCoef="0" IVar="-1" Cut="0.0000000000000000e+00" cType="1" res="-4.8248018138110638e-03" rms="4.5226922631263733e-01" purity="4.7624152898788452e-01" nType="-99"/>
              <Node pos="r" depth="4" NCoef="0" IVar="-1" Cut="0.0000000000000000e+00" cType="1" res="7.2246142663061619e-03" rms="4.0954530239105225e-01" purity="6.2967324256896973e-01" nType="-99"/>
            </Node>
          </Node>
        </Node>
        <Node pos="r" depth="1" NCoef="0" IVar="6" Cut="7.1029299497604370e-01" cType="1" res="1.0208192281424999e-02" rms="4.1663590073585510e-01" purity="5.3870904445648193e-01" nType="0">
          <Node pos="l" depth="2" NCoef="0" IVar="6" Cut="5.9201163053512573e-01" cType="1" res="0.0000000000000000e+00" rms="0.0000000000000000e+00" purity="5.4121387004852295e-01" nType="0">
            <Node pos="l" depth="3" NCoef="0" IVar="-1" Cut="0.0000000000000000e+00" cType="1" res="5.7682525366544724e-03" rms="4.3631124496459961e-01" purity="4.8311850428581238e-01" nType="-99"/>
            <Node pos="r" depth="3" NCoef="0" IVar="-1" Cut="0.0000000000000000e+00" cType="1" res="-3.3799260854721069e-03" rms="4.0534165501594543e-01" purity="5.9269607067108154e-01" nType="-99"/>
          </Node>
          <Node pos="r" depth="2" NCoef="0" IVar="-1" Cut="0.0000000000000000e+00" cType="1" res="1.0460448451340199e-02" rms="4.0654540061950684e-01" purity="5.3259450197219849e-01" nType="-99"/>
        </Node>
      </Node>
    </BinaryTree>
    <BinaryTree type="DecisionTree" boostWeight="1.0000000000000000e+00" itree="129">
      <Node pos="s" depth="0" NCoef="0" IVar="1" Cut="-2.2435441017150879e+00" cType="1" res="1.2276229448616505e-02" rms="4.1732892394065857e-01" purity="5.1326221227645874e-01" nType="0">
        <Node pos="l" depth="1" NCoef="0" IVar="1" Cut="-2.7564527988433838e+00" cType="1" res="3.0914429575204849e-02" rms="4.1802504658699036e-01" purity="5.5276554822921753e-01" nType="0">
          <Node pos="l" depth="2" NCoef="0" IVar="-1" Cut="0.0000000000000000e+00" cType="1" res="3.6710065323859453e-03" rms="4.0755647420883179e-01" purity="5.0077092647552490e-01" nType="-99"/>
          <Node pos="r" depth="2" NCoef="0" IVar="-1" Cut="0.0000000000000000e+00" cType="1" res="1.3670083135366440e-02" rms="4.2566171288490295e-01" purity="5.9460657835006714e-01" nType="-99"/>
        </Node>
        <Node pos="r" depth="1" NCoef="0" IVar="9" Cut="3.0000000000000000e+00" cType="1" res="6.7714578472077847e-03" rms="4.1689956188201904e-01" purity="5.0140422582626343e-01" nType="0">
          <Node pos="l" depth="2" NCoef="0" IVar="2" Cut="1.1831187009811401e+00" cType="1" res="-5.1410817541182041e-03" rms="4.1526934504508972e-01" purity="4.0276446938514709e-01" nType="0">
            <Node pos="l" depth="3" NCoef="0" IVar="-1" Cut="0.0000000000000000e+00" cType="1" res="9.8691694438457489e-03" rms="3.7007597088813782e-01" purity="2.9644533991813660e-01" nType="-99"/>
            <Node pos="r" depth="3" NCoef="0" IVar="6" Cut="7.1072906255722046e-01" cType="1" res="-1.8788522109389305e-02" rms="4.3229141831398010e-01" purity="4.4785544276237488e-01" nType="0">
              <Node pos="l" depth="4" NCoef="0" IVar="-1" Cut="0.0000000000000000e+00" cType="1" res="-7.6570366509258747e-03" rms="4.3032702803611755e-01" purity="4.5375517010688782e-01" nType="-99"/>
              <Node pos="r" depth="4" NCoef="0" IVar="-1" Cut="0.0000000000000000e+00" cType="1" res="1.5722403768450022e-03" rms="4.3273681402206421e-01" purity="4.4219633936882019e-01" nType="-99"/>
            </Node>
          </Node>
          <Node pos="r" depth="2" NCoef="0" IVar="6" Cut="5.7584518194198608e-01" cType="1" res="1.6262425109744072e-02" rms="4.1807484626770020e-01" purity="5.8134174346923828e-01" nType="0">
            <Node pos="l" depth="3" NCoef="0" IVar="-1" Cut="0.0000000000000000e+00" cType="1" res="1.2921116314828396e-02" rms="4.5242470502853394e-01" purity="5.2477902173995972e-01" nType="-99"/>
            <Node pos="r" depth="3" NCoef="0" IVar="2" Cut="1.7521104812622070e+00" cType="1" res="-6.1374899814836681e-05" rms="3.9468064904212952e-01" purity="6.1598169803619385e-01" nType="0">
              <Node pos="l" depth="4" NCoef="0" IVar="-1" Cut="0.0000000000000000e+00" cType="1" res="-4.4079567305743694e-03" rms="3.8613414764404297e-01" purity="4.9844920635223389e-01" nType="-99"/>
              <Node pos="r" depth="4" NCoef="0" IVar="-1" Cut="0.0000000000000000e+00" cType="1" res="3.9237448945641518e-03" rms="4.0104338526725769e-01" purity="7.0923173427581787e-01" nType="-99"/>
            </Node>
          </Node>
        </Node>
      </Node>
    </BinaryTree>
    <BinaryTree type="DecisionTree" boostWeight="1.0000000000000000e+00" itree="130">
      <Node pos="s" depth="0" NCoef="0" IVar="8" Cut="3.0421931743621826e+00" cType="1" res="-5.3456723690032959e-03" rms="4.1718214750289917e-01" purity="4.9082005023956299e-01" nType="0">
        <Node pos="l" depth="1" NCoef="0" IVar="1" Cut="1.9442614316940308e+00" cType="1" res="0.0000000000000000e+00" rms="0.0000000000000000e+00" purity="4.9076268076896667e-01" nType="0">
          <Node pos="l" depth="2" NCoef="0" IVar="3" Cut="7.8136773437500000e+04" cType="1" res="-6.5445587970316410e-03" rms="4.2563423514366150e-01" purity="4.6308508515357971e-01" nType="0">
            <Node pos="l" depth="3" NCoef="0" IVar="-1" Cut="0.0000000000000000e+00" cType="1" res="-5.7904985733330250e-03" rms="4.1709756851196289e-01" purity="3.5581001639366150e-01" nType="-99"/>
            <Node pos="r" depth="3" NCoef="0" IVar="8" Cut="2.9071331024169922e+00" cType="1" res="5.0415997393429279e-03" rms="4.3203604221343994e-01" purity="5.4944705963134766e-01" nType="0">
              <Node pos="l" depth="4" NCoef="0" IVar="-1" Cut="0.0000000000000000e+00" cType="1" res="-6.1938478611409664e-03" rms="4.3930777907371521e-01" purity="4.9566158652305603e-01" nType="-99"/>
              <Node pos="r" depth="4" NCoef="0" IVar="-1" Cut="0.0000000000000000e+00" cType="1" res="9.7767999395728111e-03" rms="4.2348119616508484e-01" purity="5.9963452816009521e-01" nType="-99"/>
            </Node>
          </Node>
          <Node pos="r" depth="2" NCoef="0" IVar="-1" Cut="0.0000000000000000e+00" cType="1" res="1.1737491935491562e-02" rms="4.1988652944564819e-01" purity="5.5678230524063110e-01" nType="-99"/>
        </Node>
        <Node pos="r" depth="1" NCoef="0" IVar="2" Cut="1.6887875795364380e+00" cType="1" res="0.0000000000000000e+00" rms="0.0000000000000000e+00" purity="4.9091184139251709e-01" nType="0">
          <Node pos="l" depth="2" NCoef="0" IVar="-1" Cut="0.0000000000000000e+00" cType="1" res="6.3556833192706108e-03" rms="3.9250952005386353e-01" purity="4.4205406308174133e-01" nType="-99"/>
          <Node pos="r" depth="2" NCoef="0" IVar="-1" Cut="0.0000000000000000e+00" cType="1" res="-2.9575850348919630e-03" rms="4.0977603197097778e-01" purity="5.2282333374023438e-01" nType="-99"/>
        </Node>
      </Node>
    </BinaryTree>
    <BinaryTree type="DecisionTree" boostWeight="1.0000000000000000e+00" itree="131">
      <Node pos="s" depth="0" NCoef="0" IVar="6" Cut="5.9848946332931519e-01" cType="1" res="2.5510587729513645e-03" rms="4.1357541084289551e-01" purity="5.0170129537582397e-01" nType="0">
        <Node pos="l" depth="1" NCoef="0" IVar="0" Cut="2.2197239062500000e+05" cType="1" res="-1.2989964336156845e-02" rms="4.4120797514915466e-01" purity="4.4386887550354004e-01" nType="0">
          <Node pos="l" depth="2" NCoef="0" IVar="6" Cut="5.1331436634063721e-01" cType="1" res="0.0000000000000000e+00" rms="0.0000000000000000e+00" purity="4.7488728165626526e-01" nType="0">
            <Node pos="l" depth="3" NCoef="0" IVar="-1" Cut="0.0000000000000000e+00" cType="1" res="-1.4232234098017216e-02" rms="4.3279439210891724e-01" purity="3.4237012267112732e-01" nType="-99"/>
            <Node pos="r" depth="3" NCoef="0" IVar="-1" Cut="0.0000000000000000e+00" cType="1" res="-1.8777651712298393e-03" rms="4.5792806148529053e-01" purity="5.7957977056503296e-01" nType="-99"/>
          </Node>
          <Node pos="r" depth="2" NCoef="0" IVar="-1" Cut="0.0000000000000000e+00" cType="1" res="1.2862744741141796e-02" rms="4.2227897047996521e-01" purity="3.8825595378875732e-01" nType="-99"/>
        </Node>
        <Node pos="r" depth="1" NCoef="0" IVar="7" Cut="1.7243385314941406e+02" cType="1" res="0.0000000000000000e+00" rms="0.0000000000000000e+00" purity="5.3426903486251831e-01" nType="0">
          <Node pos="l" depth="2" NCoef="0" IVar="4" Cut="4.4732175781250000e+04" cType="1" res="-1.7418319359421730e-02" rms="3.8985246419906616e-01" purity="2.8745418787002563e-01" nType="0">
            <Node pos="l" depth="3" NCoef="0" IVar="-1" Cut="0.0000000000000000e+00" cType="1" res="2.6435709514771588e-05" rms="3.7051105499267578e-01" purity="2.3587588965892792e-01" nType="-99"/>
            <Node pos="r" depth="3" NCoef="0" IVar="-1" Cut="0.0000000000000000e+00" cType="1" res="-6.5110395662486553e-03" rms="4.0721386671066284e-01" purity="3.3808162808418274e-01" nType="-99"/>
          </Node>
          <Node pos="r" depth="2" NCoef="0" IVar="9" Cut="3.0000000000000000e+00" cType="1" res="2.6229387149214745e-02" rms="3.9955905079841614e-01" purity="6.6166448593139648e-01" nType="0">
            <Node pos="l" depth="3" NCoef="0" IVar="-1" Cut="0.0000000000000000e+00" cType="1" res="1.0902544483542442e-02" rms="4.1306090354919434e-01" purity="6.4367789030075073e-01" nType="-99"/>
            <Node pos="r" depth="3" NCoef="0" IVar="6" Cut="6.7549258470535278e-01" cType="1" res="1.2949193827807903e-02" rms="3.8844048976898193e-01" purity="6.7566943168640137e-01" nType="0">
              <Node pos="l" depth="4" NCoef="0" IVar="-1" Cut="0.0000000000000000e+00" cType="1" res="-2.0044462289661169e-03" rms="3.9508247375488281e-01" purity="6.7543548345565796e-01" nType="-99"/>
              <Node pos="r" depth="4" NCoef="0" IVar="-1" Cut="0.0000000000000000e+00" cType="1" res="1.0398240759968758e-02" rms="3.8056600093841553e-01" purity="6.7591142654418945e-01" nType="-99"/>
            </Node>
          </Node>
        </Node>
      </Node>
    </BinaryTree>
    <BinaryTree type="DecisionTree" boostWeight="1.0000000000000000e+00" itree="132">
      <Node pos="s" depth="0" NCoef="0" IVar="2" Cut="2.1492707729339600e+00" cType="1" res="-9.3425938393920660e-04" rms="4.1602659225463867e-01" purity="4.9923941493034363e-01" nType="0">
        <Node pos="l" depth="1" NCoef="0" IVar="3" Cut="6.0497847656250000e+04" cType="1" res="-8.6991600692272186e-03" rms="4.0810680389404297e-01" purity="4.3893423676490784e-01" nType="0">
          <Node pos="l" depth="2" NCoef="0" IVar="-1" Cut="0.0000000000000000e+00" cType="1" res="-2.1298732608556747e-03" rms="3.7258338928222656e-01" purity="2.2967129945755005e-01" nType="-99"/>
          <Node pos="r" depth="2" NCoef="0" IVar="4" Cut="7.2313359375000000e+04" cType="1" res="1.7595752142369747e-03" rms="4.1881105303764343e-01" purity="5.0901508331298828e-01" nType="0">
            <Node pos="l" depth="3" NCoef="0" IVar="9" Cut="3.0000000000000000e+00" cType="1" res="1.3724658638238907e-02" rms="4.1505283117294312e-01" purity="4.5865401625633240e-01" nType="0">
              <Node pos="l" depth="4" NCoef="0" IVar="-1" Cut="0.0000000000000000e+00" cType="1" res="1.1422267183661461e-02" rms="4.1655284166336060e-01" purity="4.1037327051162720e-01" nType="-99"/>
              <Node pos="r" depth="4" NCoef="0" IVar="-1" Cut="0.0000000000000000e+00" cType="1" res="-6.7868246696889400e-04" rms="4.1310304403305054e-01" purity="4.9946674704551697e-01" nType="-99"/>
            </Node>
            <Node pos="r" depth="3" NCoef="0" IVar="-1" Cut="0.0000000000000000e+00" cType="1" res="-5.0798142328858376e-03" rms="4.2362737655639648e-01" purity="5.8247298002243042e-01" nType="-99"/>
          </Node>
        </Node>
        <Node pos="r" depth="1" NCoef="0" IVar="5" Cut="1.9036524963378906e+02" cType="1" res="9.6182022243738174e-03" rms="4.2632725834846497e-01" purity="5.8119392395019531e-01" nType="0">
          <Node pos="l" depth="2" NCoef="0" IVar="6" Cut="6.5266096591949463e-01" cType="1" res="-8.7018627673387527e-03" rms="4.1671872138977051e-01" purity="5.9794658422470093e-01" nType="0">
            <Node pos="l" depth="3" NCoef="0" IVar="-1" Cut="0.0000000000000000e+00" cType="1" res="4.5738979242742062e-03" rms="4.2814767360687256e-01" purity="6.2363225221633911e-01" nType="-99"/>
            <Node pos="r" depth="3" NCoef="0" IVar="-1" Cut="0.0000000000000000e+00" cType="1" res="-5.6298309937119484e-03" rms="4.0349775552749634e-01" purity="5.7204049825668335e-01" nType="-99"/>
          </Node>
          <Node pos="r" depth="2" NCoef="0" IVar="-1" Cut="0.0000000000000000e+00" cType="1" res="9.3750581145286560e-03" rms="4.3693974614143372e-01" purity="5.6030189990997314e-01" nType="-99"/>
        </Node>
      </Node>
    </BinaryTree>
    <BinaryTree type="DecisionTree" boostWeight="1.0000000000000000e+00" itree="133">
      <Node pos="s" depth="0" NCoef="0" IVar="0" Cut="2.9262384375000000e+05" cType="1" res="-5.8841439895331860e-03" rms="4.1572901606559753e-01" purity="5.0141686201095581e-01" nType="0">
        <Node pos="l" depth="1" NCoef="0" IVar="0" Cut="1.3644557812500000e+05" cType="1" res="1.1883391998708248e-03" rms="4.3391999602317810e-01" purity="5.7614779472351074e-01" nType="0">
          <Node pos="l" depth="2" NCoef="0" IVar="-1" Cut="0.0000000000000000e+00" cType="1" res="-9.0122343972325325e-03" rms="4.6049043536186218e-01" purity="4.8699408769607544e-01" nType="-99"/>
          <Node pos="r" depth="2" NCoef="0" IVar="0" Cut="1.9594379687500000e+05" cType="1" res="1.0866510681807995e-02" rms="4.2782133817672729e-01" purity="5.9373044967651367e-01" nType="0">
            <Node pos="l" depth="3" NCoef="0" IVar="7" Cut="1.9418609619140625e+02" cType="1" res="2.2053854539990425e-02" rms="4.2786389589309692e-01" purity="6.3895261287689209e-01" nType="0">
              <Node pos="l" depth="4" NCoef="0" IVar="-1" Cut="0.0000000000000000e+00" cType="1" res="1.2277850881218910e-02" rms="4.5967316627502441e-01" purity="5.5295145511627197e-01" nType="-99"/>
              <Node pos="r" depth="4" NCoef="0" IVar="-1" Cut="0.0000000000000000e+00" cType="1" res="3.2556222868151963e-04" rms="4.1232639551162720e-01" purity="6.7412090301513672e-01" nType="-99"/>
            </Node>
            <Node pos="r" depth="3" NCoef="0" IVar="7" Cut="2.3329827880859375e+02" cType="1" res="-3.8031637668609619e-03" rms="4.2732197046279907e-01" purity="5.3443187475204468e-01" nType="0">
              <Node pos="l" depth="4" NCoef="0" IVar="-1" Cut="0.0000000000000000e+00" cType="1" res="-5.7742572389543056e-03" rms="4.3848785758018494e-01" purity="3.8652956485748291e-01" nType="-99"/>
              <Node pos="r" depth="4" NCoef="0" IVar="-1" Cut="0.0000000000000000e+00" cType="1" res="2.5518236216157675e-03" rms="4.1702285408973694e-01" purity="6.6192150115966797e-01" nType="-99"/>
            </Node>
          </Node>
        </Node>
        <Node pos="r" depth="1" NCoef="0" IVar="-1" Cut="0.0000000000000000e+00" cType="1" res="-2.6788834948092699e-03" rms="3.2699683308601379e-01" purity="1.8803419172763824e-01" nType="-99"/>
      </Node>
    </BinaryTree>
    <BinaryTree type="DecisionTree" boostWeight="1.0000000000000000e+00" itree="134">
      <Node pos="s" depth="0" NCoef="0" IVar="4" Cut="6.8506062500000000e+04" cType="1" res="-1.9048944814130664e-03" rms="4.1827014088630676e-01" purity="4.9682396650314331e-01" nType="0">
        <Node pos="l" depth="1" NCoef="0" IVar="6" Cut="5.6984734535217285e-01" cType="1" res="-1.0092532262206078e-02" rms="4.1427743434906006e-01" purity="4.1656112670898438e-01" nType="0">
          <Node pos="l" depth="2" NCoef="0" IVar="-1" Cut="0.0000000000000000e+00" cType="1" res="3.3481738064438105e-03" rms="4.3598929047584534e-01" purity="3.5896018147468567e-01" nType="-99"/>
          <Node pos="r" depth="2" NCoef="0" IVar="1" Cut="-2.2435207366943359e+00" cType="1" res="-1.6200030222535133e-02" rms="4.0847128629684448e-01" purity="4.3088161945343018e-01" nType="0">
            <Node pos="l" depth="3" NCoef="0" IVar="-1" Cut="0.0000000000000000e+00" cType="1" res="6.1420500278472900e-03" rms="4.2259511351585388e-01" purity="5.1933401823043823e-01" nType="-99"/>
            <Node pos="r" depth="3" NCoef="0" IVar="4" Cut="4.7858414062500000e+04" cType="1" res="0.0000000000000000e+00" rms="0.0000000000000000e+00" purity="4.0724056959152222e-01" nType="0">
              <Node pos="l" depth="4" NCoef="0" IVar="-1" Cut="0.0000000000000000e+00" cType="1" res="-4.5104576274752617e-03" rms="3.9628374576568604e-01" purity="3.5094249248504639e-01" nType="-99"/>
              <Node pos="r" depth="4" NCoef="0" IVar="-1" Cut="0.0000000000000000e+00" cType="1" res="-4.1684512980282307e-03" rms="4.1439336538314819e-01" purity="4.8627319931983948e-01" nType="-99"/>
            </Node>
          </Node>
        </Node>
        <Node pos="r" depth="1" NCoef="0" IVar="5" Cut="2.2419047546386719e+02" cType="1" res="1.2700187042355537e-02" rms="4.2490777373313904e-01" purity="6.3999658823013306e-01" nType="0">
          <Node pos="l" depth="2" NCoef="0" IVar="5" Cut="1.7448429870605469e+02" cType="1" res="-2.9052661266177893e-03" rms="4.1419100761413574e-01" purity="6.8299055099487305e-01" nType="0">
            <Node pos="l" depth="3" NCoef="0" IVar="-1" Cut="0.0000000000000000e+00" cType="1" res="1.5522994799539447e-03" rms="4.1406473517417908e-01" purity="7.1045565605163574e-01" nType="-99"/>
            <Node pos="r" depth="3" NCoef="0" IVar="-1" Cut="0.0000000000000000e+00" cType="1" res="-2.8865553904324770e-03" rms="4.1419449448585510e-01" purity="6.5481859445571899e-01" nType="-99"/>
          </Node>
          <Node pos="r" depth="2" NCoef="0" IVar="-1" Cut="0.0000000000000000e+00" cType="1" res="9.1493660584092140e-03" rms="4.4034743309020996e-01" purity="5.7129001617431641e-01" nType="-99"/>
        </Node>
      </Node>
    </BinaryTree>
    <BinaryTree type="DecisionTree" boostWeight="1.0000000000000000e+00" itree="135">
      <Node pos="s" depth="0" NCoef="0" IVar="1" Cut="2.2440047264099121e+00" cType="1" res="4.8425616696476936e-03" rms="4.2099243402481079e-01" purity="5.0927758216857910e-01" nType="0">
        <Node pos="l" depth="1" NCoef="0" IVar="8" Cut="3.0450265407562256e+00" cType="1" res="1.3685301877558231e-02" rms="4.1801744699478149e-01" purity="5.0950658321380615e-01" nType="0">
          <Node pos="l" depth="2" NCoef="0" IVar="6" Cut="6.5424954891204834e-01" cType="1" res="2.1308237686753273e-02" rms="4.2830294370651245e-01" purity="5.0201034545898438e-01" nType="0">
            <Node pos="l" depth="3" NCoef="0" IVar="0" Cut="1.8859604687500000e+05" cType="1" res="3.5021416842937469e-02" rms="4.3476322293281555e-01" purity="5.3115695714950562e-01" nType="0">
              <Node pos="l" depth="4" NCoef="0" IVar="-1" Cut="0.0000000000000000e+00" cType="1" res="1.7256343271583319e-03" rms="4.5406869053840637e-01" purity="5.5287218093872070e-01" nType="-99"/>
              <Node pos="r" depth="4" NCoef="0" IVar="-1" Cut="0.0000000000000000e+00" cType="1" res="1.8040517345070839e-02" rms="4.1427469253540039e-01" purity="5.1092296838760376e-01" nType="-99"/>
            </Node>
            <Node pos="r" depth="3" NCoef="0" IVar="4" Cut="4.6813261718750000e+04" cType="1" res="2.5312080979347229e-03" rms="4.1856753826141357e-01" purity="4.6210083365440369e-01" nType="0">
              <Node pos="l" depth="4" NCoef="0" IVar="-1" Cut="0.0000000000000000e+00" cType="1" res="5.8415792882442474e-03" rms="4.1440075635910034e-01" purity="3.4885868430137634e-01" nType="-99"/>
              <Node pos="r" depth="4" NCoef="0" IVar="-1" Cut="0.0000000000000000e+00" cType="1" res="-2.0766283851116896e-03" rms="4.2216211557388306e-01" purity="5.7218009233474731e-01" nType="-99"/>
            </Node>
          </Node>
          <Node pos="r" depth="2" NCoef="0" IVar="7" Cut="2.4094215393066406e+02" cType="1" res="0.0000000000000000e+00" rms="0.0000000000000000e+00" purity="5.2293765544891357e-01" nType="0">
            <Node pos="l" depth="3" NCoef="0" IVar="-1" Cut="0.0000000000000000e+00" cType="1" res="8.8559417054057121e-03" rms="4.0647932887077332e-01" purity="3.8968351483345032e-01" nType="-99"/>
            <Node pos="r" depth="3" NCoef="0" IVar="-1" Cut="0.0000000000000000e+00" cType="1" res="-2.4746940471231937e-03" rms="3.8667488098144531e-01" purity="6.8685555458068848e-01" nType="-99"/>
          </Node>
        </Node>
        <Node pos="r" depth="1" NCoef="0" IVar="1" Cut="2.7143850326538086e+00" cType="1" res="-2.6636626571416855e-02" rms="4.2994308471679688e-01" purity="5.0846225023269653e-01" nType="0">
          <Node pos="l" depth="2" NCoef="0" IVar="-1" Cut="0.0000000000000000e+00" cType="1" res="-1.7796691507101059e-02" rms="4.3012574315071106e-01" purity="5.0098252296447754e-01" nType="-99"/>
          <Node pos="r" depth="2" NCoef="0" IVar="-1" Cut="0.0000000000000000e+00" cType="1" res="-2.0230601076036692e-03" rms="4.2872640490531921e-01" purity="5.1505249738693237e-01" nType="-99"/>
        </Node>
      </Node>
    </BinaryTree>
    <BinaryTree type="DecisionTree" boostWeight="1.0000000000000000e+00" itree="136">
      <Node pos="s" depth="0" NCoef="0" IVar="6" Cut="5.4114663600921631e-01" cType="1" res="0.0000000000000000e+00" rms="0.0000000000000000e+00" purity="5.0813752412796021e-01" nType="0">
        <Node pos="l" depth="1" NCoef="0" IVar="5" Cut="1.9315438842773438e+02" cType="1" res="2.1557716652750969e-02" rms="4.4254824519157410e-01" purity="4.4256290793418884e-01" nType="0">
          <Node pos="l" depth="2" NCoef="0" IVar="-1" Cut="0.0000000000000000e+00" cType="1" res="1.1392208747565746e-02" rms="4.4243022799491882e-01" purity="5.1491934061050415e-01" nType="-99"/>
          <Node pos="r" depth="2" NCoef="0" IVar="-1" Cut="0.0000000000000000e+00" cType="1" res="3.2240652944892645e-04" rms="4.4179204106330872e-01" purity="3.6748924851417542e-01" nType="-99"/>
        </Node>
        <Node pos="r" depth="1" NCoef="0" IVar="7" Cut="2.6916168212890625e+02" cType="1" res="0.0000000000000000e+00" rms="0.0000000000000000e+00" purity="5.2511054277420044e-01" nType="0">
          <Node pos="l" depth="2" NCoef="0" IVar="1" Cut="-1.6454612016677856e+00" cType="1" res="-1.2914985418319702e-02" rms="4.2518749833106995e-01" purity="4.1687509417533875e-01" nType="0">
            <Node pos="l" depth="3" NCoef="0" IVar="-1" Cut="0.0000000000000000e+00" cType="1" res="-6.1697354540228844e-03" rms="4.4215539097785950e-01" purity="4.2737001180648804e-01" nType="-99"/>
            <Node pos="r" depth="3" NCoef="0" IVar="8" Cut="3.0462565422058105e+00" cType="1" res="0.0000000000000000e+00" rms="0.0000000000000000e+00" purity="4.1132208704948425e-01" nType="0">
              <Node pos="l" depth="4" NCoef="0" IVar="-1" Cut="0.0000000000000000e+00" cType="1" res="-6.0630654916167259e-03" rms="4.1719371080398560e-01" purity="3.8661557435989380e-01" nType="-99"/>
              <Node pos="r" depth="4" NCoef="0" IVar="-1" Cut="0.0000000000000000e+00" cType="1" res="7.3646977543830872e-03" rms="4.1194266080856323e-01" purity="4.4458624720573425e-01" nType="-99"/>
            </Node>
          </Node>
          <Node pos="r" depth="2" NCoef="0" IVar="4" Cut="5.9720937500000000e+04" cType="1" res="1.2966476380825043e-02" rms="3.8680294156074524e-01" purity="7.2714895009994507e-01" nType="0">
            <Node pos="l" depth="3" NCoef="0" IVar="-1" Cut="0.0000000000000000e+00" cType="1" res="1.2612765654921532e-02" rms="4.0389710664749146e-01" purity="6.5624004602432251e-01" nType="-99"/>
            <Node pos="r" depth="3" NCoef="0" IVar="-1" Cut="0.0000000000000000e+00" cType="1" res="-4.5837622019462287e-04" rms="3.7424564361572266e-01" purity="7.7454775571823120e-01" nType="-99"/>
          </Node>
        </Node>
      </Node>
    </BinaryTree>
    <BinaryTree type="DecisionTree" boostWeight="1.0000000000000000e+00" itree="137">
      <Node pos="s" depth="0" NCoef="0" IVar="4" Cut="5.8764496093750000e+04" cType="1" res="-9.1373603790998459e-03" rms="4.2157429456710815e-01" purity="4.9755078554153442e-01" nType="0">
        <Node pos="l" depth="1" NCoef="0" IVar="2" Cut="1.5920032262802124e+00" cType="1" res="-2.2018391638994217e-02" rms="4.1568347811698914e-01" purity="3.9096203446388245e-01" nType="0">
          <Node pos="l" depth="2" NCoef="0" IVar="8" Cut="2.9967031478881836e+00" cType="1" res="-2.3562477435916662e-03" rms="3.8141405582427979e-01" purity="2.7785274386405945e-01" nType="0">
            <Node pos="l" depth="3" NCoef="0" IVar="-1" Cut="0.0000000000000000e+00" cType="1" res="-4.1652978397905827e-03" rms="3.8463044166564941e-01" purity="2.6102152466773987e-01" nType="-99"/>
            <Node pos="r" depth="3" NCoef="0" IVar="-1" Cut="0.0000000000000000e+00" cType="1" res="4.1768616065382957e-03" rms="3.7786301970481873e-01" purity="2.9471549391746521e-01" nType="-99"/>
          </Node>
          <Node pos="r" depth="2" NCoef="0" IVar="6" Cut="6.5568882226943970e-01" cType="1" res="-3.4585855901241302e-02" rms="4.3571472167968750e-01" purity="4.6325814723968506e-01" nType="0">
            <Node pos="l" depth="3" NCoef="0" IVar="-1" Cut="0.0000000000000000e+00" cType="1" res="-2.5066665839403868e-03" rms="4.3405592441558838e-01" purity="4.6656131744384766e-01" nType="-99"/>
            <Node pos="r" depth="3" NCoef="0" IVar="-1" Cut="0.0000000000000000e+00" cType="1" res="-1.3152064755558968e-02" rms="4.3597647547721863e-01" purity="4.6116444468498230e-01" nType="-99"/>
          </Node>
        </Node>
        <Node pos="r" depth="1" NCoef="0" IVar="8" Cut="2.8598091602325439e+00" cType="1" res="4.7371359542012215e-03" rms="4.2739465832710266e-01" purity="6.1236035823822021e-01" nType="0">
          <Node pos="l" depth="2" NCoef="0" IVar="-1" Cut="0.0000000000000000e+00" cType="1" res="8.5565177723765373e-03" rms="4.5088899135589600e-01" purity="6.0292041301727295e-01" nType="-99"/>
          <Node pos="r" depth="2" NCoef="0" IVar="9" Cut="3.0000000000000000e+00" cType="1" res="-5.6719165295362473e-03" rms="4.1876220703125000e-01" purity="6.1549669504165649e-01" nType="0">
            <Node pos="l" depth="3" NCoef="0" IVar="-1" Cut="0.0000000000000000e+00" cType="1" res="-8.8693555444478989e-03" rms="4.3296438455581665e-01" purity="4.9472418427467346e-01" nType="-99"/>
            <Node pos="r" depth="3" NCoef="0" IVar="-1" Cut="0.0000000000000000e+00" cType="1" res="4.5264628715813160e-03" rms="4.0829831361770630e-01" purity="6.9173640012741089e-01" nType="-99"/>
          </Node>
        </Node>
      </Node>
    </BinaryTree>
    <BinaryTree type="DecisionTree" boostWeight="1.0000000000000000e+00" itree="138">
      <Node pos="s" depth="0" NCoef="0" IVar="8" Cut="2.8433980941772461e+00" cType="1" res="-1.0517745278775692e-02" rms="4.1709887981414795e-01" purity="4.8841726779937744e-01" nType="0">
        <Node pos="l" depth="1" NCoef="0" IVar="-1" Cut="0.0000000000000000e+00" cType="1" res="5.4245055653154850e-03" rms="4.4218516349792480e-01" purity="4.9006125330924988e-01" nType="-99"/>
        <Node pos="r" depth="1" NCoef="0" IVar="1" Cut="-1.6441133022308350e+00" cType="1" res="-1.7780378460884094e-02" rms="4.1018909215927124e-01" purity="4.8800119757652283e-01" nType="0">
          <Node pos="l" depth="2" NCoef="0" IVar="9" Cut="3.0000000000000000e+00" cType="1" res="-3.4722603857517242e-02" rms="4.1801396012306213e-01" purity="4.8286521434783936e-01" nType="0">
            <Node pos="l" depth="3" NCoef="0" IVar="-1" Cut="0.0000000000000000e+00" cType="1" res="-1.8030747305601835e-03" rms="4.3271136283874512e-01" purity="4.5059350132942200e-01" nType="-99"/>
            <Node pos="r" depth="3" NCoef="0" IVar="-1" Cut="0.0000000000000000e+00" cType="1" res="-5.2826148457825184e-03" rms="4.0263253450393677e-01" purity="5.1356762647628784e-01" nType="-99"/>
          </Node>
          <Node pos="r" depth="2" NCoef="0" IVar="6" Cut="5.7015347480773926e-01" cType="1" res="-9.9255368113517761e-03" rms="4.0611028671264648e-01" purity="4.9040219187736511e-01" nType="0">
            <Node pos="l" depth="3" NCoef="0" IVar="-1" Cut="0.0000000000000000e+00" cType="1" res="-1.2486767023801804e-02" rms="4.3132886290550232e-01" purity="3.9732310175895691e-01" nType="-99"/>
            <Node pos="r" depth="3" NCoef="0" IVar="6" Cut="7.7258908748626709e-01" cType="1" res="8.0993493611458689e-05" rms="3.9778473973274231e-01" purity="5.1796853542327881e-01" nType="0">
              <Node pos="l" depth="4" NCoef="0" IVar="-1" Cut="0.0000000000000000e+00" cType="1" res="3.5226016771048307e-03" rms="3.9965155720710754e-01" purity="6.0022747516632080e-01" nType="-99"/>
              <Node pos="r" depth="4" NCoef="0" IVar="-1" Cut="0.0000000000000000e+00" cType="1" res="-8.5955616086721420e-03" rms="3.9211404323577881e-01" purity="3.1839829683303833e-01" nType="-99"/>
            </Node>
          </Node>
        </Node>
      </Node>
    </BinaryTree>
    <BinaryTree type="DecisionTree" boostWeight="1.0000000000000000e+00" itree="139">
      <Node pos="s" depth="0" NCoef="0" IVar="2" Cut="8.9957475662231445e-01" cType="1" res="-3.4802355803549290e-03" rms="4.1998630762100220e-01" purity="4.9993735551834106e-01" nType="0">
        <Node pos="l" depth="1" NCoef="0" IVar="-1" Cut="0.0000000000000000e+00" cType="1" res="-1.2778644450008869e-02" rms="3.5007983446121216e-01" purity="2.6136612892150879e-01" nType="-99"/>
        <Node pos="r" depth="1" NCoef="0" IVar="9" Cut="2.0000000000000000e+00" cType="1" res="1.3610448222607374e-03" rms="4.3272653222084045e-01" purity="5.4893207550048828e-01" nType="0">
          <Node pos="l" depth="2" NCoef="0" IVar="-1" Cut="0.0000000000000000e+00" cType="1" res="-5.5549321696162224e-03" rms="4.2739596962928772e-01" purity="3.5485860705375671e-01" nType="-99"/>
          <Node pos="r" depth="2" NCoef="0" IVar="3" Cut="9.9652320312500000e+04" cType="1" res="7.7644595876336098e-03" rms="4.3339404463768005e-01" purity="5.8253842592239380e-01" nType="0">
            <Node pos="l" depth="3" NCoef="0" IVar="2" Cut="2.7157104015350342e+00" cType="1" res="1.9257843494415283e-02" rms="4.3252912163734436e-01" purity="5.5133110284805298e-01" nType="0">
              <Node pos="l" depth="4" NCoef="0" IVar="-1" Cut="0.0000000000000000e+00" cType="1" res="9.3512097373604774e-03" rms="4.3833720684051514e-01" purity="5.5625748634338379e-01" nType="-99"/>
              <Node pos="r" depth="4" NCoef="0" IVar="-1" Cut="0.0000000000000000e+00" cType="1" res="-1.0060733184218407e-03" rms="4.1735374927520752e-01" purity="5.3950476646423340e-01" nType="-99"/>
            </Node>
            <Node pos="r" depth="3" NCoef="0" IVar="4" Cut="8.4779132812500000e+04" cType="1" res="0.0000000000000000e+00" rms="0.0000000000000000e+00" purity="6.3976365327835083e-01" nType="0">
              <Node pos="l" depth="4" NCoef="0" IVar="-1" Cut="0.0000000000000000e+00" cType="1" res="-1.9620074890553951e-03" rms="4.4002935290336609e-01" purity="5.9867066144943237e-01" nType="-99"/>
              <Node pos="r" depth="4" NCoef="0" IVar="-1" Cut="0.0000000000000000e+00" cType="1" res="-4.4779297895729542e-03" rms="4.2860144376754761e-01" purity="6.7784911394119263e-01" nType="-99"/>
            </Node>
          </Node>
        </Node>
      </Node>
    </BinaryTree>
    <BinaryTree type="DecisionTree" boostWeight="1.0000000000000000e+00" itree="140">
      <Node pos="s" depth="0" NCoef="0" IVar="0" Cut="3.4396406250000000e+05" cType="1" res="-1.0866731405258179e-02" rms="4.1415113210678101e-01" purity="4.8754400014877319e-01" nType="0">
        <Node pos="l" depth="1" NCoef="0" IVar="6" Cut="7.4024826288223267e-01" cType="1" res="-1.8706226255744696e-03" rms="4.2947661876678467e-01" purity="5.4773229360580444e-01" nType="0">
          <Node pos="l" depth="2" NCoef="0" IVar="1" Cut="-1.6441133022308350e+00" cType="1" res="-9.0265069156885147e-03" rms="4.3179792165756226e-01" purity="5.6697493791580200e-01" nType="0">
            <Node pos="l" depth="3" NCoef="0" IVar="2" Cut="1.9432452917098999e+00" cType="1" res="0.0000000000000000e+00" rms="0.0000000000000000e+00" purity="5.4207760095596313e-01" nType="0">
              <Node pos="l" depth="4" NCoef="0" IVar="-1" Cut="0.0000000000000000e+00" cType="1" res="-7.0966915227472782e-03" rms="4.3957352638244629e-01" purity="5.0281691551208496e-01" nType="-99"/>
              <Node pos="r" depth="4" NCoef="0" IVar="-1" Cut="0.0000000000000000e+00" cType="1" res="-5.6688007898628712e-03" rms="4.4578167796134949e-01" purity="5.7924169301986694e-01" nType="-99"/>
            </Node>
            <Node pos="r" depth="3" NCoef="0" IVar="8" Cut="2.8858098983764648e+00" cType="1" res="1.1633425019681454e-03" rms="4.2576548457145691e-01" purity="5.7953232526779175e-01" nType="0">
              <Node pos="l" depth="4" NCoef="0" IVar="-1" Cut="0.0000000000000000e+00" cType="1" res="-7.6869810000061989e-03" rms="4.4331383705139160e-01" purity="4.6907138824462891e-01" nType="-99"/>
              <Node pos="r" depth="4" NCoef="0" IVar="-1" Cut="0.0000000000000000e+00" cType="1" res="3.9425590075552464e-03" rms="4.1701605916023254e-01" purity="6.2905114889144897e-01" nType="-99"/>
            </Node>
          </Node>
          <Node pos="r" depth="2" NCoef="0" IVar="4" Cut="4.3055167968750000e+04" cType="1" res="1.9841637462377548e-02" rms="4.2161262035369873e-01" purity="4.8934665322303772e-01" nType="0">
            <Node pos="l" depth="3" NCoef="0" IVar="-1" Cut="0.0000000000000000e+00" cType="1" res="1.5259040519595146e-02" rms="4.2379784584045410e-01" purity="4.2552617192268372e-01" nType="-99"/>
            <Node pos="r" depth="3" NCoef="0" IVar="-1" Cut="0.0000000000000000e+00" cType="1" res="-4.8043634742498398e-03" rms="4.1628748178482056e-01" purity="5.5311036109924316e-01" nType="-99"/>
          </Node>
        </Node>
        <Node pos="r" depth="1" NCoef="0" IVar="-1" Cut="0.0000000000000000e+00" cType="1" res="-1.9851983524858952e-03" rms="2.9919749498367310e-01" purity="1.2198638170957565e-01" nType="-99"/>
      </Node>
    </BinaryTree>
    <BinaryTree type="DecisionTree" boostWeight="1.0000000000000000e+00" itree="141">
      <Node pos="s" depth="0" NCoef="0" IVar="2" Cut="1.1337559223175049e+00" cType="1" res="-8.2814404740929604e-03" rms="4.1882351040840149e-01" purity="4.9088019132614136e-01" nType="0">
        <Node pos="l" depth="1" NCoef="0" IVar="9" Cut="3.0000000000000000e+00" cType="1" res="1.4262099750339985e-02" rms="3.8225141167640686e-01" purity="3.4300243854522705e-01" nType="0">
          <Node pos="l" depth="2" NCoef="0" IVar="-1" Cut="0.0000000000000000e+00" cType="1" res="1.4647372066974640e-02" rms="3.8708937168121338e-01" purity="3.1615206599235535e-01" nType="-99"/>
          <Node pos="r" depth="2" NCoef="0" IVar="-1" Cut="0.0000000000000000e+00" cType="1" res="-2.6430657599121332e-03" rms="3.7691736221313477e-01" purity="3.6506712436676025e-01" nType="-99"/>
        </Node>
        <Node pos="r" depth="1" NCoef="0" IVar="7" Cut="2.8012097167968750e+02" cType="1" res="-1.6433550044894218e-02" rms="4.3106552958488464e-01" purity="5.4476416110992432e-01" nType="0">
          <Node pos="l" depth="2" NCoef="0" IVar="1" Cut="-1.3460235595703125e+00" cType="1" res="-5.3996606729924679e-03" rms="4.3893477320671082e-01" purity="4.8166424036026001e-01" nType="0">
            <Node pos="l" depth="3" NCoef="0" IVar="-1" Cut="0.0000000000000000e+00" cType="1" res="-5.7063866406679153e-03" rms="4.5165774226188660e-01" purity="4.5603886246681213e-01" nType="-99"/>
            <Node pos="r" depth="3" NCoef="0" IVar="1" Cut="2.2868840694427490e+00" cType="1" res="0.0000000000000000e+00" rms="0.0000000000000000e+00" purity="4.9697381258010864e-01" nType="0">
              <Node pos="l" depth="4" NCoef="0" IVar="-1" Cut="0.0000000000000000e+00" cType="1" res="6.3867419958114624e-03" rms="4.2140409350395203e-01" purity="4.7087314724922180e-01" nType="-99"/>
              <Node pos="r" depth="4" NCoef="0" IVar="-1" Cut="0.0000000000000000e+00" cType="1" res="-2.4986607022583485e-03" rms="4.4359362125396729e-01" purity="5.3806060552597046e-01" nType="-99"/>
            </Node>
          </Node>
          <Node pos="r" depth="2" NCoef="0" IVar="9" Cut="4.0000000000000000e+00" cType="1" res="-3.4713178873062134e-02" rms="4.1664993762969971e-01" purity="6.5021330118179321e-01" nType="0">
            <Node pos="l" depth="3" NCoef="0" IVar="-1" Cut="0.0000000000000000e+00" cType="1" res="-6.2323552556335926e-03" rms="4.2451959848403931e-01" purity="6.0997611284255981e-01" nType="-99"/>
            <Node pos="r" depth="3" NCoef="0" IVar="-1" Cut="0.0000000000000000e+00" cType="1" res="1.1097051901742816e-03" rms="4.0183725953102112e-01" purity="7.1322244405746460e-01" nType="-99"/>
          </Node>
        </Node>
      </Node>
    </BinaryTree>
    <BinaryTree type="DecisionTree" boostWeight="1.0000000000000000e+00" itree="142">
      <Node pos="s" depth="0" NCoef="0" IVar="2" Cut="1.6309695243835449e+00" cType="1" res="-1.8673436716198921e-03" rms="4.1322416067123413e-01" purity="5.0094521045684814e-01" nType="0">
        <Node pos="l" depth="1" NCoef="0" IVar="5" Cut="2.0700048828125000e+02" cType="1" res="0.0000000000000000e+00" rms="0.0000000000000000e+00" purity="3.7232437729835510e-01" nType="0">
          <Node pos="l" depth="2" NCoef="0" IVar="1" Cut="4.4755083322525024e-01" cType="1" res="0.0000000000000000e+00" rms="0.0000000000000000e+00" purity="4.1543516516685486e-01" nType="0">
            <Node pos="l" depth="3" NCoef="0" IVar="-1" Cut="0.0000000000000000e+00" cType="1" res="-6.1271102167665958e-03" rms="3.9293980598449707e-01" purity="3.9547395706176758e-01" nType="-99"/>
            <Node pos="r" depth="3" NCoef="0" IVar="-1" Cut="0.0000000000000000e+00" cType="1" res="1.7148848855867982e-03" rms="4.0527853369712830e-01" purity="4.3967393040657043e-01" nType="-99"/>
          </Node>
          <Node pos="r" depth="2" NCoef="0" IVar="-1" Cut="0.0000000000000000e+00" cType="1" res="-1.0503718629479408e-02" rms="3.7374305725097656e-01" purity="2.9712095856666565e-01" nType="-99"/>
        </Node>
        <Node pos="r" depth="1" NCoef="0" IVar="8" Cut="2.9537258148193359e+00" cType="1" res="0.0000000000000000e+00" rms="0.0000000000000000e+00" purity="5.9127312898635864e-01" nType="0">
          <Node pos="l" depth="2" NCoef="0" IVar="1" Cut="1.5147170424461365e-01" cType="1" res="3.7723556160926819e-02" rms="4.4449001550674438e-01" purity="5.9471088647842407e-01" nType="0">
            <Node pos="l" depth="3" NCoef="0" IVar="-1" Cut="0.0000000000000000e+00" cType="1" res="8.6889732629060745e-03" rms="4.3956762552261353e-01" purity="5.8764696121215820e-01" nType="-99"/>
            <Node pos="r" depth="3" NCoef="0" IVar="-1" Cut="0.0000000000000000e+00" cType="1" res="1.0806335136294365e-02" rms="4.4950935244560242e-01" purity="6.0202157497406006e-01" nType="-99"/>
          </Node>
          <Node pos="r" depth="2" NCoef="0" IVar="6" Cut="7.3902487754821777e-01" cType="1" res="-7.7738808467984200e-03" rms="4.1754126548767090e-01" purity="5.8921992778778076e-01" nType="0">
            <Node pos="l" depth="3" NCoef="0" IVar="1" Cut="-7.4692565202713013e-01" cType="1" res="-1.8726423382759094e-02" rms="4.2598989605903625e-01" purity="5.9989631175994873e-01" nType="0">
              <Node pos="l" depth="4" NCoef="0" IVar="-1" Cut="0.0000000000000000e+00" cType="1" res="-1.2717942707240582e-02" rms="4.3231618404388428e-01" purity="5.6254684925079346e-01" nType="-99"/>
              <Node pos="r" depth="4" NCoef="0" IVar="-1" Cut="0.0000000000000000e+00" cType="1" res="-3.8868904812261462e-04" rms="4.2054054141044617e-01" purity="6.2677878141403198e-01" nType="-99"/>
            </Node>
            <Node pos="r" depth="3" NCoef="0" IVar="-1" Cut="0.0000000000000000e+00" cType="1" res="5.1658041775226593e-03" rms="3.9564093947410583e-01" purity="5.6397062540054321e-01" nType="-99"/>
          </Node>
        </Node>
      </Node>
    </BinaryTree>
    <BinaryTree type="DecisionTree" boostWeight="1.0000000000000000e+00" itree="143">
      <Node pos="s" depth="0" NCoef="0" IVar="2" Cut="3.0048375129699707e+00" cType="1" res="-1.2892065569758415e-02" rms="4.1506725549697876e-01" purity="4.8930302262306213e-01" nType="0">
        <Node pos="l" depth="1" NCoef="0" IVar="1" Cut="2.2440712451934814e+00" cType="1" res="-5.9621264226734638e-03" rms="4.1460824012756348e-01" purity="4.9294385313987732e-01" nType="0">
          <Node pos="l" depth="2" NCoef="0" IVar="8" Cut="2.8036835193634033e+00" cType="1" res="-1.3349270448088646e-02" rms="4.1265681385993958e-01" purity="4.7668188810348511e-01" nType="0">
            <Node pos="l" depth="3" NCoef="0" IVar="-1" Cut="0.0000000000000000e+00" cType="1" res="5.7411729358136654e-03" rms="4.2845204472541809e-01" purity="4.8256969451904297e-01" nType="-99"/>
            <Node pos="r" depth="3" NCoef="0" IVar="7" Cut="2.8452832031250000e+02" cType="1" res="-1.9281975924968719e-02" rms="4.0943947434425354e-01" purity="4.7561106085777283e-01" nType="0">
              <Node pos="l" depth="4" NCoef="0" IVar="-1" Cut="0.0000000000000000e+00" cType="1" res="-1.6708564944565296e-03" rms="4.1553074121475220e-01" purity="4.0645623207092285e-01" nType="-99"/>
              <Node pos="r" depth="4" NCoef="0" IVar="-1" Cut="0.0000000000000000e+00" cType="1" res="-3.2958558294922113e-03" rms="3.9608311653137207e-01" purity="6.0833936929702759e-01" nType="-99"/>
            </Node>
          </Node>
          <Node pos="r" depth="2" NCoef="0" IVar="-1" Cut="0.0000000000000000e+00" cType="1" res="5.7161841541528702e-03" rms="4.2000561952590942e-01" purity="5.4595518112182617e-01" nType="-99"/>
        </Node>
        <Node pos="r" depth="1" NCoef="0" IVar="-1" Cut="0.0000000000000000e+00" cType="1" res="-8.2798814401030540e-03" rms="4.1534537076950073e-01" purity="4.6692034602165222e-01" nType="-99"/>
      </Node>
    </BinaryTree>
    <BinaryTree type="DecisionTree" boostWeight="1.0000000000000000e+00" itree="144">
      <Node pos="s" depth="0" NCoef="0" IVar="9" Cut="2.0000000000000000e+00" cType="1" res="0.0000000000000000e+00" rms="0.0000000000000000e+00" purity="5.0880193710327148e-01" nType="0">
        <Node pos="l" depth="1" NCoef="0" IVar="-1" Cut="0.0000000000000000e+00" cType="1" res="9.0011013671755791e-03" rms="4.2195150256156921e-01" purity="4.2839467525482178e-01" nType="-99"/>
        <Node pos="r" depth="1" NCoef="0" IVar="9" Cut="4.0000000000000000e+00" cType="1" res="-2.8066295199096203e-03" rms="4.1651841998100281e-01" purity="5.2102935314178467e-01" nType="0">
          <Node pos="l" depth="2" NCoef="0" IVar="3" Cut="6.2622671875000000e+04" cType="1" res="-1.0601291432976723e-02" rms="4.2023426294326782e-01" purity="4.8666974902153015e-01" nType="0">
            <Node pos="l" depth="3" NCoef="0" IVar="-1" Cut="0.0000000000000000e+00" cType="1" res="5.5317212827503681e-03" rms="4.0312865376472473e-01" purity="3.7199261784553528e-01" nType="-99"/>
            <Node pos="r" depth="3" NCoef="0" IVar="1" Cut="-2.2433941364288330e+00" cType="1" res="-2.0680593326687813e-02" rms="4.2613121867179871e-01" purity="5.3030866384506226e-01" nType="0">
              <Node pos="l" depth="4" NCoef="0" IVar="-1" Cut="0.0000000000000000e+00" cType="1" res="3.1982534565031528e-03" rms="4.3074113130569458e-01" purity="5.6352287530899048e-01" nType="-99"/>
              <Node pos="r" depth="4" NCoef="0" IVar="-1" Cut="0.0000000000000000e+00" cType="1" res="-8.6161121726036072e-03" rms="4.2421954870223999e-01" purity="5.1984959840774536e-01" nType="-99"/>
            </Node>
          </Node>
          <Node pos="r" depth="2" NCoef="0" IVar="-1" Cut="0.0000000000000000e+00" cType="1" res="7.8241182491183281e-03" rms="4.0313601493835449e-01" purity="6.3483124971389771e-01" nType="-99"/>
        </Node>
      </Node>
    </BinaryTree>
    <BinaryTree type="DecisionTree" boostWeight="1.0000000000000000e+00" itree="145">
      <Node pos="s" depth="0" NCoef="0" IVar="5" Cut="2.9068255615234375e+02" cType="1" res="-8.3382697775959969e-03" rms="4.1981095075607300e-01" purity="4.9876075983047485e-01" nType="0">
        <Node pos="l" depth="1" NCoef="0" IVar="5" Cut="1.5331936645507812e+02" cType="1" res="-5.4372558370232582e-03" rms="4.1840136051177979e-01" purity="5.0725352764129639e-01" nType="0">
          <Node pos="l" depth="2" NCoef="0" IVar="-1" Cut="0.0000000000000000e+00" cType="1" res="-1.0992679744958878e-02" rms="4.1932934522628784e-01" purity="4.3942114710807800e-01" nType="-99"/>
          <Node pos="r" depth="2" NCoef="0" IVar="1" Cut="-1.9446502923965454e+00" cType="1" res="1.1659434530884027e-03" rms="4.1790020465850830e-01" purity="5.2041941881179810e-01" nType="0">
            <Node pos="l" depth="3" NCoef="0" IVar="-1" Cut="0.0000000000000000e+00" cType="1" res="-3.0590770766139030e-03" rms="4.1870218515396118e-01" purity="4.9759206175804138e-01" nType="-99"/>
            <Node pos="r" depth="3" NCoef="0" IVar="8" Cut="2.9370026588439941e+00" cType="1" res="0.0000000000000000e+00" rms="0.0000000000000000e+00" purity="5.2968436479568481e-01" nType="0">
              <Node pos="l" depth="4" NCoef="0" IVar="-1" Cut="0.0000000000000000e+00" cType="1" res="-4.5092813670635223e-03" rms="4.4416230916976929e-01" purity="4.6620422601699829e-01" nType="-99"/>
              <Node pos="r" depth="4" NCoef="0" IVar="-1" Cut="0.0000000000000000e+00" cType="1" res="8.8075287640094757e-03" rms="4.0155813097953796e-01" purity="5.6187516450881958e-01" nType="-99"/>
            </Node>
          </Node>
        </Node>
        <Node pos="r" depth="1" NCoef="0" IVar="-1" Cut="0.0000000000000000e+00" cType="1" res="-9.4894133508205414e-03" rms="4.2897397279739380e-01" purity="4.3948799371719360e-01" nType="-99"/>
      </Node>
    </BinaryTree>
    <BinaryTree type="DecisionTree" boostWeight="1.0000000000000000e+00" itree="146">
      <Node pos="s" depth="0" NCoef="0" IVar="1" Cut="1.3457684516906738e+00" cType="1" res="-9.5615144819021225e-03" rms="4.1316625475883484e-01" purity="4.8860085010528564e-01" nType="0">
        <Node pos="l" depth="1" NCoef="0" IVar="7" Cut="2.9123117065429688e+02" cType="1" res="-2.0874695852398872e-02" rms="4.0758419036865234e-01" purity="4.5381653308868408e-01" nType="0">
          <Node pos="l" depth="2" NCoef="0" IVar="7" Cut="1.7006378173828125e+02" cType="1" res="-5.8107739314436913e-03" rms="4.0871846675872803e-01" purity="3.9610075950622559e-01" nType="0">
            <Node pos="l" depth="3" NCoef="0" IVar="-1" Cut="0.0000000000000000e+00" cType="1" res="-6.4499732106924057e-03" rms="3.7324744462966919e-01" purity="2.4542807042598724e-01" nType="-99"/>
            <Node pos="r" depth="3" NCoef="0" IVar="3" Cut="7.3891328125000000e+04" cType="1" res="1.2804355472326279e-02" rms="4.3214470148086548e-01" purity="5.0753271579742432e-01" nType="0">
              <Node pos="l" depth="4" NCoef="0" IVar="-1" Cut="0.0000000000000000e+00" cType="1" res="-2.9341455083340406e-03" rms="4.1215381026268005e-01" purity="4.1583475470542908e-01" nType="-99"/>
              <Node pos="r" depth="4" NCoef="0" IVar="-1" Cut="0.0000000000000000e+00" cType="1" res="9.0002305805683136e-03" rms="4.4729354977607727e-01" purity="5.8559364080429077e-01" nType="-99"/>
            </Node>
          </Node>
          <Node pos="r" depth="2" NCoef="0" IVar="4" Cut="7.1978882812500000e+04" cType="1" res="-4.9255281686782837e-02" rms="4.0391519665718079e-01" purity="5.6255364418029785e-01" nType="0">
            <Node pos="l" depth="3" NCoef="0" IVar="-1" Cut="0.0000000000000000e+00" cType="1" res="-2.9152596835047007e-03" rms="3.9278161525726318e-01" purity="4.9420878291130066e-01" nType="-99"/>
            <Node pos="r" depth="3" NCoef="0" IVar="-1" Cut="0.0000000000000000e+00" cType="1" res="-1.1388021521270275e-02" rms="4.1607472300529480e-01" purity="6.4248615503311157e-01" nType="-99"/>
          </Node>
        </Node>
        <Node pos="r" depth="1" NCoef="0" IVar="2" Cut="2.1473999023437500e+00" cType="1" res="1.0498546995222569e-02" rms="4.2213821411132812e-01" purity="5.5027890205383301e-01" nType="0">
          <Node pos="l" depth="2" NCoef="0" IVar="-1" Cut="0.0000000000000000e+00" cType="1" res="-1.0354995029047132e-03" rms="4.2437562346458435e-01" purity="4.7614461183547974e-01" nType="-99"/>
          <Node pos="r" depth="2" NCoef="0" IVar="-1" Cut="0.0000000000000000e+00" cType="1" res="7.3618483729660511e-03" rms="4.1895896196365356e-01" purity="6.3689744472503662e-01" nType="-99"/>
        </Node>
      </Node>
    </BinaryTree>
    <BinaryTree type="DecisionTree" boostWeight="1.0000000000000000e+00" itree="147">
      <Node pos="s" depth="0" NCoef="0" IVar="2" Cut="2.6668848991394043e+00" cType="1" res="1.0434243828058243e-02" rms="4.1481339931488037e-01" purity="5.1285707950592041e-01" nType="0">
        <Node pos="l" depth="1" NCoef="0" IVar="6" Cut="5.1323878765106201e-01" cType="1" res="4.8254244029521942e-03" rms="4.1578689217567444e-01" purity="4.8823854327201843e-01" nType="0">
          <Node pos="l" depth="2" NCoef="0" IVar="-1" Cut="0.0000000000000000e+00" cType="1" res="5.3923870436847210e-03" rms="4.6261024475097656e-01" purity="4.1223669052124023e-01" nType="-99"/>
          <Node pos="r" depth="2" NCoef="0" IVar="1" Cut="-1.9442816972732544e+00" cType="1" res="9.1112207155674696e-04" rms="4.0619835257530212e-01" purity="5.0262486934661865e-01" nType="0">
            <Node pos="l" depth="3" NCoef="0" IVar="-1" Cut="0.0000000000000000e+00" cType="1" res="-3.2593116629868746e-03" rms="4.0233257412910461e-01" purity="4.8396852612495422e-01" nType="-99"/>
            <Node pos="r" depth="3" NCoef="0" IVar="4" Cut="7.2697984375000000e+04" cType="1" res="1.2407477013766766e-02" rms="4.0704178810119629e-01" purity="5.0961381196975708e-01" nType="0">
              <Node pos="l" depth="4" NCoef="0" IVar="-1" Cut="0.0000000000000000e+00" cType="1" res="5.8390027843415737e-03" rms="4.0798309445381165e-01" purity="4.5265364646911621e-01" nType="-99"/>
              <Node pos="r" depth="4" NCoef="0" IVar="-1" Cut="0.0000000000000000e+00" cType="1" res="-2.5790089275687933e-03" rms="4.0356710553169250e-01" purity="6.7485648393630981e-01" nType="-99"/>
            </Node>
          </Node>
        </Node>
        <Node pos="r" depth="1" NCoef="0" IVar="2" Cut="3.0743451118469238e+00" cType="1" res="0.0000000000000000e+00" rms="0.0000000000000000e+00" purity="5.8386397361755371e-01" nType="0">
          <Node pos="l" depth="2" NCoef="0" IVar="-1" Cut="0.0000000000000000e+00" cType="1" res="1.2617757543921471e-02" rms="4.1205850243568420e-01" purity="6.4237046241760254e-01" nType="-99"/>
          <Node pos="r" depth="2" NCoef="0" IVar="-1" Cut="0.0000000000000000e+00" cType="1" res="8.8694097939878702e-04" rms="4.0989428758621216e-01" purity="5.0822949409484863e-01" nType="-99"/>
        </Node>
      </Node>
    </BinaryTree>
    <BinaryTree type="DecisionTree" boostWeight="1.0000000000000000e+00" itree="148">
      <Node pos="s" depth="0" NCoef="0" IVar="6" Cut="7.9687887430191040e-01" cType="1" res="0.0000000000000000e+00" rms="0.0000000000000000e+00" purity="4.9422219395637512e-01" nType="0">
        <Node pos="l" depth="1" NCoef="0" IVar="6" Cut="6.2682217359542847e-01" cType="1" res="0.0000000000000000e+00" rms="0.0000000000000000e+00" purity="5.1159042119979858e-01" nType="0">
          <Node pos="l" depth="2" NCoef="0" IVar="1" Cut="-1.3455934524536133e+00" cType="1" res="0.0000000000000000e+00" rms="0.0000000000000000e+00" purity="4.9178892374038696e-01" nType="0">
            <Node pos="l" depth="3" NCoef="0" IVar="-1" Cut="0.0000000000000000e+00" cType="1" res="6.2592993490397930e-03" rms="4.4072356820106506e-01" purity="5.1736575365066528e-01" nType="-99"/>
            <Node pos="r" depth="3" NCoef="0" IVar="2" Cut="1.5068150758743286e+00" cType="1" res="-1.4970070682466030e-02" rms="4.3404605984687805e-01" purity="4.7695264220237732e-01" nType="0">
              <Node pos="l" depth="4" NCoef="0" IVar="-1" Cut="0.0000000000000000e+00" cType="1" res="-1.5572693198919296e-02" rms="3.9671730995178223e-01" purity="3.3622011542320251e-01" nType="-99"/>
              <Node pos="r" depth="4" NCoef="0" IVar="-1" Cut="0.0000000000000000e+00" cType="1" res="2.6927798171527684e-04" rms="4.5381119847297668e-01" purity="5.5975151062011719e-01" nType="-99"/>
            </Node>
          </Node>
          <Node pos="r" depth="2" NCoef="0" IVar="0" Cut="2.5768348437500000e+05" cType="1" res="-2.2425591945648193e-02" rms="3.9405167102813721e-01" purity="5.3150594234466553e-01" nType="0">
            <Node pos="l" depth="3" NCoef="0" IVar="8" Cut="2.9584376811981201e+00" cType="1" res="-1.0092696174979210e-02" rms="4.2081332206726074e-01" purity="6.4202821254730225e-01" nType="0">
              <Node pos="l" depth="4" NCoef="0" IVar="-1" Cut="0.0000000000000000e+00" cType="1" res="-7.0738536305725574e-03" rms="4.3283614516258240e-01" purity="5.5575472116470337e-01" nType="-99"/>
              <Node pos="r" depth="4" NCoef="0" IVar="-1" Cut="0.0000000000000000e+00" cType="1" res="1.0582302929833531e-03" rms="4.1348356008529663e-01" purity="6.8884909152984619e-01" nType="-99"/>
            </Node>
            <Node pos="r" depth="3" NCoef="0" IVar="-1" Cut="0.0000000000000000e+00" cType="1" res="-4.7843791544437408e-03" rms="3.0490401387214661e-01" purity="2.2382703423500061e-01" nType="-99"/>
          </Node>
        </Node>
        <Node pos="r" depth="1" NCoef="0" IVar="-1" Cut="0.0000000000000000e+00" cType="1" res="3.2635116949677467e-03" rms="4.1747501492500305e-01" purity="3.8432449102401733e-01" nType="-99"/>
      </Node>
    </BinaryTree>
    <BinaryTree type="DecisionTree" boostWeight="1.0000000000000000e+00" itree="149">
      <Node pos="s" depth="0" NCoef="0" IVar="5" Cut="2.4288128662109375e+02" cType="1" res="-2.3105647414922714e-03" rms="4.1587287187576294e-01" purity="5.0028967857360840e-01" nType="0">
        <Node pos="l" depth="1" NCoef="0" IVar="5" Cut="2.0107147216796875e+02" cType="1" res="-8.7469983845949173e-03" rms="4.1419753432273865e-01" purity="5.0639510154724121e-01" nType="0">
          <Node pos="l" depth="2" NCoef="0" IVar="8" Cut="3.0022413730621338e+00" cType="1" res="-6.9987168535590172e-04" rms="4.1549032926559448e-01" purity="5.3718864917755127e-01" nType="0">
            <Node pos="l" depth="3" NCoef="0" IVar="2" Cut="1.4232457876205444e+00" cType="1" res="-1.2785823084414005e-02" rms="4.3168148398399353e-01" purity="5.0428646802902222e-01" nType="0">
              <Node pos="l" depth="4" NCoef="0" IVar="-1" Cut="0.0000000000000000e+00" cType="1" res="7.0164636708796024e-03" rms="4.1827246546745300e-01" purity="4.1880741715431213e-01" nType="-99"/>
              <Node pos="r" depth="4" NCoef="0" IVar="-1" Cut="0.0000000000000000e+00" cType="1" res="-8.7870676070451736e-03" rms="4.3785613775253296e-01" purity="5.5045753717422485e-01" nType="-99"/>
            </Node>
            <Node pos="r" depth="3" NCoef="0" IVar="8" Cut="3.0553510189056396e+00" cType="1" res="1.1535715311765671e-02" rms="3.9805543422698975e-01" purity="5.7049816846847534e-01" nType="0">
              <Node pos="l" depth="4" NCoef="0" IVar="-1" Cut="0.0000000000000000e+00" cType="1" res="1.0685114189982414e-02" rms="4.0437003970146179e-01" purity="5.7164651155471802e-01" nType="-99"/>
              <Node pos="r" depth="4" NCoef="0" IVar="-1" Cut="0.0000000000000000e+00" cType="1" res="-8.2614208804443479e-04" rms="3.9380425214767456e-01" purity="5.6985557079315186e-01" nType="-99"/>
            </Node>
          </Node>
          <Node pos="r" depth="2" NCoef="0" IVar="-1" Cut="0.0000000000000000e+00" cType="1" res="-7.0844329893589020e-03" rms="4.0854614973068237e-01" purity="4.0103435516357422e-01" nType="-99"/>
        </Node>
        <Node pos="r" depth="1" NCoef="0" IVar="2" Cut="1.9459655284881592e+00" cType="1" res="2.0314384251832962e-02" rms="4.2092874646186829e-01" purity="4.7882813215255737e-01" nType="0">
          <Node pos="l" depth="2" NCoef="0" IVar="-1" Cut="0.0000000000000000e+00" cType="1" res="-1.8723241519182920e-03" rms="4.0833330154418945e-01" purity="3.6785173416137695e-01" nType="-99"/>
          <Node pos="r" depth="2" NCoef="0" IVar="-1" Cut="0.0000000000000000e+00" cType="1" res="9.2575903981924057e-03" rms="4.3127104640007019e-01" purity="5.8512103557586670e-01" nType="-99"/>
        </Node>
      </Node>
    </BinaryTree>
    <BinaryTree type="DecisionTree" boostWeight="1.0000000000000000e+00" itree="150">
      <Node pos="s" depth="0" NCoef="0" IVar="1" Cut="-7.4767732620239258e-01" cType="1" res="-2.6285394560545683e-03" rms="4.1838967800140381e-01" purity="5.0473099946975708e-01" nType="0">
        <Node pos="l" depth="1" NCoef="0" IVar="2" Cut="1.8658723831176758e+00" cType="1" res="1.3647376559674740e-02" rms="4.2566502094268799e-01" purity="5.1757508516311646e-01" nType="0">
          <Node pos="l" depth="2" NCoef="0" IVar="4" Cut="5.6184082031250000e+04" cType="1" res="2.9418161138892174e-02" rms="4.1262975335121155e-01" purity="4.6507462859153748e-01" nType="0">
            <Node pos="l" depth="3" NCoef="0" IVar="-1" Cut="0.0000000000000000e+00" cType="1" res="6.2909126281738281e-03" rms="3.8553613424301147e-01" purity="3.5607808828353882e-01" nType="-99"/>
            <Node pos="r" depth="3" NCoef="0" IVar="-1" Cut="0.0000000000000000e+00" cType="1" res="1.2767605483531952e-02" rms="4.3648627400398254e-01" purity="5.6792819499969482e-01" nType="-99"/>
          </Node>
          <Node pos="r" depth="2" NCoef="0" IVar="6" Cut="6.2694692611694336e-01" cType="1" res="-1.6744822496548295e-03" rms="4.3741363286972046e-01" purity="5.6858104467391968e-01" nType="0">
            <Node pos="l" depth="3" NCoef="0" IVar="-1" Cut="0.0000000000000000e+00" cType="1" res="-6.3857627101242542e-03" rms="4.4159016013145447e-01" purity="5.2391588687896729e-01" nType="-99"/>
            <Node pos="r" depth="3" NCoef="0" IVar="-1" Cut="0.0000000000000000e+00" cType="1" res="4.1507608257234097e-03" rms="4.3318608403205872e-01" purity="6.0689020156860352e-01" nType="-99"/>
          </Node>
        </Node>
        <Node pos="r" depth="1" NCoef="0" IVar="3" Cut="9.9442062500000000e+04" cType="1" res="-1.5346883796155453e-02" rms="4.1216820478439331e-01" purity="4.9469435214996338e-01" nType="0">
          <Node pos="l" depth="2" NCoef="0" IVar="8" Cut="3.0454761981964111e+00" cType="1" res="-2.9733795672655106e-02" rms="4.0467125177383423e-01" purity="4.2515540122985840e-01" nType="0">
            <Node pos="l" depth="3" NCoef="0" IVar="3" Cut="6.7843093750000000e+04" cType="1" res="-5.0271578133106232e-02" rms="4.0577960014343262e-01" purity="3.8265231251716614e-01" nType="0">
              <Node pos="l" depth="4" NCoef="0" IVar="-1" Cut="0.0000000000000000e+00" cType="1" res="-1.2403280474245548e-02" rms="3.8965496420860291e-01" purity="3.2312756776809692e-01" nType="-99"/>
              <Node pos="r" depth="4" NCoef="0" IVar="-1" Cut="0.0000000000000000e+00" cType="1" res="-2.2362463176250458e-02" rms="4.2090967297554016e-01" purity="4.4337484240531921e-01" nType="-99"/>
            </Node>
            <Node pos="r" depth="3" NCoef="0" IVar="-1" Cut="0.0000000000000000e+00" cType="1" res="1.2601761845871806e-03" rms="4.0065068006515503e-01" purity="4.9388962984085083e-01" nType="-99"/>
          </Node>
          <Node pos="r" depth="2" NCoef="0" IVar="-1" Cut="0.0000000000000000e+00" cType="1" res="3.0859690159559250e-03" rms="4.2396312952041626e-01" purity="6.1828541755676270e-01" nType="-99"/>
        </Node>
      </Node>
    </BinaryTree>
    <BinaryTree type="DecisionTree" boostWeight="1.0000000000000000e+00" itree="151">
      <Node pos="s" depth="0" NCoef="0" IVar="2" Cut="1.9515017271041870e+00" cType="1" res="2.6047714054584503e-03" rms="4.2196664214134216e-01" purity="5.0787609815597534e-01" nType="0">
        <Node pos="l" depth="1" NCoef="0" IVar="1" Cut="4.4887256622314453e-01" cType="1" res="1.9299242645502090e-02" rms="4.1460612416267395e-01" purity="4.5974043011665344e-01" nType="0">
          <Node pos="l" depth="2" NCoef="0" IVar="8" Cut="2.9526879787445068e+00" cType="1" res="4.0343515574932098e-03" rms="4.1356146335601807e-01" purity="4.3087884783744812e-01" nType="0">
            <Node pos="l" depth="3" NCoef="0" IVar="-1" Cut="0.0000000000000000e+00" cType="1" res="-5.7345493696630001e-03" rms="4.3106740713119507e-01" purity="3.8039422035217285e-01" nType="-99"/>
            <Node pos="r" depth="3" NCoef="0" IVar="-1" Cut="0.0000000000000000e+00" cType="1" res="8.6817843839526176e-03" rms="4.0050095319747925e-01" purity="4.6440857648849487e-01" nType="-99"/>
          </Node>
          <Node pos="r" depth="2" NCoef="0" IVar="2" Cut="1.1479914188385010e+00" cType="1" res="3.6179270595312119e-02" rms="4.1510519385337830e-01" purity="4.9165579676628113e-01" nType="0">
            <Node pos="l" depth="3" NCoef="0" IVar="-1" Cut="0.0000000000000000e+00" cType="1" res="1.7894072458148003e-02" rms="3.9888536930084229e-01" purity="4.1793009638786316e-01" nType="-99"/>
            <Node pos="r" depth="3" NCoef="0" IVar="-1" Cut="0.0000000000000000e+00" cType="1" res="2.5497528258711100e-03" rms="4.2997765541076660e-01" purity="5.6921601295471191e-01" nType="-99"/>
          </Node>
        </Node>
        <Node pos="r" depth="1" NCoef="0" IVar="6" Cut="6.2606757879257202e-01" cType="1" res="-1.5495436266064644e-02" rms="4.2907124757766724e-01" purity="5.6006491184234619e-01" nType="0">
          <Node pos="l" depth="2" NCoef="0" IVar="6" Cut="5.3999519348144531e-01" cType="1" res="-4.2733870446681976e-02" rms="4.4170299172401428e-01" purity="5.0469756126403809e-01" nType="0">
            <Node pos="l" depth="3" NCoef="0" IVar="-1" Cut="0.0000000000000000e+00" cType="1" res="-1.4550841413438320e-02" rms="4.3203517794609070e-01" purity="4.0910458564758301e-01" nType="-99"/>
            <Node pos="r" depth="3" NCoef="0" IVar="-1" Cut="0.0000000000000000e+00" cType="1" res="-7.5718946754932404e-03" rms="4.4992631673812866e-01" purity="5.9204268455505371e-01" nType="-99"/>
          </Node>
          <Node pos="r" depth="2" NCoef="0" IVar="1" Cut="1.5029059350490570e-01" cType="1" res="5.9903794899582863e-03" rms="4.1758698225021362e-01" purity="6.0373896360397339e-01" nType="0">
            <Node pos="l" depth="3" NCoef="0" IVar="-1" Cut="0.0000000000000000e+00" cType="1" res="5.2015897817909718e-03" rms="4.2325875163078308e-01" purity="6.0535442829132080e-01" nType="-99"/>
            <Node pos="r" depth="3" NCoef="0" IVar="-1" Cut="0.0000000000000000e+00" cType="1" res="-4.8776171170175076e-03" rms="4.0996834635734558e-01" purity="6.0186809301376343e-01" nType="-99"/>
          </Node>
        </Node>
      </Node>
    </BinaryTree>
    <BinaryTree type="DecisionTree" boostWeight="1.0000000000000000e+00" itree="152">
      <Node pos="s" depth="0" NCoef="0" IVar="4" Cut="7.5558882812500000e+04" cType="1" res="-6.7942631430923939e-03" rms="4.1449600458145142e-01" purity="4.9608021974563599e-01" nType="0">
        <Node pos="l" depth="1" NCoef="0" IVar="6" Cut="6.5485143661499023e-01" cType="1" res="-1.6967600211501122e-02" rms="4.1350135207176208e-01" purity="4.3503564596176147e-01" nType="0">
          <Node pos="l" depth="2" NCoef="0" IVar="1" Cut="-1.0467875003814697e+00" cType="1" res="6.3168362248688936e-04" rms="4.2468297481536865e-01" purity="4.4674953818321228e-01" nType="0">
            <Node pos="l" depth="3" NCoef="0" IVar="-1" Cut="0.0000000000000000e+00" cType="1" res="-7.5696669518947601e-03" rms="4.2047628760337830e-01" purity="4.1144204139709473e-01" nType="-99"/>
            <Node pos="r" depth="3" NCoef="0" IVar="-1" Cut="0.0000000000000000e+00" cType="1" res="7.7137458138167858e-03" rms="4.2597794532775879e-01" purity="4.7185474634170532e-01" nType="-99"/>
          </Node>
          <Node pos="r" depth="2" NCoef="0" IVar="4" Cut="5.3956128906250000e+04" cType="1" res="-3.1251449137926102e-02" rms="4.0363508462905884e-01" purity="4.2552849650382996e-01" nType="0">
            <Node pos="l" depth="3" NCoef="0" IVar="9" Cut="3.0000000000000000e+00" cType="1" res="-1.6911614686250687e-02" rms="3.9676541090011597e-01" purity="3.8217848539352417e-01" nType="0">
              <Node pos="l" depth="4" NCoef="0" IVar="-1" Cut="0.0000000000000000e+00" cType="1" res="1.8574937712401152e-03" rms="4.0383592247962952e-01" purity="3.7429711222648621e-01" nType="-99"/>
              <Node pos="r" depth="4" NCoef="0" IVar="-1" Cut="0.0000000000000000e+00" cType="1" res="-4.2881709523499012e-03" rms="3.8122603297233582e-01" purity="3.9560043811798096e-01" nType="-99"/>
            </Node>
            <Node pos="r" depth="3" NCoef="0" IVar="-1" Cut="0.0000000000000000e+00" cType="1" res="-2.5387449190020561e-02" rms="4.1912585496902466e-01" purity="5.4211336374282837e-01" nType="-99"/>
          </Node>
        </Node>
        <Node pos="r" depth="1" NCoef="0" IVar="1" Cut="1.0474230051040649e+00" cType="1" res="1.9536985084414482e-02" rms="4.1590544581413269e-01" purity="6.5407943725585938e-01" nType="0">
          <Node pos="l" depth="2" NCoef="0" IVar="-1" Cut="0.0000000000000000e+00" cType="1" res="-2.9619755223393440e-03" rms="4.2467996478080750e-01" purity="6.0276311635971069e-01" nType="-99"/>
          <Node pos="r" depth="2" NCoef="0" IVar="-1" Cut="0.0000000000000000e+00" cType="1" res="1.2224657461047173e-02" rms="4.0193015336990356e-01" purity="7.1703040599822998e-01" nType="-99"/>
        </Node>
      </Node>
    </BinaryTree>
    <BinaryTree type="DecisionTree" boostWeight="1.0000000000000000e+00" itree="153">
      <Node pos="s" depth="0" NCoef="0" IVar="6" Cut="4.8470169305801392e-01" cType="1" res="-2.0618008449673653e-02" rms="4.1710817813873291e-01" purity="4.8179420828819275e-01" nType="0">
        <Node pos="l" depth="1" NCoef="0" IVar="-1" Cut="0.0000000000000000e+00" cType="1" res="-1.9435098394751549e-02" rms="4.3375340104103088e-01" purity="3.1764695048332214e-01" nType="-99"/>
        <Node pos="r" depth="1" NCoef="0" IVar="4" Cut="6.5376105468750000e+04" cType="1" res="-1.5871400013566017e-02" rms="4.1489672660827637e-01" purity="5.0057601928710938e-01" nType="0">
          <Node pos="l" depth="2" NCoef="0" IVar="4" Cut="5.1968007812500000e+04" cType="1" res="-2.8130760416388512e-02" rms="4.1850522160530090e-01" purity="4.0868771076202393e-01" nType="0">
            <Node pos="l" depth="3" NCoef="0" IVar="2" Cut="1.6309695243835449e+00" cType="1" res="-1.0768553242087364e-02" rms="4.1428527235984802e-01" purity="3.8880240917205811e-01" nType="0">
              <Node pos="l" depth="4" NCoef="0" IVar="-1" Cut="0.0000000000000000e+00" cType="1" res="-7.3323533870279789e-03" rms="3.7175545096397400e-01" purity="2.4572205543518066e-01" nType="-99"/>
              <Node pos="r" depth="4" NCoef="0" IVar="-1" Cut="0.0000000000000000e+00" cType="1" res="8.9176937763113528e-05" rms="4.4174966216087341e-01" purity="4.9069085717201233e-01" nType="-99"/>
            </Node>
            <Node pos="r" depth="3" NCoef="0" IVar="-1" Cut="0.0000000000000000e+00" cType="1" res="-7.1789529174566269e-03" rms="4.2537531256675720e-01" purity="4.5445162057876587e-01" nType="-99"/>
          </Node>
          <Node pos="r" depth="2" NCoef="0" IVar="1" Cut="-1.6450644731521606e+00" cType="1" res="5.1233931444585323e-03" rms="4.0778782963752747e-01" purity="6.5793949365615845e-01" nType="0">
            <Node pos="l" depth="3" NCoef="0" IVar="-1" Cut="0.0000000000000000e+00" cType="1" res="-3.8458851631730795e-03" rms="4.0245407819747925e-01" purity="6.2681126594543457e-01" nType="-99"/>
            <Node pos="r" depth="3" NCoef="0" IVar="-1" Cut="0.0000000000000000e+00" cType="1" res="6.0605625621974468e-03" rms="4.1018256545066833e-01" purity="6.7566609382629395e-01" nType="-99"/>
          </Node>
        </Node>
      </Node>
    </BinaryTree>
    <BinaryTree type="DecisionTree" boostWeight="1.0000000000000000e+00" itree="154">
      <Node pos="s" depth="0" NCoef="0" IVar="4" Cut="7.5558882812500000e+04" cType="1" res="5.2557577146217227e-04" rms="4.1761085391044617e-01" purity="5.0343728065490723e-01" nType="0">
        <Node pos="l" depth="1" NCoef="0" IVar="8" Cut="2.9369952678680420e+00" cType="1" res="-5.9880949556827545e-03" rms="4.1511011123657227e-01" purity="4.4668370485305786e-01" nType="0">
          <Node pos="l" depth="2" NCoef="0" IVar="6" Cut="6.4596676826477051e-01" cType="1" res="-2.3079534992575645e-02" rms="4.3461439013481140e-01" purity="3.9313262701034546e-01" nType="0">
            <Node pos="l" depth="3" NCoef="0" IVar="-1" Cut="0.0000000000000000e+00" cType="1" res="2.4254960590042174e-04" rms="4.4262462854385376e-01" purity="4.1215491294860840e-01" nType="-99"/>
            <Node pos="r" depth="3" NCoef="0" IVar="-1" Cut="0.0000000000000000e+00" cType="1" res="-1.5930010005831718e-02" rms="4.2321977019309998e-01" purity="3.7065395712852478e-01" nType="-99"/>
          </Node>
          <Node pos="r" depth="2" NCoef="0" IVar="1" Cut="2.2440464496612549e+00" cType="1" res="2.4396155495196581e-03" rms="4.0488165616989136e-01" purity="4.7308951616287231e-01" nType="0">
            <Node pos="l" depth="3" NCoef="0" IVar="1" Cut="-3.2079395651817322e-01" cType="1" res="0.0000000000000000e+00" rms="0.0000000000000000e+00" purity="4.7511833906173706e-01" nType="0">
              <Node pos="l" depth="4" NCoef="0" IVar="-1" Cut="0.0000000000000000e+00" cType="1" res="-1.1071565095335245e-03" rms="4.0893715620040894e-01" purity="4.5449370145797729e-01" nType="-99"/>
              <Node pos="r" depth="4" NCoef="0" IVar="-1" Cut="0.0000000000000000e+00" cType="1" res="1.2551024556159973e-02" rms="4.0459692478179932e-01" purity="5.0688433647155762e-01" nType="-99"/>
            </Node>
            <Node pos="r" depth="3" NCoef="0" IVar="-1" Cut="0.0000000000000000e+00" cType="1" res="-9.8878201097249985e-03" rms="3.9230701327323914e-01" purity="4.6592643857002258e-01" nType="-99"/>
          </Node>
        </Node>
        <Node pos="r" depth="1" NCoef="0" IVar="5" Cut="2.2419047546386719e+02" cType="1" res="1.6346469521522522e-02" rms="4.2320606112480164e-01" purity="6.4128476381301880e-01" nType="0">
          <Node pos="l" depth="2" NCoef="0" IVar="-1" Cut="0.0000000000000000e+00" cType="1" res="6.8504386581480503e-04" rms="4.1355726122856140e-01" purity="6.8278491497039795e-01" nType="-99"/>
          <Node pos="r" depth="2" NCoef="0" IVar="-1" Cut="0.0000000000000000e+00" cType="1" res="8.9197773486375809e-03" rms="4.3701210618019104e-01" purity="5.7654696702957153e-01" nType="-99"/>
        </Node>
      </Node>
    </BinaryTree>
    <BinaryTree type="DecisionTree" boostWeight="1.0000000000000000e+00" itree="155">
      <Node pos="s" depth="0" NCoef="0" IVar="9" Cut="2.0000000000000000e+00" cType="1" res="3.9023300632834435e-04" rms="4.1178882122039795e-01" purity="5.0851285457611084e-01" nType="0">
        <Node pos="l" depth="1" NCoef="0" IVar="-1" Cut="0.0000000000000000e+00" cType="1" res="8.6936978623270988e-03" rms="4.3265533447265625e-01" purity="4.3619221448898315e-01" nType="-99"/>
        <Node pos="r" depth="1" NCoef="0" IVar="6" Cut="6.2192755937576294e-01" cType="1" res="-6.3972603529691696e-03" rms="4.0771248936653137e-01" purity="5.2109879255294800e-01" nType="0">
          <Node pos="l" depth="2" NCoef="0" IVar="3" Cut="9.8906703125000000e+04" cType="1" res="-2.3469779640436172e-02" rms="4.3357479572296143e-01" purity="4.7184440493583679e-01" nType="0">
            <Node pos="l" depth="3" NCoef="0" IVar="-1" Cut="0.0000000000000000e+00" cType="1" res="1.2690714793279767e-03" rms="4.2716988921165466e-01" purity="4.4195717573165894e-01" nType="-99"/>
            <Node pos="r" depth="3" NCoef="0" IVar="-1" Cut="0.0000000000000000e+00" cType="1" res="-1.0752624832093716e-02" rms="4.3765792250633240e-01" purity="4.9760174751281738e-01" nType="-99"/>
          </Node>
          <Node pos="r" depth="2" NCoef="0" IVar="0" Cut="2.5325081250000000e+05" cType="1" res="7.9302154481410980e-03" rms="3.8408374786376953e-01" purity="5.6243371963500977e-01" nType="0">
            <Node pos="l" depth="3" NCoef="0" IVar="2" Cut="1.7482506036758423e+00" cType="1" res="0.0000000000000000e+00" rms="0.0000000000000000e+00" purity="6.9179672002792358e-01" nType="0">
              <Node pos="l" depth="4" NCoef="0" IVar="-1" Cut="0.0000000000000000e+00" cType="1" res="-6.1837388202548027e-03" rms="4.1506147384643555e-01" purity="5.8149844408035278e-01" nType="-99"/>
              <Node pos="r" depth="4" NCoef="0" IVar="-1" Cut="0.0000000000000000e+00" cType="1" res="1.4330186881124973e-02" rms="3.9716297388076782e-01" purity="7.5958448648452759e-01" nType="-99"/>
            </Node>
            <Node pos="r" depth="3" NCoef="0" IVar="-1" Cut="0.0000000000000000e+00" cType="1" res="-2.9735609423369169e-03" rms="3.2307896018028259e-01" purity="2.4343040585517883e-01" nType="-99"/>
          </Node>
        </Node>
      </Node>
    </BinaryTree>
    <BinaryTree type="DecisionTree" boostWeight="1.0000000000000000e+00" itree="156">
      <Node pos="s" depth="0" NCoef="0" IVar="5" Cut="2.8909262084960938e+02" cType="1" res="1.6107169212773442e-03" rms="4.2213293910026550e-01" purity="5.0578588247299194e-01" nType="0">
        <Node pos="l" depth="1" NCoef="0" IVar="5" Cut="2.3395820617675781e+02" cType="1" res="0.0000000000000000e+00" rms="0.0000000000000000e+00" purity="5.0943785905838013e-01" nType="0">
          <Node pos="l" depth="2" NCoef="0" IVar="4" Cut="8.4589453125000000e+04" cType="1" res="-7.4998112395405769e-03" rms="4.2091798782348633e-01" purity="5.1755493879318237e-01" nType="0">
            <Node pos="l" depth="3" NCoef="0" IVar="6" Cut="5.6880456209182739e-01" cType="1" res="-1.5604876680299640e-03" rms="4.2071679234504700e-01" purity="4.9339774250984192e-01" nType="0">
              <Node pos="l" depth="4" NCoef="0" IVar="-1" Cut="0.0000000000000000e+00" cType="1" res="6.1853793449699879e-03" rms="4.3928688764572144e-01" purity="4.4160288572311401e-01" nType="-99"/>
              <Node pos="r" depth="4" NCoef="0" IVar="-1" Cut="0.0000000000000000e+00" cType="1" res="-2.2507947869598866e-03" rms="4.1541779041290283e-01" purity="5.0679504871368408e-01" nType="-99"/>
            </Node>
            <Node pos="r" depth="3" NCoef="0" IVar="-1" Cut="0.0000000000000000e+00" cType="1" res="-7.4762268923223019e-03" rms="4.2063477635383606e-01" purity="6.4122986793518066e-01" nType="-99"/>
          </Node>
          <Node pos="r" depth="2" NCoef="0" IVar="-1" Cut="0.0000000000000000e+00" cType="1" res="6.7501720041036606e-03" rms="4.1078215837478638e-01" purity="4.4876947999000549e-01" nType="-99"/>
        </Node>
        <Node pos="r" depth="1" NCoef="0" IVar="-1" Cut="0.0000000000000000e+00" cType="1" res="1.0410206392407417e-02" rms="4.3500301241874695e-01" purity="4.8210558295249939e-01" nType="-99"/>
      </Node>
    </BinaryTree>
    <BinaryTree type="DecisionTree" boostWeight="1.0000000000000000e+00" itree="157">
      <Node pos="s" depth="0" NCoef="0" IVar="7" Cut="2.1441552734375000e+02" cType="1" res="1.1994845699518919e-03" rms="4.1551440954208374e-01" purity="5.0126630067825317e-01" nType="0">
        <Node pos="l" depth="1" NCoef="0" IVar="7" Cut="1.3545265197753906e+02" cType="1" res="1.0828669182956219e-02" rms="4.1090148687362671e-01" purity="3.6637282371520996e-01" nType="0">
          <Node pos="l" depth="2" NCoef="0" IVar="-1" Cut="0.0000000000000000e+00" cType="1" res="-3.8153813220560551e-03" rms="3.7483647465705872e-01" purity="2.5978016853332520e-01" nType="-99"/>
          <Node pos="r" depth="2" NCoef="0" IVar="1" Cut="1.4961348474025726e-01" cType="1" res="3.1253591179847717e-02" rms="4.3278294801712036e-01" purity="4.3966576457023621e-01" nType="0">
            <Node pos="l" depth="3" NCoef="0" IVar="-1" Cut="0.0000000000000000e+00" cType="1" res="1.4034665189683437e-02" rms="4.3083280324935913e-01" purity="4.4652464985847473e-01" nType="-99"/>
            <Node pos="r" depth="3" NCoef="0" IVar="-1" Cut="0.0000000000000000e+00" cType="1" res="3.0491030775010586e-03" rms="4.3403536081314087e-01" purity="4.3170863389968872e-01" nType="-99"/>
          </Node>
        </Node>
        <Node pos="r" depth="1" NCoef="0" IVar="4" Cut="4.7117933593750000e+04" cType="1" res="-5.7824044488370419e-03" rms="4.1868889331817627e-01" purity="5.9907430410385132e-01" nType="0">
          <Node pos="l" depth="2" NCoef="0" IVar="-1" Cut="0.0000000000000000e+00" cType="1" res="-9.6440855413675308e-03" rms="4.1825670003890991e-01" purity="4.5745179057121277e-01" nType="-99"/>
          <Node pos="r" depth="2" NCoef="0" IVar="7" Cut="2.7363940429687500e+02" cType="1" res="2.3108769673854113e-03" rms="4.1849994659423828e-01" purity="6.4387011528015137e-01" nType="0">
            <Node pos="l" depth="3" NCoef="0" IVar="-1" Cut="0.0000000000000000e+00" cType="1" res="5.3687668405473232e-03" rms="4.2820724844932556e-01" purity="6.2254071235656738e-01" nType="-99"/>
            <Node pos="r" depth="3" NCoef="0" IVar="9" Cut="4.0000000000000000e+00" cType="1" res="0.0000000000000000e+00" rms="0.0000000000000000e+00" purity="6.5399700403213501e-01" nType="0">
              <Node pos="l" depth="4" NCoef="0" IVar="-1" Cut="0.0000000000000000e+00" cType="1" res="-8.0325072631239891e-03" rms="4.2107048630714417e-01" purity="6.2439978122711182e-01" nType="-99"/>
              <Node pos="r" depth="4" NCoef="0" IVar="-1" Cut="0.0000000000000000e+00" cType="1" res="6.1174631118774414e-03" rms="4.0042048692703247e-01" purity="6.9870477914810181e-01" nType="-99"/>
            </Node>
          </Node>
        </Node>
      </Node>
    </BinaryTree>
    <BinaryTree type="DecisionTree" boostWeight="1.0000000000000000e+00" itree="158">
      <Node pos="s" depth="0" NCoef="0" IVar="5" Cut="2.6986004638671875e+02" cType="1" res="4.8378226347267628e-03" rms="4.1850888729095459e-01" purity="5.0788456201553345e-01" nType="0">
        <Node pos="l" depth="1" NCoef="0" IVar="5" Cut="1.7771076965332031e+02" cType="1" res="8.5600987076759338e-03" rms="4.1789308190345764e-01" purity="5.1997405290603638e-01" nType="0">
          <Node pos="l" depth="2" NCoef="0" IVar="2" Cut="2.5517666339874268e+00" cType="1" res="2.6520295068621635e-02" rms="4.1777908802032471e-01" purity="5.6149041652679443e-01" nType="0">
            <Node pos="l" depth="3" NCoef="0" IVar="6" Cut="7.0711570978164673e-01" cType="1" res="3.7301763892173767e-02" rms="4.1419145464897156e-01" purity="5.4500252008438110e-01" nType="0">
              <Node pos="l" depth="4" NCoef="0" IVar="-1" Cut="0.0000000000000000e+00" cType="1" res="1.5392882749438286e-02" rms="4.1386100649833679e-01" purity="6.0765147209167480e-01" nType="-99"/>
              <Node pos="r" depth="4" NCoef="0" IVar="-1" Cut="0.0000000000000000e+00" cType="1" res="4.1012465953826904e-03" rms="4.1347932815551758e-01" purity="4.1566643118858337e-01" nType="-99"/>
            </Node>
            <Node pos="r" depth="3" NCoef="0" IVar="-1" Cut="0.0000000000000000e+00" cType="1" res="-4.3066751095466316e-04" rms="4.2567527294158936e-01" purity="6.0426837205886841e-01" nType="-99"/>
          </Node>
          <Node pos="r" depth="2" NCoef="0" IVar="5" Cut="2.2593945312500000e+02" cType="1" res="-1.0947717353701591e-02" rms="4.1714164614677429e-01" purity="4.7488030791282654e-01" nType="0">
            <Node pos="l" depth="3" NCoef="0" IVar="2" Cut="2.1692242622375488e+00" cType="1" res="-2.4271624162793159e-02" rms="4.1661050915718079e-01" purity="4.7191849350929260e-01" nType="0">
              <Node pos="l" depth="4" NCoef="0" IVar="-1" Cut="0.0000000000000000e+00" cType="1" res="-3.2978900708258152e-03" rms="4.0400838851928711e-01" purity="4.1324189305305481e-01" nType="-99"/>
              <Node pos="r" depth="4" NCoef="0" IVar="-1" Cut="0.0000000000000000e+00" cType="1" res="-8.5953706875443459e-03" rms="4.3142724037170410e-01" purity="5.4643231630325317e-01" nType="-99"/>
            </Node>
            <Node pos="r" depth="3" NCoef="0" IVar="-1" Cut="0.0000000000000000e+00" cType="1" res="7.0922062732279301e-03" rms="4.1641610860824585e-01" purity="4.8299166560173035e-01" nType="-99"/>
          </Node>
        </Node>
        <Node pos="r" depth="1" NCoef="0" IVar="-1" Cut="0.0000000000000000e+00" cType="1" res="-3.9752162992954254e-03" rms="4.2117369174957275e-01" purity="4.4481727480888367e-01" nType="-99"/>
      </Node>
    </BinaryTree>
    <BinaryTree type="DecisionTree" boostWeight="1.0000000000000000e+00" itree="159">
      <Node pos="s" depth="0" NCoef="0" IVar="8" Cut="2.7554137706756592e+00" cType="1" res="8.8134892284870148e-03" rms="4.1794365644454956e-01" purity="5.1137506961822510e-01" nType="0">
        <Node pos="l" depth="1" NCoef="0" IVar="-1" Cut="0.0000000000000000e+00" cType="1" res="1.0710612870752811e-02" rms="4.3993002176284790e-01" purity="5.2929836511611938e-01" nType="-99"/>
        <Node pos="r" depth="1" NCoef="0" IVar="6" Cut="5.9818601608276367e-01" cType="1" res="5.5696736089885235e-03" rms="4.1491881012916565e-01" purity="5.0906884670257568e-01" nType="0">
          <Node pos="l" depth="2" NCoef="0" IVar="1" Cut="-1.3462696075439453e+00" cType="1" res="0.0000000000000000e+00" rms="0.0000000000000000e+00" purity="4.4954824447631836e-01" nType="0">
            <Node pos="l" depth="3" NCoef="0" IVar="-1" Cut="0.0000000000000000e+00" cType="1" res="2.2095120511949062e-03" rms="4.4486984610557556e-01" purity="4.6267297863960266e-01" nType="-99"/>
            <Node pos="r" depth="3" NCoef="0" IVar="-1" Cut="0.0000000000000000e+00" cType="1" res="-7.2307488881051540e-03" rms="4.3423438072204590e-01" purity="4.4158485531806946e-01" nType="-99"/>
          </Node>
          <Node pos="r" depth="2" NCoef="0" IVar="2" Cut="1.9568514823913574e+00" cType="1" res="1.4403527602553368e-02" rms="4.0329900383949280e-01" purity="5.3627884387969971e-01" nType="0">
            <Node pos="l" depth="3" NCoef="0" IVar="2" Cut="1.4215167760848999e+00" cType="1" res="1.7486397409811616e-03" rms="3.9626005291938782e-01" purity="4.3869045376777649e-01" nType="0">
              <Node pos="l" depth="4" NCoef="0" IVar="-1" Cut="0.0000000000000000e+00" cType="1" res="9.0569509193301201e-03" rms="3.7082293629646301e-01" purity="3.9330831170082092e-01" nType="-99"/>
              <Node pos="r" depth="4" NCoef="0" IVar="-1" Cut="0.0000000000000000e+00" cType="1" res="-1.1461887508630753e-02" rms="4.3770834803581238e-01" purity="5.2389669418334961e-01" nType="-99"/>
            </Node>
            <Node pos="r" depth="3" NCoef="0" IVar="7" Cut="2.2408760070800781e+02" cType="1" res="2.7335911989212036e-02" rms="4.0996417403221130e-01" purity="6.3600718975067139e-01" nType="0">
              <Node pos="l" depth="4" NCoef="0" IVar="-1" Cut="0.0000000000000000e+00" cType="1" res="1.1716352775692940e-02" rms="4.3002116680145264e-01" purity="5.2676224708557129e-01" nType="-99"/>
              <Node pos="r" depth="4" NCoef="0" IVar="-1" Cut="0.0000000000000000e+00" cType="1" res="3.4636093187145889e-04" rms="3.8198488950729370e-01" purity="7.7153468132019043e-01" nType="-99"/>
            </Node>
          </Node>
        </Node>
      </Node>
    </BinaryTree>
    <BinaryTree type="DecisionTree" boostWeight="1.0000000000000000e+00" itree="160">
      <Node pos="s" depth="0" NCoef="0" IVar="1" Cut="-2.2438395023345947e+00" cType="1" res="-7.7363257296383381e-03" rms="4.1497007012367249e-01" purity="4.8913392424583435e-01" nType="0">
        <Node pos="l" depth="1" NCoef="0" IVar="9" Cut="3.0000000000000000e+00" cType="1" res="0.0000000000000000e+00" rms="0.0000000000000000e+00" purity="5.3421568870544434e-01" nType="0">
          <Node pos="l" depth="2" NCoef="0" IVar="-1" Cut="0.0000000000000000e+00" cType="1" res="1.2685038149356842e-02" rms="4.3286064267158508e-01" purity="5.3478372097015381e-01" nType="-99"/>
          <Node pos="r" depth="2" NCoef="0" IVar="-1" Cut="0.0000000000000000e+00" cType="1" res="-3.2600646372884512e-03" rms="4.1633862257003784e-01" purity="5.3365361690521240e-01" nType="-99"/>
        </Node>
        <Node pos="r" depth="1" NCoef="0" IVar="2" Cut="2.7390170097351074e+00" cType="1" res="-1.5160724520683289e-02" rms="4.1162922978401184e-01" purity="4.7655615210533142e-01" nType="0">
          <Node pos="l" depth="2" NCoef="0" IVar="6" Cut="5.9764045476913452e-01" cType="1" res="0.0000000000000000e+00" rms="0.0000000000000000e+00" purity="4.5338693261146545e-01" nType="0">
            <Node pos="l" depth="3" NCoef="0" IVar="6" Cut="5.2228814363479614e-01" cType="1" res="-4.1707985103130341e-02" rms="4.3003714084625244e-01" purity="4.0405303239822388e-01" nType="0">
              <Node pos="l" depth="4" NCoef="0" IVar="-1" Cut="0.0000000000000000e+00" cType="1" res="-1.2957891449332237e-02" rms="4.3621426820755005e-01" purity="3.2926222681999207e-01" nType="-99"/>
              <Node pos="r" depth="4" NCoef="0" IVar="-1" Cut="0.0000000000000000e+00" cType="1" res="-1.1325987987220287e-02" rms="4.2319187521934509e-01" purity="4.8091450333595276e-01" nType="-99"/>
            </Node>
            <Node pos="r" depth="3" NCoef="0" IVar="1" Cut="-4.4782957434654236e-01" cType="1" res="-1.0472921654582024e-02" rms="3.9629921317100525e-01" purity="4.7899854183197021e-01" nType="0">
              <Node pos="l" depth="4" NCoef="0" IVar="-1" Cut="0.0000000000000000e+00" cType="1" res="-3.7818145938217640e-03" rms="3.8347673416137695e-01" purity="4.0994811058044434e-01" nType="-99"/>
              <Node pos="r" depth="4" NCoef="0" IVar="-1" Cut="0.0000000000000000e+00" cType="1" res="1.4787398977205157e-03" rms="4.0138643980026245e-01" purity="5.1178127527236938e-01" nType="-99"/>
            </Node>
          </Node>
          <Node pos="r" depth="2" NCoef="0" IVar="-1" Cut="0.0000000000000000e+00" cType="1" res="7.1280437987297773e-04" rms="4.2091551423072815e-01" purity="5.4844242334365845e-01" nType="-99"/>
        </Node>
      </Node>
    </BinaryTree>
    <BinaryTree type="DecisionTree" boostWeight="1.0000000000000000e+00" itree="161">
      <Node pos="s" depth="0" NCoef="0" IVar="6" Cut="7.6721900701522827e-01" cType="1" res="-3.2688961364328861e-03" rms="4.1417300701141357e-01" purity="5.0084680318832397e-01" nType="0">
        <Node pos="l" depth="1" NCoef="0" IVar="6" Cut="4.8745769262313843e-01" cType="1" res="2.9742722399532795e-03" rms="4.2122969031333923e-01" purity="5.3070753812789917e-01" nType="0">
          <Node pos="l" depth="2" NCoef="0" IVar="-1" Cut="0.0000000000000000e+00" cType="1" res="1.0746214538812637e-02" rms="4.5494446158409119e-01" purity="4.1801285743713379e-01" nType="-99"/>
          <Node pos="r" depth="2" NCoef="0" IVar="6" Cut="6.3400405645370483e-01" cType="1" res="-2.7369428426027298e-03" rms="4.1560617089271545e-01" purity="5.4771155118942261e-01" nType="0">
            <Node pos="l" depth="3" NCoef="0" IVar="7" Cut="2.9637710571289062e+02" cType="1" res="-1.0862217284739017e-02" rms="4.2906349897384644e-01" purity="5.1090854406356812e-01" nType="0">
              <Node pos="l" depth="4" NCoef="0" IVar="-1" Cut="0.0000000000000000e+00" cType="1" res="-5.8228140696883202e-03" rms="4.3317553400993347e-01" purity="4.1598683595657349e-01" nType="-99"/>
              <Node pos="r" depth="4" NCoef="0" IVar="-1" Cut="0.0000000000000000e+00" cType="1" res="1.6624612035229802e-03" rms="4.2288634181022644e-01" purity="6.3947856426239014e-01" nType="-99"/>
            </Node>
            <Node pos="r" depth="3" NCoef="0" IVar="8" Cut="2.9906075000762939e+00" cType="1" res="5.3665637969970703e-03" rms="4.0157249569892883e-01" purity="5.8441603183746338e-01" nType="0">
              <Node pos="l" depth="4" NCoef="0" IVar="-1" Cut="0.0000000000000000e+00" cType="1" res="-5.0714602693915367e-03" rms="4.1159805655479431e-01" purity="5.0399911403656006e-01" nType="-99"/>
              <Node pos="r" depth="4" NCoef="0" IVar="-1" Cut="0.0000000000000000e+00" cType="1" res="8.9745456352829933e-03" rms="3.9248254895210266e-01" purity="6.4588725566864014e-01" nType="-99"/>
            </Node>
          </Node>
        </Node>
        <Node pos="r" depth="1" NCoef="0" IVar="-1" Cut="0.0000000000000000e+00" cType="1" res="-1.0641233995556831e-02" rms="3.7966620922088623e-01" purity="3.6694943904876709e-01" nType="-99"/>
      </Node>
    </BinaryTree>
    <BinaryTree type="DecisionTree" boostWeight="1.0000000000000000e+00" itree="162">
      <Node pos="s" depth="0" NCoef="0" IVar="9" Cut="2.0000000000000000e+00" cType="1" res="7.1174530312418938e-03" rms="4.2010429501533508e-01" purity="5.1328033208847046e-01" nType="0">
        <Node pos="l" depth="1" NCoef="0" IVar="-1" Cut="0.0000000000000000e+00" cType="1" res="1.0475357063114643e-02" rms="4.3729558587074280e-01" purity="4.4031813740730286e-01" nType="-99"/>
        <Node pos="r" depth="1" NCoef="0" IVar="6" Cut="5.8983373641967773e-01" cType="1" res="0.0000000000000000e+00" rms="0.0000000000000000e+00" purity="5.2509307861328125e-01" nType="0">
          <Node pos="l" depth="2" NCoef="0" IVar="6" Cut="5.3557652235031128e-01" cType="1" res="1.2909865006804466e-02" rms="4.3829542398452759e-01" purity="4.8005494475364685e-01" nType="0">
            <Node pos="l" depth="3" NCoef="0" IVar="-1" Cut="0.0000000000000000e+00" cType="1" res="4.0881779568735510e-05" rms="4.4452729821205139e-01" purity="4.1970357298851013e-01" nType="-99"/>
            <Node pos="r" depth="3" NCoef="0" IVar="-1" Cut="0.0000000000000000e+00" cType="1" res="1.0906145907938480e-02" rms="4.2811283469200134e-01" purity="5.7017624378204346e-01" nType="-99"/>
          </Node>
          <Node pos="r" depth="2" NCoef="0" IVar="9" Cut="3.0000000000000000e+00" cType="1" res="-5.1249619573354721e-03" rms="4.0399178862571716e-01" purity="5.5112445354461670e-01" nType="0">
            <Node pos="l" depth="3" NCoef="0" IVar="0" Cut="2.0053278125000000e+05" cType="1" res="8.4538394585251808e-03" rms="4.1685184836387634e-01" purity="4.8938935995101929e-01" nType="0">
              <Node pos="l" depth="4" NCoef="0" IVar="-1" Cut="0.0000000000000000e+00" cType="1" res="7.7192694880068302e-03" rms="4.4212004542350769e-01" purity="6.5047681331634521e-01" nType="-99"/>
              <Node pos="r" depth="4" NCoef="0" IVar="-1" Cut="0.0000000000000000e+00" cType="1" res="-1.1787110008299351e-02" rms="3.7836545705795288e-01" purity="2.7697795629501343e-01" nType="-99"/>
            </Node>
            <Node pos="r" depth="3" NCoef="0" IVar="7" Cut="3.0808703613281250e+02" cType="1" res="-1.6926893964409828e-02" rms="3.9224058389663696e-01" purity="6.0431039333343506e-01" nType="0">
              <Node pos="l" depth="4" NCoef="0" IVar="-1" Cut="0.0000000000000000e+00" cType="1" res="-1.0903257876634598e-02" rms="4.0898033976554871e-01" purity="4.9554258584976196e-01" nType="-99"/>
              <Node pos="r" depth="4" NCoef="0" IVar="-1" Cut="0.0000000000000000e+00" cType="1" res="6.1636330792680383e-04" rms="3.6502882838249207e-01" purity="7.6692187786102295e-01" nType="-99"/>
            </Node>
          </Node>
        </Node>
      </Node>
    </BinaryTree>
    <BinaryTree type="DecisionTree" boostWeight="1.0000000000000000e+00" itree="163">
      <Node pos="s" depth="0" NCoef="0" IVar="6" Cut="4.8512408137321472e-01" cType="1" res="-7.4174804612994194e-03" rms="4.1690820455551147e-01" purity="5.0374281406402588e-01" nType="0">
        <Node pos="l" depth="1" NCoef="0" IVar="-1" Cut="0.0000000000000000e+00" cType="1" res="-8.3821034058928490e-03" rms="4.3388530611991882e-01" purity="3.5053899884223938e-01" nType="-99"/>
        <Node pos="r" depth="1" NCoef="0" IVar="8" Cut="2.7876970767974854e+00" cType="1" res="0.0000000000000000e+00" rms="0.0000000000000000e+00" purity="5.2195227146148682e-01" nType="0">
          <Node pos="l" depth="2" NCoef="0" IVar="-1" Cut="0.0000000000000000e+00" cType="1" res="-1.1003004387021065e-02" rms="4.4308045506477356e-01" purity="4.6553581953048706e-01" nType="-99"/>
          <Node pos="r" depth="2" NCoef="0" IVar="8" Cut="2.9226307868957520e+00" cType="1" res="8.0726807937026024e-04" rms="4.1045153141021729e-01" purity="5.2965539693832397e-01" nType="0">
            <Node pos="l" depth="3" NCoef="0" IVar="-1" Cut="0.0000000000000000e+00" cType="1" res="1.0229394771158695e-02" rms="4.2376768589019775e-01" purity="5.4551655054092407e-01" nType="-99"/>
            <Node pos="r" depth="3" NCoef="0" IVar="8" Cut="3.0582354068756104e+00" cType="1" res="-7.6362565159797668e-03" rms="4.0660038590431213e-01" purity="5.2566951513290405e-01" nType="0">
              <Node pos="l" depth="4" NCoef="0" IVar="-1" Cut="0.0000000000000000e+00" cType="1" res="-5.6961276568472385e-03" rms="4.1057506203651428e-01" purity="4.9882373213768005e-01" nType="-99"/>
              <Node pos="r" depth="4" NCoef="0" IVar="-1" Cut="0.0000000000000000e+00" cType="1" res="1.9043020438402891e-03" rms="4.0164622664451599e-01" purity="5.5584853887557983e-01" nType="-99"/>
            </Node>
          </Node>
        </Node>
      </Node>
    </BinaryTree>
    <BinaryTree type="DecisionTree" boostWeight="1.0000000000000000e+00" itree="164">
      <Node pos="s" depth="0" NCoef="0" IVar="6" Cut="5.1346540451049805e-01" cType="1" res="-1.5896752011030912e-03" rms="4.1496139764785767e-01" purity="5.0118625164031982e-01" nType="0">
        <Node pos="l" depth="1" NCoef="0" IVar="-1" Cut="0.0000000000000000e+00" cType="1" res="5.9483842924237251e-03" rms="4.5016631484031677e-01" purity="4.3039324879646301e-01" nType="-99"/>
        <Node pos="r" depth="1" NCoef="0" IVar="1" Cut="1.6454845666885376e+00" cType="1" res="-7.5784767977893353e-03" rms="4.0781757235527039e-01" purity="5.1431566476821899e-01" nType="0">
          <Node pos="l" depth="2" NCoef="0" IVar="3" Cut="6.0554992187500000e+04" cType="1" res="2.3822095245122910e-03" rms="4.0158483386039734e-01" purity="5.0235307216644287e-01" nType="0">
            <Node pos="l" depth="3" NCoef="0" IVar="-1" Cut="0.0000000000000000e+00" cType="1" res="-1.9304282031953335e-03" rms="3.8992372155189514e-01" purity="3.0313903093338013e-01" nType="-99"/>
            <Node pos="r" depth="3" NCoef="0" IVar="8" Cut="2.9314074516296387e+00" cType="1" res="1.2583548203110695e-02" rms="4.0639644861221313e-01" purity="5.9342378377914429e-01" nType="0">
              <Node pos="l" depth="4" NCoef="0" IVar="-1" Cut="0.0000000000000000e+00" cType="1" res="-4.6781864948570728e-03" rms="4.2906263470649719e-01" purity="5.3637605905532837e-01" nType="-99"/>
              <Node pos="r" depth="4" NCoef="0" IVar="-1" Cut="0.0000000000000000e+00" cType="1" res="8.0949878320097923e-03" rms="3.9578408002853394e-01" purity="6.1766701936721802e-01" nType="-99"/>
            </Node>
          </Node>
          <Node pos="r" depth="2" NCoef="0" IVar="9" Cut="3.0000000000000000e+00" cType="1" res="-2.7400152757763863e-02" rms="4.1878512501716614e-01" purity="5.3871107101440430e-01" nType="0">
            <Node pos="l" depth="3" NCoef="0" IVar="-1" Cut="0.0000000000000000e+00" cType="1" res="-4.0674423798918724e-03" rms="4.3523481488227844e-01" purity="4.9320152401924133e-01" nType="-99"/>
            <Node pos="r" depth="3" NCoef="0" IVar="-1" Cut="0.0000000000000000e+00" cType="1" res="-1.5110964886844158e-02" rms="4.0354153513908386e-01" purity="5.8230680227279663e-01" nType="-99"/>
          </Node>
        </Node>
      </Node>
    </BinaryTree>
    <BinaryTree type="DecisionTree" boostWeight="1.0000000000000000e+00" itree="165">
      <Node pos="s" depth="0" NCoef="0" IVar="8" Cut="2.7324304580688477e+00" cType="1" res="1.0174200870096684e-03" rms="4.1713362932205200e-01" purity="5.0720983743667603e-01" nType="0">
        <Node pos="l" depth="1" NCoef="0" IVar="-1" Cut="0.0000000000000000e+00" cType="1" res="8.3106858655810356e-03" rms="4.3257826566696167e-01" purity="5.1352196931838989e-01" nType="-99"/>
        <Node pos="r" depth="1" NCoef="0" IVar="6" Cut="5.1329201459884644e-01" cType="1" res="-2.7820088434964418e-03" rms="4.1513675451278687e-01" purity="5.0647729635238647e-01" nType="0">
          <Node pos="l" depth="2" NCoef="0" IVar="-1" Cut="0.0000000000000000e+00" cType="1" res="-1.0264419019222260e-02" rms="4.4459635019302368e-01" purity="3.3649736642837524e-01" nType="-99"/>
          <Node pos="r" depth="2" NCoef="0" IVar="6" Cut="8.1110292673110962e-01" cType="1" res="2.9320716857910156e-03" rms="4.1041922569274902e-01" purity="5.3086894750595093e-01" nType="0">
            <Node pos="l" depth="3" NCoef="0" IVar="8" Cut="2.8883194923400879e+00" cType="1" res="8.6675444617867470e-03" rms="4.1318118572235107e-01" purity="5.6509935855865479e-01" nType="0">
              <Node pos="l" depth="4" NCoef="0" IVar="-1" Cut="0.0000000000000000e+00" cType="1" res="-6.5132915042340755e-03" rms="4.2590191960334778e-01" purity="4.8533609509468079e-01" nType="-99"/>
              <Node pos="r" depth="4" NCoef="0" IVar="-1" Cut="0.0000000000000000e+00" cType="1" res="4.9178861081600189e-03" rms="4.0981307625770569e-01" purity="5.8326244354248047e-01" nType="-99"/>
            </Node>
            <Node pos="r" depth="3" NCoef="0" IVar="-1" Cut="0.0000000000000000e+00" cType="1" res="-9.1927042230963707e-03" rms="3.9096978306770325e-01" purity="3.1845569610595703e-01" nType="-99"/>
          </Node>
        </Node>
      </Node>
    </BinaryTree>
    <BinaryTree type="DecisionTree" boostWeight="1.0000000000000000e+00" itree="166">
      <Node pos="s" depth="0" NCoef="0" IVar="5" Cut="2.4288128662109375e+02" cType="1" res="0.0000000000000000e+00" rms="0.0000000000000000e+00" purity="5.0752049684524536e-01" nType="0">
        <Node pos="l" depth="1" NCoef="0" IVar="1" Cut="1.9448738098144531e+00" cType="1" res="0.0000000000000000e+00" rms="0.0000000000000000e+00" purity="5.1440811157226562e-01" nType="0">
          <Node pos="l" depth="2" NCoef="0" IVar="4" Cut="6.3529414062500000e+04" cType="1" res="-1.8429404124617577e-02" rms="4.1680207848548889e-01" purity="4.9044775962829590e-01" nType="0">
            <Node pos="l" depth="3" NCoef="0" IVar="7" Cut="2.6613732910156250e+02" cType="1" res="-3.6346907727420330e-03" rms="4.1254258155822754e-01" purity="4.3355062603950500e-01" nType="0">
              <Node pos="l" depth="4" NCoef="0" IVar="-1" Cut="0.0000000000000000e+00" cType="1" res="-5.5027971975505352e-03" rms="4.1177794337272644e-01" purity="3.4970238804817200e-01" nType="-99"/>
              <Node pos="r" depth="4" NCoef="0" IVar="-1" Cut="0.0000000000000000e+00" cType="1" res="9.0524684637784958e-03" rms="4.1214299201965332e-01" purity="6.1186051368713379e-01" nType="-99"/>
            </Node>
            <Node pos="r" depth="3" NCoef="0" IVar="-1" Cut="0.0000000000000000e+00" cType="1" res="-8.5476171225309372e-03" rms="4.2259624600410461e-01" purity="5.8415126800537109e-01" nType="-99"/>
          </Node>
          <Node pos="r" depth="2" NCoef="0" IVar="6" Cut="6.5194493532180786e-01" cType="1" res="2.1794332191348076e-02" rms="4.1724085807800293e-01" purity="5.7454496622085571e-01" nType="0">
            <Node pos="l" depth="3" NCoef="0" IVar="-1" Cut="0.0000000000000000e+00" cType="1" res="2.5611051823943853e-03" rms="4.3244391679763794e-01" purity="5.3462618589401245e-01" nType="-99"/>
            <Node pos="r" depth="3" NCoef="0" IVar="-1" Cut="0.0000000000000000e+00" cType="1" res="1.0636881925165653e-02" rms="4.0144833922386169e-01" purity="6.1341744661331177e-01" nType="-99"/>
          </Node>
        </Node>
        <Node pos="r" depth="1" NCoef="0" IVar="1" Cut="1.4993011951446533e-01" cType="1" res="2.5376444682478905e-02" rms="4.2492181062698364e-01" purity="4.8355072736740112e-01" nType="0">
          <Node pos="l" depth="2" NCoef="0" IVar="-1" Cut="0.0000000000000000e+00" cType="1" res="3.3761310623958707e-04" rms="4.2001113295555115e-01" purity="4.5429769158363342e-01" nType="-99"/>
          <Node pos="r" depth="2" NCoef="0" IVar="-1" Cut="0.0000000000000000e+00" cType="1" res="1.0753920301795006e-02" rms="4.2836302518844604e-01" purity="5.1228481531143188e-01" nType="-99"/>
        </Node>
      </Node>
    </BinaryTree>
    <BinaryTree type="DecisionTree" boostWeight="1.0000000000000000e+00" itree="167">
      <Node pos="s" depth="0" NCoef="0" IVar="5" Cut="1.5210832214355469e+02" cType="1" res="-7.1822977624833584e-03" rms="4.1475573182106018e-01" purity="4.9158397316932678e-01" nType="0">
        <Node pos="l" depth="1" NCoef="0" IVar="-1" Cut="0.0000000000000000e+00" cType="1" res="-1.0275908745825291e-02" rms="4.1953849792480469e-01" purity="4.3457469344139099e-01" nType="-99"/>
        <Node pos="r" depth="1" NCoef="0" IVar="1" Cut="2.5432286262512207e+00" cType="1" res="-2.1178273018449545e-03" rms="4.1376861929893494e-01" purity="5.0058001279830933e-01" nType="0">
          <Node pos="l" depth="2" NCoef="0" IVar="9" Cut="3.0000000000000000e+00" cType="1" res="-8.2591604441404343e-03" rms="4.1059154272079468e-01" purity="4.8713800311088562e-01" nType="0">
            <Node pos="l" depth="3" NCoef="0" IVar="8" Cut="3.0007152557373047e+00" cType="1" res="-2.0611019805073738e-02" rms="4.0974679589271545e-01" purity="3.8139984011650085e-01" nType="0">
              <Node pos="l" depth="4" NCoef="0" IVar="-1" Cut="0.0000000000000000e+00" cType="1" res="-1.1045061051845551e-02" rms="4.2848652601242065e-01" purity="3.6076289415359497e-01" nType="-99"/>
              <Node pos="r" depth="4" NCoef="0" IVar="-1" Cut="0.0000000000000000e+00" cType="1" res="-9.5120363403111696e-04" rms="3.9104929566383362e-01" purity="4.0030130743980408e-01" nType="-99"/>
            </Node>
            <Node pos="r" depth="3" NCoef="0" IVar="7" Cut="3.0894787597656250e+02" cType="1" res="0.0000000000000000e+00" rms="0.0000000000000000e+00" purity="5.7651925086975098e-01" nType="0">
              <Node pos="l" depth="4" NCoef="0" IVar="-1" Cut="0.0000000000000000e+00" cType="1" res="-5.0396006554365158e-03" rms="4.2160707712173462e-01" purity="4.7966733574867249e-01" nType="-99"/>
              <Node pos="r" depth="4" NCoef="0" IVar="-1" Cut="0.0000000000000000e+00" cType="1" res="8.4765246137976646e-03" rms="3.9823272824287415e-01" purity="6.8194758892059326e-01" nType="-99"/>
            </Node>
          </Node>
          <Node pos="r" depth="2" NCoef="0" IVar="-1" Cut="0.0000000000000000e+00" cType="1" res="9.6704345196485519e-03" rms="4.2780840396881104e-01" purity="5.6759941577911377e-01" nType="-99"/>
        </Node>
      </Node>
    </BinaryTree>
    <BinaryTree type="DecisionTree" boostWeight="1.0000000000000000e+00" itree="168">
      <Node pos="s" depth="0" NCoef="0" IVar="1" Cut="1.3465912342071533e+00" cType="1" res="0.0000000000000000e+00" rms="0.0000000000000000e+00" purity="4.8739147186279297e-01" nType="0">
        <Node pos="l" depth="1" NCoef="0" IVar="3" Cut="6.0985906250000000e+04" cType="1" res="-2.1464603021740913e-02" rms="4.1092163324356079e-01" purity="4.5419824123382568e-01" nType="0">
          <Node pos="l" depth="2" NCoef="0" IVar="-1" Cut="0.0000000000000000e+00" cType="1" res="-3.7128576077520847e-03" rms="3.7438172101974487e-01" purity="2.6718768477439880e-01" nType="-99"/>
          <Node pos="r" depth="2" NCoef="0" IVar="2" Cut="2.4225490093231201e+00" cType="1" res="-7.9510286450386047e-03" rms="4.2401120066642761e-01" purity="5.2956730127334595e-01" nType="0">
            <Node pos="l" depth="3" NCoef="0" IVar="4" Cut="7.1807937500000000e+04" cType="1" res="1.9415820715948939e-03" rms="4.2130979895591736e-01" purity="5.1344394683837891e-01" nType="0">
              <Node pos="l" depth="4" NCoef="0" IVar="-1" Cut="0.0000000000000000e+00" cType="1" res="5.1858150400221348e-03" rms="4.2305824160575867e-01" purity="4.8110660910606384e-01" nType="-99"/>
              <Node pos="r" depth="4" NCoef="0" IVar="-1" Cut="0.0000000000000000e+00" cType="1" res="-8.0476030707359314e-03" rms="4.1751939058303833e-01" purity="5.6157267093658447e-01" nType="-99"/>
            </Node>
            <Node pos="r" depth="3" NCoef="0" IVar="-1" Cut="0.0000000000000000e+00" cType="1" res="-5.7345665991306305e-03" rms="4.2830282449722290e-01" purity="5.5894738435745239e-01" nType="-99"/>
          </Node>
        </Node>
        <Node pos="r" depth="1" NCoef="0" IVar="1" Cut="2.2012042999267578e+00" cType="1" res="1.6381125897169113e-02" rms="4.1718527674674988e-01" purity="5.4631274938583374e-01" nType="0">
          <Node pos="l" depth="2" NCoef="0" IVar="-1" Cut="0.0000000000000000e+00" cType="1" res="1.6286762431263924e-02" rms="4.2384082078933716e-01" purity="5.9578859806060791e-01" nType="-99"/>
          <Node pos="r" depth="2" NCoef="0" IVar="9" Cut="3.0000000000000000e+00" cType="1" res="-6.0884249396622181e-03" rms="4.1167566180229187e-01" purity="5.1893186569213867e-01" nType="0">
            <Node pos="l" depth="3" NCoef="0" IVar="-1" Cut="0.0000000000000000e+00" cType="1" res="1.8164700595661998e-03" rms="4.2421829700469971e-01" purity="4.9663940072059631e-01" nType="-99"/>
            <Node pos="r" depth="3" NCoef="0" IVar="-1" Cut="0.0000000000000000e+00" cType="1" res="-6.3364841043949127e-03" rms="3.9898461103439331e-01" purity="5.4033857583999634e-01" nType="-99"/>
          </Node>
        </Node>
      </Node>
    </BinaryTree>
    <BinaryTree type="DecisionTree" boostWeight="1.0000000000000000e+00" itree="169">
      <Node pos="s" depth="0" NCoef="0" IVar="3" Cut="5.1958300781250000e+04" cType="1" res="-6.3429810106754303e-03" rms="4.1289252042770386e-01" purity="4.9113035202026367e-01" nType="0">
        <Node pos="l" depth="1" NCoef="0" IVar="-1" Cut="0.0000000000000000e+00" cType="1" res="-8.0765001475811005e-03" rms="3.7536418437957764e-01" purity="2.6617830991744995e-01" nType="-99"/>
        <Node pos="r" depth="1" NCoef="0" IVar="7" Cut="4.0414990234375000e+02" cType="1" res="-6.5205892315134406e-04" rms="4.1914615035057068e-01" purity="5.3229010105133057e-01" nType="0">
          <Node pos="l" depth="2" NCoef="0" IVar="9" Cut="4.0000000000000000e+00" cType="1" res="-5.7133738882839680e-03" rms="4.2370340228080750e-01" purity="4.9918326735496521e-01" nType="0">
            <Node pos="l" depth="3" NCoef="0" IVar="9" Cut="3.0000000000000000e+00" cType="1" res="-2.4131535610649735e-04" rms="4.2284139990806580e-01" purity="4.8701235651969910e-01" nType="0">
              <Node pos="l" depth="4" NCoef="0" IVar="-1" Cut="0.0000000000000000e+00" cType="1" res="-4.7069843858480453e-03" rms="4.2654919624328613e-01" purity="4.4014742970466614e-01" nType="-99"/>
              <Node pos="r" depth="4" NCoef="0" IVar="-1" Cut="0.0000000000000000e+00" cType="1" res="6.0515804216265678e-03" rms="4.2153373360633850e-01" purity="5.5403745174407959e-01" nType="-99"/>
            </Node>
            <Node pos="r" depth="3" NCoef="0" IVar="-1" Cut="0.0000000000000000e+00" cType="1" res="-1.1403873562812805e-02" rms="4.1606670618057251e-01" purity="5.6417179107666016e-01" nType="-99"/>
          </Node>
          <Node pos="r" depth="2" NCoef="0" IVar="-1" Cut="0.0000000000000000e+00" cType="1" res="1.0317385196685791e-02" rms="3.9068886637687683e-01" purity="7.2216981649398804e-01" nType="-99"/>
        </Node>
      </Node>
    </BinaryTree>
    <BinaryTree type="DecisionTree" boostWeight="1.0000000000000000e+00" itree="170">
      <Node pos="s" depth="0" NCoef="0" IVar="5" Cut="1.5262722778320312e+02" cType="1" res="-2.3348215036094189e-03" rms="4.1145023703575134e-01" purity="5.0183272361755371e-01" nType="0">
        <Node pos="l" depth="1" NCoef="0" IVar="-1" Cut="0.0000000000000000e+00" cType="1" res="-6.8695778027176857e-03" rms="4.0611103177070618e-01" purity="4.3682515621185303e-01" nType="-99"/>
        <Node pos="r" depth="1" NCoef="0" IVar="9" Cut="4.0000000000000000e+00" cType="1" res="1.1534783989191055e-03" rms="4.1213482618331909e-01" purity="5.1192581653594971e-01" nType="0">
          <Node pos="l" depth="2" NCoef="0" IVar="6" Cut="6.8101650476455688e-01" cType="1" res="-4.8163938336074352e-03" rms="4.1382536292076111e-01" purity="4.7771716117858887e-01" nType="0">
            <Node pos="l" depth="3" NCoef="0" IVar="7" Cut="2.7508831787109375e+02" cType="1" res="-1.8385535106062889e-02" rms="4.2894068360328674e-01" purity="4.7337263822555542e-01" nType="0">
              <Node pos="l" depth="4" NCoef="0" IVar="-1" Cut="0.0000000000000000e+00" cType="1" res="-4.3169604032300413e-04" rms="4.2538461089134216e-01" purity="4.3781495094299316e-01" nType="-99"/>
              <Node pos="r" depth="4" NCoef="0" IVar="-1" Cut="0.0000000000000000e+00" cType="1" res="-1.5391535125672817e-02" rms="4.3305861949920654e-01" purity="5.2767401933670044e-01" nType="-99"/>
            </Node>
            <Node pos="r" depth="3" NCoef="0" IVar="1" Cut="-1.3465255498886108e+00" cType="1" res="1.0869630612432957e-02" rms="3.9505252242088318e-01" purity="4.8273947834968567e-01" nType="0">
              <Node pos="l" depth="4" NCoef="0" IVar="-1" Cut="0.0000000000000000e+00" cType="1" res="1.4197036623954773e-02" rms="4.2997303605079651e-01" purity="5.4704576730728149e-01" nType="-99"/>
              <Node pos="r" depth="4" NCoef="0" IVar="-1" Cut="0.0000000000000000e+00" cType="1" res="-1.0043161455541849e-03" rms="3.7641152739524841e-01" purity="4.5211303234100342e-01" nType="-99"/>
            </Node>
          </Node>
          <Node pos="r" depth="2" NCoef="0" IVar="-1" Cut="0.0000000000000000e+00" cType="1" res="8.5259480401873589e-03" rms="4.0418353676795959e-01" purity="6.5556323528289795e-01" nType="-99"/>
        </Node>
      </Node>
    </BinaryTree>
    <BinaryTree type="DecisionTree" boostWeight="1.0000000000000000e+00" itree="171">
      <Node pos="s" depth="0" NCoef="0" IVar="2" Cut="2.4728894233703613e+00" cType="1" res="-1.1492952471598983e-03" rms="4.1278997063636780e-01" purity="4.9735331535339355e-01" nType="0">
        <Node pos="l" depth="1" NCoef="0" IVar="6" Cut="5.1323878765106201e-01" cType="1" res="-9.3251438811421394e-03" rms="4.1029766201972961e-01" purity="4.5623606443405151e-01" nType="0">
          <Node pos="l" depth="2" NCoef="0" IVar="-1" Cut="0.0000000000000000e+00" cType="1" res="4.0315738879144192e-03" rms="4.3842935562133789e-01" purity="3.8630372285842896e-01" nType="-99"/>
          <Node pos="r" depth="2" NCoef="0" IVar="4" Cut="4.6901921875000000e+04" cType="1" res="-1.5035571530461311e-02" rms="4.0483602881431580e-01" purity="4.6864184737205505e-01" nType="0">
            <Node pos="l" depth="3" NCoef="0" IVar="7" Cut="1.8796043395996094e+02" cType="1" res="5.2483533509075642e-03" rms="3.9125570654869080e-01" purity="3.3130580186843872e-01" nType="0">
              <Node pos="l" depth="4" NCoef="0" IVar="-1" Cut="0.0000000000000000e+00" cType="1" res="-1.6599566442891955e-03" rms="3.6607682704925537e-01" purity="2.1516607701778412e-01" nType="-99"/>
              <Node pos="r" depth="4" NCoef="0" IVar="-1" Cut="0.0000000000000000e+00" cType="1" res="6.7655853927135468e-03" rms="4.1764113306999207e-01" purity="4.6320861577987671e-01" nType="-99"/>
            </Node>
            <Node pos="r" depth="3" NCoef="0" IVar="8" Cut="3.0631761550903320e+00" cType="1" res="-2.6681423187255859e-02" rms="4.1197997331619263e-01" purity="5.4749226570129395e-01" nType="0">
              <Node pos="l" depth="4" NCoef="0" IVar="-1" Cut="0.0000000000000000e+00" cType="1" res="-4.2952126823365688e-03" rms="4.2548504471778870e-01" purity="5.4999071359634399e-01" nType="-99"/>
              <Node pos="r" depth="4" NCoef="0" IVar="-1" Cut="0.0000000000000000e+00" cType="1" res="-2.6878765784204006e-03" rms="3.8253718614578247e-01" purity="5.4256302118301392e-01" nType="-99"/>
            </Node>
          </Node>
        </Node>
        <Node pos="r" depth="1" NCoef="0" IVar="1" Cut="-1.0463241338729858e+00" cType="1" res="1.6137663275003433e-02" rms="4.1748395562171936e-01" purity="5.8429121971130371e-01" nType="0">
          <Node pos="l" depth="2" NCoef="0" IVar="-1" Cut="0.0000000000000000e+00" cType="1" res="-1.9350916845723987e-03" rms="4.2650422453880310e-01" purity="5.4184097051620483e-01" nType="-99"/>
          <Node pos="r" depth="2" NCoef="0" IVar="-1" Cut="0.0000000000000000e+00" cType="1" res="1.0016053915023804e-02" rms="4.0997564792633057e-01" purity="6.1449807882308960e-01" nType="-99"/>
        </Node>
      </Node>
    </BinaryTree>
    <BinaryTree type="DecisionTree" boostWeight="1.0000000000000000e+00" itree="172">
      <Node pos="s" depth="0" NCoef="0" IVar="2" Cut="1.9406341314315796e+00" cType="1" res="0.0000000000000000e+00" rms="0.0000000000000000e+00" purity="5.0348734855651855e-01" nType="0">
        <Node pos="l" depth="1" NCoef="0" IVar="7" Cut="1.7066954040527344e+02" cType="1" res="1.9991289824247360e-02" rms="4.1204905509948730e-01" purity="4.4621056318283081e-01" nType="0">
          <Node pos="l" depth="2" NCoef="0" IVar="-1" Cut="0.0000000000000000e+00" cType="1" res="-5.9010758996009827e-03" rms="3.7516215443611145e-01" purity="2.1432942152023315e-01" nType="-99"/>
          <Node pos="r" depth="2" NCoef="0" IVar="9" Cut="3.0000000000000000e+00" cType="1" res="0.0000000000000000e+00" rms="0.0000000000000000e+00" purity="5.3298527002334595e-01" nType="0">
            <Node pos="l" depth="3" NCoef="0" IVar="-1" Cut="0.0000000000000000e+00" cType="1" res="2.0578930154442787e-02" rms="4.3948090076446533e-01" purity="5.4623490571975708e-01" nType="-99"/>
            <Node pos="r" depth="3" NCoef="0" IVar="0" Cut="1.9851643750000000e+05" cType="1" res="1.3376626186072826e-02" rms="4.1420713067054749e-01" purity="5.2543634176254272e-01" nType="0">
              <Node pos="l" depth="4" NCoef="0" IVar="-1" Cut="0.0000000000000000e+00" cType="1" res="1.0201526805758476e-02" rms="4.2513951659202576e-01" purity="6.5004152059555054e-01" nType="-99"/>
              <Node pos="r" depth="4" NCoef="0" IVar="-1" Cut="0.0000000000000000e+00" cType="1" res="-6.5318373963236809e-03" rms="3.9851638674736023e-01" purity="3.7282550334930420e-01" nType="-99"/>
            </Node>
          </Node>
        </Node>
        <Node pos="r" depth="1" NCoef="0" IVar="6" Cut="5.9640413522720337e-01" cType="1" res="-1.2318274937570095e-02" rms="4.1769495606422424e-01" purity="5.5898195505142212e-01" nType="0">
          <Node pos="l" depth="2" NCoef="0" IVar="-1" Cut="0.0000000000000000e+00" cType="1" res="-8.3148889243602753e-03" rms="4.3839126825332642e-01" purity="4.7678223252296448e-01" nType="-99"/>
          <Node pos="r" depth="2" NCoef="0" IVar="6" Cut="6.7119902372360229e-01" cType="1" res="-1.8141005421057343e-03" rms="4.0653696656227112e-01" purity="6.0011446475982666e-01" nType="0">
            <Node pos="l" depth="3" NCoef="0" IVar="-1" Cut="0.0000000000000000e+00" cType="1" res="6.3262716867029667e-03" rms="3.9207607507705688e-01" purity="6.8448561429977417e-01" nType="-99"/>
            <Node pos="r" depth="3" NCoef="0" IVar="-1" Cut="0.0000000000000000e+00" cType="1" res="-1.7002787208184600e-03" rms="4.1339030861854553e-01" purity="5.5490684509277344e-01" nType="-99"/>
          </Node>
        </Node>
      </Node>
    </BinaryTree>
    <BinaryTree type="DecisionTree" boostWeight="1.0000000000000000e+00" itree="173">
      <Node pos="s" depth="0" NCoef="0" IVar="2" Cut="1.1417294740676880e+00" cType="1" res="-3.1641328241676092e-03" rms="4.1344583034515381e-01" purity="4.9850371479988098e-01" nType="0">
        <Node pos="l" depth="1" NCoef="0" IVar="5" Cut="1.9781875610351562e+02" cType="1" res="-2.9034767299890518e-02" rms="3.5644903779029846e-01" purity="2.9908099770545959e-01" nType="0">
          <Node pos="l" depth="2" NCoef="0" IVar="-1" Cut="0.0000000000000000e+00" cType="1" res="-6.5416423603892326e-03" rms="3.6180788278579712e-01" purity="3.4592184424400330e-01" nType="-99"/>
          <Node pos="r" depth="2" NCoef="0" IVar="-1" Cut="0.0000000000000000e+00" cType="1" res="-2.0684922114014626e-02" rms="3.4837037324905396e-01" purity="2.3613591492176056e-01" nType="-99"/>
        </Node>
        <Node pos="r" depth="1" NCoef="0" IVar="8" Cut="2.8347165584564209e+00" cType="1" res="5.6643187999725342e-03" rms="4.3081998825073242e-01" purity="5.6655746698379517e-01" nType="0">
          <Node pos="l" depth="2" NCoef="0" IVar="-1" Cut="0.0000000000000000e+00" cType="1" res="9.0615814551711082e-03" rms="4.5377472043037415e-01" purity="5.7384538650512695e-01" nType="-99"/>
          <Node pos="r" depth="2" NCoef="0" IVar="4" Cut="5.0707207031250000e+04" cType="1" res="-1.5829886542633176e-03" rms="4.2516130208969116e-01" purity="5.6492179632186890e-01" nType="0">
            <Node pos="l" depth="3" NCoef="0" IVar="4" Cut="3.9766109375000000e+04" cType="1" res="2.7167020365595818e-02" rms="4.1891762614250183e-01" purity="4.9515229463577271e-01" nType="0">
              <Node pos="l" depth="4" NCoef="0" IVar="-1" Cut="0.0000000000000000e+00" cType="1" res="-4.4264984353503678e-06" rms="4.1841509938240051e-01" purity="4.1792950034141541e-01" nType="-99"/>
              <Node pos="r" depth="4" NCoef="0" IVar="-1" Cut="0.0000000000000000e+00" cType="1" res="1.6728891059756279e-02" rms="4.1769835352897644e-01" purity="5.7076811790466309e-01" nType="-99"/>
            </Node>
            <Node pos="r" depth="3" NCoef="0" IVar="8" Cut="3.0100886821746826e+00" cType="1" res="-2.1356057375669479e-02" rms="4.2828413844108582e-01" purity="6.1290639638900757e-01" nType="0">
              <Node pos="l" depth="4" NCoef="0" IVar="-1" Cut="0.0000000000000000e+00" cType="1" res="-7.5201638974249363e-03" rms="4.4400340318679810e-01" purity="5.7635390758514404e-01" nType="-99"/>
              <Node pos="r" depth="4" NCoef="0" IVar="-1" Cut="0.0000000000000000e+00" cType="1" res="-1.5192021382972598e-03" rms="4.1759160161018372e-01" purity="6.3658058643341064e-01" nType="-99"/>
            </Node>
          </Node>
        </Node>
      </Node>
    </BinaryTree>
    <BinaryTree type="DecisionTree" boostWeight="1.0000000000000000e+00" itree="174">
      <Node pos="s" depth="0" NCoef="0" IVar="8" Cut="3.0392858982086182e+00" cType="1" res="-1.1164574883878231e-02" rms="4.1332668066024780e-01" purity="4.8882102966308594e-01" nType="0">
        <Node pos="l" depth="1" NCoef="0" IVar="8" Cut="2.7616355419158936e+00" cType="1" res="1.0313225211575627e-03" rms="4.2040130496025085e-01" purity="4.8186072707176208e-01" nType="0">
          <Node pos="l" depth="2" NCoef="0" IVar="-1" Cut="0.0000000000000000e+00" cType="1" res="-6.3884649425745010e-03" rms="4.2979615926742554e-01" purity="4.5650523900985718e-01" nType="-99"/>
          <Node pos="r" depth="2" NCoef="0" IVar="2" Cut="1.6974656581878662e+00" cType="1" res="6.9357394240796566e-03" rms="4.1782757639884949e-01" purity="4.8815244436264038e-01" nType="0">
            <Node pos="l" depth="3" NCoef="0" IVar="9" Cut="3.0000000000000000e+00" cType="1" res="-4.9245725385844707e-03" rms="3.9433607459068298e-01" purity="3.7936711311340332e-01" nType="0">
              <Node pos="l" depth="4" NCoef="0" IVar="-1" Cut="0.0000000000000000e+00" cType="1" res="4.9678524956107140e-03" rms="4.0951079130172729e-01" purity="3.6300781369209290e-01" nType="-99"/>
              <Node pos="r" depth="4" NCoef="0" IVar="-1" Cut="0.0000000000000000e+00" cType="1" res="-8.1815347075462341e-03" rms="3.9176097512245178e-01" purity="3.9509272575378418e-01" nType="-99"/>
            </Node>
            <Node pos="r" depth="3" NCoef="0" IVar="9" Cut="3.0000000000000000e+00" cType="1" res="1.7203297466039658e-02" rms="4.3013915419578552e-01" purity="5.7420182228088379e-01" nType="0">
              <Node pos="l" depth="4" NCoef="0" IVar="-1" Cut="0.0000000000000000e+00" cType="1" res="-1.9792250823229551e-03" rms="4.4421514868736267e-01" purity="4.6967509388923645e-01" nType="-99"/>
              <Node pos="r" depth="4" NCoef="0" IVar="-1" Cut="0.0000000000000000e+00" cType="1" res="1.2461807578802109e-02" rms="4.1675490140914917e-01" purity="6.6449505090713501e-01" nType="-99"/>
            </Node>
          </Node>
        </Node>
        <Node pos="r" depth="1" NCoef="0" IVar="2" Cut="1.7176308631896973e+00" cType="1" res="-3.1454138457775116e-02" rms="4.0045872330665588e-01" purity="5.0040042400360107e-01" nType="0">
          <Node pos="l" depth="2" NCoef="0" IVar="-1" Cut="0.0000000000000000e+00" cType="1" res="-6.9796066964045167e-04" rms="3.9057537913322449e-01" purity="4.4259554147720337e-01" nType="-99"/>
          <Node pos="r" depth="2" NCoef="0" IVar="-1" Cut="0.0000000000000000e+00" cType="1" res="-5.9771528467535973e-03" rms="4.0589746832847595e-01" purity="5.4058772325515747e-01" nType="-99"/>
        </Node>
      </Node>
    </BinaryTree>
    <BinaryTree type="DecisionTree" boostWeight="1.0000000000000000e+00" itree="175">
      <Node pos="s" depth="0" NCoef="0" IVar="8" Cut="2.9428114891052246e+00" cType="1" res="5.6905122473835945e-03" rms="4.1664966940879822e-01" purity="5.0106513500213623e-01" nType="0">
        <Node pos="l" depth="1" NCoef="0" IVar="9" Cut="3.0000000000000000e+00" cType="1" res="2.9967492446303368e-02" rms="4.3694788217544556e-01" purity="4.9149623513221741e-01" nType="0">
          <Node pos="l" depth="2" NCoef="0" IVar="-1" Cut="0.0000000000000000e+00" cType="1" res="1.4065849594771862e-02" rms="4.4094252586364746e-01" purity="4.8928359150886536e-01" nType="-99"/>
          <Node pos="r" depth="2" NCoef="0" IVar="-1" Cut="0.0000000000000000e+00" cType="1" res="1.0922506917268038e-03" rms="4.3180787563323975e-01" purity="4.9334841966629028e-01" nType="-99"/>
        </Node>
        <Node pos="r" depth="1" NCoef="0" IVar="8" Cut="3.0753245353698730e+00" cType="1" res="-8.2285217940807343e-03" rms="4.0389356017112732e-01" purity="5.0655192136764526e-01" nType="0">
          <Node pos="l" depth="2" NCoef="0" IVar="5" Cut="1.8774177551269531e+02" cType="1" res="-1.8271178007125854e-02" rms="4.0478241443634033e-01" purity="4.8191365599632263e-01" nType="0">
            <Node pos="l" depth="3" NCoef="0" IVar="8" Cut="3.0185370445251465e+00" cType="1" res="7.3896744288504124e-04" rms="4.0120735764503479e-01" purity="5.2727997303009033e-01" nType="0">
              <Node pos="l" depth="4" NCoef="0" IVar="-1" Cut="0.0000000000000000e+00" cType="1" res="-3.1899418681859970e-03" rms="4.0539270639419556e-01" purity="4.8321568965911865e-01" nType="-99"/>
              <Node pos="r" depth="4" NCoef="0" IVar="-1" Cut="0.0000000000000000e+00" cType="1" res="3.2866308465600014e-03" rms="3.9666637778282166e-01" purity="5.7209628820419312e-01" nType="-99"/>
            </Node>
            <Node pos="r" depth="3" NCoef="0" IVar="-1" Cut="0.0000000000000000e+00" cType="1" res="-1.2751734815537930e-02" rms="4.0789464116096497e-01" purity="4.2676967382431030e-01" nType="-99"/>
          </Node>
          <Node pos="r" depth="2" NCoef="0" IVar="7" Cut="1.9292314147949219e+02" cType="1" res="7.4951048009097576e-03" rms="4.0199434757232666e-01" purity="5.4512751102447510e-01" nType="0">
            <Node pos="l" depth="3" NCoef="0" IVar="-1" Cut="0.0000000000000000e+00" cType="1" res="-4.3935873545706272e-03" rms="4.1221216320991516e-01" purity="3.2404899597167969e-01" nType="-99"/>
            <Node pos="r" depth="3" NCoef="0" IVar="-1" Cut="0.0000000000000000e+00" cType="1" res="7.9847378656268120e-03" rms="3.9306604862213135e-01" purity="7.1928185224533081e-01" nType="-99"/>
          </Node>
        </Node>
      </Node>
    </BinaryTree>
    <BinaryTree type="DecisionTree" boostWeight="1.0000000000000000e+00" itree="176">
      <Node pos="s" depth="0" NCoef="0" IVar="2" Cut="1.2551839351654053e+00" cType="1" res="-5.0470903515815735e-03" rms="4.1814434528350830e-01" purity="4.9026122689247131e-01" nType="0">
        <Node pos="l" depth="1" NCoef="0" IVar="6" Cut="6.2572234869003296e-01" cType="1" res="1.4239958487451077e-02" rms="3.8299864530563354e-01" purity="3.5781416296958923e-01" nType="0">
          <Node pos="l" depth="2" NCoef="0" IVar="-1" Cut="0.0000000000000000e+00" cType="1" res="-3.0218288302421570e-03" rms="4.0622609853744507e-01" purity="3.3568087220191956e-01" nType="-99"/>
          <Node pos="r" depth="2" NCoef="0" IVar="-1" Cut="0.0000000000000000e+00" cType="1" res="1.4068009331822395e-02" rms="3.6078840494155884e-01" purity="3.7668222188949585e-01" nType="-99"/>
        </Node>
        <Node pos="r" depth="1" NCoef="0" IVar="2" Cut="2.3245198726654053e+00" cType="1" res="-1.3366991654038429e-02" rms="4.3215858936309814e-01" purity="5.4739522933959961e-01" nType="0">
          <Node pos="l" depth="2" NCoef="0" IVar="4" Cut="6.5443046875000000e+04" cType="1" res="-3.4494142979383469e-02" rms="4.3741753697395325e-01" purity="5.2252602577209473e-01" nType="0">
            <Node pos="l" depth="3" NCoef="0" IVar="2" Cut="1.7644150257110596e+00" cType="1" res="-2.0870916545391083e-02" rms="4.4022637605667114e-01" purity="4.6865057945251465e-01" nType="0">
              <Node pos="l" depth="4" NCoef="0" IVar="-1" Cut="0.0000000000000000e+00" cType="1" res="-7.1155647747218609e-03" rms="4.2636805772781372e-01" purity="4.0541440248489380e-01" nType="-99"/>
              <Node pos="r" depth="4" NCoef="0" IVar="-1" Cut="0.0000000000000000e+00" cType="1" res="-2.4030266795307398e-03" rms="4.5360818505287170e-01" purity="5.3342217206954956e-01" nType="-99"/>
            </Node>
            <Node pos="r" depth="3" NCoef="0" IVar="-1" Cut="0.0000000000000000e+00" cType="1" res="-1.6586199402809143e-02" rms="4.3183487653732300e-01" purity="6.1098670959472656e-01" nType="-99"/>
          </Node>
          <Node pos="r" depth="2" NCoef="0" IVar="1" Cut="-4.4781103730201721e-01" cType="1" res="5.2243005484342575e-03" rms="4.2661276459693909e-01" purity="5.6927943229675293e-01" nType="0">
            <Node pos="l" depth="3" NCoef="0" IVar="-1" Cut="0.0000000000000000e+00" cType="1" res="4.8314924351871014e-03" rms="4.3258765339851379e-01" purity="5.6860268115997314e-01" nType="-99"/>
            <Node pos="r" depth="3" NCoef="0" IVar="-1" Cut="0.0000000000000000e+00" cType="1" res="-2.9750256799161434e-03" rms="4.2084389925003052e-01" purity="5.6986027956008911e-01" nType="-99"/>
          </Node>
        </Node>
      </Node>
    </BinaryTree>
    <BinaryTree type="DecisionTree" boostWeight="1.0000000000000000e+00" itree="177">
      <Node pos="s" depth="0" NCoef="0" IVar="3" Cut="6.0497847656250000e+04" cType="1" res="-4.8346631228923798e-03" rms="4.1456654667854309e-01" purity="5.0256896018981934e-01" nType="0">
        <Node pos="l" depth="1" NCoef="0" IVar="8" Cut="3.0392744541168213e+00" cType="1" res="0.0000000000000000e+00" rms="0.0000000000000000e+00" purity="3.1835871934890747e-01" nType="0">
          <Node pos="l" depth="2" NCoef="0" IVar="-1" Cut="0.0000000000000000e+00" cType="1" res="-3.0406282749027014e-03" rms="3.9589020609855652e-01" purity="3.2585734128952026e-01" nType="-99"/>
          <Node pos="r" depth="2" NCoef="0" IVar="-1" Cut="0.0000000000000000e+00" cType="1" res="-2.8942569624632597e-03" rms="3.9787891507148743e-01" purity="3.0901429057121277e-01" nType="-99"/>
        </Node>
        <Node pos="r" depth="1" NCoef="0" IVar="1" Cut="-1.3458913564682007e+00" cType="1" res="4.5132376253604889e-03" rms="4.1941106319427490e-01" purity="5.6204277276992798e-01" nType="0">
          <Node pos="l" depth="2" NCoef="0" IVar="6" Cut="6.4625614881515503e-01" cType="1" res="2.0464330911636353e-02" rms="4.1403913497924805e-01" purity="5.7744973897933960e-01" nType="0">
            <Node pos="l" depth="3" NCoef="0" IVar="-1" Cut="0.0000000000000000e+00" cType="1" res="8.3388034254312515e-03" rms="4.1842782497406006e-01" purity="5.5353879928588867e-01" nType="-99"/>
            <Node pos="r" depth="3" NCoef="0" IVar="-1" Cut="0.0000000000000000e+00" cType="1" res="-1.3087496336083859e-04" rms="4.0627768635749817e-01" purity="6.1443573236465454e-01" nType="-99"/>
          </Node>
          <Node pos="r" depth="2" NCoef="0" IVar="4" Cut="8.2827632812500000e+04" cType="1" res="-5.0850175321102142e-03" rms="4.2232039570808411e-01" purity="5.5277186632156372e-01" nType="0">
            <Node pos="l" depth="3" NCoef="0" IVar="1" Cut="2.0731356143951416e+00" cType="1" res="0.0000000000000000e+00" rms="0.0000000000000000e+00" purity="5.2379828691482544e-01" nType="0">
              <Node pos="l" depth="4" NCoef="0" IVar="-1" Cut="0.0000000000000000e+00" cType="1" res="-4.1350983083248138e-03" rms="4.2249909043312073e-01" purity="4.8227265477180481e-01" nType="-99"/>
              <Node pos="r" depth="4" NCoef="0" IVar="-1" Cut="0.0000000000000000e+00" cType="1" res="7.9967398196458817e-03" rms="4.3276253342628479e-01" purity="5.7578885555267334e-01" nType="-99"/>
            </Node>
            <Node pos="r" depth="3" NCoef="0" IVar="-1" Cut="0.0000000000000000e+00" cType="1" res="-7.0469812490046024e-03" rms="4.0785863995552063e-01" purity="6.2667179107666016e-01" nType="-99"/>
          </Node>
        </Node>
      </Node>
    </BinaryTree>
    <BinaryTree type="DecisionTree" boostWeight="1.0000000000000000e+00" itree="178">
      <Node pos="s" depth="0" NCoef="0" IVar="2" Cut="2.9258639812469482e+00" cType="1" res="-9.8888026550412178e-03" rms="4.1440215706825256e-01" purity="4.8785668611526489e-01" nType="0">
        <Node pos="l" depth="1" NCoef="0" IVar="2" Cut="1.0266565084457397e+00" cType="1" res="-4.4345972128212452e-03" rms="4.1365441679954529e-01" purity="4.8507609963417053e-01" nType="0">
          <Node pos="l" depth="2" NCoef="0" IVar="5" Cut="1.8814396667480469e+02" cType="1" res="-2.4766420945525169e-02" rms="3.5950285196304321e-01" purity="2.8415489196777344e-01" nType="0">
            <Node pos="l" depth="3" NCoef="0" IVar="-1" Cut="0.0000000000000000e+00" cType="1" res="-4.7917924821376801e-03" rms="3.6981821060180664e-01" purity="3.3077466487884521e-01" nType="-99"/>
            <Node pos="r" depth="3" NCoef="0" IVar="-1" Cut="0.0000000000000000e+00" cType="1" res="-1.7259944230318069e-02" rms="3.4902131557464600e-01" purity="2.4066992104053497e-01" nType="-99"/>
          </Node>
          <Node pos="r" depth="2" NCoef="0" IVar="3" Cut="1.0481164062500000e+05" cType="1" res="0.0000000000000000e+00" rms="0.0000000000000000e+00" purity="5.5593836307525635e-01" nType="0">
            <Node pos="l" depth="3" NCoef="0" IVar="9" Cut="3.0000000000000000e+00" cType="1" res="9.0766781941056252e-03" rms="4.3302133679389954e-01" purity="5.2629041671752930e-01" nType="0">
              <Node pos="l" depth="4" NCoef="0" IVar="-1" Cut="0.0000000000000000e+00" cType="1" res="7.3333159089088440e-03" rms="4.4009652733802795e-01" purity="4.7110396623611450e-01" nType="-99"/>
              <Node pos="r" depth="4" NCoef="0" IVar="-1" Cut="0.0000000000000000e+00" cType="1" res="-8.5621781181544065e-04" rms="4.2578205466270447e-01" purity="5.7735228538513184e-01" nType="-99"/>
            </Node>
            <Node pos="r" depth="3" NCoef="0" IVar="-1" Cut="0.0000000000000000e+00" cType="1" res="-4.0530543774366379e-03" rms="4.2508706450462341e-01" purity="6.3076251745223999e-01" nType="-99"/>
          </Node>
        </Node>
        <Node pos="r" depth="1" NCoef="0" IVar="-1" Cut="0.0000000000000000e+00" cType="1" res="-8.0231521278619766e-03" rms="4.1706839203834534e-01" purity="5.0188910961151123e-01" nType="-99"/>
      </Node>
    </BinaryTree>
    <BinaryTree type="DecisionTree" boostWeight="1.0000000000000000e+00" itree="179">
      <Node pos="s" depth="0" NCoef="0" IVar="1" Cut="-1.3460260629653931e+00" cType="1" res="4.4824765063822269e-03" rms="4.1530930995941162e-01" purity="5.1354843378067017e-01" nType="0">
        <Node pos="l" depth="1" NCoef="0" IVar="8" Cut="2.9428040981292725e+00" cType="1" res="2.2980323061347008e-02" rms="4.1905492544174194e-01" purity="5.4507148265838623e-01" nType="0">
          <Node pos="l" depth="2" NCoef="0" IVar="-1" Cut="0.0000000000000000e+00" cType="1" res="1.1250576935708523e-02" rms="4.3263298273086548e-01" purity="5.5447423458099365e-01" nType="-99"/>
          <Node pos="r" depth="2" NCoef="0" IVar="1" Cut="-2.4591026306152344e+00" cType="1" res="1.0240464471280575e-02" rms="4.0975481271743774e-01" purity="5.3914552927017212e-01" nType="0">
            <Node pos="l" depth="3" NCoef="0" IVar="-1" Cut="0.0000000000000000e+00" cType="1" res="9.1487318277359009e-03" rms="4.1943573951721191e-01" purity="5.4539597034454346e-01" nType="-99"/>
            <Node pos="r" depth="3" NCoef="0" IVar="-1" Cut="0.0000000000000000e+00" cType="1" res="-1.3531051808968186e-03" rms="3.9881262183189392e-01" purity="5.3264033794403076e-01" nType="-99"/>
          </Node>
        </Node>
        <Node pos="r" depth="1" NCoef="0" IVar="7" Cut="2.0645541381835938e+02" cType="1" res="0.0000000000000000e+00" rms="0.0000000000000000e+00" purity="4.9534603953361511e-01" nType="0">
          <Node pos="l" depth="2" NCoef="0" IVar="6" Cut="7.1034950017929077e-01" cType="1" res="1.2692092917859554e-02" rms="4.1321432590484619e-01" purity="3.6307430267333984e-01" nType="0">
            <Node pos="l" depth="3" NCoef="0" IVar="-1" Cut="0.0000000000000000e+00" cType="1" res="8.7758898735046387e-03" rms="4.2521971464157104e-01" purity="4.2774716019630432e-01" nType="-99"/>
            <Node pos="r" depth="3" NCoef="0" IVar="-1" Cut="0.0000000000000000e+00" cType="1" res="-2.7349102310836315e-03" rms="3.9942765235900879e-01" purity="2.9639694094657898e-01" nType="-99"/>
          </Node>
          <Node pos="r" depth="2" NCoef="0" IVar="6" Cut="5.9774911403656006e-01" cType="1" res="0.0000000000000000e+00" rms="0.0000000000000000e+00" purity="5.8154034614562988e-01" nType="0">
            <Node pos="l" depth="3" NCoef="0" IVar="-1" Cut="0.0000000000000000e+00" cType="1" res="-1.2972507625818253e-02" rms="4.4111037254333496e-01" purity="4.5469319820404053e-01" nType="-99"/>
            <Node pos="r" depth="3" NCoef="0" IVar="-1" Cut="0.0000000000000000e+00" cType="1" res="-2.2282722056843340e-04" rms="3.8655680418014526e-01" purity="6.8151658773422241e-01" nType="-99"/>
          </Node>
        </Node>
      </Node>
    </BinaryTree>
    <BinaryTree type="DecisionTree" boostWeight="1.0000000000000000e+00" itree="180">
      <Node pos="s" depth="0" NCoef="0" IVar="8" Cut="2.7554824352264404e+00" cType="1" res="3.7329168990254402e-03" rms="4.1982519626617432e-01" purity="5.0711339712142944e-01" nType="0">
        <Node pos="l" depth="1" NCoef="0" IVar="-1" Cut="0.0000000000000000e+00" cType="1" res="-9.5729716122150421e-03" rms="4.4906449317932129e-01" purity="4.4758576154708862e-01" nType="-99"/>
        <Node pos="r" depth="1" NCoef="0" IVar="2" Cut="1.8801829814910889e+00" cType="1" res="0.0000000000000000e+00" rms="0.0000000000000000e+00" purity="5.1510083675384521e-01" nType="0">
          <Node pos="l" depth="2" NCoef="0" IVar="5" Cut="2.0727723693847656e+02" cType="1" res="-3.2531283795833588e-03" rms="3.9774468541145325e-01" purity="4.1351982951164246e-01" nType="0">
            <Node pos="l" depth="3" NCoef="0" IVar="7" Cut="2.2295085144042969e+02" cType="1" res="8.4374165162444115e-03" rms="4.0199765563011169e-01" purity="4.5454275608062744e-01" nType="0">
              <Node pos="l" depth="4" NCoef="0" IVar="-1" Cut="0.0000000000000000e+00" cType="1" res="-2.7436297386884689e-03" rms="3.9401602745056152e-01" purity="2.7837142348289490e-01" nType="-99"/>
              <Node pos="r" depth="4" NCoef="0" IVar="-1" Cut="0.0000000000000000e+00" cType="1" res="9.2111332342028618e-03" rms="4.0940994024276733e-01" purity="6.3578826189041138e-01" nType="-99"/>
            </Node>
            <Node pos="r" depth="3" NCoef="0" IVar="-1" Cut="0.0000000000000000e+00" cType="1" res="-1.0573757812380791e-02" rms="3.8837257027626038e-01" purity="3.3403965830802917e-01" nType="-99"/>
          </Node>
          <Node pos="r" depth="2" NCoef="0" IVar="5" Cut="1.9586410522460938e+02" cType="1" res="1.9800135865807533e-02" rms="4.3024444580078125e-01" purity="6.0496228933334351e-01" nType="0">
            <Node pos="l" depth="3" NCoef="0" IVar="4" Cut="4.8975843750000000e+04" cType="1" res="4.4034884194843471e-04" rms="4.2462772130966187e-01" purity="6.0734570026397705e-01" nType="0">
              <Node pos="l" depth="4" NCoef="0" IVar="-1" Cut="0.0000000000000000e+00" cType="1" res="8.0008534714579582e-03" rms="4.2972901463508606e-01" purity="5.2264434099197388e-01" nType="-99"/>
              <Node pos="r" depth="4" NCoef="0" IVar="-1" Cut="0.0000000000000000e+00" cType="1" res="-3.4315984230488539e-03" rms="4.2009717226028442e-01" purity="6.6433125734329224e-01" nType="-99"/>
            </Node>
            <Node pos="r" depth="3" NCoef="0" IVar="-1" Cut="0.0000000000000000e+00" cType="1" res="9.3294521793723106e-03" rms="4.3691477179527283e-01" purity="6.0139614343643188e-01" nType="-99"/>
          </Node>
        </Node>
      </Node>
    </BinaryTree>
    <BinaryTree type="DecisionTree" boostWeight="1.0000000000000000e+00" itree="181">
      <Node pos="s" depth="0" NCoef="0" IVar="7" Cut="3.6313421630859375e+02" cType="1" res="-3.1726709567010403e-03" rms="4.1942718625068665e-01" purity="4.9397191405296326e-01" nType="0">
        <Node pos="l" depth="1" NCoef="0" IVar="2" Cut="2.8399958610534668e+00" cType="1" res="-8.2887504249811172e-03" rms="4.2541059851646423e-01" purity="4.5031818747520447e-01" nType="0">
          <Node pos="l" depth="2" NCoef="0" IVar="2" Cut="1.6550172567367554e+00" cType="1" res="-3.9677179302088916e-04" rms="4.2536082863807678e-01" purity="4.4810208678245544e-01" nType="0">
            <Node pos="l" depth="3" NCoef="0" IVar="8" Cut="2.9766283035278320e+00" cType="1" res="0.0000000000000000e+00" rms="0.0000000000000000e+00" purity="3.2457470893859863e-01" nType="0">
              <Node pos="l" depth="4" NCoef="0" IVar="-1" Cut="0.0000000000000000e+00" cType="1" res="4.6408670023083687e-03" rms="4.1256159543991089e-01" purity="3.5429579019546509e-01" nType="-99"/>
              <Node pos="r" depth="4" NCoef="0" IVar="-1" Cut="0.0000000000000000e+00" cType="1" res="-1.7758075147867203e-02" rms="3.8041362166404724e-01" purity="3.0125337839126587e-01" nType="-99"/>
            </Node>
            <Node pos="r" depth="3" NCoef="0" IVar="7" Cut="2.4427491760253906e+02" cType="1" res="1.6492880880832672e-02" rms="4.5395135879516602e-01" purity="5.7871741056442261e-01" nType="0">
              <Node pos="l" depth="4" NCoef="0" IVar="-1" Cut="0.0000000000000000e+00" cType="1" res="9.2181339859962463e-03" rms="4.5855519175529480e-01" purity="5.3669428825378418e-01" nType="-99"/>
              <Node pos="r" depth="4" NCoef="0" IVar="-1" Cut="0.0000000000000000e+00" cType="1" res="-5.6077796034514904e-03" rms="4.4347751140594482e-01" purity="6.5340918302536011e-01" nType="-99"/>
            </Node>
          </Node>
          <Node pos="r" depth="2" NCoef="0" IVar="-1" Cut="0.0000000000000000e+00" cType="1" res="-7.9037016257643700e-03" rms="4.2416337132453918e-01" purity="4.5911142230033875e-01" nType="-99"/>
        </Node>
        <Node pos="r" depth="1" NCoef="0" IVar="-1" Cut="0.0000000000000000e+00" cType="1" res="7.4738268740475178e-03" rms="3.9100772142410278e-01" purity="6.8742918968200684e-01" nType="-99"/>
      </Node>
    </BinaryTree>
    <BinaryTree type="DecisionTree" boostWeight="1.0000000000000000e+00" itree="182">
      <Node pos="s" depth="0" NCoef="0" IVar="1" Cut="2.2440679073333740e+00" cType="1" res="-5.0928913988173008e-03" rms="4.1464304924011230e-01" purity="5.0142157077789307e-01" nType="0">
        <Node pos="l" depth="1" NCoef="0" IVar="5" Cut="1.9036524963378906e+02" cType="1" res="-7.9709054261911660e-05" rms="4.1104957461357117e-01" purity="4.9652063846588135e-01" nType="0">
          <Node pos="l" depth="2" NCoef="0" IVar="6" Cut="7.1194416284561157e-01" cType="1" res="1.0812702588737011e-02" rms="4.0592300891876221e-01" purity="5.4054903984069824e-01" nType="0">
            <Node pos="l" depth="3" NCoef="0" IVar="5" Cut="1.6085307312011719e+02" cType="1" res="2.7080476284027100e-02" rms="4.1572231054306030e-01" purity="6.0790783166885376e-01" nType="0">
              <Node pos="l" depth="4" NCoef="0" IVar="-1" Cut="0.0000000000000000e+00" cType="1" res="-2.2162680979818106e-03" rms="4.2571350932121277e-01" purity="5.6500744819641113e-01" nType="-99"/>
              <Node pos="r" depth="4" NCoef="0" IVar="-1" Cut="0.0000000000000000e+00" cType="1" res="1.3967588543891907e-02" rms="4.0840655565261841e-01" purity="6.3319581747055054e-01" nType="-99"/>
            </Node>
            <Node pos="r" depth="3" NCoef="0" IVar="-1" Cut="0.0000000000000000e+00" cType="1" res="-2.0877774804830551e-03" rms="3.8473901152610779e-01" purity="4.1261574625968933e-01" nType="-99"/>
          </Node>
          <Node pos="r" depth="2" NCoef="0" IVar="6" Cut="5.6782895326614380e-01" cType="1" res="-1.4718737453222275e-02" rms="4.1739293932914734e-01" purity="4.3734788894653320e-01" nType="0">
            <Node pos="l" depth="3" NCoef="0" IVar="-1" Cut="0.0000000000000000e+00" cType="1" res="-1.3785724528133869e-02" rms="4.2833399772644043e-01" purity="3.1897643208503723e-01" nType="-99"/>
            <Node pos="r" depth="3" NCoef="0" IVar="6" Cut="6.8712460994720459e-01" cType="1" res="-1.9120903743896633e-04" rms="4.1159886121749878e-01" purity="4.9002704024314880e-01" nType="0">
              <Node pos="l" depth="4" NCoef="0" IVar="-1" Cut="0.0000000000000000e+00" cType="1" res="5.5101127363741398e-03" rms="4.1431060433387756e-01" purity="5.5409950017929077e-01" nType="-99"/>
              <Node pos="r" depth="4" NCoef="0" IVar="-1" Cut="0.0000000000000000e+00" cType="1" res="-5.5143651552498341e-03" rms="4.0849137306213379e-01" purity="4.3223300576210022e-01" nType="-99"/>
            </Node>
          </Node>
        </Node>
        <Node pos="r" depth="1" NCoef="0" IVar="1" Cut="2.7143850326538086e+00" cType="1" res="-2.2266153246164322e-02" rms="4.2627698183059692e-01" purity="5.1821041107177734e-01" nType="0">
          <Node pos="l" depth="2" NCoef="0" IVar="-1" Cut="0.0000000000000000e+00" cType="1" res="-1.1848634108901024e-02" rms="4.2983123660087585e-01" purity="4.8926991224288940e-01" nType="-99"/>
          <Node pos="r" depth="2" NCoef="0" IVar="-1" Cut="0.0000000000000000e+00" cType="1" res="9.2212884919717908e-04" rms="4.2121624946594238e-01" purity="5.4554331302642822e-01" nType="-99"/>
        </Node>
      </Node>
    </BinaryTree>
    <BinaryTree type="DecisionTree" boostWeight="1.0000000000000000e+00" itree="183">
      <Node pos="s" depth="0" NCoef="0" IVar="8" Cut="3.0421848297119141e+00" cType="1" res="7.4926535598933697e-03" rms="4.1248899698257446e-01" purity="5.0402885675430298e-01" nType="0">
        <Node pos="l" depth="1" NCoef="0" IVar="7" Cut="1.7871104431152344e+02" cType="1" res="-5.6784404441714287e-03" rms="4.1769036650657654e-01" purity="4.7303572297096252e-01" nType="0">
          <Node pos="l" depth="2" NCoef="0" IVar="-1" Cut="0.0000000000000000e+00" cType="1" res="-5.3512444719672203e-03" rms="3.9676263928413391e-01" purity="2.7542540431022644e-01" nType="-99"/>
          <Node pos="r" depth="2" NCoef="0" IVar="1" Cut="1.9446489810943604e+00" cType="1" res="3.3266870304942131e-03" rms="4.2359325289726257e-01" purity="5.3456932306289673e-01" nType="0">
            <Node pos="l" depth="3" NCoef="0" IVar="1" Cut="-1.4461665153503418e+00" cType="1" res="-9.5943799242377281e-03" rms="4.2459791898727417e-01" purity="5.0654166936874390e-01" nType="0">
              <Node pos="l" depth="4" NCoef="0" IVar="-1" Cut="0.0000000000000000e+00" cType="1" res="2.3473291657865047e-03" rms="4.2369216680526733e-01" purity="5.5683445930480957e-01" nType="-99"/>
              <Node pos="r" depth="4" NCoef="0" IVar="-1" Cut="0.0000000000000000e+00" cType="1" res="-7.0797139778733253e-03" rms="4.2467033863067627e-01" purity="4.5955497026443481e-01" nType="-99"/>
            </Node>
            <Node pos="r" depth="3" NCoef="0" IVar="-1" Cut="0.0000000000000000e+00" cType="1" res="1.0661732405424118e-02" rms="4.1947367787361145e-01" purity="6.0284203290939331e-01" nType="-99"/>
          </Node>
        </Node>
        <Node pos="r" depth="1" NCoef="0" IVar="6" Cut="6.8377053737640381e-01" cType="1" res="2.9806064441800117e-02" rms="4.0254199504852295e-01" purity="5.5653482675552368e-01" nType="0">
          <Node pos="l" depth="2" NCoef="0" IVar="-1" Cut="0.0000000000000000e+00" cType="1" res="1.8212994327768683e-03" rms="4.1669839620590210e-01" purity="5.5202096700668335e-01" nType="-99"/>
          <Node pos="r" depth="2" NCoef="0" IVar="-1" Cut="0.0000000000000000e+00" cType="1" res="1.7366822808980942e-02" rms="3.8415434956550598e-01" purity="5.6171715259552002e-01" nType="-99"/>
        </Node>
      </Node>
    </BinaryTree>
    <BinaryTree type="DecisionTree" boostWeight="1.0000000000000000e+00" itree="184">
      <Node pos="s" depth="0" NCoef="0" IVar="1" Cut="1.4991302788257599e-01" cType="1" res="-2.6654219254851341e-03" rms="4.1306996345520020e-01" purity="4.9428436160087585e-01" nType="0">
        <Node pos="l" depth="1" NCoef="0" IVar="9" Cut="3.0000000000000000e+00" cType="1" res="8.2682305946946144e-03" rms="4.1040173172950745e-01" purity="4.9773299694061279e-01" nType="0">
          <Node pos="l" depth="2" NCoef="0" IVar="1" Cut="-2.3583922386169434e+00" cType="1" res="2.0854929462075233e-02" rms="4.1013255715370178e-01" purity="4.5035156607627869e-01" nType="0">
            <Node pos="l" depth="3" NCoef="0" IVar="-1" Cut="0.0000000000000000e+00" cType="1" res="1.2508974410593510e-02" rms="4.2448273301124573e-01" purity="5.4650461673736572e-01" nType="-99"/>
            <Node pos="r" depth="3" NCoef="0" IVar="-1" Cut="0.0000000000000000e+00" cType="1" res="8.7982066906988621e-04" rms="3.9794468879699707e-01" purity="3.7663790583610535e-01" nType="-99"/>
          </Node>
          <Node pos="r" depth="2" NCoef="0" IVar="1" Cut="-2.2011518478393555e+00" cType="1" res="-2.4105722550302744e-03" rms="4.1033977270126343e-01" purity="5.3785806894302368e-01" nType="0">
            <Node pos="l" depth="3" NCoef="0" IVar="-1" Cut="0.0000000000000000e+00" cType="1" res="-2.6742189656943083e-03" rms="4.0484005212783813e-01" purity="4.8433035612106323e-01" nType="-99"/>
            <Node pos="r" depth="3" NCoef="0" IVar="-1" Cut="0.0000000000000000e+00" cType="1" res="7.2302762418985367e-03" rms="4.1290181875228882e-01" purity="5.7693004608154297e-01" nType="-99"/>
          </Node>
        </Node>
        <Node pos="r" depth="1" NCoef="0" IVar="2" Cut="9.9758940935134888e-01" cType="1" res="-1.4503810554742813e-02" rms="4.1561114788055420e-01" purity="4.9054679274559021e-01" nType="0">
          <Node pos="l" depth="2" NCoef="0" IVar="-1" Cut="0.0000000000000000e+00" cType="1" res="-2.2484980523586273e-02" rms="3.6398133635520935e-01" purity="2.3536150157451630e-01" nType="-99"/>
          <Node pos="r" depth="2" NCoef="0" IVar="2" Cut="2.3009483814239502e+00" cType="1" res="-4.6055428683757782e-03" rms="4.2808380722999573e-01" purity="5.6016117334365845e-01" nType="0">
            <Node pos="l" depth="3" NCoef="0" IVar="-1" Cut="0.0000000000000000e+00" cType="1" res="4.4440543279051781e-03" rms="4.2860853672027588e-01" purity="5.5316501855850220e-01" nType="-99"/>
            <Node pos="r" depth="3" NCoef="0" IVar="-1" Cut="0.0000000000000000e+00" cType="1" res="-7.2757150046527386e-03" rms="4.2641752958297729e-01" purity="5.6785321235656738e-01" nType="-99"/>
          </Node>
        </Node>
      </Node>
    </BinaryTree>
    <BinaryTree type="DecisionTree" boostWeight="1.0000000000000000e+00" itree="185">
      <Node pos="s" depth="0" NCoef="0" IVar="8" Cut="3.0421848297119141e+00" cType="1" res="8.1409170525148511e-04" rms="4.1574794054031372e-01" purity="4.9835002422332764e-01" nType="0">
        <Node pos="l" depth="1" NCoef="0" IVar="6" Cut="6.5402710437774658e-01" cType="1" res="1.4497251249849796e-02" rms="4.2247438430786133e-01" purity="4.9424931406974792e-01" nType="0">
          <Node pos="l" depth="2" NCoef="0" IVar="8" Cut="2.7723379135131836e+00" cType="1" res="0.0000000000000000e+00" rms="0.0000000000000000e+00" purity="5.2383631467819214e-01" nType="0">
            <Node pos="l" depth="3" NCoef="0" IVar="-1" Cut="0.0000000000000000e+00" cType="1" res="1.7559038475155830e-02" rms="4.3614599108695984e-01" purity="5.4463243484497070e-01" nType="-99"/>
            <Node pos="r" depth="3" NCoef="0" IVar="2" Cut="2.2266595363616943e+00" cType="1" res="0.0000000000000000e+00" rms="0.0000000000000000e+00" purity="5.1564460992813110e-01" nType="0">
              <Node pos="l" depth="4" NCoef="0" IVar="-1" Cut="0.0000000000000000e+00" cType="1" res="1.0560393333435059e-02" rms="4.2671555280685425e-01" purity="4.9602785706520081e-01" nType="-99"/>
              <Node pos="r" depth="4" NCoef="0" IVar="-1" Cut="0.0000000000000000e+00" cType="1" res="-1.8931301310658455e-03" rms="4.4458225369453430e-01" purity="5.4340910911560059e-01" nType="-99"/>
            </Node>
          </Node>
          <Node pos="r" depth="2" NCoef="0" IVar="1" Cut="-7.4784356355667114e-01" cType="1" res="-9.4584822654724121e-03" rms="4.0172231197357178e-01" purity="4.5187008380889893e-01" nType="0">
            <Node pos="l" depth="3" NCoef="0" IVar="-1" Cut="0.0000000000000000e+00" cType="1" res="4.6184717211872339e-04" rms="4.1161000728607178e-01" purity="5.0043076276779175e-01" nType="-99"/>
            <Node pos="r" depth="3" NCoef="0" IVar="-1" Cut="0.0000000000000000e+00" cType="1" res="-4.1372375562787056e-03" rms="3.9432823657989502e-01" purity="4.1729348897933960e-01" nType="-99"/>
          </Node>
        </Node>
        <Node pos="r" depth="1" NCoef="0" IVar="5" Cut="2.0727723693847656e+02" cType="1" res="-2.2182440385222435e-02" rms="4.0314632654190063e-01" purity="5.0524193048477173e-01" nType="0">
          <Node pos="l" depth="2" NCoef="0" IVar="2" Cut="1.7269234657287598e+00" cType="1" res="-3.3273845911026001e-02" rms="3.9654254913330078e-01" purity="5.1278436183929443e-01" nType="0">
            <Node pos="l" depth="3" NCoef="0" IVar="-1" Cut="0.0000000000000000e+00" cType="1" res="-6.7856647074222565e-03" rms="3.9121863245964050e-01" purity="4.4830426573753357e-01" nType="-99"/>
            <Node pos="r" depth="3" NCoef="0" IVar="-1" Cut="0.0000000000000000e+00" cType="1" res="-2.4171438999474049e-03" rms="3.9961540699005127e-01" purity="5.5570590496063232e-01" nType="-99"/>
          </Node>
          <Node pos="r" depth="2" NCoef="0" IVar="-1" Cut="0.0000000000000000e+00" cType="1" res="5.1626244385261089e-05" rms="4.1523373126983643e-01" purity="4.9004670977592468e-01" nType="-99"/>
        </Node>
      </Node>
    </BinaryTree>
    <BinaryTree type="DecisionTree" boostWeight="1.0000000000000000e+00" itree="186">
      <Node pos="s" depth="0" NCoef="0" IVar="9" Cut="3.0000000000000000e+00" cType="1" res="0.0000000000000000e+00" rms="0.0000000000000000e+00" purity="4.8995652794837952e-01" nType="0">
        <Node pos="l" depth="1" NCoef="0" IVar="6" Cut="6.8304556608200073e-01" cType="1" res="-2.5322759523987770e-02" rms="4.1455081105232239e-01" purity="4.0597283840179443e-01" nType="0">
          <Node pos="l" depth="2" NCoef="0" IVar="-1" Cut="0.0000000000000000e+00" cType="1" res="-9.2340717092156410e-03" rms="4.2238390445709229e-01" purity="3.9524081349372864e-01" nType="-99"/>
          <Node pos="r" depth="2" NCoef="0" IVar="1" Cut="7.4774819612503052e-01" cType="1" res="0.0000000000000000e+00" rms="0.0000000000000000e+00" purity="4.1437596082687378e-01" nType="0">
            <Node pos="l" depth="3" NCoef="0" IVar="-1" Cut="0.0000000000000000e+00" cType="1" res="-8.0798109993338585e-03" rms="4.0520501136779785e-01" purity="3.7216946482658386e-01" nType="-99"/>
            <Node pos="r" depth="3" NCoef="0" IVar="-1" Cut="0.0000000000000000e+00" cType="1" res="2.4835136719048023e-03" rms="4.1023743152618408e-01" purity="4.7241091728210449e-01" nType="-99"/>
          </Node>
        </Node>
        <Node pos="r" depth="1" NCoef="0" IVar="8" Cut="3.0421342849731445e+00" cType="1" res="-3.0158879235386848e-03" rms="4.1098761558532715e-01" purity="5.6061488389968872e-01" nType="0">
          <Node pos="l" depth="2" NCoef="0" IVar="8" Cut="2.9071919918060303e+00" cType="1" res="1.3153700157999992e-02" rms="4.1055774688720703e-01" purity="5.5030971765518188e-01" nType="0">
            <Node pos="l" depth="3" NCoef="0" IVar="-1" Cut="0.0000000000000000e+00" cType="1" res="-3.4801133442670107e-03" rms="4.1671720147132874e-01" purity="4.9042505025863647e-01" nType="-99"/>
            <Node pos="r" depth="3" NCoef="0" IVar="-1" Cut="0.0000000000000000e+00" cType="1" res="1.3069422915577888e-02" rms="4.0244495868682861e-01" purity="6.1136001348495483e-01" nType="-99"/>
          </Node>
          <Node pos="r" depth="2" NCoef="0" IVar="-1" Cut="0.0000000000000000e+00" cType="1" res="-3.8425719831138849e-03" rms="4.1019159555435181e-01" purity="5.7881575822830200e-01" nType="-99"/>
        </Node>
      </Node>
    </BinaryTree>
    <BinaryTree type="DecisionTree" boostWeight="1.0000000000000000e+00" itree="187">
      <Node pos="s" depth="0" NCoef="0" IVar="5" Cut="1.6975741577148438e+02" cType="1" res="-4.3077105656266212e-03" rms="4.0838652849197388e-01" purity="4.9770978093147278e-01" nType="0">
        <Node pos="l" depth="1" NCoef="0" IVar="5" Cut="1.5930624389648438e+02" cType="1" res="8.9617734774947166e-03" rms="4.0014415979385376e-01" purity="5.4129797220230103e-01" nType="0">
          <Node pos="l" depth="2" NCoef="0" IVar="1" Cut="1.4902199804782867e-01" cType="1" res="-1.4886240474879742e-02" rms="4.0255248546600342e-01" purity="4.8808640241622925e-01" nType="0">
            <Node pos="l" depth="3" NCoef="0" IVar="-1" Cut="0.0000000000000000e+00" cType="1" res="-8.6542842909693718e-03" rms="4.0283414721488953e-01" purity="4.6383368968963623e-01" nType="-99"/>
            <Node pos="r" depth="3" NCoef="0" IVar="-1" Cut="0.0000000000000000e+00" cType="1" res="9.7089847258757800e-05" rms="4.0169420838356018e-01" purity="5.1405459642410278e-01" nType="-99"/>
          </Node>
          <Node pos="r" depth="2" NCoef="0" IVar="-1" Cut="0.0000000000000000e+00" cType="1" res="1.4240828342735767e-02" rms="3.9378678798675537e-01" purity="6.2130278348922729e-01" nType="-99"/>
        </Node>
        <Node pos="r" depth="1" NCoef="0" IVar="4" Cut="4.6901921875000000e+04" cType="1" res="-1.1512739583849907e-02" rms="4.1261431574821472e-01" purity="4.7404235601425171e-01" nType="0">
          <Node pos="l" depth="2" NCoef="0" IVar="-1" Cut="0.0000000000000000e+00" cType="1" res="-1.0204066522419453e-02" rms="3.8517588376998901e-01" purity="3.1191334128379822e-01" nType="-99"/>
          <Node pos="r" depth="2" NCoef="0" IVar="5" Cut="2.3944274902343750e+02" cType="1" res="-4.1820774786174297e-03" rms="4.2343059182167053e-01" purity="5.4236119985580444e-01" nType="0">
            <Node pos="l" depth="3" NCoef="0" IVar="7" Cut="2.6817691040039062e+02" cType="1" res="-1.2161353603005409e-02" rms="4.1553744673728943e-01" purity="5.6725287437438965e-01" nType="0">
              <Node pos="l" depth="4" NCoef="0" IVar="-1" Cut="0.0000000000000000e+00" cType="1" res="-9.1741150245070457e-03" rms="4.2055514454841614e-01" purity="4.5562484860420227e-01" nType="-99"/>
              <Node pos="r" depth="4" NCoef="0" IVar="-1" Cut="0.0000000000000000e+00" cType="1" res="1.9551508594304323e-03" rms="4.0955442190170288e-01" purity="6.8266594409942627e-01" nType="-99"/>
            </Node>
            <Node pos="r" depth="3" NCoef="0" IVar="-1" Cut="0.0000000000000000e+00" cType="1" res="2.3263688199222088e-03" rms="4.3551850318908691e-01" purity="5.0232911109924316e-01" nType="-99"/>
          </Node>
        </Node>
      </Node>
    </BinaryTree>
    <BinaryTree type="DecisionTree" boostWeight="1.0000000000000000e+00" itree="188">
      <Node pos="s" depth="0" NCoef="0" IVar="6" Cut="7.6721900701522827e-01" cType="1" res="-1.4776262454688549e-02" rms="4.1342306137084961e-01" purity="4.8607224225997925e-01" nType="0">
        <Node pos="l" depth="1" NCoef="0" IVar="8" Cut="3.0392858982086182e+00" cType="1" res="-2.1215388551354408e-02" rms="4.1573876142501831e-01" purity="5.0228047370910645e-01" nType="0">
          <Node pos="l" depth="2" NCoef="0" IVar="2" Cut="2.4912567138671875e+00" cType="1" res="-1.2804553844034672e-02" rms="4.2648199200630188e-01" purity="4.8834121227264404e-01" nType="0">
            <Node pos="l" depth="3" NCoef="0" IVar="6" Cut="5.3990876674652100e-01" cType="1" res="1.2314380146563053e-03" rms="4.2510846257209778e-01" purity="4.6863809227943420e-01" nType="0">
              <Node pos="l" depth="4" NCoef="0" IVar="-1" Cut="0.0000000000000000e+00" cType="1" res="9.3151414766907692e-03" rms="4.4711956381797791e-01" purity="4.3162277340888977e-01" nType="-99"/>
              <Node pos="r" depth="4" NCoef="0" IVar="-1" Cut="0.0000000000000000e+00" cType="1" res="-4.7014239244163036e-03" rms="4.1352143883705139e-01" purity="4.8577299714088440e-01" nType="-99"/>
            </Node>
            <Node pos="r" depth="3" NCoef="0" IVar="-1" Cut="0.0000000000000000e+00" cType="1" res="-1.0203133337199688e-02" rms="4.2783641815185547e-01" purity="5.2772474288940430e-01" nType="-99"/>
          </Node>
          <Node pos="r" depth="2" NCoef="0" IVar="8" Cut="3.0880126953125000e+00" cType="1" res="-3.6658842116594315e-02" rms="3.9478677511215210e-01" purity="5.2787494659423828e-01" nType="0">
            <Node pos="l" depth="3" NCoef="0" IVar="-1" Cut="0.0000000000000000e+00" cType="1" res="-3.0329367145895958e-03" rms="3.9125275611877441e-01" purity="4.5382824540138245e-01" nType="-99"/>
            <Node pos="r" depth="3" NCoef="0" IVar="-1" Cut="0.0000000000000000e+00" cType="1" res="1.3246558373793960e-03" rms="3.9427068829536438e-01" purity="6.0292798280715942e-01" nType="-99"/>
          </Node>
        </Node>
        <Node pos="r" depth="1" NCoef="0" IVar="-1" Cut="0.0000000000000000e+00" cType="1" res="4.2178132571280003e-03" rms="4.0191447734832764e-01" purity="4.1510498523712158e-01" nType="-99"/>
      </Node>
    </BinaryTree>
    <BinaryTree type="DecisionTree" boostWeight="1.0000000000000000e+00" itree="189">
      <Node pos="s" depth="0" NCoef="0" IVar="2" Cut="1.3724818229675293e+00" cType="1" res="4.0493998676538467e-03" rms="4.1764837503433228e-01" purity="5.0254124402999878e-01" nType="0">
        <Node pos="l" depth="1" NCoef="0" IVar="1" Cut="1.6449767351150513e+00" cType="1" res="0.0000000000000000e+00" rms="0.0000000000000000e+00" purity="3.8569697737693787e-01" nType="0">
          <Node pos="l" depth="2" NCoef="0" IVar="4" Cut="5.6113425781250000e+04" cType="1" res="9.1600175946950912e-03" rms="3.8568609952926636e-01" purity="3.6011472344398499e-01" nType="0">
            <Node pos="l" depth="3" NCoef="0" IVar="-1" Cut="0.0000000000000000e+00" cType="1" res="-4.8038912937045097e-03" rms="3.3647891879081726e-01" purity="2.1448051929473877e-01" nType="-99"/>
            <Node pos="r" depth="3" NCoef="0" IVar="-1" Cut="0.0000000000000000e+00" cType="1" res="1.0759896598756313e-02" rms="4.2631530761718750e-01" purity="4.9897709488868713e-01" nType="-99"/>
          </Node>
          <Node pos="r" depth="2" NCoef="0" IVar="-1" Cut="0.0000000000000000e+00" cType="1" res="1.9476154819130898e-02" rms="4.0580201148986816e-01" purity="4.3751049041748047e-01" nType="-99"/>
        </Node>
        <Node pos="r" depth="1" NCoef="0" IVar="8" Cut="2.9881319999694824e+00" cType="1" res="-4.9947276711463928e-03" rms="4.2911574244499207e-01" purity="5.6052142381668091e-01" nType="0">
          <Node pos="l" depth="2" NCoef="0" IVar="8" Cut="2.9004130363464355e+00" cType="1" res="1.5618116594851017e-02" rms="4.5219397544860840e-01" purity="5.6274479627609253e-01" nType="0">
            <Node pos="l" depth="3" NCoef="0" IVar="-1" Cut="0.0000000000000000e+00" cType="1" res="6.9756591692566872e-03" rms="4.5253151655197144e-01" purity="5.7149010896682739e-01" nType="-99"/>
            <Node pos="r" depth="3" NCoef="0" IVar="-1" Cut="0.0000000000000000e+00" cType="1" res="-4.1386150405742228e-04" rms="4.5114654302597046e-01" purity="5.4915642738342285e-01" nType="-99"/>
          </Node>
          <Node pos="r" depth="2" NCoef="0" IVar="7" Cut="2.3835931396484375e+02" cType="1" res="-2.1984215825796127e-02" rms="4.0833520889282227e-01" purity="5.5868893861770630e-01" nType="0">
            <Node pos="l" depth="3" NCoef="0" IVar="-1" Cut="0.0000000000000000e+00" cType="1" res="-4.4206791790202260e-04" rms="4.2238044738769531e-01" purity="4.7657048702239990e-01" nType="-99"/>
            <Node pos="r" depth="3" NCoef="0" IVar="-1" Cut="0.0000000000000000e+00" cType="1" res="-2.9641999863088131e-03" rms="3.8907480239868164e-01" purity="6.5898787975311279e-01" nType="-99"/>
          </Node>
        </Node>
      </Node>
    </BinaryTree>
    <BinaryTree type="DecisionTree" boostWeight="1.0000000000000000e+00" itree="190">
      <Node pos="s" depth="0" NCoef="0" IVar="1" Cut="-1.9442430734634399e+00" cType="1" res="-7.2976308874785900e-03" rms="4.1880747675895691e-01" purity="4.9469706416130066e-01" nType="0">
        <Node pos="l" depth="1" NCoef="0" IVar="6" Cut="6.0647457838058472e-01" cType="1" res="-3.2431010156869888e-02" rms="4.2201671004295349e-01" purity="4.8683005571365356e-01" nType="0">
          <Node pos="l" depth="2" NCoef="0" IVar="-1" Cut="0.0000000000000000e+00" cType="1" res="-2.4478480918332934e-04" rms="4.2773136496543884e-01" purity="4.6276775002479553e-01" nType="-99"/>
          <Node pos="r" depth="2" NCoef="0" IVar="-1" Cut="0.0000000000000000e+00" cType="1" res="-5.7134409435093403e-03" rms="4.1727572679519653e-01" purity="5.0162732601165771e-01" nType="-99"/>
        </Node>
        <Node pos="r" depth="1" NCoef="0" IVar="2" Cut="2.1493263244628906e+00" cType="1" res="2.4150148965418339e-03" rms="4.1715523600578308e-01" purity="4.9773716926574707e-01" nType="0">
          <Node pos="l" depth="2" NCoef="0" IVar="6" Cut="5.6997478008270264e-01" cType="1" res="-5.2808816544711590e-03" rms="4.1117668151855469e-01" purity="4.3047863245010376e-01" nType="0">
            <Node pos="l" depth="3" NCoef="0" IVar="-1" Cut="0.0000000000000000e+00" cType="1" res="-8.5990205407142639e-03" rms="4.3963429331779480e-01" purity="3.7143573164939880e-01" nType="-99"/>
            <Node pos="r" depth="3" NCoef="0" IVar="3" Cut="6.4583265625000000e+04" cType="1" res="0.0000000000000000e+00" rms="0.0000000000000000e+00" purity="4.5335796475410461e-01" nType="0">
              <Node pos="l" depth="4" NCoef="0" IVar="-1" Cut="0.0000000000000000e+00" cType="1" res="9.6989246085286140e-03" rms="3.8113939762115479e-01" purity="3.0595105886459351e-01" nType="-99"/>
              <Node pos="r" depth="4" NCoef="0" IVar="-1" Cut="0.0000000000000000e+00" cType="1" res="-4.3207071721553802e-03" rms="4.1012328863143921e-01" purity="5.5132037401199341e-01" nType="-99"/>
            </Node>
          </Node>
          <Node pos="r" depth="2" NCoef="0" IVar="8" Cut="2.9881455898284912e+00" cType="1" res="1.2958738021552563e-02" rms="4.2498347163200378e-01" purity="5.8988440036773682e-01" nType="0">
            <Node pos="l" depth="3" NCoef="0" IVar="-1" Cut="0.0000000000000000e+00" cType="1" res="6.5406938083469868e-03" rms="4.4665944576263428e-01" purity="5.7446229457855225e-01" nType="-99"/>
            <Node pos="r" depth="3" NCoef="0" IVar="-1" Cut="0.0000000000000000e+00" cType="1" res="-4.0281262045027688e-05" rms="4.0514320135116577e-01" purity="6.0302251577377319e-01" nType="-99"/>
          </Node>
        </Node>
      </Node>
    </BinaryTree>
    <BinaryTree type="DecisionTree" boostWeight="1.0000000000000000e+00" itree="191">
      <Node pos="s" depth="0" NCoef="0" IVar="7" Cut="3.4367065429687500e+02" cType="1" res="0.0000000000000000e+00" rms="0.0000000000000000e+00" purity="4.9537989497184753e-01" nType="0">
        <Node pos="l" depth="1" NCoef="0" IVar="8" Cut="3.0935380458831787e+00" cType="1" res="4.5500667765736580e-03" rms="4.1788351535797119e-01" purity="4.5469713211059570e-01" nType="0">
          <Node pos="l" depth="2" NCoef="0" IVar="4" Cut="5.8777449218750000e+04" cType="1" res="1.2539103627204895e-02" rms="4.2100813984870911e-01" purity="4.5741835236549377e-01" nType="0">
            <Node pos="l" depth="3" NCoef="0" IVar="7" Cut="1.5043032836914062e+02" cType="1" res="2.6691935956478119e-02" rms="4.1858190298080444e-01" purity="4.0796193480491638e-01" nType="0">
              <Node pos="l" depth="4" NCoef="0" IVar="-1" Cut="0.0000000000000000e+00" cType="1" res="1.3783131726086140e-02" rms="3.9169085025787354e-01" purity="2.7810725569725037e-01" nType="-99"/>
              <Node pos="r" depth="4" NCoef="0" IVar="-1" Cut="0.0000000000000000e+00" cType="1" res="6.4861536957323551e-03" rms="4.2832097411155701e-01" purity="4.5801049470901489e-01" nType="-99"/>
            </Node>
            <Node pos="r" depth="3" NCoef="0" IVar="9" Cut="3.0000000000000000e+00" cType="1" res="-5.9979162178933620e-03" rms="4.2114689946174622e-01" purity="5.2531450986862183e-01" nType="0">
              <Node pos="l" depth="4" NCoef="0" IVar="-1" Cut="0.0000000000000000e+00" cType="1" res="-6.7425020970404148e-03" rms="4.1938298940658569e-01" purity="4.5867177844047546e-01" nType="-99"/>
              <Node pos="r" depth="4" NCoef="0" IVar="-1" Cut="0.0000000000000000e+00" cType="1" res="5.3561013191938400e-03" rms="4.2636600136756897e-01" purity="5.9590065479278564e-01" nType="-99"/>
            </Node>
          </Node>
          <Node pos="r" depth="2" NCoef="0" IVar="-1" Cut="0.0000000000000000e+00" cType="1" res="-8.9575480669736862e-03" rms="4.0240535140037537e-01" purity="4.4302070140838623e-01" nType="-99"/>
        </Node>
        <Node pos="r" depth="1" NCoef="0" IVar="8" Cut="2.9484221935272217e+00" cType="1" res="-2.4197576567530632e-02" rms="4.0966776013374329e-01" purity="6.3830196857452393e-01" nType="0">
          <Node pos="l" depth="2" NCoef="0" IVar="-1" Cut="0.0000000000000000e+00" cType="1" res="-1.2050900608301163e-02" rms="4.3103164434432983e-01" purity="5.3051412105560303e-01" nType="-99"/>
          <Node pos="r" depth="2" NCoef="0" IVar="-1" Cut="0.0000000000000000e+00" cType="1" res="-3.9029845502227545e-03" rms="3.8661035895347595e-01" purity="7.4566578865051270e-01" nType="-99"/>
        </Node>
      </Node>
    </BinaryTree>
    <BinaryTree type="DecisionTree" boostWeight="1.0000000000000000e+00" itree="192">
      <Node pos="s" depth="0" NCoef="0" IVar="6" Cut="5.4125916957855225e-01" cType="1" res="3.1983412336558104e-03" rms="4.1673439741134644e-01" purity="5.0772726535797119e-01" nType="0">
        <Node pos="l" depth="1" NCoef="0" IVar="2" Cut="1.8988994359970093e+00" cType="1" res="1.8886262550950050e-02" rms="4.3274942040443420e-01" purity="4.2954903841018677e-01" nType="0">
          <Node pos="l" depth="2" NCoef="0" IVar="-1" Cut="0.0000000000000000e+00" cType="1" res="-7.2316324803978205e-04" rms="4.2779320478439331e-01" purity="3.4533792734146118e-01" nType="-99"/>
          <Node pos="r" depth="2" NCoef="0" IVar="-1" Cut="0.0000000000000000e+00" cType="1" res="7.9532060772180557e-03" rms="4.3648073077201843e-01" purity="5.1069319248199463e-01" nType="-99"/>
        </Node>
        <Node pos="r" depth="1" NCoef="0" IVar="6" Cut="6.4897280931472778e-01" cType="1" res="-9.5583149231970310e-04" rms="4.1228950023651123e-01" purity="5.2842891216278076e-01" nType="0">
          <Node pos="l" depth="2" NCoef="0" IVar="7" Cut="2.8280938720703125e+02" cType="1" res="0.0000000000000000e+00" rms="0.0000000000000000e+00" purity="5.3909558057785034e-01" nType="0">
            <Node pos="l" depth="3" NCoef="0" IVar="-1" Cut="0.0000000000000000e+00" cType="1" res="-9.6723844762891531e-04" rms="4.1914430260658264e-01" purity="4.5669636130332947e-01" nType="-99"/>
            <Node pos="r" depth="3" NCoef="0" IVar="-1" Cut="0.0000000000000000e+00" cType="1" res="-1.6251523047685623e-02" rms="4.3957456946372986e-01" purity="6.5716743469238281e-01" nType="-99"/>
          </Node>
          <Node pos="r" depth="2" NCoef="0" IVar="1" Cut="1.3460098505020142e+00" cType="1" res="1.0895841754972935e-02" rms="4.0182849764823914e-01" purity="5.2189612388610840e-01" nType="0">
            <Node pos="l" depth="3" NCoef="0" IVar="1" Cut="-5.7756042480468750e-01" cType="1" res="5.0297449342906475e-04" rms="4.0000474452972412e-01" purity="4.7756522893905640e-01" nType="0">
              <Node pos="l" depth="4" NCoef="0" IVar="-1" Cut="0.0000000000000000e+00" cType="1" res="5.6774034164845943e-03" rms="4.0973809361457825e-01" purity="5.3582620620727539e-01" nType="-99"/>
              <Node pos="r" depth="4" NCoef="0" IVar="-1" Cut="0.0000000000000000e+00" cType="1" res="-8.8662607595324516e-03" rms="3.7867420911788940e-01" purity="3.6991852521896362e-01" nType="-99"/>
            </Node>
            <Node pos="r" depth="3" NCoef="0" IVar="-1" Cut="0.0000000000000000e+00" cType="1" res="8.6553124710917473e-03" rms="4.0432849526405334e-01" purity="5.9839081764221191e-01" nType="-99"/>
          </Node>
        </Node>
      </Node>
    </BinaryTree>
    <BinaryTree type="DecisionTree" boostWeight="1.0000000000000000e+00" itree="193">
      <Node pos="s" depth="0" NCoef="0" IVar="7" Cut="2.0758033752441406e+02" cType="1" res="4.1780169121921062e-03" rms="4.1083785891532898e-01" purity="5.1204597949981689e-01" nType="0">
        <Node pos="l" depth="1" NCoef="0" IVar="1" Cut="1.6453751325607300e+00" cType="1" res="-1.0292324237525463e-02" rms="4.0365538001060486e-01" purity="3.4177303314208984e-01" nType="0">
          <Node pos="l" depth="2" NCoef="0" IVar="8" Cut="3.0413832664489746e+00" cType="1" res="-2.0709412172436714e-02" rms="3.9356169104576111e-01" purity="3.0907580256462097e-01" nType="0">
            <Node pos="l" depth="3" NCoef="0" IVar="-1" Cut="0.0000000000000000e+00" cType="1" res="3.1834145192988217e-04" rms="4.0913358330726624e-01" purity="3.3414849638938904e-01" nType="-99"/>
            <Node pos="r" depth="3" NCoef="0" IVar="-1" Cut="0.0000000000000000e+00" cType="1" res="-1.5294468961656094e-02" rms="3.7269455194473267e-01" purity="2.7946797013282776e-01" nType="-99"/>
          </Node>
          <Node pos="r" depth="2" NCoef="0" IVar="-1" Cut="0.0000000000000000e+00" cType="1" res="2.9433127492666245e-03" rms="4.2312121391296387e-01" purity="4.1000875830650330e-01" nType="-99"/>
        </Node>
        <Node pos="r" depth="1" NCoef="0" IVar="3" Cut="1.3190932812500000e+05" cType="1" res="1.3553943485021591e-02" rms="4.1515618562698364e-01" purity="6.2237280607223511e-01" nType="0">
          <Node pos="l" depth="2" NCoef="0" IVar="3" Cut="8.2034906250000000e+04" cType="1" res="2.0338613539934158e-02" rms="4.0994992852210999e-01" purity="6.2452208995819092e-01" nType="0">
            <Node pos="l" depth="3" NCoef="0" IVar="3" Cut="6.6372031250000000e+04" cType="1" res="4.7597237862646580e-03" rms="4.1388121247291565e-01" purity="5.6866699457168579e-01" nType="0">
              <Node pos="l" depth="4" NCoef="0" IVar="-1" Cut="0.0000000000000000e+00" cType="1" res="1.0587154887616634e-02" rms="4.0901303291320801e-01" purity="5.5678361654281616e-01" nType="-99"/>
              <Node pos="r" depth="4" NCoef="0" IVar="-1" Cut="0.0000000000000000e+00" cType="1" res="-7.2849495336413383e-03" rms="4.1810333728790283e-01" purity="5.8338469266891479e-01" nType="-99"/>
            </Node>
            <Node pos="r" depth="3" NCoef="0" IVar="1" Cut="7.4806725978851318e-01" cType="1" res="3.5258345305919647e-02" rms="4.0558874607086182e-01" purity="6.7801398038864136e-01" nType="0">
              <Node pos="l" depth="4" NCoef="0" IVar="-1" Cut="0.0000000000000000e+00" cType="1" res="1.5852225944399834e-02" rms="4.1430246829986572e-01" purity="6.6099381446838379e-01" nType="-99"/>
              <Node pos="r" depth="4" NCoef="0" IVar="-1" Cut="0.0000000000000000e+00" cType="1" res="5.2129314281046391e-03" rms="3.9411148428916931e-01" purity="6.9860130548477173e-01" nType="-99"/>
            </Node>
          </Node>
          <Node pos="r" depth="2" NCoef="0" IVar="-1" Cut="0.0000000000000000e+00" cType="1" res="-4.7122635878622532e-03" rms="4.3520906567573547e-01" purity="6.1333698034286499e-01" nType="-99"/>
        </Node>
      </Node>
    </BinaryTree>
    <BinaryTree type="DecisionTree" boostWeight="1.0000000000000000e+00" itree="194">
      <Node pos="s" depth="0" NCoef="0" IVar="6" Cut="5.1324594020843506e-01" cType="1" res="9.3214334920048714e-03" rms="4.1977366805076599e-01" purity="5.1963979005813599e-01" nType="0">
        <Node pos="l" depth="1" NCoef="0" IVar="-1" Cut="0.0000000000000000e+00" cType="1" res="9.6694463863968849e-03" rms="4.5009475946426392e-01" purity="4.3409383296966553e-01" nType="-99"/>
        <Node pos="r" depth="1" NCoef="0" IVar="2" Cut="2.9386143684387207e+00" cType="1" res="3.6120282020419836e-03" rms="4.1359654068946838e-01" purity="5.3566628694534302e-01" nType="0">
          <Node pos="l" depth="2" NCoef="0" IVar="1" Cut="-1.9442914724349976e+00" cType="1" res="1.1136023327708244e-02" rms="4.1170877218246460e-01" purity="5.3921866416931152e-01" nType="0">
            <Node pos="l" depth="3" NCoef="0" IVar="-1" Cut="0.0000000000000000e+00" cType="1" res="-7.1778628043830395e-03" rms="4.1983214020729065e-01" purity="5.3011578321456909e-01" nType="-99"/>
            <Node pos="r" depth="3" NCoef="0" IVar="8" Cut="3.0530862808227539e+00" cType="1" res="2.2671798244118690e-02" rms="4.0807133913040161e-01" purity="5.4257071018218994e-01" nType="0">
              <Node pos="l" depth="4" NCoef="0" IVar="-1" Cut="0.0000000000000000e+00" cType="1" res="3.9251535199582577e-03" rms="4.2268878221511841e-01" purity="5.0436162948608398e-01" nType="-99"/>
              <Node pos="r" depth="4" NCoef="0" IVar="-1" Cut="0.0000000000000000e+00" cType="1" res="1.7685696482658386e-02" rms="3.7752440571784973e-01" purity="6.1658984422683716e-01" nType="-99"/>
            </Node>
          </Node>
          <Node pos="r" depth="2" NCoef="0" IVar="-1" Cut="0.0000000000000000e+00" cType="1" res="-5.1869209855794907e-03" rms="4.2091867327690125e-01" purity="5.1783281564712524e-01" nType="-99"/>
        </Node>
      </Node>
    </BinaryTree>
    <BinaryTree type="DecisionTree" boostWeight="1.0000000000000000e+00" itree="195">
      <Node pos="s" depth="0" NCoef="0" IVar="4" Cut="6.8506062500000000e+04" cType="1" res="-9.0901032090187073e-03" rms="4.1186583042144775e-01" purity="4.9421447515487671e-01" nType="0">
        <Node pos="l" depth="1" NCoef="0" IVar="1" Cut="2.2436940670013428e+00" cType="1" res="-1.9483711570501328e-02" rms="4.1190344095230103e-01" purity="4.1777604818344116e-01" nType="0">
          <Node pos="l" depth="2" NCoef="0" IVar="1" Cut="-3.2155996561050415e-01" cType="1" res="-1.2637639418244362e-02" rms="4.0795540809631348e-01" purity="4.1834583878517151e-01" nType="0">
            <Node pos="l" depth="3" NCoef="0" IVar="3" Cut="6.1995183593750000e+04" cType="1" res="0.0000000000000000e+00" rms="0.0000000000000000e+00" purity="4.1707813739776611e-01" nType="0">
              <Node pos="l" depth="4" NCoef="0" IVar="-1" Cut="0.0000000000000000e+00" cType="1" res="-1.2848380021750927e-02" rms="3.9872372150421143e-01" purity="3.1754806637763977e-01" nType="-99"/>
              <Node pos="r" depth="4" NCoef="0" IVar="-1" Cut="0.0000000000000000e+00" cType="1" res="-3.6276327446103096e-03" rms="4.1506695747375488e-01" purity="4.9050483107566833e-01" nType="-99"/>
            </Node>
            <Node pos="r" depth="3" NCoef="0" IVar="-1" Cut="0.0000000000000000e+00" cType="1" res="1.8032242078334093e-03" rms="4.0638595819473267e-01" purity="4.2027315497398376e-01" nType="-99"/>
          </Node>
          <Node pos="r" depth="2" NCoef="0" IVar="-1" Cut="0.0000000000000000e+00" cType="1" res="-1.4279141090810299e-02" rms="4.2516392469406128e-01" purity="4.1568008065223694e-01" nType="-99"/>
        </Node>
        <Node pos="r" depth="1" NCoef="0" IVar="6" Cut="5.9269410371780396e-01" cType="1" res="9.6664531156420708e-03" rms="4.1113355755805969e-01" purity="6.3215708732604980e-01" nType="0">
          <Node pos="l" depth="2" NCoef="0" IVar="-1" Cut="0.0000000000000000e+00" cType="1" res="7.4346889741718769e-03" rms="4.3910348415374756e-01" purity="5.6368803977966309e-01" nType="-99"/>
          <Node pos="r" depth="2" NCoef="0" IVar="-1" Cut="0.0000000000000000e+00" cType="1" res="-1.1347811669111252e-03" rms="3.7918123602867126e-01" purity="7.0377957820892334e-01" nType="-99"/>
        </Node>
      </Node>
    </BinaryTree>
    <BinaryTree type="DecisionTree" boostWeight="1.0000000000000000e+00" itree="196">
      <Node pos="s" depth="0" NCoef="0" IVar="5" Cut="1.5900524902343750e+02" cType="1" res="-7.7833505347371101e-03" rms="4.1586670279502869e-01" purity="4.9047389626502991e-01" nType="0">
        <Node pos="l" depth="1" NCoef="0" IVar="-1" Cut="0.0000000000000000e+00" cType="1" res="-1.4248092658817768e-02" rms="4.1290575265884399e-01" purity="4.6921104192733765e-01" nType="-99"/>
        <Node pos="r" depth="1" NCoef="0" IVar="6" Cut="6.5428096055984497e-01" cType="1" res="7.8480959928128868e-05" rms="4.1614773869514465e-01" purity="4.9536398053169250e-01" nType="0">
          <Node pos="l" depth="2" NCoef="0" IVar="7" Cut="2.1936408996582031e+02" cType="1" res="1.5987390652298927e-02" rms="4.2585656046867371e-01" purity="5.0941222906112671e-01" nType="0">
            <Node pos="l" depth="3" NCoef="0" IVar="-1" Cut="0.0000000000000000e+00" cType="1" res="8.4363613277673721e-03" rms="4.1122812032699585e-01" purity="4.0550002455711365e-01" nType="-99"/>
            <Node pos="r" depth="3" NCoef="0" IVar="8" Cut="2.9492502212524414e+00" cType="1" res="1.7591749783605337e-03" rms="4.3211874365806580e-01" purity="5.6023567914962769e-01" nType="0">
              <Node pos="l" depth="4" NCoef="0" IVar="-1" Cut="0.0000000000000000e+00" cType="1" res="6.0545192100107670e-03" rms="4.3616524338722229e-01" purity="5.2502650022506714e-01" nType="-99"/>
              <Node pos="r" depth="4" NCoef="0" IVar="-1" Cut="0.0000000000000000e+00" cType="1" res="-8.0364337190985680e-03" rms="4.2557042837142944e-01" purity="6.0519063472747803e-01" nType="-99"/>
            </Node>
          </Node>
          <Node pos="r" depth="2" NCoef="0" IVar="6" Cut="7.8342235088348389e-01" cType="1" res="-1.9201098009943962e-02" rms="4.0322896838188171e-01" purity="4.7833925485610962e-01" nType="0">
            <Node pos="l" depth="3" NCoef="0" IVar="4" Cut="5.7871214843750000e+04" cType="1" res="0.0000000000000000e+00" rms="0.0000000000000000e+00" purity="5.2435117959976196e-01" nType="0">
              <Node pos="l" depth="4" NCoef="0" IVar="-1" Cut="0.0000000000000000e+00" cType="1" res="-5.8305026032030582e-03" rms="3.9529740810394287e-01" purity="3.9379310607910156e-01" nType="-99"/>
              <Node pos="r" depth="4" NCoef="0" IVar="-1" Cut="0.0000000000000000e+00" cType="1" res="7.0866628084331751e-04" rms="3.8821682333946228e-01" purity="6.8150246143341064e-01" nType="-99"/>
            </Node>
            <Node pos="r" depth="3" NCoef="0" IVar="-1" Cut="0.0000000000000000e+00" cType="1" res="4.4178469106554985e-03" rms="4.2338004708290100e-01" purity="3.7145134806632996e-01" nType="-99"/>
          </Node>
        </Node>
      </Node>
    </BinaryTree>
    <BinaryTree type="DecisionTree" boostWeight="1.0000000000000000e+00" itree="197">
      <Node pos="s" depth="0" NCoef="0" IVar="3" Cut="9.9442062500000000e+04" cType="1" res="-5.8734458871185780e-03" rms="4.1412261128425598e-01" purity="4.9343580007553101e-01" nType="0">
        <Node pos="l" depth="1" NCoef="0" IVar="0" Cut="2.9262384375000000e+05" cType="1" res="-1.3155849650502205e-02" rms="4.0803235769271851e-01" purity="4.4166809320449829e-01" nType="0">
          <Node pos="l" depth="2" NCoef="0" IVar="0" Cut="1.4465432812500000e+05" cType="1" res="-6.5153436735272408e-03" rms="4.3528354167938232e-01" purity="5.2553445100784302e-01" nType="0">
            <Node pos="l" depth="3" NCoef="0" IVar="-1" Cut="0.0000000000000000e+00" cType="1" res="-1.1503619141876698e-02" rms="4.5614448189735413e-01" purity="4.9090382456779480e-01" nType="-99"/>
            <Node pos="r" depth="3" NCoef="0" IVar="6" Cut="7.6289129257202148e-01" cType="1" res="3.3227298408746719e-03" rms="4.2798539996147156e-01" purity="5.3651869297027588e-01" nType="0">
              <Node pos="l" depth="4" NCoef="0" IVar="-1" Cut="0.0000000000000000e+00" cType="1" res="5.3651886992156506e-03" rms="4.3083158135414124e-01" purity="5.9227377176284790e-01" nType="-99"/>
              <Node pos="r" depth="4" NCoef="0" IVar="-1" Cut="0.0000000000000000e+00" cType="1" res="-1.2172899208962917e-02" rms="4.1684299707412720e-01" purity="3.8080674409866333e-01" nType="-99"/>
            </Node>
          </Node>
          <Node pos="r" depth="2" NCoef="0" IVar="-1" Cut="0.0000000000000000e+00" cType="1" res="-3.9193378761410713e-03" rms="2.6591765880584717e-01" purity="9.5548070967197418e-02" nType="-99"/>
        </Node>
        <Node pos="r" depth="1" NCoef="0" IVar="4" Cut="9.1533500000000000e+04" cType="1" res="7.4159647338092327e-03" rms="4.2468988895416260e-01" purity="5.8790498971939087e-01" nType="0">
          <Node pos="l" depth="2" NCoef="0" IVar="-1" Cut="0.0000000000000000e+00" cType="1" res="5.2158823236823082e-03" rms="4.2672502994537354e-01" purity="5.6060123443603516e-01" nType="-99"/>
          <Node pos="r" depth="2" NCoef="0" IVar="-1" Cut="0.0000000000000000e+00" cType="1" res="-2.0957877859473228e-03" rms="4.2137375473976135e-01" purity="6.2489479780197144e-01" nType="-99"/>
        </Node>
      </Node>
    </BinaryTree>
    <BinaryTree type="DecisionTree" boostWeight="1.0000000000000000e+00" itree="198">
      <Node pos="s" depth="0" NCoef="0" IVar="0" Cut="3.4394775000000000e+05" cType="1" res="1.5047880588099360e-03" rms="4.0948122739791870e-01" purity="5.0001263618469238e-01" nType="0">
        <Node pos="l" depth="1" NCoef="0" IVar="6" Cut="7.4019944667816162e-01" cType="1" res="8.0201579257845879e-03" rms="4.2464524507522583e-01" purity="5.5736464262008667e-01" nType="0">
          <Node pos="l" depth="2" NCoef="0" IVar="7" Cut="1.6158227539062500e+02" cType="1" res="9.6653716173022985e-04" rms="4.2705649137496948e-01" purity="5.7733452320098877e-01" nType="0">
            <Node pos="l" depth="3" NCoef="0" IVar="-1" Cut="0.0000000000000000e+00" cType="1" res="-5.0131469033658504e-03" rms="4.2204931378364563e-01" purity="3.5740175843238831e-01" nType="-99"/>
            <Node pos="r" depth="3" NCoef="0" IVar="1" Cut="-2.2433843612670898e+00" cType="1" res="0.0000000000000000e+00" rms="0.0000000000000000e+00" purity="6.1781382560729980e-01" nType="0">
              <Node pos="l" depth="4" NCoef="0" IVar="-1" Cut="0.0000000000000000e+00" cType="1" res="-3.3098668791353703e-03" rms="4.4005814194679260e-01" purity="5.7885342836380005e-01" nType="-99"/>
              <Node pos="r" depth="4" NCoef="0" IVar="-1" Cut="0.0000000000000000e+00" cType="1" res="3.5321426112204790e-03" rms="4.2373502254486084e-01" purity="6.2964439392089844e-01" nType="-99"/>
            </Node>
          </Node>
          <Node pos="r" depth="2" NCoef="0" IVar="1" Cut="-1.5008477866649628e-01" cType="1" res="3.1455025076866150e-02" rms="4.1567537188529968e-01" purity="4.9101686477661133e-01" nType="0">
            <Node pos="l" depth="3" NCoef="0" IVar="-1" Cut="0.0000000000000000e+00" cType="1" res="9.4499140977859497e-03" rms="4.1213241219520569e-01" purity="4.9700504541397095e-01" nType="-99"/>
            <Node pos="r" depth="3" NCoef="0" IVar="-1" Cut="0.0000000000000000e+00" cType="1" res="5.9285494498908520e-03" rms="4.1879639029502869e-01" purity="4.8503062129020691e-01" nType="-99"/>
          </Node>
        </Node>
        <Node pos="r" depth="1" NCoef="0" IVar="-1" Cut="0.0000000000000000e+00" cType="1" res="-2.4389408063143492e-03" rms="2.8150743246078491e-01" purity="1.0930316895246506e-01" nType="-99"/>
      </Node>
    </BinaryTree>
    <BinaryTree type="DecisionTree" boostWeight="1.0000000000000000e+00" itree="199">
      <Node pos="s" depth="0" NCoef="0" IVar="6" Cut="7.9625004529953003e-01" cType="1" res="3.4648862201720476e-03" rms="4.1432261466979980e-01" purity="5.0985544919967651e-01" nType="0">
        <Node pos="l" depth="1" NCoef="0" IVar="9" Cut="4.0000000000000000e+00" cType="1" res="-3.1986527028493583e-04" rms="4.1496852040290833e-01" purity="5.2733594179153442e-01" nType="0">
          <Node pos="l" depth="2" NCoef="0" IVar="1" Cut="-1.0471879243850708e+00" cType="1" res="-7.2648758068680763e-03" rms="4.1779336333274841e-01" purity="4.9322852492332458e-01" nType="0">
            <Node pos="l" depth="3" NCoef="0" IVar="1" Cut="-2.5438816547393799e+00" cType="1" res="-1.8535550683736801e-02" rms="4.2753219604492188e-01" purity="4.7911068797111511e-01" nType="0">
              <Node pos="l" depth="4" NCoef="0" IVar="-1" Cut="0.0000000000000000e+00" cType="1" res="2.5905352085828781e-03" rms="4.3416243791580200e-01" purity="5.1654177904129028e-01" nType="-99"/>
              <Node pos="r" depth="4" NCoef="0" IVar="-1" Cut="0.0000000000000000e+00" cType="1" res="-1.0047583840787411e-02" rms="4.2097944021224976e-01" purity="4.4946786761283875e-01" nType="-99"/>
            </Node>
            <Node pos="r" depth="3" NCoef="0" IVar="8" Cut="2.8857774734497070e+00" cType="1" res="2.6013518800027668e-04" rms="4.1099065542221069e-01" purity="5.0265449285507202e-01" nType="0">
              <Node pos="l" depth="4" NCoef="0" IVar="-1" Cut="0.0000000000000000e+00" cType="1" res="-7.6883011497557163e-03" rms="4.3100833892822266e-01" purity="4.3994271755218506e-01" nType="-99"/>
              <Node pos="r" depth="4" NCoef="0" IVar="-1" Cut="0.0000000000000000e+00" cType="1" res="3.1486891675740480e-03" rms="4.0230762958526611e-01" purity="5.2765417098999023e-01" nType="-99"/>
            </Node>
          </Node>
          <Node pos="r" depth="2" NCoef="0" IVar="-1" Cut="0.0000000000000000e+00" cType="1" res="7.3373680934309959e-03" rms="4.0505373477935791e-01" purity="6.3632708787918091e-01" nType="-99"/>
        </Node>
        <Node pos="r" depth="1" NCoef="0" IVar="-1" Cut="0.0000000000000000e+00" cType="1" res="9.1402595862746239e-03" rms="4.0939238667488098e-01" purity="4.0028345584869385e-01" nType="-99"/>
      </Node>
    </BinaryTree>
  </Weights>
</MethodSetup>
