<?xml version="1.0"?>
<MethodSetup Method="BDT::BDTG">
  <GeneralInfo>
    <Info name="TMVA Release" value="4.2.1 [262657]"/>
    <Info name="ROOT Release" value="6.14/04 [396804]"/>
    <Info name="Creator" value="unok"/>
    <Info name="Date" value="Mon Jan 14 15:38:01 2019"/>
    <Info name="Host" value="Linux lcgapp-slc6-x86-64-39.cern.ch 2.6.32-696.30.1.el6.x86_64 #1 SMP Tue May 22 06:09:36 CEST 2018 x86_64 x86_64 x86_64 GNU/Linux"/>
    <Info name="Dir" value="/gpfs/fs6001/unok/TMVA/2018/v142/V2/TMVA-0L"/>
    <Info name="Training events" value="112924"/>
    <Info name="TrainingTime" value="6.33706841e+01"/>
    <Info name="AnalysisType" value="Classification"/>
  </GeneralInfo>
  <Options>
    <Option name="V" modified="Yes">False</Option>
    <Option name="VerbosityLevel" modified="No">Default</Option>
    <Option name="VarTransform" modified="No">None</Option>
    <Option name="H" modified="Yes">False</Option>
    <Option name="CreateMVAPdfs" modified="No">False</Option>
    <Option name="IgnoreNegWeightsInTraining" modified="No">False</Option>
    <Option name="NTrees" modified="Yes">800</Option>
    <Option name="MaxDepth" modified="Yes">3</Option>
    <Option name="MinNodeSize" modified="Yes">2.500000%</Option>
    <Option name="nCuts" modified="Yes">20</Option>
    <Option name="BoostType" modified="Yes">Grad</Option>
    <Option name="AdaBoostR2Loss" modified="No">quadratic</Option>
    <Option name="UseBaggedBoost" modified="Yes">True</Option>
    <Option name="Shrinkage" modified="Yes">2.000000e-01</Option>
    <Option name="AdaBoostBeta" modified="No">5.000000e-01</Option>
    <Option name="UseRandomisedTrees" modified="No">False</Option>
    <Option name="UseNvars" modified="No">3</Option>
    <Option name="UsePoissonNvars" modified="No">True</Option>
    <Option name="BaggedSampleFraction" modified="Yes">5.000000e-01</Option>
    <Option name="UseYesNoLeaf" modified="No">True</Option>
    <Option name="NegWeightTreatment" modified="Yes">pray</Option>
    <Option name="Css" modified="No">1.000000e+00</Option>
    <Option name="Cts_sb" modified="No">1.000000e+00</Option>
    <Option name="Ctb_ss" modified="No">1.000000e+00</Option>
    <Option name="Cbb" modified="No">1.000000e+00</Option>
    <Option name="NodePurityLimit" modified="No">5.000000e-01</Option>
    <Option name="SeparationType" modified="No">giniindex</Option>
    <Option name="RegressionLossFunctionBDTG" modified="No">huber</Option>
    <Option name="HuberQuantile" modified="No">7.000000e-01</Option>
    <Option name="DoBoostMonitor" modified="No">False</Option>
    <Option name="UseFisherCuts" modified="No">False</Option>
    <Option name="MinLinCorrForFisher" modified="No">8.000000e-01</Option>
    <Option name="UseExclusiveVars" modified="No">False</Option>
    <Option name="DoPreselection" modified="No">False</Option>
    <Option name="SigToBkgFraction" modified="No">1.000000e+00</Option>
    <Option name="PruneMethod" modified="No">nopruning</Option>
    <Option name="PruneStrength" modified="No">0.000000e+00</Option>
    <Option name="PruningValFraction" modified="No">5.000000e-01</Option>
    <Option name="SkipNormalization" modified="No">False</Option>
    <Option name="nEventsMin" modified="No">0</Option>
    <Option name="UseBaggedGrad" modified="No">False</Option>
    <Option name="GradBaggingFraction" modified="No">5.000000e-01</Option>
    <Option name="UseNTrainEvents" modified="No">0</Option>
    <Option name="NNodesMax" modified="No">0</Option>
  </Options>
  <Variables NVar="10">
    <Variable VarIndex="0" Expression="meff" Label="meff" Title="m_{eff}(incl.)" Unit="GeV" Internal="meff" Type="F" Min="1.40000916e+03" Max="6.99169531e+03"/>
    <Variable VarIndex="1" Expression="Ap" Label="Ap" Title="Aplanarity" Unit="" Internal="Ap" Type="F" Min="2.12942377e-05" Max="4.45785880e-01"/>
    <Variable VarIndex="2" Expression="jetPt0" Label="jetPt0" Title="p_{T}(j_{1})" Unit="GeV" Internal="jetPt0" Type="F" Min="2.00231079e+02" Max="2.75622241e+03"/>
    <Variable VarIndex="3" Expression="jetPt1" Label="jetPt1" Title="p_{T}(j_{2})" Unit="GeV" Internal="jetPt1" Type="F" Min="6.03761902e+01" Max="1.94071338e+03"/>
    <Variable VarIndex="4" Expression="jetPt2" Label="jetPt2" Title="p_{T}(j_{3})" Unit="GeV" Internal="jetPt2" Type="F" Min="5.43429680e+01" Max="1.04250964e+03"/>
    <Variable VarIndex="5" Expression="jetPt3" Label="jetPt3" Title="p_{T}(j_{4})" Unit="GeV" Internal="jetPt3" Type="F" Min="5.11299973e+01" Max="7.86924744e+02"/>
    <Variable VarIndex="6" Expression="jetEta0" Label="jetEta0" Title="#eta(j_{1})" Unit="" Internal="jetEta0" Type="F" Min="-2.71708536e+00" Max="2.79742193e+00"/>
    <Variable VarIndex="7" Expression="jetEta1" Label="jetEta1" Title="#eta(j_{2})" Unit="" Internal="jetEta1" Type="F" Min="-2.79975271e+00" Max="2.79999733e+00"/>
    <Variable VarIndex="8" Expression="jetEta2" Label="jetEta2" Title="#eta(j_{3})" Unit="" Internal="jetEta2" Type="F" Min="-2.79979849e+00" Max="2.79921389e+00"/>
    <Variable VarIndex="9" Expression="jetEta3" Label="jetEta3" Title="#eta(j_{4})" Unit="" Internal="jetEta3" Type="F" Min="-2.79890251e+00" Max="2.79940987e+00"/>
  </Variables>
  <Spectators NSpec="0">
  </Spectators>
  <Classes NClass="2">
    <Class Name="Signal" Index="0"/>
    <Class Name="Background" Index="1"/>
  </Classes>
  <Transformations NTransformations="0"/>
  <MVAPdfs/>
  <Weights NTrees="800" AnalysisType="1">
    <BinaryTree type="DecisionTree" boostWeight="1.0000000000000000e+00" itree="0">
      <Node pos="s" depth="0" NCoef="0" IVar="0" Cut="1.9325543212890625e+03" cType="1" res="-2.7953602839261293e-03" rms="4.9999219179153442e-01" purity="4.9720463156700134e-01" nType="0">
        <Node pos="l" depth="1" NCoef="0" IVar="1" Cut="7.5481817126274109e-02" cType="1" res="-4.1269335150718689e-01" rms="2.8228387236595154e-01" purity="8.7306641042232513e-02" nType="0">
          <Node pos="l" depth="2" NCoef="0" IVar="0" Cut="1.8310942382812500e+03" cType="1" res="-4.5700529217720032e-01" rms="2.0284514129161835e-01" purity="4.2994700372219086e-02" nType="0">
            <Node pos="l" depth="3" NCoef="0" IVar="-1" Cut="0.0000000000000000e+00" cType="1" res="-1.8716672062873840e-01" rms="1.7622111737728119e-01" purity="3.2083213329315186e-02" nType="-99"/>
            <Node pos="r" depth="3" NCoef="0" IVar="-1" Cut="0.0000000000000000e+00" cType="1" res="-1.4191995561122894e-01" rms="3.5230246186256409e-01" purity="1.4520008862018585e-01" nType="-99"/>
          </Node>
          <Node pos="r" depth="2" NCoef="0" IVar="0" Cut="1.7296959228515625e+03" cType="1" res="-2.7611461281776428e-01" rms="4.1684615612030029e-01" purity="2.2388540208339691e-01" nType="0">
            <Node pos="l" depth="3" NCoef="0" IVar="-1" Cut="0.0000000000000000e+00" cType="1" res="-1.5926948189735413e-01" rms="3.0241975188255310e-01" purity="1.0182628780603409e-01" nType="-99"/>
            <Node pos="r" depth="3" NCoef="0" IVar="-1" Cut="0.0000000000000000e+00" cType="1" res="-7.5392415747046471e-03" rms="4.9964463710784912e-01" purity="4.8115187883377075e-01" nType="-99"/>
          </Node>
        </Node>
        <Node pos="r" depth="1" NCoef="0" IVar="1" Cut="4.2598135769367218e-02" cType="1" res="3.3654010295867920e-01" rms="3.6978474259376526e-01" purity="8.3654010295867920e-01" nType="0">
          <Node pos="l" depth="2" NCoef="0" IVar="0" Cut="2.5880561523437500e+03" cType="1" res="4.0726497769355774e-02" rms="4.9833858013153076e-01" purity="5.4072654247283936e-01" nType="0">
            <Node pos="l" depth="3" NCoef="0" IVar="-1" Cut="0.0000000000000000e+00" cType="1" res="-5.9074934571981430e-02" rms="4.7769075632095337e-01" purity="3.5231265425682068e-01" nType="-99"/>
            <Node pos="r" depth="3" NCoef="0" IVar="-1" Cut="0.0000000000000000e+00" cType="1" res="1.3659268617630005e-01" rms="3.6522626876831055e-01" purity="8.4148174524307251e-01" nType="-99"/>
          </Node>
          <Node pos="r" depth="2" NCoef="0" IVar="0" Cut="2.1736518554687500e+03" cType="1" res="4.1393858194351196e-01" rms="2.8045472502708435e-01" purity="9.1393858194351196e-01" nType="0">
            <Node pos="l" depth="3" NCoef="0" IVar="-1" Cut="0.0000000000000000e+00" cType="1" res="8.0324895679950714e-02" rms="4.5790222287178040e-01" purity="7.0081228017807007e-01" nType="-99"/>
            <Node pos="r" depth="3" NCoef="0" IVar="-1" Cut="0.0000000000000000e+00" cType="1" res="1.8068265914916992e-01" rms="2.1438542008399963e-01" purity="9.5170664787292480e-01" nType="-99"/>
          </Node>
        </Node>
      </Node>
    </BinaryTree>
    <BinaryTree type="DecisionTree" boostWeight="1.0000000000000000e+00" itree="1">
      <Node pos="s" depth="0" NCoef="0" IVar="0" Cut="1.9325607910156250e+03" cType="1" res="-6.1377487145364285e-03" rms="4.3601801991462708e-01" purity="4.9224880337715149e-01" nType="0">
        <Node pos="l" depth="1" NCoef="0" IVar="0" Cut="1.7296723632812500e+03" cType="1" res="-3.2752808928489685e-01" rms="2.7814120054244995e-01" purity="9.0753175318241119e-02" nType="0">
          <Node pos="l" depth="2" NCoef="0" IVar="1" Cut="5.5408325046300888e-02" cType="1" res="-3.6792436242103577e-01" rms="2.0078133046627045e-01" purity="4.2486641556024551e-02" nType="0">
            <Node pos="l" depth="3" NCoef="0" IVar="-1" Cut="0.0000000000000000e+00" cType="1" res="-1.6135190427303314e-01" rms="1.3266783952713013e-01" purity="1.7921948805451393e-02" nType="-99"/>
            <Node pos="r" depth="3" NCoef="0" IVar="-1" Cut="0.0000000000000000e+00" cType="1" res="-1.3239717483520508e-01" rms="2.9263824224472046e-01" purity="9.4895541667938232e-02" nType="-99"/>
          </Node>
          <Node pos="r" depth="2" NCoef="0" IVar="1" Cut="5.2713662385940552e-02" cType="1" res="-2.0457635819911957e-01" rms="4.1236340999603271e-01" purity="2.3765909671783447e-01" nType="0">
            <Node pos="l" depth="3" NCoef="0" IVar="-1" Cut="0.0000000000000000e+00" cType="1" res="-1.3480131328105927e-01" rms="2.8412291407585144e-01" purity="8.9011028409004211e-02" nType="-99"/>
            <Node pos="r" depth="3" NCoef="0" IVar="-1" Cut="0.0000000000000000e+00" cType="1" res="-2.1551163867115974e-02" rms="4.8836928606033325e-01" purity="4.2050406336784363e-01" nType="-99"/>
          </Node>
        </Node>
        <Node pos="r" depth="1" NCoef="0" IVar="1" Cut="2.1247191354632378e-02" cType="1" res="2.6505595445632935e-01" rms="3.5291075706481934e-01" purity="8.3103644847869873e-01" nType="0">
          <Node pos="l" depth="2" NCoef="0" IVar="9" Cut="1.3470952212810516e-01" cType="1" res="-1.6508588194847107e-01" rms="4.5139738917350769e-01" purity="3.3284199237823486e-01" nType="0">
            <Node pos="l" depth="3" NCoef="0" IVar="-1" Cut="0.0000000000000000e+00" cType="1" res="-4.5427668839693069e-02" rms="4.6491086483001709e-01" purity="3.8874867558479309e-01" nType="-99"/>
            <Node pos="r" depth="3" NCoef="0" IVar="-1" Cut="0.0000000000000000e+00" cType="1" res="-8.7309226393699646e-02" rms="4.3150919675827026e-01" purity="2.7781823277473450e-01" nType="-99"/>
          </Node>
          <Node pos="r" depth="2" NCoef="0" IVar="0" Cut="2.1735502929687500e+03" cType="1" res="3.0925446748733521e-01" rms="3.0893588066101074e-01" purity="8.8222759962081909e-01" nType="0">
            <Node pos="l" depth="3" NCoef="0" IVar="-1" Cut="0.0000000000000000e+00" cType="1" res="3.7969544529914856e-02" rms="4.7743129730224609e-01" purity="6.1866426467895508e-01" nType="-99"/>
            <Node pos="r" depth="3" NCoef="0" IVar="-1" Cut="0.0000000000000000e+00" cType="1" res="1.4444983005523682e-01" rms="2.4402266740798950e-01" purity="9.3268048763275146e-01" nType="-99"/>
          </Node>
        </Node>
      </Node>
    </BinaryTree>
    <BinaryTree type="DecisionTree" boostWeight="1.0000000000000000e+00" itree="2">
      <Node pos="s" depth="0" NCoef="0" IVar="0" Cut="2.1418779296875000e+03" cType="1" res="5.0238836556673050e-03" rms="3.9191582798957825e-01" purity="5.0575643777847290e-01" nType="0">
        <Node pos="l" depth="1" NCoef="0" IVar="5" Cut="1.7869569396972656e+02" cType="1" res="-2.2054512798786163e-01" rms="3.3296015858650208e-01" purity="1.6243883967399597e-01" nType="0">
          <Node pos="l" depth="2" NCoef="0" IVar="1" Cut="7.5994148850440979e-02" cType="1" res="-2.5970199704170227e-01" rms="2.8963991999626160e-01" purity="1.1183983087539673e-01" nType="0">
            <Node pos="l" depth="3" NCoef="0" IVar="-1" Cut="0.0000000000000000e+00" cType="1" res="-1.3044442236423492e-01" rms="2.2489148378372192e-01" purity="5.9865798801183701e-02" nType="-99"/>
            <Node pos="r" depth="3" NCoef="0" IVar="-1" Cut="0.0000000000000000e+00" cType="1" res="-6.3611403107643127e-02" rms="4.1169860959053040e-01" purity="2.7000761032104492e-01" nType="-99"/>
          </Node>
          <Node pos="r" depth="2" NCoef="0" IVar="0" Cut="1.8241798095703125e+03" cType="1" res="3.3972639590501785e-02" rms="4.5981335639953613e-01" purity="4.9132999777793884e-01" nType="0">
            <Node pos="l" depth="3" NCoef="0" IVar="-1" Cut="0.0000000000000000e+00" cType="1" res="-6.3211053609848022e-02" rms="4.0043267607688904e-01" purity="2.2259292006492615e-01" nType="-99"/>
            <Node pos="r" depth="3" NCoef="0" IVar="-1" Cut="0.0000000000000000e+00" cType="1" res="5.7907316833734512e-02" rms="4.5950481295585632e-01" purity="6.5384244918823242e-01" nType="-99"/>
          </Node>
        </Node>
        <Node pos="r" depth="1" NCoef="0" IVar="5" Cut="1.2330854797363281e+02" cType="1" res="2.6659965515136719e-01" rms="2.7519086003303528e-01" purity="9.0387648344039917e-01" nType="0">
          <Node pos="l" depth="2" NCoef="0" IVar="-1" Cut="0.0000000000000000e+00" cType="1" res="-1.2554679997265339e-02" rms="4.6119785308837891e-01" purity="5.4760217666625977e-01" nType="-99"/>
          <Node pos="r" depth="2" NCoef="0" IVar="1" Cut="6.3531421124935150e-02" cType="1" res="2.8902524709701538e-01" rms="2.4127787351608276e-01" purity="9.3084484338760376e-01" nType="0">
            <Node pos="l" depth="3" NCoef="0" IVar="-1" Cut="0.0000000000000000e+00" cType="1" res="9.3432500958442688e-02" rms="3.6204603314399719e-01" purity="8.2352048158645630e-01" nType="-99"/>
            <Node pos="r" depth="3" NCoef="0" IVar="-1" Cut="0.0000000000000000e+00" cType="1" res="1.3893024623394012e-01" rms="1.7389518022537231e-01" purity="9.6860671043395996e-01" nType="-99"/>
          </Node>
        </Node>
      </Node>
    </BinaryTree>
    <BinaryTree type="DecisionTree" boostWeight="1.0000000000000000e+00" itree="3">
      <Node pos="s" depth="0" NCoef="0" IVar="0" Cut="1.9325679931640625e+03" cType="1" res="-2.6759282263810746e-05" rms="3.5905236005783081e-01" purity="4.9767205119132996e-01" nType="0">
        <Node pos="l" depth="1" NCoef="0" IVar="0" Cut="1.7296755371093750e+03" cType="1" res="-2.1514202654361725e-01" rms="2.7066230773925781e-01" purity="9.3213707208633423e-02" nType="0">
          <Node pos="l" depth="2" NCoef="0" IVar="2" Cut="3.5009182739257812e+02" cType="1" res="-2.4830487370491028e-01" rms="2.0024144649505615e-01" purity="4.3059322983026505e-02" nType="0">
            <Node pos="l" depth="3" NCoef="0" IVar="-1" Cut="0.0000000000000000e+00" cType="1" res="-1.0431712120771408e-01" rms="2.6853826642036438e-01" purity="8.0412231385707855e-02" nType="-99"/>
            <Node pos="r" depth="3" NCoef="0" IVar="-1" Cut="0.0000000000000000e+00" cType="1" res="-1.2895803153514862e-01" rms="1.5181516110897064e-01" purity="2.4009257555007935e-02" nType="-99"/>
          </Node>
          <Node pos="r" depth="2" NCoef="0" IVar="1" Cut="6.9144897162914276e-02" cType="1" res="-1.1232048273086548e-01" rms="4.0260791778564453e-01" purity="2.4871759116649628e-01" nType="0">
            <Node pos="l" depth="3" NCoef="0" IVar="-1" Cut="0.0000000000000000e+00" cType="1" res="-9.2036835849285126e-02" rms="3.1139034032821655e-01" purity="1.1494100838899612e-01" nType="-99"/>
            <Node pos="r" depth="3" NCoef="0" IVar="-1" Cut="0.0000000000000000e+00" cType="1" res="1.7351705580949783e-02" rms="4.9539789557456970e-01" purity="4.9599397182464600e-01" nType="-99"/>
          </Node>
        </Node>
        <Node pos="r" depth="1" NCoef="0" IVar="1" Cut="4.2563121765851974e-02" cType="1" res="1.8185845017433167e-01" rms="3.2213723659515381e-01" purity="8.3965140581130981e-01" nType="0">
          <Node pos="l" depth="2" NCoef="0" IVar="0" Cut="2.3698278808593750e+03" cType="1" res="3.8285746704787016e-03" rms="4.4872808456420898e-01" purity="5.4554271697998047e-01" nType="0">
            <Node pos="l" depth="3" NCoef="0" IVar="-1" Cut="0.0000000000000000e+00" cType="1" res="-6.8865001201629639e-02" rms="4.4084072113037109e-01" purity="2.9641515016555786e-01" nType="-99"/>
            <Node pos="r" depth="3" NCoef="0" IVar="-1" Cut="0.0000000000000000e+00" cType="1" res="6.2954977154731750e-02" rms="4.0276545286178589e-01" purity="7.5319600105285645e-01" nType="-99"/>
          </Node>
          <Node pos="r" depth="2" NCoef="0" IVar="0" Cut="2.4144575195312500e+03" cType="1" res="2.2827926278114319e-01" rms="2.6059225201606750e-01" purity="9.1633951663970947e-01" nType="0">
            <Node pos="l" depth="3" NCoef="0" IVar="-1" Cut="0.0000000000000000e+00" cType="1" res="7.2568386793136597e-02" rms="3.8510933518409729e-01" purity="7.9853868484497070e-01" nType="-99"/>
            <Node pos="r" depth="3" NCoef="0" IVar="-1" Cut="0.0000000000000000e+00" cType="1" res="1.2627983093261719e-01" rms="1.6659024357795715e-01" purity="9.7093975543975830e-01" nType="-99"/>
          </Node>
        </Node>
      </Node>
    </BinaryTree>
    <BinaryTree type="DecisionTree" boostWeight="1.0000000000000000e+00" itree="4">
      <Node pos="s" depth="0" NCoef="0" IVar="0" Cut="2.0949509277343750e+03" cType="1" res="2.2834609262645245e-03" rms="3.3487644791603088e-01" purity="5.0166594982147217e-01" nType="0">
        <Node pos="l" depth="1" NCoef="0" IVar="0" Cut="1.8301882324218750e+03" cType="1" res="-1.5309017896652222e-01" rms="3.0587500333786011e-01" purity="1.4651308953762054e-01" nType="0">
          <Node pos="l" depth="2" NCoef="0" IVar="1" Cut="5.4102469235658646e-02" cType="1" res="-1.8951959908008575e-01" rms="2.3794521391391754e-01" purity="6.6705472767353058e-02" nType="0">
            <Node pos="l" depth="3" NCoef="0" IVar="-1" Cut="0.0000000000000000e+00" cType="1" res="-1.1723983287811279e-01" rms="1.5497121214866638e-01" purity="2.4793192744255066e-02" nType="-99"/>
            <Node pos="r" depth="3" NCoef="0" IVar="-1" Cut="0.0000000000000000e+00" cType="1" res="-7.3501542210578918e-02" rms="3.3844310045242310e-01" purity="1.4439682662487030e-01" nType="-99"/>
          </Node>
          <Node pos="r" depth="2" NCoef="0" IVar="2" Cut="5.6239782714843750e+02" cType="1" res="-3.1554568558931351e-02" rms="4.4452843070030212e-01" purity="4.1276687383651733e-01" nType="0">
            <Node pos="l" depth="3" NCoef="0" IVar="-1" Cut="0.0000000000000000e+00" cType="1" res="2.6405647397041321e-02" rms="4.6133211255073547e-01" purity="5.3773021697998047e-01" nType="-99"/>
            <Node pos="r" depth="3" NCoef="0" IVar="-1" Cut="0.0000000000000000e+00" cType="1" res="-1.0506696999073029e-01" rms="3.2298746705055237e-01" purity="1.4185167849063873e-01" nType="-99"/>
          </Node>
        </Node>
        <Node pos="r" depth="1" NCoef="0" IVar="5" Cut="1.5645040893554688e+02" cType="1" res="1.7294335365295410e-01" rms="2.7733078598976135e-01" purity="8.9176005125045776e-01" nType="0">
          <Node pos="l" depth="2" NCoef="0" IVar="1" Cut="5.6945383548736572e-02" cType="1" res="3.2192308455705643e-02" rms="4.1468816995620728e-01" purity="6.7870092391967773e-01" nType="0">
            <Node pos="l" depth="3" NCoef="0" IVar="-1" Cut="0.0000000000000000e+00" cType="1" res="-3.6781009286642075e-02" rms="4.5610323548316956e-01" purity="4.8009184002876282e-01" nType="-99"/>
            <Node pos="r" depth="3" NCoef="0" IVar="-1" Cut="0.0000000000000000e+00" cType="1" res="7.1413829922676086e-02" rms="3.3746188879013062e-01" purity="8.6310410499572754e-01" nType="-99"/>
          </Node>
          <Node pos="r" depth="2" NCoef="0" IVar="1" Cut="7.9094231128692627e-02" cType="1" res="2.0429310202598572e-01" rms="2.2437801957130432e-01" purity="9.3921518325805664e-01" nType="0">
            <Node pos="l" depth="3" NCoef="0" IVar="-1" Cut="0.0000000000000000e+00" cType="1" res="8.5090279579162598e-02" rms="3.2096454501152039e-01" purity="8.6647641658782959e-01" nType="-99"/>
            <Node pos="r" depth="3" NCoef="0" IVar="-1" Cut="0.0000000000000000e+00" cType="1" res="1.1939713358879089e-01" rms="1.5336543321609497e-01" purity="9.7533142566680908e-01" nType="-99"/>
          </Node>
        </Node>
      </Node>
    </BinaryTree>
    <BinaryTree type="DecisionTree" boostWeight="1.0000000000000000e+00" itree="5">
      <Node pos="s" depth="0" NCoef="0" IVar="0" Cut="1.8824879150390625e+03" cType="1" res="1.8646667012944818e-03" rms="3.1633111834526062e-01" purity="5.0374537706375122e-01" nType="0">
        <Node pos="l" depth="1" NCoef="0" IVar="1" Cut="1.0563150793313980e-01" cType="1" res="-1.4919941127300262e-01" rms="2.5173977017402649e-01" purity="7.9817980527877808e-02" nType="0">
          <Node pos="l" depth="2" NCoef="0" IVar="1" Cut="4.0319912135601044e-02" cType="1" res="-1.6448670625686646e-01" rms="2.1419627964496613e-01" purity="5.2445776760578156e-02" nType="0">
            <Node pos="l" depth="3" NCoef="0" IVar="-1" Cut="0.0000000000000000e+00" cType="1" res="-1.1317756772041321e-01" rms="1.3673190772533417e-01" purity="1.9673841074109077e-02" nType="-99"/>
            <Node pos="r" depth="3" NCoef="0" IVar="-1" Cut="0.0000000000000000e+00" cType="1" res="-7.6191097497940063e-02" rms="2.9969087243080139e-01" purity="1.0685490816831589e-01" nType="-99"/>
          </Node>
          <Node pos="r" depth="2" NCoef="0" IVar="0" Cut="1.6069083251953125e+03" cType="1" res="-5.9409484267234802e-02" rms="3.9583113789558411e-01" purity="2.4058848619461060e-01" nType="0">
            <Node pos="l" depth="3" NCoef="0" IVar="-1" Cut="0.0000000000000000e+00" cType="1" res="-8.9119359850883484e-02" rms="2.7755811810493469e-01" purity="8.4284923970699310e-02" nType="-99"/>
            <Node pos="r" depth="3" NCoef="0" IVar="-1" Cut="0.0000000000000000e+00" cType="1" res="1.8812088295817375e-02" rms="4.5715525746345520e-01" purity="3.8415056467056274e-01" nType="-99"/>
          </Node>
        </Node>
        <Node pos="r" depth="1" NCoef="0" IVar="5" Cut="1.3882307434082031e+02" cType="1" res="1.1325895786285400e-01" rms="3.1286728382110596e-01" purity="8.1634843349456787e-01" nType="0">
          <Node pos="l" depth="2" NCoef="0" IVar="1" Cut="1.9184619188308716e-02" cType="1" res="-6.3549228012561798e-02" rms="4.2376756668090820e-01" purity="4.6766203641891479e-01" nType="0">
            <Node pos="l" depth="3" NCoef="0" IVar="-1" Cut="0.0000000000000000e+00" cType="1" res="-1.0197538137435913e-01" rms="3.3641198277473450e-01" purity="1.4708760380744934e-01" nType="-99"/>
            <Node pos="r" depth="3" NCoef="0" IVar="-1" Cut="0.0000000000000000e+00" cType="1" res="-3.2649482600390911e-03" rms="4.3613809347152710e-01" purity="5.7869613170623779e-01" nType="-99"/>
          </Node>
          <Node pos="r" depth="2" NCoef="0" IVar="1" Cut="6.3785374164581299e-02" cType="1" res="1.5085725486278534e-01" rms="2.6917019486427307e-01" purity="8.9049667119979858e-01" nType="0">
            <Node pos="l" depth="3" NCoef="0" IVar="-1" Cut="0.0000000000000000e+00" cType="1" res="3.9165977388620377e-02" rms="3.8466680049896240e-01" purity="7.2767555713653564e-01" nType="-99"/>
            <Node pos="r" depth="3" NCoef="0" IVar="-1" Cut="0.0000000000000000e+00" cType="1" res="1.0418405383825302e-01" rms="2.0432010293006897e-01" purity="9.5133078098297119e-01" nType="-99"/>
          </Node>
        </Node>
      </Node>
    </BinaryTree>
    <BinaryTree type="DecisionTree" boostWeight="1.0000000000000000e+00" itree="6">
      <Node pos="s" depth="0" NCoef="0" IVar="0" Cut="2.1988215332031250e+03" cType="1" res="6.7471899092197418e-04" rms="3.0362269282341003e-01" purity="5.0342112779617310e-01" nType="0">
        <Node pos="l" depth="1" NCoef="0" IVar="1" Cut="9.8835639655590057e-02" cType="1" res="-9.8116032779216766e-02" rms="3.0695247650146484e-01" purity="1.8228919804096222e-01" nType="0">
          <Node pos="l" depth="2" NCoef="0" IVar="1" Cut="3.7747714668512344e-02" cType="1" res="-1.2739600241184235e-01" rms="2.7174451947212219e-01" purity="1.1441823095083237e-01" nType="0">
            <Node pos="l" depth="3" NCoef="0" IVar="-1" Cut="0.0000000000000000e+00" cType="1" res="-9.9226750433444977e-02" rms="2.0585396885871887e-01" purity="4.9774769693613052e-02" nType="-99"/>
            <Node pos="r" depth="3" NCoef="0" IVar="-1" Cut="0.0000000000000000e+00" cType="1" res="-5.2334591746330261e-02" rms="3.4069341421127319e-01" purity="2.0534306764602661e-01" nType="-99"/>
          </Node>
          <Node pos="r" depth="2" NCoef="0" IVar="0" Cut="1.6282733154296875e+03" cType="1" res="2.0504441112279892e-02" rms="3.9902245998382568e-01" purity="4.5725157856941223e-01" nType="0">
            <Node pos="l" depth="3" NCoef="0" IVar="-1" Cut="0.0000000000000000e+00" cType="1" res="-8.3532355725765228e-02" rms="2.6733019948005676e-01" purity="7.8609734773635864e-02" nType="-99"/>
            <Node pos="r" depth="3" NCoef="0" IVar="-1" Cut="0.0000000000000000e+00" cType="1" res="4.3646499514579773e-02" rms="4.2543250322341919e-01" purity="6.2898957729339600e-01" nType="-99"/>
          </Node>
        </Node>
        <Node pos="r" depth="1" NCoef="0" IVar="4" Cut="1.9150077819824219e+02" cType="1" res="1.2760104238986969e-01" rms="2.4683029949665070e-01" purity="9.1601139307022095e-01" nType="0">
          <Node pos="l" depth="2" NCoef="0" IVar="-1" Cut="0.0000000000000000e+00" cType="1" res="-3.6804072442464530e-04" rms="4.0001884102821350e-01" purity="6.7326539754867554e-01" nType="-99"/>
          <Node pos="r" depth="2" NCoef="0" IVar="0" Cut="2.4272050781250000e+03" cType="1" res="1.3769589364528656e-01" rms="2.2744837403297424e-01" purity="9.3510758876800537e-01" nType="0">
            <Node pos="l" depth="3" NCoef="0" IVar="-1" Cut="0.0000000000000000e+00" cType="1" res="4.8517603427171707e-02" rms="3.2861691713333130e-01" purity="8.4398800134658813e-01" nType="-99"/>
            <Node pos="r" depth="3" NCoef="0" IVar="-1" Cut="0.0000000000000000e+00" cType="1" res="9.8895952105522156e-02" rms="1.9318710267543793e-01" purity="9.5699250698089600e-01" nType="-99"/>
          </Node>
        </Node>
      </Node>
    </BinaryTree>
    <BinaryTree type="DecisionTree" boostWeight="1.0000000000000000e+00" itree="7">
      <Node pos="s" depth="0" NCoef="0" IVar="0" Cut="2.1237272949218750e+03" cType="1" res="-7.3770555900409818e-04" rms="2.9633313417434692e-01" purity="5.0564587116241455e-01" nType="0">
        <Node pos="l" depth="1" NCoef="0" IVar="1" Cut="1.2412644922733307e-01" cType="1" res="-8.6383782327175140e-02" rms="2.9646608233451843e-01" purity="1.5947215259075165e-01" nType="0">
          <Node pos="l" depth="2" NCoef="0" IVar="2" Cut="5.5349627685546875e+02" cType="1" res="-1.0468872636556625e-01" rms="2.7535578608512878e-01" purity="1.1565446853637695e-01" nType="0">
            <Node pos="l" depth="3" NCoef="0" IVar="-1" Cut="0.0000000000000000e+00" cType="1" res="-5.9934280812740326e-02" rms="2.8314608335494995e-01" purity="1.2690992653369904e-01" nType="-99"/>
            <Node pos="r" depth="3" NCoef="0" IVar="-1" Cut="0.0000000000000000e+00" cType="1" res="-9.7312986850738525e-02" rms="2.3869501054286957e-01" purity="7.5127668678760529e-02" nType="-99"/>
          </Node>
          <Node pos="r" depth="2" NCoef="0" IVar="0" Cut="1.7444716796875000e+03" cType="1" res="4.7374155372381210e-02" rms="3.9466461539268494e-01" purity="4.7965678572654724e-01" nType="0">
            <Node pos="l" depth="3" NCoef="0" IVar="-1" Cut="0.0000000000000000e+00" cType="1" res="-5.9554345905780792e-02" rms="3.1930038332939148e-01" purity="1.2469947338104248e-01" nType="-99"/>
            <Node pos="r" depth="3" NCoef="0" IVar="-1" Cut="0.0000000000000000e+00" cType="1" res="7.0867024362087250e-02" rms="4.0810531377792358e-01" purity="7.5680595636367798e-01" nType="-99"/>
          </Node>
        </Node>
        <Node pos="r" depth="1" NCoef="0" IVar="5" Cut="1.5156152343750000e+02" cType="1" res="9.5813222229480743e-02" rms="2.6482668519020081e-01" purity="8.9589607715606689e-01" nType="0">
          <Node pos="l" depth="2" NCoef="0" IVar="1" Cut="5.7051360607147217e-02" cType="1" res="4.3546250090003014e-03" rms="4.0633702278137207e-01" purity="6.7115819454193115e-01" nType="0">
            <Node pos="l" depth="3" NCoef="0" IVar="-1" Cut="0.0000000000000000e+00" cType="1" res="-3.4825667738914490e-02" rms="4.5469611883163452e-01" purity="4.7370132803916931e-01" nType="-99"/>
            <Node pos="r" depth="3" NCoef="0" IVar="-1" Cut="0.0000000000000000e+00" cType="1" res="5.0204422324895859e-02" rms="3.3400741219520569e-01" purity="8.6236071586608887e-01" nType="-99"/>
          </Node>
          <Node pos="r" depth="2" NCoef="0" IVar="0" Cut="2.5373552246093750e+03" cType="1" res="1.1317774653434753e-01" rms="2.2407822310924530e-01" purity="9.3856525421142578e-01" nType="0">
            <Node pos="l" depth="3" NCoef="0" IVar="-1" Cut="0.0000000000000000e+00" cType="1" res="5.1793109625577927e-02" rms="3.1374374032020569e-01" purity="8.6951357126235962e-01" nType="-99"/>
            <Node pos="r" depth="3" NCoef="0" IVar="-1" Cut="0.0000000000000000e+00" cType="1" res="9.7109124064445496e-02" rms="1.6623161733150482e-01" purity="9.6994608640670776e-01" nType="-99"/>
          </Node>
        </Node>
      </Node>
    </BinaryTree>
    <BinaryTree type="DecisionTree" boostWeight="1.0000000000000000e+00" itree="8">
      <Node pos="s" depth="0" NCoef="0" IVar="0" Cut="2.1988249511718750e+03" cType="1" res="-4.2229713872075081e-03" rms="2.8773400187492371e-01" purity="4.9537003040313721e-01" nType="0">
        <Node pos="l" depth="1" NCoef="0" IVar="1" Cut="1.5196700394153595e-01" cType="1" res="-6.9696612656116486e-02" rms="2.9654613137245178e-01" purity="1.7380039393901825e-01" nType="0">
          <Node pos="l" depth="2" NCoef="0" IVar="0" Cut="1.7803950195312500e+03" cType="1" res="-8.2695417106151581e-02" rms="2.8303179144859314e-01" purity="1.3922949135303497e-01" nType="0">
            <Node pos="l" depth="3" NCoef="0" IVar="-1" Cut="0.0000000000000000e+00" cType="1" res="-8.4945663809776306e-02" rms="1.9307146966457367e-01" purity="4.1654035449028015e-02" nType="-99"/>
            <Node pos="r" depth="3" NCoef="0" IVar="-1" Cut="0.0000000000000000e+00" cType="1" res="-1.7381817102432251e-02" rms="4.1642281413078308e-01" purity="3.5948950052261353e-01" nType="-99"/>
          </Node>
          <Node pos="r" depth="2" NCoef="0" IVar="-1" Cut="0.0000000000000000e+00" cType="1" res="3.7627708166837692e-02" rms="3.8970041275024414e-01" purity="5.5471009016036987e-01" nType="-99"/>
        </Node>
        <Node pos="r" depth="1" NCoef="0" IVar="1" Cut="2.1370977163314819e-02" cType="1" res="7.9636670649051666e-02" rms="2.5233551859855652e-01" purity="9.0724146366119385e-01" nType="0">
          <Node pos="l" depth="2" NCoef="0" IVar="-1" Cut="0.0000000000000000e+00" cType="1" res="-2.1938018500804901e-02" rms="4.3429356813430786e-01" purity="5.3245747089385986e-01" nType="-99"/>
          <Node pos="r" depth="2" NCoef="0" IVar="0" Cut="2.6552946777343750e+03" cType="1" res="8.9286044239997864e-02" rms="2.3011526465415955e-01" purity="9.3540310859680176e-01" nType="0">
            <Node pos="l" depth="3" NCoef="0" IVar="-1" Cut="0.0000000000000000e+00" cType="1" res="4.5414961874485016e-02" rms="2.9853045940399170e-01" purity="8.8470745086669922e-01" nType="-99"/>
            <Node pos="r" depth="3" NCoef="0" IVar="-1" Cut="0.0000000000000000e+00" cType="1" res="9.2816554009914398e-02" rms="1.6191077232360840e-01" purity="9.7176384925842285e-01" nType="-99"/>
          </Node>
        </Node>
      </Node>
    </BinaryTree>
    <BinaryTree type="DecisionTree" boostWeight="1.0000000000000000e+00" itree="9">
      <Node pos="s" depth="0" NCoef="0" IVar="5" Cut="1.5212127685546875e+02" cType="1" res="-2.4355798959732056e-03" rms="2.8197830915451050e-01" purity="4.9828013777732849e-01" nType="0">
        <Node pos="l" depth="1" NCoef="0" IVar="5" Cut="1.1867495727539062e+02" cType="1" res="-7.4048623442649841e-02" rms="2.7354127168655396e-01" purity="1.7391425371170044e-01" nType="0">
          <Node pos="l" depth="2" NCoef="0" IVar="5" Cut="9.3185836791992188e+01" cType="1" res="-9.6918709576129913e-02" rms="2.2838704288005829e-01" purity="9.4640992581844330e-02" nType="0">
            <Node pos="l" depth="3" NCoef="0" IVar="-1" Cut="0.0000000000000000e+00" cType="1" res="-9.3896448612213135e-02" rms="1.9413155317306519e-01" purity="5.4742448031902313e-02" nType="-99"/>
            <Node pos="r" depth="3" NCoef="0" IVar="-1" Cut="0.0000000000000000e+00" cType="1" res="-6.4055249094963074e-02" rms="2.5114694237709045e-01" purity="1.2573103606700897e-01" nType="-99"/>
          </Node>
          <Node pos="r" depth="2" NCoef="0" IVar="1" Cut="3.7227068096399307e-02" cType="1" res="-4.0266606956720352e-02" rms="3.2617309689521790e-01" purity="2.9101088643074036e-01" nType="0">
            <Node pos="l" depth="3" NCoef="0" IVar="-1" Cut="0.0000000000000000e+00" cType="1" res="-6.8017661571502686e-02" rms="2.4477070569992065e-01" purity="1.1601740121841431e-01" nType="-99"/>
            <Node pos="r" depth="3" NCoef="0" IVar="-1" Cut="0.0000000000000000e+00" cType="1" res="-7.4304537847638130e-03" rms="3.6248126626014709e-01" purity="3.9344301819801331e-01" nType="-99"/>
          </Node>
        </Node>
        <Node pos="r" depth="1" NCoef="0" IVar="0" Cut="1.6662838134765625e+03" cType="1" res="5.8377634733915329e-02" rms="2.7466091513633728e-01" purity="7.7372902631759644e-01" nType="0">
          <Node pos="l" depth="2" NCoef="0" IVar="-1" Cut="0.0000000000000000e+00" cType="1" res="-5.9157375246286392e-02" rms="2.4735625088214874e-01" purity="6.8665184080600739e-02" nType="-99"/>
          <Node pos="r" depth="2" NCoef="0" IVar="7" Cut="-1.1990022659301758e+00" cType="1" res="7.0986680686473846e-02" rms="2.7397418022155762e-01" purity="8.4300202131271362e-01" nType="0">
            <Node pos="l" depth="3" NCoef="0" IVar="-1" Cut="0.0000000000000000e+00" cType="1" res="-3.2082628458738327e-02" rms="3.6568981409072876e-01" purity="5.6859308481216431e-01" nType="-99"/>
            <Node pos="r" depth="3" NCoef="0" IVar="-1" Cut="0.0000000000000000e+00" cType="1" res="6.0364797711372375e-02" rms="2.6586559414863586e-01" purity="8.5928565263748169e-01" nType="-99"/>
          </Node>
        </Node>
      </Node>
    </BinaryTree>
    <BinaryTree type="DecisionTree" boostWeight="1.0000000000000000e+00" itree="10">
      <Node pos="s" depth="0" NCoef="0" IVar="0" Cut="1.8887803955078125e+03" cType="1" res="-2.4245572276413441e-03" rms="2.7740636467933655e-01" purity="4.9455621838569641e-01" nType="0">
        <Node pos="l" depth="1" NCoef="0" IVar="0" Cut="1.5629322509765625e+03" cType="1" res="-6.5068982541561127e-02" rms="2.3623931407928467e-01" purity="7.4229635298252106e-02" nType="0">
          <Node pos="l" depth="2" NCoef="0" IVar="7" Cut="9.3297934532165527e-01" cType="1" res="-8.9500710368156433e-02" rms="1.4236034452915192e-01" purity="2.1041713654994965e-02" nType="0">
            <Node pos="l" depth="3" NCoef="0" IVar="-1" Cut="0.0000000000000000e+00" cType="1" res="-9.4747081398963928e-02" rms="1.3439171016216278e-01" purity="1.8639346584677696e-02" nType="-99"/>
            <Node pos="r" depth="3" NCoef="0" IVar="-1" Cut="0.0000000000000000e+00" cType="1" res="-8.0846168100833893e-02" rms="1.6454668343067169e-01" purity="2.8782403096556664e-02" nType="-99"/>
          </Node>
          <Node pos="r" depth="2" NCoef="0" IVar="1" Cut="8.7961494922637939e-02" cType="1" res="-4.3194133788347244e-02" rms="2.9431095719337463e-01" purity="1.2185122072696686e-01" nType="0">
            <Node pos="l" depth="3" NCoef="0" IVar="-1" Cut="0.0000000000000000e+00" cType="1" res="-5.7886019349098206e-02" rms="2.3570242524147034e-01" purity="6.4561299979686737e-02" nType="-99"/>
            <Node pos="r" depth="3" NCoef="0" IVar="-1" Cut="0.0000000000000000e+00" cType="1" res="1.5664482489228249e-02" rms="4.4661548733711243e-01" purity="3.4240353107452393e-01" nType="-99"/>
          </Node>
        </Node>
        <Node pos="r" depth="1" NCoef="0" IVar="5" Cut="1.3882307434082031e+02" cType="1" res="4.5663502067327499e-02" rms="2.9641395807266235e-01" purity="8.1721371412277222e-01" nType="0">
          <Node pos="l" depth="2" NCoef="0" IVar="2" Cut="6.0164099121093750e+02" cType="1" res="-3.7667568773031235e-02" rms="4.0722560882568359e-01" purity="4.5152372121810913e-01" nType="0">
            <Node pos="l" depth="3" NCoef="0" IVar="-1" Cut="0.0000000000000000e+00" cType="1" res="3.5854186862707138e-02" rms="4.2364510893821716e-01" purity="5.7778835296630859e-01" nType="-99"/>
            <Node pos="r" depth="3" NCoef="0" IVar="-1" Cut="0.0000000000000000e+00" cType="1" res="-5.1691807806491852e-02" rms="3.8461542129516602e-01" purity="3.8244250416755676e-01" nType="-99"/>
          </Node>
          <Node pos="r" depth="2" NCoef="0" IVar="1" Cut="8.2758411765098572e-02" cType="1" res="6.2785595655441284e-02" rms="2.6480257511138916e-01" purity="8.9235222339630127e-01" nType="0">
            <Node pos="l" depth="3" NCoef="0" IVar="-1" Cut="0.0000000000000000e+00" cType="1" res="2.0318906754255295e-02" rms="3.4903675317764282e-01" purity="7.8741449117660522e-01" nType="-99"/>
            <Node pos="r" depth="3" NCoef="0" IVar="-1" Cut="0.0000000000000000e+00" cType="1" res="7.8549884259700775e-02" rms="1.9385975599288940e-01" purity="9.5632690191268921e-01" nType="-99"/>
          </Node>
        </Node>
      </Node>
    </BinaryTree>
    <BinaryTree type="DecisionTree" boostWeight="1.0000000000000000e+00" itree="11">
      <Node pos="s" depth="0" NCoef="0" IVar="0" Cut="2.4650954589843750e+03" cType="1" res="-2.4614236317574978e-03" rms="2.8031966090202332e-01" purity="4.9888244271278381e-01" nType="0">
        <Node pos="l" depth="1" NCoef="0" IVar="2" Cut="6.2272045898437500e+02" cType="1" res="-3.4837540239095688e-02" rms="3.0632698535919189e-01" purity="2.7972242236137390e-01" nType="0">
          <Node pos="l" depth="2" NCoef="0" IVar="0" Cut="1.7043009033203125e+03" cType="1" res="-2.1102610975503922e-02" rms="3.0089706182479858e-01" purity="2.8432136774063110e-01" nType="0">
            <Node pos="l" depth="3" NCoef="0" IVar="-1" Cut="0.0000000000000000e+00" cType="1" res="-6.5381154417991638e-02" rms="1.9501717388629913e-01" purity="4.2326267808675766e-02" nType="-99"/>
            <Node pos="r" depth="3" NCoef="0" IVar="-1" Cut="0.0000000000000000e+00" cType="1" res="1.2733920477330685e-02" rms="3.8232806324958801e-01" purity="5.5615246295928955e-01" nType="-99"/>
          </Node>
          <Node pos="r" depth="2" NCoef="0" IVar="3" Cut="3.0627294921875000e+02" cType="1" res="-1.2543074786663055e-01" rms="3.2577967643737793e-01" purity="2.4938862025737762e-01" nType="0">
            <Node pos="l" depth="3" NCoef="0" IVar="-1" Cut="0.0000000000000000e+00" cType="1" res="-5.8970935642719269e-02" rms="2.9270690679550171e-01" purity="2.0695585012435913e-01" nType="-99"/>
            <Node pos="r" depth="3" NCoef="0" IVar="-1" Cut="0.0000000000000000e+00" cType="1" res="-1.0289447009563446e-01" rms="3.5017278790473938e-01" purity="2.9265218973159790e-01" nType="-99"/>
          </Node>
        </Node>
        <Node pos="r" depth="1" NCoef="0" IVar="2" Cut="9.6337634277343750e+02" cType="1" res="6.3554354012012482e-02" rms="2.0242048799991608e-01" purity="9.4575572013854980e-01" nType="0">
          <Node pos="l" depth="2" NCoef="0" IVar="7" Cut="-6.4696651697158813e-01" cType="1" res="7.0038855075836182e-02" rms="1.8458938598632812e-01" purity="9.5959514379501343e-01" nType="0">
            <Node pos="l" depth="3" NCoef="0" IVar="-1" Cut="0.0000000000000000e+00" cType="1" res="4.5379154384136200e-02" rms="2.4124935269355774e-01" purity="9.2687422037124634e-01" nType="-99"/>
            <Node pos="r" depth="3" NCoef="0" IVar="-1" Cut="0.0000000000000000e+00" cType="1" res="8.1556908786296844e-02" rms="1.7044883966445923e-01" purity="9.6618032455444336e-01" nType="-99"/>
          </Node>
          <Node pos="r" depth="2" NCoef="0" IVar="-1" Cut="0.0000000000000000e+00" cType="1" res="-1.0802092961966991e-02" rms="3.4296125173568726e-01" purity="7.7873980998992920e-01" nType="-99"/>
        </Node>
      </Node>
    </BinaryTree>
    <BinaryTree type="DecisionTree" boostWeight="1.0000000000000000e+00" itree="12">
      <Node pos="s" depth="0" NCoef="0" IVar="1" Cut="3.9505574852228165e-02" cType="1" res="3.1544778030365705e-03" rms="2.7769246697425842e-01" purity="5.0450330972671509e-01" nType="0">
        <Node pos="l" depth="1" NCoef="0" IVar="0" Cut="2.5444123535156250e+03" cType="1" res="-4.9368914216756821e-02" rms="2.5258722901344299e-01" purity="1.7732997238636017e-01" nType="0">
          <Node pos="l" depth="2" NCoef="0" IVar="2" Cut="6.2286932373046875e+02" cType="1" res="-6.2414206564426422e-02" rms="2.3305356502532959e-01" purity="9.1140523552894592e-02" nType="0">
            <Node pos="l" depth="3" NCoef="0" IVar="-1" Cut="0.0000000000000000e+00" cType="1" res="-5.4099995642900467e-02" rms="2.1635177731513977e-01" purity="8.3103537559509277e-02" nType="-99"/>
            <Node pos="r" depth="3" NCoef="0" IVar="-1" Cut="0.0000000000000000e+00" cType="1" res="-7.7895559370517731e-02" rms="2.8718653321266174e-01" purity="1.2446717172861099e-01" nType="-99"/>
          </Node>
          <Node pos="r" depth="2" NCoef="0" IVar="-1" Cut="0.0000000000000000e+00" cType="1" res="2.9185125604271889e-02" rms="3.5076636075973511e-01" purity="8.1027239561080933e-01" nType="-99"/>
        </Node>
        <Node pos="r" depth="1" NCoef="0" IVar="0" Cut="1.6473298339843750e+03" cType="1" res="3.0433027073740959e-02" rms="2.8609502315521240e-01" purity="6.7442405223846436e-01" nType="0">
          <Node pos="l" depth="2" NCoef="0" IVar="5" Cut="1.4416691589355469e+02" cType="1" res="-3.4269809722900391e-02" rms="2.5484544038772583e-01" purity="7.2838291525840759e-02" nType="0">
            <Node pos="l" depth="3" NCoef="0" IVar="-1" Cut="0.0000000000000000e+00" cType="1" res="-5.7948786765336990e-02" rms="2.1609605848789215e-01" purity="5.0719264894723892e-02" nType="-99"/>
            <Node pos="r" depth="3" NCoef="0" IVar="-1" Cut="0.0000000000000000e+00" cType="1" res="1.4185019768774509e-02" rms="3.2619628310203552e-01" purity="1.2708330154418945e-01" nType="-99"/>
          </Node>
          <Node pos="r" depth="2" NCoef="0" IVar="2" Cut="4.2744372558593750e+02" cType="1" res="4.4878039509057999e-02" rms="2.9065605998039246e-01" purity="8.0872905254364014e-01" nType="0">
            <Node pos="l" depth="3" NCoef="0" IVar="-1" Cut="0.0000000000000000e+00" cType="1" res="5.4783690720796585e-02" rms="3.5058349370956421e-01" purity="7.0491027832031250e-01" nType="-99"/>
            <Node pos="r" depth="3" NCoef="0" IVar="-1" Cut="0.0000000000000000e+00" cType="1" res="3.1576547771692276e-02" rms="2.7116784453392029e-01" purity="8.3683836460113525e-01" nType="-99"/>
          </Node>
        </Node>
      </Node>
    </BinaryTree>
    <BinaryTree type="DecisionTree" boostWeight="1.0000000000000000e+00" itree="13">
      <Node pos="s" depth="0" NCoef="0" IVar="0" Cut="2.3891545410156250e+03" cType="1" res="-8.1968418089672923e-04" rms="2.7695870399475098e-01" purity="4.9893990159034729e-01" nType="0">
        <Node pos="l" depth="1" NCoef="0" IVar="2" Cut="5.7005084228515625e+02" cType="1" res="-2.7124894782900810e-02" rms="3.0391359329223633e-01" purity="2.5290298461914062e-01" nType="0">
          <Node pos="l" depth="2" NCoef="0" IVar="0" Cut="1.7768193359375000e+03" cType="1" res="-1.3370361179113388e-02" rms="2.9991200566291809e-01" purity="2.6251271367073059e-01" nType="0">
            <Node pos="l" depth="3" NCoef="0" IVar="-1" Cut="0.0000000000000000e+00" cType="1" res="-4.5210357755422592e-02" rms="2.2616620361804962e-01" purity="6.1206642538309097e-02" nType="-99"/>
            <Node pos="r" depth="3" NCoef="0" IVar="-1" Cut="0.0000000000000000e+00" cType="1" res="1.8931461498141289e-02" rms="3.9739936590194702e-01" purity="6.3203579187393188e-01" nType="-99"/>
          </Node>
          <Node pos="r" depth="2" NCoef="0" IVar="8" Cut="1.3312566280364990e-01" cType="1" res="-8.7503746151924133e-02" rms="3.1383782625198364e-01" purity="2.1071884036064148e-01" nType="0">
            <Node pos="l" depth="3" NCoef="0" IVar="-1" Cut="0.0000000000000000e+00" cType="1" res="-9.0291492640972137e-02" rms="2.8897836804389954e-01" purity="1.7423391342163086e-01" nType="-99"/>
            <Node pos="r" depth="3" NCoef="0" IVar="-1" Cut="0.0000000000000000e+00" cType="1" res="-3.7644598633050919e-02" rms="3.3928537368774414e-01" purity="2.5716069340705872e-01" nType="-99"/>
          </Node>
        </Node>
        <Node pos="r" depth="1" NCoef="0" IVar="2" Cut="7.8470825195312500e+02" cType="1" res="4.6006444841623306e-02" rms="2.1309590339660645e-01" purity="9.3691229820251465e-01" nType="0">
          <Node pos="l" depth="2" NCoef="0" IVar="0" Cut="2.7306657714843750e+03" cType="1" res="5.5102787911891937e-02" rms="1.7962265014648438e-01" purity="9.6120709180831909e-01" nType="0">
            <Node pos="l" depth="3" NCoef="0" IVar="-1" Cut="0.0000000000000000e+00" cType="1" res="5.0286002457141876e-02" rms="2.2921106219291687e-01" purity="9.3273180723190308e-01" nType="-99"/>
            <Node pos="r" depth="3" NCoef="0" IVar="-1" Cut="0.0000000000000000e+00" cType="1" res="8.6542345583438873e-02" rms="1.3070994615554810e-01" purity="9.8240149021148682e-01" nType="-99"/>
          </Node>
          <Node pos="r" depth="2" NCoef="0" IVar="0" Cut="2.9907910156250000e+03" cType="1" res="1.5500141307711601e-02" rms="2.9713273048400879e-01" purity="8.5543513298034668e-01" nType="0">
            <Node pos="l" depth="3" NCoef="0" IVar="-1" Cut="0.0000000000000000e+00" cType="1" res="-4.4532589614391327e-02" rms="3.7727776169776917e-01" purity="7.0960658788681030e-01" nType="-99"/>
            <Node pos="r" depth="3" NCoef="0" IVar="-1" Cut="0.0000000000000000e+00" cType="1" res="5.8098524808883667e-02" rms="2.3390477895736694e-01" purity="9.3291747570037842e-01" nType="-99"/>
          </Node>
        </Node>
      </Node>
    </BinaryTree>
    <BinaryTree type="DecisionTree" boostWeight="1.0000000000000000e+00" itree="14">
      <Node pos="s" depth="0" NCoef="0" IVar="0" Cut="2.1314873046875000e+03" cType="1" res="1.8500488949939609e-03" rms="2.7042016386985779e-01" purity="5.0188571214675903e-01" nType="0">
        <Node pos="l" depth="1" NCoef="0" IVar="2" Cut="4.7843539428710938e+02" cType="1" res="-2.7717417106032372e-02" rms="2.8683358430862427e-01" purity="1.5834364295005798e-01" nType="0">
          <Node pos="l" depth="2" NCoef="0" IVar="0" Cut="1.8876469726562500e+03" cType="1" res="-1.1503528803586960e-02" rms="2.9104310274124146e-01" purity="1.7709261178970337e-01" nType="0">
            <Node pos="l" depth="3" NCoef="0" IVar="-1" Cut="0.0000000000000000e+00" cType="1" res="-3.0638197436928749e-02" rms="2.5848868489265442e-01" purity="8.9895345270633698e-02" nType="-99"/>
            <Node pos="r" depth="3" NCoef="0" IVar="-1" Cut="0.0000000000000000e+00" cType="1" res="4.2311057448387146e-02" rms="4.2537179589271545e-01" purity="7.0100015401840210e-01" nType="-99"/>
          </Node>
          <Node pos="r" depth="2" NCoef="0" IVar="1" Cut="7.9114399850368500e-02" cType="1" res="-5.8747455477714539e-02" rms="2.7595666050910950e-01" purity="1.2246198207139969e-01" nType="0">
            <Node pos="l" depth="3" NCoef="0" IVar="-1" Cut="0.0000000000000000e+00" cType="1" res="-5.1416773349046707e-02" rms="2.3505154252052307e-01" purity="7.6990619301795959e-02" nType="-99"/>
            <Node pos="r" depth="3" NCoef="0" IVar="-1" Cut="0.0000000000000000e+00" cType="1" res="-5.5963557213544846e-02" rms="4.2568567395210266e-01" purity="3.5775637626647949e-01" nType="-99"/>
          </Node>
        </Node>
        <Node pos="r" depth="1" NCoef="0" IVar="6" Cut="-9.9770367145538330e-01" cType="1" res="3.6206781864166260e-02" rms="2.4556645750999451e-01" purity="9.0107381343841553e-01" nType="0">
          <Node pos="l" depth="2" NCoef="0" IVar="-1" Cut="0.0000000000000000e+00" cType="1" res="-4.4155769050121307e-02" rms="3.4058040380477905e-01" purity="7.3300397396087646e-01" nType="-99"/>
          <Node pos="r" depth="2" NCoef="0" IVar="6" Cut="9.2034626007080078e-01" cType="1" res="4.1745342314243317e-02" rms="2.3732720315456390e-01" purity="9.1149532794952393e-01" nType="0">
            <Node pos="l" depth="3" NCoef="0" IVar="-1" Cut="0.0000000000000000e+00" cType="1" res="5.1382258534431458e-02" rms="2.2672918438911438e-01" purity="9.2367172241210938e-01" nType="-99"/>
            <Node pos="r" depth="3" NCoef="0" IVar="-1" Cut="0.0000000000000000e+00" cType="1" res="-2.0455868914723396e-02" rms="3.3346316218376160e-01" purity="7.6376199722290039e-01" nType="-99"/>
          </Node>
        </Node>
      </Node>
    </BinaryTree>
    <BinaryTree type="DecisionTree" boostWeight="1.0000000000000000e+00" itree="15">
      <Node pos="s" depth="0" NCoef="0" IVar="5" Cut="1.1830272674560547e+02" cType="1" res="-1.4862563693895936e-04" rms="2.7041959762573242e-01" purity="4.9721223115921021e-01" nType="0">
        <Node pos="l" depth="1" NCoef="0" IVar="5" Cut="8.9615982055664062e+01" cType="1" res="-4.2679611593484879e-02" rms="2.2636510431766510e-01" purity="9.9236555397510529e-02" nType="0">
          <Node pos="l" depth="2" NCoef="0" IVar="0" Cut="1.6228605957031250e+03" cType="1" res="-6.4519703388214111e-02" rms="1.7277011275291443e-01" purity="4.5665979385375977e-02" nType="0">
            <Node pos="l" depth="3" NCoef="0" IVar="-1" Cut="0.0000000000000000e+00" cType="1" res="-9.4775423407554626e-02" rms="7.9367682337760925e-02" purity="6.3354717567563057e-03" nType="-99"/>
            <Node pos="r" depth="3" NCoef="0" IVar="-1" Cut="0.0000000000000000e+00" cType="1" res="-7.5748309493064880e-02" rms="2.4876567721366882e-01" purity="1.0013008117675781e-01" nType="-99"/>
          </Node>
          <Node pos="r" depth="2" NCoef="0" IVar="6" Cut="-7.8705376386642456e-01" cType="1" res="-2.9032114893198013e-02" rms="2.5322738289833069e-01" purity="1.3271187245845795e-01" nType="0">
            <Node pos="l" depth="3" NCoef="0" IVar="-1" Cut="0.0000000000000000e+00" cType="1" res="-7.5261041522026062e-02" rms="1.8566150963306427e-01" purity="4.8969484865665436e-02" nType="-99"/>
            <Node pos="r" depth="3" NCoef="0" IVar="-1" Cut="0.0000000000000000e+00" cType="1" res="-1.9430259242653847e-02" rms="2.7025526762008667e-01" purity="1.5906262397766113e-01" nType="-99"/>
          </Node>
        </Node>
        <Node pos="r" depth="1" NCoef="0" IVar="6" Cut="9.4881755113601685e-01" cType="1" res="1.5275787562131882e-02" rms="2.8314292430877686e-01" purity="6.4154326915740967e-01" nType="0">
          <Node pos="l" depth="2" NCoef="0" IVar="7" Cut="1.4699460268020630e+00" cType="1" res="2.5352114811539650e-02" rms="2.7823635935783386e-01" purity="6.8482887744903564e-01" nType="0">
            <Node pos="l" depth="3" NCoef="0" IVar="-1" Cut="0.0000000000000000e+00" cType="1" res="3.1354013830423355e-02" rms="2.7755883336067200e-01" purity="7.0972037315368652e-01" nType="-99"/>
            <Node pos="r" depth="3" NCoef="0" IVar="-1" Cut="0.0000000000000000e+00" cType="1" res="-7.7347762882709503e-02" rms="2.6908680796623230e-01" purity="2.2527515888214111e-01" nType="-99"/>
          </Node>
          <Node pos="r" depth="2" NCoef="0" IVar="7" Cut="-1.2510855495929718e-01" cType="1" res="-5.6833326816558838e-02" rms="3.0652123689651489e-01" purity="3.3177864551544189e-01" nType="0">
            <Node pos="l" depth="3" NCoef="0" IVar="-1" Cut="0.0000000000000000e+00" cType="1" res="-9.9904678761959076e-02" rms="3.0312386155128479e-01" purity="2.5914803147315979e-01" nType="-99"/>
            <Node pos="r" depth="3" NCoef="0" IVar="-1" Cut="0.0000000000000000e+00" cType="1" res="-1.1015732772648335e-02" rms="3.0235642194747925e-01" purity="3.9421609044075012e-01" nType="-99"/>
          </Node>
        </Node>
      </Node>
    </BinaryTree>
    <BinaryTree type="DecisionTree" boostWeight="1.0000000000000000e+00" itree="16">
      <Node pos="s" depth="0" NCoef="0" IVar="1" Cut="6.2157161533832550e-02" cType="1" res="-1.4417550992220640e-03" rms="2.7101594209671021e-01" purity="4.9616596102714539e-01" nType="0">
        <Node pos="l" depth="1" NCoef="0" IVar="1" Cut="2.3785725235939026e-02" cType="1" res="-2.4995150044560432e-02" rms="2.6661229133605957e-01" purity="2.4431076645851135e-01" nType="0">
          <Node pos="l" depth="2" NCoef="0" IVar="2" Cut="6.4868267822265625e+02" cType="1" res="-4.6725608408451080e-02" rms="2.2546949982643127e-01" purity="1.1192061752080917e-01" nType="0">
            <Node pos="l" depth="3" NCoef="0" IVar="-1" Cut="0.0000000000000000e+00" cType="1" res="-4.8438247293233871e-02" rms="1.9464518129825592e-01" purity="7.5761124491691589e-02" nType="-99"/>
            <Node pos="r" depth="3" NCoef="0" IVar="-1" Cut="0.0000000000000000e+00" cType="1" res="-6.4813464879989624e-02" rms="3.0654680728912354e-01" purity="2.3766079545021057e-01" nType="-99"/>
          </Node>
          <Node pos="r" depth="2" NCoef="0" IVar="0" Cut="1.6472932128906250e+03" cType="1" res="-7.7010164968669415e-03" rms="2.9414224624633789e-01" purity="3.4967315196990967e-01" nType="0">
            <Node pos="l" depth="3" NCoef="0" IVar="-1" Cut="0.0000000000000000e+00" cType="1" res="-6.3526056706905365e-02" rms="1.5278293192386627e-01" purity="2.4102481082081795e-02" nType="-99"/>
            <Node pos="r" depth="3" NCoef="0" IVar="-1" Cut="0.0000000000000000e+00" cType="1" res="6.2024733051657677e-03" rms="3.4890022873878479e-01" purity="5.3466325998306274e-01" nType="-99"/>
          </Node>
        </Node>
        <Node pos="r" depth="1" NCoef="0" IVar="5" Cut="1.3590335083007812e+02" cType="1" res="1.9975816830992699e-02" rms="2.7320197224617004e-01" purity="7.2518283128738403e-01" nType="0">
          <Node pos="l" depth="2" NCoef="0" IVar="2" Cut="5.0523477172851562e+02" cType="1" res="-1.5771711245179176e-02" rms="3.3390408754348755e-01" purity="2.9825004935264587e-01" nType="0">
            <Node pos="l" depth="3" NCoef="0" IVar="-1" Cut="0.0000000000000000e+00" cType="1" res="1.6188428271561861e-03" rms="3.1299817562103271e-01" purity="2.1626284718513489e-01" nType="-99"/>
            <Node pos="r" depth="3" NCoef="0" IVar="-1" Cut="0.0000000000000000e+00" cType="1" res="-3.2956745475530624e-02" rms="3.7087216973304749e-01" purity="4.6827179193496704e-01" nType="-99"/>
          </Node>
          <Node pos="r" depth="2" NCoef="0" IVar="1" Cut="1.1528614163398743e-01" cType="1" res="2.9522951692342758e-02" rms="2.5370177626609802e-01" purity="8.3920431137084961e-01" nType="0">
            <Node pos="l" depth="3" NCoef="0" IVar="-1" Cut="0.0000000000000000e+00" cType="1" res="1.2643033638596535e-02" rms="3.0212458968162537e-01" purity="7.5389957427978516e-01" nType="-99"/>
            <Node pos="r" depth="3" NCoef="0" IVar="-1" Cut="0.0000000000000000e+00" cType="1" res="5.4270520806312561e-02" rms="2.0908156037330627e-01" purity="9.0340882539749146e-01" nType="-99"/>
          </Node>
        </Node>
      </Node>
    </BinaryTree>
    <BinaryTree type="DecisionTree" boostWeight="1.0000000000000000e+00" itree="17">
      <Node pos="s" depth="0" NCoef="0" IVar="0" Cut="2.4651013183593750e+03" cType="1" res="5.3507446864387020e-05" rms="2.6995190978050232e-01" purity="5.0004327297210693e-01" nType="0">
        <Node pos="l" depth="1" NCoef="0" IVar="2" Cut="7.2834277343750000e+02" cType="1" res="-1.4060032553970814e-02" rms="2.9610413312911987e-01" purity="2.8130602836608887e-01" nType="0">
          <Node pos="l" depth="2" NCoef="0" IVar="0" Cut="2.0086313476562500e+03" cType="1" res="-9.4893658533692360e-03" rms="2.9332205653190613e-01" purity="2.8581789135932922e-01" nType="0">
            <Node pos="l" depth="3" NCoef="0" IVar="-1" Cut="0.0000000000000000e+00" cType="1" res="-2.4423336610198021e-02" rms="2.6664337515830994e-01" purity="1.1834381520748138e-01" nType="-99"/>
            <Node pos="r" depth="3" NCoef="0" IVar="-1" Cut="0.0000000000000000e+00" cType="1" res="1.8105728551745415e-02" rms="3.5615810751914978e-01" purity="7.6238775253295898e-01" nType="-99"/>
          </Node>
          <Node pos="r" depth="2" NCoef="0" IVar="-1" Cut="0.0000000000000000e+00" cType="1" res="-8.1599853932857513e-02" rms="3.3435362577438354e-01" purity="1.9053550064563751e-01" nType="-99"/>
        </Node>
        <Node pos="r" depth="1" NCoef="0" IVar="7" Cut="-9.1354793310165405e-01" cType="1" res="2.8695559129118919e-02" rms="2.0397771894931793e-01" purity="9.4394928216934204e-01" nType="0">
          <Node pos="l" depth="2" NCoef="0" IVar="-1" Cut="0.0000000000000000e+00" cType="1" res="-1.2927158735692501e-02" rms="2.9349952936172485e-01" purity="8.7409168481826782e-01" nType="-99"/>
          <Node pos="r" depth="2" NCoef="0" IVar="6" Cut="-7.7466839551925659e-01" cType="1" res="3.2629143446683884e-02" rms="1.9241829216480255e-01" purity="9.5086729526519775e-01" nType="0">
            <Node pos="l" depth="3" NCoef="0" IVar="-1" Cut="0.0000000000000000e+00" cType="1" res="-1.6688063740730286e-02" rms="2.9135927557945251e-01" purity="8.7294054031372070e-01" nType="-99"/>
            <Node pos="r" depth="3" NCoef="0" IVar="-1" Cut="0.0000000000000000e+00" cType="1" res="5.7117037475109100e-02" rms="1.7905607819557190e-01" purity="9.5856511592864990e-01" nType="-99"/>
          </Node>
        </Node>
      </Node>
    </BinaryTree>
    <BinaryTree type="DecisionTree" boostWeight="1.0000000000000000e+00" itree="18">
      <Node pos="s" depth="0" NCoef="0" IVar="1" Cut="1.2682051956653595e-01" cType="1" res="1.9385077757760882e-04" rms="2.6406410336494446e-01" purity="4.9906340241432190e-01" nType="0">
        <Node pos="l" depth="1" NCoef="0" IVar="0" Cut="2.3369992675781250e+03" cType="1" res="-1.1394916102290154e-02" rms="2.7283722162246704e-01" purity="3.9078244566917419e-01" nType="0">
          <Node pos="l" depth="2" NCoef="0" IVar="2" Cut="5.4355957031250000e+02" cType="1" res="-2.4455416947603226e-02" rms="2.7904385328292847e-01" purity="1.6416117548942566e-01" nType="0">
            <Node pos="l" depth="3" NCoef="0" IVar="-1" Cut="0.0000000000000000e+00" cType="1" res="-1.1588304303586483e-02" rms="2.7631604671478271e-01" purity="1.7093220353126526e-01" nType="-99"/>
            <Node pos="r" depth="3" NCoef="0" IVar="-1" Cut="0.0000000000000000e+00" cType="1" res="-6.0712356120347977e-02" rms="2.8296625614166260e-01" purity="1.4488381147384644e-01" nType="-99"/>
          </Node>
          <Node pos="r" depth="2" NCoef="0" IVar="2" Cut="6.9478393554687500e+02" cType="1" res="1.7863690853118896e-02" rms="2.5598514080047607e-01" purity="8.9846754074096680e-01" nType="0">
            <Node pos="l" depth="3" NCoef="0" IVar="-1" Cut="0.0000000000000000e+00" cType="1" res="4.9980036914348602e-02" rms="2.1384546160697937e-01" purity="9.4502747058868408e-01" nType="-99"/>
            <Node pos="r" depth="3" NCoef="0" IVar="-1" Cut="0.0000000000000000e+00" cType="1" res="-7.3024858720600605e-03" rms="2.9774990677833557e-01" purity="8.4139198064804077e-01" nType="-99"/>
          </Node>
        </Node>
        <Node pos="r" depth="1" NCoef="0" IVar="2" Cut="3.7791494750976562e+02" cType="1" res="3.8480728864669800e-02" rms="2.2860102355480194e-01" purity="8.5680115222930908e-01" nType="0">
          <Node pos="l" depth="2" NCoef="0" IVar="-1" Cut="0.0000000000000000e+00" cType="1" res="5.6859809905290604e-02" rms="3.1989249587059021e-01" purity="6.0746556520462036e-01" nType="-99"/>
          <Node pos="r" depth="2" NCoef="0" IVar="0" Cut="2.1269072265625000e+03" cType="1" res="3.1007437035441399e-02" rms="2.0068804919719696e-01" purity="9.1499912738800049e-01" nType="0">
            <Node pos="l" depth="3" NCoef="0" IVar="-1" Cut="0.0000000000000000e+00" cType="1" res="-6.6272914409637451e-03" rms="3.9984434843063354e-01" purity="5.3954404592514038e-01" nType="-99"/>
            <Node pos="r" depth="3" NCoef="0" IVar="-1" Cut="0.0000000000000000e+00" cType="1" res="7.1875847876071930e-02" rms="1.3879805803298950e-01" purity="9.7981601953506470e-01" nType="-99"/>
          </Node>
        </Node>
      </Node>
    </BinaryTree>
    <BinaryTree type="DecisionTree" boostWeight="1.0000000000000000e+00" itree="19">
      <Node pos="s" depth="0" NCoef="0" IVar="1" Cut="2.0252428948879242e-02" cType="1" res="-2.2781167645007372e-03" rms="2.6313456892967224e-01" purity="4.9862283468246460e-01" nType="0">
        <Node pos="l" depth="1" NCoef="0" IVar="7" Cut="-1.7331336736679077e+00" cType="1" res="-4.2632497847080231e-02" rms="2.0107109844684601e-01" purity="9.1133035719394684e-02" nType="0">
          <Node pos="l" depth="2" NCoef="0" IVar="-1" Cut="0.0000000000000000e+00" cType="1" res="-1.1362022906541824e-01" rms="1.2625382840633392e-01" purity="1.8411070108413696e-02" nType="-99"/>
          <Node pos="r" depth="2" NCoef="0" IVar="1" Cut="7.8081227838993073e-03" cType="1" res="-3.6349724978208542e-02" rms="2.1039776504039764e-01" purity="1.0334418714046478e-01" nType="0">
            <Node pos="l" depth="3" NCoef="0" IVar="-1" Cut="0.0000000000000000e+00" cType="1" res="-8.9703910052776337e-02" rms="1.5031042695045471e-01" purity="4.0769193321466446e-02" nType="-99"/>
            <Node pos="r" depth="3" NCoef="0" IVar="-1" Cut="0.0000000000000000e+00" cType="1" res="-3.0328981578350067e-02" rms="2.3458038270473480e-01" purity="1.3548135757446289e-01" nType="-99"/>
          </Node>
        </Node>
        <Node pos="r" depth="1" NCoef="0" IVar="0" Cut="2.4650954589843750e+03" cType="1" res="6.7023453302681446e-03" rms="2.7424108982086182e-01" purity="5.8930557966232300e-01" nType="0">
          <Node pos="l" depth="2" NCoef="0" IVar="2" Cut="4.1161230468750000e+02" cType="1" res="-4.7740582376718521e-03" rms="3.1967249512672424e-01" purity="3.5535052418708801e-01" nType="0">
            <Node pos="l" depth="3" NCoef="0" IVar="-1" Cut="0.0000000000000000e+00" cType="1" res="1.4692463912069798e-02" rms="3.0956971645355225e-01" purity="2.9343110322952271e-01" nType="-99"/>
            <Node pos="r" depth="3" NCoef="0" IVar="-1" Cut="0.0000000000000000e+00" cType="1" res="-1.6170300543308258e-02" rms="3.2602611184120178e-01" purity="4.0010076761245728e-01" nType="-99"/>
          </Node>
          <Node pos="r" depth="2" NCoef="0" IVar="8" Cut="9.4390320777893066e-01" cType="1" res="2.5105508044362068e-02" rms="1.7717328667640686e-01" purity="9.6446770429611206e-01" nType="0">
            <Node pos="l" depth="3" NCoef="0" IVar="-1" Cut="0.0000000000000000e+00" cType="1" res="5.2668783813714981e-02" rms="1.6885571181774139e-01" purity="9.6824908256530762e-01" nType="-99"/>
            <Node pos="r" depth="3" NCoef="0" IVar="-1" Cut="0.0000000000000000e+00" cType="1" res="-2.8961219359189272e-03" rms="2.3220965266227722e-01" purity="9.3380874395370483e-01" nType="-99"/>
          </Node>
        </Node>
      </Node>
    </BinaryTree>
    <BinaryTree type="DecisionTree" boostWeight="1.0000000000000000e+00" itree="20">
      <Node pos="s" depth="0" NCoef="0" IVar="6" Cut="-1.0430204868316650e+00" cType="1" res="-5.3237765096127987e-03" rms="2.7104923129081726e-01" purity="4.9724698066711426e-01" nType="0">
        <Node pos="l" depth="1" NCoef="0" IVar="0" Cut="1.9075758056640625e+03" cType="1" res="-5.4195296019315720e-02" rms="2.4318791925907135e-01" purity="1.8093357980251312e-01" nType="0">
          <Node pos="l" depth="2" NCoef="0" IVar="6" Cut="-1.6283046007156372e+00" cType="1" res="-3.6530043929815292e-02" rms="1.6491457819938660e-01" purity="3.3978730440139771e-02" nType="0">
            <Node pos="l" depth="3" NCoef="0" IVar="-1" Cut="0.0000000000000000e+00" cType="1" res="-1.0524995625019073e-01" rms="6.6694959998130798e-02" purity="2.3665332701057196e-03" nType="-99"/>
            <Node pos="r" depth="3" NCoef="0" IVar="-1" Cut="0.0000000000000000e+00" cType="1" res="-4.2152814567089081e-02" rms="2.0141083002090454e-01" purity="5.2822932600975037e-02" nType="-99"/>
          </Node>
          <Node pos="r" depth="2" NCoef="0" IVar="-1" Cut="0.0000000000000000e+00" cType="1" res="-7.1135461330413818e-02" rms="3.6565813422203064e-01" purity="5.3580743074417114e-01" nType="-99"/>
        </Node>
        <Node pos="r" depth="1" NCoef="0" IVar="6" Cut="7.8580743074417114e-01" cType="1" res="1.0887449607253075e-03" rms="2.7384865283966064e-01" purity="5.3875100612640381e-01" nType="0">
          <Node pos="l" depth="2" NCoef="0" IVar="0" Cut="1.8876715087890625e+03" cType="1" res="1.0241901502013206e-02" rms="2.7342057228088379e-01" purity="6.0642409324645996e-01" nType="0">
            <Node pos="l" depth="3" NCoef="0" IVar="-1" Cut="0.0000000000000000e+00" cType="1" res="-1.3869558461010456e-02" rms="2.7781945466995239e-01" purity="1.0918263345956802e-01" nType="-99"/>
            <Node pos="r" depth="3" NCoef="0" IVar="-1" Cut="0.0000000000000000e+00" cType="1" res="2.4450065568089485e-02" rms="2.7047094702720642e-01" purity="8.5691589117050171e-01" nType="-99"/>
          </Node>
          <Node pos="r" depth="2" NCoef="0" IVar="9" Cut="-1.1980360746383667e+00" cType="1" res="-3.5822726786136627e-02" rms="2.7246570587158203e-01" purity="2.6584923267364502e-01" nType="0">
            <Node pos="l" depth="3" NCoef="0" IVar="-1" Cut="0.0000000000000000e+00" cType="1" res="-1.0609637200832367e-01" rms="3.0453625321388245e-01" purity="1.5153071284294128e-01" nType="-99"/>
            <Node pos="r" depth="3" NCoef="0" IVar="-1" Cut="0.0000000000000000e+00" cType="1" res="-2.6248542591929436e-02" rms="2.6380720734596252e-01" purity="2.8736099600791931e-01" nType="-99"/>
          </Node>
        </Node>
      </Node>
    </BinaryTree>
    <BinaryTree type="DecisionTree" boostWeight="1.0000000000000000e+00" itree="21">
      <Node pos="s" depth="0" NCoef="0" IVar="6" Cut="1.5172744989395142e+00" cType="1" res="-1.1524702422320843e-03" rms="2.6913353800773621e-01" purity="4.9721163511276245e-01" nType="0">
        <Node pos="l" depth="1" NCoef="0" IVar="6" Cut="-8.2366013526916504e-01" cType="1" res="2.5794229004532099e-03" rms="2.7325800061225891e-01" purity="5.2169066667556763e-01" nType="0">
          <Node pos="l" depth="2" NCoef="0" IVar="7" Cut="6.7426073551177979e-01" cType="1" res="-3.1312055885791779e-02" rms="2.6103976368904114e-01" purity="2.4649921059608459e-01" nType="0">
            <Node pos="l" depth="3" NCoef="0" IVar="-1" Cut="0.0000000000000000e+00" cType="1" res="-1.9793121144175529e-02" rms="2.6623740792274475e-01" purity="2.9827237129211426e-01" nType="-99"/>
            <Node pos="r" depth="3" NCoef="0" IVar="-1" Cut="0.0000000000000000e+00" cType="1" res="-8.9711114764213562e-02" rms="2.4370670318603516e-01" purity="1.1784574389457703e-01" nType="-99"/>
          </Node>
          <Node pos="r" depth="2" NCoef="0" IVar="5" Cut="1.1808435058593750e+02" cType="1" res="9.7161941230297089e-03" rms="2.7523046731948853e-01" purity="5.7963979244232178e-01" nType="0">
            <Node pos="l" depth="3" NCoef="0" IVar="-1" Cut="0.0000000000000000e+00" cType="1" res="-2.5285596027970314e-02" rms="2.5381627678871155e-01" purity="1.2546589970588684e-01" nType="-99"/>
            <Node pos="r" depth="3" NCoef="0" IVar="-1" Cut="0.0000000000000000e+00" cType="1" res="2.1584026515483856e-02" rms="2.8094300627708435e-01" purity="7.2160083055496216e-01" nType="-99"/>
          </Node>
        </Node>
        <Node pos="r" depth="1" NCoef="0" IVar="9" Cut="1.0944265127182007e-01" cType="1" res="-7.1355037391185760e-02" rms="1.5861789882183075e-01" purity="3.6723241209983826e-02" nType="0">
          <Node pos="l" depth="2" NCoef="0" IVar="-1" Cut="0.0000000000000000e+00" cType="1" res="-1.2222350388765335e-01" rms="1.5996663272380829e-01" purity="3.3427990972995758e-02" nType="-99"/>
          <Node pos="r" depth="2" NCoef="0" IVar="-1" Cut="0.0000000000000000e+00" cType="1" res="-9.8520860075950623e-02" rms="1.5627174079418182e-01" purity="3.9994638413190842e-02" nType="-99"/>
        </Node>
      </Node>
    </BinaryTree>
    <BinaryTree type="DecisionTree" boostWeight="1.0000000000000000e+00" itree="22">
      <Node pos="s" depth="0" NCoef="0" IVar="0" Cut="1.6444053955078125e+03" cType="1" res="2.9810082633048296e-03" rms="2.6531210541725159e-01" purity="5.0192201137542725e-01" nType="0">
        <Node pos="l" depth="1" NCoef="0" IVar="0" Cut="1.5280301513671875e+03" cType="1" res="-2.0153643563389778e-02" rms="1.7454566061496735e-01" purity="3.3471748232841492e-02" nType="0">
          <Node pos="l" depth="2" NCoef="0" IVar="7" Cut="4.0367817878723145e-01" cType="1" res="-3.1828571110963821e-02" rms="1.3162112236022949e-01" purity="1.8296454101800919e-02" nType="0">
            <Node pos="l" depth="3" NCoef="0" IVar="-1" Cut="0.0000000000000000e+00" cType="1" res="-7.8753069043159485e-02" rms="1.1590570956468582e-01" purity="1.3620296493172646e-02" nType="-99"/>
            <Node pos="r" depth="3" NCoef="0" IVar="-1" Cut="0.0000000000000000e+00" cType="1" res="-4.9392431974411011e-02" rms="1.5358553826808929e-01" purity="2.5998240336775780e-02" nType="-99"/>
          </Node>
          <Node pos="r" depth="2" NCoef="0" IVar="1" Cut="5.0607636570930481e-02" cType="1" res="-4.9834046512842178e-03" rms="2.1710725128650665e-01" purity="5.3190309554338455e-02" nType="0">
            <Node pos="l" depth="3" NCoef="0" IVar="-1" Cut="0.0000000000000000e+00" cType="1" res="-5.8293189853429794e-02" rms="1.2602187693119049e-01" purity="1.6360804438591003e-02" nType="-99"/>
            <Node pos="r" depth="3" NCoef="0" IVar="-1" Cut="0.0000000000000000e+00" cType="1" res="2.7602640911936760e-02" rms="3.1984341144561768e-01" purity="1.1967895925045013e-01" nType="-99"/>
          </Node>
        </Node>
        <Node pos="r" depth="1" NCoef="0" IVar="7" Cut="-1.4565298557281494e+00" cType="1" res="1.1627289466559887e-02" rms="2.9161092638969421e-01" purity="6.7699927091598511e-01" nType="0">
          <Node pos="l" depth="2" NCoef="0" IVar="-1" Cut="0.0000000000000000e+00" cType="1" res="-6.3476189970970154e-02" rms="2.8890272974967957e-01" purity="2.3845416307449341e-01" nType="-99"/>
          <Node pos="r" depth="2" NCoef="0" IVar="7" Cut="1.5828151702880859e+00" cType="1" res="1.5608332119882107e-02" rms="2.9119902849197388e-01" purity="6.9973427057266235e-01" nType="0">
            <Node pos="l" depth="3" NCoef="0" IVar="-1" Cut="0.0000000000000000e+00" cType="1" res="2.0369634032249451e-02" rms="2.9154804348945618e-01" purity="7.1997249126434326e-01" nType="-99"/>
            <Node pos="r" depth="3" NCoef="0" IVar="-1" Cut="0.0000000000000000e+00" cType="1" res="-8.0293618142604828e-02" rms="2.6708239316940308e-01" purity="2.1191330254077911e-01" nType="-99"/>
          </Node>
        </Node>
      </Node>
    </BinaryTree>
    <BinaryTree type="DecisionTree" boostWeight="1.0000000000000000e+00" itree="23">
      <Node pos="s" depth="0" NCoef="0" IVar="1" Cut="1.9584922119975090e-02" cType="1" res="3.8746811915189028e-03" rms="2.6961061358451843e-01" purity="5.0446134805679321e-01" nType="0">
        <Node pos="l" depth="1" NCoef="0" IVar="2" Cut="6.8748736572265625e+02" cType="1" res="-2.3412518203258514e-02" rms="2.1116927266120911e-01" purity="9.8318174481391907e-02" nType="0">
          <Node pos="l" depth="2" NCoef="0" IVar="1" Cut="1.5876837074756622e-02" cType="1" res="-1.5541433356702328e-02" rms="1.8261823058128357e-01" purity="6.9221086800098419e-02" nType="0">
            <Node pos="l" depth="3" NCoef="0" IVar="-1" Cut="0.0000000000000000e+00" cType="1" res="-4.5950483530759811e-02" rms="1.6626366972923279e-01" purity="5.1045924425125122e-02" nType="-99"/>
            <Node pos="r" depth="3" NCoef="0" IVar="-1" Cut="0.0000000000000000e+00" cType="1" res="1.4932619407773018e-02" rms="2.3494802415370941e-01" purity="1.4138460159301758e-01" nType="-99"/>
          </Node>
          <Node pos="r" depth="2" NCoef="0" IVar="-1" Cut="0.0000000000000000e+00" cType="1" res="-4.7107972204685211e-02" rms="3.0466744303703308e-01" purity="2.2698134183883667e-01" nType="-99"/>
        </Node>
        <Node pos="r" depth="1" NCoef="0" IVar="7" Cut="9.3072754144668579e-01" cType="1" res="9.2777283862233162e-03" rms="2.7942213416099548e-01" purity="5.8488047122955322e-01" nType="0">
          <Node pos="l" depth="2" NCoef="0" IVar="5" Cut="8.6545089721679688e+01" cType="1" res="1.3936655595898628e-02" rms="2.7657005190849304e-01" purity="6.2329339981079102e-01" nType="0">
            <Node pos="l" depth="3" NCoef="0" IVar="-1" Cut="0.0000000000000000e+00" cType="1" res="-4.5520130544900894e-02" rms="2.3571304976940155e-01" purity="8.8506534695625305e-02" nType="-99"/>
            <Node pos="r" depth="3" NCoef="0" IVar="-1" Cut="0.0000000000000000e+00" cType="1" res="1.9455717876553535e-02" rms="2.7858269214630127e-01" purity="6.5501880645751953e-01" nType="-99"/>
          </Node>
          <Node pos="r" depth="2" NCoef="0" IVar="3" Cut="3.6175173950195312e+02" cType="1" res="-1.7864463850855827e-02" rms="2.9402697086334229e-01" purity="3.6109241843223572e-01" nType="0">
            <Node pos="l" depth="3" NCoef="0" IVar="-1" Cut="0.0000000000000000e+00" cType="1" res="-2.7841180562973022e-03" rms="2.7872902154922485e-01" purity="2.6021194458007812e-01" nType="-99"/>
            <Node pos="r" depth="3" NCoef="0" IVar="-1" Cut="0.0000000000000000e+00" cType="1" res="-8.0763846635818481e-02" rms="3.3663856983184814e-01" purity="7.1412461996078491e-01" nType="-99"/>
          </Node>
        </Node>
      </Node>
    </BinaryTree>
    <BinaryTree type="DecisionTree" boostWeight="1.0000000000000000e+00" itree="24">
      <Node pos="s" depth="0" NCoef="0" IVar="8" Cut="1.7327353954315186e+00" cType="1" res="1.0869749821722507e-03" rms="2.6369890570640564e-01" purity="5.0571572780609131e-01" nType="0">
        <Node pos="l" depth="1" NCoef="0" IVar="6" Cut="7.3084074258804321e-01" cType="1" res="3.9094146341085434e-03" rms="2.6348322629928589e-01" purity="5.2179247140884399e-01" nType="0">
          <Node pos="l" depth="2" NCoef="0" IVar="6" Cut="-5.4850471019744873e-01" cType="1" res="1.0400654748082161e-02" rms="2.6608172059059143e-01" purity="5.7309967279434204e-01" nType="0">
            <Node pos="l" depth="3" NCoef="0" IVar="-1" Cut="0.0000000000000000e+00" cType="1" res="-1.5248537994921207e-02" rms="2.6965284347534180e-01" purity="3.7863042950630188e-01" nType="-99"/>
            <Node pos="r" depth="3" NCoef="0" IVar="-1" Cut="0.0000000000000000e+00" cType="1" res="2.4941235780715942e-02" rms="2.6395800709724426e-01" purity="6.5641188621520996e-01" nType="-99"/>
          </Node>
          <Node pos="r" depth="2" NCoef="0" IVar="2" Cut="3.7766619873046875e+02" cType="1" res="-2.3773845285177231e-02" rms="2.5021755695343018e-01" purity="3.0298241972923279e-01" nType="0">
            <Node pos="l" depth="3" NCoef="0" IVar="-1" Cut="0.0000000000000000e+00" cType="1" res="1.1629067361354828e-02" rms="2.4644540250301361e-01" purity="1.7250594496726990e-01" nType="-99"/>
            <Node pos="r" depth="3" NCoef="0" IVar="-1" Cut="0.0000000000000000e+00" cType="1" res="-4.3126180768013000e-02" rms="2.5057792663574219e-01" purity="3.4913921356201172e-01" nType="-99"/>
          </Node>
        </Node>
        <Node pos="r" depth="1" NCoef="0" IVar="-1" Cut="0.0000000000000000e+00" cType="1" res="-7.2955466806888580e-02" rms="2.6104679703712463e-01" purity="1.6124330461025238e-01" nType="-99"/>
      </Node>
    </BinaryTree>
    <BinaryTree type="DecisionTree" boostWeight="1.0000000000000000e+00" itree="25">
      <Node pos="s" depth="0" NCoef="0" IVar="7" Cut="-1.9997884035110474e+00" cType="1" res="-3.4751412840705598e-06" rms="2.6697528362274170e-01" purity="4.9806612730026245e-01" nType="0">
        <Node pos="l" depth="1" NCoef="0" IVar="-1" Cut="0.0000000000000000e+00" cType="1" res="-1.0698907077312469e-01" rms="1.8929862976074219e-01" purity="3.0564112588763237e-02" nType="-99"/>
        <Node pos="r" depth="1" NCoef="0" IVar="0" Cut="1.6662799072265625e+03" cType="1" res="1.7058152006939054e-03" rms="2.6852056384086609e-01" purity="5.1047205924987793e-01" nType="0">
          <Node pos="l" depth="2" NCoef="0" IVar="0" Cut="1.5521611328125000e+03" cType="1" res="-1.5229849144816399e-02" rms="1.8334206938743591e-01" purity="3.7074219435453415e-02" nType="0">
            <Node pos="l" depth="3" NCoef="0" IVar="-1" Cut="0.0000000000000000e+00" cType="1" res="-5.2831999957561493e-02" rms="1.5088997781276703e-01" purity="2.3917095735669136e-02" nType="-99"/>
            <Node pos="r" depth="3" NCoef="0" IVar="-1" Cut="0.0000000000000000e+00" cType="1" res="-1.1104656150564551e-03" rms="2.2973172366619110e-01" purity="6.0722026973962784e-02" nType="-99"/>
          </Node>
          <Node pos="r" depth="2" NCoef="0" IVar="2" Cut="4.2882363891601562e+02" cType="1" res="8.5584884509444237e-03" rms="2.9582774639129639e-01" purity="7.0202291011810303e-01" nType="0">
            <Node pos="l" depth="3" NCoef="0" IVar="-1" Cut="0.0000000000000000e+00" cType="1" res="3.5037316381931305e-02" rms="3.4835040569305420e-01" purity="6.4303696155548096e-01" nType="-99"/>
            <Node pos="r" depth="3" NCoef="0" IVar="-1" Cut="0.0000000000000000e+00" cType="1" res="9.4624865596415475e-06" rms="2.8091654181480408e-01" purity="7.1636432409286499e-01" nType="-99"/>
          </Node>
        </Node>
      </Node>
    </BinaryTree>
    <BinaryTree type="DecisionTree" boostWeight="1.0000000000000000e+00" itree="26">
      <Node pos="s" depth="0" NCoef="0" IVar="9" Cut="1.9996237754821777e+00" cType="1" res="2.6913974434137344e-03" rms="2.6579838991165161e-01" purity="5.0196903944015503e-01" nType="0">
        <Node pos="l" depth="1" NCoef="0" IVar="0" Cut="1.8876590576171875e+03" cType="1" res="4.6065091155469418e-03" rms="2.6494538784027100e-01" purity="5.1287591457366943e-01" nType="0">
          <Node pos="l" depth="2" NCoef="0" IVar="2" Cut="3.7344876098632812e+02" cType="1" res="-8.6175194010138512e-03" rms="2.4744226038455963e-01" purity="8.2931585609912872e-02" nType="0">
            <Node pos="l" depth="3" NCoef="0" IVar="-1" Cut="0.0000000000000000e+00" cType="1" res="2.0971842110157013e-02" rms="2.9132285714149475e-01" purity="1.2186570465564728e-01" nType="-99"/>
            <Node pos="r" depth="3" NCoef="0" IVar="-1" Cut="0.0000000000000000e+00" cType="1" res="-3.7589147686958313e-02" rms="2.1598540246486664e-01" purity="5.9843204915523529e-02" nType="-99"/>
          </Node>
          <Node pos="r" depth="2" NCoef="0" IVar="2" Cut="6.6388757324218750e+02" cType="1" res="1.4277721755206585e-02" rms="2.7664694190025330e-01" purity="8.2730978727340698e-01" nType="0">
            <Node pos="l" depth="3" NCoef="0" IVar="-1" Cut="0.0000000000000000e+00" cType="1" res="2.8053857386112213e-02" rms="2.7969396114349365e-01" purity="8.5282784700393677e-01" nType="-99"/>
            <Node pos="r" depth="3" NCoef="0" IVar="-1" Cut="0.0000000000000000e+00" cType="1" res="-7.7295871451497078e-03" rms="2.6967200636863708e-01" purity="7.7961200475692749e-01" nType="-99"/>
          </Node>
        </Node>
        <Node pos="r" depth="1" NCoef="0" IVar="-1" Cut="0.0000000000000000e+00" cType="1" res="-6.0218658298254013e-02" rms="2.8323569893836975e-01" purity="2.0212028920650482e-01" nType="-99"/>
      </Node>
    </BinaryTree>
    <BinaryTree type="DecisionTree" boostWeight="1.0000000000000000e+00" itree="27">
      <Node pos="s" depth="0" NCoef="0" IVar="0" Cut="2.7313630371093750e+03" cType="1" res="-2.5411308743059635e-03" rms="2.6469638943672180e-01" purity="4.9495252966880798e-01" nType="0">
        <Node pos="l" depth="1" NCoef="0" IVar="2" Cut="7.8882055664062500e+02" cType="1" res="-8.8326456025242805e-03" rms="2.8537902235984802e-01" purity="3.5972696542739868e-01" nType="0">
          <Node pos="l" depth="2" NCoef="0" IVar="6" Cut="1.7423512935638428e+00" cType="1" res="-4.4951988384127617e-03" rms="2.8100427985191345e-01" purity="3.6025798320770264e-01" nType="0">
            <Node pos="l" depth="3" NCoef="0" IVar="-1" Cut="0.0000000000000000e+00" cType="1" res="-2.4415550287812948e-03" rms="2.8547790646553040e-01" purity="3.7550863623619080e-01" nType="-99"/>
            <Node pos="r" depth="3" NCoef="0" IVar="-1" Cut="0.0000000000000000e+00" cType="1" res="-1.2015996128320694e-01" rms="1.3321727514266968e-01" purity="1.0994745418429375e-02" nType="-99"/>
          </Node>
          <Node pos="r" depth="2" NCoef="0" IVar="-1" Cut="0.0000000000000000e+00" cType="1" res="-9.8371997475624084e-02" rms="3.6826056241989136e-01" purity="3.4482938051223755e-01" nType="-99"/>
        </Node>
        <Node pos="r" depth="1" NCoef="0" IVar="0" Cut="2.9343598632812500e+03" cType="1" res="1.9147126004099846e-02" rms="1.7389157414436340e-01" purity="9.6110528707504272e-01" nType="0">
          <Node pos="l" depth="2" NCoef="0" IVar="2" Cut="6.7755010986328125e+02" cType="1" res="3.9524869062006474e-03" rms="2.1072049438953400e-01" purity="9.3910181522369385e-01" nType="0">
            <Node pos="l" depth="3" NCoef="0" IVar="-1" Cut="0.0000000000000000e+00" cType="1" res="3.8050543516874313e-02" rms="1.4823143184185028e-01" purity="9.7234290838241577e-01" nType="-99"/>
            <Node pos="r" depth="3" NCoef="0" IVar="-1" Cut="0.0000000000000000e+00" cType="1" res="-1.7305398359894753e-02" rms="2.8511810302734375e-01" purity="8.8378071784973145e-01" nType="-99"/>
          </Node>
          <Node pos="r" depth="2" NCoef="0" IVar="2" Cut="9.3562951660156250e+02" cType="1" res="2.6022536680102348e-02" rms="1.5387363731861115e-01" purity="9.7106164693832397e-01" nType="0">
            <Node pos="l" depth="3" NCoef="0" IVar="-1" Cut="0.0000000000000000e+00" cType="1" res="7.2238571941852570e-02" rms="1.1824607849121094e-01" purity="9.8483657836914062e-01" nType="-99"/>
            <Node pos="r" depth="3" NCoef="0" IVar="-1" Cut="0.0000000000000000e+00" cType="1" res="1.5041625127196312e-02" rms="2.7014222741127014e-01" purity="9.0068984031677246e-01" nType="-99"/>
          </Node>
        </Node>
      </Node>
    </BinaryTree>
    <BinaryTree type="DecisionTree" boostWeight="1.0000000000000000e+00" itree="28">
      <Node pos="s" depth="0" NCoef="0" IVar="0" Cut="2.1988310546875000e+03" cType="1" res="-2.6064654812216759e-03" rms="2.6437959074974060e-01" purity="4.9862846732139587e-01" nType="0">
        <Node pos="l" depth="1" NCoef="0" IVar="4" Cut="2.7538726806640625e+02" cType="1" res="-1.2057429179549217e-02" rms="2.8439846634864807e-01" purity="1.7915378510951996e-01" nType="0">
          <Node pos="l" depth="2" NCoef="0" IVar="0" Cut="2.0466635742187500e+03" cType="1" res="-7.7864876948297024e-03" rms="2.7205571532249451e-01" purity="1.5941415727138519e-01" nType="0">
            <Node pos="l" depth="3" NCoef="0" IVar="-1" Cut="0.0000000000000000e+00" cType="1" res="-1.5675865113735199e-02" rms="2.6006221771240234e-01" purity="1.1618089675903320e-01" nType="-99"/>
            <Node pos="r" depth="3" NCoef="0" IVar="-1" Cut="0.0000000000000000e+00" cType="1" res="2.3341437801718712e-02" rms="3.7274211645126343e-01" purity="6.1306583881378174e-01" nType="-99"/>
          </Node>
          <Node pos="r" depth="2" NCoef="0" IVar="-1" Cut="0.0000000000000000e+00" cType="1" res="-4.3471030890941620e-02" rms="4.0474200248718262e-01" purity="4.2639136314392090e-01" nType="-99"/>
        </Node>
        <Node pos="r" depth="1" NCoef="0" IVar="6" Cut="-7.6387596130371094e-01" cType="1" res="9.6622789278626442e-03" rms="2.3530563712120056e-01" purity="9.1335374116897583e-01" nType="0">
          <Node pos="l" depth="2" NCoef="0" IVar="-1" Cut="0.0000000000000000e+00" cType="1" res="-4.6233970671892166e-02" rms="3.1781521439552307e-01" purity="8.0433863401412964e-01" nType="-99"/>
          <Node pos="r" depth="2" NCoef="0" IVar="1" Cut="4.1284974664449692e-02" cType="1" res="1.5631951391696930e-02" rms="2.2259114682674408e-01" purity="9.2646777629852295e-01" nType="0">
            <Node pos="l" depth="3" NCoef="0" IVar="-1" Cut="0.0000000000000000e+00" cType="1" res="3.1648520380258560e-02" rms="3.5930630564689636e-01" purity="7.4582093954086304e-01" nType="-99"/>
            <Node pos="r" depth="3" NCoef="0" IVar="-1" Cut="0.0000000000000000e+00" cType="1" res="2.2226361557841301e-02" rms="1.8672613799571991e-01" purity="9.5934450626373291e-01" nType="-99"/>
          </Node>
        </Node>
      </Node>
    </BinaryTree>
    <BinaryTree type="DecisionTree" boostWeight="1.0000000000000000e+00" itree="29">
      <Node pos="s" depth="0" NCoef="0" IVar="9" Cut="-1.9990600347518921e+00" cType="1" res="-4.4839206384494901e-04" rms="2.6371845602989197e-01" purity="5.0344204902648926e-01" nType="0">
        <Node pos="l" depth="1" NCoef="0" IVar="-1" Cut="0.0000000000000000e+00" cType="1" res="-6.1054781079292297e-02" rms="2.9774817824363708e-01" purity="1.8762458860874176e-01" nType="-99"/>
        <Node pos="r" depth="1" NCoef="0" IVar="9" Cut="1.8855379819869995e+00" cType="1" res="1.4080896507948637e-03" rms="2.6216578483581543e-01" purity="5.1537364721298218e-01" nType="0">
          <Node pos="l" depth="2" NCoef="0" IVar="0" Cut="1.6288715820312500e+03" cType="1" res="3.2915601041167974e-03" rms="2.6133927702903748e-01" purity="5.3172945976257324e-01" nType="0">
            <Node pos="l" depth="3" NCoef="0" IVar="-1" Cut="0.0000000000000000e+00" cType="1" res="-3.1510047614574432e-02" rms="1.7000606656074524e-01" purity="3.1385030597448349e-02" nType="-99"/>
            <Node pos="r" depth="3" NCoef="0" IVar="-1" Cut="0.0000000000000000e+00" cType="1" res="9.8729748278856277e-03" rms="2.8397446870803833e-01" purity="6.8989729881286621e-01" nType="-99"/>
          </Node>
          <Node pos="r" depth="2" NCoef="0" IVar="-1" Cut="0.0000000000000000e+00" cType="1" res="-5.0771873444318771e-02" rms="2.7545750141143799e-01" purity="1.8927325308322906e-01" nType="-99"/>
        </Node>
      </Node>
    </BinaryTree>
    <BinaryTree type="DecisionTree" boostWeight="1.0000000000000000e+00" itree="30">
      <Node pos="s" depth="0" NCoef="0" IVar="2" Cut="5.6537268066406250e+02" cType="1" res="-1.0205912403762341e-03" rms="2.6356601715087891e-01" purity="5.0149011611938477e-01" nType="0">
        <Node pos="l" depth="1" NCoef="0" IVar="0" Cut="1.5355379638671875e+03" cType="1" res="7.0543298497796059e-03" rms="2.6842138171195984e-01" purity="4.0236899256706238e-01" nType="0">
          <Node pos="l" depth="2" NCoef="0" IVar="1" Cut="9.2394962906837463e-02" cType="1" res="-1.5299307182431221e-02" rms="1.4681302011013031e-01" purity="2.2559704259037971e-02" nType="0">
            <Node pos="l" depth="3" NCoef="0" IVar="-1" Cut="0.0000000000000000e+00" cType="1" res="-4.0106281638145447e-02" rms="1.3269989192485809e-01" purity="1.8548732623457909e-02" nType="-99"/>
            <Node pos="r" depth="3" NCoef="0" IVar="-1" Cut="0.0000000000000000e+00" cType="1" res="-4.8002835363149643e-02" rms="1.9897070527076721e-01" purity="4.1257198899984360e-02" nType="-99"/>
          </Node>
          <Node pos="r" depth="2" NCoef="0" IVar="2" Cut="3.7410760498046875e+02" cType="1" res="1.4935693703591824e-02" rms="2.9935836791992188e-01" purity="5.3628075122833252e-01" nType="0">
            <Node pos="l" depth="3" NCoef="0" IVar="-1" Cut="0.0000000000000000e+00" cType="1" res="4.6008836477994919e-02" rms="3.3617278933525085e-01" purity="4.2368939518928528e-01" nType="-99"/>
            <Node pos="r" depth="3" NCoef="0" IVar="-1" Cut="0.0000000000000000e+00" cType="1" res="5.5206953547894955e-03" rms="2.8602728247642517e-01" purity="5.7176285982131958e-01" nType="-99"/>
          </Node>
        </Node>
        <Node pos="r" depth="1" NCoef="0" IVar="0" Cut="2.6222421875000000e+03" cType="1" res="-1.4395350590348244e-02" rms="2.5475850701332092e-01" purity="6.6566765308380127e-01" nType="0">
          <Node pos="l" depth="2" NCoef="0" IVar="7" Cut="6.7131936550140381e-01" cType="1" res="-3.8610570132732391e-02" rms="3.0110043287277222e-01" purity="3.5570561885833740e-01" nType="0">
            <Node pos="l" depth="3" NCoef="0" IVar="-1" Cut="0.0000000000000000e+00" cType="1" res="-2.1563695743680000e-02" rms="3.0576407909393311e-01" purity="4.1309636831283569e-01" nType="-99"/>
            <Node pos="r" depth="3" NCoef="0" IVar="-1" Cut="0.0000000000000000e+00" cType="1" res="-8.5853502154350281e-02" rms="2.8460228443145752e-01" purity="2.1632085740566254e-01" nType="-99"/>
          </Node>
          <Node pos="r" depth="2" NCoef="0" IVar="2" Cut="8.7846203613281250e+02" cType="1" res="7.2817830368876457e-03" rms="2.0210753381252289e-01" purity="9.4314152002334595e-01" nType="0">
            <Node pos="l" depth="3" NCoef="0" IVar="-1" Cut="0.0000000000000000e+00" cType="1" res="3.9372254163026810e-02" rms="1.6356499493122101e-01" purity="9.6834772825241089e-01" nType="-99"/>
            <Node pos="r" depth="3" NCoef="0" IVar="-1" Cut="0.0000000000000000e+00" cType="1" res="-3.1907588243484497e-02" rms="3.0084037780761719e-01" purity="8.5189479589462280e-01" nType="-99"/>
          </Node>
        </Node>
      </Node>
    </BinaryTree>
    <BinaryTree type="DecisionTree" boostWeight="1.0000000000000000e+00" itree="31">
      <Node pos="s" depth="0" NCoef="0" IVar="0" Cut="2.8663259277343750e+03" cType="1" res="-1.1838166974484921e-03" rms="2.6105329394340515e-01" purity="4.9465936422348022e-01" nType="0">
        <Node pos="l" depth="1" NCoef="0" IVar="2" Cut="6.5547729492187500e+02" cType="1" res="-5.6062671355903149e-03" rms="2.7782335877418518e-01" purity="3.9308968186378479e-01" nType="0">
          <Node pos="l" depth="2" NCoef="0" IVar="5" Cut="8.9510124206542969e+01" cType="1" res="-1.3459447654895484e-04" rms="2.7077257633209229e-01" purity="3.7795478105545044e-01" nType="0">
            <Node pos="l" depth="3" NCoef="0" IVar="-1" Cut="0.0000000000000000e+00" cType="1" res="-7.7970176935195923e-02" rms="1.1744155734777451e-01" purity="1.8725428730249405e-02" nType="-99"/>
            <Node pos="r" depth="3" NCoef="0" IVar="-1" Cut="0.0000000000000000e+00" cType="1" res="4.5305998064577579e-03" rms="2.8504785895347595e-01" purity="4.2660233378410339e-01" nType="-99"/>
          </Node>
          <Node pos="r" depth="2" NCoef="0" IVar="4" Cut="1.7593688964843750e+02" cType="1" res="-4.0122471749782562e-02" rms="3.1655293703079224e-01" purity="4.8856329917907715e-01" nType="0">
            <Node pos="l" depth="3" NCoef="0" IVar="-1" Cut="0.0000000000000000e+00" cType="1" res="-2.2991674486547709e-03" rms="2.8983670473098755e-01" purity="1.9910167157649994e-01" nType="-99"/>
            <Node pos="r" depth="3" NCoef="0" IVar="-1" Cut="0.0000000000000000e+00" cType="1" res="-5.8824952691793442e-02" rms="3.2851612567901611e-01" purity="6.4879995584487915e-01" nType="-99"/>
          </Node>
        </Node>
        <Node pos="r" depth="1" NCoef="0" IVar="7" Cut="6.6395276784896851e-01" cType="1" res="1.9494378939270973e-02" rms="1.5929606556892395e-01" purity="9.6957224607467651e-01" nType="0">
          <Node pos="l" depth="2" NCoef="0" IVar="1" Cut="5.8544039726257324e-02" cType="1" res="2.3290455341339111e-02" rms="1.4711147546768188e-01" purity="9.7464233636856079e-01" nType="0">
            <Node pos="l" depth="3" NCoef="0" IVar="-1" Cut="0.0000000000000000e+00" cType="1" res="4.6200834214687347e-02" rms="2.4681092798709869e-01" purity="9.2373538017272949e-01" nType="-99"/>
            <Node pos="r" depth="3" NCoef="0" IVar="-1" Cut="0.0000000000000000e+00" cType="1" res="6.7621417343616486e-02" rms="9.7722016274929047e-02" purity="9.9017322063446045e-01" nType="-99"/>
          </Node>
          <Node pos="r" depth="2" NCoef="0" IVar="-1" Cut="0.0000000000000000e+00" cType="1" res="-5.7487664744257927e-03" rms="2.1594458818435669e-01" purity="9.3992090225219727e-01" nType="-99"/>
        </Node>
      </Node>
    </BinaryTree>
    <BinaryTree type="DecisionTree" boostWeight="1.0000000000000000e+00" itree="32">
      <Node pos="s" depth="0" NCoef="0" IVar="9" Cut="-1.7323050498962402e+00" cType="1" res="2.1263107191771269e-03" rms="2.6012030243873596e-01" purity="5.0216251611709595e-01" nType="0">
        <Node pos="l" depth="1" NCoef="0" IVar="5" Cut="1.2484895324707031e+02" cType="1" res="-3.5565733909606934e-02" rms="2.7305331826210022e-01" purity="2.2761422395706177e-01" nType="0">
          <Node pos="l" depth="2" NCoef="0" IVar="-1" Cut="0.0000000000000000e+00" cType="1" res="-3.3597778528928757e-02" rms="2.1093843877315521e-01" purity="8.0105550587177277e-02" nType="-99"/>
          <Node pos="r" depth="2" NCoef="0" IVar="-1" Cut="0.0000000000000000e+00" cType="1" res="-5.5257394909858704e-02" rms="3.2488569617271423e-01" purity="3.8255652785301208e-01" nType="-99"/>
        </Node>
        <Node pos="r" depth="1" NCoef="0" IVar="7" Cut="-1.7302777767181396e+00" cType="1" res="4.4161938130855560e-03" rms="2.5913721323013306e-01" purity="5.1884198188781738e-01" nType="0">
          <Node pos="l" depth="2" NCoef="0" IVar="-1" Cut="0.0000000000000000e+00" cType="1" res="-7.3162041604518890e-02" rms="1.8894194066524506e-01" purity="7.0188701152801514e-02" nType="-99"/>
          <Node pos="r" depth="2" NCoef="0" IVar="8" Cut="-1.7320230007171631e+00" cType="1" res="6.2838695012032986e-03" rms="2.6172238588333130e-01" purity="5.3919547796249390e-01" nType="0">
            <Node pos="l" depth="3" NCoef="0" IVar="-1" Cut="0.0000000000000000e+00" cType="1" res="-5.1873855292797089e-02" rms="2.7544713020324707e-01" purity="1.6847681999206543e-01" nType="-99"/>
            <Node pos="r" depth="3" NCoef="0" IVar="-1" Cut="0.0000000000000000e+00" cType="1" res="1.1381677351891994e-02" rms="2.6085099577903748e-01" purity="5.5778419971466064e-01" nType="-99"/>
          </Node>
        </Node>
      </Node>
    </BinaryTree>
    <BinaryTree type="DecisionTree" boostWeight="1.0000000000000000e+00" itree="33">
      <Node pos="s" depth="0" NCoef="0" IVar="6" Cut="-6.1666572093963623e-01" cType="1" res="-4.5369815779849887e-04" rms="2.6250639557838440e-01" purity="4.9819079041481018e-01" nType="0">
        <Node pos="l" depth="1" NCoef="0" IVar="3" Cut="2.7841647338867188e+02" cType="1" res="-1.5632409602403641e-02" rms="2.5874578952789307e-01" purity="3.2191467285156250e-01" nType="0">
          <Node pos="l" depth="2" NCoef="0" IVar="1" Cut="5.2542850375175476e-02" cType="1" res="7.0627825334668159e-03" rms="2.3472364246845245e-01" purity="1.2474202364683151e-01" nType="0">
            <Node pos="l" depth="3" NCoef="0" IVar="-1" Cut="0.0000000000000000e+00" cType="1" res="-2.6337696239352226e-02" rms="1.6961747407913208e-01" purity="4.1953653097152710e-02" nType="-99"/>
            <Node pos="r" depth="3" NCoef="0" IVar="-1" Cut="0.0000000000000000e+00" cType="1" res="4.6993587166070938e-02" rms="3.3469286561012268e-01" purity="3.1053775548934937e-01" nType="-99"/>
          </Node>
          <Node pos="r" depth="2" NCoef="0" IVar="7" Cut="4.0793153643608093e-01" cType="1" res="-3.3369451761245728e-02" rms="2.7476659417152405e-01" purity="4.7601154446601868e-01" nType="0">
            <Node pos="l" depth="3" NCoef="0" IVar="-1" Cut="0.0000000000000000e+00" cType="1" res="-1.8308186903595924e-02" rms="2.6604869961738586e-01" purity="5.5970591306686401e-01" nType="-99"/>
            <Node pos="r" depth="3" NCoef="0" IVar="-1" Cut="0.0000000000000000e+00" cType="1" res="-7.9108677804470062e-02" rms="2.8729960322380066e-01" purity="3.2087808847427368e-01" nType="-99"/>
          </Node>
        </Node>
        <Node pos="r" depth="1" NCoef="0" IVar="6" Cut="1.4962646961212158e+00" cType="1" res="4.1218367405235767e-03" rms="2.6345801353454590e-01" purity="5.5132824182510376e-01" nType="0">
          <Node pos="l" depth="2" NCoef="0" IVar="8" Cut="-1.4625399112701416e+00" cType="1" res="6.7306174896657467e-03" rms="2.6973336935043335e-01" purity="5.8774375915527344e-01" nType="0">
            <Node pos="l" depth="3" NCoef="0" IVar="-1" Cut="0.0000000000000000e+00" cType="1" res="-2.9683051630854607e-02" rms="2.7383932471275330e-01" purity="2.3553396761417389e-01" nType="-99"/>
            <Node pos="r" depth="3" NCoef="0" IVar="-1" Cut="0.0000000000000000e+00" cType="1" res="1.2216570787131786e-02" rms="2.6927274465560913e-01" purity="6.1506700515747070e-01" nType="-99"/>
          </Node>
          <Node pos="r" depth="2" NCoef="0" IVar="6" Cut="1.8059539794921875e+00" cType="1" res="-3.1891308724880219e-02" rms="1.4774809777736664e-01" purity="4.8627626150846481e-02" nType="0">
            <Node pos="l" depth="3" NCoef="0" IVar="-1" Cut="0.0000000000000000e+00" cType="1" res="-5.2348751574754715e-02" rms="1.8953946232795715e-01" purity="8.7441138923168182e-02" nType="-99"/>
            <Node pos="r" depth="3" NCoef="0" IVar="-1" Cut="0.0000000000000000e+00" cType="1" res="-1.1559315025806427e-01" rms="9.3070663511753082e-02" purity="1.2469205074012280e-02" nType="-99"/>
          </Node>
        </Node>
      </Node>
    </BinaryTree>
    <BinaryTree type="DecisionTree" boostWeight="1.0000000000000000e+00" itree="34">
      <Node pos="s" depth="0" NCoef="0" IVar="6" Cut="6.9559741020202637e-01" cType="1" res="-5.0841346383094788e-03" rms="2.6258811354637146e-01" purity="4.9326252937316895e-01" nType="0">
        <Node pos="l" depth="1" NCoef="0" IVar="2" Cut="8.7745751953125000e+02" cType="1" res="7.7638600487262011e-05" rms="2.6367962360382080e-01" purity="5.4536855220794678e-01" nType="0">
          <Node pos="l" depth="2" NCoef="0" IVar="9" Cut="2.0006203651428223e+00" cType="1" res="2.8450791724026203e-03" rms="2.5977191329002380e-01" purity="5.3227812051773071e-01" nType="0">
            <Node pos="l" depth="3" NCoef="0" IVar="-1" Cut="0.0000000000000000e+00" cType="1" res="6.6578658297657967e-03" rms="2.5947332382202148e-01" purity="5.4616546630859375e-01" nType="-99"/>
            <Node pos="r" depth="3" NCoef="0" IVar="-1" Cut="0.0000000000000000e+00" cType="1" res="-6.3284672796726227e-02" rms="2.6217415928840637e-01" purity="1.6155800223350525e-01" nType="-99"/>
          </Node>
          <Node pos="r" depth="2" NCoef="0" IVar="-1" Cut="0.0000000000000000e+00" cType="1" res="-5.1033884286880493e-02" rms="3.1750845909118652e-01" purity="7.5949484109878540e-01" nType="-99"/>
        </Node>
        <Node pos="r" depth="1" NCoef="0" IVar="7" Cut="-6.6271311044692993e-01" cType="1" res="-2.4311792105436325e-02" rms="2.5757291913032532e-01" purity="2.9916709661483765e-01" nType="0">
          <Node pos="l" depth="2" NCoef="0" IVar="0" Cut="1.7139011230468750e+03" cType="1" res="-6.3455581665039062e-02" rms="2.4303708970546722e-01" purity="1.4082181453704834e-01" nType="0">
            <Node pos="l" depth="3" NCoef="0" IVar="-1" Cut="0.0000000000000000e+00" cType="1" res="-3.3392969518899918e-02" rms="1.3258548080921173e-01" purity="1.7989411950111389e-02" nType="-99"/>
            <Node pos="r" depth="3" NCoef="0" IVar="-1" Cut="0.0000000000000000e+00" cType="1" res="-1.2390381097793579e-01" rms="3.2536226511001587e-01" purity="3.0841174721717834e-01" nType="-99"/>
          </Node>
          <Node pos="r" depth="2" NCoef="0" IVar="6" Cut="1.0952631235122681e+00" cType="1" res="-7.1145701222121716e-03" rms="2.6186224818229675e-01" purity="3.6873364448547363e-01" nType="0">
            <Node pos="l" depth="3" NCoef="0" IVar="-1" Cut="0.0000000000000000e+00" cType="1" res="1.1667225509881973e-02" rms="2.7955949306488037e-01" purity="5.3632563352584839e-01" nType="-99"/>
            <Node pos="r" depth="3" NCoef="0" IVar="-1" Cut="0.0000000000000000e+00" cType="1" res="-3.6275569349527359e-02" rms="2.4150337278842926e-01" purity="1.9938528537750244e-01" nType="-99"/>
          </Node>
        </Node>
      </Node>
    </BinaryTree>
    <BinaryTree type="DecisionTree" boostWeight="1.0000000000000000e+00" itree="35">
      <Node pos="s" depth="0" NCoef="0" IVar="8" Cut="1.9992452859878540e+00" cType="1" res="2.0963787101209164e-03" rms="2.5740271806716919e-01" purity="4.9340522289276123e-01" nType="0">
        <Node pos="l" depth="1" NCoef="0" IVar="0" Cut="1.6662905273437500e+03" cType="1" res="3.5893737804144621e-03" rms="2.5813248753547668e-01" purity="5.0479990243911743e-01" nType="0">
          <Node pos="l" depth="2" NCoef="0" IVar="5" Cut="1.6692413330078125e+02" cType="1" res="-9.2022707685828209e-03" rms="1.7589955031871796e-01" purity="3.4662205725908279e-02" nType="0">
            <Node pos="l" depth="3" NCoef="0" IVar="-1" Cut="0.0000000000000000e+00" cType="1" res="-3.3586140722036362e-02" rms="1.6255216300487518e-01" purity="2.8416309505701065e-02" nType="-99"/>
            <Node pos="r" depth="3" NCoef="0" IVar="-1" Cut="0.0000000000000000e+00" cType="1" res="4.1079808026552200e-02" rms="2.6984268426895142e-01" purity="9.4351530075073242e-02" nType="-99"/>
          </Node>
          <Node pos="r" depth="2" NCoef="0" IVar="3" Cut="2.5872326660156250e+02" cType="1" res="8.9518288150429726e-03" rms="2.8547775745391846e-01" purity="7.0188891887664795e-01" nType="0">
            <Node pos="l" depth="3" NCoef="0" IVar="-1" Cut="0.0000000000000000e+00" cType="1" res="3.8794126361608505e-02" rms="3.4194350242614746e-01" purity="3.9846998453140259e-01" nType="-99"/>
            <Node pos="r" depth="3" NCoef="0" IVar="-1" Cut="0.0000000000000000e+00" cType="1" res="3.4128283150494099e-03" rms="2.7331677079200745e-01" purity="7.5796943902969360e-01" nType="-99"/>
          </Node>
        </Node>
        <Node pos="r" depth="1" NCoef="0" IVar="-1" Cut="0.0000000000000000e+00" cType="1" res="-8.5234418511390686e-02" rms="2.2340804338455200e-01" purity="8.6745955049991608e-02" nType="-99"/>
      </Node>
    </BinaryTree>
    <BinaryTree type="DecisionTree" boostWeight="1.0000000000000000e+00" itree="36">
      <Node pos="s" depth="0" NCoef="0" IVar="7" Cut="-1.1954995393753052e+00" cType="1" res="3.1756595126353204e-04" rms="2.5985601544380188e-01" purity="5.0538688898086548e-01" nType="0">
        <Node pos="l" depth="1" NCoef="0" IVar="3" Cut="3.1255957031250000e+02" cType="1" res="-2.4485973641276360e-02" rms="2.4173425137996674e-01" purity="2.1354250609874725e-01" nType="0">
          <Node pos="l" depth="2" NCoef="0" IVar="6" Cut="2.3383486270904541e-01" cType="1" res="-5.2014174871146679e-03" rms="2.0710597932338715e-01" purity="1.1788500845432281e-01" nType="0">
            <Node pos="l" depth="3" NCoef="0" IVar="-1" Cut="0.0000000000000000e+00" cType="1" res="1.5942033380270004e-02" rms="2.4502952396869659e-01" purity="1.7241428792476654e-01" nType="-99"/>
            <Node pos="r" depth="3" NCoef="0" IVar="-1" Cut="0.0000000000000000e+00" cType="1" res="-5.3354188799858093e-02" rms="1.5396571159362793e-01" purity="5.8509398251771927e-02" nType="-99"/>
          </Node>
          <Node pos="r" depth="2" NCoef="0" IVar="-1" Cut="0.0000000000000000e+00" cType="1" res="-6.6096059978008270e-02" rms="2.9516366124153137e-01" purity="4.0368607640266418e-01" nType="-99"/>
        </Node>
        <Node pos="r" depth="1" NCoef="0" IVar="8" Cut="-9.3256187438964844e-01" cType="1" res="3.3205398358404636e-03" rms="2.6180553436279297e-01" purity="5.4072058200836182e-01" nType="0">
          <Node pos="l" depth="2" NCoef="0" IVar="4" Cut="2.6787261962890625e+02" cType="1" res="-1.4681131578981876e-02" rms="2.8229933977127075e-01" purity="3.9083033800125122e-01" nType="0">
            <Node pos="l" depth="3" NCoef="0" IVar="-1" Cut="0.0000000000000000e+00" cType="1" res="6.0225012712180614e-03" rms="2.8113844990730286e-01" purity="2.7731871604919434e-01" nType="-99"/>
            <Node pos="r" depth="3" NCoef="0" IVar="-1" Cut="0.0000000000000000e+00" cType="1" res="-8.0114886164665222e-02" rms="2.7842625975608826e-01" purity="7.0597797632217407e-01" nType="-99"/>
          </Node>
          <Node pos="r" depth="2" NCoef="0" IVar="4" Cut="1.4855342102050781e+02" cType="1" res="7.2890622541308403e-03" rms="2.5689828395843506e-01" purity="5.7376438379287720e-01" nType="0">
            <Node pos="l" depth="3" NCoef="0" IVar="-1" Cut="0.0000000000000000e+00" cType="1" res="-3.1520016491413116e-02" rms="2.0785041153430939e-01" purity="6.7443042993545532e-02" nType="-99"/>
            <Node pos="r" depth="3" NCoef="0" IVar="-1" Cut="0.0000000000000000e+00" cType="1" res="1.5274094417691231e-02" rms="2.6469555497169495e-01" purity="6.6680717468261719e-01" nType="-99"/>
          </Node>
        </Node>
      </Node>
    </BinaryTree>
    <BinaryTree type="DecisionTree" boostWeight="1.0000000000000000e+00" itree="37">
      <Node pos="s" depth="0" NCoef="0" IVar="9" Cut="1.9996649026870728e+00" cType="1" res="-4.9849267816171050e-04" rms="2.6137930154800415e-01" purity="4.9738168716430664e-01" nType="0">
        <Node pos="l" depth="1" NCoef="0" IVar="6" Cut="-1.4043231010437012e+00" cType="1" res="1.1004585539922118e-03" rms="2.6089051365852356e-01" purity="5.0956463813781738e-01" nType="0">
          <Node pos="l" depth="2" NCoef="0" IVar="4" Cut="1.8804103088378906e+02" cType="1" res="-3.0169084668159485e-02" rms="2.0220540463924408e-01" purity="8.3705164492130280e-02" nType="0">
            <Node pos="l" depth="3" NCoef="0" IVar="-1" Cut="0.0000000000000000e+00" cType="1" res="-3.0886022374033928e-02" rms="1.2868930399417877e-01" purity="2.3918084800243378e-02" nType="-99"/>
            <Node pos="r" depth="3" NCoef="0" IVar="-1" Cut="0.0000000000000000e+00" cType="1" res="-6.8736843764781952e-02" rms="2.6207223534584045e-01" purity="1.5512177348136902e-01" nType="-99"/>
          </Node>
          <Node pos="r" depth="2" NCoef="0" IVar="2" Cut="5.6552575683593750e+02" cType="1" res="3.0980075243860483e-03" rms="2.6407101750373840e-01" purity="5.3676927089691162e-01" nType="0">
            <Node pos="l" depth="3" NCoef="0" IVar="-1" Cut="0.0000000000000000e+00" cType="1" res="1.1802391149103642e-02" rms="2.6732698082923889e-01" purity="4.3784484267234802e-01" nType="-99"/>
            <Node pos="r" depth="3" NCoef="0" IVar="-1" Cut="0.0000000000000000e+00" cType="1" res="-9.1957151889801025e-03" rms="2.5846305489540100e-01" purity="6.9599109888076782e-01" nType="-99"/>
          </Node>
        </Node>
        <Node pos="r" depth="1" NCoef="0" IVar="-1" Cut="0.0000000000000000e+00" cType="1" res="-6.3471801578998566e-02" rms="2.7082130312919617e-01" purity="1.6139356791973114e-01" nType="-99"/>
      </Node>
    </BinaryTree>
    <BinaryTree type="DecisionTree" boostWeight="1.0000000000000000e+00" itree="38">
      <Node pos="s" depth="0" NCoef="0" IVar="2" Cut="3.2194494628906250e+02" cType="1" res="-7.4081326602026820e-04" rms="2.5978818535804749e-01" purity="4.9826690554618835e-01" nType="0">
        <Node pos="l" depth="1" NCoef="0" IVar="0" Cut="1.5860625000000000e+03" cType="1" res="2.3886647075414658e-02" rms="2.7481594681739807e-01" purity="2.0280314981937408e-01" nType="0">
          <Node pos="l" depth="2" NCoef="0" IVar="3" Cut="2.1737747192382812e+02" cType="1" res="-1.7189759528264403e-03" rms="2.1178604662418365e-01" purity="4.8303075134754181e-02" nType="0">
            <Node pos="l" depth="3" NCoef="0" IVar="-1" Cut="0.0000000000000000e+00" cType="1" res="4.7808833420276642e-02" rms="2.4407693743705750e-01" purity="6.6591650247573853e-02" nType="-99"/>
            <Node pos="r" depth="3" NCoef="0" IVar="-1" Cut="0.0000000000000000e+00" cType="1" res="-3.2285656780004501e-02" rms="1.8768967688083649e-01" purity="3.6961540579795837e-02" nType="-99"/>
          </Node>
          <Node pos="r" depth="2" NCoef="0" IVar="-1" Cut="0.0000000000000000e+00" cType="1" res="6.1817657202482224e-02" rms="3.6310127377510071e-01" purity="5.0567066669464111e-01" nType="-99"/>
        </Node>
        <Node pos="r" depth="1" NCoef="0" IVar="0" Cut="2.8837136230468750e+03" cType="1" res="-3.6001678090542555e-03" rms="2.5783431529998779e-01" purity="5.3257149457931519e-01" nType="0">
          <Node pos="l" depth="2" NCoef="0" IVar="2" Cut="7.9970642089843750e+02" cType="1" res="-8.0128777772188187e-03" rms="2.7689084410667419e-01" purity="4.2894721031188965e-01" nType="0">
            <Node pos="l" depth="3" NCoef="0" IVar="-1" Cut="0.0000000000000000e+00" cType="1" res="-6.5961712971329689e-03" rms="2.7191835641860962e-01" purity="4.2877718806266785e-01" nType="-99"/>
            <Node pos="r" depth="3" NCoef="0" IVar="-1" Cut="0.0000000000000000e+00" cType="1" res="-5.9503503143787384e-02" rms="3.6239370703697205e-01" purity="4.3259948492050171e-01" nType="-99"/>
          </Node>
          <Node pos="r" depth="2" NCoef="0" IVar="7" Cut="-6.6226935386657715e-01" cType="1" res="1.5022201463580132e-02" rms="1.5180936455726624e-01" purity="9.6988302469253540e-01" nType="0">
            <Node pos="l" depth="3" NCoef="0" IVar="-1" Cut="0.0000000000000000e+00" cType="1" res="-2.2411602549254894e-03" rms="2.0258590579032898e-01" purity="9.3876761198043823e-01" nType="-99"/>
            <Node pos="r" depth="3" NCoef="0" IVar="-1" Cut="0.0000000000000000e+00" cType="1" res="4.9725402146577835e-02" rms="1.4084891974925995e-01" purity="9.7533774375915527e-01" nType="-99"/>
          </Node>
        </Node>
      </Node>
    </BinaryTree>
    <BinaryTree type="DecisionTree" boostWeight="1.0000000000000000e+00" itree="39">
      <Node pos="s" depth="0" NCoef="0" IVar="7" Cut="1.2004952430725098e+00" cType="1" res="3.1077684834599495e-03" rms="2.5570762157440186e-01" purity="5.0067150592803955e-01" nType="0">
        <Node pos="l" depth="1" NCoef="0" IVar="7" Cut="-1.8461946249008179e+00" cType="1" res="5.9181167744100094e-03" rms="2.5628358125686646e-01" purity="5.3590428829193115e-01" nType="0">
          <Node pos="l" depth="2" NCoef="0" IVar="-1" Cut="0.0000000000000000e+00" cType="1" res="-6.6974654793739319e-02" rms="1.6329856216907501e-01" purity="5.8867331594228745e-02" nType="-99"/>
          <Node pos="r" depth="2" NCoef="0" IVar="0" Cut="1.8945773925781250e+03" cType="1" res="7.5610112398862839e-03" rms="2.5922587513923645e-01" purity="5.5529499053955078e-01" nType="0">
            <Node pos="l" depth="3" NCoef="0" IVar="-1" Cut="0.0000000000000000e+00" cType="1" res="-3.9111790247261524e-03" rms="2.5479310750961304e-01" purity="9.5771171152591705e-02" nType="-99"/>
            <Node pos="r" depth="3" NCoef="0" IVar="-1" Cut="0.0000000000000000e+00" cType="1" res="1.8562827259302139e-02" rms="2.6185607910156250e-01" purity="8.5404789447784424e-01" nType="-99"/>
          </Node>
        </Node>
        <Node pos="r" depth="1" NCoef="0" IVar="3" Cut="2.6920495605468750e+02" cType="1" res="-2.0397296175360680e-02" rms="2.4960260093212128e-01" purity="2.0599319040775299e-01" nType="0">
          <Node pos="l" depth="2" NCoef="0" IVar="5" Cut="1.2140526580810547e+02" cType="1" res="8.8228452950716019e-03" rms="2.2183473408222198e-01" purity="1.1247003823518753e-01" nType="0">
            <Node pos="l" depth="3" NCoef="0" IVar="-1" Cut="0.0000000000000000e+00" cType="1" res="-2.5569023564457893e-02" rms="1.4646941423416138e-01" purity="3.1511787325143814e-02" nType="-99"/>
            <Node pos="r" depth="3" NCoef="0" IVar="-1" Cut="0.0000000000000000e+00" cType="1" res="3.2423295080661774e-02" rms="2.7564406394958496e-01" purity="1.9208292663097382e-01" nType="-99"/>
          </Node>
          <Node pos="r" depth="2" NCoef="0" IVar="-1" Cut="0.0000000000000000e+00" cType="1" res="-6.4062125980854034e-02" rms="2.7426445484161377e-01" purity="3.1332799792289734e-01" nType="-99"/>
        </Node>
      </Node>
    </BinaryTree>
    <BinaryTree type="DecisionTree" boostWeight="1.0000000000000000e+00" itree="40">
      <Node pos="s" depth="0" NCoef="0" IVar="2" Cut="6.5817657470703125e+02" cType="1" res="-2.7676280587911606e-03" rms="2.5902932882308960e-01" purity="4.9784642457962036e-01" nType="0">
        <Node pos="l" depth="1" NCoef="0" IVar="9" Cut="-1.1981879472732544e+00" cType="1" res="2.4722577072679996e-03" rms="2.5885817408561707e-01" purity="4.4241312146186829e-01" nType="0">
          <Node pos="l" depth="2" NCoef="0" IVar="9" Cut="-2.0357916355133057e+00" cType="1" res="2.1649610251188278e-02" rms="2.7786341309547424e-01" purity="3.5096529126167297e-01" nType="0">
            <Node pos="l" depth="3" NCoef="0" IVar="-1" Cut="0.0000000000000000e+00" cType="1" res="-2.6726981624960899e-02" rms="2.3279947042465210e-01" purity="1.8608847260475159e-01" nType="-99"/>
            <Node pos="r" depth="3" NCoef="0" IVar="-1" Cut="0.0000000000000000e+00" cType="1" res="4.3426021933555603e-02" rms="2.8877317905426025e-01" purity="3.9929768443107605e-01" nType="-99"/>
          </Node>
          <Node pos="r" depth="2" NCoef="0" IVar="0" Cut="2.2945598144531250e+03" cType="1" res="-9.8884454928338528e-04" rms="2.5512391328811646e-01" purity="4.5891752839088440e-01" nType="0">
            <Node pos="l" depth="3" NCoef="0" IVar="-1" Cut="0.0000000000000000e+00" cType="1" res="-9.2230876907706261e-03" rms="2.8610849380493164e-01" purity="2.2709274291992188e-01" nType="-99"/>
            <Node pos="r" depth="3" NCoef="0" IVar="-1" Cut="0.0000000000000000e+00" cType="1" res="3.1890284270048141e-02" rms="1.6831120848655701e-01" purity="9.6299850940704346e-01" nType="-99"/>
          </Node>
        </Node>
        <Node pos="r" depth="1" NCoef="0" IVar="0" Cut="2.4998735351562500e+03" cType="1" res="-2.1544780582189560e-02" rms="2.5877186655998230e-01" purity="6.9649189710617065e-01" nType="0">
          <Node pos="l" depth="2" NCoef="0" IVar="1" Cut="4.1317481547594070e-02" cType="1" res="-5.9273000806570053e-02" rms="3.0703723430633545e-01" purity="2.3425081372261047e-01" nType="0">
            <Node pos="l" depth="3" NCoef="0" IVar="-1" Cut="0.0000000000000000e+00" cType="1" res="-1.8762176856398582e-02" rms="2.4630321562290192e-01" purity="9.8030433058738708e-02" nType="-99"/>
            <Node pos="r" depth="3" NCoef="0" IVar="-1" Cut="0.0000000000000000e+00" cType="1" res="-8.0573707818984985e-02" rms="3.7156119942665100e-01" purity="4.4415211677551270e-01" nType="-99"/>
          </Node>
          <Node pos="r" depth="2" NCoef="0" IVar="0" Cut="2.9286154785156250e+03" cType="1" res="-3.3507349435240030e-03" rms="2.2973020374774933e-01" purity="9.1940289735794067e-01" nType="0">
            <Node pos="l" depth="3" NCoef="0" IVar="-1" Cut="0.0000000000000000e+00" cType="1" res="-2.7132119983434677e-02" rms="2.9688608646392822e-01" purity="8.4870904684066772e-01" nType="-99"/>
            <Node pos="r" depth="3" NCoef="0" IVar="-1" Cut="0.0000000000000000e+00" cType="1" res="1.4069142751395702e-02" rms="1.8555565178394318e-01" purity="9.5557641983032227e-01" nType="-99"/>
          </Node>
        </Node>
      </Node>
    </BinaryTree>
    <BinaryTree type="DecisionTree" boostWeight="1.0000000000000000e+00" itree="41">
      <Node pos="s" depth="0" NCoef="0" IVar="2" Cut="9.3063476562500000e+02" cType="1" res="-2.1060397848486900e-03" rms="2.6303753256797791e-01" purity="5.0029945373535156e-01" nType="0">
        <Node pos="l" depth="1" NCoef="0" IVar="7" Cut="1.7330718040466309e+00" cType="1" res="-1.6532521112821996e-04" rms="2.5985941290855408e-01" purity="4.9208304286003113e-01" nType="0">
          <Node pos="l" depth="2" NCoef="0" IVar="6" Cut="1.5051186084747314e+00" cType="1" res="1.4874282060191035e-03" rms="2.6293817162513733e-01" purity="5.0998550653457642e-01" nType="0">
            <Node pos="l" depth="3" NCoef="0" IVar="-1" Cut="0.0000000000000000e+00" cType="1" res="4.2468011379241943e-03" rms="2.6719120144844055e-01" purity="5.3355002403259277e-01" nType="-99"/>
            <Node pos="r" depth="3" NCoef="0" IVar="-1" Cut="0.0000000000000000e+00" cType="1" res="-7.4194781482219696e-02" rms="1.5409295260906219e-01" purity="4.6104624867439270e-02" nType="-99"/>
          </Node>
          <Node pos="r" depth="2" NCoef="0" IVar="-1" Cut="0.0000000000000000e+00" cType="1" res="-7.6208926737308502e-02" rms="1.6496363282203674e-01" purity="6.1959628015756607e-02" nType="-99"/>
        </Node>
        <Node pos="r" depth="1" NCoef="0" IVar="-1" Cut="0.0000000000000000e+00" cType="1" res="-6.4564317464828491e-02" rms="3.3846881985664368e-01" purity="7.4118101596832275e-01" nType="-99"/>
      </Node>
    </BinaryTree>
    <BinaryTree type="DecisionTree" boostWeight="1.0000000000000000e+00" itree="42">
      <Node pos="s" depth="0" NCoef="0" IVar="9" Cut="-4.0041327476501465e-01" cType="1" res="-2.7919108979403973e-03" rms="2.5580942630767822e-01" purity="4.9835601449012756e-01" nType="0">
        <Node pos="l" depth="1" NCoef="0" IVar="6" Cut="-2.7560690045356750e-01" cType="1" res="6.8643847480416298e-03" rms="2.6583299040794373e-01" purity="4.8410230875015259e-01" nType="0">
          <Node pos="l" depth="2" NCoef="0" IVar="4" Cut="2.2285621643066406e+02" cType="1" res="-6.8483031354844570e-03" rms="2.6780226826667786e-01" purity="4.0761184692382812e-01" nType="0">
            <Node pos="l" depth="3" NCoef="0" IVar="-1" Cut="0.0000000000000000e+00" cType="1" res="1.1410779319703579e-02" rms="2.5972706079483032e-01" purity="1.8712720274925232e-01" nType="-99"/>
            <Node pos="r" depth="3" NCoef="0" IVar="-1" Cut="0.0000000000000000e+00" cType="1" res="-3.2131008803844452e-02" rms="2.7700090408325195e-01" purity="6.9984936714172363e-01" nType="-99"/>
          </Node>
          <Node pos="r" depth="2" NCoef="0" IVar="7" Cut="3.9923551678657532e-01" cType="1" res="1.5568647533655167e-02" rms="2.6420634984970093e-01" purity="5.3265541791915894e-01" nType="0">
            <Node pos="l" depth="3" NCoef="0" IVar="-1" Cut="0.0000000000000000e+00" cType="1" res="1.3711840845644474e-02" rms="2.6119536161422729e-01" purity="5.3164076805114746e-01" nType="-99"/>
            <Node pos="r" depth="3" NCoef="0" IVar="-1" Cut="0.0000000000000000e+00" cType="1" res="4.0124066174030304e-02" rms="2.7114707231521606e-01" purity="5.3528064489364624e-01" nType="-99"/>
          </Node>
        </Node>
        <Node pos="r" depth="1" NCoef="0" IVar="0" Cut="2.1988310546875000e+03" cType="1" res="-8.3724502474069595e-03" rms="2.4966312944889069e-01" purity="5.0659346580505371e-01" nType="0">
          <Node pos="l" depth="2" NCoef="0" IVar="1" Cut="7.9184792935848236e-02" cType="1" res="-1.8230723217129707e-02" rms="2.6999330520629883e-01" purity="1.6597683727741241e-01" nType="0">
            <Node pos="l" depth="3" NCoef="0" IVar="-1" Cut="0.0000000000000000e+00" cType="1" res="-1.4601809903979301e-02" rms="2.2606837749481201e-01" purity="8.2800656557083130e-02" nType="-99"/>
            <Node pos="r" depth="3" NCoef="0" IVar="-1" Cut="0.0000000000000000e+00" cType="1" res="-3.1619574874639511e-02" rms="3.6220702528953552e-01" purity="3.9192387461662292e-01" nType="-99"/>
          </Node>
          <Node pos="r" depth="2" NCoef="0" IVar="7" Cut="-9.3114441633224487e-01" cType="1" res="3.3827458973973989e-03" rms="2.2244110703468323e-01" purity="9.1275137662887573e-01" nType="0">
            <Node pos="l" depth="3" NCoef="0" IVar="-1" Cut="0.0000000000000000e+00" cType="1" res="-4.8038262873888016e-02" rms="3.0208644270896912e-01" purity="7.8538513183593750e-01" nType="-99"/>
            <Node pos="r" depth="3" NCoef="0" IVar="-1" Cut="0.0000000000000000e+00" cType="1" res="1.5052569098770618e-02" rms="2.1227094531059265e-01" purity="9.2555582523345947e-01" nType="-99"/>
          </Node>
        </Node>
      </Node>
    </BinaryTree>
    <BinaryTree type="DecisionTree" boostWeight="1.0000000000000000e+00" itree="43">
      <Node pos="s" depth="0" NCoef="0" IVar="0" Cut="2.0562653808593750e+03" cType="1" res="-4.6974375436548144e-05" rms="2.5756898522377014e-01" purity="5.0442469120025635e-01" nType="0">
        <Node pos="l" depth="1" NCoef="0" IVar="2" Cut="4.3101428222656250e+02" cType="1" res="-8.8421208783984184e-03" rms="2.6408061385154724e-01" purity="1.2723249197006226e-01" nType="0">
          <Node pos="l" depth="2" NCoef="0" IVar="0" Cut="1.6186348876953125e+03" cType="1" res="4.8868781886994839e-03" rms="2.7941536903381348e-01" purity="1.5456309914588928e-01" nType="0">
            <Node pos="l" depth="3" NCoef="0" IVar="-1" Cut="0.0000000000000000e+00" cType="1" res="-1.7745932564139366e-02" rms="1.8202017247676849e-01" purity="3.5647653043270111e-02" nType="-99"/>
            <Node pos="r" depth="3" NCoef="0" IVar="-1" Cut="0.0000000000000000e+00" cType="1" res="1.8698638305068016e-02" rms="3.9433541893959045e-01" purity="3.6121839284896851e-01" nType="-99"/>
          </Node>
          <Node pos="r" depth="2" NCoef="0" IVar="4" Cut="2.2824166870117188e+02" cType="1" res="-2.4428062140941620e-02" rms="2.4458129703998566e-01" purity="9.6205227077007294e-02" nType="0">
            <Node pos="l" depth="3" NCoef="0" IVar="-1" Cut="0.0000000000000000e+00" cType="1" res="-2.6148870587348938e-02" rms="2.1930567920207977e-01" purity="7.3744475841522217e-02" nType="-99"/>
            <Node pos="r" depth="3" NCoef="0" IVar="-1" Cut="0.0000000000000000e+00" cType="1" res="-5.7763911783695221e-02" rms="3.5130137205123901e-01" purity="2.2472594678401947e-01" nType="-99"/>
          </Node>
        </Node>
        <Node pos="r" depth="1" NCoef="0" IVar="5" Cut="1.3391583251953125e+02" cType="1" res="8.6804050952196121e-03" rms="2.5063565373420715e-01" purity="8.7871050834655762e-01" nType="0">
          <Node pos="l" depth="2" NCoef="0" IVar="3" Cut="3.8954730224609375e+02" cType="1" res="3.8765236735343933e-02" rms="3.7799891829490662e-01" purity="5.7257276773452759e-01" nType="0">
            <Node pos="l" depth="3" NCoef="0" IVar="-1" Cut="0.0000000000000000e+00" cType="1" res="4.5766104012727737e-02" rms="3.8355958461761475e-01" purity="5.7404381036758423e-01" nType="-99"/>
            <Node pos="r" depth="3" NCoef="0" IVar="-1" Cut="0.0000000000000000e+00" cType="1" res="6.2714912928640842e-03" rms="3.7037438154220581e-01" purity="5.7122939825057983e-01" nType="-99"/>
          </Node>
          <Node pos="r" depth="2" NCoef="0" IVar="8" Cut="1.1945401430130005e+00" cType="1" res="4.7295950353145599e-03" rms="2.2840633988380432e-01" purity="9.1891318559646606e-01" nType="0">
            <Node pos="l" depth="3" NCoef="0" IVar="-1" Cut="0.0000000000000000e+00" cType="1" res="1.3758093118667603e-02" rms="2.2121292352676392e-01" purity="9.2522990703582764e-01" nType="-99"/>
            <Node pos="r" depth="3" NCoef="0" IVar="-1" Cut="0.0000000000000000e+00" cType="1" res="-4.4703051447868347e-02" rms="3.0669432878494263e-01" purity="8.3393019437789917e-01" nType="-99"/>
          </Node>
        </Node>
      </Node>
    </BinaryTree>
    <BinaryTree type="DecisionTree" boostWeight="1.0000000000000000e+00" itree="44">
      <Node pos="s" depth="0" NCoef="0" IVar="9" Cut="-1.7321429252624512e+00" cType="1" res="-1.4109413605183363e-03" rms="2.6129573583602905e-01" purity="5.0513762235641479e-01" nType="0">
        <Node pos="l" depth="1" NCoef="0" IVar="5" Cut="1.2629969787597656e+02" cType="1" res="-3.1740538775920868e-02" rms="3.2086458802223206e-01" purity="2.5897806882858276e-01" nType="0">
          <Node pos="l" depth="2" NCoef="0" IVar="-1" Cut="0.0000000000000000e+00" cType="1" res="2.6071193860843778e-04" rms="2.3478104174137115e-01" purity="1.0942102223634720e-01" nType="-99"/>
          <Node pos="r" depth="2" NCoef="0" IVar="-1" Cut="0.0000000000000000e+00" cType="1" res="-6.3008658587932587e-02" rms="3.8073250651359558e-01" purity="3.9588597416877747e-01" nType="-99"/>
        </Node>
        <Node pos="r" depth="1" NCoef="0" IVar="6" Cut="-1.5940630435943604e+00" cType="1" res="4.8706372035667300e-04" rms="2.5699052214622498e-01" purity="5.2054208517074585e-01" nType="0">
          <Node pos="l" depth="2" NCoef="0" IVar="-1" Cut="0.0000000000000000e+00" cType="1" res="-8.4771513938903809e-02" rms="1.6287879645824432e-01" purity="4.0021196007728577e-02" nType="-99"/>
          <Node pos="r" depth="2" NCoef="0" IVar="1" Cut="4.2614258825778961e-02" cType="1" res="2.0660085137933493e-03" rms="2.5994449853897095e-01" purity="5.3989452123641968e-01" nType="0">
            <Node pos="l" depth="3" NCoef="0" IVar="-1" Cut="0.0000000000000000e+00" cType="1" res="2.2622982040047646e-02" rms="2.5145098567008972e-01" purity="2.1884095668792725e-01" nType="-99"/>
            <Node pos="r" depth="3" NCoef="0" IVar="-1" Cut="0.0000000000000000e+00" cType="1" res="-5.4513043724000454e-03" rms="2.6366582512855530e-01" purity="6.9217765331268311e-01" nType="-99"/>
          </Node>
        </Node>
      </Node>
    </BinaryTree>
    <BinaryTree type="DecisionTree" boostWeight="1.0000000000000000e+00" itree="45">
      <Node pos="s" depth="0" NCoef="0" IVar="8" Cut="-1.7333199977874756e+00" cType="1" res="1.3783914037048817e-03" rms="2.5586682558059692e-01" purity="5.0301796197891235e-01" nType="0">
        <Node pos="l" depth="1" NCoef="0" IVar="-1" Cut="0.0000000000000000e+00" cType="1" res="-6.1339486390352249e-02" rms="2.3271931707859039e-01" purity="1.1757273226976395e-01" nType="-99"/>
        <Node pos="r" depth="1" NCoef="0" IVar="8" Cut="1.9358844757080078e+00" cType="1" res="3.2536122016608715e-03" rms="2.5682950019836426e-01" purity="5.2234882116317749e-01" nType="0">
          <Node pos="l" depth="2" NCoef="0" IVar="7" Cut="1.7322584390640259e+00" cType="1" res="4.5037833042442799e-03" rms="2.5773674249649048e-01" purity="5.3627103567123413e-01" nType="0">
            <Node pos="l" depth="3" NCoef="0" IVar="-1" Cut="0.0000000000000000e+00" cType="1" res="8.3977850154042244e-03" rms="2.6069730520248413e-01" purity="5.5464351177215576e-01" nType="-99"/>
            <Node pos="r" depth="3" NCoef="0" IVar="-1" Cut="0.0000000000000000e+00" cType="1" res="-6.3362382352352142e-02" rms="1.6382583975791931e-01" purity="7.8166872262954712e-02" nType="-99"/>
          </Node>
          <Node pos="r" depth="2" NCoef="0" IVar="-1" Cut="0.0000000000000000e+00" cType="1" res="-6.0982860624790192e-02" rms="2.2486771643161774e-01" purity="1.0623326897621155e-01" nType="-99"/>
        </Node>
      </Node>
    </BinaryTree>
    <BinaryTree type="DecisionTree" boostWeight="1.0000000000000000e+00" itree="46">
      <Node pos="s" depth="0" NCoef="0" IVar="6" Cut="-1.1415117979049683e+00" cType="1" res="2.7841238770633936e-03" rms="2.6273515820503235e-01" purity="5.0260043144226074e-01" nType="0">
        <Node pos="l" depth="1" NCoef="0" IVar="0" Cut="1.7564145507812500e+03" cType="1" res="-2.3551706224679947e-02" rms="2.1401777863502502e-01" purity="1.4119555056095123e-01" nType="0">
          <Node pos="l" depth="2" NCoef="0" IVar="0" Cut="1.5188480224609375e+03" cType="1" res="-8.4410589188337326e-03" rms="1.2739983201026917e-01" purity="1.9580723717808723e-02" nType="0">
            <Node pos="l" depth="3" NCoef="0" IVar="-1" Cut="0.0000000000000000e+00" cType="1" res="-8.3511531352996826e-02" rms="6.2103360891342163e-02" purity="3.7687437143176794e-03" nType="-99"/>
            <Node pos="r" depth="3" NCoef="0" IVar="-1" Cut="0.0000000000000000e+00" cType="1" res="-8.2557154819369316e-03" rms="1.6141119599342346e-01" purity="3.2232228666543961e-02" nType="-99"/>
          </Node>
          <Node pos="r" depth="2" NCoef="0" IVar="-1" Cut="0.0000000000000000e+00" cType="1" res="-4.6795420348644257e-02" rms="3.0679821968078613e-01" purity="3.4409195184707642e-01" nType="-99"/>
        </Node>
        <Node pos="r" depth="1" NCoef="0" IVar="3" Cut="2.7448220825195312e+02" cType="1" res="5.6557985953986645e-03" rms="2.6735460758209229e-01" purity="5.4200822114944458e-01" nType="0">
          <Node pos="l" depth="2" NCoef="0" IVar="5" Cut="1.2356447601318359e+02" cType="1" res="1.7704954370856285e-02" rms="2.7556571364402771e-01" purity="2.2710205614566803e-01" nType="0">
            <Node pos="l" depth="3" NCoef="0" IVar="-1" Cut="0.0000000000000000e+00" cType="1" res="1.9773273379541934e-04" rms="2.1829529106616974e-01" purity="6.8155184388160706e-02" nType="-99"/>
            <Node pos="r" depth="3" NCoef="0" IVar="-1" Cut="0.0000000000000000e+00" cType="1" res="3.6578793078660965e-02" rms="3.1594946980476379e-01" purity="3.6414399743080139e-01" nType="-99"/>
          </Node>
          <Node pos="r" depth="2" NCoef="0" IVar="8" Cut="-1.4672673940658569e+00" cType="1" res="-1.1850462033180520e-04" rms="2.6313340663909912e-01" purity="6.9292032718658447e-01" nType="0">
            <Node pos="l" depth="3" NCoef="0" IVar="-1" Cut="0.0000000000000000e+00" cType="1" res="-4.4304538518190384e-02" rms="3.1702923774719238e-01" purity="3.4815496206283569e-01" nType="-99"/>
            <Node pos="r" depth="3" NCoef="0" IVar="-1" Cut="0.0000000000000000e+00" cType="1" res="3.1342769507318735e-03" rms="2.5942128896713257e-01" purity="7.1327996253967285e-01" nType="-99"/>
          </Node>
        </Node>
      </Node>
    </BinaryTree>
    <BinaryTree type="DecisionTree" boostWeight="1.0000000000000000e+00" itree="47">
      <Node pos="s" depth="0" NCoef="0" IVar="6" Cut="4.7662848234176636e-01" cType="1" res="-2.7909650816582143e-04" rms="2.5602629780769348e-01" purity="4.9723309278488159e-01" nType="0">
        <Node pos="l" depth="1" NCoef="0" IVar="2" Cut="7.3828741455078125e+02" cType="1" res="5.2555827423930168e-03" rms="2.6189741492271423e-01" purity="5.5197447538375854e-01" nType="0">
          <Node pos="l" depth="2" NCoef="0" IVar="0" Cut="1.5609227294921875e+03" cType="1" res="8.5297562181949615e-03" rms="2.6107186079025269e-01" purity="5.1550990343093872e-01" nType="0">
            <Node pos="l" depth="3" NCoef="0" IVar="-1" Cut="0.0000000000000000e+00" cType="1" res="-3.9278097450733185e-02" rms="1.5108869969844818e-01" purity="2.3720163851976395e-02" nType="-99"/>
            <Node pos="r" depth="3" NCoef="0" IVar="-1" Cut="0.0000000000000000e+00" cType="1" res="1.8022829666733742e-02" rms="2.8221648931503296e-01" purity="6.4188790321350098e-01" nType="-99"/>
          </Node>
          <Node pos="r" depth="2" NCoef="0" IVar="4" Cut="2.2343537902832031e+02" cType="1" res="-1.4146003872156143e-02" rms="2.6591098308563232e-01" purity="7.6805096864700317e-01" nType="0">
            <Node pos="l" depth="3" NCoef="0" IVar="-1" Cut="0.0000000000000000e+00" cType="1" res="-4.3965861201286316e-02" rms="3.3254063129425049e-01" purity="4.2585659027099609e-01" nType="-99"/>
            <Node pos="r" depth="3" NCoef="0" IVar="-1" Cut="0.0000000000000000e+00" cType="1" res="7.2666443884372711e-04" rms="2.3029503226280212e-01" purity="9.1363191604614258e-01" nType="-99"/>
          </Node>
        </Node>
        <Node pos="r" depth="1" NCoef="0" IVar="2" Cut="3.1330593872070312e+02" cType="1" res="-1.3858706690371037e-02" rms="2.4047693610191345e-01" purity="3.6292231082916260e-01" nType="0">
          <Node pos="l" depth="2" NCoef="0" IVar="-1" Cut="0.0000000000000000e+00" cType="1" res="2.4487271904945374e-02" rms="2.5413230061531067e-01" purity="1.6592423617839813e-01" nType="-99"/>
          <Node pos="r" depth="2" NCoef="0" IVar="0" Cut="2.3649699707031250e+03" cType="1" res="-1.7363158985972404e-02" rms="2.3848506808280945e-01" purity="3.8752180337905884e-01" nType="0">
            <Node pos="l" depth="3" NCoef="0" IVar="-1" Cut="0.0000000000000000e+00" cType="1" res="-3.5889599472284317e-02" rms="2.4369885027408600e-01" purity="1.6545978188514709e-01" nType="-99"/>
            <Node pos="r" depth="3" NCoef="0" IVar="-1" Cut="0.0000000000000000e+00" cType="1" res="-8.6298852693289518e-05" rms="2.2482642531394958e-01" purity="9.0872812271118164e-01" nType="-99"/>
          </Node>
        </Node>
      </Node>
    </BinaryTree>
    <BinaryTree type="DecisionTree" boostWeight="1.0000000000000000e+00" itree="48">
      <Node pos="s" depth="0" NCoef="0" IVar="2" Cut="6.5817657470703125e+02" cType="1" res="-1.2786897132173181e-03" rms="2.5626125931739807e-01" purity="5.0206285715103149e-01" nType="0">
        <Node pos="l" depth="1" NCoef="0" IVar="0" Cut="2.0108001708984375e+03" cType="1" res="3.1207432039082050e-03" rms="2.5611817836761475e-01" purity="4.4712221622467041e-01" nType="0">
          <Node pos="l" depth="2" NCoef="0" IVar="1" Cut="1.3199113309383392e-01" cType="1" res="-4.6575539745390415e-03" rms="2.6502880454063416e-01" purity="1.1885261535644531e-01" nType="0">
            <Node pos="l" depth="3" NCoef="0" IVar="-1" Cut="0.0000000000000000e+00" cType="1" res="5.6306883925572038e-04" rms="2.4656808376312256e-01" purity="9.3170255422592163e-02" nType="-99"/>
            <Node pos="r" depth="3" NCoef="0" IVar="-1" Cut="0.0000000000000000e+00" cType="1" res="-3.4465499222278595e-02" rms="3.9265248179435730e-01" purity="3.5337844491004944e-01" nType="-99"/>
          </Node>
          <Node pos="r" depth="2" NCoef="0" IVar="0" Cut="2.1346838378906250e+03" cType="1" res="1.3910734094679356e-02" rms="2.4280528724193573e-01" purity="9.0249520540237427e-01" nType="0">
            <Node pos="l" depth="3" NCoef="0" IVar="-1" Cut="0.0000000000000000e+00" cType="1" res="3.8785766810178757e-02" rms="3.8746637105941772e-01" purity="6.9048625230789185e-01" nType="-99"/>
            <Node pos="r" depth="3" NCoef="0" IVar="-1" Cut="0.0000000000000000e+00" cType="1" res="1.2266030535101891e-02" rms="2.1114294230937958e-01" purity="9.3492013216018677e-01" nType="-99"/>
          </Node>
        </Node>
        <Node pos="r" depth="1" NCoef="0" IVar="0" Cut="2.1493395996093750e+03" cType="1" res="-1.7073525115847588e-02" rms="2.5615239143371582e-01" purity="6.9931054115295410e-01" nType="0">
          <Node pos="l" depth="2" NCoef="0" IVar="-1" Cut="0.0000000000000000e+00" cType="1" res="-9.0199328958988190e-02" rms="2.1361130475997925e-01" purity="4.2821470648050308e-02" nType="-99"/>
          <Node pos="r" depth="2" NCoef="0" IVar="0" Cut="2.9960520019531250e+03" cType="1" res="-3.6962882149964571e-03" rms="2.6286640763282776e-01" purity="8.4597569704055786e-01" nType="0">
            <Node pos="l" depth="3" NCoef="0" IVar="-1" Cut="0.0000000000000000e+00" cType="1" res="-2.0402489230036736e-02" rms="3.2519811391830444e-01" purity="7.3480218648910522e-01" nType="-99"/>
            <Node pos="r" depth="3" NCoef="0" IVar="-1" Cut="0.0000000000000000e+00" cType="1" res="3.1389430165290833e-02" rms="1.7563053965568542e-01" purity="9.6026301383972168e-01" nType="-99"/>
          </Node>
        </Node>
      </Node>
    </BinaryTree>
    <BinaryTree type="DecisionTree" boostWeight="1.0000000000000000e+00" itree="49">
      <Node pos="s" depth="0" NCoef="0" IVar="6" Cut="-1.1420010328292847e+00" cType="1" res="-1.4962016139179468e-03" rms="2.5966405868530273e-01" purity="4.9330547451972961e-01" nType="0">
        <Node pos="l" depth="1" NCoef="0" IVar="5" Cut="1.6865669250488281e+02" cType="1" res="-2.0405447110533714e-02" rms="2.1705272793769836e-01" purity="1.3807915151119232e-01" nType="0">
          <Node pos="l" depth="2" NCoef="0" IVar="2" Cut="4.0601733398437500e+02" cType="1" res="-9.2971222475171089e-03" rms="1.7511288821697235e-01" purity="4.4081009924411774e-02" nType="0">
            <Node pos="l" depth="3" NCoef="0" IVar="-1" Cut="0.0000000000000000e+00" cType="1" res="7.0935944095253944e-03" rms="1.7856928706169128e-01" purity="3.9195522665977478e-02" nType="-99"/>
            <Node pos="r" depth="3" NCoef="0" IVar="-1" Cut="0.0000000000000000e+00" cType="1" res="-4.2601346969604492e-02" rms="1.7224067449569702e-01" purity="4.7452971339225769e-02" nType="-99"/>
          </Node>
          <Node pos="r" depth="2" NCoef="0" IVar="-1" Cut="0.0000000000000000e+00" cType="1" res="-5.2848640829324722e-02" rms="3.0534669756889343e-01" purity="4.0960767865180969e-01" nType="-99"/>
        </Node>
        <Node pos="r" depth="1" NCoef="0" IVar="9" Cut="4.0036121010780334e-01" cType="1" res="5.7353597367182374e-04" rms="2.6382842659950256e-01" purity="5.3218728303909302e-01" nType="0">
          <Node pos="l" depth="2" NCoef="0" IVar="0" Cut="2.3322263183593750e+03" cType="1" res="-4.5719477348029613e-03" rms="2.6230037212371826e-01" purity="5.5114328861236572e-01" nType="0">
            <Node pos="l" depth="3" NCoef="0" IVar="-1" Cut="0.0000000000000000e+00" cType="1" res="-1.5222451649606228e-02" rms="3.0065798759460449e-01" purity="2.5739756226539612e-01" nType="-99"/>
            <Node pos="r" depth="3" NCoef="0" IVar="-1" Cut="0.0000000000000000e+00" cType="1" res="1.4794661663472652e-02" rms="2.0014856755733490e-01" purity="9.3900728225708008e-01" nType="-99"/>
          </Node>
          <Node pos="r" depth="2" NCoef="0" IVar="2" Cut="5.2570196533203125e+02" cType="1" res="9.8416609689593315e-03" rms="2.6630800962448120e-01" purity="4.9804341793060303e-01" nType="0">
            <Node pos="l" depth="3" NCoef="0" IVar="-1" Cut="0.0000000000000000e+00" cType="1" res="3.0091656371951103e-02" rms="2.7189633250236511e-01" purity="3.8801136612892151e-01" nType="-99"/>
            <Node pos="r" depth="3" NCoef="0" IVar="-1" Cut="0.0000000000000000e+00" cType="1" res="-6.1656115576624870e-03" rms="2.5858551263809204e-01" purity="6.3347744941711426e-01" nType="-99"/>
          </Node>
        </Node>
      </Node>
    </BinaryTree>
    <BinaryTree type="DecisionTree" boostWeight="1.0000000000000000e+00" itree="50">
      <Node pos="s" depth="0" NCoef="0" IVar="6" Cut="4.3406167626380920e-01" cType="1" res="6.7489698994904757e-04" rms="2.6215189695358276e-01" purity="5.0675469636917114e-01" nType="0">
        <Node pos="l" depth="1" NCoef="0" IVar="8" Cut="1.4664368629455566e+00" cType="1" res="6.1822189018130302e-03" rms="2.6375311613082886e-01" purity="5.5536323785781860e-01" nType="0">
          <Node pos="l" depth="2" NCoef="0" IVar="7" Cut="4.0451842546463013e-01" cType="1" res="8.9209806174039841e-03" rms="2.6334917545318604e-01" purity="5.8090376853942871e-01" nType="0">
            <Node pos="l" depth="3" NCoef="0" IVar="-1" Cut="0.0000000000000000e+00" cType="1" res="2.3442599922418594e-02" rms="2.6132524013519287e-01" purity="6.2380385398864746e-01" nType="-99"/>
            <Node pos="r" depth="3" NCoef="0" IVar="-1" Cut="0.0000000000000000e+00" cType="1" res="-8.7149012833833694e-03" rms="2.6706585288047791e-01" purity="4.8831370472908020e-01" nType="-99"/>
          </Node>
          <Node pos="r" depth="2" NCoef="0" IVar="-1" Cut="0.0000000000000000e+00" cType="1" res="-4.2884018272161484e-02" rms="2.6639077067375183e-01" purity="2.3221607506275177e-01" nType="-99"/>
        </Node>
        <Node pos="r" depth="1" NCoef="0" IVar="7" Cut="-9.3245929479598999e-01" cType="1" res="-1.2092349119484425e-02" rms="2.5794994831085205e-01" purity="3.9406877756118774e-01" nType="0">
          <Node pos="l" depth="2" NCoef="0" IVar="3" Cut="2.6641613769531250e+02" cType="1" res="-3.7133116275072098e-02" rms="2.2624191641807556e-01" purity="1.4833264052867889e-01" nType="0">
            <Node pos="l" depth="3" NCoef="0" IVar="-1" Cut="0.0000000000000000e+00" cType="1" res="-1.7900669947266579e-02" rms="1.5459410846233368e-01" purity="6.4252361655235291e-02" nType="-99"/>
            <Node pos="r" depth="3" NCoef="0" IVar="-1" Cut="0.0000000000000000e+00" cType="1" res="-9.1453619301319122e-02" rms="2.7652826905250549e-01" purity="2.3209781944751740e-01" nType="-99"/>
          </Node>
          <Node pos="r" depth="2" NCoef="0" IVar="1" Cut="1.1390203237533569e-01" cType="1" res="-5.6545017287135124e-03" rms="2.6510870456695557e-01" purity="4.5724621415138245e-01" nType="0">
            <Node pos="l" depth="3" NCoef="0" IVar="-1" Cut="0.0000000000000000e+00" cType="1" res="3.0763647519052029e-03" rms="2.6415306329727173e-01" purity="3.5563191771507263e-01" nType="-99"/>
            <Node pos="r" depth="3" NCoef="0" IVar="-1" Cut="0.0000000000000000e+00" cType="1" res="-4.4362787157297134e-02" rms="2.6661491394042969e-01" purity="7.8584390878677368e-01" nType="-99"/>
          </Node>
        </Node>
      </Node>
    </BinaryTree>
    <BinaryTree type="DecisionTree" boostWeight="1.0000000000000000e+00" itree="51">
      <Node pos="s" depth="0" NCoef="0" IVar="8" Cut="-1.7329754829406738e+00" cType="1" res="1.4945252332836390e-03" rms="2.5931066274642944e-01" purity="5.1187235116958618e-01" nType="0">
        <Node pos="l" depth="1" NCoef="0" IVar="-1" Cut="0.0000000000000000e+00" cType="1" res="-5.0917889922857285e-02" rms="2.3798458278179169e-01" purity="1.3126251101493835e-01" nType="-99"/>
        <Node pos="r" depth="1" NCoef="0" IVar="7" Cut="-1.7334688901901245e+00" cType="1" res="2.9013890307396650e-03" rms="2.6023262739181519e-01" purity="5.3057938814163208e-01" nType="0">
          <Node pos="l" depth="2" NCoef="0" IVar="-1" Cut="0.0000000000000000e+00" cType="1" res="-7.2751060128211975e-02" rms="2.1148553490638733e-01" purity="7.0896260440349579e-02" nType="-99"/>
          <Node pos="r" depth="2" NCoef="0" IVar="6" Cut="1.4758307933807373e+00" cType="1" res="4.2577395215630531e-03" rms="2.6201039552688599e-01" purity="5.5004453659057617e-01" nType="0">
            <Node pos="l" depth="3" NCoef="0" IVar="-1" Cut="0.0000000000000000e+00" cType="1" res="8.0420682206749916e-03" rms="2.6583513617515564e-01" purity="5.7423096895217896e-01" nType="-99"/>
            <Node pos="r" depth="3" NCoef="0" IVar="-1" Cut="0.0000000000000000e+00" cType="1" res="-5.6098852306604385e-02" rms="1.6540201008319855e-01" purity="6.4566746354103088e-02" nType="-99"/>
          </Node>
        </Node>
      </Node>
    </BinaryTree>
    <BinaryTree type="DecisionTree" boostWeight="1.0000000000000000e+00" itree="52">
      <Node pos="s" depth="0" NCoef="0" IVar="2" Cut="8.7735327148437500e+02" cType="1" res="1.2847343168687075e-04" rms="2.5587457418441772e-01" purity="4.9851533770561218e-01" nType="0">
        <Node pos="l" depth="1" NCoef="0" IVar="5" Cut="1.6181686401367188e+02" cType="1" res="1.5945871127769351e-03" rms="2.5395411252975464e-01" purity="4.8363834619522095e-01" nType="0">
          <Node pos="l" depth="2" NCoef="0" IVar="0" Cut="1.8951345214843750e+03" cType="1" res="8.0543961375951767e-03" rms="2.6138606667518616e-01" purity="2.0307324826717377e-01" nType="0">
            <Node pos="l" depth="3" NCoef="0" IVar="-1" Cut="0.0000000000000000e+00" cType="1" res="3.1010652892291546e-03" rms="2.1784813702106476e-01" purity="6.2461163848638535e-02" nType="-99"/>
            <Node pos="r" depth="3" NCoef="0" IVar="-1" Cut="0.0000000000000000e+00" cType="1" res="2.1523598581552505e-02" rms="3.5663363337516785e-01" purity="6.0301542282104492e-01" nType="-99"/>
          </Node>
          <Node pos="r" depth="2" NCoef="0" IVar="9" Cut="-1.1958805322647095e+00" cType="1" res="-5.4902131669223309e-03" rms="2.4534910917282104e-01" purity="7.9134845733642578e-01" nType="0">
            <Node pos="l" depth="3" NCoef="0" IVar="-1" Cut="0.0000000000000000e+00" cType="1" res="-5.7520940899848938e-02" rms="3.1983721256256104e-01" purity="6.5750032663345337e-01" nType="-99"/>
            <Node pos="r" depth="3" NCoef="0" IVar="-1" Cut="0.0000000000000000e+00" cType="1" res="-6.7869341000914574e-04" rms="2.3416167497634888e-01" purity="8.0764865875244141e-01" nType="-99"/>
          </Node>
        </Node>
        <Node pos="r" depth="1" NCoef="0" IVar="-1" Cut="0.0000000000000000e+00" cType="1" res="-3.2405592501163483e-02" rms="2.8750425577163696e-01" purity="7.7123129367828369e-01" nType="-99"/>
      </Node>
    </BinaryTree>
    <BinaryTree type="DecisionTree" boostWeight="1.0000000000000000e+00" itree="53">
      <Node pos="s" depth="0" NCoef="0" IVar="2" Cut="5.6537268066406250e+02" cType="1" res="-1.5503398608416319e-03" rms="2.5423046946525574e-01" purity="4.9539023637771606e-01" nType="0">
        <Node pos="l" depth="1" NCoef="0" IVar="0" Cut="1.6710667724609375e+03" cType="1" res="4.0173768065869808e-03" rms="2.5931957364082336e-01" purity="4.0154567360877991e-01" nType="0">
          <Node pos="l" depth="2" NCoef="0" IVar="0" Cut="1.4774468994140625e+03" cType="1" res="-5.8502578176558018e-03" rms="1.7681339383125305e-01" purity="3.5183917731046677e-02" nType="0">
            <Node pos="l" depth="3" NCoef="0" IVar="-1" Cut="0.0000000000000000e+00" cType="1" res="-4.8686061054468155e-02" rms="1.2464044243097305e-01" purity="1.5585438348352909e-02" nType="-99"/>
            <Node pos="r" depth="3" NCoef="0" IVar="-1" Cut="0.0000000000000000e+00" cType="1" res="-3.6330106668174267e-03" rms="2.0033015310764313e-01" purity="4.6299561858177185e-02" nType="-99"/>
          </Node>
          <Node pos="r" depth="2" NCoef="0" IVar="1" Cut="4.2480330914258957e-02" cType="1" res="1.1677759699523449e-02" rms="3.0829694867134094e-01" purity="6.8595743179321289e-01" nType="0">
            <Node pos="l" depth="3" NCoef="0" IVar="-1" Cut="0.0000000000000000e+00" cType="1" res="3.7545979022979736e-02" rms="3.2242617011070251e-01" purity="3.0589535832405090e-01" nType="-99"/>
            <Node pos="r" depth="3" NCoef="0" IVar="-1" Cut="0.0000000000000000e+00" cType="1" res="5.2819615229964256e-03" rms="3.0418625473976135e-01" purity="7.8355151414871216e-01" nType="-99"/>
          </Node>
        </Node>
        <Node pos="r" depth="1" NCoef="0" IVar="6" Cut="-7.8894406557083130e-01" cType="1" res="-1.0900931432843208e-02" rms="2.4516206979751587e-01" purity="6.5299570560455322e-01" nType="0">
          <Node pos="l" depth="2" NCoef="0" IVar="-1" Cut="0.0000000000000000e+00" cType="1" res="-6.5497346222400665e-02" rms="2.5216189026832581e-01" purity="3.3393749594688416e-01" nType="-99"/>
          <Node pos="r" depth="2" NCoef="0" IVar="6" Cut="9.1346704959869385e-01" cType="1" res="-6.4052073284983635e-03" rms="2.4384175240993500e-01" purity="6.9683617353439331e-01" nType="0">
            <Node pos="l" depth="3" NCoef="0" IVar="-1" Cut="0.0000000000000000e+00" cType="1" res="-2.7376196812838316e-03" rms="2.4617904424667358e-01" purity="7.4636524915695190e-01" nType="-99"/>
            <Node pos="r" depth="3" NCoef="0" IVar="-1" Cut="0.0000000000000000e+00" cType="1" res="-7.6462917029857635e-02" rms="2.1914109587669373e-01" purity="2.7771770954132080e-01" nType="-99"/>
          </Node>
        </Node>
      </Node>
    </BinaryTree>
    <BinaryTree type="DecisionTree" boostWeight="1.0000000000000000e+00" itree="54">
      <Node pos="s" depth="0" NCoef="0" IVar="2" Cut="7.6458856201171875e+02" cType="1" res="1.0577213251963258e-03" rms="2.5864237546920776e-01" purity="4.9952182173728943e-01" nType="0">
        <Node pos="l" depth="1" NCoef="0" IVar="2" Cut="4.1531439208984375e+02" cType="1" res="3.5763438791036606e-03" rms="2.5665038824081421e-01" purity="4.7393977642059326e-01" nType="0">
          <Node pos="l" depth="2" NCoef="0" IVar="0" Cut="1.4993162841796875e+03" cType="1" res="1.3351473957300186e-02" rms="2.8022304177284241e-01" purity="2.9220971465110779e-01" nType="0">
            <Node pos="l" depth="3" NCoef="0" IVar="-1" Cut="0.0000000000000000e+00" cType="1" res="-1.1381029151380062e-02" rms="1.6515131294727325e-01" purity="2.8750346973538399e-02" nType="-99"/>
            <Node pos="r" depth="3" NCoef="0" IVar="-1" Cut="0.0000000000000000e+00" cType="1" res="2.2434998303651810e-02" rms="3.1730487942695618e-01" purity="4.0702524781227112e-01" nType="-99"/>
          </Node>
          <Node pos="r" depth="2" NCoef="0" IVar="0" Cut="2.2945705566406250e+03" cType="1" res="-1.1570439673960209e-03" rms="2.4427972733974457e-01" purity="5.6193846464157104e-01" nType="0">
            <Node pos="l" depth="3" NCoef="0" IVar="-1" Cut="0.0000000000000000e+00" cType="1" res="-1.1425398290157318e-02" rms="2.8528848290443420e-01" purity="2.2632874548435211e-01" nType="-99"/>
            <Node pos="r" depth="3" NCoef="0" IVar="-1" Cut="0.0000000000000000e+00" cType="1" res="1.9761994481086731e-02" rms="1.8505306541919708e-01" purity="9.5235872268676758e-01" nType="-99"/>
          </Node>
        </Node>
        <Node pos="r" depth="1" NCoef="0" IVar="0" Cut="2.9633947753906250e+03" cType="1" res="-1.9338641315698624e-02" rms="2.7338805794715881e-01" purity="7.0669078826904297e-01" nType="0">
          <Node pos="l" depth="2" NCoef="0" IVar="3" Cut="3.5062863159179688e+02" cType="1" res="-4.6049643307924271e-02" rms="3.2704782485961914e-01" purity="4.4211822748184204e-01" nType="0">
            <Node pos="l" depth="3" NCoef="0" IVar="-1" Cut="0.0000000000000000e+00" cType="1" res="-6.5557546913623810e-02" rms="3.1279313564300537e-01" purity="3.2138857245445251e-01" nType="-99"/>
            <Node pos="r" depth="3" NCoef="0" IVar="-1" Cut="0.0000000000000000e+00" cType="1" res="-2.7392804622650146e-02" rms="3.3903676271438599e-01" purity="5.5501770973205566e-01" nType="-99"/>
          </Node>
          <Node pos="r" depth="2" NCoef="0" IVar="9" Cut="1.2332634627819061e-01" cType="1" res="4.4315676204860210e-03" rms="2.1182318031787872e-01" purity="9.4213485717773438e-01" nType="0">
            <Node pos="l" depth="3" NCoef="0" IVar="-1" Cut="0.0000000000000000e+00" cType="1" res="2.8176015242934227e-02" rms="2.0189987123012543e-01" purity="9.4969511032104492e-01" nType="-99"/>
            <Node pos="r" depth="3" NCoef="0" IVar="-1" Cut="0.0000000000000000e+00" cType="1" res="-1.4940902590751648e-02" rms="2.2332298755645752e-01" purity="9.3247634172439575e-01" nType="-99"/>
          </Node>
        </Node>
      </Node>
    </BinaryTree>
    <BinaryTree type="DecisionTree" boostWeight="1.0000000000000000e+00" itree="55">
      <Node pos="s" depth="0" NCoef="0" IVar="9" Cut="-1.7325572967529297e+00" cType="1" res="5.8723421534523368e-04" rms="2.5754833221435547e-01" purity="5.0580072402954102e-01" nType="0">
        <Node pos="l" depth="1" NCoef="0" IVar="6" Cut="-9.9576339125633240e-02" cType="1" res="-2.2814579308032990e-02" rms="2.8523916006088257e-01" purity="2.4489517509937286e-01" nType="0">
          <Node pos="l" depth="2" NCoef="0" IVar="-1" Cut="0.0000000000000000e+00" cType="1" res="-1.0713709518313408e-02" rms="2.7276891469955444e-01" purity="2.6424393057823181e-01" nType="-99"/>
          <Node pos="r" depth="2" NCoef="0" IVar="-1" Cut="0.0000000000000000e+00" cType="1" res="-5.0923008471727371e-02" rms="2.9576763510704041e-01" purity="2.2669413685798645e-01" nType="-99"/>
        </Node>
        <Node pos="r" depth="1" NCoef="0" IVar="6" Cut="9.9232131242752075e-01" cType="1" res="2.0158379338681698e-03" rms="2.5569146871566772e-01" purity="5.2172815799713135e-01" nType="0">
          <Node pos="l" depth="2" NCoef="0" IVar="7" Cut="-6.6329360008239746e-01" cType="1" res="4.4720461592078209e-03" rms="2.6028874516487122e-01" purity="5.6932091712951660e-01" nType="0">
            <Node pos="l" depth="3" NCoef="0" IVar="-1" Cut="0.0000000000000000e+00" cType="1" res="-8.9855836704373360e-03" rms="2.6949739456176758e-01" purity="4.4256767630577087e-01" nType="-99"/>
            <Node pos="r" depth="3" NCoef="0" IVar="-1" Cut="0.0000000000000000e+00" cType="1" res="1.1825009249150753e-02" rms="2.5730979442596436e-01" purity="6.0816913843154907e-01" nType="-99"/>
          </Node>
          <Node pos="r" depth="2" NCoef="0" IVar="9" Cut="1.0680781602859497e+00" cType="1" res="-1.4187304303050041e-02" rms="2.2232291102409363e-01" purity="2.0776760578155518e-01" nType="0">
            <Node pos="l" depth="3" NCoef="0" IVar="-1" Cut="0.0000000000000000e+00" cType="1" res="-8.2163792103528976e-03" rms="2.3274849355220795e-01" purity="2.4329537153244019e-01" nType="-99"/>
            <Node pos="r" depth="3" NCoef="0" IVar="-1" Cut="0.0000000000000000e+00" cType="1" res="-7.8654594719409943e-02" rms="1.8598492443561554e-01" purity="1.0412776470184326e-01" nType="-99"/>
          </Node>
        </Node>
      </Node>
    </BinaryTree>
    <BinaryTree type="DecisionTree" boostWeight="1.0000000000000000e+00" itree="56">
      <Node pos="s" depth="0" NCoef="0" IVar="3" Cut="3.4054861450195312e+02" cType="1" res="-9.3854177976027131e-04" rms="2.5801613926887512e-01" purity="4.9945175647735596e-01" nType="0">
        <Node pos="l" depth="1" NCoef="0" IVar="4" Cut="2.7153421020507812e+02" cType="1" res="3.5087922587990761e-03" rms="2.6324969530105591e-01" purity="2.8630560636520386e-01" nType="0">
          <Node pos="l" depth="2" NCoef="0" IVar="8" Cut="6.6500210762023926e-01" cType="1" res="6.4140507020056248e-03" rms="2.6208540797233582e-01" purity="2.4486936628818512e-01" nType="0">
            <Node pos="l" depth="3" NCoef="0" IVar="-1" Cut="0.0000000000000000e+00" cType="1" res="4.3342370190657675e-05" rms="2.6005050539970398e-01" purity="2.4892762303352356e-01" nType="-99"/>
            <Node pos="r" depth="3" NCoef="0" IVar="-1" Cut="0.0000000000000000e+00" cType="1" res="3.3512081950902939e-02" rms="2.6627069711685181e-01" purity="2.3515921831130981e-01" nType="-99"/>
          </Node>
          <Node pos="r" depth="2" NCoef="0" IVar="-1" Cut="0.0000000000000000e+00" cType="1" res="-3.1418491154909134e-02" rms="2.7287176251411438e-01" purity="6.9786226749420166e-01" nType="-99"/>
        </Node>
        <Node pos="r" depth="1" NCoef="0" IVar="0" Cut="2.7325534667968750e+03" cType="1" res="-6.6404337994754314e-03" rms="2.5103145837783813e-01" purity="7.7272474765777588e-01" nType="0">
          <Node pos="l" depth="2" NCoef="0" IVar="3" Cut="4.9079064941406250e+02" cType="1" res="-1.8529295921325684e-02" rms="3.0828937888145447e-01" purity="6.0692131519317627e-01" nType="0">
            <Node pos="l" depth="3" NCoef="0" IVar="-1" Cut="0.0000000000000000e+00" cType="1" res="-1.3281548395752907e-02" rms="3.0208605527877808e-01" purity="6.0736852884292603e-01" nType="-99"/>
            <Node pos="r" depth="3" NCoef="0" IVar="-1" Cut="0.0000000000000000e+00" cType="1" res="-6.6489018499851227e-02" rms="3.4255149960517883e-01" purity="6.0398101806640625e-01" nType="-99"/>
          </Node>
          <Node pos="r" depth="2" NCoef="0" IVar="8" Cut="6.6112709045410156e-01" cType="1" res="7.0459637790918350e-03" rms="1.6062103211879730e-01" purity="9.6359688043594360e-01" nType="0">
            <Node pos="l" depth="3" NCoef="0" IVar="-1" Cut="0.0000000000000000e+00" cType="1" res="4.3502356857061386e-02" rms="1.4441338181495667e-01" purity="9.7355973720550537e-01" nType="-99"/>
            <Node pos="r" depth="3" NCoef="0" IVar="-1" Cut="0.0000000000000000e+00" cType="1" res="-4.9995183944702148e-02" rms="2.1129679679870605e-01" purity="9.2369222640991211e-01" nType="-99"/>
          </Node>
        </Node>
      </Node>
    </BinaryTree>
    <BinaryTree type="DecisionTree" boostWeight="1.0000000000000000e+00" itree="57">
      <Node pos="s" depth="0" NCoef="0" IVar="9" Cut="1.7316365242004395e+00" cType="1" res="4.5641494216397405e-04" rms="2.5218296051025391e-01" purity="4.9461394548416138e-01" nType="0">
        <Node pos="l" depth="1" NCoef="0" IVar="6" Cut="-6.1632066965103149e-01" cType="1" res="2.3805561941117048e-03" rms="2.5245019793510437e-01" purity="5.1573807001113892e-01" nType="0">
          <Node pos="l" depth="2" NCoef="0" IVar="7" Cut="9.3603533506393433e-01" cType="1" res="-7.8596519306302071e-03" rms="2.4981814622879028e-01" purity="3.3026185631752014e-01" nType="0">
            <Node pos="l" depth="3" NCoef="0" IVar="-1" Cut="0.0000000000000000e+00" cType="1" res="-5.3453566506505013e-03" rms="2.5237894058227539e-01" purity="3.6944305896759033e-01" nType="-99"/>
            <Node pos="r" depth="3" NCoef="0" IVar="-1" Cut="0.0000000000000000e+00" cType="1" res="-4.8289455473423004e-02" rms="2.3688448965549469e-01" purity="1.5255714952945709e-01" nType="-99"/>
          </Node>
          <Node pos="r" depth="2" NCoef="0" IVar="9" Cut="-1.5042723417282104e+00" cType="1" res="5.4817600175738335e-03" rms="2.5316020846366882e-01" purity="5.7190871238708496e-01" nType="0">
            <Node pos="l" depth="3" NCoef="0" IVar="-1" Cut="0.0000000000000000e+00" cType="1" res="4.3204948306083679e-02" rms="2.8757289052009583e-01" purity="4.0538004040718079e-01" nType="-99"/>
            <Node pos="r" depth="3" NCoef="0" IVar="-1" Cut="0.0000000000000000e+00" cType="1" res="4.9413265660405159e-03" rms="2.4977681040763855e-01" purity="5.8656471967697144e-01" nType="-99"/>
          </Node>
        </Node>
        <Node pos="r" depth="1" NCoef="0" IVar="5" Cut="1.3896223449707031e+02" cType="1" res="-2.5507833808660507e-02" rms="2.4708791077136993e-01" purity="2.0956665277481079e-01" nType="0">
          <Node pos="l" depth="2" NCoef="0" IVar="-1" Cut="0.0000000000000000e+00" cType="1" res="2.0823737606406212e-02" rms="2.2731076180934906e-01" purity="1.0752574354410172e-01" nType="-99"/>
          <Node pos="r" depth="2" NCoef="0" IVar="-1" Cut="0.0000000000000000e+00" cType="1" res="-7.2986394166946411e-02" rms="2.6042658090591431e-01" purity="3.0916756391525269e-01" nType="-99"/>
        </Node>
      </Node>
    </BinaryTree>
    <BinaryTree type="DecisionTree" boostWeight="1.0000000000000000e+00" itree="58">
      <Node pos="s" depth="0" NCoef="0" IVar="2" Cut="4.2598275756835938e+02" cType="1" res="-1.4606761978939176e-03" rms="2.6195028424263000e-01" purity="4.9331247806549072e-01" nType="0">
        <Node pos="l" depth="1" NCoef="0" IVar="9" Cut="-6.6643017530441284e-01" cType="1" res="1.1765212751924992e-02" rms="2.8027221560478210e-01" purity="3.0109933018684387e-01" nType="0">
          <Node pos="l" depth="2" NCoef="0" IVar="0" Cut="1.4980201416015625e+03" cType="1" res="2.8768060728907585e-02" rms="2.9476928710937500e-01" purity="2.8852379322052002e-01" nType="0">
            <Node pos="l" depth="3" NCoef="0" IVar="-1" Cut="0.0000000000000000e+00" cType="1" res="-2.3805733770132065e-02" rms="1.4314644038677216e-01" purity="2.1210249513387680e-02" nType="-99"/>
            <Node pos="r" depth="3" NCoef="0" IVar="-1" Cut="0.0000000000000000e+00" cType="1" res="4.8569273203611374e-02" rms="3.3910784125328064e-01" purity="4.0475189685821533e-01" nType="-99"/>
          </Node>
          <Node pos="r" depth="2" NCoef="0" IVar="2" Cut="3.2925588989257812e+02" cType="1" res="3.9328136481344700e-03" rms="2.7297949790954590e-01" purity="3.0689224600791931e-01" nType="0">
            <Node pos="l" depth="3" NCoef="0" IVar="-1" Cut="0.0000000000000000e+00" cType="1" res="3.0978038907051086e-02" rms="2.8428193926811218e-01" purity="2.3597519099712372e-01" nType="-99"/>
            <Node pos="r" depth="3" NCoef="0" IVar="-1" Cut="0.0000000000000000e+00" cType="1" res="-8.2742720842361450e-03" rms="2.6616922020912170e-01" purity="3.4506422281265259e-01" nType="-99"/>
          </Node>
        </Node>
        <Node pos="r" depth="1" NCoef="0" IVar="8" Cut="1.7308509349822998e+00" cType="1" res="-7.4962619692087173e-03" rms="2.5291913747787476e-01" purity="5.8102822303771973e-01" nType="0">
          <Node pos="l" depth="2" NCoef="0" IVar="0" Cut="2.6220825195312500e+03" cType="1" res="-5.7692942209541798e-03" rms="2.5270897150039673e-01" purity="5.9699130058288574e-01" nType="0">
            <Node pos="l" depth="3" NCoef="0" IVar="-1" Cut="0.0000000000000000e+00" cType="1" res="-1.6452845185995102e-02" rms="2.8913423418998718e-01" purity="3.8058328628540039e-01" nType="-99"/>
            <Node pos="r" depth="3" NCoef="0" IVar="-1" Cut="0.0000000000000000e+00" cType="1" res="1.7342656850814819e-02" rms="1.7558690905570984e-01" purity="9.5654147863388062e-01" nType="-99"/>
          </Node>
          <Node pos="r" depth="2" NCoef="0" IVar="-1" Cut="0.0000000000000000e+00" cType="1" res="-7.8068397939205170e-02" rms="2.5441488623619080e-01" purity="1.9705019891262054e-01" nType="-99"/>
        </Node>
      </Node>
    </BinaryTree>
    <BinaryTree type="DecisionTree" boostWeight="1.0000000000000000e+00" itree="59">
      <Node pos="s" depth="0" NCoef="0" IVar="4" Cut="2.3722004699707031e+02" cType="1" res="-4.6628024429082870e-03" rms="2.5839141011238098e-01" purity="4.9452045559883118e-01" nType="0">
        <Node pos="l" depth="1" NCoef="0" IVar="3" Cut="4.5893408203125000e+02" cType="1" res="2.7958985883742571e-03" rms="2.6383006572723389e-01" purity="2.4079343676567078e-01" nType="0">
          <Node pos="l" depth="2" NCoef="0" IVar="0" Cut="2.0968593750000000e+03" cType="1" res="5.2954019047319889e-03" rms="2.6063454151153564e-01" purity="2.2398281097412109e-01" nType="0">
            <Node pos="l" depth="3" NCoef="0" IVar="-1" Cut="0.0000000000000000e+00" cType="1" res="1.2094858102500439e-03" rms="2.4972324073314667e-01" purity="1.1160895228385925e-01" nType="-99"/>
            <Node pos="r" depth="3" NCoef="0" IVar="-1" Cut="0.0000000000000000e+00" cType="1" res="2.7565911412239075e-02" rms="3.0733954906463623e-01" purity="7.7123147249221802e-01" nType="-99"/>
          </Node>
          <Node pos="r" depth="2" NCoef="0" IVar="-1" Cut="0.0000000000000000e+00" cType="1" res="-4.0779255330562592e-02" rms="3.1083315610885620e-01" purity="5.3156292438507080e-01" nType="-99"/>
        </Node>
        <Node pos="r" depth="1" NCoef="0" IVar="8" Cut="-9.2079925537109375e-01" cType="1" res="-1.3700828887522221e-02" rms="2.5134730339050293e-01" purity="8.0197232961654663e-01" nType="0">
          <Node pos="l" depth="2" NCoef="0" IVar="6" Cut="-4.5259602367877960e-02" cType="1" res="-5.8674756437540054e-02" rms="2.8697425127029419e-01" purity="6.2376445531845093e-01" nType="0">
            <Node pos="l" depth="3" NCoef="0" IVar="-1" Cut="0.0000000000000000e+00" cType="1" res="-7.3660813271999359e-02" rms="2.9826569557189941e-01" purity="6.1547142267227173e-01" nType="-99"/>
            <Node pos="r" depth="3" NCoef="0" IVar="-1" Cut="0.0000000000000000e+00" cType="1" res="-6.0299713164567947e-02" rms="2.7134835720062256e-01" purity="6.3436388969421387e-01" nType="-99"/>
          </Node>
          <Node pos="r" depth="2" NCoef="0" IVar="0" Cut="2.3909753417968750e+03" cType="1" res="-6.2919775955379009e-03" rms="2.4418830871582031e-01" purity="8.3132970333099365e-01" nType="0">
            <Node pos="l" depth="3" NCoef="0" IVar="-1" Cut="0.0000000000000000e+00" cType="1" res="-2.1763959899544716e-02" rms="3.5581007599830627e-01" purity="5.4293656349182129e-01" nType="-99"/>
            <Node pos="r" depth="3" NCoef="0" IVar="-1" Cut="0.0000000000000000e+00" cType="1" res="5.1658102311193943e-03" rms="1.7266492545604706e-01" purity="9.5879942178726196e-01" nType="-99"/>
          </Node>
        </Node>
      </Node>
    </BinaryTree>
    <BinaryTree type="DecisionTree" boostWeight="1.0000000000000000e+00" itree="60">
      <Node pos="s" depth="0" NCoef="0" IVar="1" Cut="6.2154699116945267e-02" cType="1" res="-4.8618050641380250e-04" rms="2.5439542531967163e-01" purity="4.8858454823493958e-01" nType="0">
        <Node pos="l" depth="1" NCoef="0" IVar="3" Cut="5.4902380371093750e+02" cType="1" res="5.4466482251882553e-03" rms="2.4672716856002808e-01" purity="2.4531938135623932e-01" nType="0">
          <Node pos="l" depth="2" NCoef="0" IVar="0" Cut="1.9960887451171875e+03" cType="1" res="7.5265080668032169e-03" rms="2.4242615699768066e-01" purity="2.1656626462936401e-01" nType="0">
            <Node pos="l" depth="3" NCoef="0" IVar="-1" Cut="0.0000000000000000e+00" cType="1" res="-2.8158506029285491e-04" rms="1.9100235402584076e-01" purity="4.5945424586534500e-02" nType="-99"/>
            <Node pos="r" depth="3" NCoef="0" IVar="-1" Cut="0.0000000000000000e+00" cType="1" res="2.2553646937012672e-02" rms="3.3984592556953430e-01" purity="6.5488797426223755e-01" nType="-99"/>
          </Node>
          <Node pos="r" depth="2" NCoef="0" IVar="-1" Cut="0.0000000000000000e+00" cType="1" res="-3.5645637661218643e-02" rms="3.1038826704025269e-01" purity="7.4923068284988403e-01" nType="-99"/>
        </Node>
        <Node pos="r" depth="1" NCoef="0" IVar="3" Cut="2.1948179626464844e+02" cType="1" res="-6.0244542546570301e-03" rms="2.6122918725013733e-01" purity="7.1567159891128540e-01" nType="0">
          <Node pos="l" depth="2" NCoef="0" IVar="-1" Cut="0.0000000000000000e+00" cType="1" res="3.9336293935775757e-02" rms="3.0850806832313538e-01" purity="2.6377442479133606e-01" nType="-99"/>
          <Node pos="r" depth="2" NCoef="0" IVar="0" Cut="2.5713059082031250e+03" cType="1" res="-9.9084181711077690e-03" rms="2.5600615143775940e-01" purity="7.5804126262664795e-01" nType="0">
            <Node pos="l" depth="3" NCoef="0" IVar="-1" Cut="0.0000000000000000e+00" cType="1" res="-2.1035864949226379e-02" rms="3.2156461477279663e-01" purity="5.8552610874176025e-01" nType="-99"/>
            <Node pos="r" depth="3" NCoef="0" IVar="-1" Cut="0.0000000000000000e+00" cType="1" res="2.5095876306295395e-02" rms="1.2561082839965820e-01" purity="9.8288464546203613e-01" nType="-99"/>
          </Node>
        </Node>
      </Node>
    </BinaryTree>
    <BinaryTree type="DecisionTree" boostWeight="1.0000000000000000e+00" itree="61">
      <Node pos="s" depth="0" NCoef="0" IVar="2" Cut="8.8730102539062500e+02" cType="1" res="4.1147010051645339e-04" rms="2.5323882699012756e-01" purity="5.0181329250335693e-01" nType="0">
        <Node pos="l" depth="1" NCoef="0" IVar="0" Cut="2.0439197998046875e+03" cType="1" res="1.7294913996011019e-03" rms="2.5131556391716003e-01" purity="4.8995983600616455e-01" nType="0">
          <Node pos="l" depth="2" NCoef="0" IVar="1" Cut="1.1406254768371582e-01" cType="1" res="-4.0935832075774670e-03" rms="2.5951635837554932e-01" purity="1.2425612658262253e-01" nType="0">
            <Node pos="l" depth="3" NCoef="0" IVar="-1" Cut="0.0000000000000000e+00" cType="1" res="3.6698842886835337e-03" rms="2.3401160538196564e-01" purity="8.6331412196159363e-02" nType="-99"/>
            <Node pos="r" depth="3" NCoef="0" IVar="-1" Cut="0.0000000000000000e+00" cType="1" res="-2.9262304306030273e-02" rms="3.8117450475692749e-01" purity="3.6430418491363525e-01" nType="-99"/>
          </Node>
          <Node pos="r" depth="2" NCoef="0" IVar="3" Cut="4.1334317016601562e+02" cType="1" res="8.0758351832628250e-03" rms="2.4190203845500946e-01" purity="8.8852614164352417e-01" nType="0">
            <Node pos="l" depth="3" NCoef="0" IVar="-1" Cut="0.0000000000000000e+00" cType="1" res="2.7831379324197769e-02" rms="2.6142612099647522e-01" purity="8.7558132410049438e-01" nType="-99"/>
            <Node pos="r" depth="3" NCoef="0" IVar="-1" Cut="0.0000000000000000e+00" cType="1" res="-1.2326291762292385e-02" rms="2.1745474636554718e-01" purity="9.0283900499343872e-01" nType="-99"/>
          </Node>
        </Node>
        <Node pos="r" depth="1" NCoef="0" IVar="-1" Cut="0.0000000000000000e+00" cType="1" res="-3.0573543161153793e-02" rms="2.8787928819656372e-01" purity="7.3975944519042969e-01" nType="-99"/>
      </Node>
    </BinaryTree>
    <BinaryTree type="DecisionTree" boostWeight="1.0000000000000000e+00" itree="62">
      <Node pos="s" depth="0" NCoef="0" IVar="7" Cut="1.7326443195343018e+00" cType="1" res="2.6262580649927258e-04" rms="2.5604140758514404e-01" purity="5.0101459026336670e-01" nType="0">
        <Node pos="l" depth="1" NCoef="0" IVar="1" Cut="4.1478723287582397e-02" cType="1" res="1.1752654099836946e-03" rms="2.5875550508499146e-01" purity="5.1744264364242554e-01" nType="0">
          <Node pos="l" depth="2" NCoef="0" IVar="0" Cut="1.8633358154296875e+03" cType="1" res="8.8744023814797401e-03" rms="2.3890221118927002e-01" purity="1.9719362258911133e-01" nType="0">
            <Node pos="l" depth="3" NCoef="0" IVar="-1" Cut="0.0000000000000000e+00" cType="1" res="-1.4028170146048069e-02" rms="1.3892185688018799e-01" purity="2.0955722779035568e-02" nType="-99"/>
            <Node pos="r" depth="3" NCoef="0" IVar="-1" Cut="0.0000000000000000e+00" cType="1" res="2.4779507890343666e-02" rms="3.4742578864097595e-01" purity="4.9718779325485229e-01" nType="-99"/>
          </Node>
          <Node pos="r" depth="2" NCoef="0" IVar="1" Cut="9.7560793161392212e-02" cType="1" res="-2.6035152841359377e-03" rms="2.6788109540939331e-01" purity="6.7462277412414551e-01" nType="0">
            <Node pos="l" depth="3" NCoef="0" IVar="-1" Cut="0.0000000000000000e+00" cType="1" res="-1.1941001750528812e-02" rms="3.0309849977493286e-01" purity="5.2607828378677368e-01" nType="-99"/>
            <Node pos="r" depth="3" NCoef="0" IVar="-1" Cut="0.0000000000000000e+00" cType="1" res="5.7087494060397148e-03" rms="2.3368340730667114e-01" purity="8.0073213577270508e-01" nType="-99"/>
          </Node>
        </Node>
        <Node pos="r" depth="1" NCoef="0" IVar="-1" Cut="0.0000000000000000e+00" cType="1" res="-5.3434856235980988e-02" rms="1.6979867219924927e-01" purity="7.6010778546333313e-02" nType="-99"/>
      </Node>
    </BinaryTree>
    <BinaryTree type="DecisionTree" boostWeight="1.0000000000000000e+00" itree="63">
      <Node pos="s" depth="0" NCoef="0" IVar="2" Cut="9.3056176757812500e+02" cType="1" res="2.8510880656540394e-04" rms="2.5705823302268982e-01" purity="5.0512468814849854e-01" nType="0">
        <Node pos="l" depth="1" NCoef="0" IVar="1" Cut="6.0534987598657608e-02" cType="1" res="1.4370756689459085e-03" rms="2.5512474775314331e-01" purity="4.9668085575103760e-01" nType="0">
          <Node pos="l" depth="2" NCoef="0" IVar="6" Cut="-1.2992656230926514e+00" cType="1" res="6.6590229980647564e-03" rms="2.4596363306045532e-01" purity="2.3795890808105469e-01" nType="0">
            <Node pos="l" depth="3" NCoef="0" IVar="-1" Cut="0.0000000000000000e+00" cType="1" res="-2.9682537540793419e-02" rms="1.8665027618408203e-01" purity="6.3609987497329712e-02" nType="-99"/>
            <Node pos="r" depth="3" NCoef="0" IVar="-1" Cut="0.0000000000000000e+00" cType="1" res="1.5614775940775871e-02" rms="2.5533774495124817e-01" purity="2.7042645215988159e-01" nType="-99"/>
          </Node>
          <Node pos="r" depth="2" NCoef="0" IVar="1" Cut="1.6407978534698486e-01" cType="1" res="-3.0978103168308735e-03" rms="2.6273736357688904e-01" purity="7.2136223316192627e-01" nType="0">
            <Node pos="l" depth="3" NCoef="0" IVar="-1" Cut="0.0000000000000000e+00" cType="1" res="-9.1998390853404999e-03" rms="2.8093710541725159e-01" purity="6.6534054279327393e-01" nType="-99"/>
            <Node pos="r" depth="3" NCoef="0" IVar="-1" Cut="0.0000000000000000e+00" cType="1" res="1.3777118176221848e-02" rms="2.0522400736808777e-01" purity="8.7292951345443726e-01" nType="-99"/>
          </Node>
        </Node>
        <Node pos="r" depth="1" NCoef="0" IVar="-1" Cut="0.0000000000000000e+00" cType="1" res="-3.8147237151861191e-02" rms="3.0670994520187378e-01" purity="7.5395929813385010e-01" nType="-99"/>
      </Node>
    </BinaryTree>
    <BinaryTree type="DecisionTree" boostWeight="1.0000000000000000e+00" itree="64">
      <Node pos="s" depth="0" NCoef="0" IVar="3" Cut="3.2653030395507812e+02" cType="1" res="1.3728373451158404e-03" rms="2.5698235630989075e-01" purity="5.0044316053390503e-01" nType="0">
        <Node pos="l" depth="1" NCoef="0" IVar="0" Cut="1.5898656005859375e+03" cType="1" res="8.3616888150572777e-03" rms="2.6114448904991150e-01" purity="2.6728159189224243e-01" nType="0">
          <Node pos="l" depth="2" NCoef="0" IVar="3" Cut="2.3982688903808594e+02" cType="1" res="-1.7006455454975367e-03" rms="1.6174517571926117e-01" purity="2.8430642560124397e-02" nType="0">
            <Node pos="l" depth="3" NCoef="0" IVar="-1" Cut="0.0000000000000000e+00" cType="1" res="2.0072413608431816e-02" rms="1.8060280382633209e-01" purity="3.5719733685255051e-02" nType="-99"/>
            <Node pos="r" depth="3" NCoef="0" IVar="-1" Cut="0.0000000000000000e+00" cType="1" res="-4.6307146549224854e-02" rms="1.2603841722011566e-01" purity="1.7073173075914383e-02" nType="-99"/>
          </Node>
          <Node pos="r" depth="2" NCoef="0" IVar="9" Cut="1.4662992954254150e+00" cType="1" res="1.5729747712612152e-02" rms="3.1440061330795288e-01" purity="4.4217815995216370e-01" nType="0">
            <Node pos="l" depth="3" NCoef="0" IVar="-1" Cut="0.0000000000000000e+00" cType="1" res="1.2601214461028576e-02" rms="3.1179979443550110e-01" purity="4.5463222265243530e-01" nType="-99"/>
            <Node pos="r" depth="3" NCoef="0" IVar="-1" Cut="0.0000000000000000e+00" cType="1" res="4.9333851784467697e-02" rms="3.3451068401336670e-01" purity="3.3359465003013611e-01" nType="-99"/>
          </Node>
        </Node>
        <Node pos="r" depth="1" NCoef="0" IVar="0" Cut="2.7905124511718750e+03" cType="1" res="-6.2074158340692520e-03" rms="2.5217157602310181e-01" purity="7.5333505868911743e-01" nType="0">
          <Node pos="l" depth="2" NCoef="0" IVar="5" Cut="1.0516652679443359e+02" cType="1" res="-1.3148638419806957e-02" rms="2.9765555262565613e-01" purity="6.1394178867340088e-01" nType="0">
            <Node pos="l" depth="3" NCoef="0" IVar="-1" Cut="0.0000000000000000e+00" cType="1" res="3.2731659710407257e-02" rms="2.8295382857322693e-01" purity="1.5936461091041565e-01" nType="-99"/>
            <Node pos="r" depth="3" NCoef="0" IVar="-1" Cut="0.0000000000000000e+00" cType="1" res="-2.1945664659142494e-02" rms="2.9979184269905090e-01" purity="6.9560229778289795e-01" nType="-99"/>
          </Node>
          <Node pos="r" depth="2" NCoef="0" IVar="5" Cut="2.1723275756835938e+02" cType="1" res="4.4246637262403965e-03" rms="1.5842238068580627e-01" purity="9.6684777736663818e-01" nType="0">
            <Node pos="l" depth="3" NCoef="0" IVar="-1" Cut="0.0000000000000000e+00" cType="1" res="-5.8820410631597042e-03" rms="2.2391892969608307e-01" purity="9.2658644914627075e-01" nType="-99"/>
            <Node pos="r" depth="3" NCoef="0" IVar="-1" Cut="0.0000000000000000e+00" cType="1" res="3.5272993147373199e-02" rms="1.1870174854993820e-01" purity="9.8448908329010010e-01" nType="-99"/>
          </Node>
        </Node>
      </Node>
    </BinaryTree>
    <BinaryTree type="DecisionTree" boostWeight="1.0000000000000000e+00" itree="65">
      <Node pos="s" depth="0" NCoef="0" IVar="6" Cut="4.3308332562446594e-01" cType="1" res="-3.6008227616548538e-03" rms="2.5881975889205933e-01" purity="4.9699002504348755e-01" nType="0">
        <Node pos="l" depth="1" NCoef="0" IVar="1" Cut="6.3420906662940979e-02" cType="1" res="-1.1479630484245718e-04" rms="2.5934815406799316e-01" purity="5.3829646110534668e-01" nType="0">
          <Node pos="l" depth="2" NCoef="0" IVar="7" Cut="1.4671540260314941e+00" cType="1" res="6.8477876484394073e-03" rms="2.6213747262954712e-01" purity="2.8368878364562988e-01" nType="0">
            <Node pos="l" depth="3" NCoef="0" IVar="-1" Cut="0.0000000000000000e+00" cType="1" res="1.6509350389242172e-02" rms="2.7186718583106995e-01" purity="3.1411230564117432e-01" nType="-99"/>
            <Node pos="r" depth="3" NCoef="0" IVar="-1" Cut="0.0000000000000000e+00" cType="1" res="-5.4997608065605164e-02" rms="1.7630195617675781e-01" purity="6.9843672215938568e-02" nType="-99"/>
          </Node>
          <Node pos="r" depth="2" NCoef="0" IVar="0" Cut="2.2554814453125000e+03" cType="1" res="-5.8235526084899902e-03" rms="2.5689777731895447e-01" purity="7.4705410003662109e-01" nType="0">
            <Node pos="l" depth="3" NCoef="0" IVar="-1" Cut="0.0000000000000000e+00" cType="1" res="-1.4237321913242340e-02" rms="3.5532301664352417e-01" purity="4.0516549348831177e-01" nType="-99"/>
            <Node pos="r" depth="3" NCoef="0" IVar="-1" Cut="0.0000000000000000e+00" cType="1" res="5.5953599512577057e-03" rms="1.6379521787166595e-01" purity="9.6847432851791382e-01" nType="-99"/>
          </Node>
        </Node>
        <Node pos="r" depth="1" NCoef="0" IVar="2" Cut="4.2614028930664062e+02" cType="1" res="-1.1956609785556793e-02" rms="2.5735667347908020e-01" purity="3.9798110723495483e-01" nType="0">
          <Node pos="l" depth="2" NCoef="0" IVar="0" Cut="1.4930921630859375e+03" cType="1" res="6.2760398723185062e-03" rms="2.5056296586990356e-01" purity="2.4971184134483337e-01" nType="0">
            <Node pos="l" depth="3" NCoef="0" IVar="-1" Cut="0.0000000000000000e+00" cType="1" res="-4.7935772687196732e-02" rms="1.1711754649877548e-01" purity="1.4215182512998581e-02" nType="-99"/>
            <Node pos="r" depth="3" NCoef="0" IVar="-1" Cut="0.0000000000000000e+00" cType="1" res="1.6069220378994942e-02" rms="2.8521674871444702e-01" purity="3.3967071771621704e-01" nType="-99"/>
          </Node>
          <Node pos="r" depth="2" NCoef="0" IVar="5" Cut="1.1370928955078125e+02" cType="1" res="-2.2584402933716774e-02" rms="2.6064747571945190e-01" purity="4.8440712690353394e-01" nType="0">
            <Node pos="l" depth="3" NCoef="0" IVar="-1" Cut="0.0000000000000000e+00" cType="1" res="1.4184012077748775e-02" rms="1.9689585268497467e-01" purity="9.5314234495162964e-02" nType="-99"/>
            <Node pos="r" depth="3" NCoef="0" IVar="-1" Cut="0.0000000000000000e+00" cType="1" res="-4.2766164988279343e-02" rms="2.7945828437805176e-01" purity="6.2538427114486694e-01" nType="-99"/>
          </Node>
        </Node>
      </Node>
    </BinaryTree>
    <BinaryTree type="DecisionTree" boostWeight="1.0000000000000000e+00" itree="66">
      <Node pos="s" depth="0" NCoef="0" IVar="7" Cut="-1.4649355411529541e+00" cType="1" res="-1.5502318274229765e-03" rms="2.5315743684768677e-01" purity="4.9485757946968079e-01" nType="0">
        <Node pos="l" depth="1" NCoef="0" IVar="4" Cut="1.9391500854492188e+02" cType="1" res="-2.3464642465114594e-02" rms="2.1825091540813446e-01" purity="1.2924176454544067e-01" nType="0">
          <Node pos="l" depth="2" NCoef="0" IVar="-1" Cut="0.0000000000000000e+00" cType="1" res="-3.6844793707132339e-02" rms="1.4973288774490356e-01" purity="3.5831607878208160e-02" nType="-99"/>
          <Node pos="r" depth="2" NCoef="0" IVar="-1" Cut="0.0000000000000000e+00" cType="1" res="-4.8669524490833282e-02" rms="2.8718197345733643e-01" purity="2.6014342904090881e-01" nType="-99"/>
        </Node>
        <Node pos="r" depth="1" NCoef="0" IVar="1" Cut="4.2287699878215790e-02" cType="1" res="4.3875483243027702e-05" rms="2.5543728470802307e-01" purity="5.2145338058471680e-01" nType="0">
          <Node pos="l" depth="2" NCoef="0" IVar="0" Cut="1.6438378906250000e+03" cType="1" res="7.6350807212293148e-03" rms="2.4248202145099640e-01" purity="2.0706135034561157e-01" nType="0">
            <Node pos="l" depth="3" NCoef="0" IVar="-1" Cut="0.0000000000000000e+00" cType="1" res="-2.1503051742911339e-02" rms="1.1445640772581100e-01" purity="1.3564619235694408e-02" nType="-99"/>
            <Node pos="r" depth="3" NCoef="0" IVar="-1" Cut="0.0000000000000000e+00" cType="1" res="1.7339061945676804e-02" rms="3.0523404479026794e-01" purity="3.5330367088317871e-01" nType="-99"/>
          </Node>
          <Node pos="r" depth="2" NCoef="0" IVar="0" Cut="2.4650922851562500e+03" cType="1" res="-3.6694991867989302e-03" rms="2.6146066188812256e-01" purity="6.7524385452270508e-01" nType="0">
            <Node pos="l" depth="3" NCoef="0" IVar="-1" Cut="0.0000000000000000e+00" cType="1" res="-9.3514211475849152e-03" rms="3.2178556919097900e-01" purity="4.4118449091911316e-01" nType="-99"/>
            <Node pos="r" depth="3" NCoef="0" IVar="-1" Cut="0.0000000000000000e+00" cType="1" res="1.5411077067255974e-02" rms="1.5262368321418762e-01" purity="9.7431832551956177e-01" nType="-99"/>
          </Node>
        </Node>
      </Node>
    </BinaryTree>
    <BinaryTree type="DecisionTree" boostWeight="1.0000000000000000e+00" itree="67">
      <Node pos="s" depth="0" NCoef="0" IVar="8" Cut="1.4660181999206543e+00" cType="1" res="2.9427923727780581e-03" rms="2.5361880660057068e-01" purity="4.9878230690956116e-01" nType="0">
        <Node pos="l" depth="1" NCoef="0" IVar="9" Cut="-1.1993846893310547e+00" cType="1" res="4.5631118118762970e-03" rms="2.5291305780410767e-01" purity="5.2042645215988159e-01" nType="0">
          <Node pos="l" depth="2" NCoef="0" IVar="3" Cut="3.1029907226562500e+02" cType="1" res="1.8326967954635620e-02" rms="2.8555235266685486e-01" purity="4.2704966664314270e-01" nType="0">
            <Node pos="l" depth="3" NCoef="0" IVar="-1" Cut="0.0000000000000000e+00" cType="1" res="5.0261285156011581e-02" rms="2.8642398118972778e-01" purity="2.4996930360794067e-01" nType="-99"/>
            <Node pos="r" depth="3" NCoef="0" IVar="-1" Cut="0.0000000000000000e+00" cType="1" res="-1.3282531872391701e-03" rms="2.8328990936279297e-01" purity="6.3791888952255249e-01" nType="-99"/>
          </Node>
          <Node pos="r" depth="2" NCoef="0" IVar="9" Cut="3.2398575544357300e-01" cType="1" res="2.1715969778597355e-03" rms="2.4672381579875946e-01" purity="5.3665095567703247e-01" nType="0">
            <Node pos="l" depth="3" NCoef="0" IVar="-1" Cut="0.0000000000000000e+00" cType="1" res="-4.7254133969545364e-03" rms="2.4312724173069000e-01" purity="5.6852895021438599e-01" nType="-99"/>
            <Node pos="r" depth="3" NCoef="0" IVar="-1" Cut="0.0000000000000000e+00" cType="1" res="1.3511840254068375e-02" rms="2.5101315975189209e-01" purity="4.9662631750106812e-01" nType="-99"/>
          </Node>
        </Node>
        <Node pos="r" depth="1" NCoef="0" IVar="0" Cut="1.8436739501953125e+03" cType="1" res="-1.7586441710591316e-02" rms="2.6152810454368591e-01" purity="2.2455400228500366e-01" nType="0">
          <Node pos="l" depth="2" NCoef="0" IVar="-1" Cut="0.0000000000000000e+00" cType="1" res="4.8967415932565928e-04" rms="1.9512552022933960e-01" purity="4.4014882296323776e-02" nType="-99"/>
          <Node pos="r" depth="2" NCoef="0" IVar="-1" Cut="0.0000000000000000e+00" cType="1" res="-4.3104212731122971e-02" rms="3.4464684128761292e-01" purity="5.3323984146118164e-01" nType="-99"/>
        </Node>
      </Node>
    </BinaryTree>
    <BinaryTree type="DecisionTree" boostWeight="1.0000000000000000e+00" itree="68">
      <Node pos="s" depth="0" NCoef="0" IVar="0" Cut="1.9325632324218750e+03" cType="1" res="1.1876456483150832e-05" rms="2.5423929095268250e-01" purity="5.0003570318222046e-01" nType="0">
        <Node pos="l" depth="1" NCoef="0" IVar="1" Cut="8.8025867938995361e-02" cType="1" res="-7.2694290429353714e-03" rms="2.3697078227996826e-01" purity="8.4440872073173523e-02" nType="0">
          <Node pos="l" depth="2" NCoef="0" IVar="1" Cut="7.1246460080146790e-02" cType="1" res="-3.1772846705280244e-04" rms="1.9851979613304138e-01" purity="5.0590973347425461e-02" nType="0">
            <Node pos="l" depth="3" NCoef="0" IVar="-1" Cut="0.0000000000000000e+00" cType="1" res="-1.2335569597780704e-02" rms="1.7729602754116058e-01" purity="3.7914663553237915e-02" nType="-99"/>
            <Node pos="r" depth="3" NCoef="0" IVar="-1" Cut="0.0000000000000000e+00" cType="1" res="4.5036960393190384e-02" rms="3.5149419307708740e-01" purity="1.8787834048271179e-01" nType="-99"/>
          </Node>
          <Node pos="r" depth="2" NCoef="0" IVar="0" Cut="1.6788106689453125e+03" cType="1" res="-3.5396941006183624e-02" rms="3.5060110688209534e-01" purity="2.2140204906463623e-01" nType="0">
            <Node pos="l" depth="3" NCoef="0" IVar="-1" Cut="0.0000000000000000e+00" cType="1" res="-9.6758054569363594e-03" rms="2.6661542057991028e-01" purity="8.8069252669811249e-02" nType="-99"/>
            <Node pos="r" depth="3" NCoef="0" IVar="-1" Cut="0.0000000000000000e+00" cType="1" res="-3.7981919944286346e-02" rms="4.4519054889678955e-01" purity="4.2244669795036316e-01" nType="-99"/>
          </Node>
        </Node>
        <Node pos="r" depth="1" NCoef="0" IVar="1" Cut="2.1324608474969864e-02" cType="1" res="6.0399784706532955e-03" rms="2.6754423975944519e-01" purity="8.4410148859024048e-01" nType="0">
          <Node pos="l" depth="2" NCoef="0" IVar="-1" Cut="0.0000000000000000e+00" cType="1" res="4.7580860555171967e-02" rms="3.5229954123497009e-01" purity="4.0196564793586731e-01" nType="-99"/>
          <Node pos="r" depth="2" NCoef="0" IVar="5" Cut="1.2212175750732422e+02" cType="1" res="1.2996472651138902e-03" rms="2.5776770710945129e-01" purity="8.8509505987167358e-01" nType="0">
            <Node pos="l" depth="3" NCoef="0" IVar="-1" Cut="0.0000000000000000e+00" cType="1" res="2.1844906732439995e-02" rms="4.0297448635101318e-01" purity="5.8331841230392456e-01" nType="-99"/>
            <Node pos="r" depth="3" NCoef="0" IVar="-1" Cut="0.0000000000000000e+00" cType="1" res="-2.2188338916748762e-03" rms="2.4284589290618896e-01" purity="9.0829414129257202e-01" nType="-99"/>
          </Node>
        </Node>
      </Node>
    </BinaryTree>
    <BinaryTree type="DecisionTree" boostWeight="1.0000000000000000e+00" itree="69">
      <Node pos="s" depth="0" NCoef="0" IVar="9" Cut="-1.9988809823989868e+00" cType="1" res="3.2484999974258244e-04" rms="2.5439262390136719e-01" purity="5.0195676088333130e-01" nType="0">
        <Node pos="l" depth="1" NCoef="0" IVar="-1" Cut="0.0000000000000000e+00" cType="1" res="-4.3737594038248062e-02" rms="2.7900266647338867e-01" purity="2.2037689387798309e-01" nType="-99"/>
        <Node pos="r" depth="1" NCoef="0" IVar="7" Cut="1.1992189884185791e+00" cType="1" res="1.4169986825436354e-03" rms="2.5344988703727722e-01" purity="5.1144117116928101e-01" nType="0">
          <Node pos="l" depth="2" NCoef="0" IVar="5" Cut="8.1816589355468750e+01" cType="1" res="3.1587386038154364e-03" rms="2.5486004352569580e-01" purity="5.4850441217422485e-01" nType="0">
            <Node pos="l" depth="3" NCoef="0" IVar="-1" Cut="0.0000000000000000e+00" cType="1" res="-4.4254254549741745e-02" rms="1.7624735832214355e-01" purity="4.6505376696586609e-02" nType="-99"/>
            <Node pos="r" depth="3" NCoef="0" IVar="-1" Cut="0.0000000000000000e+00" cType="1" res="6.2726237811148167e-03" rms="2.5879821181297302e-01" purity="5.7884395122528076e-01" nType="-99"/>
          </Node>
          <Node pos="r" depth="2" NCoef="0" IVar="3" Cut="3.1794427490234375e+02" cType="1" res="-1.2967694550752640e-02" rms="2.4100835621356964e-01" purity="2.0534354448318481e-01" nType="0">
            <Node pos="l" depth="3" NCoef="0" IVar="-1" Cut="0.0000000000000000e+00" cType="1" res="-1.4977090759202838e-03" rms="2.1804475784301758e-01" purity="1.3456140458583832e-01" nType="-99"/>
            <Node pos="r" depth="3" NCoef="0" IVar="-1" Cut="0.0000000000000000e+00" cType="1" res="-5.3451392799615860e-02" rms="2.8708493709564209e-01" purity="3.7695503234863281e-01" nType="-99"/>
          </Node>
        </Node>
      </Node>
    </BinaryTree>
    <BinaryTree type="DecisionTree" boostWeight="1.0000000000000000e+00" itree="70">
      <Node pos="s" depth="0" NCoef="0" IVar="9" Cut="1.9996509552001953e+00" cType="1" res="-1.6458446043543518e-04" rms="2.5565254688262939e-01" purity="4.9981892108917236e-01" nType="0">
        <Node pos="l" depth="1" NCoef="0" IVar="5" Cut="1.3364036560058594e+02" cType="1" res="8.6859747534617782e-04" rms="2.5523948669433594e-01" purity="5.1250380277633667e-01" nType="0">
          <Node pos="l" depth="2" NCoef="0" IVar="9" Cut="8.5693740844726562e-01" cType="1" res="-6.5922052599489689e-03" rms="2.3692254722118378e-01" purity="1.3602125644683838e-01" nType="0">
            <Node pos="l" depth="3" NCoef="0" IVar="-1" Cut="0.0000000000000000e+00" cType="1" res="-1.8649358302354813e-02" rms="2.3715931177139282e-01" purity="1.3259345293045044e-01" nType="-99"/>
            <Node pos="r" depth="3" NCoef="0" IVar="-1" Cut="0.0000000000000000e+00" cType="1" res="1.9644094631075859e-02" rms="2.3525954782962799e-01" purity="1.4782112836837769e-01" nType="-99"/>
          </Node>
          <Node pos="r" depth="2" NCoef="0" IVar="9" Cut="1.0857924222946167e+00" cType="1" res="4.9298866651952267e-03" rms="2.6458960771560669e-01" purity="7.1744221448898315e-01" nType="0">
            <Node pos="l" depth="3" NCoef="0" IVar="-1" Cut="0.0000000000000000e+00" cType="1" res="1.1888513341546059e-02" rms="2.6092308759689331e-01" purity="7.2942936420440674e-01" nType="-99"/>
            <Node pos="r" depth="3" NCoef="0" IVar="-1" Cut="0.0000000000000000e+00" cType="1" res="-2.4945328012108803e-02" rms="2.8873851895332336e-01" purity="6.2995123863220215e-01" nType="-99"/>
          </Node>
        </Node>
        <Node pos="r" depth="1" NCoef="0" IVar="-1" Cut="0.0000000000000000e+00" cType="1" res="-4.1289430111646652e-02" rms="2.6496031880378723e-01" purity="1.6108901798725128e-01" nType="-99"/>
      </Node>
    </BinaryTree>
    <BinaryTree type="DecisionTree" boostWeight="1.0000000000000000e+00" itree="71">
      <Node pos="s" depth="0" NCoef="0" IVar="6" Cut="-2.6858130097389221e-01" cType="1" res="-7.9032109351828694e-04" rms="2.5108256936073303e-01" purity="4.9423587322235107e-01" nType="0">
        <Node pos="l" depth="1" NCoef="0" IVar="6" Cut="-3.7805503606796265e-01" cType="1" res="-8.2038724794983864e-03" rms="2.5073435902595520e-01" purity="4.2756891250610352e-01" nType="0">
          <Node pos="l" depth="2" NCoef="0" IVar="9" Cut="4.0230536460876465e-01" cType="1" res="-4.6196221373975277e-03" rms="2.4781274795532227e-01" purity="3.9905151724815369e-01" nType="0">
            <Node pos="l" depth="3" NCoef="0" IVar="-1" Cut="0.0000000000000000e+00" cType="1" res="2.7684196829795837e-03" rms="2.4543429911136627e-01" purity="4.0768551826477051e-01" nType="-99"/>
            <Node pos="r" depth="3" NCoef="0" IVar="-1" Cut="0.0000000000000000e+00" cType="1" res="-2.8270866721868515e-02" rms="2.5221633911132812e-01" purity="3.8092029094696045e-01" nType="-99"/>
          </Node>
          <Node pos="r" depth="2" NCoef="0" IVar="-1" Cut="0.0000000000000000e+00" cType="1" res="-4.5267976820468903e-02" rms="2.6869595050811768e-01" purity="6.2388402223587036e-01" nType="-99"/>
        </Node>
        <Node pos="r" depth="1" NCoef="0" IVar="8" Cut="-1.4664065837860107e+00" cType="1" res="3.7250004243105650e-03" rms="2.5118723511695862e-01" purity="5.3484028577804565e-01" nType="0">
          <Node pos="l" depth="2" NCoef="0" IVar="-1" Cut="0.0000000000000000e+00" cType="1" res="-4.1068352758884430e-02" rms="2.2901943325996399e-01" purity="1.8992935121059418e-01" nType="-99"/>
          <Node pos="r" depth="2" NCoef="0" IVar="9" Cut="-1.1999231576919556e+00" cType="1" res="6.0660704039037228e-03" rms="2.5275886058807373e-01" purity="5.6286513805389404e-01" nType="0">
            <Node pos="l" depth="3" NCoef="0" IVar="-1" Cut="0.0000000000000000e+00" cType="1" res="-1.4539230614900589e-02" rms="2.7993628382682800e-01" purity="4.0759986639022827e-01" nType="-99"/>
            <Node pos="r" depth="3" NCoef="0" IVar="-1" Cut="0.0000000000000000e+00" cType="1" res="1.3524851761758327e-02" rms="2.4804577231407166e-01" purity="5.8763402700424194e-01" nType="-99"/>
          </Node>
        </Node>
      </Node>
    </BinaryTree>
    <BinaryTree type="DecisionTree" boostWeight="1.0000000000000000e+00" itree="72">
      <Node pos="s" depth="0" NCoef="0" IVar="2" Cut="3.1471743774414062e+02" cType="1" res="2.8197339270263910e-03" rms="2.5412982702255249e-01" purity="5.0554156303405762e-01" nType="0">
        <Node pos="l" depth="1" NCoef="0" IVar="0" Cut="1.4911899414062500e+03" cType="1" res="2.6369677856564522e-02" rms="2.8359597921371460e-01" purity="2.0707182586193085e-01" nType="0">
          <Node pos="l" depth="2" NCoef="0" IVar="-1" Cut="0.0000000000000000e+00" cType="1" res="-1.3818074949085712e-03" rms="1.8875512480735779e-01" purity="3.7397172302007675e-02" nType="-99"/>
          <Node pos="r" depth="2" NCoef="0" IVar="1" Cut="5.9138339012861252e-02" cType="1" res="4.1970111429691315e-02" rms="3.2524183392524719e-01" purity="3.0561581254005432e-01" nType="0">
            <Node pos="l" depth="3" NCoef="0" IVar="-1" Cut="0.0000000000000000e+00" cType="1" res="4.4586561620235443e-02" rms="2.5511199235916138e-01" purity="9.6395000815391541e-02" nType="-99"/>
            <Node pos="r" depth="3" NCoef="0" IVar="-1" Cut="0.0000000000000000e+00" cType="1" res="4.9603998661041260e-02" rms="3.7374451756477356e-01" purity="4.8284697532653809e-01" nType="-99"/>
          </Node>
        </Node>
        <Node pos="r" depth="1" NCoef="0" IVar="6" Cut="4.7662848234176636e-01" cType="1" res="4.8316159518435597e-04" rms="2.5089719891548157e-01" purity="5.3515505790710449e-01" nType="0">
          <Node pos="l" depth="2" NCoef="0" IVar="7" Cut="9.3225115537643433e-01" cType="1" res="3.9772950112819672e-03" rms="2.4981680512428284e-01" purity="5.8326399326324463e-01" nType="0">
            <Node pos="l" depth="3" NCoef="0" IVar="-1" Cut="0.0000000000000000e+00" cType="1" res="1.0710605420172215e-02" rms="2.5077885389328003e-01" purity="6.2882113456726074e-01" nType="-99"/>
            <Node pos="r" depth="3" NCoef="0" IVar="-1" Cut="0.0000000000000000e+00" cType="1" res="-1.9528731703758240e-02" rms="2.4373051524162292e-01" purity="3.2920929789543152e-01" nType="-99"/>
          </Node>
          <Node pos="r" depth="2" NCoef="0" IVar="9" Cut="-1.1989984512329102e+00" cType="1" res="-8.4922360256314278e-03" rms="2.5343057513237000e-01" purity="4.1157740354537964e-01" nType="0">
            <Node pos="l" depth="3" NCoef="0" IVar="-1" Cut="0.0000000000000000e+00" cType="1" res="-6.9218963384628296e-02" rms="2.5809514522552490e-01" purity="2.3137480020523071e-01" nType="-99"/>
            <Node pos="r" depth="3" NCoef="0" IVar="-1" Cut="0.0000000000000000e+00" cType="1" res="-3.0117905698716640e-03" rms="2.5206822156906128e-01" purity="4.4027182459831238e-01" nType="-99"/>
          </Node>
        </Node>
      </Node>
    </BinaryTree>
    <BinaryTree type="DecisionTree" boostWeight="1.0000000000000000e+00" itree="73">
      <Node pos="s" depth="0" NCoef="0" IVar="9" Cut="-1.1993846893310547e+00" cType="1" res="-1.7761456547304988e-05" rms="2.5135898590087891e-01" purity="4.9250608682632446e-01" nType="0">
        <Node pos="l" depth="1" NCoef="0" IVar="1" Cut="5.7171661406755447e-02" cType="1" res="1.5380555763840675e-02" rms="2.7698180079460144e-01" purity="3.9309403300285339e-01" nType="0">
          <Node pos="l" depth="2" NCoef="0" IVar="9" Cut="-1.8087447881698608e+00" cType="1" res="3.7716033402830362e-03" rms="2.3876966536045074e-01" purity="1.6779816150665283e-01" nType="0">
            <Node pos="l" depth="3" NCoef="0" IVar="-1" Cut="0.0000000000000000e+00" cType="1" res="-3.5249974578619003e-02" rms="1.9477462768554688e-01" purity="7.7815636992454529e-02" nType="-99"/>
            <Node pos="r" depth="3" NCoef="0" IVar="-1" Cut="0.0000000000000000e+00" cType="1" res="2.7762535959482193e-02" rms="2.6729664206504822e-01" purity="2.3839870095252991e-01" nType="-99"/>
          </Node>
          <Node pos="r" depth="2" NCoef="0" IVar="8" Cut="-9.4553910195827484e-02" cType="1" res="2.9691090807318687e-02" rms="3.1724172830581665e-01" purity="6.7081969976425171e-01" nType="0">
            <Node pos="l" depth="3" NCoef="0" IVar="-1" Cut="0.0000000000000000e+00" cType="1" res="1.3090477325022221e-02" rms="3.2417815923690796e-01" purity="6.4636421203613281e-01" nType="-99"/>
            <Node pos="r" depth="3" NCoef="0" IVar="-1" Cut="0.0000000000000000e+00" cType="1" res="5.1779333502054214e-02" rms="3.1027647852897644e-01" purity="6.9202417135238647e-01" nType="-99"/>
          </Node>
        </Node>
        <Node pos="r" depth="1" NCoef="0" IVar="0" Cut="2.9976367187500000e+03" cType="1" res="-2.4217504542320967e-03" rms="2.4703249335289001e-01" purity="5.0802636146545410e-01" nType="0">
          <Node pos="l" depth="2" NCoef="0" IVar="2" Cut="7.8942785644531250e+02" cType="1" res="-4.3469658121466637e-03" rms="2.6097422838211060e-01" purity="4.2802593111991882e-01" nType="0">
            <Node pos="l" depth="3" NCoef="0" IVar="-1" Cut="0.0000000000000000e+00" cType="1" res="-3.8897416088730097e-03" rms="2.5758564472198486e-01" purity="4.2447865009307861e-01" nType="-99"/>
            <Node pos="r" depth="3" NCoef="0" IVar="-1" Cut="0.0000000000000000e+00" cType="1" res="-3.7655312567949295e-02" rms="3.2139101624488831e-01" purity="5.0177013874053955e-01" nType="-99"/>
          </Node>
          <Node pos="r" depth="2" NCoef="0" IVar="9" Cut="7.0280534029006958e-01" cType="1" res="8.8424775749444962e-03" rms="1.3941849768161774e-01" purity="9.7610002756118774e-01" nType="0">
            <Node pos="l" depth="3" NCoef="0" IVar="-1" Cut="0.0000000000000000e+00" cType="1" res="5.1208280026912689e-02" rms="1.2626163661479950e-01" purity="9.8152315616607666e-01" nType="-99"/>
            <Node pos="r" depth="3" NCoef="0" IVar="-1" Cut="0.0000000000000000e+00" cType="1" res="-2.0324958488345146e-02" rms="1.7860774695873260e-01" purity="9.5631402730941772e-01" nType="-99"/>
          </Node>
        </Node>
      </Node>
    </BinaryTree>
    <BinaryTree type="DecisionTree" boostWeight="1.0000000000000000e+00" itree="74">
      <Node pos="s" depth="0" NCoef="0" IVar="6" Cut="-1.1417706012725830e+00" cType="1" res="3.9956776890903711e-04" rms="2.5416699051856995e-01" purity="5.0376397371292114e-01" nType="0">
        <Node pos="l" depth="1" NCoef="0" IVar="0" Cut="1.8676242675781250e+03" cType="1" res="-1.4025567099452019e-02" rms="2.1203561127185822e-01" purity="1.4400711655616760e-01" nType="0">
          <Node pos="l" depth="2" NCoef="0" IVar="6" Cut="-1.6670880317687988e+00" cType="1" res="-1.9290035124868155e-03" rms="1.4847695827484131e-01" purity="2.9197035357356071e-02" nType="0">
            <Node pos="l" depth="3" NCoef="0" IVar="-1" Cut="0.0000000000000000e+00" cType="1" res="-8.1695221364498138e-02" rms="6.9676369428634644e-02" purity="4.1882814839482307e-03" nType="-99"/>
            <Node pos="r" depth="3" NCoef="0" IVar="-1" Cut="0.0000000000000000e+00" cType="1" res="1.8782144412398338e-02" rms="1.8731325864791870e-01" purity="4.8409041017293930e-02" nType="-99"/>
          </Node>
          <Node pos="r" depth="2" NCoef="0" IVar="-1" Cut="0.0000000000000000e+00" cType="1" res="-3.8088619709014893e-02" rms="3.1373989582061768e-01" purity="4.1785931587219238e-01" nType="-99"/>
        </Node>
        <Node pos="r" depth="1" NCoef="0" IVar="5" Cut="8.4678039550781250e+01" cType="1" res="1.9169925944879651e-03" rms="2.5815275311470032e-01" purity="5.4160791635513306e-01" nType="0">
          <Node pos="l" depth="2" NCoef="0" IVar="1" Cut="3.2763697206974030e-02" cType="1" res="-1.1946785263717175e-02" rms="1.8218144774436951e-01" purity="5.5307421833276749e-02" nType="0">
            <Node pos="l" depth="3" NCoef="0" IVar="-1" Cut="0.0000000000000000e+00" cType="1" res="-4.3547395616769791e-03" rms="1.4576329290866852e-01" purity="2.6421351358294487e-02" nType="-99"/>
            <Node pos="r" depth="3" NCoef="0" IVar="-1" Cut="0.0000000000000000e+00" cType="1" res="-4.4019971042871475e-02" rms="2.1823570132255554e-01" purity="9.1035194694995880e-02" nType="-99"/>
          </Node>
          <Node pos="r" depth="2" NCoef="0" IVar="5" Cut="1.4843887329101562e+02" cType="1" res="3.0440324917435646e-03" rms="2.6333525776863098e-01" purity="5.8114105463027954e-01" nType="0">
            <Node pos="l" depth="3" NCoef="0" IVar="-1" Cut="0.0000000000000000e+00" cType="1" res="1.2468150816857815e-02" rms="2.8302639722824097e-01" purity="2.2997738420963287e-01" nType="-99"/>
            <Node pos="r" depth="3" NCoef="0" IVar="-1" Cut="0.0000000000000000e+00" cType="1" res="-1.3337717391550541e-03" rms="2.5110164284706116e-01" purity="7.8520929813385010e-01" nType="-99"/>
          </Node>
        </Node>
      </Node>
    </BinaryTree>
    <BinaryTree type="DecisionTree" boostWeight="1.0000000000000000e+00" itree="75">
      <Node pos="s" depth="0" NCoef="0" IVar="9" Cut="-1.1993613243103027e+00" cType="1" res="-2.1852995269000530e-03" rms="2.5509336590766907e-01" purity="4.9820831418037415e-01" nType="0">
        <Node pos="l" depth="1" NCoef="0" IVar="3" Cut="3.3205084228515625e+02" cType="1" res="-2.0613351836800575e-02" rms="2.7866604924201965e-01" purity="3.2993698120117188e-01" nType="0">
          <Node pos="l" depth="2" NCoef="0" IVar="3" Cut="1.9651068115234375e+02" cType="1" res="1.7323544016107917e-03" rms="2.5586727261543274e-01" purity="1.8854878842830658e-01" nType="0">
            <Node pos="l" depth="3" NCoef="0" IVar="-1" Cut="0.0000000000000000e+00" cType="1" res="-4.9001406878232956e-02" rms="1.6556884348392487e-01" purity="3.7385556846857071e-02" nType="-99"/>
            <Node pos="r" depth="3" NCoef="0" IVar="-1" Cut="0.0000000000000000e+00" cType="1" res="1.2119665741920471e-02" rms="2.8166776895523071e-01" purity="2.4433578550815582e-01" nType="-99"/>
          </Node>
          <Node pos="r" depth="2" NCoef="0" IVar="6" Cut="-2.4338653311133385e-02" cType="1" res="-6.1919488012790680e-02" rms="3.1233435869216919e-01" purity="5.9129369258880615e-01" nType="0">
            <Node pos="l" depth="3" NCoef="0" IVar="-1" Cut="0.0000000000000000e+00" cType="1" res="-4.0468100458383560e-02" rms="2.8273084759712219e-01" purity="6.2076848745346069e-01" nType="-99"/>
            <Node pos="r" depth="3" NCoef="0" IVar="-1" Cut="0.0000000000000000e+00" cType="1" res="-9.7914524376392365e-02" rms="3.3893734216690063e-01" purity="5.5817687511444092e-01" nType="-99"/>
          </Node>
        </Node>
        <Node pos="r" depth="1" NCoef="0" IVar="2" Cut="3.1341476440429688e+02" cType="1" res="1.1844288092106581e-03" rms="2.5039654970169067e-01" purity="5.2897822856903076e-01" nType="0">
          <Node pos="l" depth="2" NCoef="0" IVar="0" Cut="1.5387528076171875e+03" cType="1" res="-1.3754830695688725e-02" rms="2.6022177934646606e-01" purity="1.8340072035789490e-01" nType="0">
            <Node pos="l" depth="3" NCoef="0" IVar="-1" Cut="0.0000000000000000e+00" cType="1" res="-9.1346497356425971e-05" rms="1.9480660557746887e-01" purity="4.0733616799116135e-02" nType="-99"/>
            <Node pos="r" depth="3" NCoef="0" IVar="-1" Cut="0.0000000000000000e+00" cType="1" res="-2.6331940665841103e-02" rms="3.1803876161575317e-01" purity="3.4584310650825500e-01" nType="-99"/>
          </Node>
          <Node pos="r" depth="2" NCoef="0" IVar="7" Cut="-6.6591632366180420e-01" cType="1" res="2.4726518895477057e-03" rms="2.4948929250240326e-01" purity="5.5877757072448730e-01" nType="0">
            <Node pos="l" depth="3" NCoef="0" IVar="-1" Cut="0.0000000000000000e+00" cType="1" res="1.9900463521480560e-02" rms="2.5464025139808655e-01" purity="4.3059489130973816e-01" nType="-99"/>
            <Node pos="r" depth="3" NCoef="0" IVar="-1" Cut="0.0000000000000000e+00" cType="1" res="-9.3237566761672497e-04" rms="2.4786637723445892e-01" purity="5.9659779071807861e-01" nType="-99"/>
          </Node>
        </Node>
      </Node>
    </BinaryTree>
    <BinaryTree type="DecisionTree" boostWeight="1.0000000000000000e+00" itree="76">
      <Node pos="s" depth="0" NCoef="0" IVar="3" Cut="4.8286889648437500e+02" cType="1" res="9.6468604169785976e-04" rms="2.5162470340728760e-01" purity="5.0941252708435059e-01" nType="0">
        <Node pos="l" depth="1" NCoef="0" IVar="0" Cut="1.7973955078125000e+03" cType="1" res="2.6970694307237864e-03" rms="2.5553998351097107e-01" purity="4.4882997870445251e-01" nType="0">
          <Node pos="l" depth="2" NCoef="0" IVar="0" Cut="1.7406038818359375e+03" cType="1" res="-6.7571974359452724e-03" rms="2.0788569748401642e-01" purity="5.4789241403341293e-02" nType="0">
            <Node pos="l" depth="3" NCoef="0" IVar="-1" Cut="0.0000000000000000e+00" cType="1" res="-9.7185466438531876e-03" rms="1.9240920245647430e-01" purity="4.3979018926620483e-02" nType="-99"/>
            <Node pos="r" depth="3" NCoef="0" IVar="-1" Cut="0.0000000000000000e+00" cType="1" res="-3.1275134533643723e-02" rms="3.2061952352523804e-01" purity="1.6017165780067444e-01" nType="-99"/>
          </Node>
          <Node pos="r" depth="2" NCoef="0" IVar="9" Cut="-1.1994786262512207e+00" cType="1" res="1.0009149089455605e-02" rms="2.8680720925331116e-01" purity="7.5358736515045166e-01" nType="0">
            <Node pos="l" depth="3" NCoef="0" IVar="-1" Cut="0.0000000000000000e+00" cType="1" res="3.7244249135255814e-02" rms="3.1831389665603638e-01" purity="6.8244802951812744e-01" nType="-99"/>
            <Node pos="r" depth="3" NCoef="0" IVar="-1" Cut="0.0000000000000000e+00" cType="1" res="6.7136688157916069e-03" rms="2.8151136636734009e-01" purity="7.6424646377563477e-01" nType="-99"/>
          </Node>
        </Node>
        <Node pos="r" depth="1" NCoef="0" IVar="0" Cut="2.8099045410156250e+03" cType="1" res="-9.4944164156913757e-03" rms="2.2627206146717072e-01" purity="8.7517380714416504e-01" nType="0">
          <Node pos="l" depth="2" NCoef="0" IVar="-1" Cut="0.0000000000000000e+00" cType="1" res="-3.7454821169376373e-02" rms="3.1168121099472046e-01" purity="6.9793379306793213e-01" nType="-99"/>
          <Node pos="r" depth="2" NCoef="0" IVar="8" Cut="-9.9182039499282837e-02" cType="1" res="3.9405433926731348e-04" rms="1.7083813250064850e-01" purity="9.5891618728637695e-01" nType="0">
            <Node pos="l" depth="3" NCoef="0" IVar="-1" Cut="0.0000000000000000e+00" cType="1" res="-3.9385050535202026e-02" rms="1.9311314821243286e-01" purity="9.4294857978820801e-01" nType="-99"/>
            <Node pos="r" depth="3" NCoef="0" IVar="-1" Cut="0.0000000000000000e+00" cType="1" res="3.5265404731035233e-02" rms="1.4921453595161438e-01" purity="9.7205823659896851e-01" nType="-99"/>
          </Node>
        </Node>
      </Node>
    </BinaryTree>
    <BinaryTree type="DecisionTree" boostWeight="1.0000000000000000e+00" itree="77">
      <Node pos="s" depth="0" NCoef="0" IVar="1" Cut="1.6921022534370422e-01" cType="1" res="-2.9832138679921627e-03" rms="2.5055199861526489e-01" purity="4.9276220798492432e-01" nType="0">
        <Node pos="l" depth="1" NCoef="0" IVar="1" Cut="6.4592860639095306e-02" cType="1" res="-5.1207514479756355e-03" rms="2.5594043731689453e-01" purity="4.3531376123428345e-01" nType="0">
          <Node pos="l" depth="2" NCoef="0" IVar="7" Cut="-9.3068331480026245e-01" cType="1" res="2.9282207833603024e-05" rms="2.4493306875228882e-01" purity="2.5532326102256775e-01" nType="0">
            <Node pos="l" depth="3" NCoef="0" IVar="-1" Cut="0.0000000000000000e+00" cType="1" res="-2.5849971920251846e-02" rms="2.2318784892559052e-01" purity="1.3896809518337250e-01" nType="-99"/>
            <Node pos="r" depth="3" NCoef="0" IVar="-1" Cut="0.0000000000000000e+00" cType="1" res="6.4044934697449207e-03" rms="2.5095522403717041e-01" purity="2.9027372598648071e-01" nType="-99"/>
          </Node>
          <Node pos="r" depth="2" NCoef="0" IVar="1" Cut="8.4519460797309875e-02" cType="1" res="-1.1877197772264481e-02" rms="2.6955163478851318e-01" purity="6.7144739627838135e-01" nType="0">
            <Node pos="l" depth="3" NCoef="0" IVar="-1" Cut="0.0000000000000000e+00" cType="1" res="-3.3727090805768967e-02" rms="2.8426530957221985e-01" purity="5.3432244062423706e-01" nType="-99"/>
            <Node pos="r" depth="3" NCoef="0" IVar="-1" Cut="0.0000000000000000e+00" cType="1" res="-9.0397279709577560e-03" rms="2.6346719264984131e-01" purity="7.2408032417297363e-01" nType="-99"/>
          </Node>
        </Node>
        <Node pos="r" depth="1" NCoef="0" IVar="9" Cut="-1.0617729276418686e-01" cType="1" res="1.1631919071078300e-02" rms="2.0945376157760620e-01" purity="8.8555836677551270e-01" nType="0">
          <Node pos="l" depth="2" NCoef="0" IVar="-1" Cut="0.0000000000000000e+00" cType="1" res="5.3210486657917500e-03" rms="2.0300050079822540e-01" purity="8.7688136100769043e-01" nType="-99"/>
          <Node pos="r" depth="2" NCoef="0" IVar="-1" Cut="0.0000000000000000e+00" cType="1" res="4.0972296148538589e-02" rms="2.1479129791259766e-01" purity="8.9338654279708862e-01" nType="-99"/>
        </Node>
      </Node>
    </BinaryTree>
    <BinaryTree type="DecisionTree" boostWeight="1.0000000000000000e+00" itree="78">
      <Node pos="s" depth="0" NCoef="0" IVar="8" Cut="-1.7322281599044800e+00" cType="1" res="2.3259282170329243e-04" rms="2.5391599535942078e-01" purity="5.0303554534912109e-01" nType="0">
        <Node pos="l" depth="1" NCoef="0" IVar="-1" Cut="0.0000000000000000e+00" cType="1" res="-5.0158448517322540e-02" rms="2.4306091666221619e-01" purity="1.2363950908184052e-01" nType="-99"/>
        <Node pos="r" depth="1" NCoef="0" IVar="8" Cut="1.9361459016799927e+00" cType="1" res="1.5889700734987855e-03" rms="2.5436908006668091e-01" purity="5.2195554971694946e-01" nType="0">
          <Node pos="l" depth="2" NCoef="0" IVar="2" Cut="8.0880041503906250e+02" cType="1" res="2.7131827082484961e-03" rms="2.5604331493377686e-01" purity="5.3743326663970947e-01" nType="0">
            <Node pos="l" depth="3" NCoef="0" IVar="-1" Cut="0.0000000000000000e+00" cType="1" res="6.4006675966084003e-03" rms="2.5490060448646545e-01" purity="5.1441955566406250e-01" nType="-99"/>
            <Node pos="r" depth="3" NCoef="0" IVar="-1" Cut="0.0000000000000000e+00" cType="1" res="-1.7523316666483879e-02" rms="2.6745218038558960e-01" purity="7.8277707099914551e-01" nType="-99"/>
          </Node>
          <Node pos="r" depth="2" NCoef="0" IVar="-1" Cut="0.0000000000000000e+00" cType="1" res="-6.3177667558193207e-02" rms="1.9825294613838196e-01" purity="8.1135377287864685e-02" nType="-99"/>
        </Node>
      </Node>
    </BinaryTree>
    <BinaryTree type="DecisionTree" boostWeight="1.0000000000000000e+00" itree="79">
      <Node pos="s" depth="0" NCoef="0" IVar="5" Cut="2.1851588439941406e+02" cType="1" res="1.9258103566244245e-03" rms="2.5509515404701233e-01" purity="5.0474649667739868e-01" nType="0">
        <Node pos="l" depth="1" NCoef="0" IVar="2" Cut="5.4369018554687500e+02" cType="1" res="5.2445339970290661e-03" rms="2.7162802219390869e-01" purity="3.6186879873275757e-01" nType="0">
          <Node pos="l" depth="2" NCoef="0" IVar="0" Cut="1.7009161376953125e+03" cType="1" res="9.6548087894916534e-03" rms="2.7012714743614197e-01" purity="2.8087049722671509e-01" nType="0">
            <Node pos="l" depth="3" NCoef="0" IVar="-1" Cut="0.0000000000000000e+00" cType="1" res="2.2154916077852249e-03" rms="2.0125374197959900e-01" purity="4.6808041632175446e-02" nType="-99"/>
            <Node pos="r" depth="3" NCoef="0" IVar="-1" Cut="0.0000000000000000e+00" cType="1" res="1.8711613491177559e-02" rms="3.4193384647369385e-01" purity="5.9951448440551758e-01" nType="-99"/>
          </Node>
          <Node pos="r" depth="2" NCoef="0" IVar="1" Cut="3.7398505955934525e-02" cType="1" res="-2.9082985129207373e-03" rms="2.7419421076774597e-01" purity="5.1160216331481934e-01" nType="0">
            <Node pos="l" depth="3" NCoef="0" IVar="-1" Cut="0.0000000000000000e+00" cType="1" res="1.3288677670061588e-02" rms="2.6227471232414246e-01" purity="2.1990258991718292e-01" nType="-99"/>
            <Node pos="r" depth="3" NCoef="0" IVar="-1" Cut="0.0000000000000000e+00" cType="1" res="-1.5218123793601990e-02" rms="2.8253093361854553e-01" purity="7.3214381933212280e-01" nType="-99"/>
          </Node>
        </Node>
        <Node pos="r" depth="1" NCoef="0" IVar="0" Cut="2.3859135742187500e+03" cType="1" res="-7.7846511267125607e-03" rms="1.9866307079792023e-01" purity="9.2280131578445435e-01" nType="0">
          <Node pos="l" depth="2" NCoef="0" IVar="-1" Cut="0.0000000000000000e+00" cType="1" res="-5.8262377977371216e-02" rms="3.5780787467956543e-01" purity="6.7852234840393066e-01" nType="-99"/>
          <Node pos="r" depth="2" NCoef="0" IVar="0" Cut="3.3095651855468750e+03" cType="1" res="6.0374042950570583e-03" rms="1.3594342768192291e-01" purity="9.7782278060913086e-01" nType="0">
            <Node pos="l" depth="3" NCoef="0" IVar="-1" Cut="0.0000000000000000e+00" cType="1" res="1.2445821426808834e-02" rms="1.4783269166946411e-01" purity="9.7283494472503662e-01" nType="-99"/>
            <Node pos="r" depth="3" NCoef="0" IVar="-1" Cut="0.0000000000000000e+00" cType="1" res="7.7210955321788788e-02" rms="8.4828481078147888e-02" purity="9.9434977769851685e-01" nType="-99"/>
          </Node>
        </Node>
      </Node>
    </BinaryTree>
    <BinaryTree type="DecisionTree" boostWeight="1.0000000000000000e+00" itree="80">
      <Node pos="s" depth="0" NCoef="0" IVar="6" Cut="-1.1420267820358276e+00" cType="1" res="2.8864454943686724e-03" rms="2.4857975542545319e-01" purity="5.0359040498733521e-01" nType="0">
        <Node pos="l" depth="1" NCoef="0" IVar="7" Cut="1.6074869036674500e-01" cType="1" res="-1.4122513122856617e-02" rms="2.1990482509136200e-01" purity="1.4420887827873230e-01" nType="0">
          <Node pos="l" depth="2" NCoef="0" IVar="8" Cut="-1.2665325403213501e-01" cType="1" res="2.1890802308917046e-03" rms="2.3003163933753967e-01" purity="1.8600662052631378e-01" nType="0">
            <Node pos="l" depth="3" NCoef="0" IVar="-1" Cut="0.0000000000000000e+00" cType="1" res="-1.4349499717354774e-02" rms="2.1133875846862793e-01" purity="1.7379958927631378e-01" nType="-99"/>
            <Node pos="r" depth="3" NCoef="0" IVar="-1" Cut="0.0000000000000000e+00" cType="1" res="2.1477820351719856e-02" rms="2.4801605939865112e-01" purity="1.9903194904327393e-01" nType="-99"/>
          </Node>
          <Node pos="r" depth="2" NCoef="0" IVar="-1" Cut="0.0000000000000000e+00" cType="1" res="-6.8887993693351746e-02" rms="2.0480015873908997e-01" purity="9.2181347310543060e-02" nType="-99"/>
        </Node>
        <Node pos="r" depth="1" NCoef="0" IVar="9" Cut="-1.4659709930419922e+00" cType="1" res="4.7825821675360203e-03" rms="2.5150275230407715e-01" purity="5.4365378618240356e-01" nType="0">
          <Node pos="l" depth="2" NCoef="0" IVar="5" Cut="1.3654321289062500e+02" cType="1" res="-1.2220337986946106e-02" rms="2.7389076352119446e-01" purity="3.4620204567909241e-01" nType="0">
            <Node pos="l" depth="3" NCoef="0" IVar="-1" Cut="0.0000000000000000e+00" cType="1" res="4.2596235871315002e-03" rms="2.3255328834056854e-01" purity="1.7052891850471497e-01" nType="-99"/>
            <Node pos="r" depth="3" NCoef="0" IVar="-1" Cut="0.0000000000000000e+00" cType="1" res="-3.5983499139547348e-02" rms="3.1435322761535645e-01" purity="5.5061924457550049e-01" nType="-99"/>
          </Node>
          <Node pos="r" depth="2" NCoef="0" IVar="5" Cut="1.0613690948486328e+02" cType="1" res="6.4269276335835457e-03" rms="2.4916945397853851e-01" purity="5.6274932622909546e-01" nType="0">
            <Node pos="l" depth="3" NCoef="0" IVar="-1" Cut="0.0000000000000000e+00" cType="1" res="-1.2622812762856483e-02" rms="2.0917285978794098e-01" purity="8.4824658930301666e-02" nType="-99"/>
            <Node pos="r" depth="3" NCoef="0" IVar="-1" Cut="0.0000000000000000e+00" cType="1" res="1.3405473902821541e-02" rms="2.5650280714035034e-01" purity="6.6041439771652222e-01" nType="-99"/>
          </Node>
        </Node>
      </Node>
    </BinaryTree>
    <BinaryTree type="DecisionTree" boostWeight="1.0000000000000000e+00" itree="81">
      <Node pos="s" depth="0" NCoef="0" IVar="4" Cut="2.3820509338378906e+02" cType="1" res="2.1492210216820240e-03" rms="2.5340166687965393e-01" purity="4.9872878193855286e-01" nType="0">
        <Node pos="l" depth="1" NCoef="0" IVar="8" Cut="-1.1991539001464844e+00" cType="1" res="8.6044082418084145e-03" rms="2.6358878612518311e-01" purity="2.4603317677974701e-01" nType="0">
          <Node pos="l" depth="2" NCoef="0" IVar="1" Cut="3.4257084131240845e-02" cType="1" res="2.9131161049008369e-02" rms="2.4991215765476227e-01" purity="1.9104118645191193e-01" nType="0">
            <Node pos="l" depth="3" NCoef="0" IVar="-1" Cut="0.0000000000000000e+00" cType="1" res="2.1097714081406593e-02" rms="1.8079626560211182e-01" purity="5.9401564300060272e-02" nType="-99"/>
            <Node pos="r" depth="3" NCoef="0" IVar="-1" Cut="0.0000000000000000e+00" cType="1" res="6.2543354928493500e-02" rms="3.0456975102424622e-01" purity="3.2996001839637756e-01" nType="-99"/>
          </Node>
          <Node pos="r" depth="2" NCoef="0" IVar="9" Cut="-9.3336158990859985e-01" cType="1" res="4.2568710632622242e-03" rms="2.6619231700897217e-01" purity="2.5768041610717773e-01" nType="0">
            <Node pos="l" depth="3" NCoef="0" IVar="-1" Cut="0.0000000000000000e+00" cType="1" res="3.0063882470130920e-02" rms="2.6561167836189270e-01" purity="2.5566771626472473e-01" nType="-99"/>
            <Node pos="r" depth="3" NCoef="0" IVar="-1" Cut="0.0000000000000000e+00" cType="1" res="-1.4333338476717472e-03" rms="2.6616820693016052e-01" purity="2.5833317637443542e-01" nType="-99"/>
          </Node>
        </Node>
        <Node pos="r" depth="1" NCoef="0" IVar="0" Cut="2.1427084960937500e+03" cType="1" res="-6.0570179484784603e-03" rms="2.3957629501819611e-01" purity="8.1997132301330566e-01" nType="0">
          <Node pos="l" depth="2" NCoef="0" IVar="5" Cut="1.4493852233886719e+02" cType="1" res="-3.3765669912099838e-02" rms="3.6532643437385559e-01" purity="3.2772988080978394e-01" nType="0">
            <Node pos="l" depth="3" NCoef="0" IVar="-1" Cut="0.0000000000000000e+00" cType="1" res="3.5934116691350937e-02" rms="3.0757927894592285e-01" purity="1.7632667720317841e-01" nType="-99"/>
            <Node pos="r" depth="3" NCoef="0" IVar="-1" Cut="0.0000000000000000e+00" cType="1" res="-4.2803760617971420e-02" rms="3.8740745186805725e-01" purity="4.0454244613647461e-01" nType="-99"/>
          </Node>
          <Node pos="r" depth="2" NCoef="0" IVar="1" Cut="1.0625395923852921e-01" cType="1" res="4.9412652151659131e-04" rms="1.9795951247215271e-01" purity="9.3635171651840210e-01" nType="0">
            <Node pos="l" depth="3" NCoef="0" IVar="-1" Cut="0.0000000000000000e+00" cType="1" res="-1.1437382549047470e-02" rms="2.5274351239204407e-01" purity="8.8656508922576904e-01" nType="-99"/>
            <Node pos="r" depth="3" NCoef="0" IVar="-1" Cut="0.0000000000000000e+00" cType="1" res="3.2817095518112183e-02" rms="1.2855505943298340e-01" purity="9.8182123899459839e-01" nType="-99"/>
          </Node>
        </Node>
      </Node>
    </BinaryTree>
    <BinaryTree type="DecisionTree" boostWeight="1.0000000000000000e+00" itree="82">
      <Node pos="s" depth="0" NCoef="0" IVar="3" Cut="5.9083612060546875e+02" cType="1" res="9.1727520339190960e-04" rms="2.5679764151573181e-01" purity="5.0898504257202148e-01" nType="0">
        <Node pos="l" depth="1" NCoef="0" IVar="7" Cut="-4.0061423182487488e-01" cType="1" res="2.4466693866997957e-03" rms="2.5708645582199097e-01" purity="4.8952725529670715e-01" nType="0">
          <Node pos="l" depth="2" NCoef="0" IVar="3" Cut="4.6586267089843750e+02" cType="1" res="-5.5494606494903564e-03" rms="2.5324606895446777e-01" purity="4.2561101913452148e-01" nType="0">
            <Node pos="l" depth="3" NCoef="0" IVar="-1" Cut="0.0000000000000000e+00" cType="1" res="-4.9504572525620461e-03" rms="2.5243714451789856e-01" purity="3.8279080390930176e-01" nType="-99"/>
            <Node pos="r" depth="3" NCoef="0" IVar="-1" Cut="0.0000000000000000e+00" cType="1" res="-4.3513100594282150e-02" rms="2.5935199856758118e-01" purity="8.0063402652740479e-01" nType="-99"/>
          </Node>
          <Node pos="r" depth="2" NCoef="0" IVar="8" Cut="1.4659453630447388e+00" cType="1" res="6.5242825075984001e-03" rms="2.5892788171768188e-01" purity="5.2212125062942505e-01" nType="0">
            <Node pos="l" depth="3" NCoef="0" IVar="-1" Cut="0.0000000000000000e+00" cType="1" res="6.3105463050305843e-03" rms="2.5572064518928528e-01" purity="5.4215407371520996e-01" nType="-99"/>
            <Node pos="r" depth="3" NCoef="0" IVar="-1" Cut="0.0000000000000000e+00" cType="1" res="5.1997415721416473e-02" rms="2.9449090361595154e-01" purity="2.7257412672042847e-01" nType="-99"/>
          </Node>
        </Node>
        <Node pos="r" depth="1" NCoef="0" IVar="-1" Cut="0.0000000000000000e+00" cType="1" res="-5.7616047561168671e-02" rms="2.4948413670063019e-01" purity="8.7818920612335205e-01" nType="-99"/>
      </Node>
    </BinaryTree>
    <BinaryTree type="DecisionTree" boostWeight="1.0000000000000000e+00" itree="83">
      <Node pos="s" depth="0" NCoef="0" IVar="9" Cut="1.7330390214920044e+00" cType="1" res="-6.2570581212639809e-04" rms="2.5449249148368835e-01" purity="5.0626438856124878e-01" nType="0">
        <Node pos="l" depth="1" NCoef="0" IVar="9" Cut="1.3012608289718628e+00" cType="1" res="9.8099815659224987e-04" rms="2.5274598598480225e-01" purity="5.2234786748886108e-01" nType="0">
          <Node pos="l" depth="2" NCoef="0" IVar="7" Cut="-1.7278993129730225e+00" cType="1" res="-6.9103093119338155e-04" rms="2.4996903538703918e-01" purity="5.2632606029510498e-01" nType="0">
            <Node pos="l" depth="3" NCoef="0" IVar="-1" Cut="0.0000000000000000e+00" cType="1" res="-5.5732998996973038e-02" rms="1.7115625739097595e-01" purity="7.5012966990470886e-02" nType="-99"/>
            <Node pos="r" depth="3" NCoef="0" IVar="-1" Cut="0.0000000000000000e+00" cType="1" res="4.6773534268140793e-04" rms="2.5277984142303467e-01" purity="5.4586642980575562e-01" nType="-99"/>
          </Node>
          <Node pos="r" depth="2" NCoef="0" IVar="2" Cut="4.9874520874023438e+02" cType="1" res="2.5644676759839058e-02" rms="2.8952249884605408e-01" purity="4.6366718411445618e-01" nType="0">
            <Node pos="l" depth="3" NCoef="0" IVar="-1" Cut="0.0000000000000000e+00" cType="1" res="5.7013552635908127e-02" rms="3.1020495295524597e-01" purity="3.4638020396232605e-01" nType="-99"/>
            <Node pos="r" depth="3" NCoef="0" IVar="-1" Cut="0.0000000000000000e+00" cType="1" res="6.8568736314773560e-03" rms="2.6227530837059021e-01" purity="5.9808015823364258e-01" nType="-99"/>
          </Node>
        </Node>
        <Node pos="r" depth="1" NCoef="0" IVar="5" Cut="1.3171882629394531e+02" cType="1" res="-2.6763623580336571e-02" rms="2.8009444475173950e-01" purity="2.4461716413497925e-01" nType="0">
          <Node pos="l" depth="2" NCoef="0" IVar="-1" Cut="0.0000000000000000e+00" cType="1" res="1.6733825206756592e-02" rms="2.3103810846805573e-01" purity="1.1981199681758881e-01" nType="-99"/>
          <Node pos="r" depth="2" NCoef="0" IVar="-1" Cut="0.0000000000000000e+00" cType="1" res="-7.0221967995166779e-02" rms="3.2087975740432739e-01" purity="3.8061049580574036e-01" nType="-99"/>
        </Node>
      </Node>
    </BinaryTree>
    <BinaryTree type="DecisionTree" boostWeight="1.0000000000000000e+00" itree="84">
      <Node pos="s" depth="0" NCoef="0" IVar="9" Cut="1.9996509552001953e+00" cType="1" res="-2.8572017326951027e-03" rms="2.5518095493316650e-01" purity="4.9844822287559509e-01" nType="0">
        <Node pos="l" depth="1" NCoef="0" IVar="4" Cut="2.3307221984863281e+02" cType="1" res="-1.7852877499535680e-03" rms="2.5527611374855042e-01" purity="5.1224106550216675e-01" nType="0">
          <Node pos="l" depth="2" NCoef="0" IVar="9" Cut="-1.6564656496047974e+00" cType="1" res="3.0185154173523188e-03" rms="2.6576584577560425e-01" purity="2.3446816205978394e-01" nType="0">
            <Node pos="l" depth="3" NCoef="0" IVar="-1" Cut="0.0000000000000000e+00" cType="1" res="4.5597858726978302e-02" rms="2.7845588326454163e-01" purity="1.9758690893650055e-01" nType="-99"/>
            <Node pos="r" depth="3" NCoef="0" IVar="-1" Cut="0.0000000000000000e+00" cType="1" res="7.9145398922264576e-04" rms="2.6433095335960388e-01" purity="2.3817332088947296e-01" nType="-99"/>
          </Node>
          <Node pos="r" depth="2" NCoef="0" IVar="7" Cut="9.1602689027786255e-01" cType="1" res="-7.0601245388388634e-03" rms="2.4312800168991089e-01" purity="8.1725084781646729e-01" nType="0">
            <Node pos="l" depth="3" NCoef="0" IVar="-1" Cut="0.0000000000000000e+00" cType="1" res="-5.9206387959420681e-03" rms="2.3617121577262878e-01" purity="8.3785271644592285e-01" nType="-99"/>
            <Node pos="r" depth="3" NCoef="0" IVar="-1" Cut="0.0000000000000000e+00" cType="1" res="-4.5176051557064056e-02" rms="2.9109326004981995e-01" purity="6.5311682224273682e-01" nType="-99"/>
          </Node>
        </Node>
        <Node pos="r" depth="1" NCoef="0" IVar="-1" Cut="0.0000000000000000e+00" cType="1" res="-4.8795174807310104e-02" rms="2.5108978152275085e-01" purity="1.3962639868259430e-01" nType="-99"/>
      </Node>
    </BinaryTree>
    <BinaryTree type="DecisionTree" boostWeight="1.0000000000000000e+00" itree="85">
      <Node pos="s" depth="0" NCoef="0" IVar="9" Cut="-9.3242126703262329e-01" cType="1" res="-2.3945888970047235e-03" rms="2.5351598858833313e-01" purity="5.0102531909942627e-01" nType="0">
        <Node pos="l" depth="1" NCoef="0" IVar="5" Cut="1.7037080383300781e+02" cType="1" res="-1.6363665461540222e-02" rms="2.7005058526992798e-01" purity="4.0507283806800842e-01" nType="0">
          <Node pos="l" depth="2" NCoef="0" IVar="5" Cut="1.4244590759277344e+02" cType="1" res="-6.2382956966757774e-03" rms="2.6059770584106445e-01" purity="2.1817070245742798e-01" nType="0">
            <Node pos="l" depth="3" NCoef="0" IVar="-1" Cut="0.0000000000000000e+00" cType="1" res="-2.1427454426884651e-02" rms="2.3512971401214600e-01" purity="1.4727754890918732e-01" nType="-99"/>
            <Node pos="r" depth="3" NCoef="0" IVar="-1" Cut="0.0000000000000000e+00" cType="1" res="1.8562482669949532e-02" rms="3.2568824291229248e-01" purity="4.3653172254562378e-01" nType="-99"/>
          </Node>
          <Node pos="r" depth="2" NCoef="0" IVar="0" Cut="2.3401667480468750e+03" cType="1" res="-3.4815695136785507e-02" rms="2.8555423021316528e-01" purity="7.4567514657974243e-01" nType="0">
            <Node pos="l" depth="3" NCoef="0" IVar="-1" Cut="0.0000000000000000e+00" cType="1" res="-6.5608404576778412e-02" rms="3.7782439589500427e-01" purity="4.3888694047927856e-01" nType="-99"/>
            <Node pos="r" depth="3" NCoef="0" IVar="-1" Cut="0.0000000000000000e+00" cType="1" res="-8.4591312333941460e-03" rms="1.9353012740612030e-01" purity="9.5408719778060913e-01" nType="-99"/>
          </Node>
        </Node>
        <Node pos="r" depth="1" NCoef="0" IVar="1" Cut="2.0669308304786682e-01" cType="1" res="1.3836383586749434e-03" rms="2.4872043728828430e-01" purity="5.2697765827178955e-01" nType="0">
          <Node pos="l" depth="2" NCoef="0" IVar="8" Cut="1.4664368629455566e+00" cType="1" res="3.1301279086619616e-03" rms="2.5260984897613525e-01" purity="4.9894961714744568e-01" nType="0">
            <Node pos="l" depth="3" NCoef="0" IVar="-1" Cut="0.0000000000000000e+00" cType="1" res="7.0607140660285950e-03" rms="2.5342708826065063e-01" purity="5.2650988101959229e-01" nType="-99"/>
            <Node pos="r" depth="3" NCoef="0" IVar="-1" Cut="0.0000000000000000e+00" cType="1" res="-2.1187886595726013e-02" rms="2.4294181168079376e-01" purity="1.9893519580364227e-01" nType="-99"/>
          </Node>
          <Node pos="r" depth="2" NCoef="0" IVar="-1" Cut="0.0000000000000000e+00" cType="1" res="-4.2023725807666779e-02" rms="1.9738586246967316e-01" purity="8.4983581304550171e-01" nType="-99"/>
        </Node>
      </Node>
    </BinaryTree>
    <BinaryTree type="DecisionTree" boostWeight="1.0000000000000000e+00" itree="86">
      <Node pos="s" depth="0" NCoef="0" IVar="1" Cut="1.2738260626792908e-01" cType="1" res="2.1610555704683065e-03" rms="2.5720518827438354e-01" purity="5.0596034526824951e-01" nType="0">
        <Node pos="l" depth="1" NCoef="0" IVar="6" Cut="-1.6667029857635498e+00" cType="1" res="5.2495640702545643e-03" rms="2.6462164521217346e-01" purity="4.0298292040824890e-01" nType="0">
          <Node pos="l" depth="2" NCoef="0" IVar="-1" Cut="0.0000000000000000e+00" cType="1" res="-8.3133988082408905e-02" rms="1.3542087376117706e-01" purity="2.8817608952522278e-02" nType="-99"/>
          <Node pos="r" depth="2" NCoef="0" IVar="3" Cut="4.2262612915039062e+02" cType="1" res="6.7088040523231030e-03" rms="2.6902094483375549e-01" purity="4.2032611370086670e-01" nType="0">
            <Node pos="l" depth="3" NCoef="0" IVar="-1" Cut="0.0000000000000000e+00" cType="1" res="1.4459988102316856e-02" rms="2.7162393927574158e-01" purity="3.1479069590568542e-01" nType="-99"/>
            <Node pos="r" depth="3" NCoef="0" IVar="-1" Cut="0.0000000000000000e+00" cType="1" res="-9.1183958575129509e-03" rms="2.5927856564521790e-01" purity="7.9057800769805908e-01" nType="-99"/>
          </Node>
        </Node>
        <Node pos="r" depth="1" NCoef="0" IVar="0" Cut="2.1238066406250000e+03" cType="1" res="-7.7378228306770325e-03" rms="2.3156422376632690e-01" purity="8.3601003885269165e-01" nType="0">
          <Node pos="l" depth="2" NCoef="0" IVar="0" Cut="1.7446030273437500e+03" cType="1" res="-3.6246825009584427e-02" rms="3.8255205750465393e-01" purity="4.3871080875396729e-01" nType="0">
            <Node pos="l" depth="3" NCoef="0" IVar="-1" Cut="0.0000000000000000e+00" cType="1" res="-1.3112327083945274e-02" rms="3.3024421334266663e-01" purity="1.4360639452934265e-01" nType="-99"/>
            <Node pos="r" depth="3" NCoef="0" IVar="-1" Cut="0.0000000000000000e+00" cType="1" res="-3.4546319395303726e-02" rms="4.2187878489494324e-01" purity="6.9475591182708740e-01" nType="-99"/>
          </Node>
          <Node pos="r" depth="2" NCoef="0" IVar="1" Cut="1.7287024855613708e-01" cType="1" res="2.3963353596627712e-03" rms="1.4237114787101746e-01" purity="9.7723883390426636e-01" nType="0">
            <Node pos="l" depth="3" NCoef="0" IVar="-1" Cut="0.0000000000000000e+00" cType="1" res="-1.5706047415733337e-02" rms="1.6639931499958038e-01" purity="9.6832728385925293e-01" nType="-99"/>
            <Node pos="r" depth="3" NCoef="0" IVar="-1" Cut="0.0000000000000000e+00" cType="1" res="3.6478985100984573e-02" rms="1.1798761039972305e-01" purity="9.8478841781616211e-01" nType="-99"/>
          </Node>
        </Node>
      </Node>
    </BinaryTree>
    <BinaryTree type="DecisionTree" boostWeight="1.0000000000000000e+00" itree="87">
      <Node pos="s" depth="0" NCoef="0" IVar="9" Cut="-1.7324783802032471e+00" cType="1" res="-5.7688867673277855e-04" rms="2.5217905640602112e-01" purity="5.0490355491638184e-01" nType="0">
        <Node pos="l" depth="1" NCoef="0" IVar="8" Cut="1.2419228255748749e-01" cType="1" res="-2.5883907452225685e-02" rms="2.6660153269767761e-01" purity="2.3147714138031006e-01" nType="0">
          <Node pos="l" depth="2" NCoef="0" IVar="-1" Cut="0.0000000000000000e+00" cType="1" res="-6.0091849416494370e-02" rms="2.6758465170860291e-01" purity="2.2835873067378998e-01" nType="-99"/>
          <Node pos="r" depth="2" NCoef="0" IVar="-1" Cut="0.0000000000000000e+00" cType="1" res="-9.5854178071022034e-03" rms="2.6409685611724854e-01" purity="2.3546877503395081e-01" nType="-99"/>
        </Node>
        <Node pos="r" depth="1" NCoef="0" IVar="6" Cut="7.3393368721008301e-01" cType="1" res="9.9197903182357550e-04" rms="2.5117379426956177e-01" purity="5.2185416221618652e-01" nType="0">
          <Node pos="l" depth="2" NCoef="0" IVar="9" Cut="-1.3006740808486938e+00" cType="1" res="4.0121912024915218e-03" rms="2.5257700681686401e-01" purity="5.7759571075439453e-01" nType="0">
            <Node pos="l" depth="3" NCoef="0" IVar="-1" Cut="0.0000000000000000e+00" cType="1" res="3.5267915576696396e-02" rms="2.9347845911979675e-01" purity="5.3159087896347046e-01" nType="-99"/>
            <Node pos="r" depth="3" NCoef="0" IVar="-1" Cut="0.0000000000000000e+00" cType="1" res="3.4264184068888426e-03" rms="2.4908708035945892e-01" purity="5.8110815286636353e-01" nType="-99"/>
          </Node>
          <Node pos="r" depth="2" NCoef="0" IVar="2" Cut="4.8471752929687500e+02" cType="1" res="-1.1378145776689053e-02" rms="2.4495451152324677e-01" purity="2.9354915022850037e-01" nType="0">
            <Node pos="l" depth="3" NCoef="0" IVar="-1" Cut="0.0000000000000000e+00" cType="1" res="2.9009389691054821e-03" rms="2.3899717628955841e-01" purity="2.1741147339344025e-01" nType="-99"/>
            <Node pos="r" depth="3" NCoef="0" IVar="-1" Cut="0.0000000000000000e+00" cType="1" res="-3.9864160120487213e-02" rms="2.5112155079841614e-01" purity="3.8678571581840515e-01" nType="-99"/>
          </Node>
        </Node>
      </Node>
    </BinaryTree>
    <BinaryTree type="DecisionTree" boostWeight="1.0000000000000000e+00" itree="88">
      <Node pos="s" depth="0" NCoef="0" IVar="4" Cut="2.4256518554687500e+02" cType="1" res="3.5320411552675068e-04" rms="2.5300964713096619e-01" purity="5.0758862495422363e-01" nType="0">
        <Node pos="l" depth="1" NCoef="0" IVar="1" Cut="9.0869016945362091e-02" cType="1" res="-3.2272546086460352e-03" rms="2.6442477107048035e-01" purity="2.5231102108955383e-01" nType="0">
          <Node pos="l" depth="2" NCoef="0" IVar="0" Cut="2.0130567626953125e+03" cType="1" res="1.9175031920894980e-03" rms="2.4588851630687714e-01" purity="1.6166456043720245e-01" nType="0">
            <Node pos="l" depth="3" NCoef="0" IVar="-1" Cut="0.0000000000000000e+00" cType="1" res="-5.4740984924137592e-03" rms="2.0336170494556427e-01" purity="5.4497312754392624e-02" nType="-99"/>
            <Node pos="r" depth="3" NCoef="0" IVar="-1" Cut="0.0000000000000000e+00" cType="1" res="1.4908949844539165e-02" rms="3.6948254704475403e-01" purity="5.9032368659973145e-01" nType="-99"/>
          </Node>
          <Node pos="r" depth="2" NCoef="0" IVar="9" Cut="4.0780025720596313e-01" cType="1" res="-1.9106585532426834e-02" rms="3.1429728865623474e-01" purity="5.3209209442138672e-01" nType="0">
            <Node pos="l" depth="3" NCoef="0" IVar="-1" Cut="0.0000000000000000e+00" cType="1" res="-3.3026862889528275e-02" rms="3.1481283903121948e-01" purity="5.2422469854354858e-01" nType="-99"/>
            <Node pos="r" depth="3" NCoef="0" IVar="-1" Cut="0.0000000000000000e+00" cType="1" res="7.9024191945791245e-03" rms="3.1154593825340271e-01" purity="5.4638302326202393e-01" nType="-99"/>
          </Node>
        </Node>
        <Node pos="r" depth="1" NCoef="0" IVar="8" Cut="1.2062194347381592e+00" cType="1" res="5.0337472930550575e-03" rms="2.3717899620532990e-01" purity="8.4129953384399414e-01" nType="0">
          <Node pos="l" depth="2" NCoef="0" IVar="5" Cut="1.2409082031250000e+02" cType="1" res="7.5835632160305977e-03" rms="2.3019310832023621e-01" purity="8.5301733016967773e-01" nType="0">
            <Node pos="l" depth="3" NCoef="0" IVar="-1" Cut="0.0000000000000000e+00" cType="1" res="3.4356694668531418e-02" rms="3.5128140449523926e-01" purity="4.2196837067604065e-01" nType="-99"/>
            <Node pos="r" depth="3" NCoef="0" IVar="-1" Cut="0.0000000000000000e+00" cType="1" res="1.0097566060721874e-02" rms="2.1830075979232788e-01" purity="8.8522869348526001e-01" nType="-99"/>
          </Node>
          <Node pos="r" depth="2" NCoef="0" IVar="-1" Cut="0.0000000000000000e+00" cType="1" res="-4.1167303919792175e-02" rms="3.2196626067161560e-01" purity="6.6555672883987427e-01" nType="-99"/>
        </Node>
      </Node>
    </BinaryTree>
    <BinaryTree type="DecisionTree" boostWeight="1.0000000000000000e+00" itree="89">
      <Node pos="s" depth="0" NCoef="0" IVar="2" Cut="7.6446002197265625e+02" cType="1" res="8.3528691902756691e-05" rms="2.5111931562423706e-01" purity="4.9952805042266846e-01" nType="0">
        <Node pos="l" depth="1" NCoef="0" IVar="0" Cut="2.0436633300781250e+03" cType="1" res="2.2392910905182362e-03" rms="2.4972739815711975e-01" purity="4.7030296921730042e-01" nType="0">
          <Node pos="l" depth="2" NCoef="0" IVar="0" Cut="1.9515177001953125e+03" cType="1" res="-1.8994702259078622e-03" rms="2.6138818264007568e-01" purity="1.2534131109714508e-01" nType="0">
            <Node pos="l" depth="3" NCoef="0" IVar="-1" Cut="0.0000000000000000e+00" cType="1" res="2.6572078932076693e-03" rms="2.4852296710014343e-01" purity="1.0056188702583313e-01" nType="-99"/>
            <Node pos="r" depth="3" NCoef="0" IVar="-1" Cut="0.0000000000000000e+00" cType="1" res="-3.0242135748267174e-02" rms="3.9122489094734192e-01" purity="4.5432102680206299e-01" nType="-99"/>
          </Node>
          <Node pos="r" depth="2" NCoef="0" IVar="1" Cut="3.9252582937479019e-02" cType="1" res="7.3575768619775772e-03" rms="2.3440526425838470e-01" purity="8.9690697193145752e-01" nType="0">
            <Node pos="l" depth="3" NCoef="0" IVar="-1" Cut="0.0000000000000000e+00" cType="1" res="2.7037363499403000e-02" rms="3.5485386848449707e-01" purity="6.3370966911315918e-01" nType="-99"/>
            <Node pos="r" depth="3" NCoef="0" IVar="-1" Cut="0.0000000000000000e+00" cType="1" res="6.5118107013404369e-03" rms="2.0985582470893860e-01" purity="9.3685573339462280e-01" nType="-99"/>
          </Node>
        </Node>
        <Node pos="r" depth="1" NCoef="0" IVar="0" Cut="2.6061474609375000e+03" cType="1" res="-1.6777383163571358e-02" rms="2.6113751530647278e-01" purity="7.2810661792755127e-01" nType="0">
          <Node pos="l" depth="2" NCoef="0" IVar="-1" Cut="0.0000000000000000e+00" cType="1" res="-4.1747629642486572e-02" rms="3.1145042181015015e-01" purity="2.4138839542865753e-01" nType="-99"/>
          <Node pos="r" depth="2" NCoef="0" IVar="9" Cut="4.0287420153617859e-01" cType="1" res="-7.2940848767757416e-03" rms="2.4037130177021027e-01" purity="8.9819025993347168e-01" nType="0">
            <Node pos="l" depth="3" NCoef="0" IVar="-1" Cut="0.0000000000000000e+00" cType="1" res="2.3050566669553518e-03" rms="2.3163920640945435e-01" purity="9.0706092119216919e-01" nType="-99"/>
            <Node pos="r" depth="3" NCoef="0" IVar="-1" Cut="0.0000000000000000e+00" cType="1" res="-4.1943527758121490e-02" rms="2.5674068927764893e-01" purity="8.7965327501296997e-01" nType="-99"/>
          </Node>
        </Node>
      </Node>
    </BinaryTree>
    <BinaryTree type="DecisionTree" boostWeight="1.0000000000000000e+00" itree="90">
      <Node pos="s" depth="0" NCoef="0" IVar="8" Cut="9.3287640810012817e-01" cType="1" res="-1.0589349549263716e-03" rms="2.5506150722503662e-01" purity="5.0254881381988525e-01" nType="0">
        <Node pos="l" depth="1" NCoef="0" IVar="8" Cut="7.5512355566024780e-01" cType="1" res="-3.3858364913612604e-03" rms="2.4841165542602539e-01" purity="5.2776318788528442e-01" nType="0">
          <Node pos="l" depth="2" NCoef="0" IVar="7" Cut="9.3108063936233521e-01" cType="1" res="-1.4461951795965433e-03" rms="2.4733434617519379e-01" purity="5.2992135286331177e-01" nType="0">
            <Node pos="l" depth="3" NCoef="0" IVar="-1" Cut="0.0000000000000000e+00" cType="1" res="2.5270301848649979e-03" rms="2.4535845220088959e-01" purity="5.6865489482879639e-01" nType="-99"/>
            <Node pos="r" depth="3" NCoef="0" IVar="-1" Cut="0.0000000000000000e+00" cType="1" res="-2.8004869818687439e-02" rms="2.5771605968475342e-01" purity="3.0681183934211731e-01" nType="-99"/>
          </Node>
          <Node pos="r" depth="2" NCoef="0" IVar="-1" Cut="0.0000000000000000e+00" cType="1" res="-4.1021592915058136e-02" rms="2.6202860474586487e-01" purity="4.9620372056961060e-01" nType="-99"/>
        </Node>
        <Node pos="r" depth="1" NCoef="0" IVar="6" Cut="-7.7603238821029663e-01" cType="1" res="9.5490356907248497e-03" rms="2.8316470980644226e-01" purity="3.8760048151016235e-01" nType="0">
          <Node pos="l" depth="2" NCoef="0" IVar="-1" Cut="0.0000000000000000e+00" cType="1" res="-2.9748553410172462e-02" rms="2.4421113729476929e-01" purity="1.7607170343399048e-01" nType="-99"/>
          <Node pos="r" depth="2" NCoef="0" IVar="4" Cut="2.6454064941406250e+02" cType="1" res="1.5619901940226555e-02" rms="2.9089102149009705e-01" purity="4.3533143401145935e-01" nType="0">
            <Node pos="l" depth="3" NCoef="0" IVar="-1" Cut="0.0000000000000000e+00" cType="1" res="2.9256418347358704e-02" rms="2.9521492123603821e-01" purity="3.2571306824684143e-01" nType="-99"/>
            <Node pos="r" depth="3" NCoef="0" IVar="-1" Cut="0.0000000000000000e+00" cType="1" res="-1.1434908024966717e-02" rms="2.7496838569641113e-01" purity="7.9455983638763428e-01" nType="-99"/>
          </Node>
        </Node>
      </Node>
    </BinaryTree>
    <BinaryTree type="DecisionTree" boostWeight="1.0000000000000000e+00" itree="91">
      <Node pos="s" depth="0" NCoef="0" IVar="6" Cut="1.5058087110519409e+00" cType="1" res="1.1980711715295911e-03" rms="2.5653463602066040e-01" purity="5.0129663944244385e-01" nType="0">
        <Node pos="l" depth="1" NCoef="0" IVar="6" Cut="1.1121140718460083e+00" cType="1" res="2.2947241086512804e-03" rms="2.6106697320938110e-01" purity="5.2451390027999878e-01" nType="0">
          <Node pos="l" depth="2" NCoef="0" IVar="9" Cut="4.0017491579055786e-01" cType="1" res="1.0682408465072513e-03" rms="2.6059466600418091e-01" purity="5.3690367937088013e-01" nType="0">
            <Node pos="l" depth="3" NCoef="0" IVar="-1" Cut="0.0000000000000000e+00" cType="1" res="-3.0642370693385601e-03" rms="2.5547268986701965e-01" purity="5.4660016298294067e-01" nType="-99"/>
            <Node pos="r" depth="3" NCoef="0" IVar="-1" Cut="0.0000000000000000e+00" cType="1" res="9.8687708377838135e-03" rms="2.6988339424133301e-01" purity="5.1863664388656616e-01" nType="-99"/>
          </Node>
          <Node pos="r" depth="2" NCoef="0" IVar="-1" Cut="0.0000000000000000e+00" cType="1" res="3.4133426845073700e-02" rms="2.6830327510833740e-01" purity="3.0731326341629028e-01" nType="-99"/>
        </Node>
        <Node pos="r" depth="1" NCoef="0" IVar="-1" Cut="0.0000000000000000e+00" cType="1" res="-6.3978768885135651e-02" rms="1.3828483223915100e-01" purity="4.4093027710914612e-02" nType="-99"/>
      </Node>
    </BinaryTree>
    <BinaryTree type="DecisionTree" boostWeight="1.0000000000000000e+00" itree="92">
      <Node pos="s" depth="0" NCoef="0" IVar="6" Cut="1.2462631464004517e+00" cType="1" res="8.4436533506959677e-04" rms="2.5202941894531250e-01" purity="5.0237214565277100e-01" nType="0">
        <Node pos="l" depth="1" NCoef="0" IVar="6" Cut="3.2389995455741882e-01" cType="1" res="2.3135694209486246e-03" rms="2.5805920362472534e-01" purity="5.3823679685592651e-01" nType="0">
          <Node pos="l" depth="2" NCoef="0" IVar="8" Cut="9.3316149711608887e-01" cType="1" res="-1.7690132372081280e-03" rms="2.5689199566841125e-01" purity="5.4136943817138672e-01" nType="0">
            <Node pos="l" depth="3" NCoef="0" IVar="-1" Cut="0.0000000000000000e+00" cType="1" res="2.6459137443453074e-03" rms="2.5516608357429504e-01" purity="5.7098299264907837e-01" nType="-99"/>
            <Node pos="r" depth="3" NCoef="0" IVar="-1" Cut="0.0000000000000000e+00" cType="1" res="-2.7095574885606766e-02" rms="2.6463356614112854e-01" purity="3.9404138922691345e-01" nType="-99"/>
          </Node>
          <Node pos="r" depth="2" NCoef="0" IVar="9" Cut="1.3273271918296814e-01" cType="1" res="1.1886877939105034e-02" rms="2.6052492856979370e-01" purity="5.3089112043380737e-01" nType="0">
            <Node pos="l" depth="3" NCoef="0" IVar="-1" Cut="0.0000000000000000e+00" cType="1" res="3.2005477696657181e-02" rms="2.6512363553047180e-01" purity="5.6660997867584229e-01" nType="-99"/>
            <Node pos="r" depth="3" NCoef="0" IVar="-1" Cut="0.0000000000000000e+00" cType="1" res="7.5972796184942126e-04" rms="2.5491997599601746e-01" purity="4.9185833334922791e-01" nType="-99"/>
          </Node>
        </Node>
        <Node pos="r" depth="1" NCoef="0" IVar="0" Cut="1.7533819580078125e+03" cType="1" res="-1.5463498421013355e-02" rms="1.7055499553680420e-01" purity="1.0428176075220108e-01" nType="0">
          <Node pos="l" depth="2" NCoef="0" IVar="6" Cut="1.6894001960754395e+00" cType="1" res="-6.0931853950023651e-03" rms="1.0417992621660233e-01" purity="1.2151109054684639e-02" nType="0">
            <Node pos="l" depth="3" NCoef="0" IVar="-1" Cut="0.0000000000000000e+00" cType="1" res="-9.9372714757919312e-03" rms="1.4643870294094086e-01" purity="2.4163933470845222e-02" nType="-99"/>
            <Node pos="r" depth="3" NCoef="0" IVar="-1" Cut="0.0000000000000000e+00" cType="1" res="-1.0218892991542816e-01" rms="1.0668843053281307e-02" purity="0.0000000000000000e+00" nType="-99"/>
          </Node>
          <Node pos="r" depth="2" NCoef="0" IVar="-1" Cut="0.0000000000000000e+00" cType="1" res="-3.6339603364467621e-02" rms="2.5546941161155701e-01" purity="2.8974071145057678e-01" nType="-99"/>
        </Node>
      </Node>
    </BinaryTree>
    <BinaryTree type="DecisionTree" boostWeight="1.0000000000000000e+00" itree="93">
      <Node pos="s" depth="0" NCoef="0" IVar="9" Cut="-1.4654783010482788e+00" cType="1" res="-4.2217339796479791e-05" rms="2.4527700245380402e-01" purity="4.9180361628532410e-01" nType="0">
        <Node pos="l" depth="1" NCoef="0" IVar="9" Cut="-1.9733375310897827e+00" cType="1" res="1.3594095595180988e-02" rms="2.8928530216217041e-01" purity="3.2326653599739075e-01" nType="0">
          <Node pos="l" depth="2" NCoef="0" IVar="-1" Cut="0.0000000000000000e+00" cType="1" res="-2.0435689017176628e-02" rms="2.6222801208496094e-01" purity="1.9368466734886169e-01" nType="-99"/>
          <Node pos="r" depth="2" NCoef="0" IVar="8" Cut="-4.1244140267372131e-01" cType="1" res="3.1048275530338287e-02" rms="3.0401945114135742e-01" purity="4.0596845746040344e-01" nType="0">
            <Node pos="l" depth="3" NCoef="0" IVar="-1" Cut="0.0000000000000000e+00" cType="1" res="2.1613633260130882e-02" rms="2.8571137785911560e-01" purity="3.2837212085723877e-01" nType="-99"/>
            <Node pos="r" depth="3" NCoef="0" IVar="-1" Cut="0.0000000000000000e+00" cType="1" res="5.3924955427646637e-02" rms="3.1625273823738098e-01" purity="4.6245828270912170e-01" nType="-99"/>
          </Node>
        </Node>
        <Node pos="r" depth="1" NCoef="0" IVar="0" Cut="1.8374969482421875e+03" cType="1" res="-1.4925337163731456e-03" rms="2.4007679522037506e-01" purity="5.0972867012023926e-01" nType="0">
          <Node pos="l" depth="2" NCoef="0" IVar="9" Cut="5.6553918123245239e-01" cType="1" res="-8.6782360449433327e-03" rms="2.0686446130275726e-01" purity="6.1444461345672607e-02" nType="0">
            <Node pos="l" depth="3" NCoef="0" IVar="-1" Cut="0.0000000000000000e+00" cType="1" res="-2.8873018920421600e-02" rms="1.9895215332508087e-01" purity="5.7761140167713165e-02" nType="-99"/>
            <Node pos="r" depth="3" NCoef="0" IVar="-1" Cut="0.0000000000000000e+00" cType="1" res="5.7191313244402409e-03" rms="2.1934910118579865e-01" purity="6.7786537110805511e-02" nType="-99"/>
          </Node>
          <Node pos="r" depth="2" NCoef="0" IVar="1" Cut="2.1340871229767799e-02" cType="1" res="3.2622143626213074e-03" rms="2.5961947441101074e-01" purity="8.0635643005371094e-01" nType="0">
            <Node pos="l" depth="3" NCoef="0" IVar="-1" Cut="0.0000000000000000e+00" cType="1" res="2.7231290936470032e-02" rms="3.1025111675262451e-01" purity="3.3510091900825500e-01" nType="-99"/>
            <Node pos="r" depth="3" NCoef="0" IVar="-1" Cut="0.0000000000000000e+00" cType="1" res="9.0957066277042031e-04" rms="2.5345209240913391e-01" purity="8.5685855150222778e-01" nType="-99"/>
          </Node>
        </Node>
      </Node>
    </BinaryTree>
    <BinaryTree type="DecisionTree" boostWeight="1.0000000000000000e+00" itree="94">
      <Node pos="s" depth="0" NCoef="0" IVar="7" Cut="-1.9986311197280884e+00" cType="1" res="-1.8085786141455173e-03" rms="2.4897901713848114e-01" purity="4.9525758624076843e-01" nType="0">
        <Node pos="l" depth="1" NCoef="0" IVar="-1" Cut="0.0000000000000000e+00" cType="1" res="-8.5704810917377472e-02" rms="1.3835231959819794e-01" purity="3.0475454404950142e-02" nType="-99"/>
        <Node pos="r" depth="1" NCoef="0" IVar="9" Cut="6.6683816909790039e-01" cType="1" res="-8.6223788093775511e-04" rms="2.5112807750701904e-01" purity="5.0730007886886597e-01" nType="0">
          <Node pos="l" depth="2" NCoef="0" IVar="0" Cut="2.3753088378906250e+03" cType="1" res="-3.2928644213825464e-03" rms="2.4636591970920563e-01" purity="5.2372157573699951e-01" nType="0">
            <Node pos="l" depth="3" NCoef="0" IVar="-1" Cut="0.0000000000000000e+00" cType="1" res="-1.0292471386492252e-02" rms="2.7736791968345642e-01" purity="2.5252211093902588e-01" nType="-99"/>
            <Node pos="r" depth="3" NCoef="0" IVar="-1" Cut="0.0000000000000000e+00" cType="1" res="1.1835098266601562e-02" rms="1.8810440599918365e-01" purity="9.4481950998306274e-01" nType="-99"/>
          </Node>
          <Node pos="r" depth="2" NCoef="0" IVar="6" Cut="-5.6746035814285278e-01" cType="1" res="5.3795124404132366e-03" rms="2.6285937428474426e-01" purity="4.6513032913208008e-01" nType="0">
            <Node pos="l" depth="3" NCoef="0" IVar="-1" Cut="0.0000000000000000e+00" cType="1" res="-2.4778284132480621e-02" rms="2.3918244242668152e-01" purity="2.8031873703002930e-01" nType="-99"/>
            <Node pos="r" depth="3" NCoef="0" IVar="-1" Cut="0.0000000000000000e+00" cType="1" res="1.7444174736738205e-02" rms="2.6926925778388977e-01" purity="5.2092975378036499e-01" nType="-99"/>
          </Node>
        </Node>
      </Node>
    </BinaryTree>
    <BinaryTree type="DecisionTree" boostWeight="1.0000000000000000e+00" itree="95">
      <Node pos="s" depth="0" NCoef="0" IVar="7" Cut="-1.1957439184188843e+00" cType="1" res="-9.0258417185395956e-04" rms="2.5279974937438965e-01" purity="5.0280225276947021e-01" nType="0">
        <Node pos="l" depth="1" NCoef="0" IVar="2" Cut="5.2055895996093750e+02" cType="1" res="1.2767911888659000e-02" rms="2.5660338997840881e-01" purity="2.3881627619266510e-01" nType="0">
          <Node pos="l" depth="2" NCoef="0" IVar="0" Cut="1.6829760742187500e+03" cType="1" res="2.2585432976484299e-02" rms="2.5397422909736633e-01" purity="1.9888307154178619e-01" nType="0">
            <Node pos="l" depth="3" NCoef="0" IVar="-1" Cut="0.0000000000000000e+00" cType="1" res="2.8736544772982597e-02" rms="1.6610899567604065e-01" purity="3.0914554372429848e-02" nType="-99"/>
            <Node pos="r" depth="3" NCoef="0" IVar="-1" Cut="0.0000000000000000e+00" cType="1" res="4.9967519938945770e-02" rms="3.5200852155685425e-01" purity="4.7430714964866638e-01" nType="-99"/>
          </Node>
          <Node pos="r" depth="2" NCoef="0" IVar="-1" Cut="0.0000000000000000e+00" cType="1" res="-1.1134645901620388e-02" rms="2.6084408164024353e-01" purity="3.2280781865119934e-01" nType="-99"/>
        </Node>
        <Node pos="r" depth="1" NCoef="0" IVar="8" Cut="1.7327007055282593e+00" cType="1" res="-2.4917917326092720e-03" rms="2.5230580568313599e-01" purity="5.3349083662033081e-01" nType="0">
          <Node pos="l" depth="2" NCoef="0" IVar="8" Cut="-1.9358823299407959e+00" cType="1" res="-1.7753203865140676e-03" rms="2.5335368514060974e-01" purity="5.4858058691024780e-01" nType="0">
            <Node pos="l" depth="3" NCoef="0" IVar="-1" Cut="0.0000000000000000e+00" cType="1" res="-5.2958354353904724e-02" rms="2.4838234484195709e-01" purity="1.3635873794555664e-01" nType="-99"/>
            <Node pos="r" depth="3" NCoef="0" IVar="-1" Cut="0.0000000000000000e+00" cType="1" res="-1.3755246764048934e-03" rms="2.5344917178153992e-01" purity="5.6087046861648560e-01" nType="-99"/>
          </Node>
          <Node pos="r" depth="2" NCoef="0" IVar="-1" Cut="0.0000000000000000e+00" cType="1" res="-3.3403921872377396e-02" rms="2.2456797957420349e-01" purity="1.6583213210105896e-01" nType="-99"/>
        </Node>
      </Node>
    </BinaryTree>
    <BinaryTree type="DecisionTree" boostWeight="1.0000000000000000e+00" itree="96">
      <Node pos="s" depth="0" NCoef="0" IVar="2" Cut="5.4369018554687500e+02" cType="1" res="6.3232076354324818e-04" rms="2.4994088709354401e-01" purity="5.0259417295455933e-01" nType="0">
        <Node pos="l" depth="1" NCoef="0" IVar="7" Cut="1.3649846613407135e-01" cType="1" res="4.9725589342415333e-03" rms="2.5790721178054810e-01" purity="3.9016786217689514e-01" nType="0">
          <Node pos="l" depth="2" NCoef="0" IVar="4" Cut="2.5377264404296875e+02" cType="1" res="-6.2706676544621587e-04" rms="2.5394636392593384e-01" purity="3.8788846135139465e-01" nType="0">
            <Node pos="l" depth="3" NCoef="0" IVar="-1" Cut="0.0000000000000000e+00" cType="1" res="-8.3690034225583076e-03" rms="2.5545027852058411e-01" purity="2.1752148866653442e-01" nType="-99"/>
            <Node pos="r" depth="3" NCoef="0" IVar="-1" Cut="0.0000000000000000e+00" cType="1" res="1.6725998371839523e-02" rms="2.4986471235752106e-01" purity="8.0059069395065308e-01" nType="-99"/>
          </Node>
          <Node pos="r" depth="2" NCoef="0" IVar="7" Cut="1.6575225591659546e+00" cType="1" res="1.1947640217840672e-02" rms="2.6259049773216248e-01" purity="3.9300709962844849e-01" nType="0">
            <Node pos="l" depth="3" NCoef="0" IVar="-1" Cut="0.0000000000000000e+00" cType="1" res="2.1394893527030945e-02" rms="2.7466309070587158e-01" purity="4.4217982888221741e-01" nType="-99"/>
            <Node pos="r" depth="3" NCoef="0" IVar="-1" Cut="0.0000000000000000e+00" cType="1" res="-3.7676170468330383e-02" rms="1.5392109751701355e-01" purity="5.5720575153827667e-02" nType="-99"/>
          </Node>
        </Node>
        <Node pos="r" depth="1" NCoef="0" IVar="0" Cut="2.1991643066406250e+03" cType="1" res="-5.4880003444850445e-03" rms="2.3812071979045868e-01" purity="6.6113048791885376e-01" nType="0">
          <Node pos="l" depth="2" NCoef="0" IVar="1" Cut="4.6019982546567917e-02" cType="1" res="-2.0721860229969025e-02" rms="2.5426280498504639e-01" purity="1.0914161056280136e-01" nType="0">
            <Node pos="l" depth="3" NCoef="0" IVar="-1" Cut="0.0000000000000000e+00" cType="1" res="-1.0867509990930557e-02" rms="1.9039972126483917e-01" purity="4.8771910369396210e-02" nType="-99"/>
            <Node pos="r" depth="3" NCoef="0" IVar="-1" Cut="0.0000000000000000e+00" cType="1" res="-4.0655013173818588e-02" rms="3.5583525896072388e-01" purity="2.4501031637191772e-01" nType="-99"/>
          </Node>
          <Node pos="r" depth="2" NCoef="0" IVar="7" Cut="9.3298935890197754e-01" cType="1" res="9.8984094802290201e-04" rms="2.3061026632785797e-01" purity="8.9585077762603760e-01" nType="0">
            <Node pos="l" depth="3" NCoef="0" IVar="-1" Cut="0.0000000000000000e+00" cType="1" res="6.0255867429077625e-03" rms="2.2116319835186005e-01" purity="9.0948861837387085e-01" nType="-99"/>
            <Node pos="r" depth="3" NCoef="0" IVar="-1" Cut="0.0000000000000000e+00" cType="1" res="-2.2910272702574730e-02" rms="3.1021437048912048e-01" purity="7.5664544105529785e-01" nType="-99"/>
          </Node>
        </Node>
      </Node>
    </BinaryTree>
    <BinaryTree type="DecisionTree" boostWeight="1.0000000000000000e+00" itree="97">
      <Node pos="s" depth="0" NCoef="0" IVar="7" Cut="-1.3404329121112823e-01" cType="1" res="-9.0029480634257197e-04" rms="2.5458121299743652e-01" purity="4.9796289205551147e-01" nType="0">
        <Node pos="l" depth="1" NCoef="0" IVar="9" Cut="-1.1995482444763184e+00" cType="1" res="-7.1603469550609589e-03" rms="2.5334015488624573e-01" purity="4.7261023521423340e-01" nType="0">
          <Node pos="l" depth="2" NCoef="0" IVar="7" Cut="-1.1501152515411377e+00" cType="1" res="1.0623926296830177e-02" rms="2.7478173375129700e-01" purity="3.6212813854217529e-01" nType="0">
            <Node pos="l" depth="3" NCoef="0" IVar="-1" Cut="0.0000000000000000e+00" cType="1" res="-2.5794882327318192e-02" rms="2.4710556864738464e-01" purity="1.4236786961555481e-01" nType="-99"/>
            <Node pos="r" depth="3" NCoef="0" IVar="-1" Cut="0.0000000000000000e+00" cType="1" res="3.2867640256881714e-02" rms="2.8721567988395691e-01" purity="4.7630527615547180e-01" nType="-99"/>
          </Node>
          <Node pos="r" depth="2" NCoef="0" IVar="6" Cut="-5.0754654407501221e-01" cType="1" res="-1.0949164628982544e-02" rms="2.4836875498294830e-01" purity="4.9614769220352173e-01" nType="0">
            <Node pos="l" depth="3" NCoef="0" IVar="-1" Cut="0.0000000000000000e+00" cType="1" res="2.5095436722040176e-03" rms="2.4261318147182465e-01" purity="4.2511931061744690e-01" nType="-99"/>
            <Node pos="r" depth="3" NCoef="0" IVar="-1" Cut="0.0000000000000000e+00" cType="1" res="-2.5827134028077126e-02" rms="2.5036406517028809e-01" purity="5.2325826883316040e-01" nType="-99"/>
          </Node>
        </Node>
        <Node pos="r" depth="1" NCoef="0" IVar="6" Cut="-1.1470378637313843e+00" cType="1" res="4.2703486979007721e-03" rms="2.5548610091209412e-01" purity="5.1890349388122559e-01" nType="0">
          <Node pos="l" depth="2" NCoef="0" IVar="-1" Cut="0.0000000000000000e+00" cType="1" res="-4.2627710849046707e-02" rms="2.0124976336956024e-01" purity="1.1328967660665512e-01" nType="-99"/>
          <Node pos="r" depth="2" NCoef="0" IVar="9" Cut="-1.4652674198150635e+00" cType="1" res="6.6433586180210114e-03" rms="2.6015800237655640e-01" purity="5.5936580896377563e-01" nType="0">
            <Node pos="l" depth="3" NCoef="0" IVar="-1" Cut="0.0000000000000000e+00" cType="1" res="-2.1340137347579002e-02" rms="3.1243705749511719e-01" purity="3.9045909047126770e-01" nType="-99"/>
            <Node pos="r" depth="3" NCoef="0" IVar="-1" Cut="0.0000000000000000e+00" cType="1" res="1.3505184091627598e-02" rms="2.5506857037544250e-01" purity="5.7383102178573608e-01" nType="-99"/>
          </Node>
        </Node>
      </Node>
    </BinaryTree>
    <BinaryTree type="DecisionTree" boostWeight="1.0000000000000000e+00" itree="98">
      <Node pos="s" depth="0" NCoef="0" IVar="2" Cut="9.6091284179687500e+02" cType="1" res="-7.0720224175602198e-04" rms="2.5004202127456665e-01" purity="4.9983569979667664e-01" nType="0">
        <Node pos="l" depth="1" NCoef="0" IVar="7" Cut="-1.4668979644775391e+00" cType="1" res="5.3122011013329029e-04" rms="2.4777357280254364e-01" purity="4.9186080694198608e-01" nType="0">
          <Node pos="l" depth="2" NCoef="0" IVar="5" Cut="1.2752427673339844e+02" cType="1" res="-2.0329941064119339e-02" rms="2.0115481317043304e-01" purity="1.1531851440668106e-01" nType="0">
            <Node pos="l" depth="3" NCoef="0" IVar="-1" Cut="0.0000000000000000e+00" cType="1" res="3.8070965092629194e-03" rms="1.4078690111637115e-01" purity="2.3551804944872856e-02" nType="-99"/>
            <Node pos="r" depth="3" NCoef="0" IVar="-1" Cut="0.0000000000000000e+00" cType="1" res="-5.8670397847890854e-02" rms="2.4669149518013000e-01" purity="2.1011319756507874e-01" nType="-99"/>
          </Node>
          <Node pos="r" depth="2" NCoef="0" IVar="2" Cut="2.7265316772460938e+02" cType="1" res="2.2133104503154755e-03" rms="2.5108036398887634e-01" purity="5.2222239971160889e-01" nType="0">
            <Node pos="l" depth="3" NCoef="0" IVar="-1" Cut="0.0000000000000000e+00" cType="1" res="5.3365580737590790e-02" rms="3.2496926188468933e-01" purity="1.9992366433143616e-01" nType="-99"/>
            <Node pos="r" depth="3" NCoef="0" IVar="-1" Cut="0.0000000000000000e+00" cType="1" res="1.6068867407739162e-03" rms="2.4810796976089478e-01" purity="5.3312003612518311e-01" nType="-99"/>
          </Node>
        </Node>
        <Node pos="r" depth="1" NCoef="0" IVar="-1" Cut="0.0000000000000000e+00" cType="1" res="-4.6022392809391022e-02" rms="3.1196409463882446e-01" purity="7.5723105669021606e-01" nType="-99"/>
      </Node>
    </BinaryTree>
    <BinaryTree type="DecisionTree" boostWeight="1.0000000000000000e+00" itree="99">
      <Node pos="s" depth="0" NCoef="0" IVar="9" Cut="1.7330832481384277e+00" cType="1" res="2.9738957528024912e-04" rms="2.5226432085037231e-01" purity="5.0531560182571411e-01" nType="0">
        <Node pos="l" depth="1" NCoef="0" IVar="8" Cut="6.6569459438323975e-01" cType="1" res="-1.0889850091189146e-03" rms="2.4860368669033051e-01" purity="5.1914352178573608e-01" nType="0">
          <Node pos="l" depth="2" NCoef="0" IVar="0" Cut="2.0562441406250000e+03" cType="1" res="-4.0910704992711544e-03" rms="2.4380125105381012e-01" purity="5.4233902692794800e-01" nType="0">
            <Node pos="l" depth="3" NCoef="0" IVar="-1" Cut="0.0000000000000000e+00" cType="1" res="-1.3116281479597092e-02" rms="2.6393494009971619e-01" purity="1.2787972390651703e-01" nType="-99"/>
            <Node pos="r" depth="3" NCoef="0" IVar="-1" Cut="0.0000000000000000e+00" cType="1" res="4.2423885315656662e-04" rms="2.2506228089332581e-01" purity="8.9691495895385742e-01" nType="-99"/>
          </Node>
          <Node pos="r" depth="2" NCoef="0" IVar="8" Cut="1.7828394174575806e+00" cType="1" res="7.9856580123305321e-03" rms="2.6237812638282776e-01" purity="4.4902861118316650e-01" nType="0">
            <Node pos="l" depth="3" NCoef="0" IVar="-1" Cut="0.0000000000000000e+00" cType="1" res="1.7441309988498688e-02" rms="2.6409232616424561e-01" purity="5.0154995918273926e-01" nType="-99"/>
            <Node pos="r" depth="3" NCoef="0" IVar="-1" Cut="0.0000000000000000e+00" cType="1" res="-2.7602367103099823e-02" rms="2.5053369998931885e-01" purity="1.3628296554088593e-01" nType="-99"/>
          </Node>
        </Node>
        <Node pos="r" depth="1" NCoef="0" IVar="6" Cut="2.3094320297241211e-01" cType="1" res="2.1775363013148308e-02" rms="3.0257403850555420e-01" purity="2.9109093546867371e-01" nType="0">
          <Node pos="l" depth="2" NCoef="0" IVar="-1" Cut="0.0000000000000000e+00" cType="1" res="-3.0381258111447096e-03" rms="2.9315292835235596e-01" purity="2.7769827842712402e-01" nType="-99"/>
          <Node pos="r" depth="2" NCoef="0" IVar="-1" Cut="0.0000000000000000e+00" cType="1" res="7.6084293425083160e-02" rms="3.1159880757331848e-01" purity="3.0838245153427124e-01" nType="-99"/>
        </Node>
      </Node>
    </BinaryTree>
    <BinaryTree type="DecisionTree" boostWeight="1.0000000000000000e+00" itree="100">
      <Node pos="s" depth="0" NCoef="0" IVar="8" Cut="-9.3243557214736938e-01" cType="1" res="-2.2813361138105392e-03" rms="2.5482046604156494e-01" purity="4.9465289711952209e-01" nType="0">
        <Node pos="l" depth="1" NCoef="0" IVar="4" Cut="2.1122335815429688e+02" cType="1" res="9.9226646125316620e-03" rms="2.6130044460296631e-01" purity="3.5628914833068848e-01" nType="0">
          <Node pos="l" depth="2" NCoef="0" IVar="1" Cut="5.4334852844476700e-02" cType="1" res="2.1195646375417709e-02" rms="2.5452369451522827e-01" purity="1.6903366148471832e-01" nType="0">
            <Node pos="l" depth="3" NCoef="0" IVar="-1" Cut="0.0000000000000000e+00" cType="1" res="2.0311754196882248e-02" rms="2.0573341846466064e-01" purity="8.1347294151782990e-02" nType="-99"/>
            <Node pos="r" depth="3" NCoef="0" IVar="-1" Cut="0.0000000000000000e+00" cType="1" res="4.9921821802854538e-02" rms="3.2394590973854065e-01" purity="3.2944151759147644e-01" nType="-99"/>
          </Node>
          <Node pos="r" depth="2" NCoef="0" IVar="8" Cut="-1.3721783161163330e+00" cType="1" res="-5.0563896074891090e-03" rms="2.6931306719779968e-01" purity="6.0510611534118652e-01" nType="0">
            <Node pos="l" depth="3" NCoef="0" IVar="-1" Cut="0.0000000000000000e+00" cType="1" res="-3.9817031472921371e-02" rms="2.7650195360183716e-01" purity="4.2246130108833313e-01" nType="-99"/>
            <Node pos="r" depth="3" NCoef="0" IVar="-1" Cut="0.0000000000000000e+00" cType="1" res="2.1120317280292511e-02" rms="2.6215273141860962e-01" purity="7.3565834760665894e-01" nType="-99"/>
          </Node>
        </Node>
        <Node pos="r" depth="1" NCoef="0" IVar="8" Cut="1.0221763849258423e+00" cType="1" res="-5.0629023462533951e-03" rms="2.5323805212974548e-01" purity="5.2618914842605591e-01" nType="0">
          <Node pos="l" depth="2" NCoef="0" IVar="9" Cut="-1.1993846893310547e+00" cType="1" res="-8.0179339274764061e-03" rms="2.5094431638717651e-01" purity="5.6631803512573242e-01" nType="0">
            <Node pos="l" depth="3" NCoef="0" IVar="-1" Cut="0.0000000000000000e+00" cType="1" res="-3.4130338579416275e-02" rms="2.9639923572540283e-01" purity="4.3062970042228699e-01" nType="-99"/>
            <Node pos="r" depth="3" NCoef="0" IVar="-1" Cut="0.0000000000000000e+00" cType="1" res="-8.1903804093599319e-03" rms="2.4290889501571655e-01" purity="5.8757543563842773e-01" nType="-99"/>
          </Node>
          <Node pos="r" depth="2" NCoef="0" IVar="4" Cut="2.2903131103515625e+02" cType="1" res="7.3468042537570000e-03" rms="2.6228874921798706e-01" purity="3.5766711831092834e-01" nType="0">
            <Node pos="l" depth="3" NCoef="0" IVar="-1" Cut="0.0000000000000000e+00" cType="1" res="2.3786570876836777e-02" rms="2.4737274646759033e-01" purity="2.0691139996051788e-01" nType="-99"/>
            <Node pos="r" depth="3" NCoef="0" IVar="-1" Cut="0.0000000000000000e+00" cType="1" res="-1.3045091181993484e-02" rms="2.9139974713325500e-01" purity="6.8556827306747437e-01" nType="-99"/>
          </Node>
        </Node>
      </Node>
    </BinaryTree>
    <BinaryTree type="DecisionTree" boostWeight="1.0000000000000000e+00" itree="101">
      <Node pos="s" depth="0" NCoef="0" IVar="2" Cut="5.3876843261718750e+02" cType="1" res="-1.1217688443139195e-03" rms="2.5267761945724487e-01" purity="5.0423294305801392e-01" nType="0">
        <Node pos="l" depth="1" NCoef="0" IVar="6" Cut="6.9609653949737549e-01" cType="1" res="3.4114725422114134e-03" rms="2.5923916697502136e-01" purity="3.9167392253875732e-01" nType="0">
          <Node pos="l" depth="2" NCoef="0" IVar="8" Cut="-1.1991539001464844e+00" cType="1" res="-1.1496986262500286e-03" rms="2.6252278685569763e-01" purity="4.3228366971015930e-01" nType="0">
            <Node pos="l" depth="3" NCoef="0" IVar="-1" Cut="0.0000000000000000e+00" cType="1" res="3.8993053138256073e-02" rms="2.7082765102386475e-01" purity="2.7345681190490723e-01" nType="-99"/>
            <Node pos="r" depth="3" NCoef="0" IVar="-1" Cut="0.0000000000000000e+00" cType="1" res="-8.1668356433510780e-03" rms="2.6079702377319336e-01" purity="4.5951503515243530e-01" nType="-99"/>
          </Node>
          <Node pos="r" depth="2" NCoef="0" IVar="0" Cut="1.7408729248046875e+03" cType="1" res="1.7436992377042770e-02" rms="2.4834653735160828e-01" purity="2.6679965853691101e-01" nType="0">
            <Node pos="l" depth="3" NCoef="0" IVar="-1" Cut="0.0000000000000000e+00" cType="1" res="9.5151886343955994e-03" rms="1.6958886384963989e-01" purity="3.7840232253074646e-02" nType="-99"/>
            <Node pos="r" depth="3" NCoef="0" IVar="-1" Cut="0.0000000000000000e+00" cType="1" res="3.8679223507642746e-02" rms="3.4001499414443970e-01" purity="6.4855307340621948e-01" nType="-99"/>
          </Node>
        </Node>
        <Node pos="r" depth="1" NCoef="0" IVar="9" Cut="-1.4658967256546021e+00" cType="1" res="-7.2167101316154003e-03" rms="2.4344418942928314e-01" purity="6.5556848049163818e-01" nType="0">
          <Node pos="l" depth="2" NCoef="0" IVar="-1" Cut="0.0000000000000000e+00" cType="1" res="-5.0642762333154678e-02" rms="2.9836931824684143e-01" purity="4.2716628313064575e-01" nType="-99"/>
          <Node pos="r" depth="2" NCoef="0" IVar="0" Cut="2.1995356445312500e+03" cType="1" res="-4.4293333776295185e-03" rms="2.3783653974533081e-01" purity="6.7554062604904175e-01" nType="0">
            <Node pos="l" depth="3" NCoef="0" IVar="-1" Cut="0.0000000000000000e+00" cType="1" res="-2.4401832371950150e-02" rms="2.6049309968948364e-01" purity="1.1510212719440460e-01" nType="-99"/>
            <Node pos="r" depth="3" NCoef="0" IVar="-1" Cut="0.0000000000000000e+00" cType="1" res="4.1665227035991848e-04" rms="2.2793217003345490e-01" purity="9.0078550577163696e-01" nType="-99"/>
          </Node>
        </Node>
      </Node>
    </BinaryTree>
    <BinaryTree type="DecisionTree" boostWeight="1.0000000000000000e+00" itree="102">
      <Node pos="s" depth="0" NCoef="0" IVar="9" Cut="6.6671943664550781e-01" cType="1" res="2.3329621180891991e-03" rms="2.5179433822631836e-01" purity="5.0367844104766846e-01" nType="0">
        <Node pos="l" depth="1" NCoef="0" IVar="4" Cut="1.3994149780273438e+02" cType="1" res="5.1891487091779709e-03" rms="2.5034469366073608e-01" purity="5.3378504514694214e-01" nType="0">
          <Node pos="l" depth="2" NCoef="0" IVar="7" Cut="-9.2950576543807983e-01" cType="1" res="-7.4923289939761162e-03" rms="1.8820224702358246e-01" purity="5.2267681807279587e-02" nType="0">
            <Node pos="l" depth="3" NCoef="0" IVar="-1" Cut="0.0000000000000000e+00" cType="1" res="5.1032561808824539e-02" rms="1.7662750184535980e-01" purity="3.9175972342491150e-02" nType="-99"/>
            <Node pos="r" depth="3" NCoef="0" IVar="-1" Cut="0.0000000000000000e+00" cType="1" res="-3.1934853643178940e-02" rms="1.9185036420822144e-01" purity="5.7097077369689941e-02" nType="-99"/>
          </Node>
          <Node pos="r" depth="2" NCoef="0" IVar="2" Cut="6.4854174804687500e+02" cType="1" res="7.1674375794827938e-03" rms="2.5864028930664062e-01" purity="6.0890090465545654e-01" nType="0">
            <Node pos="l" depth="3" NCoef="0" IVar="-1" Cut="0.0000000000000000e+00" cType="1" res="1.5102851204574108e-02" rms="2.6546552777290344e-01" purity="5.4152965545654297e-01" nType="-99"/>
            <Node pos="r" depth="3" NCoef="0" IVar="-1" Cut="0.0000000000000000e+00" cType="1" res="-5.5320570245385170e-03" rms="2.3638163506984711e-01" purity="8.1367808580398560e-01" nType="-99"/>
          </Node>
        </Node>
        <Node pos="r" depth="1" NCoef="0" IVar="7" Cut="9.3298935890197754e-01" cType="1" res="-4.7604809515178204e-03" rms="2.5522068142890930e-01" purity="4.2890778183937073e-01" nType="0">
          <Node pos="l" depth="2" NCoef="0" IVar="1" Cut="1.1762078851461411e-01" cType="1" res="1.3994838809594512e-03" rms="2.6080608367919922e-01" purity="4.8804920911788940e-01" nType="0">
            <Node pos="l" depth="3" NCoef="0" IVar="-1" Cut="0.0000000000000000e+00" cType="1" res="1.1928951367735863e-02" rms="2.6966568827629089e-01" purity="3.6165571212768555e-01" nType="-99"/>
            <Node pos="r" depth="3" NCoef="0" IVar="-1" Cut="0.0000000000000000e+00" cType="1" res="-2.6521028950810432e-02" rms="2.3582132160663605e-01" purity="8.1091701984405518e-01" nType="-99"/>
          </Node>
          <Node pos="r" depth="2" NCoef="0" IVar="5" Cut="1.3852941894531250e+02" cType="1" res="-2.6829330250620842e-02" rms="2.3278474807739258e-01" purity="2.1702620387077332e-01" nType="0">
            <Node pos="l" depth="3" NCoef="0" IVar="-1" Cut="0.0000000000000000e+00" cType="1" res="-2.8362846001982689e-02" rms="1.7837196588516235e-01" purity="6.4806364476680756e-02" nType="-99"/>
            <Node pos="r" depth="3" NCoef="0" IVar="-1" Cut="0.0000000000000000e+00" cType="1" res="-4.7719981521368027e-02" rms="2.7549847960472107e-01" purity="3.6762490868568420e-01" nType="-99"/>
          </Node>
        </Node>
      </Node>
    </BinaryTree>
    <BinaryTree type="DecisionTree" boostWeight="1.0000000000000000e+00" itree="103">
      <Node pos="s" depth="0" NCoef="0" IVar="1" Cut="2.1235026419162750e-01" cType="1" res="1.4455571072176099e-03" rms="2.5407356023788452e-01" purity="5.0458347797393799e-01" nType="0">
        <Node pos="l" depth="1" NCoef="0" IVar="9" Cut="-6.6691207885742188e-01" cType="1" res="2.2634712513536215e-04" rms="2.5823172926902771e-01" purity="4.7656440734863281e-01" nType="0">
          <Node pos="l" depth="2" NCoef="0" IVar="3" Cut="3.1277935791015625e+02" cType="1" res="-7.3141274042427540e-03" rms="2.7699565887451172e-01" purity="4.1684943437576294e-01" nType="0">
            <Node pos="l" depth="3" NCoef="0" IVar="-1" Cut="0.0000000000000000e+00" cType="1" res="5.6346827186644077e-03" rms="2.6424381136894226e-01" purity="2.1843202412128448e-01" nType="-99"/>
            <Node pos="r" depth="3" NCoef="0" IVar="-1" Cut="0.0000000000000000e+00" cType="1" res="-2.5874938815832138e-02" rms="2.9027795791625977e-01" purity="6.4202892780303955e-01" nType="-99"/>
          </Node>
          <Node pos="r" depth="2" NCoef="0" IVar="7" Cut="1.3449941575527191e-01" cType="1" res="3.2140484545379877e-03" rms="2.5034561753273010e-01" purity="5.0022476911544800e-01" nType="0">
            <Node pos="l" depth="3" NCoef="0" IVar="-1" Cut="0.0000000000000000e+00" cType="1" res="1.3169145211577415e-02" rms="2.4858137965202332e-01" purity="5.1858282089233398e-01" nType="-99"/>
            <Node pos="r" depth="3" NCoef="0" IVar="-1" Cut="0.0000000000000000e+00" cType="1" res="-4.4061592780053616e-03" rms="2.5227132439613342e-01" purity="4.7860243916511536e-01" nType="-99"/>
          </Node>
        </Node>
        <Node pos="r" depth="1" NCoef="0" IVar="-1" Cut="0.0000000000000000e+00" cType="1" res="4.6925105154514313e-02" rms="1.7838887870311737e-01" purity="9.3027967214584351e-01" nType="-99"/>
      </Node>
    </BinaryTree>
    <BinaryTree type="DecisionTree" boostWeight="1.0000000000000000e+00" itree="104">
      <Node pos="s" depth="0" NCoef="0" IVar="6" Cut="4.3075227737426758e-01" cType="1" res="7.8763527562841773e-04" rms="2.5904801487922668e-01" purity="5.0202953815460205e-01" nType="0">
        <Node pos="l" depth="1" NCoef="0" IVar="9" Cut="-6.6627377271652222e-01" cType="1" res="5.7178502902388573e-03" rms="2.6085120439529419e-01" purity="5.5617374181747437e-01" nType="0">
          <Node pos="l" depth="2" NCoef="0" IVar="0" Cut="2.5139990234375000e+03" cType="1" res="1.8420912325382233e-02" rms="2.8305783867835999e-01" purity="5.0598591566085815e-01" nType="0">
            <Node pos="l" depth="3" NCoef="0" IVar="-1" Cut="0.0000000000000000e+00" cType="1" res="3.1452838331460953e-02" rms="3.0419170856475830e-01" purity="3.4060040116310120e-01" nType="-99"/>
            <Node pos="r" depth="3" NCoef="0" IVar="-1" Cut="0.0000000000000000e+00" cType="1" res="-4.5409649610519409e-03" rms="2.1664640307426453e-01" purity="9.4067811965942383e-01" nType="-99"/>
          </Node>
          <Node pos="r" depth="2" NCoef="0" IVar="8" Cut="9.3502515554428101e-01" cType="1" res="4.9701053649187088e-04" rms="2.5096943974494934e-01" purity="5.7680058479309082e-01" nType="0">
            <Node pos="l" depth="3" NCoef="0" IVar="-1" Cut="0.0000000000000000e+00" cType="1" res="6.6459975205361843e-03" rms="2.4764601886272430e-01" purity="6.1639207601547241e-01" nType="-99"/>
            <Node pos="r" depth="3" NCoef="0" IVar="-1" Cut="0.0000000000000000e+00" cType="1" res="-2.1643003448843956e-02" rms="2.6501259207725525e-01" purity="3.9616519212722778e-01" nType="-99"/>
          </Node>
        </Node>
        <Node pos="r" depth="1" NCoef="0" IVar="9" Cut="-1.2005720138549805e+00" cType="1" res="-1.0644126683473587e-02" rms="2.5445058941841125e-01" purity="3.7648442387580872e-01" nType="0">
          <Node pos="l" depth="2" NCoef="0" IVar="-1" Cut="0.0000000000000000e+00" cType="1" res="-5.1573790609836578e-02" rms="2.7225536108016968e-01" purity="2.3102512955665588e-01" nType="-99"/>
          <Node pos="r" depth="2" NCoef="0" IVar="7" Cut="-9.2515522241592407e-01" cType="1" res="-5.5988240055739880e-03" rms="2.5071364641189575e-01" purity="4.0322253108024597e-01" nType="0">
            <Node pos="l" depth="3" NCoef="0" IVar="-1" Cut="0.0000000000000000e+00" cType="1" res="-5.6197121739387512e-02" rms="2.2096605598926544e-01" purity="1.6157308220863342e-01" nType="-99"/>
            <Node pos="r" depth="3" NCoef="0" IVar="-1" Cut="0.0000000000000000e+00" cType="1" res="-5.7480705436319113e-04" rms="2.5646856427192688e-01" purity="4.5609802007675171e-01" nType="-99"/>
          </Node>
        </Node>
      </Node>
    </BinaryTree>
    <BinaryTree type="DecisionTree" boostWeight="1.0000000000000000e+00" itree="105">
      <Node pos="s" depth="0" NCoef="0" IVar="2" Cut="6.5823034667968750e+02" cType="1" res="1.6813976690173149e-03" rms="2.5254309177398682e-01" purity="5.0209420919418335e-01" nType="0">
        <Node pos="l" depth="1" NCoef="0" IVar="0" Cut="1.5443802490234375e+03" cType="1" res="5.0821262411773205e-03" rms="2.5339603424072266e-01" purity="4.4588923454284668e-01" nType="0">
          <Node pos="l" depth="2" NCoef="0" IVar="1" Cut="8.7356075644493103e-02" cType="1" res="-7.0106172934174538e-03" rms="1.4013117551803589e-01" purity="2.0728345960378647e-02" nType="0">
            <Node pos="l" depth="3" NCoef="0" IVar="-1" Cut="0.0000000000000000e+00" cType="1" res="-2.0487591624259949e-02" rms="1.2187024205923080e-01" purity="1.5724822878837585e-02" nType="-99"/>
            <Node pos="r" depth="3" NCoef="0" IVar="-1" Cut="0.0000000000000000e+00" cType="1" res="-3.5810697823762894e-02" rms="1.9950798153877258e-01" purity="4.2054407298564911e-02" nType="-99"/>
          </Node>
          <Node pos="r" depth="2" NCoef="0" IVar="9" Cut="-9.3264460563659668e-01" cType="1" res="8.5324756801128387e-03" rms="2.7726089954376221e-01" purity="5.6719779968261719e-01" nType="0">
            <Node pos="l" depth="3" NCoef="0" IVar="-1" Cut="0.0000000000000000e+00" cType="1" res="2.6089049875736237e-02" rms="2.9529356956481934e-01" purity="5.1032942533493042e-01" nType="-99"/>
            <Node pos="r" depth="3" NCoef="0" IVar="-1" Cut="0.0000000000000000e+00" cType="1" res="7.1843974292278290e-03" rms="2.7234688401222229e-01" purity="5.8177804946899414e-01" nType="-99"/>
          </Node>
        </Node>
        <Node pos="r" depth="1" NCoef="0" IVar="3" Cut="3.3529772949218750e+02" cType="1" res="-1.0601179674267769e-02" rms="2.4905174970626831e-01" purity="7.0509248971939087e-01" nType="0">
          <Node pos="l" depth="2" NCoef="0" IVar="3" Cut="2.5884109497070312e+02" cType="1" res="-3.2220605760812759e-02" rms="2.7379432320594788e-01" purity="3.8782671093940735e-01" nType="0">
            <Node pos="l" depth="3" NCoef="0" IVar="-1" Cut="0.0000000000000000e+00" cType="1" res="1.0865247808396816e-02" rms="2.6961490511894226e-01" purity="2.8027027845382690e-01" nType="-99"/>
            <Node pos="r" depth="3" NCoef="0" IVar="-1" Cut="0.0000000000000000e+00" cType="1" res="-6.7111544311046600e-02" rms="2.7291947603225708e-01" purity="4.7250831127166748e-01" nType="-99"/>
          </Node>
          <Node pos="r" depth="2" NCoef="0" IVar="2" Cut="9.3626409912109375e+02" cType="1" res="-1.8691839650273323e-03" rms="2.3777452111244202e-01" purity="8.3323478698730469e-01" nType="0">
            <Node pos="l" depth="3" NCoef="0" IVar="-1" Cut="0.0000000000000000e+00" cType="1" res="5.2648675628006458e-03" rms="2.2304415702819824e-01" purity="8.3936148881912231e-01" nType="-99"/>
            <Node pos="r" depth="3" NCoef="0" IVar="-1" Cut="0.0000000000000000e+00" cType="1" res="-2.8651250526309013e-02" rms="2.9711571335792542e-01" purity="8.0405855178833008e-01" nType="-99"/>
          </Node>
        </Node>
      </Node>
    </BinaryTree>
    <BinaryTree type="DecisionTree" boostWeight="1.0000000000000000e+00" itree="106">
      <Node pos="s" depth="0" NCoef="0" IVar="3" Cut="3.4458288574218750e+02" cType="1" res="1.3049152912572026e-03" rms="2.5669330358505249e-01" purity="4.9848920106887817e-01" nType="0">
        <Node pos="l" depth="1" NCoef="0" IVar="0" Cut="1.5742534179687500e+03" cType="1" res="5.3280214779078960e-03" rms="2.6388081908226013e-01" purity="2.9902678728103638e-01" nType="0">
          <Node pos="l" depth="2" NCoef="0" IVar="9" Cut="-1.4674507379531860e+00" cType="1" res="-6.3575208187103271e-03" rms="1.4818216860294342e-01" purity="2.3340053856372833e-02" nType="0">
            <Node pos="l" depth="3" NCoef="0" IVar="-1" Cut="0.0000000000000000e+00" cType="1" res="6.2310565263032913e-02" rms="1.8246324360370636e-01" purity="3.6426398903131485e-02" nType="-99"/>
            <Node pos="r" depth="3" NCoef="0" IVar="-1" Cut="0.0000000000000000e+00" cType="1" res="-3.2210350036621094e-02" rms="1.4240199327468872e-01" purity="2.1474735811352730e-02" nType="-99"/>
          </Node>
          <Node pos="r" depth="2" NCoef="0" IVar="7" Cut="4.0121394395828247e-01" cType="1" res="1.1803990229964256e-02" rms="3.0973598361015320e-01" purity="4.5180860161781311e-01" nType="0">
            <Node pos="l" depth="3" NCoef="0" IVar="-1" Cut="0.0000000000000000e+00" cType="1" res="5.5533666163682938e-03" rms="3.1226927042007446e-01" purity="4.6842768788337708e-01" nType="-99"/>
            <Node pos="r" depth="3" NCoef="0" IVar="-1" Cut="0.0000000000000000e+00" cType="1" res="2.6767378672957420e-02" rms="3.0474898219108582e-01" purity="4.2186456918716431e-01" nType="-99"/>
          </Node>
        </Node>
        <Node pos="r" depth="1" NCoef="0" IVar="1" Cut="3.9622232317924500e-02" cType="1" res="-4.2704786173999310e-03" rms="2.4627752602100372e-01" purity="7.7491283416748047e-01" nType="0">
          <Node pos="l" depth="2" NCoef="0" IVar="5" Cut="1.3348916625976562e+02" cType="1" res="1.0903733782470226e-02" rms="3.0464535951614380e-01" purity="4.2880928516387939e-01" nType="0">
            <Node pos="l" depth="3" NCoef="0" IVar="-1" Cut="0.0000000000000000e+00" cType="1" res="6.0693450272083282e-02" rms="2.8049919009208679e-01" purity="1.7678575217723846e-01" nType="-99"/>
            <Node pos="r" depth="3" NCoef="0" IVar="-1" Cut="0.0000000000000000e+00" cType="1" res="-1.2896587140858173e-02" rms="3.2091864943504333e-01" purity="6.3356739282608032e-01" nType="-99"/>
          </Node>
          <Node pos="r" depth="2" NCoef="0" IVar="0" Cut="2.5693630371093750e+03" cType="1" res="-8.6994003504514694e-03" rms="2.2623069584369659e-01" purity="8.7593060731887817e-01" nType="0">
            <Node pos="l" depth="3" NCoef="0" IVar="-1" Cut="0.0000000000000000e+00" cType="1" res="-2.6317514479160309e-02" rms="3.2685482501983643e-01" purity="7.0074892044067383e-01" nType="-99"/>
            <Node pos="r" depth="3" NCoef="0" IVar="-1" Cut="0.0000000000000000e+00" cType="1" res="8.9696338400244713e-03" rms="1.3725414872169495e-01" purity="9.7674512863159180e-01" nType="-99"/>
          </Node>
        </Node>
      </Node>
    </BinaryTree>
    <BinaryTree type="DecisionTree" boostWeight="1.0000000000000000e+00" itree="107">
      <Node pos="s" depth="0" NCoef="0" IVar="3" Cut="2.7483660888671875e+02" cType="1" res="-2.3697409778833389e-03" rms="2.4866901338100433e-01" purity="5.0150942802429199e-01" nType="0">
        <Node pos="l" depth="1" NCoef="0" IVar="4" Cut="2.3135604858398438e+02" cType="1" res="-1.0702149942517281e-02" rms="2.4651041626930237e-01" purity="1.7992946505546570e-01" nType="0">
          <Node pos="l" depth="2" NCoef="0" IVar="5" Cut="1.7016644287109375e+02" cType="1" res="-7.1062282659113407e-03" rms="2.3827777802944183e-01" purity="1.5430736541748047e-01" nType="0">
            <Node pos="l" depth="3" NCoef="0" IVar="-1" Cut="0.0000000000000000e+00" cType="1" res="-2.0566217601299286e-02" rms="2.2471626102924347e-01" purity="1.0785383731126785e-01" nType="-99"/>
            <Node pos="r" depth="3" NCoef="0" IVar="-1" Cut="0.0000000000000000e+00" cType="1" res="2.1706547588109970e-02" rms="3.1243690848350525e-01" purity="4.6320983767509460e-01" nType="-99"/>
          </Node>
          <Node pos="r" depth="2" NCoef="0" IVar="-1" Cut="0.0000000000000000e+00" cType="1" res="-5.4208301007747650e-02" rms="3.1695240736007690e-01" purity="4.4444617629051208e-01" nType="-99"/>
        </Node>
        <Node pos="r" depth="1" NCoef="0" IVar="1" Cut="8.4678649902343750e-02" cType="1" res="2.1208242978900671e-03" rms="2.4970933794975281e-01" purity="6.7481780052185059e-01" nType="0">
          <Node pos="l" depth="2" NCoef="0" IVar="0" Cut="1.6666604003906250e+03" cType="1" res="8.5315024480223656e-03" rms="2.7620106935501099e-01" purity="4.8608285188674927e-01" nType="0">
            <Node pos="l" depth="3" NCoef="0" IVar="-1" Cut="0.0000000000000000e+00" cType="1" res="-5.9742137789726257e-02" rms="9.3522451817989349e-02" purity="9.1092288494110107e-03" nType="-99"/>
            <Node pos="r" depth="3" NCoef="0" IVar="-1" Cut="0.0000000000000000e+00" cType="1" res="1.4882583171129227e-02" rms="3.0413144826889038e-01" purity="6.0143923759460449e-01" nType="-99"/>
          </Node>
          <Node pos="r" depth="2" NCoef="0" IVar="0" Cut="2.1340131835937500e+03" cType="1" res="-4.7270329669117928e-03" rms="2.1767306327819824e-01" purity="8.7642347812652588e-01" nType="0">
            <Node pos="l" depth="3" NCoef="0" IVar="-1" Cut="0.0000000000000000e+00" cType="1" res="-2.1057337522506714e-02" rms="3.7728565931320190e-01" purity="4.6290162205696106e-01" nType="-99"/>
            <Node pos="r" depth="3" NCoef="0" IVar="-1" Cut="0.0000000000000000e+00" cType="1" res="5.5379490368068218e-03" rms="1.5972951054573059e-01" purity="9.7074723243713379e-01" nType="-99"/>
          </Node>
        </Node>
      </Node>
    </BinaryTree>
    <BinaryTree type="DecisionTree" boostWeight="1.0000000000000000e+00" itree="108">
      <Node pos="s" depth="0" NCoef="0" IVar="4" Cut="4.2062005615234375e+02" cType="1" res="-1.3444186188280582e-03" rms="2.5412502884864807e-01" purity="5.0645035505294800e-01" nType="0">
        <Node pos="l" depth="1" NCoef="0" IVar="3" Cut="3.3017193603515625e+02" cType="1" res="-2.6511502801440656e-04" rms="2.5734847784042358e-01" purity="4.7792637348175049e-01" nType="0">
          <Node pos="l" depth="2" NCoef="0" IVar="0" Cut="1.7797221679687500e+03" cType="1" res="-4.6565630473196507e-03" rms="2.6073449850082397e-01" purity="2.6983574032783508e-01" nType="0">
            <Node pos="l" depth="3" NCoef="0" IVar="-1" Cut="0.0000000000000000e+00" cType="1" res="5.0490568391978741e-03" rms="2.0773304998874664e-01" purity="5.7828914374113083e-02" nType="-99"/>
            <Node pos="r" depth="3" NCoef="0" IVar="-1" Cut="0.0000000000000000e+00" cType="1" res="-1.5337061136960983e-02" rms="3.2841512560844421e-01" purity="6.1199092864990234e-01" nType="-99"/>
          </Node>
          <Node pos="r" depth="2" NCoef="0" IVar="5" Cut="1.5487030029296875e+02" cType="1" res="5.2405386231839657e-03" rms="2.5293162465095520e-01" purity="7.3881411552429199e-01" nType="0">
            <Node pos="l" depth="3" NCoef="0" IVar="-1" Cut="0.0000000000000000e+00" cType="1" res="2.0901529118418694e-02" rms="3.2137465476989746e-01" purity="3.7285789847373962e-01" nType="-99"/>
            <Node pos="r" depth="3" NCoef="0" IVar="-1" Cut="0.0000000000000000e+00" cType="1" res="-2.2047415841370821e-03" rms="2.1570725739002228e-01" purity="8.9998829364776611e-01" nType="-99"/>
          </Node>
        </Node>
        <Node pos="r" depth="1" NCoef="0" IVar="-1" Cut="0.0000000000000000e+00" cType="1" res="-6.3845798373222351e-02" rms="1.9781233370304108e-01" purity="9.4175398349761963e-01" nType="-99"/>
      </Node>
    </BinaryTree>
    <BinaryTree type="DecisionTree" boostWeight="1.0000000000000000e+00" itree="109">
      <Node pos="s" depth="0" NCoef="0" IVar="2" Cut="3.1471743774414062e+02" cType="1" res="-2.7604559436440468e-03" rms="2.5084814429283142e-01" purity="5.0066328048706055e-01" nType="0">
        <Node pos="l" depth="1" NCoef="0" IVar="4" Cut="2.0006732177734375e+02" cType="1" res="-2.2306563332676888e-02" rms="2.6467651128768921e-01" purity="1.7255443334579468e-01" nType="0">
          <Node pos="l" depth="2" NCoef="0" IVar="6" Cut="-1.3962291181087494e-02" cType="1" res="-1.1184306815266609e-02" rms="2.4021930992603302e-01" purity="1.0294987261295319e-01" nType="0">
            <Node pos="l" depth="3" NCoef="0" IVar="-1" Cut="0.0000000000000000e+00" cType="1" res="1.6732424497604370e-02" rms="2.8597322106361389e-01" purity="1.3381470739841461e-01" nType="-99"/>
            <Node pos="r" depth="3" NCoef="0" IVar="-1" Cut="0.0000000000000000e+00" cType="1" res="-4.5655477792024612e-02" rms="1.9789320230484009e-01" purity="8.0006569623947144e-02" nType="-99"/>
          </Node>
          <Node pos="r" depth="2" NCoef="0" IVar="-1" Cut="0.0000000000000000e+00" cType="1" res="-4.8621080815792084e-02" rms="3.0454102158546448e-01" purity="3.0427819490432739e-01" nType="-99"/>
        </Node>
        <Node pos="r" depth="1" NCoef="0" IVar="8" Cut="-1.7333199977874756e+00" cType="1" res="-8.0248707672581077e-04" rms="2.4933627247810364e-01" purity="5.3353053331375122e-01" nType="0">
          <Node pos="l" depth="2" NCoef="0" IVar="-1" Cut="0.0000000000000000e+00" cType="1" res="-5.0276305526494980e-02" rms="2.3077833652496338e-01" purity="1.2113134562969208e-01" nType="-99"/>
          <Node pos="r" depth="2" NCoef="0" IVar="6" Cut="1.4985013008117676e+00" cType="1" res="4.3530386756174266e-04" rms="2.5019031763076782e-01" purity="5.5472773313522339e-01" nType="0">
            <Node pos="l" depth="3" NCoef="0" IVar="-1" Cut="0.0000000000000000e+00" cType="1" res="2.0854289177805185e-03" rms="2.5381493568420410e-01" purity="5.7631844282150269e-01" nType="-99"/>
            <Node pos="r" depth="3" NCoef="0" IVar="-1" Cut="0.0000000000000000e+00" cType="1" res="-6.7277759313583374e-02" rms="1.3712215423583984e-01" purity="4.3069899082183838e-02" nType="-99"/>
          </Node>
        </Node>
      </Node>
    </BinaryTree>
    <BinaryTree type="DecisionTree" boostWeight="1.0000000000000000e+00" itree="110">
      <Node pos="s" depth="0" NCoef="0" IVar="9" Cut="-1.4665277004241943e+00" cType="1" res="-2.0099044777452946e-03" rms="2.5225266814231873e-01" purity="4.9956864118576050e-01" nType="0">
        <Node pos="l" depth="1" NCoef="0" IVar="8" Cut="1.3533222675323486e-01" cType="1" res="-1.7296327278017998e-02" rms="2.8515058755874634e-01" purity="3.1466588377952576e-01" nType="0">
          <Node pos="l" depth="2" NCoef="0" IVar="8" Cut="-7.0112830400466919e-01" cType="1" res="-3.6271993070840836e-02" rms="2.9512271285057068e-01" purity="2.9368764162063599e-01" nType="0">
            <Node pos="l" depth="3" NCoef="0" IVar="-1" Cut="0.0000000000000000e+00" cType="1" res="-1.1708701495081186e-03" rms="2.5159534811973572e-01" purity="2.2676388919353485e-01" nType="-99"/>
            <Node pos="r" depth="3" NCoef="0" IVar="-1" Cut="0.0000000000000000e+00" cType="1" res="-9.8860867321491241e-02" rms="3.3757853507995605e-01" purity="3.7964096665382385e-01" nType="-99"/>
          </Node>
          <Node pos="r" depth="2" NCoef="0" IVar="-1" Cut="0.0000000000000000e+00" cType="1" res="1.7665233463048935e-02" rms="2.6613870263099670e-01" purity="3.4743812680244446e-01" nType="-99"/>
        </Node>
        <Node pos="r" depth="1" NCoef="0" IVar="2" Cut="8.0900384521484375e+02" cType="1" res="-4.0294515201821923e-04" rms="2.4848690629005432e-01" purity="5.1900625228881836e-01" nType="0">
          <Node pos="l" depth="2" NCoef="0" IVar="3" Cut="1.7297306823730469e+02" cType="1" res="6.6257279831916094e-04" rms="2.4637937545776367e-01" purity="4.9688342213630676e-01" nType="0">
            <Node pos="l" depth="3" NCoef="0" IVar="-1" Cut="0.0000000000000000e+00" cType="1" res="-4.4733323156833649e-02" rms="1.5107907354831696e-01" purity="3.2944846898317337e-02" nType="-99"/>
            <Node pos="r" depth="3" NCoef="0" IVar="-1" Cut="0.0000000000000000e+00" cType="1" res="2.4441995192319155e-03" rms="2.5084447860717773e-01" purity="5.2424651384353638e-01" nType="-99"/>
          </Node>
          <Node pos="r" depth="2" NCoef="0" IVar="2" Cut="9.0173895263671875e+02" cType="1" res="-1.2400110252201557e-02" rms="2.7079886198043823e-01" purity="7.6809734106063843e-01" nType="0">
            <Node pos="l" depth="3" NCoef="0" IVar="-1" Cut="0.0000000000000000e+00" cType="1" res="-4.2860016226768494e-02" rms="2.5940752029418945e-01" purity="7.4269366264343262e-01" nType="-99"/>
            <Node pos="r" depth="3" NCoef="0" IVar="-1" Cut="0.0000000000000000e+00" cType="1" res="8.3149760030210018e-04" rms="2.7981764078140259e-01" purity="7.9052537679672241e-01" nType="-99"/>
          </Node>
        </Node>
      </Node>
    </BinaryTree>
    <BinaryTree type="DecisionTree" boostWeight="1.0000000000000000e+00" itree="111">
      <Node pos="s" depth="0" NCoef="0" IVar="4" Cut="4.3486364746093750e+02" cType="1" res="-5.3187302546575665e-04" rms="2.4869106709957123e-01" purity="4.9576276540756226e-01" nType="0">
        <Node pos="l" depth="1" NCoef="0" IVar="7" Cut="-1.1988117694854736e+00" cType="1" res="5.5229116696864367e-04" rms="2.5018459558486938e-01" purity="4.7331032156944275e-01" nType="0">
          <Node pos="l" depth="2" NCoef="0" IVar="1" Cut="5.2654001861810684e-02" cType="1" res="1.3439527712762356e-02" rms="2.3525086045265198e-01" purity="2.1427291631698608e-01" nType="0">
            <Node pos="l" depth="3" NCoef="0" IVar="-1" Cut="0.0000000000000000e+00" cType="1" res="1.1030569672584534e-02" rms="2.0357172191143036e-01" purity="8.8314570486545563e-02" nType="-99"/>
            <Node pos="r" depth="3" NCoef="0" IVar="-1" Cut="0.0000000000000000e+00" cType="1" res="4.1775736957788467e-02" rms="2.9682114720344543e-01" purity="5.1742190122604370e-01" nType="-99"/>
          </Node>
          <Node pos="r" depth="2" NCoef="0" IVar="7" Cut="-5.6670937687158585e-02" cType="1" res="-1.1915075592696667e-03" rms="2.5208678841590881e-01" purity="5.0836122035980225e-01" nType="0">
            <Node pos="l" depth="3" NCoef="0" IVar="-1" Cut="0.0000000000000000e+00" cType="1" res="-9.3349134549498558e-03" rms="2.5885924696922302e-01" purity="5.3197813034057617e-01" nType="-99"/>
            <Node pos="r" depth="3" NCoef="0" IVar="-1" Cut="0.0000000000000000e+00" cType="1" res="3.7343103904277086e-03" rms="2.4722696840763092e-01" purity="4.9201181530952454e-01" nType="-99"/>
          </Node>
        </Node>
        <Node pos="r" depth="1" NCoef="0" IVar="-1" Cut="0.0000000000000000e+00" cType="1" res="-7.0448398590087891e-02" rms="2.1588779985904694e-01" purity="9.4040596485137939e-01" nType="-99"/>
      </Node>
    </BinaryTree>
    <BinaryTree type="DecisionTree" boostWeight="1.0000000000000000e+00" itree="112">
      <Node pos="s" depth="0" NCoef="0" IVar="5" Cut="1.5183699035644531e+02" cType="1" res="1.6534560127183795e-03" rms="2.5237217545509338e-01" purity="4.9845421314239502e-01" nType="0">
        <Node pos="l" depth="1" NCoef="0" IVar="1" Cut="7.6062552630901337e-02" cType="1" res="7.8733488917350769e-03" rms="2.5558859109878540e-01" purity="1.8827255070209503e-01" nType="0">
          <Node pos="l" depth="2" NCoef="0" IVar="8" Cut="1.1992326974868774e+00" cType="1" res="1.8132805125787854e-03" rms="2.2631984949111938e-01" purity="1.1339124292135239e-01" nType="0">
            <Node pos="l" depth="3" NCoef="0" IVar="-1" Cut="0.0000000000000000e+00" cType="1" res="-2.0836803596466780e-03" rms="2.2790126502513885e-01" purity="1.1817235499620438e-01" nType="-99"/>
            <Node pos="r" depth="3" NCoef="0" IVar="-1" Cut="0.0000000000000000e+00" cType="1" res="3.7599727511405945e-02" rms="2.1804785728454590e-01" purity="9.0478524565696716e-02" nType="-99"/>
          </Node>
          <Node pos="r" depth="2" NCoef="0" IVar="5" Cut="1.0119438171386719e+02" cType="1" res="2.7301222085952759e-02" rms="3.3173608779907227e-01" purity="4.2833325266838074e-01" nType="0">
            <Node pos="l" depth="3" NCoef="0" IVar="-1" Cut="0.0000000000000000e+00" cType="1" res="9.3435263261198997e-04" rms="2.8633588552474976e-01" purity="2.1855436265468597e-01" nType="-99"/>
            <Node pos="r" depth="3" NCoef="0" IVar="-1" Cut="0.0000000000000000e+00" cType="1" res="3.1930305063724518e-02" rms="3.4420573711395264e-01" purity="4.9348711967468262e-01" nType="-99"/>
          </Node>
        </Node>
        <Node pos="r" depth="1" NCoef="0" IVar="9" Cut="-1.4655556678771973e+00" cType="1" res="-3.6804189439862967e-03" rms="2.4945743381977081e-01" purity="7.6445084810256958e-01" nType="0">
          <Node pos="l" depth="2" NCoef="0" IVar="-1" Cut="0.0000000000000000e+00" cType="1" res="-3.5487245768308640e-02" rms="3.1994816660881042e-01" purity="5.2662736177444458e-01" nType="-99"/>
          <Node pos="r" depth="2" NCoef="0" IVar="9" Cut="1.3762969970703125e+00" cType="1" res="-1.5844231238588691e-03" rms="2.4307413399219513e-01" purity="7.8271442651748657e-01" nType="0">
            <Node pos="l" depth="3" NCoef="0" IVar="-1" Cut="0.0000000000000000e+00" cType="1" res="5.3755129920318723e-04" rms="2.3984660208225250e-01" purity="8.0218982696533203e-01" nType="-99"/>
            <Node pos="r" depth="3" NCoef="0" IVar="-1" Cut="0.0000000000000000e+00" cType="1" res="-3.0077993869781494e-02" rms="2.7645957469940186e-01" purity="5.5947899818420410e-01" nType="-99"/>
          </Node>
        </Node>
      </Node>
    </BinaryTree>
    <BinaryTree type="DecisionTree" boostWeight="1.0000000000000000e+00" itree="113">
      <Node pos="s" depth="0" NCoef="0" IVar="8" Cut="-1.1994613409042358e+00" cType="1" res="-3.5864014644175768e-03" rms="2.4722297489643097e-01" purity="5.0855350494384766e-01" nType="0">
        <Node pos="l" depth="1" NCoef="0" IVar="5" Cut="1.2742186737060547e+02" cType="1" res="-1.8606374040246010e-02" rms="2.4273917078971863e-01" purity="2.6567462086677551e-01" nType="0">
          <Node pos="l" depth="2" NCoef="0" IVar="9" Cut="-1.3462561368942261e-01" cType="1" res="-2.1233821753412485e-03" rms="2.0138470828533173e-01" purity="8.6014598608016968e-02" nType="0">
            <Node pos="l" depth="3" NCoef="0" IVar="-1" Cut="0.0000000000000000e+00" cType="1" res="1.9978269934654236e-02" rms="2.0896621048450470e-01" purity="9.7200691699981689e-02" nType="-99"/>
            <Node pos="r" depth="3" NCoef="0" IVar="-1" Cut="0.0000000000000000e+00" cType="1" res="-3.1682487577199936e-02" rms="1.9228588044643402e-01" purity="7.4144266545772552e-02" nType="-99"/>
          </Node>
          <Node pos="r" depth="2" NCoef="0" IVar="1" Cut="3.4814421087503433e-02" cType="1" res="-3.0738051980733871e-02" rms="2.6850160956382751e-01" purity="3.9790657162666321e-01" nType="0">
            <Node pos="l" depth="3" NCoef="0" IVar="-1" Cut="0.0000000000000000e+00" cType="1" res="-2.8726551681756973e-02" rms="1.9563333690166473e-01" purity="1.2795668840408325e-01" nType="-99"/>
            <Node pos="r" depth="3" NCoef="0" IVar="-1" Cut="0.0000000000000000e+00" cType="1" res="-4.5884702354669571e-02" rms="3.0158054828643799e-01" purity="5.4995977878570557e-01" nType="-99"/>
          </Node>
        </Node>
        <Node pos="r" depth="1" NCoef="0" IVar="9" Cut="-1.9990600347518921e+00" cType="1" res="-1.4287139056250453e-03" rms="2.4778565764427185e-01" purity="5.4344421625137329e-01" nType="0">
          <Node pos="l" depth="2" NCoef="0" IVar="-1" Cut="0.0000000000000000e+00" cType="1" res="3.8293894380331039e-02" rms="2.7035886049270630e-01" purity="2.7131175994873047e-01" nType="-99"/>
          <Node pos="r" depth="2" NCoef="0" IVar="0" Cut="2.9976611328125000e+03" cType="1" res="-2.3934487253427505e-03" rms="2.4696867167949677e-01" purity="5.5215018987655640e-01" nType="0">
            <Node pos="l" depth="3" NCoef="0" IVar="-1" Cut="0.0000000000000000e+00" cType="1" res="-5.9770126827061176e-03" rms="2.6184442639350891e-01" purity="4.7559335827827454e-01" nType="-99"/>
            <Node pos="r" depth="3" NCoef="0" IVar="-1" Cut="0.0000000000000000e+00" cType="1" res="2.9111916199326515e-02" rms="1.3835725188255310e-01" purity="9.7420400381088257e-01" nType="-99"/>
          </Node>
        </Node>
      </Node>
    </BinaryTree>
    <BinaryTree type="DecisionTree" boostWeight="1.0000000000000000e+00" itree="114">
      <Node pos="s" depth="0" NCoef="0" IVar="8" Cut="6.6625678539276123e-01" cType="1" res="4.6008839271962643e-03" rms="2.5207290053367615e-01" purity="5.0337678194046021e-01" nType="0">
        <Node pos="l" depth="1" NCoef="0" IVar="5" Cut="1.5199047851562500e+02" cType="1" res="1.9155187765136361e-03" rms="2.4653075635433197e-01" purity="5.2895390987396240e-01" nType="0">
          <Node pos="l" depth="2" NCoef="0" IVar="7" Cut="-1.3055098056793213e-01" cType="1" res="-4.0783607400953770e-03" rms="2.5031381845474243e-01" purity="1.8327626585960388e-01" nType="0">
            <Node pos="l" depth="3" NCoef="0" IVar="-1" Cut="0.0000000000000000e+00" cType="1" res="-2.5525014847517014e-02" rms="2.3048409819602966e-01" purity="1.5518285334110260e-01" nType="-99"/>
            <Node pos="r" depth="3" NCoef="0" IVar="-1" Cut="0.0000000000000000e+00" cType="1" res="8.4379119798541069e-03" rms="2.6621580123901367e-01" purity="2.0807169377803802e-01" nType="-99"/>
          </Node>
          <Node pos="r" depth="2" NCoef="0" IVar="0" Cut="1.8633072509765625e+03" cType="1" res="6.5769874490797520e-03" rms="2.4344605207443237e-01" purity="7.9778903722763062e-01" nType="0">
            <Node pos="l" depth="3" NCoef="0" IVar="-1" Cut="0.0000000000000000e+00" cType="1" res="3.2510709017515182e-02" rms="3.4259098768234253e-01" purity="1.8992270529270172e-01" nType="-99"/>
            <Node pos="r" depth="3" NCoef="0" IVar="-1" Cut="0.0000000000000000e+00" cType="1" res="4.4353678822517395e-03" rms="2.2205740213394165e-01" purity="9.0071392059326172e-01" nType="-99"/>
          </Node>
        </Node>
        <Node pos="r" depth="1" NCoef="0" IVar="8" Cut="1.9867898225784302e+00" cType="1" res="1.2438851408660412e-02" rms="2.6743936538696289e-01" purity="4.2872297763824463e-01" nType="0">
          <Node pos="l" depth="2" NCoef="0" IVar="8" Cut="1.6719022989273071e+00" cType="1" res="1.6384407877922058e-02" rms="2.7672436833381653e-01" purity="4.7795724868774414e-01" nType="0">
            <Node pos="l" depth="3" NCoef="0" IVar="-1" Cut="0.0000000000000000e+00" cType="1" res="1.5605526044964790e-02" rms="2.7222344279289246e-01" purity="4.9949380755424500e-01" nType="-99"/>
            <Node pos="r" depth="3" NCoef="0" IVar="-1" Cut="0.0000000000000000e+00" cType="1" res="7.8132867813110352e-02" rms="3.0657801032066345e-01" purity="3.0947640538215637e-01" nType="-99"/>
          </Node>
          <Node pos="r" depth="2" NCoef="0" IVar="-1" Cut="0.0000000000000000e+00" cType="1" res="-3.6355923861265182e-02" rms="1.8536739051342010e-01" purity="7.5489811599254608e-02" nType="-99"/>
        </Node>
      </Node>
    </BinaryTree>
    <BinaryTree type="DecisionTree" boostWeight="1.0000000000000000e+00" itree="115">
      <Node pos="s" depth="0" NCoef="0" IVar="7" Cut="-1.3361231982707977e-01" cType="1" res="-7.3860799602698535e-05" rms="2.5580334663391113e-01" purity="4.9874308705329895e-01" nType="0">
        <Node pos="l" depth="1" NCoef="0" IVar="9" Cut="-1.4665753841400146e+00" cType="1" res="4.5265010558068752e-03" rms="2.5733894109725952e-01" purity="4.8569980263710022e-01" nType="0">
          <Node pos="l" depth="2" NCoef="0" IVar="9" Cut="-1.8472582101821899e+00" cType="1" res="2.7173843234777451e-02" rms="2.8918606042861938e-01" purity="3.4464806318283081e-01" nType="0">
            <Node pos="l" depth="3" NCoef="0" IVar="-1" Cut="0.0000000000000000e+00" cType="1" res="3.7865635007619858e-02" rms="2.8882974386215210e-01" purity="2.5451251864433289e-01" nType="-99"/>
            <Node pos="r" depth="3" NCoef="0" IVar="-1" Cut="0.0000000000000000e+00" cType="1" res="3.6751929670572281e-02" rms="2.8952649235725403e-01" purity="4.3246069550514221e-01" nType="-99"/>
          </Node>
          <Node pos="r" depth="2" NCoef="0" IVar="7" Cut="-8.9357250928878784e-01" cType="1" res="1.5857474645599723e-03" rms="2.5276076793670654e-01" purity="5.0401538610458374e-01" nType="0">
            <Node pos="l" depth="3" NCoef="0" IVar="-1" Cut="0.0000000000000000e+00" cType="1" res="-1.2299791909754276e-02" rms="2.5784286856651306e-01" purity="3.0408802628517151e-01" nType="-99"/>
            <Node pos="r" depth="3" NCoef="0" IVar="-1" Cut="0.0000000000000000e+00" cType="1" res="1.2515404261648655e-02" rms="2.4932497739791870e-01" purity="6.2960416078567505e-01" nType="-99"/>
          </Node>
        </Node>
        <Node pos="r" depth="1" NCoef="0" IVar="6" Cut="-5.3771895170211792e-01" cType="1" res="-3.7965073715895414e-03" rms="2.5449311733245850e-01" purity="5.0929778814315796e-01" nType="0">
          <Node pos="l" depth="2" NCoef="0" IVar="0" Cut="2.1314958496093750e+03" cType="1" res="6.6116349771618843e-03" rms="2.5949561595916748e-01" purity="3.7079557776451111e-01" nType="0">
            <Node pos="l" depth="3" NCoef="0" IVar="-1" Cut="0.0000000000000000e+00" cType="1" res="3.3184416592121124e-02" rms="2.4901670217514038e-01" purity="1.3667187094688416e-01" nType="-99"/>
            <Node pos="r" depth="3" NCoef="0" IVar="-1" Cut="0.0000000000000000e+00" cType="1" res="-2.1723512560129166e-02" rms="2.7669906616210938e-01" purity="8.0988562107086182e-01" nType="-99"/>
          </Node>
          <Node pos="r" depth="2" NCoef="0" IVar="9" Cut="1.4639475345611572e+00" cType="1" res="-7.1099041961133480e-03" rms="2.5278991460800171e-01" purity="5.5338954925537109e-01" nType="0">
            <Node pos="l" depth="3" NCoef="0" IVar="-1" Cut="0.0000000000000000e+00" cType="1" res="-1.4767226763069630e-02" rms="2.4640683829784393e-01" purity="5.7353210449218750e-01" nType="-99"/>
            <Node pos="r" depth="3" NCoef="0" IVar="-1" Cut="0.0000000000000000e+00" cType="1" res="1.9247565418481827e-02" rms="3.0317094922065735e-01" purity="3.7301981449127197e-01" nType="-99"/>
          </Node>
        </Node>
      </Node>
    </BinaryTree>
    <BinaryTree type="DecisionTree" boostWeight="1.0000000000000000e+00" itree="116">
      <Node pos="s" depth="0" NCoef="0" IVar="0" Cut="3.1310004882812500e+03" cType="1" res="-3.2228955533355474e-03" rms="2.4796201288700104e-01" purity="4.9144181609153748e-01" nType="0">
        <Node pos="l" depth="1" NCoef="0" IVar="2" Cut="8.0942358398437500e+02" cType="1" res="-4.9662180244922638e-03" rms="2.5841441750526428e-01" purity="4.3631401658058167e-01" nType="0">
          <Node pos="l" depth="2" NCoef="0" IVar="0" Cut="1.9769420166015625e+03" cType="1" res="-3.8972937036305666e-03" rms="2.5529602169990540e-01" purity="4.3133002519607544e-01" nType="0">
            <Node pos="l" depth="3" NCoef="0" IVar="-1" Cut="0.0000000000000000e+00" cType="1" res="-1.2021356262266636e-02" rms="2.4549135565757751e-01" purity="1.0118117928504944e-01" nType="-99"/>
            <Node pos="r" depth="3" NCoef="0" IVar="-1" Cut="0.0000000000000000e+00" cType="1" res="8.8964874157682061e-04" rms="2.6686203479766846e-01" purity="8.3988946676254272e-01" nType="-99"/>
          </Node>
          <Node pos="r" depth="2" NCoef="0" IVar="-1" Cut="0.0000000000000000e+00" cType="1" res="-2.6136219501495361e-02" rms="3.1596401333808899e-01" purity="5.4079103469848633e-01" nType="-99"/>
        </Node>
        <Node pos="r" depth="1" NCoef="0" IVar="1" Cut="9.2776946723461151e-02" cType="1" res="1.2258778326213360e-02" rms="1.1922661215066910e-01" purity="9.8100757598876953e-01" nType="0">
          <Node pos="l" depth="2" NCoef="0" IVar="-1" Cut="0.0000000000000000e+00" cType="1" res="4.5388467609882355e-02" rms="1.6167262196540833e-01" purity="9.6304303407669067e-01" nType="-99"/>
          <Node pos="r" depth="2" NCoef="0" IVar="-1" Cut="0.0000000000000000e+00" cType="1" res="5.5368095636367798e-02" rms="6.9902159273624420e-02" purity="9.9492698907852173e-01" nType="-99"/>
        </Node>
      </Node>
    </BinaryTree>
    <BinaryTree type="DecisionTree" boostWeight="1.0000000000000000e+00" itree="117">
      <Node pos="s" depth="0" NCoef="0" IVar="2" Cut="4.4371893310546875e+02" cType="1" res="-1.9329554634168744e-03" rms="2.5409701466560364e-01" purity="5.0536936521530151e-01" nType="0">
        <Node pos="l" depth="1" NCoef="0" IVar="3" Cut="3.3964578247070312e+02" cType="1" res="8.5558677092194557e-03" rms="2.7672928571701050e-01" purity="3.2486590743064880e-01" nType="0">
          <Node pos="l" depth="2" NCoef="0" IVar="5" Cut="1.2864849853515625e+02" cType="1" res="1.2720629572868347e-02" rms="2.7719679474830627e-01" purity="2.6939705014228821e-01" nType="0">
            <Node pos="l" depth="3" NCoef="0" IVar="-1" Cut="0.0000000000000000e+00" cType="1" res="4.7428691759705544e-03" rms="2.1445795893669128e-01" purity="6.8790048360824585e-02" nType="-99"/>
            <Node pos="r" depth="3" NCoef="0" IVar="-1" Cut="0.0000000000000000e+00" cType="1" res="2.2789847105741501e-02" rms="3.1026723980903625e-01" purity="3.9652597904205322e-01" nType="-99"/>
          </Node>
          <Node pos="r" depth="2" NCoef="0" IVar="2" Cut="4.0923455810546875e+02" cType="1" res="-1.3147036544978619e-02" rms="2.7325472235679626e-01" purity="6.1391860246658325e-01" nType="0">
            <Node pos="l" depth="3" NCoef="0" IVar="-1" Cut="0.0000000000000000e+00" cType="1" res="-3.8680322468280792e-02" rms="2.8020346164703369e-01" purity="5.7008165121078491e-01" nType="-99"/>
            <Node pos="r" depth="3" NCoef="0" IVar="-1" Cut="0.0000000000000000e+00" cType="1" res="4.7781579196453094e-03" rms="2.6528126001358032e-01" purity="6.5649420022964478e-01" nType="-99"/>
          </Node>
        </Node>
        <Node pos="r" depth="1" NCoef="0" IVar="0" Cut="2.6365205078125000e+03" cType="1" res="-7.5973998755216599e-03" rms="2.4080237746238708e-01" purity="6.0284948348999023e-01" nType="0">
          <Node pos="l" depth="2" NCoef="0" IVar="6" Cut="-2.6834306120872498e-01" cType="1" res="-1.5488041564822197e-02" rms="2.7671375870704651e-01" purity="3.8330671191215515e-01" nType="0">
            <Node pos="l" depth="3" NCoef="0" IVar="-1" Cut="0.0000000000000000e+00" cType="1" res="-3.6720551550388336e-02" rms="2.8481760621070862e-01" purity="3.2621562480926514e-01" nType="-99"/>
            <Node pos="r" depth="3" NCoef="0" IVar="-1" Cut="0.0000000000000000e+00" cType="1" res="-9.4218980520963669e-03" rms="2.7125960588455200e-01" purity="4.1858768463134766e-01" nType="-99"/>
          </Node>
          <Node pos="r" depth="2" NCoef="0" IVar="3" Cut="5.5239245605468750e+02" cType="1" res="5.2269971929490566e-03" rms="1.6587646305561066e-01" purity="9.5966506004333496e-01" nType="0">
            <Node pos="l" depth="3" NCoef="0" IVar="-1" Cut="0.0000000000000000e+00" cType="1" res="2.8786702081561089e-02" rms="1.5067110955715179e-01" purity="9.6738016605377197e-01" nType="-99"/>
            <Node pos="r" depth="3" NCoef="0" IVar="-1" Cut="0.0000000000000000e+00" cType="1" res="-1.3559842482209206e-02" rms="2.0492470264434814e-01" purity="9.3621563911437988e-01" nType="-99"/>
          </Node>
        </Node>
      </Node>
    </BinaryTree>
    <BinaryTree type="DecisionTree" boostWeight="1.0000000000000000e+00" itree="118">
      <Node pos="s" depth="0" NCoef="0" IVar="8" Cut="-1.4671453237533569e+00" cType="1" res="-5.8029964566230774e-04" rms="2.5131231546401978e-01" purity="4.9804827570915222e-01" nType="0">
        <Node pos="l" depth="1" NCoef="0" IVar="6" Cut="-5.1174890995025635e-01" cType="1" res="1.5519005246460438e-02" rms="2.6037853956222534e-01" purity="2.3171237111091614e-01" nType="0">
          <Node pos="l" depth="2" NCoef="0" IVar="-1" Cut="0.0000000000000000e+00" cType="1" res="8.7411202490329742e-02" rms="2.8493443131446838e-01" purity="2.4961961805820465e-01" nType="-99"/>
          <Node pos="r" depth="2" NCoef="0" IVar="9" Cut="-1.3634474575519562e-01" cType="1" res="-1.3780465815216303e-03" rms="2.4670231342315674e-01" purity="2.2367033362388611e-01" nType="0">
            <Node pos="l" depth="3" NCoef="0" IVar="-1" Cut="0.0000000000000000e+00" cType="1" res="-2.5474483147263527e-02" rms="2.3362702131271362e-01" purity="2.0577971637248993e-01" nType="-99"/>
            <Node pos="r" depth="3" NCoef="0" IVar="-1" Cut="0.0000000000000000e+00" cType="1" res="2.2930447012186050e-02" rms="2.5881713628768921e-01" purity="2.4234065413475037e-01" nType="-99"/>
          </Node>
        </Node>
        <Node pos="r" depth="1" NCoef="0" IVar="6" Cut="-6.3954875804483891e-03" cType="1" res="-2.0622203592211008e-03" rms="2.5040924549102783e-01" purity="5.2256411314010620e-01" nType="0">
          <Node pos="l" depth="2" NCoef="0" IVar="8" Cut="9.6759444475173950e-01" cType="1" res="-7.7706729061901569e-03" rms="2.5159230828285217e-01" purity="5.2086573839187622e-01" nType="0">
            <Node pos="l" depth="3" NCoef="0" IVar="-1" Cut="0.0000000000000000e+00" cType="1" res="-6.1446605250239372e-03" rms="2.4791964888572693e-01" purity="5.7095164060592651e-01" nType="-99"/>
            <Node pos="r" depth="3" NCoef="0" IVar="-1" Cut="0.0000000000000000e+00" cType="1" res="-3.8071926683187485e-02" rms="2.6684892177581787e-01" purity="2.9451596736907959e-01" nType="-99"/>
          </Node>
          <Node pos="r" depth="2" NCoef="0" IVar="6" Cut="1.0613909959793091e+00" cType="1" res="3.5911740269511938e-03" rms="2.4910320341587067e-01" purity="5.2424609661102295e-01" nType="0">
            <Node pos="l" depth="3" NCoef="0" IVar="-1" Cut="0.0000000000000000e+00" cType="1" res="1.0349262505769730e-02" rms="2.5657317042350769e-01" purity="6.1997169256210327e-01" nType="-99"/>
            <Node pos="r" depth="3" NCoef="0" IVar="-1" Cut="0.0000000000000000e+00" cType="1" res="-1.5163023024797440e-02" rms="2.2025194764137268e-01" purity="1.8551924824714661e-01" nType="-99"/>
          </Node>
        </Node>
      </Node>
    </BinaryTree>
    <BinaryTree type="DecisionTree" boostWeight="1.0000000000000000e+00" itree="119">
      <Node pos="s" depth="0" NCoef="0" IVar="9" Cut="-1.7323111295700073e+00" cType="1" res="-3.6041089333593845e-04" rms="2.5469341874122620e-01" purity="4.9355736374855042e-01" nType="0">
        <Node pos="l" depth="1" NCoef="0" IVar="7" Cut="-1.1313436180353165e-01" cType="1" res="-1.9100544974207878e-02" rms="2.8450825810432434e-01" purity="2.2711463272571564e-01" nType="0">
          <Node pos="l" depth="2" NCoef="0" IVar="-1" Cut="0.0000000000000000e+00" cType="1" res="-4.6797275543212891e-02" rms="2.8085416555404663e-01" purity="2.3256936669349670e-01" nType="-99"/>
          <Node pos="r" depth="2" NCoef="0" IVar="-1" Cut="0.0000000000000000e+00" cType="1" res="-8.5146958008408546e-03" rms="2.8721779584884644e-01" purity="2.2207470238208771e-01" nType="-99"/>
        </Node>
        <Node pos="r" depth="1" NCoef="0" IVar="6" Cut="2.1419546008110046e-01" cType="1" res="7.7980477362871170e-04" rms="2.5272107124328613e-01" purity="5.0976866483688354e-01" nType="0">
          <Node pos="l" depth="2" NCoef="0" IVar="6" Cut="-5.9768378734588623e-01" cType="1" res="4.3797995895147324e-03" rms="2.5254848599433899e-01" purity="5.4458951950073242e-01" nType="0">
            <Node pos="l" depth="3" NCoef="0" IVar="-1" Cut="0.0000000000000000e+00" cType="1" res="-8.9433072134852409e-03" rms="2.4850350618362427e-01" purity="3.5114794969558716e-01" nType="-99"/>
            <Node pos="r" depth="3" NCoef="0" IVar="-1" Cut="0.0000000000000000e+00" cType="1" res="1.6502957791090012e-02" rms="2.5489097833633423e-01" purity="6.6778403520584106e-01" nType="-99"/>
          </Node>
          <Node pos="r" depth="2" NCoef="0" IVar="9" Cut="-4.3792301416397095e-01" cType="1" res="-4.7383545897901058e-03" rms="2.5288590788841248e-01" purity="4.5639443397521973e-01" nType="0">
            <Node pos="l" depth="3" NCoef="0" IVar="-1" Cut="0.0000000000000000e+00" cType="1" res="1.6147242859005928e-02" rms="2.5940486788749695e-01" purity="4.8441562056541443e-01" nType="-99"/>
            <Node pos="r" depth="3" NCoef="0" IVar="-1" Cut="0.0000000000000000e+00" cType="1" res="-1.7115062102675438e-02" rms="2.4989664554595947e-01" purity="4.4491964578628540e-01" nType="-99"/>
          </Node>
        </Node>
      </Node>
    </BinaryTree>
    <BinaryTree type="DecisionTree" boostWeight="1.0000000000000000e+00" itree="120">
      <Node pos="s" depth="0" NCoef="0" IVar="9" Cut="-1.4657540321350098e+00" cType="1" res="5.4467953741550446e-03" rms="2.5264522433280945e-01" purity="5.0544047355651855e-01" nType="0">
        <Node pos="l" depth="1" NCoef="0" IVar="6" Cut="2.4911546707153320e-01" cType="1" res="2.0776912569999695e-02" rms="2.9494258761405945e-01" purity="3.5109189152717590e-01" nType="0">
          <Node pos="l" depth="2" NCoef="0" IVar="9" Cut="-1.7824890613555908e+00" cType="1" res="3.2204095274209976e-02" rms="3.0425643920898438e-01" purity="4.0082696080207825e-01" nType="0">
            <Node pos="l" depth="3" NCoef="0" IVar="-1" Cut="0.0000000000000000e+00" cType="1" res="2.5293622165918350e-02" rms="2.8814983367919922e-01" purity="2.8456062078475952e-01" nType="-99"/>
            <Node pos="r" depth="3" NCoef="0" IVar="-1" Cut="0.0000000000000000e+00" cType="1" res="5.5890619754791260e-02" rms="3.2154473662376404e-01" purity="5.3827702999114990e-01" nType="-99"/>
          </Node>
          <Node pos="r" depth="2" NCoef="0" IVar="-1" Cut="0.0000000000000000e+00" cType="1" res="1.5428668120875955e-03" rms="2.7704420685768127e-01" purity="2.6532435417175293e-01" nType="-99"/>
        </Node>
        <Node pos="r" depth="1" NCoef="0" IVar="2" Cut="3.1314013671875000e+02" cType="1" res="3.8737694267183542e-03" rms="2.4784351885318756e-01" purity="5.2127820253372192e-01" nType="0">
          <Node pos="l" depth="2" NCoef="0" IVar="9" Cut="5.6722956895828247e-01" cType="1" res="1.5824329107999802e-02" rms="2.8648671507835388e-01" purity="2.0056708157062531e-01" nType="0">
            <Node pos="l" depth="3" NCoef="0" IVar="-1" Cut="0.0000000000000000e+00" cType="1" res="6.1770090833306313e-03" rms="2.7101206779479980e-01" purity="2.0239120721817017e-01" nType="-99"/>
            <Node pos="r" depth="3" NCoef="0" IVar="-1" Cut="0.0000000000000000e+00" cType="1" res="4.8258863389492035e-02" rms="3.0893945693969727e-01" purity="1.9762156903743744e-01" nType="-99"/>
          </Node>
          <Node pos="r" depth="2" NCoef="0" IVar="0" Cut="1.8633072509765625e+03" cType="1" res="2.7706581167876720e-03" rms="2.4393862485885620e-01" purity="5.5088186264038086e-01" nType="0">
            <Node pos="l" depth="3" NCoef="0" IVar="-1" Cut="0.0000000000000000e+00" cType="1" res="-4.7597526572644711e-03" rms="2.1623705327510834e-01" purity="6.6012993454933167e-02" nType="-99"/>
            <Node pos="r" depth="3" NCoef="0" IVar="-1" Cut="0.0000000000000000e+00" cType="1" res="8.0797895789146423e-03" rms="2.5794348120689392e-01" purity="8.1905257701873779e-01" nType="-99"/>
          </Node>
        </Node>
      </Node>
    </BinaryTree>
    <BinaryTree type="DecisionTree" boostWeight="1.0000000000000000e+00" itree="121">
      <Node pos="s" depth="0" NCoef="0" IVar="6" Cut="-3.0244985222816467e-01" cType="1" res="9.8168609838467091e-05" rms="2.4707217514514923e-01" purity="5.0003951787948608e-01" nType="0">
        <Node pos="l" depth="1" NCoef="0" IVar="7" Cut="4.0386995673179626e-01" cType="1" res="-6.7290300503373146e-03" rms="2.4900907278060913e-01" purity="4.3026769161224365e-01" nType="0">
          <Node pos="l" depth="2" NCoef="0" IVar="8" Cut="1.2006309032440186e+00" cType="1" res="-5.0455646123737097e-04" rms="2.5311478972434998e-01" purity="4.9164080619812012e-01" nType="0">
            <Node pos="l" depth="3" NCoef="0" IVar="-1" Cut="0.0000000000000000e+00" cType="1" res="5.9993574395775795e-03" rms="2.5537174940109253e-01" purity="5.2596908807754517e-01" nType="-99"/>
            <Node pos="r" depth="3" NCoef="0" IVar="-1" Cut="0.0000000000000000e+00" cType="1" res="-5.7475414127111435e-02" rms="2.3205259442329407e-01" purity="2.2391630709171295e-01" nType="-99"/>
          </Node>
          <Node pos="r" depth="2" NCoef="0" IVar="7" Cut="6.3201665878295898e-01" cType="1" res="-1.9271766766905785e-02" rms="2.4003310501575470e-01" purity="3.0659672617912292e-01" nType="0">
            <Node pos="l" depth="3" NCoef="0" IVar="-1" Cut="0.0000000000000000e+00" cType="1" res="-8.5754774510860443e-02" rms="2.4875727295875549e-01" purity="4.4804167747497559e-01" nType="-99"/>
            <Node pos="r" depth="3" NCoef="0" IVar="-1" Cut="0.0000000000000000e+00" cType="1" res="-1.3872422277927399e-02" rms="2.3599350452423096e-01" purity="2.6108521223068237e-01" nType="-99"/>
          </Node>
        </Node>
        <Node pos="r" depth="1" NCoef="0" IVar="0" Cut="2.1418613281250000e+03" cType="1" res="3.8246647454798222e-03" rms="2.4592857062816620e-01" purity="5.3812319040298462e-01" nType="0">
          <Node pos="l" depth="2" NCoef="0" IVar="0" Cut="2.0005325927734375e+03" cType="1" res="9.2469714581966400e-03" rms="2.7132645249366760e-01" purity="1.8320465087890625e-01" nType="0">
            <Node pos="l" depth="3" NCoef="0" IVar="-1" Cut="0.0000000000000000e+00" cType="1" res="3.7005750928074121e-03" rms="2.5713893771171570e-01" purity="1.2544484436511993e-01" nType="-99"/>
            <Node pos="r" depth="3" NCoef="0" IVar="-1" Cut="0.0000000000000000e+00" cType="1" res="4.3162416666746140e-02" rms="3.5823023319244385e-01" purity="6.2891483306884766e-01" nType="-99"/>
          </Node>
          <Node pos="r" depth="2" NCoef="0" IVar="7" Cut="-9.3656349182128906e-01" cType="1" res="-1.8619481706991792e-03" rms="2.1596330404281616e-01" purity="9.1034191846847534e-01" nType="0">
            <Node pos="l" depth="3" NCoef="0" IVar="-1" Cut="0.0000000000000000e+00" cType="1" res="-5.9646420180797577e-02" rms="3.0754616856575012e-01" purity="7.3677051067352295e-01" nType="-99"/>
            <Node pos="r" depth="3" NCoef="0" IVar="-1" Cut="0.0000000000000000e+00" cType="1" res="6.2272641807794571e-03" rms="2.0401617884635925e-01" purity="9.2762953042984009e-01" nType="-99"/>
          </Node>
        </Node>
      </Node>
    </BinaryTree>
    <BinaryTree type="DecisionTree" boostWeight="1.0000000000000000e+00" itree="122">
      <Node pos="s" depth="0" NCoef="0" IVar="9" Cut="1.9996509552001953e+00" cType="1" res="1.4360636705532670e-03" rms="2.5113934278488159e-01" purity="5.0262075662612915e-01" nType="0">
        <Node pos="l" depth="1" NCoef="0" IVar="2" Cut="3.2210559082031250e+02" cType="1" res="7.2381168138235807e-04" rms="2.5005903840065002e-01" purity="5.1312768459320068e-01" nType="0">
          <Node pos="l" depth="2" NCoef="0" IVar="7" Cut="6.6542112827301025e-01" cType="1" res="1.2502647936344147e-02" rms="2.8309082984924316e-01" purity="2.1927246451377869e-01" nType="0">
            <Node pos="l" depth="3" NCoef="0" IVar="-1" Cut="0.0000000000000000e+00" cType="1" res="2.7951080352067947e-02" rms="2.9289731383323669e-01" purity="2.3826444149017334e-01" nType="-99"/>
            <Node pos="r" depth="3" NCoef="0" IVar="-1" Cut="0.0000000000000000e+00" cType="1" res="-1.0001412592828274e-02" rms="2.5441855192184448e-01" purity="1.6922886669635773e-01" nType="-99"/>
          </Node>
          <Node pos="r" depth="2" NCoef="0" IVar="0" Cut="3.2116838378906250e+03" cType="1" res="-6.0432119062170386e-04" rms="2.4602109193801880e-01" purity="5.4626154899597168e-01" nType="0">
            <Node pos="l" depth="3" NCoef="0" IVar="-1" Cut="0.0000000000000000e+00" cType="1" res="-2.7683407533913851e-03" rms="2.5482124090194702e-01" purity="5.0238531827926636e-01" nType="-99"/>
            <Node pos="r" depth="3" NCoef="0" IVar="-1" Cut="0.0000000000000000e+00" cType="1" res="4.3980058282613754e-02" rms="1.2998107075691223e-01" purity="9.7902524471282959e-01" nType="-99"/>
          </Node>
        </Node>
        <Node pos="r" depth="1" NCoef="0" IVar="-1" Cut="0.0000000000000000e+00" cType="1" res="3.5365324467420578e-02" rms="2.8008508682250977e-01" purity="1.9553650915622711e-01" nType="-99"/>
      </Node>
    </BinaryTree>
    <BinaryTree type="DecisionTree" boostWeight="1.0000000000000000e+00" itree="123">
      <Node pos="s" depth="0" NCoef="0" IVar="1" Cut="1.6351059079170227e-01" cType="1" res="-4.2912547360174358e-04" rms="2.5321146845817566e-01" purity="5.0833761692047119e-01" nType="0">
        <Node pos="l" depth="1" NCoef="0" IVar="5" Cut="1.5667248535156250e+02" cType="1" res="1.7290961695834994e-03" rms="2.5860002636909485e-01" purity="4.4665953516960144e-01" nType="0">
          <Node pos="l" depth="2" NCoef="0" IVar="4" Cut="1.7141053771972656e+02" cType="1" res="6.5554524771869183e-03" rms="2.5402626395225525e-01" purity="1.7928725481033325e-01" nType="0">
            <Node pos="l" depth="3" NCoef="0" IVar="-1" Cut="0.0000000000000000e+00" cType="1" res="-4.3953792192041874e-03" rms="2.1294632554054260e-01" purity="8.3522476255893707e-02" nType="-99"/>
            <Node pos="r" depth="3" NCoef="0" IVar="-1" Cut="0.0000000000000000e+00" cType="1" res="2.1117381751537323e-02" rms="2.9923123121261597e-01" purity="3.0523577332496643e-01" nType="-99"/>
          </Node>
          <Node pos="r" depth="2" NCoef="0" IVar="6" Cut="9.9682348966598511e-01" cType="1" res="-3.7585496902465820e-03" rms="2.6359677314758301e-01" purity="7.5066626071929932e-01" nType="0">
            <Node pos="l" depth="3" NCoef="0" IVar="-1" Cut="0.0000000000000000e+00" cType="1" res="-2.0339728798717260e-03" rms="2.6115795969963074e-01" purity="7.8525221347808838e-01" nType="-99"/>
            <Node pos="r" depth="3" NCoef="0" IVar="-1" Cut="0.0000000000000000e+00" cType="1" res="-2.6869863271713257e-02" rms="2.8402471542358398e-01" purity="4.3419024348258972e-01" nType="-99"/>
          </Node>
        </Node>
        <Node pos="r" depth="1" NCoef="0" IVar="0" Cut="2.0677543945312500e+03" cType="1" res="-1.3079293072223663e-02" rms="2.1854850649833679e-01" purity="8.6985671520233154e-01" nType="0">
          <Node pos="l" depth="2" NCoef="0" IVar="-1" Cut="0.0000000000000000e+00" cType="1" res="-4.8593834042549133e-02" rms="4.0506482124328613e-01" purity="4.1573670506477356e-01" nType="-99"/>
          <Node pos="r" depth="2" NCoef="0" IVar="2" Cut="5.4580932617187500e+02" cType="1" res="9.5154420705512166e-04" rms="1.3646490871906281e-01" purity="9.7968304157257080e-01" nType="0">
            <Node pos="l" depth="3" NCoef="0" IVar="-1" Cut="0.0000000000000000e+00" cType="1" res="3.0949516221880913e-02" rms="1.2235370278358459e-01" purity="9.8386162519454956e-01" nType="-99"/>
            <Node pos="r" depth="3" NCoef="0" IVar="-1" Cut="0.0000000000000000e+00" cType="1" res="-2.8005994856357574e-02" rms="1.4960107207298279e-01" purity="9.7530508041381836e-01" nType="-99"/>
          </Node>
        </Node>
      </Node>
    </BinaryTree>
    <BinaryTree type="DecisionTree" boostWeight="1.0000000000000000e+00" itree="124">
      <Node pos="s" depth="0" NCoef="0" IVar="6" Cut="-1.0779069662094116e+00" cType="1" res="-2.6972456835210323e-03" rms="2.5097692012786865e-01" purity="5.0081813335418701e-01" nType="0">
        <Node pos="l" depth="1" NCoef="0" IVar="1" Cut="3.5122890025377274e-02" cType="1" res="1.4403030276298523e-02" rms="2.2721937298774719e-01" purity="1.8996965885162354e-01" nType="0">
          <Node pos="l" depth="2" NCoef="0" IVar="6" Cut="-1.6684302091598511e+00" cType="1" res="-7.9419743269681931e-04" rms="1.7231287062168121e-01" purity="5.5981535464525223e-02" nType="0">
            <Node pos="l" depth="3" NCoef="0" IVar="-1" Cut="0.0000000000000000e+00" cType="1" res="-5.5660914629697800e-02" rms="1.1699506640434265e-01" purity="1.5592860057950020e-02" nType="-99"/>
            <Node pos="r" depth="3" NCoef="0" IVar="-1" Cut="0.0000000000000000e+00" cType="1" res="1.5545492991805077e-02" rms="2.0123560726642609e-01" purity="8.3537556231021881e-02" nType="-99"/>
          </Node>
          <Node pos="r" depth="2" NCoef="0" IVar="-1" Cut="0.0000000000000000e+00" cType="1" res="4.6262528747320175e-02" rms="2.9716318845748901e-01" purity="4.2059791088104248e-01" nType="-99"/>
        </Node>
        <Node pos="r" depth="1" NCoef="0" IVar="5" Cut="1.1815167236328125e+02" cType="1" res="-4.7377636656165123e-03" rms="2.5358629226684570e-01" purity="5.3791064023971558e-01" nType="0">
          <Node pos="l" depth="2" NCoef="0" IVar="2" Cut="6.5817657470703125e+02" cType="1" res="4.0670586749911308e-03" rms="2.4065856635570526e-01" purity="1.2373400479555130e-01" nType="0">
            <Node pos="l" depth="3" NCoef="0" IVar="-1" Cut="0.0000000000000000e+00" cType="1" res="-4.9404664896428585e-03" rms="2.2031229734420776e-01" purity="8.9946374297142029e-02" nType="-99"/>
            <Node pos="r" depth="3" NCoef="0" IVar="-1" Cut="0.0000000000000000e+00" cType="1" res="3.8888785988092422e-02" rms="3.2122448086738586e-01" purity="2.9104387760162354e-01" nType="-99"/>
          </Node>
          <Node pos="r" depth="2" NCoef="0" IVar="0" Cut="2.1988332519531250e+03" cType="1" res="-7.5886608101427555e-03" rms="2.5756865739822388e-01" purity="6.7201614379882812e-01" nType="0">
            <Node pos="l" depth="3" NCoef="0" IVar="-1" Cut="0.0000000000000000e+00" cType="1" res="-1.5758724883198738e-02" rms="3.2610407471656799e-01" purity="2.8606331348419189e-01" nType="-99"/>
            <Node pos="r" depth="3" NCoef="0" IVar="-1" Cut="0.0000000000000000e+00" cType="1" res="-2.5382910389453173e-03" rms="1.9681255519390106e-01" purity="9.3735235929489136e-01" nType="-99"/>
          </Node>
        </Node>
      </Node>
    </BinaryTree>
    <BinaryTree type="DecisionTree" boostWeight="1.0000000000000000e+00" itree="125">
      <Node pos="s" depth="0" NCoef="0" IVar="8" Cut="-1.2001512050628662e+00" cType="1" res="3.4607222187332809e-04" rms="2.5282067060470581e-01" purity="5.0435864925384521e-01" nType="0">
        <Node pos="l" depth="1" NCoef="0" IVar="4" Cut="1.8774484252929688e+02" cType="1" res="-1.4692967757582664e-02" rms="2.5548508763313293e-01" purity="2.8289613127708435e-01" nType="0">
          <Node pos="l" depth="2" NCoef="0" IVar="5" Cut="1.0885993957519531e+02" cType="1" res="3.3289226703345776e-03" rms="2.1680159866809845e-01" purity="1.0384701937437057e-01" nType="0">
            <Node pos="l" depth="3" NCoef="0" IVar="-1" Cut="0.0000000000000000e+00" cType="1" res="-2.2105483338236809e-02" rms="1.4917217195034027e-01" purity="3.8709733635187149e-02" nType="-99"/>
            <Node pos="r" depth="3" NCoef="0" IVar="-1" Cut="0.0000000000000000e+00" cType="1" res="1.9118579104542732e-02" rms="2.6721978187561035e-01" purity="1.6856232285499573e-01" nType="-99"/>
          </Node>
          <Node pos="r" depth="2" NCoef="0" IVar="2" Cut="4.5504724121093750e+02" cType="1" res="-3.3424045890569687e-02" rms="2.8908970952033997e-01" purity="4.6899110078811646e-01" nType="0">
            <Node pos="l" depth="3" NCoef="0" IVar="-1" Cut="0.0000000000000000e+00" cType="1" res="-9.0729735791683197e-02" rms="2.8456377983093262e-01" purity="2.4643674492835999e-01" nType="-99"/>
            <Node pos="r" depth="3" NCoef="0" IVar="-1" Cut="0.0000000000000000e+00" cType="1" res="-3.4896363504230976e-03" rms="2.8934609889984131e-01" purity="6.5547651052474976e-01" nType="-99"/>
          </Node>
        </Node>
        <Node pos="r" depth="1" NCoef="0" IVar="7" Cut="9.3307542800903320e-01" cType="1" res="2.4992937687784433e-03" rms="2.5236353278160095e-01" purity="5.3606671094894409e-01" nType="0">
          <Node pos="l" depth="2" NCoef="0" IVar="7" Cut="4.0010327100753784e-01" cType="1" res="-5.2636669715866446e-04" rms="2.5087279081344604e-01" purity="5.7315874099731445e-01" nType="0">
            <Node pos="l" depth="3" NCoef="0" IVar="-1" Cut="0.0000000000000000e+00" cType="1" res="4.1178571991622448e-03" rms="2.4774506688117981e-01" purity="5.7265007495880127e-01" nType="-99"/>
            <Node pos="r" depth="3" NCoef="0" IVar="-1" Cut="0.0000000000000000e+00" cType="1" res="-1.9678264856338501e-02" rms="2.6239773631095886e-01" purity="5.7514828443527222e-01" nType="-99"/>
          </Node>
          <Node pos="r" depth="2" NCoef="0" IVar="9" Cut="1.1935642957687378e+00" cType="1" res="1.7982743680477142e-02" rms="2.5930643081665039e-01" purity="3.4625226259231567e-01" nType="0">
            <Node pos="l" depth="3" NCoef="0" IVar="-1" Cut="0.0000000000000000e+00" cType="1" res="1.7932776361703873e-02" rms="2.5430491566658020e-01" purity="3.6620858311653137e-01" nType="-99"/>
            <Node pos="r" depth="3" NCoef="0" IVar="-1" Cut="0.0000000000000000e+00" cType="1" res="6.9575637578964233e-02" rms="2.7741974592208862e-01" purity="2.6387140154838562e-01" nType="-99"/>
          </Node>
        </Node>
      </Node>
    </BinaryTree>
    <BinaryTree type="DecisionTree" boostWeight="1.0000000000000000e+00" itree="126">
      <Node pos="s" depth="0" NCoef="0" IVar="5" Cut="1.5667248535156250e+02" cType="1" res="-5.2589746192097664e-03" rms="2.5476589798927307e-01" purity="4.9024087190628052e-01" nType="0">
        <Node pos="l" depth="1" NCoef="0" IVar="3" Cut="2.0046240234375000e+02" cType="1" res="1.7164111341116950e-05" rms="2.5742983818054199e-01" purity="1.9133591651916504e-01" nType="0">
          <Node pos="l" depth="2" NCoef="0" IVar="6" Cut="7.5741094350814819e-01" cType="1" res="1.0734942741692066e-02" rms="2.1040703356266022e-01" purity="7.6417110860347748e-02" nType="0">
            <Node pos="l" depth="3" NCoef="0" IVar="-1" Cut="0.0000000000000000e+00" cType="1" res="4.0664114058017731e-02" rms="2.3311434686183929e-01" purity="9.6862435340881348e-02" nType="-99"/>
            <Node pos="r" depth="3" NCoef="0" IVar="-1" Cut="0.0000000000000000e+00" cType="1" res="-4.8526562750339508e-02" rms="1.1605497449636459e-01" purity="1.5122000128030777e-02" nType="-99"/>
          </Node>
          <Node pos="r" depth="2" NCoef="0" IVar="3" Cut="3.2721102905273438e+02" cType="1" res="-2.9254578985273838e-03" rms="2.6883053779602051e-01" purity="2.2288745641708374e-01" nType="0">
            <Node pos="l" depth="3" NCoef="0" IVar="-1" Cut="0.0000000000000000e+00" cType="1" res="-1.2995463795959949e-02" rms="2.4432933330535889e-01" purity="1.3718537986278534e-01" nType="-99"/>
            <Node pos="r" depth="3" NCoef="0" IVar="-1" Cut="0.0000000000000000e+00" cType="1" res="7.1091982536017895e-03" rms="3.0885797739028931e-01" purity="3.8142362236976624e-01" nType="-99"/>
          </Node>
        </Node>
        <Node pos="r" depth="1" NCoef="0" IVar="6" Cut="7.3127216100692749e-01" cType="1" res="-1.0143642313778400e-02" rms="2.5217613577842712e-01" purity="7.6696807146072388e-01" nType="0">
          <Node pos="l" depth="2" NCoef="0" IVar="9" Cut="1.1965793371200562e+00" cType="1" res="-6.0675195418298244e-03" rms="2.4509599804878235e-01" purity="8.0801665782928467e-01" nType="0">
            <Node pos="l" depth="3" NCoef="0" IVar="-1" Cut="0.0000000000000000e+00" cType="1" res="-3.9355228655040264e-03" rms="2.3987686634063721e-01" purity="8.2547628879547119e-01" nType="-99"/>
            <Node pos="r" depth="3" NCoef="0" IVar="-1" Cut="0.0000000000000000e+00" cType="1" res="-5.5485136806964874e-02" rms="2.8683552145957947e-01" purity="6.4517098665237427e-01" nType="-99"/>
          </Node>
          <Node pos="r" depth="2" NCoef="0" IVar="8" Cut="1.0902863740921021e-01" cType="1" res="-3.2776515930891037e-02" rms="2.8729337453842163e-01" purity="5.3904396295547485e-01" nType="0">
            <Node pos="l" depth="3" NCoef="0" IVar="-1" Cut="0.0000000000000000e+00" cType="1" res="4.2118625715374947e-03" rms="2.7273595333099365e-01" purity="5.9273910522460938e-01" nType="-99"/>
            <Node pos="r" depth="3" NCoef="0" IVar="-1" Cut="0.0000000000000000e+00" cType="1" res="-7.2044104337692261e-02" rms="2.9645240306854248e-01" purity="4.8801916837692261e-01" nType="-99"/>
          </Node>
        </Node>
      </Node>
    </BinaryTree>
    <BinaryTree type="DecisionTree" boostWeight="1.0000000000000000e+00" itree="127">
      <Node pos="s" depth="0" NCoef="0" IVar="3" Cut="4.8500341796875000e+02" cType="1" res="-8.2458689576014876e-04" rms="2.5000336766242981e-01" purity="4.9660339951515198e-01" nType="0">
        <Node pos="l" depth="1" NCoef="0" IVar="9" Cut="-4.0006402134895325e-01" cType="1" res="1.2986221117898822e-03" rms="2.5448298454284668e-01" purity="4.3687999248504639e-01" nType="0">
          <Node pos="l" depth="2" NCoef="0" IVar="9" Cut="-6.2851530313491821e-01" cType="1" res="-4.0770438499748707e-03" rms="2.5533109903335571e-01" purity="4.1479745507240295e-01" nType="0">
            <Node pos="l" depth="3" NCoef="0" IVar="-1" Cut="0.0000000000000000e+00" cType="1" res="-2.0541029516607523e-04" rms="2.5773271918296814e-01" purity="3.9909830689430237e-01" nType="-99"/>
            <Node pos="r" depth="3" NCoef="0" IVar="-1" Cut="0.0000000000000000e+00" cType="1" res="-3.2635789364576340e-02" rms="2.4339474737644196e-01" purity="4.8572623729705811e-01" nType="-99"/>
          </Node>
          <Node pos="r" depth="2" NCoef="0" IVar="5" Cut="1.0619138336181641e+02" cType="1" res="4.3838792480528355e-03" rms="2.5394353270530701e-01" purity="4.4955381751060486e-01" nType="0">
            <Node pos="l" depth="3" NCoef="0" IVar="-1" Cut="0.0000000000000000e+00" cType="1" res="-1.8602514639496803e-02" rms="1.8616519868373871e-01" purity="6.0303624719381332e-02" nType="-99"/>
            <Node pos="r" depth="3" NCoef="0" IVar="-1" Cut="0.0000000000000000e+00" cType="1" res="1.0358290746808052e-02" rms="2.6879841089248657e-01" purity="5.5143433809280396e-01" nType="-99"/>
          </Node>
        </Node>
        <Node pos="r" depth="1" NCoef="0" IVar="4" Cut="2.7970111083984375e+02" cType="1" res="-1.3733332976698875e-02" rms="2.2038125991821289e-01" purity="8.5971164703369141e-01" nType="0">
          <Node pos="l" depth="2" NCoef="0" IVar="-1" Cut="0.0000000000000000e+00" cType="1" res="-4.5402452349662781e-02" rms="3.0748704075813293e-01" purity="6.0931938886642456e-01" nType="-99"/>
          <Node pos="r" depth="2" NCoef="0" IVar="7" Cut="-8.9396558701992035e-02" cType="1" res="-1.9486106466501951e-03" rms="1.7498101294040680e-01" purity="9.5470863580703735e-01" nType="0">
            <Node pos="l" depth="3" NCoef="0" IVar="-1" Cut="0.0000000000000000e+00" cType="1" res="8.8668409734964371e-03" rms="1.6246756911277771e-01" purity="9.5838129520416260e-01" nType="-99"/>
            <Node pos="r" depth="3" NCoef="0" IVar="-1" Cut="0.0000000000000000e+00" cType="1" res="-1.9850913435220718e-02" rms="1.8503037095069885e-01" purity="9.5152771472930908e-01" nType="-99"/>
          </Node>
        </Node>
      </Node>
    </BinaryTree>
    <BinaryTree type="DecisionTree" boostWeight="1.0000000000000000e+00" itree="128">
      <Node pos="s" depth="0" NCoef="0" IVar="2" Cut="9.7325781250000000e+02" cType="1" res="-4.1255907854065299e-04" rms="2.5256329774856567e-01" purity="4.9706220626831055e-01" nType="0">
        <Node pos="l" depth="1" NCoef="0" IVar="9" Cut="-3.9957004785537720e-01" cType="1" res="4.8020153190009296e-04" rms="2.5134322047233582e-01" purity="4.8952314257621765e-01" nType="0">
          <Node pos="l" depth="2" NCoef="0" IVar="6" Cut="-3.5445883870124817e-01" cType="1" res="6.1063007451593876e-03" rms="2.5642272830009460e-01" purity="4.7893613576889038e-01" nType="0">
            <Node pos="l" depth="3" NCoef="0" IVar="-1" Cut="0.0000000000000000e+00" cType="1" res="-8.8012367486953735e-03" rms="2.5578594207763672e-01" purity="4.0089261531829834e-01" nType="-99"/>
            <Node pos="r" depth="3" NCoef="0" IVar="-1" Cut="0.0000000000000000e+00" cType="1" res="2.0016442984342575e-02" rms="2.5652286410331726e-01" purity="5.2108889818191528e-01" nType="-99"/>
          </Node>
          <Node pos="r" depth="2" NCoef="0" IVar="7" Cut="1.3407729566097260e-01" cType="1" res="-2.7467978652566671e-03" rms="2.4832536280155182e-01" purity="4.9559560418128967e-01" nType="0">
            <Node pos="l" depth="3" NCoef="0" IVar="-1" Cut="0.0000000000000000e+00" cType="1" res="4.1555995121598244e-03" rms="2.4789978563785553e-01" purity="5.2841281890869141e-01" nType="-99"/>
            <Node pos="r" depth="3" NCoef="0" IVar="-1" Cut="0.0000000000000000e+00" cType="1" res="-1.3825180009007454e-02" rms="2.4866795539855957e-01" purity="4.5853710174560547e-01" nType="-99"/>
          </Node>
        </Node>
        <Node pos="r" depth="1" NCoef="0" IVar="-1" Cut="0.0000000000000000e+00" cType="1" res="-3.7533625960350037e-02" rms="2.9122194647789001e-01" purity="7.6780581474304199e-01" nType="-99"/>
      </Node>
    </BinaryTree>
    <BinaryTree type="DecisionTree" boostWeight="1.0000000000000000e+00" itree="129">
      <Node pos="s" depth="0" NCoef="0" IVar="5" Cut="1.3370414733886719e+02" cType="1" res="-5.6428572861477733e-04" rms="2.5135412812232971e-01" purity="4.9483251571655273e-01" nType="0">
        <Node pos="l" depth="1" NCoef="0" IVar="9" Cut="1.7335693836212158e+00" cType="1" res="-4.4074547477066517e-03" rms="2.3837785422801971e-01" purity="1.3235408067703247e-01" nType="0">
          <Node pos="l" depth="2" NCoef="0" IVar="9" Cut="2.2336816787719727e-01" cType="1" res="-7.6066143810749054e-03" rms="2.3360933363437653e-01" purity="1.3260065019130707e-01" nType="0">
            <Node pos="l" depth="3" NCoef="0" IVar="-1" Cut="0.0000000000000000e+00" cType="1" res="-1.3979278737679124e-03" rms="2.3988392949104309e-01" purity="1.3612969219684601e-01" nType="-99"/>
            <Node pos="r" depth="3" NCoef="0" IVar="-1" Cut="0.0000000000000000e+00" cType="1" res="-3.0770234763622284e-02" rms="2.2332920134067535e-01" purity="1.2723174691200256e-01" nType="-99"/>
          </Node>
          <Node pos="r" depth="2" NCoef="0" IVar="-1" Cut="0.0000000000000000e+00" cType="1" res="5.3009882569313049e-02" rms="2.7958264946937561e-01" purity="1.2989300489425659e-01" nType="-99"/>
        </Node>
        <Node pos="r" depth="1" NCoef="0" IVar="3" Cut="3.6508242797851562e+02" cType="1" res="1.5928590437397361e-03" rms="2.5832715630531311e-01" purity="6.9828927516937256e-01" nType="0">
          <Node pos="l" depth="2" NCoef="0" IVar="4" Cut="2.5335571289062500e+02" cType="1" res="5.3899297490715981e-03" rms="2.8974312543869019e-01" purity="5.1338207721710205e-01" nType="0">
            <Node pos="l" depth="3" NCoef="0" IVar="-1" Cut="0.0000000000000000e+00" cType="1" res="6.3589570345357060e-04" rms="2.9788592457771301e-01" purity="3.8888531923294067e-01" nType="-99"/>
            <Node pos="r" depth="3" NCoef="0" IVar="-1" Cut="0.0000000000000000e+00" cType="1" res="2.1619550883769989e-02" rms="2.6983061432838440e-01" purity="7.9875087738037109e-01" nType="-99"/>
          </Node>
          <Node pos="r" depth="2" NCoef="0" IVar="0" Cut="2.2351210937500000e+03" cType="1" res="-2.5401392485946417e-03" rms="2.1899475157260895e-01" purity="8.9955520629882812e-01" nType="0">
            <Node pos="l" depth="3" NCoef="0" IVar="-1" Cut="0.0000000000000000e+00" cType="1" res="-1.7176499590277672e-02" rms="3.8952443003654480e-01" purity="5.0258737802505493e-01" nType="-99"/>
            <Node pos="r" depth="3" NCoef="0" IVar="-1" Cut="0.0000000000000000e+00" cType="1" res="3.9384083356708288e-04" rms="1.8763786554336548e-01" purity="9.4807904958724976e-01" nType="-99"/>
          </Node>
        </Node>
      </Node>
    </BinaryTree>
    <BinaryTree type="DecisionTree" boostWeight="1.0000000000000000e+00" itree="130">
      <Node pos="s" depth="0" NCoef="0" IVar="1" Cut="5.8865275233983994e-02" cType="1" res="1.6267709434032440e-03" rms="2.4921327829360962e-01" purity="4.9818846583366394e-01" nType="0">
        <Node pos="l" depth="1" NCoef="0" IVar="0" Cut="1.6662799072265625e+03" cType="1" res="5.7893507182598114e-03" rms="2.3857159912586212e-01" purity="2.3944616317749023e-01" nType="0">
          <Node pos="l" depth="2" NCoef="0" IVar="1" Cut="3.9334744215011597e-02" cType="1" res="-2.5821528397500515e-03" rms="1.1721191555261612e-01" purity="1.4646760188043118e-02" nType="0">
            <Node pos="l" depth="3" NCoef="0" IVar="-1" Cut="0.0000000000000000e+00" cType="1" res="-4.7663968056440353e-02" rms="8.2774795591831207e-02" purity="6.9293142296373844e-03" nType="-99"/>
            <Node pos="r" depth="3" NCoef="0" IVar="-1" Cut="0.0000000000000000e+00" cType="1" res="3.2080449163913727e-02" rms="1.9841682910919189e-01" purity="4.3595653027296066e-02" nType="-99"/>
          </Node>
          <Node pos="r" depth="2" NCoef="0" IVar="3" Cut="4.1504745483398438e+02" cType="1" res="1.2482820078730583e-02" rms="3.0222263932228088e-01" purity="4.1918540000915527e-01" nType="0">
            <Node pos="l" depth="3" NCoef="0" IVar="-1" Cut="0.0000000000000000e+00" cType="1" res="2.3441147059202194e-02" rms="3.0571150779724121e-01" purity="3.2492160797119141e-01" nType="-99"/>
            <Node pos="r" depth="3" NCoef="0" IVar="-1" Cut="0.0000000000000000e+00" cType="1" res="-8.4607470780611038e-03" rms="2.9287967085838318e-01" purity="6.4029198884963989e-01" nType="-99"/>
          </Node>
        </Node>
        <Node pos="r" depth="1" NCoef="0" IVar="8" Cut="9.3302363157272339e-01" cType="1" res="-2.0290662068873644e-03" rms="2.5814259052276611e-01" purity="7.2543209791183472e-01" nType="0">
          <Node pos="l" depth="2" NCoef="0" IVar="0" Cut="2.1028310546875000e+03" cType="1" res="-4.4997008517384529e-03" rms="2.5085660815238953e-01" purity="7.3540759086608887e-01" nType="0">
            <Node pos="l" depth="3" NCoef="0" IVar="-1" Cut="0.0000000000000000e+00" cType="1" res="-1.2839023023843765e-02" rms="3.4953576326370239e-01" purity="2.8888073563575745e-01" nType="-99"/>
            <Node pos="r" depth="3" NCoef="0" IVar="-1" Cut="0.0000000000000000e+00" cType="1" res="3.4141899086534977e-03" rms="1.8199995160102844e-01" purity="9.5931643247604370e-01" nType="-99"/>
          </Node>
          <Node pos="r" depth="2" NCoef="0" IVar="4" Cut="2.1993190002441406e+02" cType="1" res="1.3284526765346527e-02" rms="2.9891782999038696e-01" purity="6.6360175609588623e-01" nType="0">
            <Node pos="l" depth="3" NCoef="0" IVar="-1" Cut="0.0000000000000000e+00" cType="1" res="2.8352884575724602e-02" rms="3.3210623264312744e-01" purity="4.4212299585342407e-01" nType="-99"/>
            <Node pos="r" depth="3" NCoef="0" IVar="-1" Cut="0.0000000000000000e+00" cType="1" res="-1.6125685942824930e-04" rms="2.6523500680923462e-01" purity="8.6053359508514404e-01" nType="-99"/>
          </Node>
        </Node>
      </Node>
    </BinaryTree>
    <BinaryTree type="DecisionTree" boostWeight="1.0000000000000000e+00" itree="131">
      <Node pos="s" depth="0" NCoef="0" IVar="9" Cut="-1.9986630678176880e+00" cType="1" res="-2.6375309098511934e-03" rms="2.5245776772499084e-01" purity="4.9192193150520325e-01" nType="0">
        <Node pos="l" depth="1" NCoef="0" IVar="-1" Cut="0.0000000000000000e+00" cType="1" res="5.3793951869010925e-02" rms="2.9201194643974304e-01" purity="2.1162791550159454e-01" nType="-99"/>
        <Node pos="r" depth="1" NCoef="0" IVar="1" Cut="8.1870324909687042e-02" cType="1" res="-3.8543178234249353e-03" rms="2.5086200237274170e-01" purity="5.0180983543395996e-01" nType="0">
          <Node pos="l" depth="2" NCoef="0" IVar="3" Cut="4.7925964355468750e+02" cType="1" res="8.4495975170284510e-04" rms="2.5325223803520203e-01" purity="3.0686157941818237e-01" nType="0">
            <Node pos="l" depth="3" NCoef="0" IVar="-1" Cut="0.0000000000000000e+00" cType="1" res="4.3145339004695415e-03" rms="2.5022631883621216e-01" purity="2.4487905204296112e-01" nType="-99"/>
            <Node pos="r" depth="3" NCoef="0" IVar="-1" Cut="0.0000000000000000e+00" cType="1" res="-1.5766814351081848e-02" rms="2.7393415570259094e-01" purity="7.5852859020233154e-01" nType="-99"/>
          </Node>
          <Node pos="r" depth="2" NCoef="0" IVar="1" Cut="9.8424509167671204e-02" cType="1" res="-1.0233621113002300e-02" rms="2.4743756651878357e-01" purity="7.6645350456237793e-01" nType="0">
            <Node pos="l" depth="3" NCoef="0" IVar="-1" Cut="0.0000000000000000e+00" cType="1" res="-4.6740721911191940e-02" rms="2.9460504651069641e-01" purity="6.2237668037414551e-01" nType="-99"/>
            <Node pos="r" depth="3" NCoef="0" IVar="-1" Cut="0.0000000000000000e+00" cType="1" res="-6.6322232596576214e-03" rms="2.3505635559558868e-01" purity="7.9887139797210693e-01" nType="-99"/>
          </Node>
        </Node>
      </Node>
    </BinaryTree>
    <BinaryTree type="DecisionTree" boostWeight="1.0000000000000000e+00" itree="132">
      <Node pos="s" depth="0" NCoef="0" IVar="7" Cut="1.9993000030517578e+00" cType="1" res="4.0065934881567955e-03" rms="2.5306656956672668e-01" purity="5.0598156452178955e-01" nType="0">
        <Node pos="l" depth="1" NCoef="0" IVar="7" Cut="-2.8609326481819153e-01" cType="1" res="4.7977385111153126e-03" rms="2.5536069273948669e-01" purity="5.1846766471862793e-01" nType="0">
          <Node pos="l" depth="2" NCoef="0" IVar="3" Cut="3.4054861450195312e+02" cType="1" res="-1.3362664030864835e-03" rms="2.5232401490211487e-01" purity="4.5631679892539978e-01" nType="0">
            <Node pos="l" depth="3" NCoef="0" IVar="-1" Cut="0.0000000000000000e+00" cType="1" res="1.3069882057607174e-02" rms="2.5480818748474121e-01" purity="2.8146955370903015e-01" nType="-99"/>
            <Node pos="r" depth="3" NCoef="0" IVar="-1" Cut="0.0000000000000000e+00" cType="1" res="-2.2365251556038857e-02" rms="2.4816218018531799e-01" purity="7.0289462804794312e-01" nType="-99"/>
          </Node>
          <Node pos="r" depth="2" NCoef="0" IVar="6" Cut="1.0055192708969116e+00" cType="1" res="8.9006042107939720e-03" rms="2.5729024410247803e-01" purity="5.6003856658935547e-01" nType="0">
            <Node pos="l" depth="3" NCoef="0" IVar="-1" Cut="0.0000000000000000e+00" cType="1" res="9.9441977217793465e-03" rms="2.5845193862915039e-01" purity="5.9662836790084839e-01" nType="-99"/>
            <Node pos="r" depth="3" NCoef="0" IVar="-1" Cut="0.0000000000000000e+00" cType="1" res="4.4921979308128357e-02" rms="2.4742756783962250e-01" purity="2.7881467342376709e-01" nType="-99"/>
          </Node>
        </Node>
        <Node pos="r" depth="1" NCoef="0" IVar="-1" Cut="0.0000000000000000e+00" cType="1" res="-8.6631588637828827e-02" rms="1.3452912867069244e-01" purity="2.4383248761296272e-02" nType="-99"/>
      </Node>
    </BinaryTree>
    <BinaryTree type="DecisionTree" boostWeight="1.0000000000000000e+00" itree="133">
      <Node pos="s" depth="0" NCoef="0" IVar="8" Cut="-1.3360211253166199e-01" cType="1" res="-5.0740741426125169e-04" rms="2.5161099433898926e-01" purity="5.0298893451690674e-01" nType="0">
        <Node pos="l" depth="1" NCoef="0" IVar="9" Cut="-1.4652544260025024e+00" cType="1" res="6.3500674441456795e-03" rms="2.4835789203643799e-01" purity="4.9038052558898926e-01" nType="0">
          <Node pos="l" depth="2" NCoef="0" IVar="-1" Cut="0.0000000000000000e+00" cType="1" res="3.4178387373685837e-02" rms="2.7027687430381775e-01" purity="3.4175363183021545e-01" nType="-99"/>
          <Node pos="r" depth="2" NCoef="0" IVar="9" Cut="5.6595063209533691e-01" cType="1" res="4.1804136708378792e-03" rms="2.4550279974937439e-01" purity="5.0824165344238281e-01" nType="0">
            <Node pos="l" depth="3" NCoef="0" IVar="-1" Cut="0.0000000000000000e+00" cType="1" res="-8.9812459191307425e-04" rms="2.4022795259952545e-01" purity="5.2807998657226562e-01" nType="-99"/>
            <Node pos="r" depth="3" NCoef="0" IVar="-1" Cut="0.0000000000000000e+00" cType="1" res="2.2098079323768616e-02" rms="2.5585013628005981e-01" purity="4.6696677803993225e-01" nType="-99"/>
          </Node>
        </Node>
        <Node pos="r" depth="1" NCoef="0" IVar="7" Cut="-6.6324371099472046e-01" cType="1" res="-6.1304806731641293e-03" rms="2.5410938262939453e-01" purity="5.1332771778106689e-01" nType="0">
          <Node pos="l" depth="2" NCoef="0" IVar="3" Cut="3.4627020263671875e+02" cType="1" res="1.1097309179604053e-02" rms="2.6562577486038208e-01" purity="4.0227398276329041e-01" nType="0">
            <Node pos="l" depth="3" NCoef="0" IVar="-1" Cut="0.0000000000000000e+00" cType="1" res="3.0003063380718231e-02" rms="2.6212203502655029e-01" purity="2.8958940505981445e-01" nType="-99"/>
            <Node pos="r" depth="3" NCoef="0" IVar="-1" Cut="0.0000000000000000e+00" cType="1" res="-8.1347189843654633e-03" rms="2.7181947231292725e-01" purity="6.3025814294815063e-01" nType="-99"/>
          </Node>
          <Node pos="r" depth="2" NCoef="0" IVar="7" Cut="-3.3316710591316223e-01" cType="1" res="-1.1116669513285160e-02" rms="2.5045648217201233e-01" purity="5.4546964168548584e-01" nType="0">
            <Node pos="l" depth="3" NCoef="0" IVar="-1" Cut="0.0000000000000000e+00" cType="1" res="-5.0058636814355850e-02" rms="2.6295113563537598e-01" purity="5.5758786201477051e-01" nType="-99"/>
            <Node pos="r" depth="3" NCoef="0" IVar="-1" Cut="0.0000000000000000e+00" cType="1" res="-1.0464447550475597e-02" rms="2.4786558747291565e-01" purity="5.4326373338699341e-01" nType="-99"/>
          </Node>
        </Node>
      </Node>
    </BinaryTree>
    <BinaryTree type="DecisionTree" boostWeight="1.0000000000000000e+00" itree="134">
      <Node pos="s" depth="0" NCoef="0" IVar="1" Cut="2.1154498681426048e-02" cType="1" res="-1.3697691028937697e-03" rms="2.4961152672767639e-01" purity="4.9985274672508240e-01" nType="0">
        <Node pos="l" depth="1" NCoef="0" IVar="0" Cut="1.8311147460937500e+03" cType="1" res="9.0458253398537636e-03" rms="1.9619333744049072e-01" purity="1.0871335864067078e-01" nType="0">
          <Node pos="l" depth="2" NCoef="0" IVar="5" Cut="1.3872201538085938e+02" cType="1" res="-3.2745040953159332e-03" rms="9.7432121634483337e-02" purity="1.0461171157658100e-02" nType="0">
            <Node pos="l" depth="3" NCoef="0" IVar="-1" Cut="0.0000000000000000e+00" cType="1" res="-5.8065392076969147e-02" rms="7.2291299700737000e-02" purity="5.1714223809540272e-03" nType="-99"/>
            <Node pos="r" depth="3" NCoef="0" IVar="-1" Cut="0.0000000000000000e+00" cType="1" res="4.8046890646219254e-02" rms="1.6366359591484070e-01" purity="3.2167952507734299e-02" nType="-99"/>
          </Node>
          <Node pos="r" depth="2" NCoef="0" IVar="1" Cut="1.3134910725057125e-02" cType="1" res="3.6627531051635742e-02" rms="3.1986141204833984e-01" purity="3.2867199182510376e-01" nType="0">
            <Node pos="l" depth="3" NCoef="0" IVar="-1" Cut="0.0000000000000000e+00" cType="1" res="-1.1689543724060059e-02" rms="2.5911331176757812e-01" purity="2.0011898875236511e-01" nType="-99"/>
            <Node pos="r" depth="3" NCoef="0" IVar="-1" Cut="0.0000000000000000e+00" cType="1" res="7.7928036451339722e-02" rms="3.7254035472869873e-01" purity="4.8270720243453979e-01" nType="-99"/>
          </Node>
        </Node>
        <Node pos="r" depth="1" NCoef="0" IVar="7" Cut="-9.3034321069717407e-01" cType="1" res="-3.7799968849867582e-03" rms="2.6035690307617188e-01" purity="5.9036463499069214e-01" nType="0">
          <Node pos="l" depth="2" NCoef="0" IVar="4" Cut="2.0772073364257812e+02" cType="1" res="1.1376675218343735e-02" rms="2.9130426049232483e-01" purity="4.4332984089851379e-01" nType="0">
            <Node pos="l" depth="3" NCoef="0" IVar="-1" Cut="0.0000000000000000e+00" cType="1" res="4.5385353267192841e-02" rms="2.9734474420547485e-01" purity="2.2723431885242462e-01" nType="-99"/>
            <Node pos="r" depth="3" NCoef="0" IVar="-1" Cut="0.0000000000000000e+00" cType="1" res="-1.0671509429812431e-02" rms="2.8398844599723816e-01" purity="6.4489412307739258e-01" nType="-99"/>
          </Node>
          <Node pos="r" depth="2" NCoef="0" IVar="2" Cut="3.1064645385742188e+02" cType="1" res="-6.1438716948032379e-03" rms="2.5511100888252258e-01" purity="6.1329650878906250e-01" nType="0">
            <Node pos="l" depth="3" NCoef="0" IVar="-1" Cut="0.0000000000000000e+00" cType="1" res="-3.5139512270689011e-02" rms="2.9135057330131531e-01" purity="2.0618778467178345e-01" nType="-99"/>
            <Node pos="r" depth="3" NCoef="0" IVar="-1" Cut="0.0000000000000000e+00" cType="1" res="-6.1712898313999176e-03" rms="2.5156158208847046e-01" purity="6.4912128448486328e-01" nType="-99"/>
          </Node>
        </Node>
      </Node>
    </BinaryTree>
    <BinaryTree type="DecisionTree" boostWeight="1.0000000000000000e+00" itree="135">
      <Node pos="s" depth="0" NCoef="0" IVar="3" Cut="3.8954730224609375e+02" cType="1" res="6.9642049493268132e-04" rms="2.5114318728446960e-01" purity="4.9871003627777100e-01" nType="0">
        <Node pos="l" depth="1" NCoef="0" IVar="8" Cut="-1.2001172304153442e+00" cType="1" res="-1.5462931478396058e-03" rms="2.6056259870529175e-01" purity="3.4849858283996582e-01" nType="0">
          <Node pos="l" depth="2" NCoef="0" IVar="0" Cut="1.5732271728515625e+03" cType="1" res="1.0207983665168285e-02" rms="2.5033307075500488e-01" purity="2.1812967956066132e-01" nType="0">
            <Node pos="l" depth="3" NCoef="0" IVar="-1" Cut="0.0000000000000000e+00" cType="1" res="-5.7631801813840866e-02" rms="1.0511183738708496e-01" purity="1.1187881231307983e-02" nType="-99"/>
            <Node pos="r" depth="3" NCoef="0" IVar="-1" Cut="0.0000000000000000e+00" cType="1" res="2.8245151042938232e-02" rms="3.0855518579483032e-01" purity="3.5079193115234375e-01" nType="-99"/>
          </Node>
          <Node pos="r" depth="2" NCoef="0" IVar="5" Cut="2.0197987365722656e+02" cType="1" res="-3.4890908282250166e-03" rms="2.6216417551040649e-01" purity="3.7004646658897400e-01" nType="0">
            <Node pos="l" depth="3" NCoef="0" IVar="-1" Cut="0.0000000000000000e+00" cType="1" res="-9.0366750955581665e-03" rms="2.6721554994583130e-01" purity="2.4925066530704498e-01" nType="-99"/>
            <Node pos="r" depth="3" NCoef="0" IVar="-1" Cut="0.0000000000000000e+00" cType="1" res="1.2490547262132168e-02" rms="2.4058374762535095e-01" purity="8.5269576311111450e-01" nType="-99"/>
          </Node>
        </Node>
        <Node pos="r" depth="1" NCoef="0" IVar="7" Cut="-9.2922669649124146e-01" cType="1" res="5.6454264558851719e-03" rms="2.2891280055046082e-01" purity="8.3018237352371216e-01" nType="0">
          <Node pos="l" depth="2" NCoef="0" IVar="-1" Cut="0.0000000000000000e+00" cType="1" res="-3.3872872591018677e-02" rms="2.7744925022125244e-01" purity="5.7757639884948730e-01" nType="-99"/>
          <Node pos="r" depth="2" NCoef="0" IVar="0" Cut="2.4023928222656250e+03" cType="1" res="9.1683678328990936e-03" rms="2.2277449071407318e-01" purity="8.5736656188964844e-01" nType="0">
            <Node pos="l" depth="3" NCoef="0" IVar="-1" Cut="0.0000000000000000e+00" cType="1" res="2.6453081518411636e-02" rms="3.3298516273498535e-01" purity="5.2055394649505615e-01" nType="-99"/>
            <Node pos="r" depth="3" NCoef="0" IVar="-1" Cut="0.0000000000000000e+00" cType="1" res="9.6412664279341698e-03" rms="1.8063935637474060e-01" purity="9.5000272989273071e-01" nType="-99"/>
          </Node>
        </Node>
      </Node>
    </BinaryTree>
    <BinaryTree type="DecisionTree" boostWeight="1.0000000000000000e+00" itree="136">
      <Node pos="s" depth="0" NCoef="0" IVar="7" Cut="1.1994578838348389e+00" cType="1" res="4.5888153836131096e-03" rms="2.4903044104576111e-01" purity="5.0450831651687622e-01" nType="0">
        <Node pos="l" depth="1" NCoef="0" IVar="2" Cut="9.3056176757812500e+02" cType="1" res="6.3817827031016350e-03" rms="2.5161302089691162e-01" purity="5.4531514644622803e-01" nType="0">
          <Node pos="l" depth="2" NCoef="0" IVar="7" Cut="6.2810099124908447e-01" cType="1" res="7.4854535050690174e-03" rms="2.4982622265815735e-01" purity="5.3638666868209839e-01" nType="0">
            <Node pos="l" depth="3" NCoef="0" IVar="-1" Cut="0.0000000000000000e+00" cType="1" res="8.9629823341965675e-03" rms="2.4672074615955353e-01" purity="5.3637975454330444e-01" nType="-99"/>
            <Node pos="r" depth="3" NCoef="0" IVar="-1" Cut="0.0000000000000000e+00" cType="1" res="2.5700271129608154e-02" rms="2.6536220312118530e-01" purity="5.3642296791076660e-01" nType="-99"/>
          </Node>
          <Node pos="r" depth="2" NCoef="0" IVar="-1" Cut="0.0000000000000000e+00" cType="1" res="-2.5365307927131653e-02" rms="2.9195922613143921e-01" purity="7.7199280261993408e-01" nType="-99"/>
        </Node>
        <Node pos="r" depth="1" NCoef="0" IVar="3" Cut="3.1238125610351562e+02" cType="1" res="-9.5270220190286636e-03" rms="2.2718338668346405e-01" purity="1.8324065208435059e-01" nType="0">
          <Node pos="l" depth="2" NCoef="0" IVar="8" Cut="1.3494145870208740e-01" cType="1" res="3.4848833456635475e-03" rms="2.0644453167915344e-01" purity="1.2079418450593948e-01" nType="0">
            <Node pos="l" depth="3" NCoef="0" IVar="-1" Cut="0.0000000000000000e+00" cType="1" res="3.4340955317020416e-02" rms="2.2552809119224548e-01" purity="1.3009454309940338e-01" nType="-99"/>
            <Node pos="r" depth="3" NCoef="0" IVar="-1" Cut="0.0000000000000000e+00" cType="1" res="-1.3031034730374813e-02" rms="1.8943384289741516e-01" purity="1.1344266682863235e-01" nType="-99"/>
          </Node>
          <Node pos="r" depth="2" NCoef="0" IVar="-1" Cut="0.0000000000000000e+00" cType="1" res="-5.2365045994520187e-02" rms="2.7024164795875549e-01" purity="3.4262770414352417e-01" nType="-99"/>
        </Node>
      </Node>
    </BinaryTree>
    <BinaryTree type="DecisionTree" boostWeight="1.0000000000000000e+00" itree="137">
      <Node pos="s" depth="0" NCoef="0" IVar="8" Cut="-6.6673278808593750e-01" cType="1" res="-2.2151941084302962e-04" rms="2.5288009643554688e-01" purity="5.0826466083526611e-01" nType="0">
        <Node pos="l" depth="1" NCoef="0" IVar="2" Cut="5.0743283081054688e+02" cType="1" res="-9.8945908248424530e-03" rms="2.5306084752082825e-01" purity="4.1615083813667297e-01" nType="0">
          <Node pos="l" depth="2" NCoef="0" IVar="6" Cut="-8.1872588396072388e-01" cType="1" res="-1.9744327291846275e-02" rms="2.5735265016555786e-01" purity="2.8543028235435486e-01" nType="0">
            <Node pos="l" depth="3" NCoef="0" IVar="-1" Cut="0.0000000000000000e+00" cType="1" res="5.4096179082989693e-03" rms="2.3747412860393524e-01" purity="2.0181591808795929e-01" nType="-99"/>
            <Node pos="r" depth="3" NCoef="0" IVar="-1" Cut="0.0000000000000000e+00" cType="1" res="-3.5700935870409012e-02" rms="2.6227527856826782e-01" purity="3.0879765748977661e-01" nType="-99"/>
          </Node>
          <Node pos="r" depth="2" NCoef="0" IVar="0" Cut="2.3371533203125000e+03" cType="1" res="1.6412886325269938e-03" rms="2.4744191765785217e-01" purity="5.6924903392791748e-01" nType="0">
            <Node pos="l" depth="3" NCoef="0" IVar="-1" Cut="0.0000000000000000e+00" cType="1" res="1.5947841107845306e-02" rms="2.5853544473648071e-01" purity="2.2524704039096832e-01" nType="-99"/>
            <Node pos="r" depth="3" NCoef="0" IVar="-1" Cut="0.0000000000000000e+00" cType="1" res="-1.5351692214608192e-02" rms="2.3604930937290192e-01" purity="8.9420562982559204e-01" nType="-99"/>
          </Node>
        </Node>
        <Node pos="r" depth="1" NCoef="0" IVar="2" Cut="3.2238757324218750e+02" cType="1" res="3.0992825049906969e-03" rms="2.5273263454437256e-01" purity="5.3988766670227051e-01" nType="0">
          <Node pos="l" depth="2" NCoef="0" IVar="4" Cut="1.8636965942382812e+02" cType="1" res="2.0014112815260887e-02" rms="2.8739762306213379e-01" purity="2.3036564886569977e-01" nType="0">
            <Node pos="l" depth="3" NCoef="0" IVar="-1" Cut="0.0000000000000000e+00" cType="1" res="-1.2606779113411903e-02" rms="2.5412178039550781e-01" purity="8.5554815828800201e-02" nType="-99"/>
            <Node pos="r" depth="3" NCoef="0" IVar="-1" Cut="0.0000000000000000e+00" cType="1" res="5.3788058459758759e-02" rms="3.1267538666725159e-01" purity="3.6288088560104370e-01" nType="-99"/>
          </Node>
          <Node pos="r" depth="2" NCoef="0" IVar="6" Cut="-4.4558502733707428e-02" cType="1" res="1.3493499718606472e-03" rms="2.4880528450012207e-01" purity="5.7190936803817749e-01" nType="0">
            <Node pos="l" depth="3" NCoef="0" IVar="-1" Cut="0.0000000000000000e+00" cType="1" res="1.1449532583355904e-02" rms="2.4541400372982025e-01" purity="5.6870615482330322e-01" nType="-99"/>
            <Node pos="r" depth="3" NCoef="0" IVar="-1" Cut="0.0000000000000000e+00" cType="1" res="-6.0252379626035690e-03" rms="2.5173875689506531e-01" purity="5.7482099533081055e-01" nType="-99"/>
          </Node>
        </Node>
      </Node>
    </BinaryTree>
    <BinaryTree type="DecisionTree" boostWeight="1.0000000000000000e+00" itree="138">
      <Node pos="s" depth="0" NCoef="0" IVar="9" Cut="-1.9991481304168701e+00" cType="1" res="-3.2584543805569410e-03" rms="2.5137251615524292e-01" purity="5.0193619728088379e-01" nType="0">
        <Node pos="l" depth="1" NCoef="0" IVar="-1" Cut="0.0000000000000000e+00" cType="1" res="-4.9223009496927261e-02" rms="2.5681740045547485e-01" purity="1.9349618256092072e-01" nType="-99"/>
        <Node pos="r" depth="1" NCoef="0" IVar="9" Cut="1.8853973150253296e+00" cType="1" res="-2.2257766686379910e-03" rms="2.5112465023994446e-01" purity="5.1209133863449097e-01" nType="0">
          <Node pos="l" depth="2" NCoef="0" IVar="9" Cut="4.0554344654083252e-01" cType="1" res="-1.0471326531842351e-03" rms="2.5092381238937378e-01" purity="5.2843081951141357e-01" nType="0">
            <Node pos="l" depth="3" NCoef="0" IVar="-1" Cut="0.0000000000000000e+00" cType="1" res="-7.1851289831101894e-03" rms="2.5028997659683228e-01" purity="5.3062987327575684e-01" nType="-99"/>
            <Node pos="r" depth="3" NCoef="0" IVar="-1" Cut="0.0000000000000000e+00" cType="1" res="9.4395736232399940e-03" rms="2.5203582644462585e-01" purity="5.2403593063354492e-01" nType="-99"/>
          </Node>
          <Node pos="r" depth="2" NCoef="0" IVar="-1" Cut="0.0000000000000000e+00" cType="1" res="-3.6878775805234909e-02" rms="2.5394654273986816e-01" purity="1.8821324408054352e-01" nType="-99"/>
        </Node>
      </Node>
    </BinaryTree>
    <BinaryTree type="DecisionTree" boostWeight="1.0000000000000000e+00" itree="139">
      <Node pos="s" depth="0" NCoef="0" IVar="7" Cut="-1.1983772516250610e+00" cType="1" res="3.3939501736313105e-03" rms="2.5042548775672913e-01" purity="5.0154572725296021e-01" nType="0">
        <Node pos="l" depth="1" NCoef="0" IVar="0" Cut="1.8506336669921875e+03" cType="1" res="-1.3726465404033661e-02" rms="2.3197288811206818e-01" purity="1.8556118011474609e-01" nType="0">
          <Node pos="l" depth="2" NCoef="0" IVar="3" Cut="2.2880496215820312e+02" cType="1" res="-2.0242808386683464e-04" rms="1.7042963206768036e-01" purity="3.8813214749097824e-02" nType="0">
            <Node pos="l" depth="3" NCoef="0" IVar="-1" Cut="0.0000000000000000e+00" cType="1" res="6.6523864865303040e-02" rms="1.9747118651866913e-01" purity="5.3485617041587830e-02" nType="-99"/>
            <Node pos="r" depth="3" NCoef="0" IVar="-1" Cut="0.0000000000000000e+00" cType="1" res="-3.8179382681846619e-02" rms="1.4758756756782532e-01" purity="2.8694577515125275e-02" nType="-99"/>
          </Node>
          <Node pos="r" depth="2" NCoef="0" IVar="-1" Cut="0.0000000000000000e+00" cType="1" res="-3.6986149847507477e-02" rms="3.1777772307395935e-01" purity="4.7129753232002258e-01" nType="-99"/>
        </Node>
        <Node pos="r" depth="1" NCoef="0" IVar="6" Cut="6.9343501329421997e-01" cType="1" res="5.6219375692307949e-03" rms="2.5264251232147217e-01" purity="5.4266685247421265e-01" nType="0">
          <Node pos="l" depth="2" NCoef="0" IVar="7" Cut="5.1409018039703369e-01" cType="1" res="3.1401428859680891e-03" rms="2.5197860598564148e-01" purity="5.8859968185424805e-01" nType="0">
            <Node pos="l" depth="3" NCoef="0" IVar="-1" Cut="0.0000000000000000e+00" cType="1" res="-1.8817513482645154e-03" rms="2.4557793140411377e-01" purity="6.5196341276168823e-01" nType="-99"/>
            <Node pos="r" depth="3" NCoef="0" IVar="-1" Cut="0.0000000000000000e+00" cType="1" res="1.8942110240459442e-02" rms="2.6486420631408691e-01" purity="4.5356968045234680e-01" nType="-99"/>
          </Node>
          <Node pos="r" depth="2" NCoef="0" IVar="9" Cut="1.3384239375591278e-01" cType="1" res="1.5571951866149902e-02" rms="2.5504449009895325e-01" purity="3.5851258039474487e-01" nType="0">
            <Node pos="l" depth="3" NCoef="0" IVar="-1" Cut="0.0000000000000000e+00" cType="1" res="4.7495283186435699e-02" rms="2.6063996553421021e-01" purity="3.8743853569030762e-01" nType="-99"/>
            <Node pos="r" depth="3" NCoef="0" IVar="-1" Cut="0.0000000000000000e+00" cType="1" res="2.3843969684094191e-03" rms="2.4835117161273956e-01" purity="3.2863274216651917e-01" nType="-99"/>
          </Node>
        </Node>
      </Node>
    </BinaryTree>
    <BinaryTree type="DecisionTree" boostWeight="1.0000000000000000e+00" itree="140">
      <Node pos="s" depth="0" NCoef="0" IVar="6" Cut="7.3028004169464111e-01" cType="1" res="-4.3586427345871925e-03" rms="2.4937392771244049e-01" purity="4.9266213178634644e-01" nType="0">
        <Node pos="l" depth="1" NCoef="0" IVar="9" Cut="1.9996509552001953e+00" cType="1" res="-1.6810706583783031e-03" rms="2.5247356295585632e-01" purity="5.4653143882751465e-01" nType="0">
          <Node pos="l" depth="2" NCoef="0" IVar="7" Cut="9.3316698074340820e-01" cType="1" res="-2.4821816477924585e-03" rms="2.5076118111610413e-01" purity="5.5779224634170532e-01" nType="0">
            <Node pos="l" depth="3" NCoef="0" IVar="-1" Cut="0.0000000000000000e+00" cType="1" res="-9.1021211119368672e-04" rms="2.4945974349975586e-01" purity="5.9759587049484253e-01" nType="-99"/>
            <Node pos="r" depth="3" NCoef="0" IVar="-1" Cut="0.0000000000000000e+00" cType="1" res="-2.0009176805615425e-02" rms="2.5764957070350647e-01" purity="3.3550694584846497e-01" nType="-99"/>
          </Node>
          <Node pos="r" depth="2" NCoef="0" IVar="-1" Cut="0.0000000000000000e+00" cType="1" res="3.1485531479120255e-02" rms="2.9638302326202393e-01" purity="2.2450119256973267e-01" nType="-99"/>
        </Node>
        <Node pos="r" depth="1" NCoef="0" IVar="0" Cut="2.0562749023437500e+03" cType="1" res="-1.5197413973510265e-02" rms="2.3610176146030426e-01" purity="2.7460005879402161e-01" nType="0">
          <Node pos="l" depth="2" NCoef="0" IVar="9" Cut="-3.9763918519020081e-01" cType="1" res="1.2523211771622300e-03" rms="2.0536628365516663e-01" purity="7.4762798845767975e-02" nType="0">
            <Node pos="l" depth="3" NCoef="0" IVar="-1" Cut="0.0000000000000000e+00" cType="1" res="3.9207894355058670e-02" rms="2.2225411236286163e-01" purity="8.3354569971561432e-02" nType="-99"/>
            <Node pos="r" depth="3" NCoef="0" IVar="-1" Cut="0.0000000000000000e+00" cType="1" res="-1.5508191660046577e-02" rms="1.9478031992912292e-01" purity="6.9942034780979156e-02" nType="-99"/>
          </Node>
          <Node pos="r" depth="2" NCoef="0" IVar="7" Cut="-1.3283041119575500e-01" cType="1" res="-4.9659647047519684e-02" rms="2.8708192706108093e-01" purity="6.9325959682464600e-01" nType="0">
            <Node pos="l" depth="3" NCoef="0" IVar="-1" Cut="0.0000000000000000e+00" cType="1" res="-8.5051469504833221e-02" rms="2.9876786470413208e-01" purity="5.7559776306152344e-01" nType="-99"/>
            <Node pos="r" depth="3" NCoef="0" IVar="-1" Cut="0.0000000000000000e+00" cType="1" res="-1.0885939933359623e-02" rms="2.7016380429267883e-01" purity="7.9295277595520020e-01" nType="-99"/>
          </Node>
        </Node>
      </Node>
    </BinaryTree>
    <BinaryTree type="DecisionTree" boostWeight="1.0000000000000000e+00" itree="141">
      <Node pos="s" depth="0" NCoef="0" IVar="5" Cut="1.6783848571777344e+02" cType="1" res="-1.1599735589697957e-03" rms="2.4609570205211639e-01" purity="4.9705442786216736e-01" nType="0">
        <Node pos="l" depth="1" NCoef="0" IVar="5" Cut="1.1785105133056641e+02" cType="1" res="-5.7514025829732418e-03" rms="2.5302466750144958e-01" purity="2.2136731445789337e-01" nType="0">
          <Node pos="l" depth="2" NCoef="0" IVar="0" Cut="2.1315144042968750e+03" cType="1" res="-2.5577092310413718e-04" rms="2.1864800155162811e-01" purity="1.0166327655315399e-01" nType="0">
            <Node pos="l" depth="3" NCoef="0" IVar="-1" Cut="0.0000000000000000e+00" cType="1" res="1.3745782896876335e-02" rms="1.9270266592502594e-01" purity="5.6764923036098480e-02" nType="-99"/>
            <Node pos="r" depth="3" NCoef="0" IVar="-1" Cut="0.0000000000000000e+00" cType="1" res="-3.1575955450534821e-02" rms="3.6679160594940186e-01" purity="4.7548428177833557e-01" nType="-99"/>
          </Node>
          <Node pos="r" depth="2" NCoef="0" IVar="0" Cut="2.0563320312500000e+03" cType="1" res="-1.0828411206603050e-02" rms="2.8097546100616455e-01" purity="3.3195304870605469e-01" nType="0">
            <Node pos="l" depth="3" NCoef="0" IVar="-1" Cut="0.0000000000000000e+00" cType="1" res="-2.0151462405920029e-02" rms="2.6640695333480835e-01" purity="1.2901671230792999e-01" nType="-99"/>
            <Node pos="r" depth="3" NCoef="0" IVar="-1" Cut="0.0000000000000000e+00" cType="1" res="1.5314748743548989e-03" rms="3.1115642189979553e-01" purity="7.9227417707443237e-01" nType="-99"/>
          </Node>
        </Node>
        <Node pos="r" depth="1" NCoef="0" IVar="9" Cut="9.3023467063903809e-01" cType="1" res="4.3232114985585213e-03" rms="2.3744003474712372e-01" purity="8.2628601789474487e-01" nType="0">
          <Node pos="l" depth="2" NCoef="0" IVar="1" Cut="6.3855774700641632e-02" cType="1" res="7.2619155980646610e-03" rms="2.3114719986915588e-01" purity="8.4690433740615845e-01" nType="0">
            <Node pos="l" depth="3" NCoef="0" IVar="-1" Cut="0.0000000000000000e+00" cType="1" res="2.1292123943567276e-02" rms="2.7980491518974304e-01" purity="6.7658114433288574e-01" nType="-99"/>
            <Node pos="r" depth="3" NCoef="0" IVar="-1" Cut="0.0000000000000000e+00" cType="1" res="6.1743054538965225e-03" rms="2.0863644778728485e-01" purity="9.1424250602722168e-01" nType="-99"/>
          </Node>
          <Node pos="r" depth="2" NCoef="0" IVar="7" Cut="1.3211275637149811e-01" cType="1" res="-1.0572697035968304e-02" rms="2.6656875014305115e-01" purity="7.2177422046661377e-01" nType="0">
            <Node pos="l" depth="3" NCoef="0" IVar="-1" Cut="0.0000000000000000e+00" cType="1" res="4.3283868581056595e-03" rms="2.6392832398414612e-01" purity="7.4023598432540894e-01" nType="-99"/>
            <Node pos="r" depth="3" NCoef="0" IVar="-1" Cut="0.0000000000000000e+00" cType="1" res="-3.6902152001857758e-02" rms="2.6854637265205383e-01" purity="7.0285212993621826e-01" nType="-99"/>
          </Node>
        </Node>
      </Node>
    </BinaryTree>
    <BinaryTree type="DecisionTree" boostWeight="1.0000000000000000e+00" itree="142">
      <Node pos="s" depth="0" NCoef="0" IVar="8" Cut="-1.4654796123504639e+00" cType="1" res="-3.7097805179655552e-03" rms="2.5103938579559326e-01" purity="4.9062952399253845e-01" nType="0">
        <Node pos="l" depth="1" NCoef="0" IVar="0" Cut="1.7482370605468750e+03" cType="1" res="1.0280746035277843e-02" rms="2.5867146253585815e-01" purity="2.2375026345252991e-01" nType="0">
          <Node pos="l" depth="2" NCoef="0" IVar="-1" Cut="0.0000000000000000e+00" cType="1" res="-8.2439798861742020e-03" rms="1.5798766911029816e-01" purity="3.0345585197210312e-02" nType="-99"/>
          <Node pos="r" depth="2" NCoef="0" IVar="-1" Cut="0.0000000000000000e+00" cType="1" res="2.5351928547024727e-02" rms="3.5398885607719421e-01" purity="4.9543470144271851e-01" nType="-99"/>
        </Node>
        <Node pos="r" depth="1" NCoef="0" IVar="0" Cut="2.6364443359375000e+03" cType="1" res="-4.8670684918761253e-03" rms="2.5036263465881348e-01" purity="5.1270562410354614e-01" nType="0">
          <Node pos="l" depth="2" NCoef="0" IVar="0" Cut="1.6355349121093750e+03" cType="1" res="-8.1813232973217964e-03" rms="2.7574303746223450e-01" purity="3.4676256775856018e-01" nType="0">
            <Node pos="l" depth="3" NCoef="0" IVar="-1" Cut="0.0000000000000000e+00" cType="1" res="8.2228757673874497e-04" rms="1.7005361616611481e-01" purity="3.3670824021100998e-02" nType="-99"/>
            <Node pos="r" depth="3" NCoef="0" IVar="-1" Cut="0.0000000000000000e+00" cType="1" res="-1.2902583926916122e-02" rms="3.1913602352142334e-01" purity="5.1869887113571167e-01" nType="-99"/>
          </Node>
          <Node pos="r" depth="2" NCoef="0" IVar="6" Cut="2.8856310248374939e-01" cType="1" res="4.0774783119559288e-03" rms="1.6289632022380829e-01" purity="9.6055454015731812e-01" nType="0">
            <Node pos="l" depth="3" NCoef="0" IVar="-1" Cut="0.0000000000000000e+00" cType="1" res="2.9528422746807337e-03" rms="1.5698531270027161e-01" purity="9.6219551563262939e-01" nType="-99"/>
            <Node pos="r" depth="3" NCoef="0" IVar="-1" Cut="0.0000000000000000e+00" cType="1" res="3.1654711812734604e-02" rms="1.7520917952060699e-01" purity="9.5687562227249146e-01" nType="-99"/>
          </Node>
        </Node>
      </Node>
    </BinaryTree>
    <BinaryTree type="DecisionTree" boostWeight="1.0000000000000000e+00" itree="143">
      <Node pos="s" depth="0" NCoef="0" IVar="9" Cut="1.9996509552001953e+00" cType="1" res="3.4878915175795555e-03" rms="2.4874892830848694e-01" purity="5.0731372833251953e-01" nType="0">
        <Node pos="l" depth="1" NCoef="0" IVar="9" Cut="1.3141301870346069e+00" cType="1" res="4.4341338798403740e-03" rms="2.4850443005561829e-01" purity="5.2002185583114624e-01" nType="0">
          <Node pos="l" depth="2" NCoef="0" IVar="9" Cut="-1.0362668037414551e+00" cType="1" res="2.8533786535263062e-03" rms="2.4575264751911163e-01" purity="5.3299587965011597e-01" nType="0">
            <Node pos="l" depth="3" NCoef="0" IVar="-1" Cut="0.0000000000000000e+00" cType="1" res="-6.7686350084841251e-03" rms="2.7024483680725098e-01" purity="4.1005966067314148e-01" nType="-99"/>
            <Node pos="r" depth="3" NCoef="0" IVar="-1" Cut="0.0000000000000000e+00" cType="1" res="8.0550890415906906e-03" rms="2.3930978775024414e-01" purity="5.6320923566818237e-01" nType="-99"/>
          </Node>
          <Node pos="r" depth="2" NCoef="0" IVar="5" Cut="1.4841383361816406e+02" cType="1" res="1.9337296485900879e-02" rms="2.7263811230659485e-01" purity="3.9770418405532837e-01" nType="0">
            <Node pos="l" depth="3" NCoef="0" IVar="-1" Cut="0.0000000000000000e+00" cType="1" res="4.9699570983648300e-02" rms="2.6942643523216248e-01" purity="2.0094247162342072e-01" nType="-99"/>
            <Node pos="r" depth="3" NCoef="0" IVar="-1" Cut="0.0000000000000000e+00" cType="1" res="5.0506601110100746e-03" rms="2.7613103389739990e-01" purity="6.6175711154937744e-01" nType="-99"/>
          </Node>
        </Node>
        <Node pos="r" depth="1" NCoef="0" IVar="-1" Cut="0.0000000000000000e+00" cType="1" res="-3.5591047257184982e-02" rms="2.5400206446647644e-01" purity="1.5795642137527466e-01" nType="-99"/>
      </Node>
    </BinaryTree>
    <BinaryTree type="DecisionTree" boostWeight="1.0000000000000000e+00" itree="144">
      <Node pos="s" depth="0" NCoef="0" IVar="9" Cut="-1.4659042358398438e+00" cType="1" res="6.4558029407635331e-04" rms="2.5175240635871887e-01" purity="5.0666236877441406e-01" nType="0">
        <Node pos="l" depth="1" NCoef="0" IVar="5" Cut="1.3071903991699219e+02" cType="1" res="-1.6203947365283966e-02" rms="2.7837201952934265e-01" purity="3.1270316243171692e-01" nType="0">
          <Node pos="l" depth="2" NCoef="0" IVar="-1" Cut="0.0000000000000000e+00" cType="1" res="1.0653952136635780e-02" rms="2.5357681512832642e-01" purity="1.4637041091918945e-01" nType="-99"/>
          <Node pos="r" depth="2" NCoef="0" IVar="-1" Cut="0.0000000000000000e+00" cType="1" res="-4.1400045156478882e-02" rms="2.9730910062789917e-01" purity="4.6096009016036987e-01" nType="-99"/>
        </Node>
        <Node pos="r" depth="1" NCoef="0" IVar="2" Cut="3.0844662475585938e+02" cType="1" res="2.4552445393055677e-03" rms="2.4865615367889404e-01" purity="5.2749383449554443e-01" nType="0">
          <Node pos="l" depth="2" NCoef="0" IVar="9" Cut="3.5642415285110474e-01" cType="1" res="1.9632281735539436e-02" rms="2.8949156403541565e-01" purity="2.0218394696712494e-01" nType="0">
            <Node pos="l" depth="3" NCoef="0" IVar="-1" Cut="0.0000000000000000e+00" cType="1" res="5.7860333472490311e-03" rms="2.5169885158538818e-01" purity="1.8627437949180603e-01" nType="-99"/>
            <Node pos="r" depth="3" NCoef="0" IVar="-1" Cut="0.0000000000000000e+00" cType="1" res="4.9090623855590820e-02" rms="3.2945469021797180e-01" purity="2.2195138037204742e-01" nType="-99"/>
          </Node>
          <Node pos="r" depth="2" NCoef="0" IVar="1" Cut="5.8664087206125259e-02" cType="1" res="9.8968029487878084e-04" rms="2.4480111896991730e-01" purity="5.5524969100952148e-01" nType="0">
            <Node pos="l" depth="3" NCoef="0" IVar="-1" Cut="0.0000000000000000e+00" cType="1" res="-5.4337438195943832e-03" rms="2.3870258033275604e-01" purity="2.7093026041984558e-01" nType="-99"/>
            <Node pos="r" depth="3" NCoef="0" IVar="-1" Cut="0.0000000000000000e+00" cType="1" res="7.0017385296523571e-03" rms="2.4945804476737976e-01" purity="7.7975952625274658e-01" nType="-99"/>
          </Node>
        </Node>
      </Node>
    </BinaryTree>
    <BinaryTree type="DecisionTree" boostWeight="1.0000000000000000e+00" itree="145">
      <Node pos="s" depth="0" NCoef="0" IVar="8" Cut="3.9981955289840698e-01" cType="1" res="-1.1702686315402389e-03" rms="2.4701569974422455e-01" purity="4.9901682138442993e-01" nType="0">
        <Node pos="l" depth="1" NCoef="0" IVar="8" Cut="2.4745965003967285e-01" cType="1" res="2.0763461943715811e-03" rms="2.4386999011039734e-01" purity="5.2140408754348755e-01" nType="0">
          <Node pos="l" depth="2" NCoef="0" IVar="7" Cut="6.6909635066986084e-01" cType="1" res="4.4446281390264630e-04" rms="2.4356736242771149e-01" purity="5.1318889856338501e-01" nType="0">
            <Node pos="l" depth="3" NCoef="0" IVar="-1" Cut="0.0000000000000000e+00" cType="1" res="4.6543539501726627e-03" rms="2.3804330825805664e-01" purity="5.4896563291549683e-01" nType="-99"/>
            <Node pos="r" depth="3" NCoef="0" IVar="-1" Cut="0.0000000000000000e+00" cType="1" res="-1.2498888187110424e-02" rms="2.6245748996734619e-01" purity="3.8338375091552734e-01" nType="-99"/>
          </Node>
          <Node pos="r" depth="2" NCoef="0" IVar="6" Cut="1.6942365327849984e-03" cType="1" res="1.8147682771086693e-02" rms="2.4625356495380402e-01" purity="6.0231071710586548e-01" nType="0">
            <Node pos="l" depth="3" NCoef="0" IVar="-1" Cut="0.0000000000000000e+00" cType="1" res="2.0701875910162926e-02" rms="2.3480759561061859e-01" purity="5.7618725299835205e-01" nType="-99"/>
            <Node pos="r" depth="3" NCoef="0" IVar="-1" Cut="0.0000000000000000e+00" cType="1" res="4.0269263088703156e-02" rms="2.5785973668098450e-01" purity="6.3052302598953247e-01" nType="-99"/>
          </Node>
        </Node>
        <Node pos="r" depth="1" NCoef="0" IVar="7" Cut="3.9847949147224426e-01" cType="1" res="-7.3609515093266964e-03" rms="2.5279003381729126e-01" purity="4.5632848143577576e-01" nType="0">
          <Node pos="l" depth="2" NCoef="0" IVar="8" Cut="7.4267077445983887e-01" cType="1" res="-1.3481765985488892e-02" rms="2.5534105300903320e-01" purity="4.8509299755096436e-01" nType="0">
            <Node pos="l" depth="3" NCoef="0" IVar="-1" Cut="0.0000000000000000e+00" cType="1" res="1.2006548931822181e-03" rms="2.2904421389102936e-01" purity="6.1179006099700928e-01" nType="-99"/>
            <Node pos="r" depth="3" NCoef="0" IVar="-1" Cut="0.0000000000000000e+00" cType="1" res="-2.8280260041356087e-02" rms="2.6741430163383484e-01" purity="4.2077672481536865e-01" nType="-99"/>
          </Node>
          <Node pos="r" depth="2" NCoef="0" IVar="0" Cut="1.7865596923828125e+03" cType="1" res="3.2506645657122135e-03" rms="2.4794745445251465e-01" purity="4.0645956993103027e-01" nType="0">
            <Node pos="l" depth="3" NCoef="0" IVar="-1" Cut="0.0000000000000000e+00" cType="1" res="-1.9034128636121750e-02" rms="1.7732824385166168e-01" purity="3.7336651235818863e-02" nType="-99"/>
            <Node pos="r" depth="3" NCoef="0" IVar="-1" Cut="0.0000000000000000e+00" cType="1" res="1.3641959056258202e-02" rms="2.9390689730644226e-01" purity="7.1447515487670898e-01" nType="-99"/>
          </Node>
        </Node>
      </Node>
    </BinaryTree>
    <BinaryTree type="DecisionTree" boostWeight="1.0000000000000000e+00" itree="146">
      <Node pos="s" depth="0" NCoef="0" IVar="2" Cut="5.6542962646484375e+02" cType="1" res="6.6691916435956955e-04" rms="2.5121212005615234e-01" purity="4.9849054217338562e-01" nType="0">
        <Node pos="l" depth="1" NCoef="0" IVar="7" Cut="3.9870786666870117e-01" cType="1" res="4.3401014991104603e-03" rms="2.5527366995811462e-01" purity="4.0352052450180054e-01" nType="0">
          <Node pos="l" depth="2" NCoef="0" IVar="4" Cut="1.7104418945312500e+02" cType="1" res="7.4248790042474866e-05" rms="2.5519099831581116e-01" purity="4.2780822515487671e-01" nType="0">
            <Node pos="l" depth="3" NCoef="0" IVar="-1" Cut="0.0000000000000000e+00" cType="1" res="-2.6211129501461983e-02" rms="1.9586718082427979e-01" purity="6.8611063063144684e-02" nType="-99"/>
            <Node pos="r" depth="3" NCoef="0" IVar="-1" Cut="0.0000000000000000e+00" cType="1" res="6.8312473595142365e-03" rms="2.7606779336929321e-01" purity="5.7784622907638550e-01" nType="-99"/>
          </Node>
          <Node pos="r" depth="2" NCoef="0" IVar="0" Cut="1.6633483886718750e+03" cType="1" res="1.2734867632389069e-02" rms="2.5522813200950623e-01" purity="3.5572472214698792e-01" nType="0">
            <Node pos="l" depth="3" NCoef="0" IVar="-1" Cut="0.0000000000000000e+00" cType="1" res="2.4420598056167364e-03" rms="1.7622728645801544e-01" purity="3.6025807261466980e-02" nType="-99"/>
            <Node pos="r" depth="3" NCoef="0" IVar="-1" Cut="0.0000000000000000e+00" cType="1" res="2.5022996589541435e-02" rms="3.0861714482307434e-01" purity="6.4033406972885132e-01" nType="-99"/>
          </Node>
        </Node>
        <Node pos="r" depth="1" NCoef="0" IVar="9" Cut="1.1999199390411377e+00" cType="1" res="-5.5589261464774609e-03" rms="2.4404750764369965e-01" purity="6.5945953130722046e-01" nType="0">
          <Node pos="l" depth="2" NCoef="0" IVar="5" Cut="1.3529757690429688e+02" cType="1" res="-3.3705716487020254e-03" rms="2.3971992731094360e-01" purity="6.8035572767257690e-01" nType="0">
            <Node pos="l" depth="3" NCoef="0" IVar="-1" Cut="0.0000000000000000e+00" cType="1" res="1.1451804079115391e-02" rms="2.7248519659042358e-01" purity="2.2709314525127411e-01" nType="-99"/>
            <Node pos="r" depth="3" NCoef="0" IVar="-1" Cut="0.0000000000000000e+00" cType="1" res="-1.5396831557154655e-02" rms="2.2576068341732025e-01" purity="8.5391873121261597e-01" nType="-99"/>
          </Node>
          <Node pos="r" depth="2" NCoef="0" IVar="-1" Cut="0.0000000000000000e+00" cType="1" res="-3.0896719545125961e-02" rms="2.7249392867088318e-01" purity="5.1001030206680298e-01" nType="-99"/>
        </Node>
      </Node>
    </BinaryTree>
    <BinaryTree type="DecisionTree" boostWeight="1.0000000000000000e+00" itree="147">
      <Node pos="s" depth="0" NCoef="0" IVar="6" Cut="-6.1925933696329594e-03" cType="1" res="1.6748838825151324e-03" rms="2.5259864330291748e-01" purity="5.0449270009994507e-01" nType="0">
        <Node pos="l" depth="1" NCoef="0" IVar="4" Cut="3.2982241821289062e+02" cType="1" res="8.5592428222298622e-03" rms="2.5334620475769043e-01" purity="5.1406651735305786e-01" nType="0">
          <Node pos="l" depth="2" NCoef="0" IVar="6" Cut="-2.4900458753108978e-01" cType="1" res="1.1261316947638988e-02" rms="2.6366657018661499e-01" purity="4.2197453975677490e-01" nType="0">
            <Node pos="l" depth="3" NCoef="0" IVar="-1" Cut="0.0000000000000000e+00" cType="1" res="1.1252715252339840e-02" rms="2.6118934154510498e-01" purity="3.7333455681800842e-01" nType="-99"/>
            <Node pos="r" depth="3" NCoef="0" IVar="-1" Cut="0.0000000000000000e+00" cType="1" res="3.2057449221611023e-02" rms="2.7201065421104431e-01" purity="5.9767949581146240e-01" nType="-99"/>
          </Node>
          <Node pos="r" depth="2" NCoef="0" IVar="-1" Cut="0.0000000000000000e+00" cType="1" res="-1.0408033616840839e-02" rms="1.9926801323890686e-01" purity="9.3333214521408081e-01" nType="-99"/>
        </Node>
        <Node pos="r" depth="1" NCoef="0" IVar="9" Cut="-1.1974202394485474e+00" cType="1" res="-5.0781145691871643e-03" rms="2.5168025493621826e-01" purity="4.9510157108306885e-01" nType="0">
          <Node pos="l" depth="2" NCoef="0" IVar="7" Cut="1.3344968855381012e-01" cType="1" res="-3.5919934511184692e-02" rms="2.7241200208663940e-01" purity="3.2911571860313416e-01" nType="0">
            <Node pos="l" depth="3" NCoef="0" IVar="-1" Cut="0.0000000000000000e+00" cType="1" res="-6.7083507776260376e-02" rms="2.7755007147789001e-01" purity="3.1953400373458862e-01" nType="-99"/>
            <Node pos="r" depth="3" NCoef="0" IVar="-1" Cut="0.0000000000000000e+00" cType="1" res="-2.7575015556067228e-03" rms="2.6029178500175476e-01" purity="3.4477949142456055e-01" nType="-99"/>
          </Node>
          <Node pos="r" depth="2" NCoef="0" IVar="6" Cut="3.9436280727386475e-01" cType="1" res="1.7510993347968906e-04" rms="2.4759374558925629e-01" purity="5.2337360382080078e-01" nType="0">
            <Node pos="l" depth="3" NCoef="0" IVar="-1" Cut="0.0000000000000000e+00" cType="1" res="-1.5422936528921127e-02" rms="2.4603554606437683e-01" purity="6.7198169231414795e-01" nType="-99"/>
            <Node pos="r" depth="3" NCoef="0" IVar="-1" Cut="0.0000000000000000e+00" cType="1" res="9.4665978103876114e-03" rms="2.4833512306213379e-01" purity="4.3557137250900269e-01" nType="-99"/>
          </Node>
        </Node>
      </Node>
    </BinaryTree>
    <BinaryTree type="DecisionTree" boostWeight="1.0000000000000000e+00" itree="148">
      <Node pos="s" depth="0" NCoef="0" IVar="9" Cut="1.9996649026870728e+00" cType="1" res="2.8252676129341125e-03" rms="2.5061956048011780e-01" purity="5.0027912855148315e-01" nType="0">
        <Node pos="l" depth="1" NCoef="0" IVar="3" Cut="5.3078271484375000e+02" cType="1" res="3.9531607180833817e-03" rms="2.5129890441894531e-01" purity="5.1683527231216431e-01" nType="0">
          <Node pos="l" depth="2" NCoef="0" IVar="9" Cut="-1.4278277158737183e+00" cType="1" res="5.3819851018488407e-03" rms="2.5351613759994507e-01" purity="4.8142060637474060e-01" nType="0">
            <Node pos="l" depth="3" NCoef="0" IVar="-1" Cut="0.0000000000000000e+00" cType="1" res="2.3330656811594963e-02" rms="2.7818107604980469e-01" purity="3.1679487228393555e-01" nType="-99"/>
            <Node pos="r" depth="3" NCoef="0" IVar="-1" Cut="0.0000000000000000e+00" cType="1" res="6.0982219874858856e-03" rms="2.5023129582405090e-01" purity="5.0194650888442993e-01" nType="-99"/>
          </Node>
          <Node pos="r" depth="2" NCoef="0" IVar="9" Cut="-2.8634518384933472e-01" cType="1" res="-1.0169139131903648e-02" rms="2.2774669528007507e-01" purity="8.6686927080154419e-01" nType="0">
            <Node pos="l" depth="3" NCoef="0" IVar="-1" Cut="0.0000000000000000e+00" cType="1" res="7.0824958384037018e-03" rms="2.3838870227336884e-01" purity="8.8977468013763428e-01" nType="-99"/>
            <Node pos="r" depth="3" NCoef="0" IVar="-1" Cut="0.0000000000000000e+00" cType="1" res="-3.8846693933010101e-02" rms="2.1995513141155243e-01" purity="8.5172206163406372e-01" nType="-99"/>
          </Node>
        </Node>
        <Node pos="r" depth="1" NCoef="0" IVar="-1" Cut="0.0000000000000000e+00" cType="1" res="-3.5401273518800735e-02" rms="2.3410438001155853e-01" purity="1.4186009764671326e-01" nType="-99"/>
      </Node>
    </BinaryTree>
    <BinaryTree type="DecisionTree" boostWeight="1.0000000000000000e+00" itree="149">
      <Node pos="s" depth="0" NCoef="0" IVar="3" Cut="4.0944573974609375e+02" cType="1" res="-1.7630731454119086e-03" rms="2.4763865768909454e-01" purity="4.9839255213737488e-01" nType="0">
        <Node pos="l" depth="1" NCoef="0" IVar="9" Cut="4.0052229166030884e-01" cType="1" res="-4.1606496088206768e-03" rms="2.5443562865257263e-01" purity="3.7066644430160522e-01" nType="0">
          <Node pos="l" depth="2" NCoef="0" IVar="5" Cut="1.9402507019042969e+02" cType="1" res="-9.0695088729262352e-03" rms="2.5242510437965393e-01" purity="3.7562280893325806e-01" nType="0">
            <Node pos="l" depth="3" NCoef="0" IVar="-1" Cut="0.0000000000000000e+00" cType="1" res="-1.9132016226649284e-02" rms="2.5625979900360107e-01" purity="2.2570064663887024e-01" nType="-99"/>
            <Node pos="r" depth="3" NCoef="0" IVar="-1" Cut="0.0000000000000000e+00" cType="1" res="7.2210105136036873e-03" rms="2.3934912681579590e-01" purity="8.5104095935821533e-01" nType="-99"/>
          </Node>
          <Node pos="r" depth="2" NCoef="0" IVar="7" Cut="-3.9824554324150085e-01" cType="1" res="4.4193807989358902e-03" rms="2.5768765807151794e-01" purity="3.6200335621833801e-01" nType="0">
            <Node pos="l" depth="3" NCoef="0" IVar="-1" Cut="0.0000000000000000e+00" cType="1" res="-8.8554527610540390e-03" rms="2.3640489578247070e-01" purity="3.1259757280349731e-01" nType="-99"/>
            <Node pos="r" depth="3" NCoef="0" IVar="-1" Cut="0.0000000000000000e+00" cType="1" res="1.3291492126882076e-02" rms="2.6689350605010986e-01" purity="3.8500803709030151e-01" nType="-99"/>
          </Node>
        </Node>
        <Node pos="r" depth="1" NCoef="0" IVar="7" Cut="6.1575829982757568e-01" cType="1" res="4.6476908028125763e-03" rms="2.2834992408752441e-01" purity="8.3991330862045288e-01" nType="0">
          <Node pos="l" depth="2" NCoef="0" IVar="5" Cut="1.3919776916503906e+02" cType="1" res="9.7011458128690720e-03" rms="2.1847437322139740e-01" purity="8.5827052593231201e-01" nType="0">
            <Node pos="l" depth="3" NCoef="0" IVar="-1" Cut="0.0000000000000000e+00" cType="1" res="3.2507270574569702e-02" rms="3.2715892791748047e-01" purity="4.5583280920982361e-01" nType="-99"/>
            <Node pos="r" depth="3" NCoef="0" IVar="-1" Cut="0.0000000000000000e+00" cType="1" res="1.1712015606462955e-02" rms="1.8927122652530670e-01" purity="9.3802124261856079e-01" nType="-99"/>
          </Node>
          <Node pos="r" depth="2" NCoef="0" IVar="-1" Cut="0.0000000000000000e+00" cType="1" res="-3.2817356288433075e-02" rms="2.6902934908866882e-01" purity="7.5284665822982788e-01" nType="-99"/>
        </Node>
      </Node>
    </BinaryTree>
    <BinaryTree type="DecisionTree" boostWeight="1.0000000000000000e+00" itree="150">
      <Node pos="s" depth="0" NCoef="0" IVar="7" Cut="-1.3361231982707977e-01" cType="1" res="4.3169566197320819e-04" rms="2.5272634625434875e-01" purity="4.9679639935493469e-01" nType="0">
        <Node pos="l" depth="1" NCoef="0" IVar="6" Cut="-2.6156550645828247e-01" cType="1" res="6.4402981661260128e-03" rms="2.4841763079166412e-01" purity="4.8478573560714722e-01" nType="0">
          <Node pos="l" depth="2" NCoef="0" IVar="8" Cut="-3.9777377247810364e-01" cType="1" res="-5.8320770040154457e-04" rms="2.5185868144035339e-01" purity="4.5025795698165894e-01" nType="0">
            <Node pos="l" depth="3" NCoef="0" IVar="-1" Cut="0.0000000000000000e+00" cType="1" res="-2.6074806228280067e-02" rms="2.4456577003002167e-01" purity="3.7837168574333191e-01" nType="-99"/>
            <Node pos="r" depth="3" NCoef="0" IVar="-1" Cut="0.0000000000000000e+00" cType="1" res="1.5967985615134239e-02" rms="2.5585854053497314e-01" purity="4.9626803398132324e-01" nType="-99"/>
          </Node>
          <Node pos="r" depth="2" NCoef="0" IVar="7" Cut="-1.1493816375732422e+00" cType="1" res="1.0976849123835564e-02" rms="2.4606291949748993e-01" purity="5.0708752870559692e-01" nType="0">
            <Node pos="l" depth="3" NCoef="0" IVar="-1" Cut="0.0000000000000000e+00" cType="1" res="-7.9874237999320030e-03" rms="2.3435142636299133e-01" purity="2.0977035164833069e-01" nType="-99"/>
            <Node pos="r" depth="3" NCoef="0" IVar="-1" Cut="0.0000000000000000e+00" cType="1" res="2.5695417076349258e-02" rms="2.4989339709281921e-01" purity="6.1386132240295410e-01" nType="-99"/>
          </Node>
        </Node>
        <Node pos="r" depth="1" NCoef="0" IVar="5" Cut="1.5194587707519531e+02" cType="1" res="-4.5622619800269604e-03" rms="2.5614508986473083e-01" purity="5.0677895545959473e-01" nType="0">
          <Node pos="l" depth="2" NCoef="0" IVar="9" Cut="1.1999199390411377e+00" cType="1" res="4.3568746186792850e-03" rms="2.5811359286308289e-01" purity="2.0267120003700256e-01" nType="0">
            <Node pos="l" depth="3" NCoef="0" IVar="-1" Cut="0.0000000000000000e+00" cType="1" res="-1.9866467919200659e-03" rms="2.5287550687789917e-01" purity="2.0101369917392731e-01" nType="-99"/>
            <Node pos="r" depth="3" NCoef="0" IVar="-1" Cut="0.0000000000000000e+00" cType="1" res="4.2069565504789352e-02" rms="2.7689439058303833e-01" purity="2.0929001271724701e-01" nType="-99"/>
          </Node>
          <Node pos="r" depth="2" NCoef="0" IVar="6" Cut="-5.3832954168319702e-01" cType="1" res="-1.1868155561387539e-02" rms="2.5428831577301025e-01" purity="7.5588142871856689e-01" nType="0">
            <Node pos="l" depth="3" NCoef="0" IVar="-1" Cut="0.0000000000000000e+00" cType="1" res="-5.8686032891273499e-02" rms="2.9207181930541992e-01" purity="5.8520370721817017e-01" nType="-99"/>
            <Node pos="r" depth="3" NCoef="0" IVar="-1" Cut="0.0000000000000000e+00" cType="1" res="-3.6858485545963049e-03" rms="2.4182873964309692e-01" purity="8.0342066287994385e-01" nType="-99"/>
          </Node>
        </Node>
      </Node>
    </BinaryTree>
    <BinaryTree type="DecisionTree" boostWeight="1.0000000000000000e+00" itree="151">
      <Node pos="s" depth="0" NCoef="0" IVar="9" Cut="-1.9983335733413696e+00" cType="1" res="-2.0059850066900253e-03" rms="2.5263476371765137e-01" purity="5.0288099050521851e-01" nType="0">
        <Node pos="l" depth="1" NCoef="0" IVar="-1" Cut="0.0000000000000000e+00" cType="1" res="3.5587724298238754e-02" rms="2.7560040354728699e-01" purity="2.4418149888515472e-01" nType="-99"/>
        <Node pos="r" depth="1" NCoef="0" IVar="1" Cut="4.2563121765851974e-02" cType="1" res="-2.8015286661684513e-03" rms="2.5181874632835388e-01" purity="5.1122754812240601e-01" nType="0">
          <Node pos="l" depth="2" NCoef="0" IVar="9" Cut="-6.2756663560867310e-01" cType="1" res="2.7011316269636154e-03" rms="2.3114019632339478e-01" purity="1.9333580136299133e-01" nType="0">
            <Node pos="l" depth="3" NCoef="0" IVar="-1" Cut="0.0000000000000000e+00" cType="1" res="-2.1124918013811111e-02" rms="2.0835281908512115e-01" purity="1.4740724861621857e-01" nType="-99"/>
            <Node pos="r" depth="3" NCoef="0" IVar="-1" Cut="0.0000000000000000e+00" cType="1" res="1.5051119960844517e-02" rms="2.3997530341148376e-01" purity="2.1293970942497253e-01" nType="-99"/>
          </Node>
          <Node pos="r" depth="2" NCoef="0" IVar="5" Cut="1.7648397827148438e+02" cType="1" res="-5.6580966338515282e-03" rms="2.6186493039131165e-01" purity="6.7625308036804199e-01" nType="0">
            <Node pos="l" depth="3" NCoef="0" IVar="-1" Cut="0.0000000000000000e+00" cType="1" res="-1.2890894897282124e-02" rms="3.0771613121032715e-01" purity="3.8995316624641418e-01" nType="-99"/>
            <Node pos="r" depth="3" NCoef="0" IVar="-1" Cut="0.0000000000000000e+00" cType="1" res="-7.8224507160484791e-04" rms="2.1730476617813110e-01" purity="9.0964299440383911e-01" nType="-99"/>
          </Node>
        </Node>
      </Node>
    </BinaryTree>
    <BinaryTree type="DecisionTree" boostWeight="1.0000000000000000e+00" itree="152">
      <Node pos="s" depth="0" NCoef="0" IVar="9" Cut="9.3330574035644531e-01" cType="1" res="-2.5609142612665892e-03" rms="2.4637264013290405e-01" purity="5.0352597236633301e-01" nType="0">
        <Node pos="l" depth="1" NCoef="0" IVar="8" Cut="-1.7334305047988892e+00" cType="1" res="-1.3046097592450678e-04" rms="2.4354636669158936e-01" purity="5.2962678670883179e-01" nType="0">
          <Node pos="l" depth="2" NCoef="0" IVar="-1" Cut="0.0000000000000000e+00" cType="1" res="-4.5101519674062729e-02" rms="2.1317930519580841e-01" purity="1.3405662775039673e-01" nType="-99"/>
          <Node pos="r" depth="2" NCoef="0" IVar="0" Cut="3.3550942382812500e+03" cType="1" res="1.0671160416677594e-03" rms="2.4495130777359009e-01" purity="5.5003482103347778e-01" nType="0">
            <Node pos="l" depth="3" NCoef="0" IVar="-1" Cut="0.0000000000000000e+00" cType="1" res="-3.1016155844554305e-04" rms="2.5210750102996826e-01" purity="5.1669466495513916e-01" nType="-99"/>
            <Node pos="r" depth="3" NCoef="0" IVar="-1" Cut="0.0000000000000000e+00" cType="1" res="6.6206827759742737e-02" rms="1.1511438339948654e-01" purity="9.8545384407043457e-01" nType="-99"/>
          </Node>
        </Node>
        <Node pos="r" depth="1" NCoef="0" IVar="0" Cut="1.6473671875000000e+03" cType="1" res="-1.2088590301573277e-02" rms="2.5693100690841675e-01" purity="4.0120753645896912e-01" nType="0">
          <Node pos="l" depth="2" NCoef="0" IVar="9" Cut="1.3763176202774048e+00" cType="1" res="-8.6929782992228866e-04" rms="1.7631350457668304e-01" purity="3.4884393215179443e-02" nType="0">
            <Node pos="l" depth="3" NCoef="0" IVar="-1" Cut="0.0000000000000000e+00" cType="1" res="-3.8146257400512695e-02" rms="1.5749832987785339e-01" purity="2.5241959840059280e-02" nType="-99"/>
            <Node pos="r" depth="3" NCoef="0" IVar="-1" Cut="0.0000000000000000e+00" cType="1" res="2.3645913228392601e-02" rms="1.8746386468410492e-01" purity="4.1360877454280853e-02" nType="-99"/>
          </Node>
          <Node pos="r" depth="2" NCoef="0" IVar="4" Cut="2.0665208435058594e+02" cType="1" res="-1.7613289877772331e-02" rms="2.8830561041831970e-01" purity="5.8159548044204712e-01" nType="0">
            <Node pos="l" depth="3" NCoef="0" IVar="-1" Cut="0.0000000000000000e+00" cType="1" res="-3.2079353928565979e-02" rms="3.0810755491256714e-01" purity="2.8553348779678345e-01" nType="-99"/>
            <Node pos="r" depth="3" NCoef="0" IVar="-1" Cut="0.0000000000000000e+00" cType="1" res="-1.4384562149643898e-02" rms="2.7724233269691467e-01" purity="7.3512750864028931e-01" nType="-99"/>
          </Node>
        </Node>
      </Node>
    </BinaryTree>
    <BinaryTree type="DecisionTree" boostWeight="1.0000000000000000e+00" itree="153">
      <Node pos="s" depth="0" NCoef="0" IVar="4" Cut="2.8962075805664062e+02" cType="1" res="1.6533621237613261e-04" rms="2.4880160391330719e-01" purity="4.9853932857513428e-01" nType="0">
        <Node pos="l" depth="1" NCoef="0" IVar="9" Cut="1.4667046070098877e+00" cType="1" res="2.4481744039803743e-03" rms="2.6235526800155640e-01" purity="3.4498357772827148e-01" nType="0">
          <Node pos="l" depth="2" NCoef="0" IVar="9" Cut="1.2635023593902588e+00" cType="1" res="4.1661816649138927e-03" rms="2.6427856087684631e-01" purity="3.6345195770263672e-01" nType="0">
            <Node pos="l" depth="3" NCoef="0" IVar="-1" Cut="0.0000000000000000e+00" cType="1" res="3.8713540416210890e-03" rms="2.6184344291687012e-01" purity="3.6337688565254211e-01" nType="-99"/>
            <Node pos="r" depth="3" NCoef="0" IVar="-1" Cut="0.0000000000000000e+00" cType="1" res="4.9287922680377960e-02" rms="3.1124347448348999e-01" purity="3.6510163545608521e-01" nType="-99"/>
          </Node>
          <Node pos="r" depth="2" NCoef="0" IVar="8" Cut="6.7096501588821411e-01" cType="1" res="-1.0962943546473980e-02" rms="2.4641561508178711e-01" purity="2.0081564784049988e-01" nType="0">
            <Node pos="l" depth="3" NCoef="0" IVar="-1" Cut="0.0000000000000000e+00" cType="1" res="-3.3282056450843811e-02" rms="2.4396976828575134e-01" purity="2.0112513005733490e-01" nType="-99"/>
            <Node pos="r" depth="3" NCoef="0" IVar="-1" Cut="0.0000000000000000e+00" cType="1" res="2.1701809018850327e-02" rms="2.4925684928894043e-01" purity="2.0022377371788025e-01" nType="-99"/>
          </Node>
        </Node>
        <Node pos="r" depth="1" NCoef="0" IVar="7" Cut="4.0679049491882324e-01" cType="1" res="-5.7138730771839619e-03" rms="2.0978991687297821e-01" purity="8.9400589466094971e-01" nType="0">
          <Node pos="l" depth="2" NCoef="0" IVar="8" Cut="3.7003043293952942e-01" cType="1" res="7.4670894537121058e-04" rms="1.9021725654602051e-01" purity="9.1213190555572510e-01" nType="0">
            <Node pos="l" depth="3" NCoef="0" IVar="-1" Cut="0.0000000000000000e+00" cType="1" res="1.3675457797944546e-02" rms="1.8239201605319977e-01" purity="9.2171591520309448e-01" nType="-99"/>
            <Node pos="r" depth="3" NCoef="0" IVar="-1" Cut="0.0000000000000000e+00" cType="1" res="-2.1684050559997559e-02" rms="2.0682615041732788e-01" purity="8.8991248607635498e-01" nType="-99"/>
          </Node>
          <Node pos="r" depth="2" NCoef="0" IVar="0" Cut="2.7001926269531250e+03" cType="1" res="-2.3413186892867088e-02" rms="2.5501561164855957e-01" purity="8.4434819221496582e-01" nType="0">
            <Node pos="l" depth="3" NCoef="0" IVar="-1" Cut="0.0000000000000000e+00" cType="1" res="-4.6253032982349396e-02" rms="3.2441648840904236e-01" purity="7.1512335538864136e-01" nType="-99"/>
            <Node pos="r" depth="3" NCoef="0" IVar="-1" Cut="0.0000000000000000e+00" cType="1" res="-3.3095870167016983e-02" rms="1.7788201570510864e-01" purity="9.5022976398468018e-01" nType="-99"/>
          </Node>
        </Node>
      </Node>
    </BinaryTree>
    <BinaryTree type="DecisionTree" boostWeight="1.0000000000000000e+00" itree="154">
      <Node pos="s" depth="0" NCoef="0" IVar="2" Cut="9.3066601562500000e+02" cType="1" res="-5.7086010929197073e-04" rms="2.5272205471992493e-01" purity="5.0278991460800171e-01" nType="0">
        <Node pos="l" depth="1" NCoef="0" IVar="9" Cut="-3.9908272027969360e-01" cType="1" res="4.8227896331809461e-04" rms="2.5052767992019653e-01" purity="4.9374297261238098e-01" nType="0">
          <Node pos="l" depth="2" NCoef="0" IVar="7" Cut="-9.3181896209716797e-01" cType="1" res="6.2221284024417400e-03" rms="2.6198124885559082e-01" purity="4.7699379920959473e-01" nType="0">
            <Node pos="l" depth="3" NCoef="0" IVar="-1" Cut="0.0000000000000000e+00" cType="1" res="-1.6115302219986916e-02" rms="2.4827879667282104e-01" purity="2.6601642370223999e-01" nType="-99"/>
            <Node pos="r" depth="3" NCoef="0" IVar="-1" Cut="0.0000000000000000e+00" cType="1" res="1.4710211195051670e-02" rms="2.6495462656021118e-01" purity="5.2653765678405762e-01" nType="-99"/>
          </Node>
          <Node pos="r" depth="2" NCoef="0" IVar="8" Cut="-1.7329754829406738e+00" cType="1" res="-2.8957752510905266e-03" rms="2.4347203969955444e-01" purity="5.0360029935836792e-01" nType="0">
            <Node pos="l" depth="3" NCoef="0" IVar="-1" Cut="0.0000000000000000e+00" cType="1" res="4.9856439232826233e-02" rms="2.6374650001525879e-01" purity="1.7396631836891174e-01" nType="-99"/>
            <Node pos="r" depth="3" NCoef="0" IVar="-1" Cut="0.0000000000000000e+00" cType="1" res="-7.3296506889164448e-03" rms="2.4226552248001099e-01" purity="5.2078431844711304e-01" nType="-99"/>
          </Node>
        </Node>
        <Node pos="r" depth="1" NCoef="0" IVar="-1" Cut="0.0000000000000000e+00" cType="1" res="-3.2677292823791504e-02" rms="3.0454349517822266e-01" purity="7.4619269371032715e-01" nType="-99"/>
      </Node>
    </BinaryTree>
    <BinaryTree type="DecisionTree" boostWeight="1.0000000000000000e+00" itree="155">
      <Node pos="s" depth="0" NCoef="0" IVar="0" Cut="1.6472932128906250e+03" cType="1" res="3.5456640180200338e-03" rms="2.4899861216545105e-01" purity="5.0374138355255127e-01" nType="0">
        <Node pos="l" depth="1" NCoef="0" IVar="2" Cut="3.1419360351562500e+02" cType="1" res="-2.9026102274656296e-03" rms="1.6616690158843994e-01" purity="3.1847339123487473e-02" nType="0">
          <Node pos="l" depth="2" NCoef="0" IVar="3" Cut="2.3474992370605469e+02" cType="1" res="1.0592835955321789e-02" rms="2.4563579261302948e-01" purity="7.3563359677791595e-02" nType="0">
            <Node pos="l" depth="3" NCoef="0" IVar="-1" Cut="0.0000000000000000e+00" cType="1" res="5.1860459148883820e-02" rms="2.8117617964744568e-01" purity="9.7416244447231293e-02" nType="-99"/>
            <Node pos="r" depth="3" NCoef="0" IVar="-1" Cut="0.0000000000000000e+00" cType="1" res="-2.2081065922975540e-02" rms="1.9616235792636871e-01" purity="4.6853743493556976e-02" nType="-99"/>
          </Node>
          <Node pos="r" depth="2" NCoef="0" IVar="1" Cut="4.9097903072834015e-02" cType="1" res="-7.4151596054434776e-03" rms="1.2879270315170288e-01" purity="1.7898514866828918e-02" nType="0">
            <Node pos="l" depth="3" NCoef="0" IVar="-1" Cut="0.0000000000000000e+00" cType="1" res="-2.9350545257329941e-02" rms="9.0750642120838165e-02" purity="8.4624066948890686e-03" nType="-99"/>
            <Node pos="r" depth="3" NCoef="0" IVar="-1" Cut="0.0000000000000000e+00" cType="1" res="-3.3531710505485535e-02" rms="1.8520489335060120e-01" purity="3.8034625351428986e-02" nType="-99"/>
          </Node>
        </Node>
        <Node pos="r" depth="1" NCoef="0" IVar="3" Cut="2.3945591735839844e+02" cType="1" res="5.9763244353234768e-03" rms="2.7375450730323792e-01" purity="6.8162065744400024e-01" nType="0">
          <Node pos="l" depth="2" NCoef="0" IVar="5" Cut="1.3211831665039062e+02" cType="1" res="-1.0878754779696465e-02" rms="3.1486114859580994e-01" purity="2.9143559932708740e-01" nType="0">
            <Node pos="l" depth="3" NCoef="0" IVar="-1" Cut="0.0000000000000000e+00" cType="1" res="1.1777650564908981e-02" rms="3.0028957128524780e-01" purity="1.6466236114501953e-01" nType="-99"/>
            <Node pos="r" depth="3" NCoef="0" IVar="-1" Cut="0.0000000000000000e+00" cType="1" res="-2.7042236179113388e-02" rms="3.2662373781204224e-01" purity="4.0870854258537292e-01" nType="-99"/>
          </Node>
          <Node pos="r" depth="2" NCoef="0" IVar="9" Cut="-1.4662902355194092e+00" cType="1" res="8.0302171409130096e-03" rms="2.6824289560317993e-01" purity="7.2916704416275024e-01" nType="0">
            <Node pos="l" depth="3" NCoef="0" IVar="-1" Cut="0.0000000000000000e+00" cType="1" res="3.2615575939416885e-02" rms="3.2877448201179504e-01" purity="5.5337297916412354e-01" nType="-99"/>
            <Node pos="r" depth="3" NCoef="0" IVar="-1" Cut="0.0000000000000000e+00" cType="1" res="8.5516767576336861e-03" rms="2.6216396689414978e-01" purity="7.4460089206695557e-01" nType="-99"/>
          </Node>
        </Node>
      </Node>
    </BinaryTree>
    <BinaryTree type="DecisionTree" boostWeight="1.0000000000000000e+00" itree="156">
      <Node pos="s" depth="0" NCoef="0" IVar="4" Cut="1.9159489440917969e+02" cType="1" res="-4.1524428525008261e-04" rms="2.5611466169357300e-01" purity="5.0579333305358887e-01" nType="0">
        <Node pos="l" depth="1" NCoef="0" IVar="1" Cut="7.3739506304264069e-02" cType="1" res="5.2242209203541279e-03" rms="2.4334380030632019e-01" purity="1.5769906342029572e-01" nType="0">
          <Node pos="l" depth="2" NCoef="0" IVar="7" Cut="1.3371255993843079e-01" cType="1" res="-1.4810850843787193e-03" rms="2.0872133970260620e-01" purity="9.1820925474166870e-02" nType="0">
            <Node pos="l" depth="3" NCoef="0" IVar="-1" Cut="0.0000000000000000e+00" cType="1" res="1.5501847490668297e-02" rms="2.2281038761138916e-01" purity="9.5588535070419312e-02" nType="-99"/>
            <Node pos="r" depth="3" NCoef="0" IVar="-1" Cut="0.0000000000000000e+00" cType="1" res="-2.4377558380365372e-02" rms="1.9092340767383575e-01" purity="8.7516598403453827e-02" nType="-99"/>
          </Node>
          <Node pos="r" depth="2" NCoef="0" IVar="4" Cut="1.5475643920898438e+02" cType="1" res="2.6634400710463524e-02" rms="3.2953017950057983e-01" purity="3.6804932355880737e-01" nType="0">
            <Node pos="l" depth="3" NCoef="0" IVar="-1" Cut="0.0000000000000000e+00" cType="1" res="2.2728419862687588e-03" rms="2.8573262691497803e-01" purity="1.8603327870368958e-01" nType="-99"/>
            <Node pos="r" depth="3" NCoef="0" IVar="-1" Cut="0.0000000000000000e+00" cType="1" res="3.7921484559774399e-02" rms="3.5542526841163635e-01" purity="4.9260428547859192e-01" nType="-99"/>
          </Node>
        </Node>
        <Node pos="r" depth="1" NCoef="0" IVar="1" Cut="1.9939159974455833e-02" cType="1" res="-3.5283772740513086e-03" rms="2.6284703612327576e-01" purity="6.9795054197311401e-01" nType="0">
          <Node pos="l" depth="2" NCoef="0" IVar="0" Cut="1.8641035156250000e+03" cType="1" res="1.8602255731821060e-02" rms="2.6513618230819702e-01" purity="2.3875032365322113e-01" nType="0">
            <Node pos="l" depth="3" NCoef="0" IVar="-1" Cut="0.0000000000000000e+00" cType="1" res="1.5520554967224598e-02" rms="1.3507719337940216e-01" purity="2.5140561163425446e-02" nType="-99"/>
            <Node pos="r" depth="3" NCoef="0" IVar="-1" Cut="0.0000000000000000e+00" cType="1" res="2.7391877025365829e-02" rms="3.4603738784790039e-01" purity="4.4351261854171753e-01" nType="-99"/>
          </Node>
          <Node pos="r" depth="2" NCoef="0" IVar="5" Cut="1.0736244201660156e+02" cType="1" res="-5.7327132672071457e-03" rms="2.6251578330993652e-01" purity="7.4368941783905029e-01" nType="0">
            <Node pos="l" depth="3" NCoef="0" IVar="-1" Cut="0.0000000000000000e+00" cType="1" res="2.7275109663605690e-02" rms="3.0671048164367676e-01" purity="2.7017369866371155e-01" nType="-99"/>
            <Node pos="r" depth="3" NCoef="0" IVar="-1" Cut="0.0000000000000000e+00" cType="1" res="-1.1171798221766949e-02" rms="2.5967547297477722e-01" purity="7.7059006690979004e-01" nType="-99"/>
          </Node>
        </Node>
      </Node>
    </BinaryTree>
    <BinaryTree type="DecisionTree" boostWeight="1.0000000000000000e+00" itree="157">
      <Node pos="s" depth="0" NCoef="0" IVar="5" Cut="1.5624353027343750e+02" cType="1" res="1.0599169763736427e-04" rms="2.4897325038909912e-01" purity="4.9946963787078857e-01" nType="0">
        <Node pos="l" depth="1" NCoef="0" IVar="9" Cut="-1.3305456936359406e-01" cType="1" res="-4.6683601103723049e-03" rms="2.5271856784820557e-01" purity="1.9188316166400909e-01" nType="0">
          <Node pos="l" depth="2" NCoef="0" IVar="2" Cut="7.3537255859375000e+02" cType="1" res="-1.2231776490807533e-02" rms="2.4956628680229187e-01" purity="1.8798977136611938e-01" nType="0">
            <Node pos="l" depth="3" NCoef="0" IVar="-1" Cut="0.0000000000000000e+00" cType="1" res="-1.2546244077384472e-02" rms="2.4090851843357086e-01" purity="1.7093069851398468e-01" nType="-99"/>
            <Node pos="r" depth="3" NCoef="0" IVar="-1" Cut="0.0000000000000000e+00" cType="1" res="-4.7704324126243591e-02" rms="3.0694362521171570e-01" purity="3.2203853130340576e-01" nType="-99"/>
          </Node>
          <Node pos="r" depth="2" NCoef="0" IVar="4" Cut="2.5094816589355469e+02" cType="1" res="1.8830364570021629e-03" rms="2.5523656606674194e-01" purity="1.9525560736656189e-01" nType="0">
            <Node pos="l" depth="3" NCoef="0" IVar="-1" Cut="0.0000000000000000e+00" cType="1" res="-2.4302206002175808e-03" rms="2.4622666835784912e-01" purity="1.4660203456878662e-01" nType="-99"/>
            <Node pos="r" depth="3" NCoef="0" IVar="-1" Cut="0.0000000000000000e+00" cType="1" res="2.5201220065355301e-02" rms="3.1308218836784363e-01" purity="5.5671513080596924e-01" nType="-99"/>
          </Node>
        </Node>
        <Node pos="r" depth="1" NCoef="0" IVar="4" Cut="2.8348181152343750e+02" cType="1" res="4.5871376059949398e-03" rms="2.4532140791416168e-01" purity="7.8816640377044678e-01" nType="0">
          <Node pos="l" depth="2" NCoef="0" IVar="6" Cut="1.0176967382431030e+00" cType="1" res="9.9938828498125076e-03" rms="2.9268074035644531e-01" purity="6.3479870557785034e-01" nType="0">
            <Node pos="l" depth="3" NCoef="0" IVar="-1" Cut="0.0000000000000000e+00" cType="1" res="7.4130557477474213e-03" rms="2.8907960653305054e-01" purity="6.7014092206954956e-01" nType="-99"/>
            <Node pos="r" depth="3" NCoef="0" IVar="-1" Cut="0.0000000000000000e+00" cType="1" res="4.0953636169433594e-02" rms="3.1818804144859314e-01" purity="3.5745453834533691e-01" nType="-99"/>
          </Node>
          <Node pos="r" depth="2" NCoef="0" IVar="0" Cut="2.5255356445312500e+03" cType="1" res="-6.9766415981575847e-04" rms="1.8767347931861877e-01" purity="9.3807506561279297e-01" nType="0">
            <Node pos="l" depth="3" NCoef="0" IVar="-1" Cut="0.0000000000000000e+00" cType="1" res="-1.3374973088502884e-02" rms="3.0287420749664307e-01" purity="8.0508422851562500e-01" nType="-99"/>
            <Node pos="r" depth="3" NCoef="0" IVar="-1" Cut="0.0000000000000000e+00" cType="1" res="1.0713292285799980e-02" rms="1.3896751403808594e-01" purity="9.7540748119354248e-01" nType="-99"/>
          </Node>
        </Node>
      </Node>
    </BinaryTree>
    <BinaryTree type="DecisionTree" boostWeight="1.0000000000000000e+00" itree="158">
      <Node pos="s" depth="0" NCoef="0" IVar="8" Cut="-1.4667003154754639e+00" cType="1" res="-4.9519608728587627e-04" rms="2.4689751863479614e-01" purity="5.0213986635208130e-01" nType="0">
        <Node pos="l" depth="1" NCoef="0" IVar="0" Cut="1.7974592285156250e+03" cType="1" res="1.8249575048685074e-02" rms="2.6900357007980347e-01" purity="2.4563464522361755e-01" nType="0">
          <Node pos="l" depth="2" NCoef="0" IVar="-1" Cut="0.0000000000000000e+00" cType="1" res="1.3275318779051304e-02" rms="1.7439714074134827e-01" purity="3.6286208778619766e-02" nType="-99"/>
          <Node pos="r" depth="2" NCoef="0" IVar="-1" Cut="0.0000000000000000e+00" cType="1" res="3.3300481736660004e-02" rms="3.6649602651596069e-01" purity="5.5880039930343628e-01" nType="-99"/>
        </Node>
        <Node pos="r" depth="1" NCoef="0" IVar="7" Cut="1.4670256376266479e+00" cType="1" res="-2.1026264876127243e-03" rms="2.4484217166900635e-01" purity="5.2413612604141235e-01" nType="0">
          <Node pos="l" depth="2" NCoef="0" IVar="1" Cut="2.0812092348933220e-02" cType="1" res="-1.0109989671036601e-03" rms="2.4737918376922607e-01" purity="5.5228465795516968e-01" nType="0">
            <Node pos="l" depth="3" NCoef="0" IVar="-1" Cut="0.0000000000000000e+00" cType="1" res="-2.1263942122459412e-02" rms="1.9027759134769440e-01" purity="1.1888962984085083e-01" nType="-99"/>
            <Node pos="r" depth="3" NCoef="0" IVar="-1" Cut="0.0000000000000000e+00" cType="1" res="6.0567696345970035e-04" rms="2.5612983107566833e-01" purity="6.2892735004425049e-01" nType="-99"/>
          </Node>
          <Node pos="r" depth="2" NCoef="0" IVar="3" Cut="2.5314865112304688e+02" cType="1" res="-1.7942314967513084e-02" rms="2.0386192202568054e-01" purity="1.1569641530513763e-01" nType="0">
            <Node pos="l" depth="3" NCoef="0" IVar="-1" Cut="0.0000000000000000e+00" cType="1" res="1.9895704463124275e-02" rms="1.9515857100486755e-01" purity="7.6533764600753784e-02" nType="-99"/>
            <Node pos="r" depth="3" NCoef="0" IVar="-1" Cut="0.0000000000000000e+00" cType="1" res="-7.4124738574028015e-02" rms="2.0934890210628510e-01" purity="1.5560033917427063e-01" nType="-99"/>
          </Node>
        </Node>
      </Node>
    </BinaryTree>
    <BinaryTree type="DecisionTree" boostWeight="1.0000000000000000e+00" itree="159">
      <Node pos="s" depth="0" NCoef="0" IVar="9" Cut="-9.3274396657943726e-01" cType="1" res="-2.6335890652262606e-05" rms="2.4823354184627533e-01" purity="5.0101351737976074e-01" nType="0">
        <Node pos="l" depth="1" NCoef="0" IVar="0" Cut="1.6343448486328125e+03" cType="1" res="8.3667263388633728e-03" rms="2.6210775971412659e-01" purity="4.1239959001541138e-01" nType="0">
          <Node pos="l" depth="2" NCoef="0" IVar="9" Cut="-1.6427198648452759e+00" cType="1" res="-4.9590445123612881e-03" rms="1.6539025306701660e-01" purity="2.9648246243596077e-02" nType="0">
            <Node pos="l" depth="3" NCoef="0" IVar="-1" Cut="0.0000000000000000e+00" cType="1" res="-4.8468675464391708e-02" rms="1.5585535764694214e-01" purity="2.4211402982473373e-02" nType="-99"/>
            <Node pos="r" depth="3" NCoef="0" IVar="-1" Cut="0.0000000000000000e+00" cType="1" res="1.0467476211488247e-02" rms="1.7068481445312500e-01" purity="3.3085931092500687e-02" nType="-99"/>
          </Node>
          <Node pos="r" depth="2" NCoef="0" IVar="0" Cut="2.7498718261718750e+03" cType="1" res="1.4847860671579838e-02" rms="2.9779428243637085e-01" purity="5.9855479001998901e-01" nType="0">
            <Node pos="l" depth="3" NCoef="0" IVar="-1" Cut="0.0000000000000000e+00" cType="1" res="2.1557744592428207e-02" rms="3.1826162338256836e-01" purity="5.0966250896453857e-01" nType="-99"/>
            <Node pos="r" depth="3" NCoef="0" IVar="-1" Cut="0.0000000000000000e+00" cType="1" res="-2.5614662095904350e-02" rms="1.9926603138446808e-01" purity="9.3862587213516235e-01" nType="-99"/>
          </Node>
        </Node>
        <Node pos="r" depth="1" NCoef="0" IVar="8" Cut="6.6630494594573975e-01" cType="1" res="-2.2951872088015079e-03" rms="2.4429827928543091e-01" purity="5.2496796846389771e-01" nType="0">
          <Node pos="l" depth="2" NCoef="0" IVar="2" Cut="8.8726977539062500e+02" cType="1" res="6.7950040102005005e-04" rms="2.4163275957107544e-01" purity="5.6028956174850464e-01" nType="0">
            <Node pos="l" depth="3" NCoef="0" IVar="-1" Cut="0.0000000000000000e+00" cType="1" res="-7.3252368019893765e-04" rms="2.4124293029308319e-01" purity="5.4431539773941040e-01" nType="-99"/>
            <Node pos="r" depth="3" NCoef="0" IVar="-1" Cut="0.0000000000000000e+00" cType="1" res="2.6780821382999420e-02" rms="2.4746868014335632e-01" purity="8.3503401279449463e-01" nType="-99"/>
          </Node>
          <Node pos="r" depth="2" NCoef="0" IVar="2" Cut="4.2138284301757812e+02" cType="1" res="-1.0624609887599945e-02" rms="2.5142461061477661e-01" purity="4.2606407403945923e-01" nType="0">
            <Node pos="l" depth="3" NCoef="0" IVar="-1" Cut="0.0000000000000000e+00" cType="1" res="-3.1311038881540298e-02" rms="2.6096367835998535e-01" purity="2.4291752278804779e-01" nType="-99"/>
            <Node pos="r" depth="3" NCoef="0" IVar="-1" Cut="0.0000000000000000e+00" cType="1" res="-8.1951580941677094e-03" rms="2.4656385183334351e-01" purity="5.1326352357864380e-01" nType="-99"/>
          </Node>
        </Node>
      </Node>
    </BinaryTree>
    <BinaryTree type="DecisionTree" boostWeight="1.0000000000000000e+00" itree="160">
      <Node pos="s" depth="0" NCoef="0" IVar="9" Cut="9.3330168724060059e-01" cType="1" res="2.1839686669409275e-03" rms="2.5194421410560608e-01" purity="5.0653445720672607e-01" nType="0">
        <Node pos="l" depth="1" NCoef="0" IVar="9" Cut="-1.3769401311874390e+00" cType="1" res="3.3547839848324656e-04" rms="2.4915057420730591e-01" purity="5.3009760379791260e-01" nType="0">
          <Node pos="l" depth="2" NCoef="0" IVar="5" Cut="1.6452986145019531e+02" cType="1" res="1.0105618275702000e-02" rms="2.8662234544754028e-01" purity="3.7088322639465332e-01" nType="0">
            <Node pos="l" depth="3" NCoef="0" IVar="-1" Cut="0.0000000000000000e+00" cType="1" res="3.2582070678472519e-02" rms="2.7838900685310364e-01" purity="2.4022595584392548e-01" nType="-99"/>
            <Node pos="r" depth="3" NCoef="0" IVar="-1" Cut="0.0000000000000000e+00" cType="1" res="-2.0070018246769905e-02" rms="3.0215400457382202e-01" purity="6.5701156854629517e-01" nType="-99"/>
          </Node>
          <Node pos="r" depth="2" NCoef="0" IVar="4" Cut="1.3904237365722656e+02" cType="1" res="-1.2296917848289013e-03" rms="2.4257378280162811e-01" purity="5.5560362339019775e-01" nType="0">
            <Node pos="l" depth="3" NCoef="0" IVar="-1" Cut="0.0000000000000000e+00" cType="1" res="-4.3183784931898117e-02" rms="1.6682204604148865e-01" purity="4.3605078011751175e-02" nType="-99"/>
            <Node pos="r" depth="3" NCoef="0" IVar="-1" Cut="0.0000000000000000e+00" cType="1" res="1.1107061291113496e-03" rms="2.5130450725555420e-01" purity="6.2729990482330322e-01" nType="-99"/>
          </Node>
        </Node>
        <Node pos="r" depth="1" NCoef="0" IVar="9" Cut="1.3775783777236938e+00" cType="1" res="9.1450829058885574e-03" rms="2.6208063960075378e-01" purity="4.1779968142509460e-01" nType="0">
          <Node pos="l" depth="2" NCoef="0" IVar="3" Cut="2.7931063842773438e+02" cType="1" res="1.7328230664134026e-02" rms="2.6451063156127930e-01" purity="5.4037338495254517e-01" nType="0">
            <Node pos="l" depth="3" NCoef="0" IVar="-1" Cut="0.0000000000000000e+00" cType="1" res="6.1119891703128815e-02" rms="3.0185794830322266e-01" purity="2.7228325605392456e-01" nType="-99"/>
            <Node pos="r" depth="3" NCoef="0" IVar="-1" Cut="0.0000000000000000e+00" cType="1" res="7.6397336088120937e-03" rms="2.4031868577003479e-01" purity="6.8961089849472046e-01" nType="-99"/>
          </Node>
          <Node pos="r" depth="2" NCoef="0" IVar="8" Cut="4.0866929292678833e-01" cType="1" res="2.3352317512035370e-03" rms="2.5984475016593933e-01" purity="3.1579625606536865e-01" nType="0">
            <Node pos="l" depth="3" NCoef="0" IVar="-1" Cut="0.0000000000000000e+00" cType="1" res="2.3909037932753563e-02" rms="2.5454851984977722e-01" purity="3.3069387078285217e-01" nType="-99"/>
            <Node pos="r" depth="3" NCoef="0" IVar="-1" Cut="0.0000000000000000e+00" cType="1" res="-2.9581859707832336e-02" rms="2.6751470565795898e-01" purity="2.8845503926277161e-01" nType="-99"/>
          </Node>
        </Node>
      </Node>
    </BinaryTree>
    <BinaryTree type="DecisionTree" boostWeight="1.0000000000000000e+00" itree="161">
      <Node pos="s" depth="0" NCoef="0" IVar="2" Cut="3.1497167968750000e+02" cType="1" res="-1.1752831051126122e-03" rms="2.5132954120635986e-01" purity="5.0025540590286255e-01" nType="0">
        <Node pos="l" depth="1" NCoef="0" IVar="2" Cut="2.9316085815429688e+02" cType="1" res="-1.4168210327625275e-02" rms="2.5594696402549744e-01" purity="1.7860458791255951e-01" nType="0">
          <Node pos="l" depth="2" NCoef="0" IVar="8" Cut="-1.2461622804403305e-01" cType="1" res="-6.1939895385876298e-04" rms="2.6347532868385315e-01" purity="1.8186458945274353e-01" nType="0">
            <Node pos="l" depth="3" NCoef="0" IVar="-1" Cut="0.0000000000000000e+00" cType="1" res="-2.7664376422762871e-02" rms="2.5071793794631958e-01" purity="1.4903512597084045e-01" nType="-99"/>
            <Node pos="r" depth="3" NCoef="0" IVar="-1" Cut="0.0000000000000000e+00" cType="1" res="2.0674655213952065e-02" rms="2.7281096577644348e-01" purity="2.0984034240245819e-01" nType="-99"/>
          </Node>
          <Node pos="r" depth="2" NCoef="0" IVar="-1" Cut="0.0000000000000000e+00" cType="1" res="-5.6873667985200882e-02" rms="2.3845748603343964e-01" purity="1.7227087914943695e-01" nType="-99"/>
        </Node>
        <Node pos="r" depth="1" NCoef="0" IVar="8" Cut="9.3321973085403442e-01" cType="1" res="8.4293205873109400e-05" rms="2.5084158778190613e-01" purity="5.3143727779388428e-01" nType="0">
          <Node pos="l" depth="2" NCoef="0" IVar="1" Cut="1.9111154973506927e-01" cType="1" res="-1.6082889633253217e-03" rms="2.4770978093147278e-01" purity="5.5635672807693481e-01" nType="0">
            <Node pos="l" depth="3" NCoef="0" IVar="-1" Cut="0.0000000000000000e+00" cType="1" res="-4.6397470869123936e-03" rms="2.5412094593048096e-01" purity="5.1565003395080566e-01" nType="-99"/>
            <Node pos="r" depth="3" NCoef="0" IVar="-1" Cut="0.0000000000000000e+00" cType="1" res="2.8566095978021622e-02" rms="1.7844754457473755e-01" purity="9.2776978015899658e-01" nType="-99"/>
          </Node>
          <Node pos="r" depth="2" NCoef="0" IVar="7" Cut="6.7090737819671631e-01" cType="1" res="8.0861281603574753e-03" rms="2.6500084996223450e-01" purity="4.1362825036048889e-01" nType="0">
            <Node pos="l" depth="3" NCoef="0" IVar="-1" Cut="0.0000000000000000e+00" cType="1" res="2.1598577499389648e-02" rms="2.7983501553535461e-01" purity="4.6807643771171570e-01" nType="-99"/>
            <Node pos="r" depth="3" NCoef="0" IVar="-1" Cut="0.0000000000000000e+00" cType="1" res="-1.5821192413568497e-02" rms="2.2512173652648926e-01" purity="2.8486430644989014e-01" nType="-99"/>
          </Node>
        </Node>
      </Node>
    </BinaryTree>
    <BinaryTree type="DecisionTree" boostWeight="1.0000000000000000e+00" itree="162">
      <Node pos="s" depth="0" NCoef="0" IVar="6" Cut="-9.1560818254947662e-02" cType="1" res="-3.3880597911775112e-03" rms="2.4990081787109375e-01" purity="4.9160894751548767e-01" nType="0">
        <Node pos="l" depth="1" NCoef="0" IVar="2" Cut="6.3564434814453125e+02" cType="1" res="2.9756501317024231e-03" rms="2.5256752967834473e-01" purity="4.8649036884307861e-01" nType="0">
          <Node pos="l" depth="2" NCoef="0" IVar="9" Cut="-4.0264752507209778e-01" cType="1" res="-1.4037380460649729e-03" rms="2.5351768732070923e-01" purity="4.1615852713584900e-01" nType="0">
            <Node pos="l" depth="3" NCoef="0" IVar="-1" Cut="0.0000000000000000e+00" cType="1" res="-1.4671682380139828e-02" rms="2.5645199418067932e-01" purity="3.9093980193138123e-01" nType="-99"/>
            <Node pos="r" depth="3" NCoef="0" IVar="-1" Cut="0.0000000000000000e+00" cType="1" res="6.2925363890826702e-03" rms="2.5149196386337280e-01" purity="4.3215721845626831e-01" nType="-99"/>
          </Node>
          <Node pos="r" depth="2" NCoef="0" IVar="0" Cut="2.4760642089843750e+03" cType="1" res="1.6646301373839378e-02" rms="2.4908342957496643e-01" purity="7.0603764057159424e-01" nType="0">
            <Node pos="l" depth="3" NCoef="0" IVar="-1" Cut="0.0000000000000000e+00" cType="1" res="4.5592214912176132e-02" rms="3.1577935814857483e-01" purity="2.8764161467552185e-01" nType="-99"/>
            <Node pos="r" depth="3" NCoef="0" IVar="-1" Cut="0.0000000000000000e+00" cType="1" res="9.9722202867269516e-03" rms="2.0639750361442566e-01" purity="9.1741704940795898e-01" nType="-99"/>
          </Node>
        </Node>
        <Node pos="r" depth="1" NCoef="0" IVar="7" Cut="-9.3360948562622070e-01" cType="1" res="-8.5988389328122139e-03" rms="2.4757407605648041e-01" purity="4.9580019712448120e-01" nType="0">
          <Node pos="l" depth="2" NCoef="0" IVar="0" Cut="1.8458251953125000e+03" cType="1" res="-2.0557833835482597e-02" rms="2.4373975396156311e-01" purity="2.1742333471775055e-01" nType="0">
            <Node pos="l" depth="3" NCoef="0" IVar="-1" Cut="0.0000000000000000e+00" cType="1" res="9.2804683372378349e-03" rms="1.6858223080635071e-01" purity="3.8763254880905151e-02" nType="-99"/>
            <Node pos="r" depth="3" NCoef="0" IVar="-1" Cut="0.0000000000000000e+00" cType="1" res="-5.6986648589372635e-02" rms="3.3599242568016052e-01" purity="5.4159867763519287e-01" nType="-99"/>
          </Node>
          <Node pos="r" depth="2" NCoef="0" IVar="4" Cut="2.9225665283203125e+02" cType="1" res="-5.9379590675234795e-03" rms="2.4834086000919342e-01" purity="5.5773907899856567e-01" nType="0">
            <Node pos="l" depth="3" NCoef="0" IVar="-1" Cut="0.0000000000000000e+00" cType="1" res="-1.4611199498176575e-02" rms="2.7141895890235901e-01" purity="3.9496675133705139e-01" nType="-99"/>
            <Node pos="r" depth="3" NCoef="0" IVar="-1" Cut="0.0000000000000000e+00" cType="1" res="1.4215379022061825e-02" rms="1.8361677229404449e-01" purity="9.3459039926528931e-01" nType="-99"/>
          </Node>
        </Node>
      </Node>
    </BinaryTree>
    <BinaryTree type="DecisionTree" boostWeight="1.0000000000000000e+00" itree="163">
      <Node pos="s" depth="0" NCoef="0" IVar="1" Cut="1.0578554868698120e-01" cType="1" res="-1.6509778797626495e-03" rms="2.5034040212631226e-01" purity="5.0152325630187988e-01" nType="0">
        <Node pos="l" depth="1" NCoef="0" IVar="7" Cut="-6.6684037446975708e-01" cType="1" res="1.6964852111414075e-03" rms="2.5725364685058594e-01" purity="3.6368095874786377e-01" nType="0">
          <Node pos="l" depth="2" NCoef="0" IVar="4" Cut="1.9669194030761719e+02" cType="1" res="9.9893016740679741e-03" rms="2.5376120209693909e-01" purity="2.7840352058410645e-01" nType="0">
            <Node pos="l" depth="3" NCoef="0" IVar="-1" Cut="0.0000000000000000e+00" cType="1" res="5.2517089992761612e-02" rms="2.3894722759723663e-01" purity="1.1369706690311432e-01" nType="-99"/>
            <Node pos="r" depth="3" NCoef="0" IVar="-1" Cut="0.0000000000000000e+00" cType="1" res="-5.3524440154433250e-03" rms="2.6800772547721863e-01" purity="4.5541223883628845e-01" nType="-99"/>
          </Node>
          <Node pos="r" depth="2" NCoef="0" IVar="6" Cut="1.5036797523498535e+00" cType="1" res="-1.5634188894182444e-03" rms="2.5854080915451050e-01" purity="3.9720350503921509e-01" nType="0">
            <Node pos="l" depth="3" NCoef="0" IVar="-1" Cut="0.0000000000000000e+00" cType="1" res="-1.5209139382932335e-04" rms="2.6495897769927979e-01" purity="4.2132896184921265e-01" nType="-99"/>
            <Node pos="r" depth="3" NCoef="0" IVar="-1" Cut="0.0000000000000000e+00" cType="1" res="-6.3952915370464325e-02" rms="1.3809819519519806e-01" purity="5.7414945214986801e-02" nType="-99"/>
          </Node>
        </Node>
        <Node pos="r" depth="1" NCoef="0" IVar="0" Cut="2.1621047363281250e+03" cType="1" res="-8.8180042803287506e-03" rms="2.3469515144824982e-01" purity="7.9664814472198486e-01" nType="0">
          <Node pos="l" depth="2" NCoef="0" IVar="3" Cut="2.9611532592773438e+02" cType="1" res="-2.6898993179202080e-02" rms="3.5454481840133667e-01" purity="4.1056904196739197e-01" nType="0">
            <Node pos="l" depth="3" NCoef="0" IVar="-1" Cut="0.0000000000000000e+00" cType="1" res="-3.7717109080404043e-03" rms="3.4191310405731201e-01" purity="3.5835343599319458e-01" nType="-99"/>
            <Node pos="r" depth="3" NCoef="0" IVar="-1" Cut="0.0000000000000000e+00" cType="1" res="-4.2583655565977097e-02" rms="3.7118950486183167e-01" purity="4.9483960866928101e-01" nType="-99"/>
          </Node>
          <Node pos="r" depth="2" NCoef="0" IVar="3" Cut="4.4808489990234375e+02" cType="1" res="-4.7810905380174518e-04" rms="1.4929081499576569e-01" purity="9.7472792863845825e-01" nType="0">
            <Node pos="l" depth="3" NCoef="0" IVar="-1" Cut="0.0000000000000000e+00" cType="1" res="1.9585778936743736e-02" rms="1.3813960552215576e-01" purity="9.7871834039688110e-01" nType="-99"/>
            <Node pos="r" depth="3" NCoef="0" IVar="-1" Cut="0.0000000000000000e+00" cType="1" res="-4.3621119111776352e-02" rms="1.6565696895122528e-01" purity="9.6817058324813843e-01" nType="-99"/>
          </Node>
        </Node>
      </Node>
    </BinaryTree>
    <BinaryTree type="DecisionTree" boostWeight="1.0000000000000000e+00" itree="164">
      <Node pos="s" depth="0" NCoef="0" IVar="1" Cut="8.1834346055984497e-02" cType="1" res="1.5484045725315809e-03" rms="2.4958594143390656e-01" purity="5.0264394283294678e-01" nType="0">
        <Node pos="l" depth="1" NCoef="0" IVar="2" Cut="3.2211505126953125e+02" cType="1" res="6.4288266003131866e-03" rms="2.5513306260108948e-01" purity="3.1261429190635681e-01" nType="0">
          <Node pos="l" depth="2" NCoef="0" IVar="9" Cut="1.3996891677379608e-01" cType="1" res="-1.0066796094179153e-02" rms="2.0397202670574188e-01" purity="7.5512483716011047e-02" nType="0">
            <Node pos="l" depth="3" NCoef="0" IVar="-1" Cut="0.0000000000000000e+00" cType="1" res="-5.2300527691841125e-02" rms="1.6912485659122467e-01" purity="5.8208767324686050e-02" nType="-99"/>
            <Node pos="r" depth="3" NCoef="0" IVar="-1" Cut="0.0000000000000000e+00" cType="1" res="1.2483934871852398e-02" rms="2.3858954012393951e-01" purity="9.6590667963027954e-02" nType="-99"/>
          </Node>
          <Node pos="r" depth="2" NCoef="0" IVar="1" Cut="2.7346635237336159e-02" cType="1" res="8.4739830344915390e-03" rms="2.6070496439933777e-01" purity="3.4201055765151978e-01" nType="0">
            <Node pos="l" depth="3" NCoef="0" IVar="-1" Cut="0.0000000000000000e+00" cType="1" res="1.1997198453173041e-03" rms="2.1441809833049774e-01" purity="1.3851936161518097e-01" nType="-99"/>
            <Node pos="r" depth="3" NCoef="0" IVar="-1" Cut="0.0000000000000000e+00" cType="1" res="1.8124802038073540e-02" rms="2.9045763611793518e-01" purity="4.9450448155403137e-01" nType="-99"/>
          </Node>
        </Node>
        <Node pos="r" depth="1" NCoef="0" IVar="0" Cut="2.3052475585937500e+03" cType="1" res="-5.1018120720982552e-03" rms="2.4166393280029297e-01" purity="7.6158440113067627e-01" nType="0">
          <Node pos="l" depth="2" NCoef="0" IVar="8" Cut="7.9527068138122559e-01" cType="1" res="-1.5574761666357517e-02" rms="3.3674913644790649e-01" purity="4.6154677867889404e-01" nType="0">
            <Node pos="l" depth="3" NCoef="0" IVar="-1" Cut="0.0000000000000000e+00" cType="1" res="-1.9275054335594177e-02" rms="3.3062508702278137e-01" purity="4.6089679002761841e-01" nType="-99"/>
            <Node pos="r" depth="3" NCoef="0" IVar="-1" Cut="0.0000000000000000e+00" cType="1" res="5.7569970376789570e-03" rms="3.5686495900154114e-01" purity="4.6386781334877014e-01" nType="-99"/>
          </Node>
          <Node pos="r" depth="2" NCoef="0" IVar="2" Cut="7.5698620605468750e+02" cType="1" res="2.3955074138939381e-03" rms="1.3745792210102081e-01" purity="9.7637379169464111e-01" nType="0">
            <Node pos="l" depth="3" NCoef="0" IVar="-1" Cut="0.0000000000000000e+00" cType="1" res="2.1942934021353722e-02" rms="1.2801642715930939e-01" purity="9.8196399211883545e-01" nType="-99"/>
            <Node pos="r" depth="3" NCoef="0" IVar="-1" Cut="0.0000000000000000e+00" cType="1" res="-2.3771483451128006e-02" rms="1.7350910604000092e-01" purity="9.5111376047134399e-01" nType="-99"/>
          </Node>
        </Node>
      </Node>
    </BinaryTree>
    <BinaryTree type="DecisionTree" boostWeight="1.0000000000000000e+00" itree="165">
      <Node pos="s" depth="0" NCoef="0" IVar="6" Cut="4.9432340264320374e-01" cType="1" res="1.1480908597150119e-06" rms="2.5194248557090759e-01" purity="5.0309324264526367e-01" nType="0">
        <Node pos="l" depth="1" NCoef="0" IVar="8" Cut="-1.4667003154754639e+00" cType="1" res="-2.5180969387292862e-03" rms="2.5274321436882019e-01" purity="5.4382121562957764e-01" nType="0">
          <Node pos="l" depth="2" NCoef="0" IVar="5" Cut="1.2758948516845703e+02" cType="1" res="1.9867917522788048e-02" rms="2.6747927069664001e-01" purity="2.7837401628494263e-01" nType="0">
            <Node pos="l" depth="3" NCoef="0" IVar="-1" Cut="0.0000000000000000e+00" cType="1" res="7.6670236885547638e-02" rms="2.3560589551925659e-01" purity="1.1622686684131622e-01" nType="-99"/>
            <Node pos="r" depth="3" NCoef="0" IVar="-1" Cut="0.0000000000000000e+00" cType="1" res="5.3058620542287827e-03" rms="2.9639700055122375e-01" purity="4.4768553972244263e-01" nType="-99"/>
          </Node>
          <Node pos="r" depth="2" NCoef="0" IVar="4" Cut="2.6473742675781250e+02" cType="1" res="-4.3653193861246109e-03" rms="2.5139966607093811e-01" purity="5.6572508811950684e-01" nType="0">
            <Node pos="l" depth="3" NCoef="0" IVar="-1" Cut="0.0000000000000000e+00" cType="1" res="-1.3093207031488419e-02" rms="2.7370020747184753e-01" purity="3.4543988108634949e-01" nType="-99"/>
            <Node pos="r" depth="3" NCoef="0" IVar="-1" Cut="0.0000000000000000e+00" cType="1" res="8.4055056795477867e-03" rms="2.1251101791858673e-01" purity="9.0299308300018311e-01" nType="-99"/>
          </Node>
        </Node>
        <Node pos="r" depth="1" NCoef="0" IVar="1" Cut="1.7938438802957535e-02" cType="1" res="6.7204656079411507e-03" rms="2.4966996908187866e-01" purity="3.9446374773979187e-01" nType="0">
          <Node pos="l" depth="2" NCoef="0" IVar="9" Cut="-3.9950117468833923e-01" cType="1" res="-1.0032967664301395e-02" rms="1.4408299326896667e-01" purity="5.7556830346584320e-02" nType="0">
            <Node pos="l" depth="3" NCoef="0" IVar="-1" Cut="0.0000000000000000e+00" cType="1" res="-7.8142218291759491e-02" rms="1.1503299325704575e-01" purity="3.6219295114278793e-02" nType="-99"/>
            <Node pos="r" depth="3" NCoef="0" IVar="-1" Cut="0.0000000000000000e+00" cType="1" res="-1.0008728131651878e-02" rms="1.6069209575653076e-01" purity="7.2232596576213837e-02" nType="-99"/>
          </Node>
          <Node pos="r" depth="2" NCoef="0" IVar="9" Cut="-1.1989984512329102e+00" cType="1" res="1.1913692578673363e-02" rms="2.7405944466590881e-01" purity="4.9889808893203735e-01" nType="0">
            <Node pos="l" depth="3" NCoef="0" IVar="-1" Cut="0.0000000000000000e+00" cType="1" res="6.1627142131328583e-02" rms="3.1348466873168945e-01" purity="3.9312148094177246e-01" nType="-99"/>
            <Node pos="r" depth="3" NCoef="0" IVar="-1" Cut="0.0000000000000000e+00" cType="1" res="9.2899519950151443e-03" rms="2.6759356260299683e-01" purity="5.1381522417068481e-01" nType="-99"/>
          </Node>
        </Node>
      </Node>
    </BinaryTree>
    <BinaryTree type="DecisionTree" boostWeight="1.0000000000000000e+00" itree="166">
      <Node pos="s" depth="0" NCoef="0" IVar="8" Cut="1.7324062585830688e+00" cType="1" res="3.8722143508493900e-03" rms="2.5131055712699890e-01" purity="5.1056236028671265e-01" nType="0">
        <Node pos="l" depth="1" NCoef="0" IVar="6" Cut="9.9175649881362915e-01" cType="1" res="2.9452997259795666e-03" rms="2.5092583894729614e-01" purity="5.2500492334365845e-01" nType="0">
          <Node pos="l" depth="2" NCoef="0" IVar="7" Cut="1.7333782911300659e+00" cType="1" res="4.3423804454505444e-03" rms="2.5653347373008728e-01" purity="5.7383400201797485e-01" nType="0">
            <Node pos="l" depth="3" NCoef="0" IVar="-1" Cut="0.0000000000000000e+00" cType="1" res="7.9698329791426659e-03" rms="2.5946536660194397e-01" purity="5.9235769510269165e-01" nType="-99"/>
            <Node pos="r" depth="3" NCoef="0" IVar="-1" Cut="0.0000000000000000e+00" cType="1" res="-4.9588773399591446e-02" rms="1.5625382959842682e-01" purity="7.3881886899471283e-02" nType="-99"/>
          </Node>
          <Node pos="r" depth="2" NCoef="0" IVar="2" Cut="4.8533557128906250e+02" cType="1" res="-6.0916631482541561e-03" rms="2.1086134016513824e-01" purity="2.0915614068508148e-01" nType="0">
            <Node pos="l" depth="3" NCoef="0" IVar="-1" Cut="0.0000000000000000e+00" cType="1" res="3.2006863038986921e-03" rms="2.1507191658020020e-01" purity="1.6382536292076111e-01" nType="-99"/>
            <Node pos="r" depth="3" NCoef="0" IVar="-1" Cut="0.0000000000000000e+00" cType="1" res="-3.4122265875339508e-02" rms="2.0355503261089325e-01" purity="2.7978181838989258e-01" nType="-99"/>
          </Node>
        </Node>
        <Node pos="r" depth="1" NCoef="0" IVar="-1" Cut="0.0000000000000000e+00" cType="1" res="4.2441543191671371e-02" rms="2.5881671905517578e-01" purity="1.9159810245037079e-01" nType="-99"/>
      </Node>
    </BinaryTree>
    <BinaryTree type="DecisionTree" boostWeight="1.0000000000000000e+00" itree="167">
      <Node pos="s" depth="0" NCoef="0" IVar="9" Cut="-1.4652469158172607e+00" cType="1" res="-1.6946232644841075e-03" rms="2.5101998448371887e-01" purity="4.9554619193077087e-01" nType="0">
        <Node pos="l" depth="1" NCoef="0" IVar="0" Cut="1.6330765380859375e+03" cType="1" res="-2.2013390436768532e-02" rms="2.7779573202133179e-01" purity="3.0053970217704773e-01" nType="0">
          <Node pos="l" depth="2" NCoef="0" IVar="-1" Cut="0.0000000000000000e+00" cType="1" res="2.3943895474076271e-02" rms="1.7935559153556824e-01" purity="3.8128964602947235e-02" nType="-99"/>
          <Node pos="r" depth="2" NCoef="0" IVar="6" Cut="-7.4453582055866718e-04" cType="1" res="-3.9376478642225266e-02" rms="3.2184550166130066e-01" purity="4.5922732353210449e-01" nType="0">
            <Node pos="l" depth="3" NCoef="0" IVar="-1" Cut="0.0000000000000000e+00" cType="1" res="-5.3032271564006805e-02" rms="3.3118507266044617e-01" purity="4.6075913310050964e-01" nType="-99"/>
            <Node pos="r" depth="3" NCoef="0" IVar="-1" Cut="0.0000000000000000e+00" cType="1" res="-2.5920903310179710e-02" rms="3.0907931923866272e-01" purity="4.5731353759765625e-01" nType="-99"/>
          </Node>
        </Node>
        <Node pos="r" depth="1" NCoef="0" IVar="8" Cut="-4.0003344416618347e-01" cType="1" res="4.6647398266941309e-04" rms="2.4790415167808533e-01" purity="5.1628702878952026e-01" nType="0">
          <Node pos="l" depth="2" NCoef="0" IVar="2" Cut="7.3537255859375000e+02" cType="1" res="6.7173959687352180e-03" rms="2.4973511695861816e-01" purity="4.7413489222526550e-01" nType="0">
            <Node pos="l" depth="3" NCoef="0" IVar="-1" Cut="0.0000000000000000e+00" cType="1" res="1.6162529587745667e-02" rms="2.4884656071662903e-01" purity="4.4467788934707642e-01" nType="-99"/>
            <Node pos="r" depth="3" NCoef="0" IVar="-1" Cut="0.0000000000000000e+00" cType="1" res="-2.5076152756810188e-02" rms="2.5526216626167297e-01" purity="7.0397818088531494e-01" nType="-99"/>
          </Node>
          <Node pos="r" depth="2" NCoef="0" IVar="7" Cut="9.3364328145980835e-01" cType="1" res="-2.9225845355540514e-03" rms="2.4683961272239685e-01" purity="5.3914058208465576e-01" nType="0">
            <Node pos="l" depth="3" NCoef="0" IVar="-1" Cut="0.0000000000000000e+00" cType="1" res="-1.1889919638633728e-02" rms="2.4523271620273590e-01" purity="5.8055937290191650e-01" nType="-99"/>
            <Node pos="r" depth="3" NCoef="0" IVar="-1" Cut="0.0000000000000000e+00" cType="1" res="2.8389096260070801e-02" rms="2.5346255302429199e-01" purity="3.3880180120468140e-01" nType="-99"/>
          </Node>
        </Node>
      </Node>
    </BinaryTree>
    <BinaryTree type="DecisionTree" boostWeight="1.0000000000000000e+00" itree="168">
      <Node pos="s" depth="0" NCoef="0" IVar="9" Cut="9.3330574035644531e-01" cType="1" res="-2.1567384828813374e-04" rms="2.5206834077835083e-01" purity="4.9192225933074951e-01" nType="0">
        <Node pos="l" depth="1" NCoef="0" IVar="9" Cut="-1.5548570156097412e+00" cType="1" res="-2.0081107504665852e-03" rms="2.4858993291854858e-01" purity="5.1391422748565674e-01" nType="0">
          <Node pos="l" depth="2" NCoef="0" IVar="5" Cut="1.4890274047851562e+02" cType="1" res="9.6547091379761696e-03" rms="2.8497582674026489e-01" purity="3.2069647312164307e-01" nType="0">
            <Node pos="l" depth="3" NCoef="0" IVar="-1" Cut="0.0000000000000000e+00" cType="1" res="3.3382732421159744e-02" rms="2.7937453985214233e-01" purity="2.0818750560283661e-01" nType="-99"/>
            <Node pos="r" depth="3" NCoef="0" IVar="-1" Cut="0.0000000000000000e+00" cType="1" res="-1.3296131044626236e-02" rms="2.9293304681777954e-01" purity="5.1001536846160889e-01" nType="-99"/>
          </Node>
          <Node pos="r" depth="2" NCoef="0" IVar="9" Cut="-1.1992865800857544e+00" cType="1" res="-3.3795542549341917e-03" rms="2.4391829967498779e-01" purity="5.3663492202758789e-01" nType="0">
            <Node pos="l" depth="3" NCoef="0" IVar="-1" Cut="0.0000000000000000e+00" cType="1" res="-2.4267395958304405e-02" rms="2.8605335950851440e-01" purity="4.3995645642280579e-01" nType="-99"/>
            <Node pos="r" depth="3" NCoef="0" IVar="-1" Cut="0.0000000000000000e+00" cType="1" res="-2.9983613640069962e-03" rms="2.3938034474849701e-01" purity="5.4600632190704346e-01" nType="-99"/>
          </Node>
        </Node>
        <Node pos="r" depth="1" NCoef="0" IVar="4" Cut="2.8386642456054688e+02" cType="1" res="6.8004010245203972e-03" rms="2.6512882113456726e-01" purity="4.0583971142768860e-01" nType="0">
          <Node pos="l" depth="2" NCoef="0" IVar="9" Cut="2.1773753166198730e+00" cType="1" res="1.3291139155626297e-02" rms="2.7089920639991760e-01" purity="2.9693809151649475e-01" nType="0">
            <Node pos="l" depth="3" NCoef="0" IVar="-1" Cut="0.0000000000000000e+00" cType="1" res="2.4566043168306351e-02" rms="2.8020218014717102e-01" purity="3.3523970842361450e-01" nType="-99"/>
            <Node pos="r" depth="3" NCoef="0" IVar="-1" Cut="0.0000000000000000e+00" cType="1" res="-1.7149347811937332e-02" rms="2.1290165185928345e-01" purity="9.1721132397651672e-02" nType="-99"/>
          </Node>
          <Node pos="r" depth="2" NCoef="0" IVar="-1" Cut="0.0000000000000000e+00" cType="1" res="-2.8355594724416733e-02" rms="2.4072660505771637e-01" purity="8.1404733657836914e-01" nType="-99"/>
        </Node>
      </Node>
    </BinaryTree>
    <BinaryTree type="DecisionTree" boostWeight="1.0000000000000000e+00" itree="169">
      <Node pos="s" depth="0" NCoef="0" IVar="7" Cut="1.2000687122344971e+00" cType="1" res="2.2806271445006132e-03" rms="2.5363150238990784e-01" purity="5.0248330831527710e-01" nType="0">
        <Node pos="l" depth="1" NCoef="0" IVar="8" Cut="1.3295045495033264e-01" cType="1" res="1.1062388075515628e-03" rms="2.5450626015663147e-01" purity="5.3414642810821533e-01" nType="0">
          <Node pos="l" depth="2" NCoef="0" IVar="1" Cut="6.3800320029258728e-02" cType="1" res="-2.5019298773258924e-03" rms="2.5115427374839783e-01" purity="5.3586071729660034e-01" nType="0">
            <Node pos="l" depth="3" NCoef="0" IVar="-1" Cut="0.0000000000000000e+00" cType="1" res="7.7400049194693565e-03" rms="2.4761404097080231e-01" purity="2.9335492849349976e-01" nType="-99"/>
            <Node pos="r" depth="3" NCoef="0" IVar="-1" Cut="0.0000000000000000e+00" cType="1" res="-1.2888238765299320e-02" rms="2.5382074713706970e-01" purity="7.3131471872329712e-01" nType="-99"/>
          </Node>
          <Node pos="r" depth="2" NCoef="0" IVar="9" Cut="1.4667052030563354e+00" cType="1" res="5.7624918408691883e-03" rms="2.5869339704513550e-01" purity="5.3193414211273193e-01" nType="0">
            <Node pos="l" depth="3" NCoef="0" IVar="-1" Cut="0.0000000000000000e+00" cType="1" res="1.2899810448288918e-02" rms="2.5696259737014771e-01" purity="5.5315566062927246e-01" nType="-99"/>
            <Node pos="r" depth="3" NCoef="0" IVar="-1" Cut="0.0000000000000000e+00" cType="1" res="-2.4667009711265564e-02" rms="2.7311003208160400e-01" purity="3.3356317877769470e-01" nType="-99"/>
          </Node>
        </Node>
        <Node pos="r" depth="1" NCoef="0" IVar="2" Cut="3.8220257568359375e+02" cType="1" res="1.2594696134328842e-02" rms="2.4557399749755859e-01" purity="2.2440211474895477e-01" nType="0">
          <Node pos="l" depth="2" NCoef="0" IVar="-1" Cut="0.0000000000000000e+00" cType="1" res="6.3402116298675537e-02" rms="2.6452487707138062e-01" purity="1.4754512906074524e-01" nType="-99"/>
          <Node pos="r" depth="2" NCoef="0" IVar="0" Cut="1.7477590332031250e+03" cType="1" res="4.7718235291540623e-03" rms="2.3661968111991882e-01" purity="2.5710028409957886e-01" nType="0">
            <Node pos="l" depth="3" NCoef="0" IVar="-1" Cut="0.0000000000000000e+00" cType="1" res="-7.3198214173316956e-02" rms="7.8195884823799133e-02" purity="7.6561151072382927e-03" nType="-99"/>
            <Node pos="r" depth="3" NCoef="0" IVar="-1" Cut="0.0000000000000000e+00" cType="1" res="2.3262636736035347e-02" rms="3.1904917955398560e-01" purity="4.8929128050804138e-01" nType="-99"/>
          </Node>
        </Node>
      </Node>
    </BinaryTree>
    <BinaryTree type="DecisionTree" boostWeight="1.0000000000000000e+00" itree="170">
      <Node pos="s" depth="0" NCoef="0" IVar="9" Cut="-1.3305456936359406e-01" cType="1" res="-3.0747132841497660e-03" rms="2.4882496893405914e-01" purity="5.0211775302886963e-01" nType="0">
        <Node pos="l" depth="1" NCoef="0" IVar="4" Cut="2.6121224975585938e+02" cType="1" res="-9.6049904823303223e-03" rms="2.5333639979362488e-01" purity="4.8383393883705139e-01" nType="0">
          <Node pos="l" depth="2" NCoef="0" IVar="7" Cut="-3.9663687348365784e-01" cType="1" res="-3.0578824225813150e-03" rms="2.6376041769981384e-01" purity="2.9348853230476379e-01" nType="0">
            <Node pos="l" depth="3" NCoef="0" IVar="-1" Cut="0.0000000000000000e+00" cType="1" res="-1.9452743232250214e-02" rms="2.5763469934463501e-01" purity="2.3306119441986084e-01" nType="-99"/>
            <Node pos="r" depth="3" NCoef="0" IVar="-1" Cut="0.0000000000000000e+00" cType="1" res="5.1084444858133793e-03" rms="2.6764607429504395e-01" purity="3.3470425009727478e-01" nType="-99"/>
          </Node>
          <Node pos="r" depth="2" NCoef="0" IVar="0" Cut="2.3417993164062500e+03" cType="1" res="-2.1529618650674820e-02" rms="2.3268328607082367e-01" purity="8.3052098751068115e-01" nType="0">
            <Node pos="l" depth="3" NCoef="0" IVar="-1" Cut="0.0000000000000000e+00" cType="1" res="-5.9219058603048325e-02" rms="3.4575703740119934e-01" purity="4.8401013016700745e-01" nType="-99"/>
            <Node pos="r" depth="3" NCoef="0" IVar="-1" Cut="0.0000000000000000e+00" cType="1" res="-1.2642774730920792e-02" rms="1.7691230773925781e-01" purity="9.4509738683700562e-01" nType="-99"/>
          </Node>
        </Node>
        <Node pos="r" depth="1" NCoef="0" IVar="8" Cut="-1.1973570585250854e+00" cType="1" res="2.3904226254671812e-03" rms="2.4485172331333160e-01" purity="5.1741939783096313e-01" nType="0">
          <Node pos="l" depth="2" NCoef="0" IVar="0" Cut="1.7742919921875000e+03" cType="1" res="-2.2565674036741257e-02" rms="2.5119662284851074e-01" purity="3.0106365680694580e-01" nType="0">
            <Node pos="l" depth="3" NCoef="0" IVar="-1" Cut="0.0000000000000000e+00" cType="1" res="-3.4582089632749557e-02" rms="1.6280633211135864e-01" purity="3.6353446543216705e-02" nType="-99"/>
            <Node pos="r" depth="3" NCoef="0" IVar="-1" Cut="0.0000000000000000e+00" cType="1" res="-3.3827118575572968e-02" rms="3.2286396622657776e-01" purity="6.0016655921936035e-01" nType="-99"/>
          </Node>
          <Node pos="r" depth="2" NCoef="0" IVar="0" Cut="1.6473814697265625e+03" cType="1" res="5.4585584439337254e-03" rms="2.4388407170772552e-01" purity="5.4401844739913940e-01" nType="0">
            <Node pos="l" depth="3" NCoef="0" IVar="-1" Cut="0.0000000000000000e+00" cType="1" res="-1.5722351148724556e-02" rms="1.7169931530952454e-01" purity="3.3341269940137863e-02" nType="-99"/>
            <Node pos="r" depth="3" NCoef="0" IVar="-1" Cut="0.0000000000000000e+00" cType="1" res="1.2504967860877514e-02" rms="2.6321920752525330e-01" purity="7.1180397272109985e-01" nType="-99"/>
          </Node>
        </Node>
      </Node>
    </BinaryTree>
    <BinaryTree type="DecisionTree" boostWeight="1.0000000000000000e+00" itree="171">
      <Node pos="s" depth="0" NCoef="0" IVar="0" Cut="2.3891545410156250e+03" cType="1" res="-2.1738447248935699e-03" rms="2.4659995734691620e-01" purity="5.0125753879547119e-01" nType="0">
        <Node pos="l" depth="1" NCoef="0" IVar="2" Cut="7.1269384765625000e+02" cType="1" res="-6.0057793743908405e-03" rms="2.7457889914512634e-01" purity="2.5032478570938110e-01" nType="0">
          <Node pos="l" depth="2" NCoef="0" IVar="4" Cut="2.6466848754882812e+02" cType="1" res="-4.1956179775297642e-03" rms="2.7435389161109924e-01" purity="2.5661125779151917e-01" nType="0">
            <Node pos="l" depth="3" NCoef="0" IVar="-1" Cut="0.0000000000000000e+00" cType="1" res="-2.6826185639947653e-03" rms="2.6347011327743530e-01" purity="2.0695644617080688e-01" nType="-99"/>
            <Node pos="r" depth="3" NCoef="0" IVar="-1" Cut="0.0000000000000000e+00" cType="1" res="-1.6417915001511574e-02" rms="3.3386525511741638e-01" purity="5.6569522619247437e-01" nType="-99"/>
          </Node>
          <Node pos="r" depth="2" NCoef="0" IVar="-1" Cut="0.0000000000000000e+00" cType="1" res="-5.3414542227983475e-02" rms="2.7654048800468445e-01" purity="1.1872193962335587e-01" nType="-99"/>
        </Node>
        <Node pos="r" depth="1" NCoef="0" IVar="6" Cut="6.8639314174652100e-01" cType="1" res="4.5472327619791031e-03" rms="1.8752132356166840e-01" purity="9.4138485193252563e-01" nType="0">
          <Node pos="l" depth="2" NCoef="0" IVar="9" Cut="-1.1974114179611206e+00" cType="1" res="2.5940283667296171e-03" rms="1.8328621983528137e-01" purity="9.4565010070800781e-01" nType="0">
            <Node pos="l" depth="3" NCoef="0" IVar="-1" Cut="0.0000000000000000e+00" cType="1" res="-1.4743295498192310e-02" rms="2.4461673200130463e-01" purity="8.9998340606689453e-01" nType="-99"/>
            <Node pos="r" depth="3" NCoef="0" IVar="-1" Cut="0.0000000000000000e+00" cType="1" res="1.0715633630752563e-02" rms="1.7552547156810760e-01" purity="9.5047163963317871e-01" nType="-99"/>
          </Node>
          <Node pos="r" depth="2" NCoef="0" IVar="-1" Cut="0.0000000000000000e+00" cType="1" res="3.1407762318849564e-02" rms="2.1362635493278503e-01" purity="9.1239368915557861e-01" nType="-99"/>
        </Node>
      </Node>
    </BinaryTree>
    <BinaryTree type="DecisionTree" boostWeight="1.0000000000000000e+00" itree="172">
      <Node pos="s" depth="0" NCoef="0" IVar="8" Cut="-1.4667590856552124e+00" cType="1" res="-1.0276567190885544e-03" rms="2.5026485323905945e-01" purity="4.9003091454505920e-01" nType="0">
        <Node pos="l" depth="1" NCoef="0" IVar="4" Cut="2.2026759338378906e+02" cType="1" res="-1.6086159273982048e-02" rms="2.5150403380393982e-01" purity="1.9617195427417755e-01" nType="0">
          <Node pos="l" depth="2" NCoef="0" IVar="6" Cut="-2.7509167790412903e-02" cType="1" res="7.7774072997272015e-04" rms="2.2800552845001221e-01" purity="1.3358463346958160e-01" nType="0">
            <Node pos="l" depth="3" NCoef="0" IVar="-1" Cut="0.0000000000000000e+00" cType="1" res="2.8691759333014488e-02" rms="2.5218290090560913e-01" purity="1.5664505958557129e-01" nType="-99"/>
            <Node pos="r" depth="3" NCoef="0" IVar="-1" Cut="0.0000000000000000e+00" cType="1" res="-3.0314570292830467e-02" rms="2.0015095174312592e-01" purity="1.1085878312587738e-01" nType="-99"/>
          </Node>
          <Node pos="r" depth="2" NCoef="0" IVar="-1" Cut="0.0000000000000000e+00" cType="1" res="-6.1476990580558777e-02" rms="2.9113221168518066e-01" purity="3.2564276456832886e-01" nType="-99"/>
        </Node>
        <Node pos="r" depth="1" NCoef="0" IVar="6" Cut="1.4837539196014404e+00" cType="1" res="4.0925378561951220e-04" rms="2.5009888410568237e-01" purity="5.1807147264480591e-01" nType="0">
          <Node pos="l" depth="2" NCoef="0" IVar="9" Cut="-1.1994092464447021e+00" cType="1" res="1.2894226238131523e-03" rms="2.5499713420867920e-01" purity="5.4501616954803467e-01" nType="0">
            <Node pos="l" depth="3" NCoef="0" IVar="-1" Cut="0.0000000000000000e+00" cType="1" res="1.2903641909360886e-02" rms="2.7347412705421448e-01" purity="4.2238518595695496e-01" nType="-99"/>
            <Node pos="r" depth="3" NCoef="0" IVar="-1" Cut="0.0000000000000000e+00" cType="1" res="-1.4863465912640095e-04" rms="2.5183150172233582e-01" purity="5.6499403715133667e-01" nType="-99"/>
          </Node>
          <Node pos="r" depth="2" NCoef="0" IVar="-1" Cut="0.0000000000000000e+00" cType="1" res="-5.3581099957227707e-02" rms="1.3617241382598877e-01" purity="4.1593987494707108e-02" nType="-99"/>
        </Node>
      </Node>
    </BinaryTree>
    <BinaryTree type="DecisionTree" boostWeight="1.0000000000000000e+00" itree="173">
      <Node pos="s" depth="0" NCoef="0" IVar="5" Cut="1.1815167236328125e+02" cType="1" res="2.4792938493192196e-03" rms="2.4720996618270874e-01" purity="4.9662968516349792e-01" nType="0">
        <Node pos="l" depth="1" NCoef="0" IVar="2" Cut="6.8770129394531250e+02" cType="1" res="-4.6946844086050987e-03" rms="2.1088300645351410e-01" purity="9.5984771847724915e-02" nType="0">
          <Node pos="l" depth="2" NCoef="0" IVar="8" Cut="1.4661271572113037e+00" cType="1" res="-8.3990516141057014e-03" rms="1.9550965726375580e-01" purity="7.1866929531097412e-02" nType="0">
            <Node pos="l" depth="3" NCoef="0" IVar="-1" Cut="0.0000000000000000e+00" cType="1" res="-2.7420673519372940e-02" rms="1.9376225769519806e-01" purity="7.3224529623985291e-02" nType="-99"/>
            <Node pos="r" depth="3" NCoef="0" IVar="-1" Cut="0.0000000000000000e+00" cType="1" res="5.9436745941638947e-02" rms="2.0701242983341217e-01" purity="6.1103586107492447e-02" nType="-99"/>
          </Node>
          <Node pos="r" depth="2" NCoef="0" IVar="-1" Cut="0.0000000000000000e+00" cType="1" res="2.3000866174697876e-02" rms="2.9086071252822876e-01" purity="2.5349861383438110e-01" nType="-99"/>
        </Node>
        <Node pos="r" depth="1" NCoef="0" IVar="9" Cut="-1.4573340415954590e+00" cType="1" res="5.1985960453748703e-03" rms="2.5960296392440796e-01" purity="6.4849448204040527e-01" nType="0">
          <Node pos="l" depth="2" NCoef="0" IVar="0" Cut="1.9957731933593750e+03" cType="1" res="3.0050160363316536e-02" rms="3.1630605459213257e-01" purity="4.8846235871315002e-01" nType="0">
            <Node pos="l" depth="3" NCoef="0" IVar="-1" Cut="0.0000000000000000e+00" cType="1" res="6.9048985838890076e-02" rms="3.3353507518768311e-01" purity="1.8519335985183716e-01" nType="-99"/>
            <Node pos="r" depth="3" NCoef="0" IVar="-1" Cut="0.0000000000000000e+00" cType="1" res="5.5983434431254864e-03" rms="2.9462075233459473e-01" purity="8.1495308876037598e-01" nType="-99"/>
          </Node>
          <Node pos="r" depth="2" NCoef="0" IVar="8" Cut="9.3344211578369141e-01" cType="1" res="2.9302509501576424e-03" rms="2.5367596745491028e-01" purity="6.6310155391693115e-01" nType="0">
            <Node pos="l" depth="3" NCoef="0" IVar="-1" Cut="0.0000000000000000e+00" cType="1" res="9.0057523921132088e-03" rms="2.5024411082267761e-01" purity="6.9269657135009766e-01" nType="-99"/>
            <Node pos="r" depth="3" NCoef="0" IVar="-1" Cut="0.0000000000000000e+00" cType="1" res="-1.4286006800830364e-02" rms="2.6941880583763123e-01" purity="5.1792478561401367e-01" nType="-99"/>
          </Node>
        </Node>
      </Node>
    </BinaryTree>
    <BinaryTree type="DecisionTree" boostWeight="1.0000000000000000e+00" itree="174">
      <Node pos="s" depth="0" NCoef="0" IVar="2" Cut="4.4365881347656250e+02" cType="1" res="8.5505354218184948e-04" rms="2.4714510142803192e-01" purity="5.0063961744308472e-01" nType="0">
        <Node pos="l" depth="1" NCoef="0" IVar="1" Cut="4.1461125016212463e-02" cType="1" res="6.7596547305583954e-03" rms="2.6004815101623535e-01" purity="3.1561717391014099e-01" nType="0">
          <Node pos="l" depth="2" NCoef="0" IVar="8" Cut="-6.6415554285049438e-01" cType="1" res="-2.2289990447461605e-03" rms="1.7723475396633148e-01" purity="6.6203184425830841e-02" nType="0">
            <Node pos="l" depth="3" NCoef="0" IVar="-1" Cut="0.0000000000000000e+00" cType="1" res="-4.5273572206497192e-02" rms="1.3719156384468079e-01" purity="4.9830671399831772e-02" nType="-99"/>
            <Node pos="r" depth="3" NCoef="0" IVar="-1" Cut="0.0000000000000000e+00" cType="1" res="1.0889386758208275e-02" rms="1.9325315952301025e-01" purity="7.4067398905754089e-02" nType="-99"/>
          </Node>
          <Node pos="r" depth="2" NCoef="0" IVar="0" Cut="2.1353195800781250e+03" cType="1" res="1.2144822627305984e-02" rms="2.9873573780059814e-01" purity="4.6504282951354980e-01" nType="0">
            <Node pos="l" depth="3" NCoef="0" IVar="-1" Cut="0.0000000000000000e+00" cType="1" res="1.6544748097658157e-02" rms="3.3024156093597412e-01" purity="2.9295048117637634e-01" nType="-99"/>
            <Node pos="r" depth="3" NCoef="0" IVar="-1" Cut="0.0000000000000000e+00" cType="1" res="-6.7694061435759068e-03" rms="1.7795324325561523e-01" purity="9.6267163753509521e-01" nType="-99"/>
          </Node>
        </Node>
        <Node pos="r" depth="1" NCoef="0" IVar="9" Cut="-1.7320399284362793e+00" cType="1" res="-2.4498580023646355e-03" rms="2.3955641686916351e-01" purity="6.0420006513595581e-01" nType="0">
          <Node pos="l" depth="2" NCoef="0" IVar="-1" Cut="0.0000000000000000e+00" cType="1" res="-3.3731359988451004e-02" rms="2.7560484409332275e-01" purity="2.8051617741584778e-01" nType="-99"/>
          <Node pos="r" depth="2" NCoef="0" IVar="9" Cut="-6.5277963876724243e-01" cType="1" res="-1.1409831931814551e-03" rms="2.3729044198989868e-01" purity="6.2247467041015625e-01" nType="0">
            <Node pos="l" depth="3" NCoef="0" IVar="-1" Cut="0.0000000000000000e+00" cType="1" res="1.4967583119869232e-02" rms="2.5068321824073792e-01" purity="6.0293382406234741e-01" nType="-99"/>
            <Node pos="r" depth="3" NCoef="0" IVar="-1" Cut="0.0000000000000000e+00" cType="1" res="-7.9884994775056839e-03" rms="2.3277886211872101e-01" purity="6.2866449356079102e-01" nType="-99"/>
          </Node>
        </Node>
      </Node>
    </BinaryTree>
    <BinaryTree type="DecisionTree" boostWeight="1.0000000000000000e+00" itree="175">
      <Node pos="s" depth="0" NCoef="0" IVar="3" Cut="3.3505395507812500e+02" cType="1" res="3.5146513255313039e-04" rms="2.4944652616977692e-01" purity="5.0112038850784302e-01" nType="0">
        <Node pos="l" depth="1" NCoef="0" IVar="3" Cut="3.2229202270507812e+02" cType="1" res="-4.3996772728860378e-03" rms="2.5925913453102112e-01" purity="2.7209314703941345e-01" nType="0">
          <Node pos="l" depth="2" NCoef="0" IVar="6" Cut="-9.9576339125633240e-02" cType="1" res="-2.3210062645375729e-03" rms="2.5768369436264038e-01" purity="2.5639325380325317e-01" nType="0">
            <Node pos="l" depth="3" NCoef="0" IVar="-1" Cut="0.0000000000000000e+00" cType="1" res="-1.3020299375057220e-02" rms="2.5341787934303284e-01" purity="2.4485078454017639e-01" nType="-99"/>
            <Node pos="r" depth="3" NCoef="0" IVar="-1" Cut="0.0000000000000000e+00" cType="1" res="4.1458578780293465e-03" rms="2.6098003983497620e-01" purity="2.6574045419692993e-01" nType="-99"/>
          </Node>
          <Node pos="r" depth="2" NCoef="0" IVar="-1" Cut="0.0000000000000000e+00" cType="1" res="-3.6251835525035858e-02" rms="2.7740654349327087e-01" purity="4.7480151057243347e-01" nType="-99"/>
        </Node>
        <Node pos="r" depth="1" NCoef="0" IVar="0" Cut="2.1993637695312500e+03" cType="1" res="6.1311917379498482e-03" rms="2.3683391511440277e-01" purity="7.7973020076751709e-01" nType="0">
          <Node pos="l" depth="2" NCoef="0" IVar="6" Cut="4.7559863328933716e-01" cType="1" res="2.1369317546486855e-02" rms="3.2467037439346313e-01" purity="3.0336132645606995e-01" nType="0">
            <Node pos="l" depth="3" NCoef="0" IVar="-1" Cut="0.0000000000000000e+00" cType="1" res="2.9867678880691528e-02" rms="3.3857652544975281e-01" purity="3.5395169258117676e-01" nType="-99"/>
            <Node pos="r" depth="3" NCoef="0" IVar="-1" Cut="0.0000000000000000e+00" cType="1" res="-2.9523298144340515e-03" rms="2.9501804709434509e-01" purity="2.0737072825431824e-01" nType="-99"/>
          </Node>
          <Node pos="r" depth="2" NCoef="0" IVar="9" Cut="1.2001409530639648e+00" cType="1" res="1.4633308164775372e-03" rms="2.0221062004566193e-01" purity="9.2565512657165527e-01" nType="0">
            <Node pos="l" depth="3" NCoef="0" IVar="-1" Cut="0.0000000000000000e+00" cType="1" res="8.8495006784796715e-03" rms="1.9506971538066864e-01" purity="9.3439328670501709e-01" nType="-99"/>
            <Node pos="r" depth="3" NCoef="0" IVar="-1" Cut="0.0000000000000000e+00" cType="1" res="-2.8526471927762032e-02" rms="2.5712046027183533e-01" purity="8.4654754400253296e-01" nType="-99"/>
          </Node>
        </Node>
      </Node>
    </BinaryTree>
    <BinaryTree type="DecisionTree" boostWeight="1.0000000000000000e+00" itree="176">
      <Node pos="s" depth="0" NCoef="0" IVar="9" Cut="-1.4659352302551270e+00" cType="1" res="-4.1992362821474671e-04" rms="2.5067007541656494e-01" purity="4.9144130945205688e-01" nType="0">
        <Node pos="l" depth="1" NCoef="0" IVar="4" Cut="1.9513786315917969e+02" cType="1" res="-1.2538512237370014e-02" rms="2.8493744134902954e-01" purity="3.1914842128753662e-01" nType="0">
          <Node pos="l" depth="2" NCoef="0" IVar="6" Cut="-3.7746429443359375e-03" cType="1" res="-3.7503901869058609e-02" rms="2.5084152817726135e-01" purity="1.1204091459512711e-01" nType="0">
            <Node pos="l" depth="3" NCoef="0" IVar="-1" Cut="0.0000000000000000e+00" cType="1" res="-3.1560234725475311e-02" rms="2.5646406412124634e-01" purity="1.4323599636554718e-01" nType="-99"/>
            <Node pos="r" depth="3" NCoef="0" IVar="-1" Cut="0.0000000000000000e+00" cType="1" res="-9.1941937804222107e-02" rms="2.4431031942367554e-01" purity="8.1456311047077179e-02" nType="-99"/>
          </Node>
          <Node pos="r" depth="2" NCoef="0" IVar="-1" Cut="0.0000000000000000e+00" cType="1" res="1.6069401055574417e-02" rms="3.1511250138282776e-01" purity="5.3999698162078857e-01" nType="-99"/>
        </Node>
        <Node pos="r" depth="1" NCoef="0" IVar="9" Cut="-4.4206459075212479e-02" cType="1" res="8.9212681632488966e-04" rms="2.4663889408111572e-01" purity="5.1009505987167358e-01" nType="0">
          <Node pos="l" depth="2" NCoef="0" IVar="3" Cut="3.3395355224609375e+02" cType="1" res="6.5126377157866955e-03" rms="2.4621377885341644e-01" purity="5.4509538412094116e-01" nType="0">
            <Node pos="l" depth="3" NCoef="0" IVar="-1" Cut="0.0000000000000000e+00" cType="1" res="2.2220781072974205e-02" rms="2.5638914108276367e-01" purity="3.0378207564353943e-01" nType="-99"/>
            <Node pos="r" depth="3" NCoef="0" IVar="-1" Cut="0.0000000000000000e+00" cType="1" res="-2.6245592162013054e-03" rms="2.3437444865703583e-01" purity="8.0780410766601562e-01" nType="-99"/>
          </Node>
          <Node pos="r" depth="2" NCoef="0" IVar="6" Cut="7.2725558280944824e-01" cType="1" res="-3.4034668933600187e-03" rms="2.4687704443931580e-01" purity="4.8334527015686035e-01" nType="0">
            <Node pos="l" depth="3" NCoef="0" IVar="-1" Cut="0.0000000000000000e+00" cType="1" res="-1.1559749254956841e-03" rms="2.5456750392913818e-01" purity="5.4360342025756836e-01" nType="-99"/>
            <Node pos="r" depth="3" NCoef="0" IVar="-1" Cut="0.0000000000000000e+00" cType="1" res="-2.2655194625258446e-02" rms="2.1738162636756897e-01" purity="2.7114990353584290e-01" nType="-99"/>
          </Node>
        </Node>
      </Node>
    </BinaryTree>
    <BinaryTree type="DecisionTree" boostWeight="1.0000000000000000e+00" itree="177">
      <Node pos="s" depth="0" NCoef="0" IVar="2" Cut="8.7730584716796875e+02" cType="1" res="1.0464013321325183e-03" rms="2.4713648855686188e-01" purity="5.0768256187438965e-01" nType="0">
        <Node pos="l" depth="1" NCoef="0" IVar="7" Cut="-1.1998240947723389e+00" cType="1" res="2.0672413520514965e-03" rms="2.4451722204685211e-01" purity="4.9434074759483337e-01" nType="0">
          <Node pos="l" depth="2" NCoef="0" IVar="5" Cut="1.6863824462890625e+02" cType="1" res="1.4427320100367069e-02" rms="2.3049129545688629e-01" purity="2.1569474041461945e-01" nType="0">
            <Node pos="l" depth="3" NCoef="0" IVar="-1" Cut="0.0000000000000000e+00" cType="1" res="1.3022068887948990e-02" rms="1.9750225543975830e-01" purity="9.1523215174674988e-02" nType="-99"/>
            <Node pos="r" depth="3" NCoef="0" IVar="-1" Cut="0.0000000000000000e+00" cType="1" res="4.6303462237119675e-02" rms="3.0571651458740234e-01" purity="5.7948267459869385e-01" nType="-99"/>
          </Node>
          <Node pos="r" depth="2" NCoef="0" IVar="2" Cut="4.9040457153320312e+02" cType="1" res="5.6680984562262893e-04" rms="2.4612323939800262e-01" purity="5.2816653251647949e-01" nType="0">
            <Node pos="l" depth="3" NCoef="0" IVar="-1" Cut="0.0000000000000000e+00" cType="1" res="6.1476305127143860e-03" rms="2.6275831460952759e-01" purity="3.8201683759689331e-01" nType="-99"/>
            <Node pos="r" depth="3" NCoef="0" IVar="-1" Cut="0.0000000000000000e+00" cType="1" res="-4.9715247005224228e-03" rms="2.2990182042121887e-01" purity="6.6106539964675903e-01" nType="-99"/>
          </Node>
        </Node>
        <Node pos="r" depth="1" NCoef="0" IVar="-1" Cut="0.0000000000000000e+00" cType="1" res="-2.2657908499240875e-02" rms="2.9123517870903015e-01" purity="7.5764530897140503e-01" nType="-99"/>
      </Node>
    </BinaryTree>
    <BinaryTree type="DecisionTree" boostWeight="1.0000000000000000e+00" itree="178">
      <Node pos="s" depth="0" NCoef="0" IVar="8" Cut="-9.3350368738174438e-01" cType="1" res="-5.7390687288716435e-04" rms="2.4992446601390839e-01" purity="5.0030994415283203e-01" nType="0">
        <Node pos="l" depth="1" NCoef="0" IVar="7" Cut="1.3519881665706635e-01" cType="1" res="-1.1723846197128296e-02" rms="2.5077840685844421e-01" purity="3.3293119072914124e-01" nType="0">
          <Node pos="l" depth="2" NCoef="0" IVar="5" Cut="1.6944354248046875e+02" cType="1" res="8.1061449600383639e-04" rms="2.4820852279663086e-01" purity="3.4938329458236694e-01" nType="0">
            <Node pos="l" depth="3" NCoef="0" IVar="-1" Cut="0.0000000000000000e+00" cType="1" res="-1.4953555539250374e-02" rms="2.3134401440620422e-01" purity="1.6279482841491699e-01" nType="-99"/>
            <Node pos="r" depth="3" NCoef="0" IVar="-1" Cut="0.0000000000000000e+00" cType="1" res="2.7647530660033226e-02" rms="2.8052711486816406e-01" purity="7.5801753997802734e-01" nType="-99"/>
          </Node>
          <Node pos="r" depth="2" NCoef="0" IVar="0" Cut="1.8685364990234375e+03" cType="1" res="-2.8596147894859314e-02" rms="2.5321879982948303e-01" purity="3.1078553199768066e-01" nType="0">
            <Node pos="l" depth="3" NCoef="0" IVar="-1" Cut="0.0000000000000000e+00" cType="1" res="3.2549998722970486e-03" rms="2.0472311973571777e-01" purity="5.5364713072776794e-02" nType="-99"/>
            <Node pos="r" depth="3" NCoef="0" IVar="-1" Cut="0.0000000000000000e+00" cType="1" res="-5.8651126921176910e-02" rms="2.9614418745040894e-01" purity="6.0799133777618408e-01" nType="-99"/>
          </Node>
        </Node>
        <Node pos="r" depth="1" NCoef="0" IVar="6" Cut="-1.1504411697387695e+00" cType="1" res="2.0167056936770678e-03" rms="2.4965435266494751e-01" purity="5.3919929265975952e-01" nType="0">
          <Node pos="l" depth="2" NCoef="0" IVar="9" Cut="-3.9807811379432678e-01" cType="1" res="-1.2490275315940380e-02" rms="2.2109843790531158e-01" purity="1.6904993355274200e-01" nType="0">
            <Node pos="l" depth="3" NCoef="0" IVar="-1" Cut="0.0000000000000000e+00" cType="1" res="2.3044316098093987e-02" rms="2.3474094271659851e-01" purity="1.8003992736339569e-01" nType="-99"/>
            <Node pos="r" depth="3" NCoef="0" IVar="-1" Cut="0.0000000000000000e+00" cType="1" res="-5.9256784617900848e-02" rms="2.0982876420021057e-01" purity="1.6170945763587952e-01" nType="-99"/>
          </Node>
          <Node pos="r" depth="2" NCoef="0" IVar="6" Cut="-9.6391022205352783e-01" cType="1" res="3.3407052978873253e-03" rms="2.5205793976783752e-01" purity="5.7298147678375244e-01" nType="0">
            <Node pos="l" depth="3" NCoef="0" IVar="-1" Cut="0.0000000000000000e+00" cType="1" res="3.9758313447237015e-02" rms="2.4747747182846069e-01" purity="4.6238401532173157e-01" nType="-99"/>
            <Node pos="r" depth="3" NCoef="0" IVar="-1" Cut="0.0000000000000000e+00" cType="1" res="3.7106734234839678e-03" rms="2.5218093395233154e-01" purity="5.7726544141769409e-01" nType="-99"/>
          </Node>
        </Node>
      </Node>
    </BinaryTree>
    <BinaryTree type="DecisionTree" boostWeight="1.0000000000000000e+00" itree="179">
      <Node pos="s" depth="0" NCoef="0" IVar="3" Cut="3.4369387817382812e+02" cType="1" res="3.7107388488948345e-03" rms="2.5238555669784546e-01" purity="5.0780773162841797e-01" nType="0">
        <Node pos="l" depth="1" NCoef="0" IVar="8" Cut="6.6625678539276123e-01" cType="1" res="9.0584559366106987e-03" rms="2.6472166180610657e-01" purity="3.0854439735412598e-01" nType="0">
          <Node pos="l" depth="2" NCoef="0" IVar="6" Cut="-4.9510456621646881e-02" cType="1" res="4.6240403316915035e-03" rms="2.6131319999694824e-01" purity="3.1759637594223022e-01" nType="0">
            <Node pos="l" depth="3" NCoef="0" IVar="-1" Cut="0.0000000000000000e+00" cType="1" res="-2.9193961527198553e-03" rms="2.5618132948875427e-01" purity="3.1078824400901794e-01" nType="-99"/>
            <Node pos="r" depth="3" NCoef="0" IVar="-1" Cut="0.0000000000000000e+00" cType="1" res="1.6682140529155731e-02" rms="2.6596760749816895e-01" purity="3.2409629225730896e-01" nType="-99"/>
          </Node>
          <Node pos="r" depth="2" NCoef="0" IVar="0" Cut="1.5589071044921875e+03" cType="1" res="2.0108539611101151e-02" rms="2.7271658182144165e-01" purity="2.8598782420158386e-01" nType="0">
            <Node pos="l" depth="3" NCoef="0" IVar="-1" Cut="0.0000000000000000e+00" cType="1" res="2.8601782396435738e-02" rms="1.6895352303981781e-01" purity="3.1350035220384598e-02" nType="-99"/>
            <Node pos="r" depth="3" NCoef="0" IVar="-1" Cut="0.0000000000000000e+00" cType="1" res="3.0474657192826271e-02" rms="3.1412014365196228e-01" purity="4.2182135581970215e-01" nType="-99"/>
          </Node>
        </Node>
        <Node pos="r" depth="1" NCoef="0" IVar="6" Cut="7.6652967929840088e-01" cType="1" res="-3.4078287426382303e-03" rms="2.3477277159690857e-01" purity="7.7305537462234497e-01" nType="0">
          <Node pos="l" depth="2" NCoef="0" IVar="7" Cut="9.3968790769577026e-01" cType="1" res="-8.6314830696210265e-04" rms="2.2851100564002991e-01" purity="8.0764853954315186e-01" nType="0">
            <Node pos="l" depth="3" NCoef="0" IVar="-1" Cut="0.0000000000000000e+00" cType="1" res="2.3457666393369436e-03" rms="2.2503684461116791e-01" purity="8.3648586273193359e-01" nType="-99"/>
            <Node pos="r" depth="3" NCoef="0" IVar="-1" Cut="0.0000000000000000e+00" cType="1" res="-2.6009103283286095e-02" rms="2.5613209605216980e-01" purity="5.5576586723327637e-01" nType="-99"/>
          </Node>
          <Node pos="r" depth="2" NCoef="0" IVar="7" Cut="-1.3295468688011169e-01" cType="1" res="-2.0121430978178978e-02" rms="2.7175378799438477e-01" purity="5.4584538936614990e-01" nType="0">
            <Node pos="l" depth="3" NCoef="0" IVar="-1" Cut="0.0000000000000000e+00" cType="1" res="-5.0326839089393616e-02" rms="2.6395419239997864e-01" purity="4.2052876949310303e-01" nType="-99"/>
            <Node pos="r" depth="3" NCoef="0" IVar="-1" Cut="0.0000000000000000e+00" cType="1" res="-3.0537180136889219e-03" rms="2.7715972065925598e-01" purity="6.5507990121841431e-01" nType="-99"/>
          </Node>
        </Node>
      </Node>
    </BinaryTree>
    <BinaryTree type="DecisionTree" boostWeight="1.0000000000000000e+00" itree="180">
      <Node pos="s" depth="0" NCoef="0" IVar="3" Cut="2.7412768554687500e+02" cType="1" res="-9.5896614948287606e-04" rms="2.4815581738948822e-01" purity="5.0629383325576782e-01" nType="0">
        <Node pos="l" depth="1" NCoef="0" IVar="0" Cut="1.7269583740234375e+03" cType="1" res="-7.7175660990178585e-03" rms="2.4943944811820984e-01" purity="1.8976044654846191e-01" nType="0">
          <Node pos="l" depth="2" NCoef="0" IVar="9" Cut="-6.6610181331634521e-01" cType="1" res="-1.4828757848590612e-03" rms="1.9189991056919098e-01" purity="4.4870823621749878e-02" nType="0">
            <Node pos="l" depth="3" NCoef="0" IVar="-1" Cut="0.0000000000000000e+00" cType="1" res="-3.5623177886009216e-02" rms="1.7120812833309174e-01" purity="3.3142648637294769e-02" nType="-99"/>
            <Node pos="r" depth="3" NCoef="0" IVar="-1" Cut="0.0000000000000000e+00" cType="1" res="1.1568251065909863e-02" rms="2.0086702704429626e-01" purity="5.0536211580038071e-02" nType="-99"/>
          </Node>
          <Node pos="r" depth="2" NCoef="0" IVar="2" Cut="4.6956814575195312e+02" cType="1" res="-2.0630206912755966e-02" rms="3.3847773075103760e-01" purity="4.8984077572822571e-01" nType="0">
            <Node pos="l" depth="3" NCoef="0" IVar="-1" Cut="0.0000000000000000e+00" cType="1" res="-4.1325174272060394e-02" rms="3.7357747554779053e-01" purity="6.0416150093078613e-01" nType="-99"/>
            <Node pos="r" depth="3" NCoef="0" IVar="-1" Cut="0.0000000000000000e+00" cType="1" res="-3.1651617027819157e-03" rms="3.1457781791687012e-01" purity="4.2230525612831116e-01" nType="-99"/>
          </Node>
        </Node>
        <Node pos="r" depth="1" NCoef="0" IVar="6" Cut="-1.0708259344100952e+00" cType="1" res="2.5015869177877903e-03" rms="2.4742452800273895e-01" purity="6.6836601495742798e-01" nType="0">
          <Node pos="l" depth="2" NCoef="0" IVar="2" Cut="4.7638574218750000e+02" cType="1" res="1.9049365073442459e-02" rms="2.6049178838729858e-01" purity="3.2306995987892151e-01" nType="0">
            <Node pos="l" depth="3" NCoef="0" IVar="-1" Cut="0.0000000000000000e+00" cType="1" res="5.7731732726097107e-02" rms="2.7645552158355713e-01" purity="2.8596636652946472e-01" nType="-99"/>
            <Node pos="r" depth="3" NCoef="0" IVar="-1" Cut="0.0000000000000000e+00" cType="1" res="5.1790196448564529e-03" rms="2.4420386552810669e-01" purity="3.5648947954177856e-01" nType="-99"/>
          </Node>
          <Node pos="r" depth="2" NCoef="0" IVar="5" Cut="8.6238708496093750e+01" cType="1" res="9.7841722890734673e-04" rms="2.4613095819950104e-01" purity="7.0014941692352295e-01" nType="0">
            <Node pos="l" depth="3" NCoef="0" IVar="-1" Cut="0.0000000000000000e+00" cType="1" res="-4.2847018688917160e-02" rms="2.0204356312751770e-01" purity="7.3824942111968994e-02" nType="-99"/>
            <Node pos="r" depth="3" NCoef="0" IVar="-1" Cut="0.0000000000000000e+00" cType="1" res="3.2650833018124104e-03" rms="2.4825553596019745e-01" purity="7.3417258262634277e-01" nType="-99"/>
          </Node>
        </Node>
      </Node>
    </BinaryTree>
    <BinaryTree type="DecisionTree" boostWeight="1.0000000000000000e+00" itree="181">
      <Node pos="s" depth="0" NCoef="0" IVar="9" Cut="1.9996509552001953e+00" cType="1" res="-1.2958996230736375e-03" rms="2.4778510630130768e-01" purity="4.9994733929634094e-01" nType="0">
        <Node pos="l" depth="1" NCoef="0" IVar="8" Cut="1.4658060073852539e+00" cType="1" res="-2.2811384405940771e-03" rms="2.4719382822513580e-01" purity="5.1019525527954102e-01" nType="0">
          <Node pos="l" depth="2" NCoef="0" IVar="8" Cut="6.5330660343170166e-01" cType="1" res="-1.4783886726945639e-03" rms="2.4735112488269806e-01" purity="5.3146678209304810e-01" nType="0">
            <Node pos="l" depth="3" NCoef="0" IVar="-1" Cut="0.0000000000000000e+00" cType="1" res="-5.2929017692804337e-03" rms="2.4271014332771301e-01" purity="5.3225982189178467e-01" nType="-99"/>
            <Node pos="r" depth="3" NCoef="0" IVar="-1" Cut="0.0000000000000000e+00" cType="1" res="7.8934067860245705e-03" rms="2.6519441604614258e-01" purity="5.2825617790222168e-01" nType="-99"/>
          </Node>
          <Node pos="r" depth="2" NCoef="0" IVar="2" Cut="4.0544747924804688e+02" cType="1" res="-1.2602234259247780e-02" rms="2.4492812156677246e-01" purity="2.3670254647731781e-01" nType="0">
            <Node pos="l" depth="3" NCoef="0" IVar="-1" Cut="0.0000000000000000e+00" cType="1" res="-4.0943391621112823e-02" rms="2.0129865407943726e-01" purity="1.2564679980278015e-01" nType="-99"/>
            <Node pos="r" depth="3" NCoef="0" IVar="-1" Cut="0.0000000000000000e+00" cType="1" res="-8.3689289167523384e-03" rms="2.6720359921455383e-01" purity="3.0246761441230774e-01" nType="-99"/>
          </Node>
        </Node>
        <Node pos="r" depth="1" NCoef="0" IVar="-1" Cut="0.0000000000000000e+00" cType="1" res="4.2247541248798370e-02" rms="2.6244330406188965e-01" purity="2.0987756550312042e-01" nType="-99"/>
      </Node>
    </BinaryTree>
    <BinaryTree type="DecisionTree" boostWeight="1.0000000000000000e+00" itree="182">
      <Node pos="s" depth="0" NCoef="0" IVar="2" Cut="4.2592266845703125e+02" cType="1" res="-1.4641886809840798e-03" rms="2.4428540468215942e-01" purity="4.9123972654342651e-01" nType="0">
        <Node pos="l" depth="1" NCoef="0" IVar="1" Cut="4.1625551879405975e-02" cType="1" res="-9.3482350930571556e-03" rms="2.5833585858345032e-01" purity="2.6858273148536682e-01" nType="0">
          <Node pos="l" depth="2" NCoef="0" IVar="7" Cut="-3.9985984563827515e-01" cType="1" res="5.2401208085939288e-04" rms="1.8460009992122650e-01" purity="6.1209827661514282e-02" nType="0">
            <Node pos="l" depth="3" NCoef="0" IVar="-1" Cut="0.0000000000000000e+00" cType="1" res="-3.7074159830808640e-02" rms="1.5410520136356354e-01" purity="4.2136825621128082e-02" nType="-99"/>
            <Node pos="r" depth="3" NCoef="0" IVar="-1" Cut="0.0000000000000000e+00" cType="1" res="2.6335798203945160e-02" rms="2.0277565717697144e-01" purity="7.4551232159137726e-02" nType="-99"/>
          </Node>
          <Node pos="r" depth="2" NCoef="0" IVar="2" Cut="2.8618289184570312e+02" cType="1" res="-1.5010695904493332e-02" rms="2.9220283031463623e-01" purity="3.8752636313438416e-01" nType="0">
            <Node pos="l" depth="3" NCoef="0" IVar="-1" Cut="0.0000000000000000e+00" cType="1" res="-4.2056944221258163e-02" rms="2.7902689576148987e-01" purity="1.8239118158817291e-01" nType="-99"/>
            <Node pos="r" depth="3" NCoef="0" IVar="-1" Cut="0.0000000000000000e+00" cType="1" res="-1.1458979919552803e-02" rms="2.9440692067146301e-01" purity="4.2680603265762329e-01" nType="-99"/>
          </Node>
        </Node>
        <Node pos="r" depth="1" NCoef="0" IVar="6" Cut="-1.0415905714035034e+00" cType="1" res="2.2333718370646238e-03" rms="2.3731935024261475e-01" purity="5.9566426277160645e-01" nType="0">
          <Node pos="l" depth="2" NCoef="0" IVar="2" Cut="5.4256561279296875e+02" cType="1" res="-1.3665322214365005e-02" rms="2.0886442065238953e-01" purity="2.0800776779651642e-01" nType="0">
            <Node pos="l" depth="3" NCoef="0" IVar="-1" Cut="0.0000000000000000e+00" cType="1" res="-4.7716982662677765e-02" rms="2.0492145419120789e-01" purity="1.9481785595417023e-01" nType="-99"/>
            <Node pos="r" depth="3" NCoef="0" IVar="-1" Cut="0.0000000000000000e+00" cType="1" res="1.8197080353274941e-03" rms="2.1205189824104309e-01" purity="2.2217434644699097e-01" nType="-99"/>
          </Node>
          <Node pos="r" depth="2" NCoef="0" IVar="5" Cut="2.1869976806640625e+02" cType="1" res="3.8577339146286249e-03" rms="2.3997743427753448e-01" purity="6.3527095317840576e-01" nType="0">
            <Node pos="l" depth="3" NCoef="0" IVar="-1" Cut="0.0000000000000000e+00" cType="1" res="9.8222093656659126e-03" rms="2.6769337058067322e-01" purity="4.8782226443290710e-01" nType="-99"/>
            <Node pos="r" depth="3" NCoef="0" IVar="-1" Cut="0.0000000000000000e+00" cType="1" res="-1.1201329529285431e-02" rms="1.6661259531974792e-01" purity="9.4702917337417603e-01" nType="-99"/>
          </Node>
        </Node>
      </Node>
    </BinaryTree>
    <BinaryTree type="DecisionTree" boostWeight="1.0000000000000000e+00" itree="183">
      <Node pos="s" depth="0" NCoef="0" IVar="4" Cut="2.3722004699707031e+02" cType="1" res="-2.0744185894727707e-03" rms="2.4514849483966827e-01" purity="4.9701184034347534e-01" nType="0">
        <Node pos="l" depth="1" NCoef="0" IVar="9" Cut="-9.3276196718215942e-01" cType="1" res="-5.1394775509834290e-03" rms="2.5525352358818054e-01" purity="2.3330327868461609e-01" nType="0">
          <Node pos="l" depth="2" NCoef="0" IVar="8" Cut="1.2885072827339172e-01" cType="1" res="7.4351187795400620e-03" rms="2.7161040902137756e-01" purity="2.3087950050830841e-01" nType="0">
            <Node pos="l" depth="3" NCoef="0" IVar="-1" Cut="0.0000000000000000e+00" cType="1" res="2.6782421395182610e-02" rms="2.7656903862953186e-01" purity="2.3835450410842896e-01" nType="-99"/>
            <Node pos="r" depth="3" NCoef="0" IVar="-1" Cut="0.0000000000000000e+00" cType="1" res="-9.8814396187663078e-03" rms="2.6356515288352966e-01" purity="2.2001066803932190e-01" nType="-99"/>
          </Node>
          <Node pos="r" depth="2" NCoef="0" IVar="3" Cut="2.5965515136718750e+02" cType="1" res="-9.3308249488472939e-03" rms="2.4942253530025482e-01" purity="2.3411116003990173e-01" nType="0">
            <Node pos="l" depth="3" NCoef="0" IVar="-1" Cut="0.0000000000000000e+00" cType="1" res="-2.6473628357052803e-02" rms="2.2491689026355743e-01" purity="1.3840769231319427e-01" nType="-99"/>
            <Node pos="r" depth="3" NCoef="0" IVar="-1" Cut="0.0000000000000000e+00" cType="1" res="-3.5549243912100792e-03" rms="2.7428609132766724e-01" purity="3.4200525283813477e-01" nType="-99"/>
          </Node>
        </Node>
        <Node pos="r" depth="1" NCoef="0" IVar="1" Cut="2.1446047350764275e-02" cType="1" res="1.7510585021227598e-03" rms="2.3186275362968445e-01" purity="8.2614451646804810e-01" nType="0">
          <Node pos="l" depth="2" NCoef="0" IVar="-1" Cut="0.0000000000000000e+00" cType="1" res="2.4291737005114555e-02" rms="2.9070609807968140e-01" purity="3.7933799624443054e-01" nType="-99"/>
          <Node pos="r" depth="2" NCoef="0" IVar="1" Cut="6.1869714409112930e-02" cType="1" res="-1.2299473746679723e-04" rms="2.2595822811126709e-01" purity="8.6478233337402344e-01" nType="0">
            <Node pos="l" depth="3" NCoef="0" IVar="-1" Cut="0.0000000000000000e+00" cType="1" res="-1.8490320071578026e-02" rms="2.8406503796577454e-01" purity="6.9608694314956665e-01" nType="-99"/>
            <Node pos="r" depth="3" NCoef="0" IVar="-1" Cut="0.0000000000000000e+00" cType="1" res="1.0054585523903370e-02" rms="2.0617584884166718e-01" purity="9.1290670633316040e-01" nType="-99"/>
          </Node>
        </Node>
      </Node>
    </BinaryTree>
    <BinaryTree type="DecisionTree" boostWeight="1.0000000000000000e+00" itree="184">
      <Node pos="s" depth="0" NCoef="0" IVar="8" Cut="1.3315311074256897e-01" cType="1" res="2.9509873129427433e-03" rms="2.5021076202392578e-01" purity="5.0459355115890503e-01" nType="0">
        <Node pos="l" depth="1" NCoef="0" IVar="0" Cut="2.3322263183593750e+03" cType="1" res="7.8249908983707428e-03" rms="2.4842323362827301e-01" purity="5.1362359523773193e-01" nType="0">
          <Node pos="l" depth="2" NCoef="0" IVar="0" Cut="1.4887855224609375e+03" cType="1" res="1.2717009522020817e-02" rms="2.7991190552711487e-01" purity="2.4216923117637634e-01" nType="0">
            <Node pos="l" depth="3" NCoef="0" IVar="-1" Cut="0.0000000000000000e+00" cType="1" res="-3.6822251975536346e-02" rms="1.1828925460577011e-01" purity="1.3977534137666225e-02" nType="-99"/>
            <Node pos="r" depth="3" NCoef="0" IVar="-1" Cut="0.0000000000000000e+00" cType="1" res="2.0628653466701508e-02" rms="3.0778187513351440e-01" purity="3.0070829391479492e-01" nType="-99"/>
          </Node>
          <Node pos="r" depth="2" NCoef="0" IVar="5" Cut="1.7648397827148438e+02" cType="1" res="2.6975572109222412e-04" rms="1.8954299390316010e-01" purity="9.3285781145095825e-01" nType="0">
            <Node pos="l" depth="3" NCoef="0" IVar="-1" Cut="0.0000000000000000e+00" cType="1" res="-1.3985376805067062e-02" rms="2.8314822912216187e-01" purity="8.0537080764770508e-01" nType="-99"/>
            <Node pos="r" depth="3" NCoef="0" IVar="-1" Cut="0.0000000000000000e+00" cType="1" res="1.2605317868292332e-02" rms="1.5398125350475311e-01" purity="9.6791893243789673e-01" nType="-99"/>
          </Node>
        </Node>
        <Node pos="r" depth="1" NCoef="0" IVar="7" Cut="-1.3431040942668915e-01" cType="1" res="-3.0470667406916618e-03" rms="2.5226393342018127e-01" purity="4.9348095059394836e-01" nType="0">
          <Node pos="l" depth="2" NCoef="0" IVar="1" Cut="9.5700941979885101e-02" cType="1" res="5.6054168380796909e-03" rms="2.5418359041213989e-01" purity="4.8408487439155579e-01" nType="0">
            <Node pos="l" depth="3" NCoef="0" IVar="-1" Cut="0.0000000000000000e+00" cType="1" res="1.7681576311588287e-02" rms="2.6669424772262573e-01" purity="3.3878189325332642e-01" nType="-99"/>
            <Node pos="r" depth="3" NCoef="0" IVar="-1" Cut="0.0000000000000000e+00" cType="1" res="-1.3962704688310623e-02" rms="2.2427676618099213e-01" purity="7.9718458652496338e-01" nType="-99"/>
          </Node>
          <Node pos="r" depth="2" NCoef="0" IVar="5" Cut="1.7745648193359375e+02" cType="1" res="-9.5193888992071152e-03" rms="2.5062313675880432e-01" purity="5.0050944089889526e-01" nType="0">
            <Node pos="l" depth="3" NCoef="0" IVar="-1" Cut="0.0000000000000000e+00" cType="1" res="-2.5603838264942169e-02" rms="2.6376599073410034e-01" purity="2.4784019589424133e-01" nType="-99"/>
            <Node pos="r" depth="3" NCoef="0" IVar="-1" Cut="0.0000000000000000e+00" cType="1" res="7.3629715479910374e-03" rms="2.2985275089740753e-01" purity="8.6205768585205078e-01" nType="-99"/>
          </Node>
        </Node>
      </Node>
    </BinaryTree>
    <BinaryTree type="DecisionTree" boostWeight="1.0000000000000000e+00" itree="185">
      <Node pos="s" depth="0" NCoef="0" IVar="6" Cut="-1.6670291423797607e+00" cType="1" res="3.8739938754588366e-03" rms="2.5116822123527527e-01" purity="5.0603014230728149e-01" nType="0">
        <Node pos="l" depth="1" NCoef="0" IVar="-1" Cut="0.0000000000000000e+00" cType="1" res="-6.1553273350000381e-02" rms="1.2598113715648651e-01" purity="2.4641403928399086e-02" nType="-99"/>
        <Node pos="r" depth="1" NCoef="0" IVar="9" Cut="-1.4652544260025024e+00" cType="1" res="4.6611744910478592e-03" rms="2.5493383407592773e-01" purity="5.2562266588211060e-01" nType="0">
          <Node pos="l" depth="2" NCoef="0" IVar="0" Cut="2.0286750488281250e+03" cType="1" res="1.9656108692288399e-02" rms="2.9541528224945068e-01" purity="3.8333612680435181e-01" nType="0">
            <Node pos="l" depth="3" NCoef="0" IVar="-1" Cut="0.0000000000000000e+00" cType="1" res="4.3672963976860046e-02" rms="2.9157456755638123e-01" purity="1.5688835084438324e-01" nType="-99"/>
            <Node pos="r" depth="3" NCoef="0" IVar="-1" Cut="0.0000000000000000e+00" cType="1" res="9.7757938783615828e-04" rms="3.0100724101066589e-01" purity="7.7420252561569214e-01" nType="-99"/>
          </Node>
          <Node pos="r" depth="2" NCoef="0" IVar="8" Cut="-1.4663760662078857e+00" cType="1" res="3.1612836755812168e-03" rms="2.5047561526298523e-01" purity="5.3985506296157837e-01" nType="0">
            <Node pos="l" depth="3" NCoef="0" IVar="-1" Cut="0.0000000000000000e+00" cType="1" res="-2.1495006978511810e-02" rms="2.5379702448844910e-01" purity="2.2558598220348358e-01" nType="-99"/>
            <Node pos="r" depth="3" NCoef="0" IVar="-1" Cut="0.0000000000000000e+00" cType="1" res="7.4264821596443653e-03" rms="2.5012093782424927e-01" purity="5.6818145513534546e-01" nType="-99"/>
          </Node>
        </Node>
      </Node>
    </BinaryTree>
    <BinaryTree type="DecisionTree" boostWeight="1.0000000000000000e+00" itree="186">
      <Node pos="s" depth="0" NCoef="0" IVar="8" Cut="9.3301826715469360e-01" cType="1" res="-1.0200318647548556e-03" rms="2.4881120026111603e-01" purity="5.0260013341903687e-01" nType="0">
        <Node pos="l" depth="1" NCoef="0" IVar="3" Cut="3.4627020263671875e+02" cType="1" res="9.6442899666726589e-04" rms="2.4550256133079529e-01" purity="5.3335845470428467e-01" nType="0">
          <Node pos="l" depth="2" NCoef="0" IVar="6" Cut="-1.0774177312850952e+00" cType="1" res="-2.1199521142989397e-03" rms="2.5702875852584839e-01" purity="3.1869450211524963e-01" nType="0">
            <Node pos="l" depth="3" NCoef="0" IVar="-1" Cut="0.0000000000000000e+00" cType="1" res="2.3927751928567886e-02" rms="2.1979415416717529e-01" purity="1.2516230344772339e-01" nType="-99"/>
            <Node pos="r" depth="3" NCoef="0" IVar="-1" Cut="0.0000000000000000e+00" cType="1" res="-6.2261349521577358e-03" rms="2.6291683316230774e-01" purity="3.5245525836944580e-01" nType="-99"/>
          </Node>
          <Node pos="r" depth="2" NCoef="0" IVar="6" Cut="7.4966251850128174e-01" cType="1" res="4.9087926745414734e-03" rms="2.2986195981502533e-01" purity="8.0787473917007446e-01" nType="0">
            <Node pos="l" depth="3" NCoef="0" IVar="-1" Cut="0.0000000000000000e+00" cType="1" res="3.8655367679893970e-03" rms="2.2399273514747620e-01" purity="8.3412623405456543e-01" nType="-99"/>
            <Node pos="r" depth="3" NCoef="0" IVar="-1" Cut="0.0000000000000000e+00" cType="1" res="3.3241227269172668e-02" rms="2.6426142454147339e-01" purity="6.3627564907073975e-01" nType="-99"/>
          </Node>
        </Node>
        <Node pos="r" depth="1" NCoef="0" IVar="4" Cut="1.6570765686035156e+02" cType="1" res="-9.6810702234506607e-03" rms="2.6258873939514160e-01" purity="3.6835744976997375e-01" nType="0">
          <Node pos="l" depth="2" NCoef="0" IVar="9" Cut="1.3319975137710571e-01" cType="1" res="6.0688611119985580e-03" rms="2.1413068473339081e-01" purity="9.8147064447402954e-02" nType="0">
            <Node pos="l" depth="3" NCoef="0" IVar="-1" Cut="0.0000000000000000e+00" cType="1" res="3.9301417768001556e-02" rms="2.3376739025115967e-01" purity="1.2072809040546417e-01" nType="-99"/>
            <Node pos="r" depth="3" NCoef="0" IVar="-1" Cut="0.0000000000000000e+00" cType="1" res="-1.3303272426128387e-02" rms="1.9381254911422729e-01" purity="7.7618747949600220e-02" nType="-99"/>
          </Node>
          <Node pos="r" depth="2" NCoef="0" IVar="9" Cut="-6.6546112298965454e-01" cType="1" res="-1.7109675332903862e-02" rms="2.8227013349533081e-01" purity="4.9580478668212891e-01" nType="0">
            <Node pos="l" depth="3" NCoef="0" IVar="-1" Cut="0.0000000000000000e+00" cType="1" res="-4.1883770376443863e-02" rms="3.0857163667678833e-01" purity="4.5133110880851746e-01" nType="-99"/>
            <Node pos="r" depth="3" NCoef="0" IVar="-1" Cut="0.0000000000000000e+00" cType="1" res="-1.2874959968030453e-02" rms="2.7311173081398010e-01" purity="5.0965601205825806e-01" nType="-99"/>
          </Node>
        </Node>
      </Node>
    </BinaryTree>
    <BinaryTree type="DecisionTree" boostWeight="1.0000000000000000e+00" itree="187">
      <Node pos="s" depth="0" NCoef="0" IVar="9" Cut="1.7310283184051514e+00" cType="1" res="1.0292091174051166e-03" rms="2.4915018677711487e-01" purity="5.0159722566604614e-01" nType="0">
        <Node pos="l" depth="1" NCoef="0" IVar="8" Cut="3.9854571223258972e-01" cType="1" res="-1.2245342077221721e-04" rms="2.4768170714378357e-01" purity="5.1847177743911743e-01" nType="0">
          <Node pos="l" depth="2" NCoef="0" IVar="7" Cut="1.3300172984600067e-01" cType="1" res="2.5842867325991392e-03" rms="2.4606266617774963e-01" purity="5.4525667428970337e-01" nType="0">
            <Node pos="l" depth="3" NCoef="0" IVar="-1" Cut="0.0000000000000000e+00" cType="1" res="-2.7385223656892776e-03" rms="2.4423669278621674e-01" purity="5.4809749126434326e-01" nType="-99"/>
            <Node pos="r" depth="3" NCoef="0" IVar="-1" Cut="0.0000000000000000e+00" cType="1" res="1.3943239115178585e-02" rms="2.4849708378314972e-01" purity="5.4124367237091064e-01" nType="-99"/>
          </Node>
          <Node pos="r" depth="2" NCoef="0" IVar="9" Cut="1.0832735300064087e+00" cType="1" res="-5.4809665307402611e-03" rms="2.5076991319656372e-01" purity="4.6544587612152100e-01" nType="0">
            <Node pos="l" depth="3" NCoef="0" IVar="-1" Cut="0.0000000000000000e+00" cType="1" res="-2.2504935041069984e-03" rms="2.5040897727012634e-01" purity="4.7383356094360352e-01" nType="-99"/>
            <Node pos="r" depth="3" NCoef="0" IVar="-1" Cut="0.0000000000000000e+00" cType="1" res="-4.4508926570415497e-02" rms="2.5149783492088318e-01" purity="4.0856790542602539e-01" nType="-99"/>
          </Node>
        </Node>
        <Node pos="r" depth="1" NCoef="0" IVar="8" Cut="4.0129327774047852e-01" cType="1" res="1.8444074317812920e-02" rms="2.6978698372840881e-01" purity="2.4642913043498993e-01" nType="0">
          <Node pos="l" depth="2" NCoef="0" IVar="-1" Cut="0.0000000000000000e+00" cType="1" res="7.2004366666078568e-03" rms="2.7007240056991577e-01" purity="2.4133838713169098e-01" nType="-99"/>
          <Node pos="r" depth="2" NCoef="0" IVar="-1" Cut="0.0000000000000000e+00" cType="1" res="6.0386974364519119e-02" rms="2.6822015643119812e-01" purity="2.5358086824417114e-01" nType="-99"/>
        </Node>
      </Node>
    </BinaryTree>
    <BinaryTree type="DecisionTree" boostWeight="1.0000000000000000e+00" itree="188">
      <Node pos="s" depth="0" NCoef="0" IVar="9" Cut="-1.4659913778305054e+00" cType="1" res="-1.0626175208017230e-03" rms="2.5055542588233948e-01" purity="4.9562066793441772e-01" nType="0">
        <Node pos="l" depth="1" NCoef="0" IVar="5" Cut="1.2357395172119141e+02" cType="1" res="-1.7191138118505478e-02" rms="3.0202469229698181e-01" purity="3.1333062052726746e-01" nType="0">
          <Node pos="l" depth="2" NCoef="0" IVar="-1" Cut="0.0000000000000000e+00" cType="1" res="1.4886808581650257e-02" rms="2.4659666419029236e-01" purity="1.3126070797443390e-01" nType="-99"/>
          <Node pos="r" depth="2" NCoef="0" IVar="7" Cut="-1.1886560171842575e-01" cType="1" res="-3.5609632730484009e-02" rms="3.3496594429016113e-01" purity="4.4383010268211365e-01" nType="0">
            <Node pos="l" depth="3" NCoef="0" IVar="-1" Cut="0.0000000000000000e+00" cType="1" res="-5.6171122938394547e-02" rms="3.5029479861259460e-01" purity="4.4040882587432861e-01" nType="-99"/>
            <Node pos="r" depth="3" NCoef="0" IVar="-1" Cut="0.0000000000000000e+00" cType="1" res="-1.3188191689550877e-02" rms="3.1575518846511841e-01" purity="4.4755566120147705e-01" nType="-99"/>
          </Node>
        </Node>
        <Node pos="r" depth="1" NCoef="0" IVar="9" Cut="-8.5660439729690552e-01" cType="1" res="7.1315519744530320e-04" rms="2.4416151642799377e-01" purity="5.1569104194641113e-01" nType="0">
          <Node pos="l" depth="2" NCoef="0" IVar="3" Cut="3.0457342529296875e+02" cType="1" res="8.5158944129943848e-03" rms="2.5592049956321716e-01" purity="5.0916308164596558e-01" nType="0">
            <Node pos="l" depth="3" NCoef="0" IVar="-1" Cut="0.0000000000000000e+00" cType="1" res="3.3406179398298264e-02" rms="2.6025128364562988e-01" purity="2.5984299182891846e-01" nType="-99"/>
            <Node pos="r" depth="3" NCoef="0" IVar="-1" Cut="0.0000000000000000e+00" cType="1" res="-1.3289289781823754e-03" rms="2.5188285112380981e-01" purity="7.1608471870422363e-01" nType="-99"/>
          </Node>
          <Node pos="r" depth="2" NCoef="0" IVar="8" Cut="-1.4654796123504639e+00" cType="1" res="-7.0657470496371388e-04" rms="2.4193343520164490e-01" purity="5.1687884330749512e-01" nType="0">
            <Node pos="l" depth="3" NCoef="0" IVar="-1" Cut="0.0000000000000000e+00" cType="1" res="1.8499927595257759e-02" rms="2.7237370610237122e-01" purity="2.4247394502162933e-01" nType="-99"/>
            <Node pos="r" depth="3" NCoef="0" IVar="-1" Cut="0.0000000000000000e+00" cType="1" res="-2.8110051061958075e-03" rms="2.3941797018051147e-01" purity="5.3785985708236694e-01" nType="-99"/>
          </Node>
        </Node>
      </Node>
    </BinaryTree>
    <BinaryTree type="DecisionTree" boostWeight="1.0000000000000000e+00" itree="189">
      <Node pos="s" depth="0" NCoef="0" IVar="0" Cut="2.4650954589843750e+03" cType="1" res="-6.8776970729231834e-03" rms="2.4811814725399017e-01" purity="4.9193960428237915e-01" nType="0">
        <Node pos="l" depth="1" NCoef="0" IVar="4" Cut="2.3338377380371094e+02" cType="1" res="-1.0827773250639439e-02" rms="2.7468287944793701e-01" purity="2.7176555991172791e-01" nType="0">
          <Node pos="l" depth="2" NCoef="0" IVar="9" Cut="-1.4657411575317383e+00" cType="1" res="-5.3825885988771915e-03" rms="2.5414067506790161e-01" purity="1.6737200319766998e-01" nType="0">
            <Node pos="l" depth="3" NCoef="0" IVar="-1" Cut="0.0000000000000000e+00" cType="1" res="-4.4605195522308350e-02" rms="2.5652503967285156e-01" purity="1.3043330609798431e-01" nType="-99"/>
            <Node pos="r" depth="3" NCoef="0" IVar="-1" Cut="0.0000000000000000e+00" cType="1" res="-2.4855358060449362e-03" rms="2.5357243418693542e-01" purity="1.7271885275840759e-01" nType="-99"/>
          </Node>
          <Node pos="r" depth="2" NCoef="0" IVar="2" Cut="5.8131158447265625e+02" cType="1" res="-2.5751588866114616e-02" rms="3.2391342520713806e-01" purity="5.5788087844848633e-01" nType="0">
            <Node pos="l" depth="3" NCoef="0" IVar="-1" Cut="0.0000000000000000e+00" cType="1" res="-1.5881665050983429e-02" rms="3.1849384307861328e-01" purity="5.7288569211959839e-01" nType="-99"/>
            <Node pos="r" depth="3" NCoef="0" IVar="-1" Cut="0.0000000000000000e+00" cType="1" res="-5.2501831203699112e-02" rms="3.4672632813453674e-01" purity="4.8191338777542114e-01" nType="-99"/>
          </Node>
        </Node>
        <Node pos="r" depth="1" NCoef="0" IVar="8" Cut="-9.3186521530151367e-01" cType="1" res="1.2840271228924394e-03" rms="1.8101923167705536e-01" purity="9.4686752557754517e-01" nType="0">
          <Node pos="l" depth="2" NCoef="0" IVar="-1" Cut="0.0000000000000000e+00" cType="1" res="-2.1815389394760132e-02" rms="2.3100838065147400e-01" purity="9.0422332286834717e-01" nType="-99"/>
          <Node pos="r" depth="2" NCoef="0" IVar="7" Cut="-3.6524778604507446e-01" cType="1" res="2.7728334534913301e-03" rms="1.7371998727321625e-01" purity="9.5218706130981445e-01" nType="0">
            <Node pos="l" depth="3" NCoef="0" IVar="-1" Cut="0.0000000000000000e+00" cType="1" res="-1.0855481028556824e-02" rms="2.0059397816658020e-01" purity="9.3038016557693481e-01" nType="-99"/>
            <Node pos="r" depth="3" NCoef="0" IVar="-1" Cut="0.0000000000000000e+00" cType="1" res="1.8545066937804222e-02" rms="1.6096279025077820e-01" purity="9.6137833595275879e-01" nType="-99"/>
          </Node>
        </Node>
      </Node>
    </BinaryTree>
    <BinaryTree type="DecisionTree" boostWeight="1.0000000000000000e+00" itree="190">
      <Node pos="s" depth="0" NCoef="0" IVar="8" Cut="-6.6684138774871826e-01" cType="1" res="1.1051214532926679e-03" rms="2.4971103668212891e-01" purity="5.0410205125808716e-01" nType="0">
        <Node pos="l" depth="1" NCoef="0" IVar="1" Cut="3.8250692188739777e-02" cType="1" res="-5.6468448601663113e-03" rms="2.5811567902565002e-01" purity="4.0437480807304382e-01" nType="0">
          <Node pos="l" depth="2" NCoef="0" IVar="0" Cut="1.8252075195312500e+03" cType="1" res="6.2329536303877831e-03" rms="2.2118502855300903e-01" purity="1.5249061584472656e-01" nType="0">
            <Node pos="l" depth="3" NCoef="0" IVar="-1" Cut="0.0000000000000000e+00" cType="1" res="-1.4000243507325649e-02" rms="1.1651214212179184e-01" purity="1.4826716855168343e-02" nType="-99"/>
            <Node pos="r" depth="3" NCoef="0" IVar="-1" Cut="0.0000000000000000e+00" cType="1" res="1.8872763961553574e-02" rms="3.3552178740501404e-01" purity="4.0181431174278259e-01" nType="-99"/>
          </Node>
          <Node pos="r" depth="2" NCoef="0" IVar="9" Cut="1.3113072514533997e-01" cType="1" res="-1.2817265465855598e-02" rms="2.7779674530029297e-01" purity="5.5640733242034912e-01" nType="0">
            <Node pos="l" depth="3" NCoef="0" IVar="-1" Cut="0.0000000000000000e+00" cType="1" res="-2.7820376679301262e-02" rms="2.7644315361976624e-01" purity="5.4394024610519409e-01" nType="-99"/>
            <Node pos="r" depth="3" NCoef="0" IVar="-1" Cut="0.0000000000000000e+00" cType="1" res="3.4144611563533545e-03" rms="2.7895849943161011e-01" purity="5.7392054796218872e-01" nType="-99"/>
          </Node>
        </Node>
        <Node pos="r" depth="1" NCoef="0" IVar="6" Cut="7.2972512245178223e-01" cType="1" res="3.4267597366124392e-03" rms="2.4671231210231781e-01" purity="5.3839290142059326e-01" nType="0">
          <Node pos="l" depth="2" NCoef="0" IVar="2" Cut="3.1518896484375000e+02" cType="1" res="8.3749141776934266e-04" rms="2.4845583736896515e-01" purity="5.8153843879699707e-01" nType="0">
            <Node pos="l" depth="3" NCoef="0" IVar="-1" Cut="0.0000000000000000e+00" cType="1" res="-2.2948686033487320e-02" rms="2.8135168552398682e-01" purity="2.3044911026954651e-01" nType="-99"/>
            <Node pos="r" depth="3" NCoef="0" IVar="-1" Cut="0.0000000000000000e+00" cType="1" res="4.2873201891779900e-03" rms="2.4517244100570679e-01" purity="6.1343580484390259e-01" nType="-99"/>
          </Node>
          <Node pos="r" depth="2" NCoef="0" IVar="8" Cut="-6.8676332011818886e-03" cType="1" res="1.4651367440819740e-02" rms="2.3868241906166077e-01" purity="3.5135495662689209e-01" nType="0">
            <Node pos="l" depth="3" NCoef="0" IVar="-1" Cut="0.0000000000000000e+00" cType="1" res="6.2140703201293945e-02" rms="2.3757800459861755e-01" purity="4.0986889600753784e-01" nType="-99"/>
            <Node pos="r" depth="3" NCoef="0" IVar="-1" Cut="0.0000000000000000e+00" cType="1" res="6.7104795016348362e-03" rms="2.3857131600379944e-01" purity="3.2140746712684631e-01" nType="-99"/>
          </Node>
        </Node>
      </Node>
    </BinaryTree>
    <BinaryTree type="DecisionTree" boostWeight="1.0000000000000000e+00" itree="191">
      <Node pos="s" depth="0" NCoef="0" IVar="7" Cut="-1.4664789438247681e+00" cType="1" res="-1.3925570528954268e-03" rms="2.4583631753921509e-01" purity="4.9846163392066956e-01" nType="0">
        <Node pos="l" depth="1" NCoef="0" IVar="1" Cut="2.2125722840428352e-02" cType="1" res="1.5296267345547676e-02" rms="2.3198853433132172e-01" purity="1.5539775788784027e-01" nType="0">
          <Node pos="l" depth="2" NCoef="0" IVar="-1" Cut="0.0000000000000000e+00" cType="1" res="1.9079619087278843e-03" rms="1.5286882221698761e-01" purity="3.0054014176130295e-02" nType="-99"/>
          <Node pos="r" depth="2" NCoef="0" IVar="-1" Cut="0.0000000000000000e+00" cType="1" res="4.0907979011535645e-02" rms="2.9114332795143127e-01" purity="2.8469967842102051e-01" nType="-99"/>
        </Node>
        <Node pos="r" depth="1" NCoef="0" IVar="0" Cut="2.1988215332031250e+03" cType="1" res="-2.4752917233854532e-03" rms="2.4666889011859894e-01" purity="5.2071887254714966e-01" nType="0">
          <Node pos="l" depth="2" NCoef="0" IVar="0" Cut="2.1227424316406250e+03" cType="1" res="-5.7440381497144699e-03" rms="2.7329939603805542e-01" purity="1.8735072016716003e-01" nType="0">
            <Node pos="l" depth="3" NCoef="0" IVar="-1" Cut="0.0000000000000000e+00" cType="1" res="-4.9663987010717392e-03" rms="2.6817384362220764e-01" purity="1.5879476070404053e-01" nType="-99"/>
            <Node pos="r" depth="3" NCoef="0" IVar="-1" Cut="0.0000000000000000e+00" cType="1" res="-3.3249590545892715e-02" rms="3.4494265913963318e-01" purity="6.5524470806121826e-01" nType="-99"/>
          </Node>
          <Node pos="r" depth="2" NCoef="0" IVar="0" Cut="2.4270632324218750e+03" cType="1" res="1.4157573459669948e-03" rms="2.1055755019187927e-01" purity="9.1755348443984985e-01" nType="0">
            <Node pos="l" depth="3" NCoef="0" IVar="-1" Cut="0.0000000000000000e+00" cType="1" res="1.5123862773180008e-02" rms="2.9749497771263123e-01" purity="8.1294369697570801e-01" nType="-99"/>
            <Node pos="r" depth="3" NCoef="0" IVar="-1" Cut="0.0000000000000000e+00" cType="1" res="-5.0878524780273438e-03" rms="1.8245713412761688e-01" purity="9.4359034299850464e-01" nType="-99"/>
          </Node>
        </Node>
      </Node>
    </BinaryTree>
    <BinaryTree type="DecisionTree" boostWeight="1.0000000000000000e+00" itree="192">
      <Node pos="s" depth="0" NCoef="0" IVar="9" Cut="-1.9991667270660400e+00" cType="1" res="1.6091020370367914e-04" rms="2.4599991738796234e-01" purity="5.0413960218429565e-01" nType="0">
        <Node pos="l" depth="1" NCoef="0" IVar="-1" Cut="0.0000000000000000e+00" cType="1" res="-3.0398059636354446e-02" rms="2.4274665117263794e-01" purity="1.7428480088710785e-01" nType="-99"/>
        <Node pos="r" depth="1" NCoef="0" IVar="2" Cut="3.2194494628906250e+02" cType="1" res="9.0821785852313042e-04" rms="2.4609051644802094e-01" purity="5.1657795906066895e-01" nType="0">
          <Node pos="l" depth="2" NCoef="0" IVar="2" Cut="2.9293096923828125e+02" cType="1" res="1.3546461239457130e-02" rms="2.7048814296722412e-01" purity="2.0581103861331940e-01" nType="0">
            <Node pos="l" depth="3" NCoef="0" IVar="-1" Cut="0.0000000000000000e+00" cType="1" res="4.3215692043304443e-02" rms="2.8732413053512573e-01" purity="2.0067180693149567e-01" nType="-99"/>
            <Node pos="r" depth="3" NCoef="0" IVar="-1" Cut="0.0000000000000000e+00" cType="1" res="-1.2483487837016582e-02" rms="2.4319311976432800e-01" purity="2.1302691102027893e-01" nType="-99"/>
          </Node>
          <Node pos="r" depth="2" NCoef="0" IVar="6" Cut="-1.2990499734878540e+00" cType="1" res="-5.1550538046285510e-04" rms="2.4314756691455841e-01" purity="5.5158644914627075e-01" nType="0">
            <Node pos="l" depth="3" NCoef="0" IVar="-1" Cut="0.0000000000000000e+00" cType="1" res="-3.3346392214298248e-02" rms="1.9443809986114502e-01" purity="1.1177415400743484e-01" nType="-99"/>
            <Node pos="r" depth="3" NCoef="0" IVar="-1" Cut="0.0000000000000000e+00" cType="1" res="6.9500034442171454e-04" rms="2.4606068432331085e-01" purity="5.8128124475479126e-01" nType="-99"/>
          </Node>
        </Node>
      </Node>
    </BinaryTree>
    <BinaryTree type="DecisionTree" boostWeight="1.0000000000000000e+00" itree="193">
      <Node pos="s" depth="0" NCoef="0" IVar="1" Cut="8.4554105997085571e-02" cType="1" res="1.6168387082871050e-04" rms="2.4877384305000305e-01" purity="5.0111728906631470e-01" nType="0">
        <Node pos="l" depth="1" NCoef="0" IVar="7" Cut="6.6386997699737549e-01" cType="1" res="-3.8002773653715849e-03" rms="2.5600263476371765e-01" purity="3.1582137942314148e-01" nType="0">
          <Node pos="l" depth="2" NCoef="0" IVar="7" Cut="3.3390855789184570e-01" cType="1" res="-8.7501304224133492e-03" rms="2.5496804714202881e-01" purity="3.4364527463912964e-01" nType="0">
            <Node pos="l" depth="3" NCoef="0" IVar="-1" Cut="0.0000000000000000e+00" cType="1" res="-9.3205887824296951e-03" rms="2.5152456760406494e-01" purity="3.3818939328193665e-01" nType="-99"/>
            <Node pos="r" depth="3" NCoef="0" IVar="-1" Cut="0.0000000000000000e+00" cType="1" res="-3.0275639146566391e-02" rms="2.7379643917083740e-01" purity="3.7560659646987915e-01" nType="-99"/>
          </Node>
          <Node pos="r" depth="2" NCoef="0" IVar="5" Cut="1.1849005889892578e+02" cType="1" res="8.8161313906311989e-03" rms="2.5819212198257446e-01" purity="2.4490256607532501e-01" nType="0">
            <Node pos="l" depth="3" NCoef="0" IVar="-1" Cut="0.0000000000000000e+00" cType="1" res="-1.3519121333956718e-02" rms="1.7454607784748077e-01" purity="4.6739395707845688e-02" nType="-99"/>
            <Node pos="r" depth="3" NCoef="0" IVar="-1" Cut="0.0000000000000000e+00" cType="1" res="2.2137101739645004e-02" rms="3.0252891778945923e-01" purity="3.8209459185600281e-01" nType="-99"/>
          </Node>
        </Node>
        <Node pos="r" depth="1" NCoef="0" IVar="6" Cut="2.6570257544517517e-01" cType="1" res="6.0882219113409519e-03" rms="2.3742693662643433e-01" purity="7.7829402685165405e-01" nType="0">
          <Node pos="l" depth="2" NCoef="0" IVar="0" Cut="2.3926596679687500e+03" cType="1" res="1.1752064339816570e-02" rms="2.2908888757228851e-01" purity="7.9736530780792236e-01" nType="0">
            <Node pos="l" depth="3" NCoef="0" IVar="-1" Cut="0.0000000000000000e+00" cType="1" res="1.8668537959456444e-02" rms="3.1533122062683105e-01" purity="5.6941944360733032e-01" nType="-99"/>
            <Node pos="r" depth="3" NCoef="0" IVar="-1" Cut="0.0000000000000000e+00" cType="1" res="2.6879495009779930e-02" rms="1.1694059520959854e-01" purity="9.8524820804595947e-01" nType="-99"/>
          </Node>
          <Node pos="r" depth="2" NCoef="0" IVar="2" Cut="4.6790472412109375e+02" cType="1" res="-5.4980623535811901e-03" rms="2.5323694944381714e-01" purity="7.3928070068359375e-01" nType="0">
            <Node pos="l" depth="3" NCoef="0" IVar="-1" Cut="0.0000000000000000e+00" cType="1" res="-2.1929318085312843e-02" rms="3.0156910419464111e-01" purity="5.2791219949722290e-01" nType="-99"/>
            <Node pos="r" depth="3" NCoef="0" IVar="-1" Cut="0.0000000000000000e+00" cType="1" res="1.5697931870818138e-02" rms="2.0227579772472382e-01" purity="9.1979223489761353e-01" nType="-99"/>
          </Node>
        </Node>
      </Node>
    </BinaryTree>
    <BinaryTree type="DecisionTree" boostWeight="1.0000000000000000e+00" itree="194">
      <Node pos="s" depth="0" NCoef="0" IVar="8" Cut="-6.6735291481018066e-01" cType="1" res="-4.1163233108818531e-03" rms="2.5005412101745605e-01" purity="4.9863255023956299e-01" nType="0">
        <Node pos="l" depth="1" NCoef="0" IVar="9" Cut="1.1986972093582153e+00" cType="1" res="-1.1901120655238628e-02" rms="2.5549921393394470e-01" purity="3.8771647214889526e-01" nType="0">
          <Node pos="l" depth="2" NCoef="0" IVar="0" Cut="1.6264813232421875e+03" cType="1" res="-7.5055910274386406e-03" rms="2.5960633158683777e-01" purity="4.1086831688880920e-01" nType="0">
            <Node pos="l" depth="3" NCoef="0" IVar="-1" Cut="0.0000000000000000e+00" cType="1" res="3.9194744080305099e-02" rms="1.6814227402210236e-01" purity="3.3578380942344666e-02" nType="-99"/>
            <Node pos="r" depth="3" NCoef="0" IVar="-1" Cut="0.0000000000000000e+00" cType="1" res="-1.6021879389882088e-02" rms="2.8685164451599121e-01" purity="5.5582255125045776e-01" nType="-99"/>
          </Node>
          <Node pos="r" depth="2" NCoef="0" IVar="-1" Cut="0.0000000000000000e+00" cType="1" res="-5.2368566393852234e-02" rms="2.2713936865329742e-01" purity="2.4702107906341553e-01" nType="-99"/>
        </Node>
        <Node pos="r" depth="1" NCoef="0" IVar="5" Cut="1.4542790222167969e+02" cType="1" res="-1.4082445995882154e-03" rms="2.4807465076446533e-01" purity="5.3721666336059570e-01" nType="0">
          <Node pos="l" depth="2" NCoef="0" IVar="4" Cut="2.0981187438964844e+02" cType="1" res="3.4753382205963135e-03" rms="2.5402513146400452e-01" purity="1.8363168835639954e-01" nType="0">
            <Node pos="l" depth="3" NCoef="0" IVar="-1" Cut="0.0000000000000000e+00" cType="1" res="-1.4102243585512042e-03" rms="2.3687005043029785e-01" purity="1.1997713148593903e-01" nType="-99"/>
            <Node pos="r" depth="3" NCoef="0" IVar="-1" Cut="0.0000000000000000e+00" cType="1" res="1.8537614494562149e-02" rms="3.0302441120147705e-01" purity="3.9184865355491638e-01" nType="-99"/>
          </Node>
          <Node pos="r" depth="2" NCoef="0" IVar="1" Cut="2.1370977163314819e-02" cType="1" res="-4.6438309364020824e-03" rms="2.4399848282337189e-01" purity="7.7148211002349854e-01" nType="0">
            <Node pos="l" depth="3" NCoef="0" IVar="-1" Cut="0.0000000000000000e+00" cType="1" res="-3.6975011229515076e-02" rms="2.5632476806640625e-01" purity="2.9306188225746155e-01" nType="-99"/>
            <Node pos="r" depth="3" NCoef="0" IVar="-1" Cut="0.0000000000000000e+00" cType="1" res="-4.6636471524834633e-03" rms="2.4289587140083313e-01" purity="8.0939447879791260e-01" nType="-99"/>
          </Node>
        </Node>
      </Node>
    </BinaryTree>
    <BinaryTree type="DecisionTree" boostWeight="1.0000000000000000e+00" itree="195">
      <Node pos="s" depth="0" NCoef="0" IVar="7" Cut="-1.7317574024200439e+00" cType="1" res="-1.7846333794295788e-03" rms="2.4751852452754974e-01" purity="4.9640938639640808e-01" nType="0">
        <Node pos="l" depth="1" NCoef="0" IVar="-1" Cut="0.0000000000000000e+00" cType="1" res="-5.5821478366851807e-02" rms="1.7714126408100128e-01" purity="5.6763339787721634e-02" nType="-99"/>
        <Node pos="r" depth="1" NCoef="0" IVar="7" Cut="-1.0841559171676636e+00" cType="1" res="-9.4136217376217246e-04" rms="2.5036334991455078e-01" purity="5.1747399568557739e-01" nType="0">
          <Node pos="l" depth="2" NCoef="0" IVar="8" Cut="3.9940485358238220e-01" cType="1" res="-1.0976172983646393e-02" rms="2.5374570488929749e-01" purity="2.9494312405586243e-01" nType="0">
            <Node pos="l" depth="3" NCoef="0" IVar="-1" Cut="0.0000000000000000e+00" cType="1" res="-4.2090746574103832e-03" rms="2.4353925883769989e-01" purity="3.3037829399108887e-01" nType="-99"/>
            <Node pos="r" depth="3" NCoef="0" IVar="-1" Cut="0.0000000000000000e+00" cType="1" res="-3.8649857044219971e-02" rms="2.7143630385398865e-01" purity="2.2758823633193970e-01" nType="-99"/>
          </Node>
          <Node pos="r" depth="2" NCoef="0" IVar="7" Cut="-3.4441798925399780e-01" cType="1" res="1.3628150918520987e-04" rms="2.4997344613075256e-01" purity="5.4137170314788818e-01" nType="0">
            <Node pos="l" depth="3" NCoef="0" IVar="-1" Cut="0.0000000000000000e+00" cType="1" res="1.1124789714813232e-02" rms="2.5154498219490051e-01" purity="5.6855905055999756e-01" nType="-99"/>
            <Node pos="r" depth="3" NCoef="0" IVar="-1" Cut="0.0000000000000000e+00" cType="1" res="-3.6026982124894857e-03" rms="2.4939066171646118e-01" purity="5.3210508823394775e-01" nType="-99"/>
          </Node>
        </Node>
      </Node>
    </BinaryTree>
    <BinaryTree type="DecisionTree" boostWeight="1.0000000000000000e+00" itree="196">
      <Node pos="s" depth="0" NCoef="0" IVar="7" Cut="-1.3280275464057922e-01" cType="1" res="-1.2584743672050536e-04" rms="2.4718949198722839e-01" purity="5.0427830219268799e-01" nType="0">
        <Node pos="l" depth="1" NCoef="0" IVar="1" Cut="1.0078765451908112e-01" cType="1" res="-5.6765028275549412e-03" rms="2.4399214982986450e-01" purity="4.7232025861740112e-01" nType="0">
          <Node pos="l" depth="2" NCoef="0" IVar="1" Cut="6.7230805754661560e-02" cType="1" res="-9.1921053826808929e-03" rms="2.4373771250247955e-01" purity="3.2386714220046997e-01" nType="0">
            <Node pos="l" depth="3" NCoef="0" IVar="-1" Cut="0.0000000000000000e+00" cType="1" res="-7.6064574532210827e-03" rms="2.2903972864151001e-01" purity="2.5214430689811707e-01" nType="-99"/>
            <Node pos="r" depth="3" NCoef="0" IVar="-1" Cut="0.0000000000000000e+00" cType="1" res="-2.9863748699426651e-02" rms="2.8719934821128845e-01" purity="5.6544238328933716e-01" nType="-99"/>
          </Node>
          <Node pos="r" depth="2" NCoef="0" IVar="0" Cut="1.9088795166015625e+03" cType="1" res="2.2961413487792015e-03" rms="2.4438087642192841e-01" purity="8.0898046493530273e-01" nType="0">
            <Node pos="l" depth="3" NCoef="0" IVar="-1" Cut="0.0000000000000000e+00" cType="1" res="1.8707035109400749e-02" rms="3.7184175848960876e-01" purity="2.9440897703170776e-01" nType="-99"/>
            <Node pos="r" depth="3" NCoef="0" IVar="-1" Cut="0.0000000000000000e+00" cType="1" res="-1.0731081478297710e-02" rms="1.9588288664817810e-01" purity="9.4764053821563721e-01" nType="-99"/>
          </Node>
        </Node>
        <Node pos="r" depth="1" NCoef="0" IVar="3" Cut="5.1514581298828125e+02" cType="1" res="4.4173072092235088e-03" rms="2.4968421459197998e-01" purity="5.3043556213378906e-01" nType="0">
          <Node pos="l" depth="2" NCoef="0" IVar="8" Cut="-1.1990067958831787e+00" cType="1" res="6.3889166340231895e-03" rms="2.5255224108695984e-01" purity="4.8545968532562256e-01" nType="0">
            <Node pos="l" depth="3" NCoef="0" IVar="-1" Cut="0.0000000000000000e+00" cType="1" res="3.5943217575550079e-02" rms="2.7711960673332214e-01" purity="2.9797106981277466e-01" nType="-99"/>
            <Node pos="r" depth="3" NCoef="0" IVar="-1" Cut="0.0000000000000000e+00" cType="1" res="5.9122825041413307e-03" rms="2.4900090694427490e-01" purity="5.1028871536254883e-01" nType="-99"/>
          </Node>
          <Node pos="r" depth="2" NCoef="0" IVar="-1" Cut="0.0000000000000000e+00" cType="1" res="-2.3088930174708366e-02" rms="2.2551572322845459e-01" purity="8.8073170185089111e-01" nType="-99"/>
        </Node>
      </Node>
    </BinaryTree>
    <BinaryTree type="DecisionTree" boostWeight="1.0000000000000000e+00" itree="197">
      <Node pos="s" depth="0" NCoef="0" IVar="9" Cut="-1.7326663732528687e+00" cType="1" res="-1.6180536476895213e-03" rms="2.4868431687355042e-01" purity="4.9376988410949707e-01" nType="0">
        <Node pos="l" depth="1" NCoef="0" IVar="7" Cut="-1.4554031193256378e-01" cType="1" res="1.5222383663058281e-02" rms="2.6805371046066284e-01" purity="2.4503898620605469e-01" nType="0">
          <Node pos="l" depth="2" NCoef="0" IVar="-1" Cut="0.0000000000000000e+00" cType="1" res="5.0808668136596680e-02" rms="2.5197005271911621e-01" purity="2.4310669302940369e-01" nType="-99"/>
          <Node pos="r" depth="2" NCoef="0" IVar="-1" Cut="0.0000000000000000e+00" cType="1" res="-2.4948343634605408e-03" rms="2.8349450230598450e-01" purity="2.4713659286499023e-01" nType="-99"/>
        </Node>
        <Node pos="r" depth="1" NCoef="0" IVar="9" Cut="-1.0848251581192017e+00" cType="1" res="-2.7477482799440622e-03" rms="2.4728964269161224e-01" purity="5.1045531034469604e-01" nType="0">
          <Node pos="l" depth="2" NCoef="0" IVar="0" Cut="1.6346794433593750e+03" cType="1" res="-2.5458825752139091e-02" rms="2.6721814274787903e-01" purity="4.2969074845314026e-01" nType="0">
            <Node pos="l" depth="3" NCoef="0" IVar="-1" Cut="0.0000000000000000e+00" cType="1" res="1.0451256297528744e-02" rms="1.7617468535900116e-01" purity="3.7196330726146698e-02" nType="-99"/>
            <Node pos="r" depth="3" NCoef="0" IVar="-1" Cut="0.0000000000000000e+00" cType="1" res="-4.1068959981203079e-02" rms="2.9678502678871155e-01" purity="5.9664702415466309e-01" nType="-99"/>
          </Node>
          <Node pos="r" depth="2" NCoef="0" IVar="8" Cut="-1.4664728641510010e+00" cType="1" res="5.4564315360039473e-04" rms="2.4408943951129913e-01" purity="5.2216714620590210e-01" nType="0">
            <Node pos="l" depth="3" NCoef="0" IVar="-1" Cut="0.0000000000000000e+00" cType="1" res="3.0380172654986382e-02" rms="2.6942181587219238e-01" purity="2.5857123732566833e-01" nType="-99"/>
            <Node pos="r" depth="3" NCoef="0" IVar="-1" Cut="0.0000000000000000e+00" cType="1" res="-1.5293799806386232e-03" rms="2.4189662933349609e-01" purity="5.4314941167831421e-01" nType="-99"/>
          </Node>
        </Node>
      </Node>
    </BinaryTree>
    <BinaryTree type="DecisionTree" boostWeight="1.0000000000000000e+00" itree="198">
      <Node pos="s" depth="0" NCoef="0" IVar="9" Cut="1.7331621646881104e+00" cType="1" res="8.8850816246122122e-04" rms="2.4853709340095520e-01" purity="4.9952822923660278e-01" nType="0">
        <Node pos="l" depth="1" NCoef="0" IVar="8" Cut="-3.9984026551246643e-01" cType="1" res="2.1723893005400896e-03" rms="2.4912492930889130e-01" purity="5.1703095436096191e-01" nType="0">
          <Node pos="l" depth="2" NCoef="0" IVar="7" Cut="9.3284386396408081e-01" cType="1" res="-4.5193056575953960e-03" rms="2.4868154525756836e-01" purity="4.5874321460723877e-01" nType="0">
            <Node pos="l" depth="3" NCoef="0" IVar="-1" Cut="0.0000000000000000e+00" cType="1" res="-1.0012227576225996e-03" rms="2.4986512959003448e-01" purity="5.0547075271606445e-01" nType="-99"/>
            <Node pos="r" depth="3" NCoef="0" IVar="-1" Cut="0.0000000000000000e+00" cType="1" res="-3.9762653410434723e-02" rms="2.4152804911136627e-01" purity="2.1871502697467804e-01" nType="-99"/>
          </Node>
          <Node pos="r" depth="2" NCoef="0" IVar="8" Cut="1.8845624923706055e+00" cType="1" res="5.8228131383657455e-03" rms="2.4929074943065643e-01" purity="5.4882788658142090e-01" nType="0">
            <Node pos="l" depth="3" NCoef="0" IVar="-1" Cut="0.0000000000000000e+00" cType="1" res="1.0995573364198208e-02" rms="2.4970091879367828e-01" purity="5.7311421632766724e-01" nType="-99"/>
            <Node pos="r" depth="3" NCoef="0" IVar="-1" Cut="0.0000000000000000e+00" cType="1" res="-3.0716463923454285e-02" rms="2.4076206982135773e-01" purity="1.0906439274549484e-01" nType="-99"/>
          </Node>
        </Node>
        <Node pos="r" depth="1" NCoef="0" IVar="5" Cut="1.3502632141113281e+02" cType="1" res="-1.9910676404833794e-02" rms="2.3784883320331573e-01" purity="2.1597978472709656e-01" nType="0">
          <Node pos="l" depth="2" NCoef="0" IVar="-1" Cut="0.0000000000000000e+00" cType="1" res="-2.1923033520579338e-02" rms="2.1206401288509369e-01" purity="1.0773681849241257e-01" nType="-99"/>
          <Node pos="r" depth="2" NCoef="0" IVar="-1" Cut="0.0000000000000000e+00" cType="1" res="-3.3075872808694839e-02" rms="2.6717668771743774e-01" purity="3.5573929548263550e-01" nType="-99"/>
        </Node>
      </Node>
    </BinaryTree>
    <BinaryTree type="DecisionTree" boostWeight="1.0000000000000000e+00" itree="199">
      <Node pos="s" depth="0" NCoef="0" IVar="4" Cut="1.8848402404785156e+02" cType="1" res="3.3259356860071421e-04" rms="2.5015705823898315e-01" purity="4.9671158194541931e-01" nType="0">
        <Node pos="l" depth="1" NCoef="0" IVar="0" Cut="2.0130472412109375e+03" cType="1" res="6.0066594742238522e-03" rms="2.3602566123008728e-01" purity="1.4244727790355682e-01" nType="0">
          <Node pos="l" depth="2" NCoef="0" IVar="2" Cut="3.4691027832031250e+02" cType="1" res="9.8037102725356817e-04" rms="2.0737123489379883e-01" purity="6.3836082816123962e-02" nType="0">
            <Node pos="l" depth="3" NCoef="0" IVar="-1" Cut="0.0000000000000000e+00" cType="1" res="3.1027430668473244e-02" rms="2.6293221116065979e-01" purity="9.9113978445529938e-02" nType="-99"/>
            <Node pos="r" depth="3" NCoef="0" IVar="-1" Cut="0.0000000000000000e+00" cType="1" res="-8.8672237470746040e-03" rms="1.8823981285095215e-01" purity="5.3736977279186249e-02" nType="-99"/>
          </Node>
          <Node pos="r" depth="2" NCoef="0" IVar="5" Cut="1.2933224487304688e+02" cType="1" res="3.4852504730224609e-02" rms="3.5727661848068237e-01" purity="5.9359669685363770e-01" nType="0">
            <Node pos="l" depth="3" NCoef="0" IVar="-1" Cut="0.0000000000000000e+00" cType="1" res="3.4526329487562180e-02" rms="3.8322877883911133e-01" purity="4.1643965244293213e-01" nType="-99"/>
            <Node pos="r" depth="3" NCoef="0" IVar="-1" Cut="0.0000000000000000e+00" cType="1" res="2.1898152306675911e-02" rms="3.3052143454551697e-01" purity="7.6120376586914062e-01" nType="-99"/>
          </Node>
        </Node>
        <Node pos="r" depth="1" NCoef="0" IVar="6" Cut="-8.7891626358032227e-01" cType="1" res="-2.7539960574358702e-03" rms="2.5746631622314453e-01" purity="6.8942493200302124e-01" nType="0">
          <Node pos="l" depth="2" NCoef="0" IVar="1" Cut="5.6081920862197876e-02" cType="1" res="1.1226554401218891e-02" rms="2.7559885382652283e-01" purity="4.4793349504470825e-01" nType="0">
            <Node pos="l" depth="3" NCoef="0" IVar="-1" Cut="0.0000000000000000e+00" cType="1" res="1.0606260038912296e-03" rms="2.7076131105422974e-01" purity="2.2791847586631775e-01" nType="-99"/>
            <Node pos="r" depth="3" NCoef="0" IVar="-1" Cut="0.0000000000000000e+00" cType="1" res="2.8825744986534119e-02" rms="2.8116667270660400e-01" purity="7.3303967714309692e-01" nType="-99"/>
          </Node>
          <Node pos="r" depth="2" NCoef="0" IVar="9" Cut="1.1997764110565186e+00" cType="1" res="-4.5754741877317429e-03" rms="2.5495252013206482e-01" purity="7.2088807821273804e-01" nType="0">
            <Node pos="l" depth="3" NCoef="0" IVar="-1" Cut="0.0000000000000000e+00" cType="1" res="-1.1334076523780823e-02" rms="2.5022315979003906e-01" purity="7.3938381671905518e-01" nType="-99"/>
            <Node pos="r" depth="3" NCoef="0" IVar="-1" Cut="0.0000000000000000e+00" cType="1" res="1.6816738992929459e-02" rms="2.8616821765899658e-01" purity="5.8723992109298706e-01" nType="-99"/>
          </Node>
        </Node>
      </Node>
    </BinaryTree>
    <BinaryTree type="DecisionTree" boostWeight="1.0000000000000000e+00" itree="200">
      <Node pos="s" depth="0" NCoef="0" IVar="6" Cut="1.0041229724884033e+00" cType="1" res="3.3738487400114536e-03" rms="2.5044772028923035e-01" purity="5.0538134574890137e-01" nType="0">
        <Node pos="l" depth="1" NCoef="0" IVar="6" Cut="8.3332383632659912e-01" cType="1" res="5.8964211493730545e-03" rms="2.5687435269355774e-01" purity="5.5240124464035034e-01" nType="0">
          <Node pos="l" depth="2" NCoef="0" IVar="6" Cut="6.7064052820205688e-01" cType="1" res="4.6271407045423985e-03" rms="2.5489485263824463e-01" purity="5.5586802959442139e-01" nType="0">
            <Node pos="l" depth="3" NCoef="0" IVar="-1" Cut="0.0000000000000000e+00" cType="1" res="8.7321372702717781e-03" rms="2.5591123104095459e-01" purity="5.5676239728927612e-01" nType="-99"/>
            <Node pos="r" depth="3" NCoef="0" IVar="-1" Cut="0.0000000000000000e+00" cType="1" res="-1.7674636095762253e-02" rms="2.3715677857398987e-01" purity="5.4131317138671875e-01" nType="-99"/>
          </Node>
          <Node pos="r" depth="2" NCoef="0" IVar="-1" Cut="0.0000000000000000e+00" cType="1" res="3.9982080459594727e-02" rms="2.9111850261688232e-01" purity="4.8605689406394958e-01" nType="-99"/>
        </Node>
        <Node pos="r" depth="1" NCoef="0" IVar="7" Cut="6.6679847240447998e-01" cType="1" res="-1.3407727703452110e-02" rms="2.0176783204078674e-01" purity="1.9257870316505432e-01" nType="0">
          <Node pos="l" depth="2" NCoef="0" IVar="2" Cut="4.8598657226562500e+02" cType="1" res="-7.6671354472637177e-03" rms="2.0865270495414734e-01" purity="2.0746283233165741e-01" nType="0">
            <Node pos="l" depth="3" NCoef="0" IVar="-1" Cut="0.0000000000000000e+00" cType="1" res="6.0576861724257469e-03" rms="2.0077343285083771e-01" purity="1.6930688917636871e-01" nType="-99"/>
            <Node pos="r" depth="3" NCoef="0" IVar="-1" Cut="0.0000000000000000e+00" cType="1" res="-4.9957696348428726e-02" rms="2.2068186104297638e-01" purity="2.7482286095619202e-01" nType="-99"/>
          </Node>
          <Node pos="r" depth="2" NCoef="0" IVar="-1" Cut="0.0000000000000000e+00" cType="1" res="-4.8402093350887299e-02" rms="1.8336255848407745e-01" purity="1.5667007863521576e-01" nType="-99"/>
        </Node>
      </Node>
    </BinaryTree>
    <BinaryTree type="DecisionTree" boostWeight="1.0000000000000000e+00" itree="201">
      <Node pos="s" depth="0" NCoef="0" IVar="9" Cut="1.2002565860748291e+00" cType="1" res="-2.3160171695053577e-03" rms="2.4610546231269836e-01" purity="4.9316641688346863e-01" nType="0">
        <Node pos="l" depth="1" NCoef="0" IVar="8" Cut="-1.9980971813201904e+00" cType="1" res="-5.8005674509331584e-04" rms="2.4450653791427612e-01" purity="5.1992243528366089e-01" nType="0">
          <Node pos="l" depth="2" NCoef="0" IVar="-1" Cut="0.0000000000000000e+00" cType="1" res="-5.8725126087665558e-02" rms="1.8847046792507172e-01" purity="7.2324402630329132e-02" nType="-99"/>
          <Node pos="r" depth="2" NCoef="0" IVar="8" Cut="-8.5551977157592773e-01" cType="1" res="1.5399995027109981e-04" rms="2.4607101082801819e-01" purity="5.3439861536026001e-01" nType="0">
            <Node pos="l" depth="3" NCoef="0" IVar="-1" Cut="0.0000000000000000e+00" cType="1" res="1.0092931799590588e-02" rms="2.5840565562248230e-01" purity="4.4060766696929932e-01" nType="-99"/>
            <Node pos="r" depth="3" NCoef="0" IVar="-1" Cut="0.0000000000000000e+00" cType="1" res="-2.4366718716919422e-03" rms="2.4315340816974640e-01" purity="5.5570316314697266e-01" nType="-99"/>
          </Node>
        </Node>
        <Node pos="r" depth="1" NCoef="0" IVar="7" Cut="-3.9699301123619080e-01" cType="1" res="-1.2288704514503479e-02" rms="2.5486779212951660e-01" purity="3.3945927023887634e-01" nType="0">
          <Node pos="l" depth="2" NCoef="0" IVar="-1" Cut="0.0000000000000000e+00" cType="1" res="-4.1440796107053757e-02" rms="2.5048616528511047e-01" purity="2.4814024567604065e-01" nType="-99"/>
          <Node pos="r" depth="2" NCoef="0" IVar="0" Cut="1.7890523681640625e+03" cType="1" res="-4.1139824315905571e-03" rms="2.5634339451789856e-01" purity="3.7959560751914978e-01" nType="0">
            <Node pos="l" depth="3" NCoef="0" IVar="-1" Cut="0.0000000000000000e+00" cType="1" res="-3.0599944293498993e-02" rms="1.8297451734542847e-01" purity="4.1525896638631821e-02" nType="-99"/>
            <Node pos="r" depth="3" NCoef="0" IVar="-1" Cut="0.0000000000000000e+00" cType="1" res="4.9397246912121773e-03" rms="3.0916807055473328e-01" purity="6.9455742835998535e-01" nType="-99"/>
          </Node>
        </Node>
      </Node>
    </BinaryTree>
    <BinaryTree type="DecisionTree" boostWeight="1.0000000000000000e+00" itree="202">
      <Node pos="s" depth="0" NCoef="0" IVar="9" Cut="1.7330390214920044e+00" cType="1" res="-2.4386690929532051e-03" rms="2.5162148475646973e-01" purity="5.0062167644500732e-01" nType="0">
        <Node pos="l" depth="1" NCoef="0" IVar="9" Cut="1.0855702161788940e+00" cType="1" res="-3.8754588458687067e-03" rms="2.5005054473876953e-01" purity="5.1654666662216187e-01" nType="0">
          <Node pos="l" depth="2" NCoef="0" IVar="9" Cut="-2.0590929985046387e+00" cType="1" res="-2.3827655240893364e-03" rms="2.4939011037349701e-01" purity="5.2509611845016479e-01" nType="0">
            <Node pos="l" depth="3" NCoef="0" IVar="-1" Cut="0.0000000000000000e+00" cType="1" res="-3.4604620188474655e-02" rms="2.5108903646469116e-01" purity="1.6603612899780273e-01" nType="-99"/>
            <Node pos="r" depth="3" NCoef="0" IVar="-1" Cut="0.0000000000000000e+00" cType="1" res="-2.5987839326262474e-03" rms="2.4929372966289520e-01" purity="5.3825229406356812e-01" nType="-99"/>
          </Node>
          <Node pos="r" depth="2" NCoef="0" IVar="8" Cut="3.9117065072059631e-01" cType="1" res="-1.5907911583781242e-02" rms="2.5499299168586731e-01" purity="4.4763040542602539e-01" nType="0">
            <Node pos="l" depth="3" NCoef="0" IVar="-1" Cut="0.0000000000000000e+00" cType="1" res="-6.6867503337562084e-03" rms="2.5224936008453369e-01" purity="4.7390779852867126e-01" nType="-99"/>
            <Node pos="r" depth="3" NCoef="0" IVar="-1" Cut="0.0000000000000000e+00" cType="1" res="-4.6572435647249222e-02" rms="2.5815442204475403e-01" purity="4.0774071216583252e-01" nType="-99"/>
          </Node>
        </Node>
        <Node pos="r" depth="1" NCoef="0" IVar="1" Cut="3.9441086351871490e-02" cType="1" res="1.9115738570690155e-02" rms="2.7320456504821777e-01" purity="2.6171857118606567e-01" nType="0">
          <Node pos="l" depth="2" NCoef="0" IVar="-1" Cut="0.0000000000000000e+00" cType="1" res="-5.1548811607062817e-03" rms="2.0959836244583130e-01" purity="7.6870568096637726e-02" nType="-99"/>
          <Node pos="r" depth="2" NCoef="0" IVar="-1" Cut="0.0000000000000000e+00" cType="1" res="4.8082906752824783e-02" rms="3.2895988225936890e-01" purity="4.7035932540893555e-01" nType="-99"/>
        </Node>
      </Node>
    </BinaryTree>
    <BinaryTree type="DecisionTree" boostWeight="1.0000000000000000e+00" itree="203">
      <Node pos="s" depth="0" NCoef="0" IVar="7" Cut="4.0230789780616760e-01" cType="1" res="-1.7463825643062592e-03" rms="2.4645137786865234e-01" purity="4.9702471494674683e-01" nType="0">
        <Node pos="l" depth="1" NCoef="0" IVar="4" Cut="2.9026437377929688e+02" cType="1" res="-4.7741485759615898e-03" rms="2.4207563698291779e-01" purity="5.3114670515060425e-01" nType="0">
          <Node pos="l" depth="2" NCoef="0" IVar="9" Cut="-1.1984825134277344e+00" cType="1" res="-8.1521496176719666e-03" rms="2.6086056232452393e-01" purity="3.6304503679275513e-01" nType="0">
            <Node pos="l" depth="3" NCoef="0" IVar="-1" Cut="0.0000000000000000e+00" cType="1" res="-2.8594162315130234e-02" rms="2.8108963370323181e-01" purity="2.8343954682350159e-01" nType="-99"/>
            <Node pos="r" depth="3" NCoef="0" IVar="-1" Cut="0.0000000000000000e+00" cType="1" res="-7.2817695327103138e-03" rms="2.5632941722869873e-01" purity="3.7966233491897583e-01" nType="-99"/>
          </Node>
          <Node pos="r" depth="2" NCoef="0" IVar="1" Cut="4.3053507804870605e-02" cType="1" res="2.9550446197390556e-03" rms="1.9208772480487823e-01" purity="9.1577965021133423e-01" nType="0">
            <Node pos="l" depth="3" NCoef="0" IVar="-1" Cut="0.0000000000000000e+00" cType="1" res="2.0626844838261604e-02" rms="2.8153318166732788e-01" purity="7.2730910778045654e-01" nType="-99"/>
            <Node pos="r" depth="3" NCoef="0" IVar="-1" Cut="0.0000000000000000e+00" cType="1" res="1.2769951717928052e-03" rms="1.7181198298931122e-01" purity="9.4841033220291138e-01" nType="-99"/>
          </Node>
        </Node>
        <Node pos="r" depth="1" NCoef="0" IVar="5" Cut="1.2120568847656250e+02" cType="1" res="4.2378674261271954e-03" rms="2.5477316975593567e-01" purity="4.2958402633666992e-01" nType="0">
          <Node pos="l" depth="2" NCoef="0" IVar="1" Cut="4.7271404415369034e-02" cType="1" res="-5.0755990669131279e-03" rms="1.9935235381126404e-01" purity="7.3977231979370117e-02" nType="0">
            <Node pos="l" depth="3" NCoef="0" IVar="-1" Cut="0.0000000000000000e+00" cType="1" res="2.4888062034733593e-04" rms="1.6719596087932587e-01" purity="4.7204431146383286e-02" nType="-99"/>
            <Node pos="r" depth="3" NCoef="0" IVar="-1" Cut="0.0000000000000000e+00" cType="1" res="-2.6247570291161537e-02" rms="2.6874685287475586e-01" purity="1.4839252829551697e-01" nType="-99"/>
          </Node>
          <Node pos="r" depth="2" NCoef="0" IVar="3" Cut="2.9836019897460938e+02" cType="1" res="8.4993867203593254e-03" rms="2.7634674310684204e-01" purity="5.9229737520217896e-01" nType="0">
            <Node pos="l" depth="3" NCoef="0" IVar="-1" Cut="0.0000000000000000e+00" cType="1" res="2.8146276250481606e-02" rms="3.0164879560470581e-01" purity="3.3539396524429321e-01" nType="-99"/>
            <Node pos="r" depth="3" NCoef="0" IVar="-1" Cut="0.0000000000000000e+00" cType="1" res="-2.9991657938808203e-03" rms="2.5661775469779968e-01" purity="7.7236545085906982e-01" nType="-99"/>
          </Node>
        </Node>
      </Node>
    </BinaryTree>
    <BinaryTree type="DecisionTree" boostWeight="1.0000000000000000e+00" itree="204">
      <Node pos="s" depth="0" NCoef="0" IVar="6" Cut="7.5284910202026367e-01" cType="1" res="2.3028547002468258e-04" rms="2.4858289957046509e-01" purity="5.0101906061172485e-01" nType="0">
        <Node pos="l" depth="1" NCoef="0" IVar="1" Cut="2.0655324682593346e-02" cType="1" res="2.0393519662320614e-03" rms="2.5287452340126038e-01" purity="5.5649453401565552e-01" nType="0">
          <Node pos="l" depth="2" NCoef="0" IVar="0" Cut="1.8634429931640625e+03" cType="1" res="1.0805314406752586e-02" rms="2.0680016279220581e-01" purity="1.3492678105831146e-01" nType="0">
            <Node pos="l" depth="3" NCoef="0" IVar="-1" Cut="0.0000000000000000e+00" cType="1" res="-1.5685765072703362e-02" rms="9.6390232443809509e-02" purity="1.1813454329967499e-02" nType="-99"/>
            <Node pos="r" depth="3" NCoef="0" IVar="-1" Cut="0.0000000000000000e+00" cType="1" res="3.4132055938243866e-02" rms="3.2406756281852722e-01" purity="3.6716905236244202e-01" nType="-99"/>
          </Node>
          <Node pos="r" depth="2" NCoef="0" IVar="7" Cut="6.2831419706344604e-01" cType="1" res="5.7095370721071959e-04" rms="2.5976577401161194e-01" purity="6.2711191177368164e-01" nType="0">
            <Node pos="l" depth="3" NCoef="0" IVar="-1" Cut="0.0000000000000000e+00" cType="1" res="4.0275030769407749e-03" rms="2.5520306825637817e-01" purity="6.6119265556335449e-01" nType="-99"/>
            <Node pos="r" depth="3" NCoef="0" IVar="-1" Cut="0.0000000000000000e+00" cType="1" res="-8.6046932265162468e-03" rms="2.7409219741821289e-01" purity="5.1529878377914429e-01" nType="-99"/>
          </Node>
        </Node>
        <Node pos="r" depth="1" NCoef="0" IVar="3" Cut="3.6935913085937500e+02" cType="1" res="-7.4155582115054131e-03" rms="2.2940282523632050e-01" purity="2.6655724644660950e-01" nType="0">
          <Node pos="l" depth="2" NCoef="0" IVar="9" Cut="9.3228620290756226e-01" cType="1" res="-2.4365743156522512e-03" rms="2.1338926255702972e-01" purity="1.7353175580501556e-01" nType="0">
            <Node pos="l" depth="3" NCoef="0" IVar="-1" Cut="0.0000000000000000e+00" cType="1" res="5.1970649510622025e-03" rms="2.2351847589015961e-01" purity="2.0188859105110168e-01" nType="-99"/>
            <Node pos="r" depth="3" NCoef="0" IVar="-1" Cut="0.0000000000000000e+00" cType="1" res="-3.2299283891916275e-02" rms="1.8597775697708130e-01" purity="1.0481144487857819e-01" nType="-99"/>
          </Node>
          <Node pos="r" depth="2" NCoef="0" IVar="-1" Cut="0.0000000000000000e+00" cType="1" res="-2.9818190261721611e-02" rms="2.7723792195320129e-01" purity="5.8955901861190796e-01" nType="-99"/>
        </Node>
      </Node>
    </BinaryTree>
    <BinaryTree type="DecisionTree" boostWeight="1.0000000000000000e+00" itree="205">
      <Node pos="s" depth="0" NCoef="0" IVar="2" Cut="8.8719677734375000e+02" cType="1" res="-2.7283981908112764e-03" rms="2.4988177418708801e-01" purity="4.9537101387977600e-01" nType="0">
        <Node pos="l" depth="1" NCoef="0" IVar="7" Cut="-6.6420608758926392e-01" cType="1" res="-3.7949276156723499e-03" rms="2.4798220396041870e-01" purity="4.8034054040908813e-01" nType="0">
          <Node pos="l" depth="2" NCoef="0" IVar="0" Cut="1.5440498046875000e+03" cType="1" res="-1.0653709061443806e-02" rms="2.4706241488456726e-01" purity="3.4371584653854370e-01" nType="0">
            <Node pos="l" depth="3" NCoef="0" IVar="-1" Cut="0.0000000000000000e+00" cType="1" res="2.1589269861578941e-02" rms="1.5188220143318176e-01" purity="2.5314113125205040e-02" nType="-99"/>
            <Node pos="r" depth="3" NCoef="0" IVar="-1" Cut="0.0000000000000000e+00" cType="1" res="-1.9902685657143593e-02" rms="2.7127763628959656e-01" purity="4.4979536533355713e-01" nType="-99"/>
          </Node>
          <Node pos="r" depth="2" NCoef="0" IVar="2" Cut="3.3110397338867188e+02" cType="1" res="-1.6026590019464493e-03" rms="2.4823550879955292e-01" purity="5.2400982379913330e-01" nType="0">
            <Node pos="l" depth="3" NCoef="0" IVar="-1" Cut="0.0000000000000000e+00" cType="1" res="-1.8307123333215714e-02" rms="2.7287933230400085e-01" purity="2.0340619981288910e-01" nType="-99"/>
            <Node pos="r" depth="3" NCoef="0" IVar="-1" Cut="0.0000000000000000e+00" cType="1" res="3.1987889087758958e-04" rms="2.4455824494361877e-01" purity="5.6859409809112549e-01" nType="-99"/>
          </Node>
        </Node>
        <Node pos="r" depth="1" NCoef="0" IVar="-1" Cut="0.0000000000000000e+00" cType="1" res="2.1241106092929840e-02" rms="2.8333240747451782e-01" purity="7.8595024347305298e-01" nType="-99"/>
      </Node>
    </BinaryTree>
    <BinaryTree type="DecisionTree" boostWeight="1.0000000000000000e+00" itree="206">
      <Node pos="s" depth="0" NCoef="0" IVar="1" Cut="6.3774377107620239e-02" cType="1" res="2.0614518234651769e-06" rms="2.5072032213211060e-01" purity="4.9930989742279053e-01" nType="0">
        <Node pos="l" depth="1" NCoef="0" IVar="5" Cut="1.9128137207031250e+02" cType="1" res="5.7950364425778389e-03" rms="2.4575813114643097e-01" purity="2.6081040501594543e-01" nType="0">
          <Node pos="l" depth="2" NCoef="0" IVar="1" Cut="5.1646627485752106e-02" cType="1" res="1.6646496951580048e-03" rms="2.3799020051956177e-01" purity="1.5105247497558594e-01" nType="0">
            <Node pos="l" depth="3" NCoef="0" IVar="-1" Cut="0.0000000000000000e+00" cType="1" res="-3.7529983092099428e-04" rms="2.2340594232082367e-01" purity="1.2557467818260193e-01" nType="-99"/>
            <Node pos="r" depth="3" NCoef="0" IVar="-1" Cut="0.0000000000000000e+00" cType="1" res="1.7269404605031013e-02" rms="3.2744207978248596e-01" purity="3.4339255094528198e-01" nType="-99"/>
          </Node>
          <Node pos="r" depth="2" NCoef="0" IVar="2" Cut="5.4382922363281250e+02" cType="1" res="2.4915816262364388e-02" rms="2.7811521291732788e-01" purity="7.6891231536865234e-01" nType="0">
            <Node pos="l" depth="3" NCoef="0" IVar="-1" Cut="0.0000000000000000e+00" cType="1" res="4.0000040084123611e-02" rms="3.2756754755973816e-01" purity="6.3640999794006348e-01" nType="-99"/>
            <Node pos="r" depth="3" NCoef="0" IVar="-1" Cut="0.0000000000000000e+00" cType="1" res="1.7838111147284508e-02" rms="2.3972529172897339e-01" purity="8.5518455505371094e-01" nType="-99"/>
          </Node>
        </Node>
        <Node pos="r" depth="1" NCoef="0" IVar="4" Cut="3.1209677124023438e+02" cType="1" res="-5.5967643857002258e-03" rms="2.5529974699020386e-01" purity="7.2981619834899902e-01" nType="0">
          <Node pos="l" depth="2" NCoef="0" IVar="4" Cut="1.8102079772949219e+02" cType="1" res="-9.4322264194488525e-03" rms="2.9056486487388611e-01" purity="6.1912339925765991e-01" nType="0">
            <Node pos="l" depth="3" NCoef="0" IVar="-1" Cut="0.0000000000000000e+00" cType="1" res="2.9474436305463314e-03" rms="3.0532661080360413e-01" purity="2.8147533535957336e-01" nType="-99"/>
            <Node pos="r" depth="3" NCoef="0" IVar="-1" Cut="0.0000000000000000e+00" cType="1" res="-1.6335491091012955e-02" rms="2.8553944826126099e-01" purity="7.2784173488616943e-01" nType="-99"/>
          </Node>
          <Node pos="r" depth="2" NCoef="0" IVar="6" Cut="-2.6729756593704224e-01" cType="1" res="2.5416084099560976e-03" rms="1.5567421913146973e-01" purity="9.6469259262084961e-01" nType="0">
            <Node pos="l" depth="3" NCoef="0" IVar="-1" Cut="0.0000000000000000e+00" cType="1" res="3.4826692193746567e-02" rms="1.6310535371303558e-01" purity="9.6813076734542847e-01" nType="-99"/>
            <Node pos="r" depth="3" NCoef="0" IVar="-1" Cut="0.0000000000000000e+00" cType="1" res="-6.9872415624558926e-03" rms="1.5171870589256287e-01" purity="9.6300691366195679e-01" nType="-99"/>
          </Node>
        </Node>
      </Node>
    </BinaryTree>
    <BinaryTree type="DecisionTree" boostWeight="1.0000000000000000e+00" itree="207">
      <Node pos="s" depth="0" NCoef="0" IVar="9" Cut="-1.7317939996719360e+00" cType="1" res="-1.4981975546106696e-03" rms="2.4895995855331421e-01" purity="4.9283215403556824e-01" nType="0">
        <Node pos="l" depth="1" NCoef="0" IVar="0" Cut="1.8197518310546875e+03" cType="1" res="1.6190523281693459e-02" rms="2.7271375060081482e-01" purity="2.8415343165397644e-01" nType="0">
          <Node pos="l" depth="2" NCoef="0" IVar="-1" Cut="0.0000000000000000e+00" cType="1" res="-1.9982006400823593e-02" rms="2.1570622920989990e-01" purity="4.8612195998430252e-02" nType="-99"/>
          <Node pos="r" depth="2" NCoef="0" IVar="-1" Cut="0.0000000000000000e+00" cType="1" res="4.1416887193918228e-02" rms="3.2778117060661316e-01" purity="5.7786482572555542e-01" nType="-99"/>
        </Node>
        <Node pos="r" depth="1" NCoef="0" IVar="5" Cut="1.9147676086425781e+02" cType="1" res="-2.6082245167344809e-03" rms="2.4735110998153687e-01" purity="5.0592738389968872e-01" nType="0">
          <Node pos="l" depth="2" NCoef="0" IVar="0" Cut="1.8876625976562500e+03" cType="1" res="-6.0018924996256828e-03" rms="2.6401206851005554e-01" purity="2.9014500975608826e-01" nType="0">
            <Node pos="l" depth="3" NCoef="0" IVar="-1" Cut="0.0000000000000000e+00" cType="1" res="2.4124683477566577e-05" rms="2.1906541287899017e-01" purity="6.9164410233497620e-02" nType="-99"/>
            <Node pos="r" depth="3" NCoef="0" IVar="-1" Cut="0.0000000000000000e+00" cType="1" res="-1.5172843821346760e-02" rms="3.2401672005653381e-01" purity="6.5083277225494385e-01" nType="-99"/>
          </Node>
          <Node pos="r" depth="2" NCoef="0" IVar="6" Cut="4.5570364594459534e-01" cType="1" res="3.5235546529293060e-03" rms="2.1384651958942413e-01" purity="8.9580953121185303e-01" nType="0">
            <Node pos="l" depth="3" NCoef="0" IVar="-1" Cut="0.0000000000000000e+00" cType="1" res="-2.1644337102770805e-03" rms="2.0459808409214020e-01" purity="9.0742659568786621e-01" nType="-99"/>
            <Node pos="r" depth="3" NCoef="0" IVar="-1" Cut="0.0000000000000000e+00" cType="1" res="2.8782896697521210e-02" rms="2.4119728803634644e-01" purity="8.5760730504989624e-01" nType="-99"/>
          </Node>
        </Node>
      </Node>
    </BinaryTree>
    <BinaryTree type="DecisionTree" boostWeight="1.0000000000000000e+00" itree="208">
      <Node pos="s" depth="0" NCoef="0" IVar="8" Cut="-1.7320230007171631e+00" cType="1" res="3.6484340671449900e-03" rms="2.4969696998596191e-01" purity="5.0306969881057739e-01" nType="0">
        <Node pos="l" depth="1" NCoef="0" IVar="-1" Cut="0.0000000000000000e+00" cType="1" res="-2.5746442377567291e-02" rms="2.4330675601959229e-01" purity="1.3593383133411407e-01" nType="-99"/>
        <Node pos="r" depth="1" NCoef="0" IVar="4" Cut="2.4265408325195312e+02" cType="1" res="4.5524747110903263e-03" rms="2.4999125301837921e-01" purity="5.2213597297668457e-01" nType="0">
          <Node pos="l" depth="2" NCoef="0" IVar="4" Cut="2.1575228881835938e+02" cType="1" res="6.6537916427478194e-04" rms="2.6291659474372864e-01" purity="2.6913073658943176e-01" nType="0">
            <Node pos="l" depth="3" NCoef="0" IVar="-1" Cut="0.0000000000000000e+00" cType="1" res="-4.7814697027206421e-03" rms="2.5386241078376770e-01" purity="1.9925107061862946e-01" nType="-99"/>
            <Node pos="r" depth="3" NCoef="0" IVar="-1" Cut="0.0000000000000000e+00" cType="1" res="1.7414657399058342e-02" rms="2.9611217975616455e-01" purity="5.5056262016296387e-01" nType="-99"/>
          </Node>
          <Node pos="r" depth="2" NCoef="0" IVar="0" Cut="2.1446657714843750e+03" cType="1" res="9.4815772026777267e-03" rms="2.3247689008712769e-01" purity="8.4296393394470215e-01" nType="0">
            <Node pos="l" depth="3" NCoef="0" IVar="-1" Cut="0.0000000000000000e+00" cType="1" res="3.0516877770423889e-02" rms="3.5716417431831360e-01" purity="4.1305825114250183e-01" nType="-99"/>
            <Node pos="r" depth="3" NCoef="0" IVar="-1" Cut="0.0000000000000000e+00" cType="1" res="6.2590381130576134e-03" rms="1.9212694466114044e-01" purity="9.4160455465316772e-01" nType="-99"/>
          </Node>
        </Node>
      </Node>
    </BinaryTree>
    <BinaryTree type="DecisionTree" boostWeight="1.0000000000000000e+00" itree="209">
      <Node pos="s" depth="0" NCoef="0" IVar="7" Cut="-9.3367624282836914e-01" cType="1" res="-1.0275380918756127e-03" rms="2.4527056515216827e-01" purity="5.0238651037216187e-01" nType="0">
        <Node pos="l" depth="1" NCoef="0" IVar="0" Cut="2.0759553222656250e+03" cType="1" res="1.2359825894236565e-02" rms="2.4864290654659271e-01" purity="2.9089802503585815e-01" nType="0">
          <Node pos="l" depth="2" NCoef="0" IVar="1" Cut="4.9982193857431412e-02" cType="1" res="3.9127105847001076e-03" rms="2.2421818971633911e-01" purity="8.8179782032966614e-02" nType="0">
            <Node pos="l" depth="3" NCoef="0" IVar="-1" Cut="0.0000000000000000e+00" cType="1" res="-1.7451101914048195e-02" rms="1.4442293345928192e-01" purity="2.6680555194616318e-02" nType="-99"/>
            <Node pos="r" depth="3" NCoef="0" IVar="-1" Cut="0.0000000000000000e+00" cType="1" res="2.3279633373022079e-02" rms="3.5356116294860840e-01" purity="2.4571257829666138e-01" nType="-99"/>
          </Node>
          <Node pos="r" depth="2" NCoef="0" IVar="-1" Cut="0.0000000000000000e+00" cType="1" res="3.5881973803043365e-02" rms="2.9866924881935120e-01" purity="7.8185504674911499e-01" nType="-99"/>
        </Node>
        <Node pos="r" depth="1" NCoef="0" IVar="9" Cut="1.4651015996932983e+00" cType="1" res="-3.5994190257042646e-03" rms="2.4453346431255341e-01" purity="5.4301613569259644e-01" nType="0">
          <Node pos="l" depth="2" NCoef="0" IVar="8" Cut="-4.0030172467231750e-01" cType="1" res="-1.5550282550975680e-03" rms="2.4336242675781250e-01" purity="5.6480902433395386e-01" nType="0">
            <Node pos="l" depth="3" NCoef="0" IVar="-1" Cut="0.0000000000000000e+00" cType="1" res="6.4226700924336910e-03" rms="2.4515314400196075e-01" purity="5.2446848154067993e-01" nType="-99"/>
            <Node pos="r" depth="3" NCoef="0" IVar="-1" Cut="0.0000000000000000e+00" cType="1" res="-7.6041971333324909e-03" rms="2.4232962727546692e-01" purity="5.8673912286758423e-01" nType="-99"/>
          </Node>
          <Node pos="r" depth="2" NCoef="0" IVar="5" Cut="1.1633013153076172e+02" cType="1" res="-2.4605290964245796e-02" rms="2.5530949234962463e-01" purity="3.1909707188606262e-01" nType="0">
            <Node pos="l" depth="3" NCoef="0" IVar="-1" Cut="0.0000000000000000e+00" cType="1" res="-1.5845349058508873e-02" rms="2.2381141781806946e-01" purity="1.0397070646286011e-01" nType="-99"/>
            <Node pos="r" depth="3" NCoef="0" IVar="-1" Cut="0.0000000000000000e+00" cType="1" res="-4.0898945182561874e-02" rms="2.7243068814277649e-01" purity="4.5174500346183777e-01" nType="-99"/>
          </Node>
        </Node>
      </Node>
    </BinaryTree>
    <BinaryTree type="DecisionTree" boostWeight="1.0000000000000000e+00" itree="210">
      <Node pos="s" depth="0" NCoef="0" IVar="9" Cut="2.0000252723693848e+00" cType="1" res="2.7942629531025887e-03" rms="2.5279089808464050e-01" purity="4.9308091402053833e-01" nType="0">
        <Node pos="l" depth="1" NCoef="0" IVar="9" Cut="-1.4259268045425415e+00" cType="1" res="2.0021582022309303e-03" rms="2.5236183404922485e-01" purity="5.0360643863677979e-01" nType="0">
          <Node pos="l" depth="2" NCoef="0" IVar="9" Cut="-2.0784869194030762e+00" cType="1" res="1.5910059213638306e-02" rms="2.7694016695022583e-01" purity="3.3299762010574341e-01" nType="0">
            <Node pos="l" depth="3" NCoef="0" IVar="-1" Cut="0.0000000000000000e+00" cType="1" res="-3.1828212086111307e-03" rms="2.6654306054115295e-01" purity="1.8766061961650848e-01" nType="-99"/>
            <Node pos="r" depth="3" NCoef="0" IVar="-1" Cut="0.0000000000000000e+00" cType="1" res="3.2551541924476624e-02" rms="2.8094688057899475e-01" purity="3.9550605416297913e-01" nType="-99"/>
          </Node>
          <Node pos="r" depth="2" NCoef="0" IVar="8" Cut="-1.7316571474075317e+00" cType="1" res="3.0044905724935234e-04" rms="2.4913483858108521e-01" purity="5.2448141574859619e-01" nType="0">
            <Node pos="l" depth="3" NCoef="0" IVar="-1" Cut="0.0000000000000000e+00" cType="1" res="3.9765276014804840e-02" rms="2.7436205744743347e-01" purity="1.8885378539562225e-01" nType="-99"/>
            <Node pos="r" depth="3" NCoef="0" IVar="-1" Cut="0.0000000000000000e+00" cType="1" res="-1.2658485211431980e-03" rms="2.4774943292140961e-01" purity="5.4136246442794800e-01" nType="-99"/>
          </Node>
        </Node>
        <Node pos="r" depth="1" NCoef="0" IVar="-1" Cut="0.0000000000000000e+00" cType="1" res="4.3094608932733536e-02" rms="2.6339635252952576e-01" purity="2.0328842103481293e-01" nType="-99"/>
      </Node>
    </BinaryTree>
    <BinaryTree type="DecisionTree" boostWeight="1.0000000000000000e+00" itree="211">
      <Node pos="s" depth="0" NCoef="0" IVar="8" Cut="-1.4663760662078857e+00" cType="1" res="1.6493361908942461e-03" rms="2.5137633085250854e-01" purity="5.1324123144149780e-01" nType="0">
        <Node pos="l" depth="1" NCoef="0" IVar="9" Cut="1.2961237132549286e-01" cType="1" res="-1.3423631899058819e-02" rms="2.5642538070678711e-01" purity="2.2070102393627167e-01" nType="0">
          <Node pos="l" depth="2" NCoef="0" IVar="-1" Cut="0.0000000000000000e+00" cType="1" res="-1.2288819998502731e-03" rms="2.6287925243377686e-01" purity="2.5200176239013672e-01" nType="-99"/>
          <Node pos="r" depth="2" NCoef="0" IVar="-1" Cut="0.0000000000000000e+00" cType="1" res="-4.8933170735836029e-02" rms="2.4669007956981659e-01" purity="1.7950282990932465e-01" nType="-99"/>
        </Node>
        <Node pos="r" depth="1" NCoef="0" IVar="7" Cut="6.6647154092788696e-01" cType="1" res="2.9131551273167133e-03" rms="2.5090724229812622e-01" purity="5.3776979446411133e-01" nType="0">
          <Node pos="l" depth="2" NCoef="0" IVar="9" Cut="-3.9946129918098450e-01" cType="1" res="1.9069865811616182e-04" rms="2.4922831356525421e-01" purity="5.7327455282211304e-01" nType="0">
            <Node pos="l" depth="3" NCoef="0" IVar="-1" Cut="0.0000000000000000e+00" cType="1" res="1.0878005065023899e-02" rms="2.5682881474494934e-01" purity="5.5607479810714722e-01" nType="-99"/>
            <Node pos="r" depth="3" NCoef="0" IVar="-1" Cut="0.0000000000000000e+00" cType="1" res="-6.6068973392248154e-03" rms="2.4454203248023987e-01" purity="5.8340716361999512e-01" nType="-99"/>
          </Node>
          <Node pos="r" depth="2" NCoef="0" IVar="0" Cut="1.8685364990234375e+03" cType="1" res="1.1805731803178787e-02" rms="2.5611305236816406e-01" purity="4.2179778218269348e-01" nType="0">
            <Node pos="l" depth="3" NCoef="0" IVar="-1" Cut="0.0000000000000000e+00" cType="1" res="6.7519806325435638e-03" rms="2.2369609773159027e-01" purity="6.9575995206832886e-02" nType="-99"/>
            <Node pos="r" depth="3" NCoef="0" IVar="-1" Cut="0.0000000000000000e+00" cType="1" res="2.5207391008734703e-02" rms="2.8476753830909729e-01" purity="7.7613627910614014e-01" nType="-99"/>
          </Node>
        </Node>
      </Node>
    </BinaryTree>
    <BinaryTree type="DecisionTree" boostWeight="1.0000000000000000e+00" itree="212">
      <Node pos="s" depth="0" NCoef="0" IVar="0" Cut="1.8824879150390625e+03" cType="1" res="-3.4586235415190458e-04" rms="2.5191050767898560e-01" purity="5.0104534626007080e-01" nType="0">
        <Node pos="l" depth="1" NCoef="0" IVar="5" Cut="1.8077862548828125e+02" cType="1" res="5.6540099903941154e-03" rms="2.3555800318717957e-01" purity="8.3705484867095947e-02" nType="0">
          <Node pos="l" depth="2" NCoef="0" IVar="0" Cut="1.8135616455078125e+03" cType="1" res="8.8348109275102615e-03" rms="2.2581009566783905e-01" purity="7.5418472290039062e-02" nType="0">
            <Node pos="l" depth="3" NCoef="0" IVar="-1" Cut="0.0000000000000000e+00" cType="1" res="1.5027136541903019e-02" rms="2.1100120246410370e-01" purity="6.0959003865718842e-02" nType="-99"/>
            <Node pos="r" depth="3" NCoef="0" IVar="-1" Cut="0.0000000000000000e+00" cType="1" res="3.4470811486244202e-02" rms="3.5792872309684753e-01" purity="2.5020131468772888e-01" nType="-99"/>
          </Node>
          <Node pos="r" depth="2" NCoef="0" IVar="-1" Cut="0.0000000000000000e+00" cType="1" res="-2.7107249945402145e-02" rms="3.2752785086631775e-01" purity="1.8197213113307953e-01" nType="-99"/>
        </Node>
        <Node pos="r" depth="1" NCoef="0" IVar="1" Cut="8.5007622838020325e-02" cType="1" res="-4.7371340915560722e-03" rms="2.6314908266067505e-01" purity="8.0649399757385254e-01" nType="0">
          <Node pos="l" depth="2" NCoef="0" IVar="7" Cut="1.1995071172714233e+00" cType="1" res="-1.3909956440329552e-02" rms="3.2168570160865784e-01" purity="6.4603763818740845e-01" nType="0">
            <Node pos="l" depth="3" NCoef="0" IVar="-1" Cut="0.0000000000000000e+00" cType="1" res="-1.8211515620350838e-02" rms="3.1715169548988342e-01" purity="6.6135317087173462e-01" nType="-99"/>
            <Node pos="r" depth="3" NCoef="0" IVar="-1" Cut="0.0000000000000000e+00" cType="1" res="2.0393894985318184e-02" rms="3.5837680101394653e-01" purity="5.0591522455215454e-01" nType="-99"/>
          </Node>
          <Node pos="r" depth="2" NCoef="0" IVar="4" Cut="2.5391133117675781e+02" cType="1" res="2.9224706813693047e-03" rms="2.0132508873939514e-01" purity="9.4048035144805908e-01" nType="0">
            <Node pos="l" depth="3" NCoef="0" IVar="-1" Cut="0.0000000000000000e+00" cType="1" res="2.2383650764822960e-02" rms="2.6175490021705627e-01" purity="8.9756482839584351e-01" nType="-99"/>
            <Node pos="r" depth="3" NCoef="0" IVar="-1" Cut="0.0000000000000000e+00" cType="1" res="-9.0121021494269371e-03" rms="1.7128993570804596e-01" purity="9.5746850967407227e-01" nType="-99"/>
          </Node>
        </Node>
      </Node>
    </BinaryTree>
    <BinaryTree type="DecisionTree" boostWeight="1.0000000000000000e+00" itree="213">
      <Node pos="s" depth="0" NCoef="0" IVar="9" Cut="1.9996649026870728e+00" cType="1" res="1.6623692354187369e-03" rms="2.4991023540496826e-01" purity="4.9821990728378296e-01" nType="0">
        <Node pos="l" depth="1" NCoef="0" IVar="8" Cut="-6.6693538427352905e-01" cType="1" res="6.4345047576352954e-04" rms="2.4869903922080994e-01" purity="5.0791525840759277e-01" nType="0">
          <Node pos="l" depth="2" NCoef="0" IVar="8" Cut="-1.8857725858688354e+00" cType="1" res="7.3051829822361469e-03" rms="2.5804981589317322e-01" purity="4.2191728949546814e-01" nType="0">
            <Node pos="l" depth="3" NCoef="0" IVar="-1" Cut="0.0000000000000000e+00" cType="1" res="-3.9123363792896271e-02" rms="2.4392013251781464e-01" purity="1.2010157853364944e-01" nType="-99"/>
            <Node pos="r" depth="3" NCoef="0" IVar="-1" Cut="0.0000000000000000e+00" cType="1" res="1.6972044482827187e-02" rms="2.5985187292098999e-01" purity="4.6774837374687195e-01" nType="-99"/>
          </Node>
          <Node pos="r" depth="2" NCoef="0" IVar="8" Cut="8.1848984956741333e-01" cType="1" res="-1.7490347381681204e-03" rms="2.4520964920520782e-01" purity="5.3880041837692261e-01" nType="0">
            <Node pos="l" depth="3" NCoef="0" IVar="-1" Cut="0.0000000000000000e+00" cType="1" res="-9.0959323570132256e-03" rms="2.3745615780353546e-01" purity="5.9654855728149414e-01" nType="-99"/>
            <Node pos="r" depth="3" NCoef="0" IVar="-1" Cut="0.0000000000000000e+00" cType="1" res="1.0610368102788925e-02" rms="2.6362618803977966e-01" purity="3.9250057935714722e-01" nType="-99"/>
          </Node>
        </Node>
        <Node pos="r" depth="1" NCoef="0" IVar="-1" Cut="0.0000000000000000e+00" cType="1" res="4.8009466379880905e-02" rms="2.8104016184806824e-01" purity="2.1851880848407745e-01" nType="-99"/>
      </Node>
    </BinaryTree>
    <BinaryTree type="DecisionTree" boostWeight="1.0000000000000000e+00" itree="214">
      <Node pos="s" depth="0" NCoef="0" IVar="9" Cut="1.9996509552001953e+00" cType="1" res="1.0483029764145613e-03" rms="2.5188890099525452e-01" purity="4.9805441498756409e-01" nType="0">
        <Node pos="l" depth="1" NCoef="0" IVar="6" Cut="2.4206137657165527e-01" cType="1" res="1.7826783005148172e-03" rms="2.5157797336578369e-01" purity="5.1058191061019897e-01" nType="0">
          <Node pos="l" depth="2" NCoef="0" IVar="0" Cut="2.1315168457031250e+03" cType="1" res="5.5781491100788116e-03" rms="2.5654804706573486e-01" purity="5.5323219299316406e-01" nType="0">
            <Node pos="l" depth="3" NCoef="0" IVar="-1" Cut="0.0000000000000000e+00" cType="1" res="1.7070760950446129e-02" rms="2.9062771797180176e-01" purity="1.9149689376354218e-01" nType="-99"/>
            <Node pos="r" depth="3" NCoef="0" IVar="-1" Cut="0.0000000000000000e+00" cType="1" res="-4.8040091060101986e-03" rms="2.1791288256645203e-01" purity="9.0639108419418335e-01" nType="-99"/>
          </Node>
          <Node pos="r" depth="2" NCoef="0" IVar="1" Cut="3.8940217345952988e-02" cType="1" res="-4.3014888651669025e-03" rms="2.4327580630779266e-01" purity="4.4221326708793640e-01" nType="0">
            <Node pos="l" depth="3" NCoef="0" IVar="-1" Cut="0.0000000000000000e+00" cType="1" res="1.2773141264915466e-02" rms="2.1138022840023041e-01" purity="1.6515846550464630e-01" nType="-99"/>
            <Node pos="r" depth="3" NCoef="0" IVar="-1" Cut="0.0000000000000000e+00" cType="1" res="-1.4886343851685524e-02" rms="2.6061919331550598e-01" purity="6.1118543148040771e-01" nType="-99"/>
          </Node>
        </Node>
        <Node pos="r" depth="1" NCoef="0" IVar="-1" Cut="0.0000000000000000e+00" cType="1" res="-2.9519176110625267e-02" rms="2.5932019948959351e-01" purity="1.6177722811698914e-01" nType="-99"/>
      </Node>
    </BinaryTree>
    <BinaryTree type="DecisionTree" boostWeight="1.0000000000000000e+00" itree="215">
      <Node pos="s" depth="0" NCoef="0" IVar="9" Cut="1.1994831562042236e+00" cType="1" res="-9.7069027833640575e-04" rms="2.4745059013366699e-01" purity="4.9133980274200439e-01" nType="0">
        <Node pos="l" depth="1" NCoef="0" IVar="8" Cut="-1.1998928785324097e+00" cType="1" res="-3.3230967819690704e-03" rms="2.4320709705352783e-01" purity="5.1399075984954834e-01" nType="0">
          <Node pos="l" depth="2" NCoef="0" IVar="8" Cut="-1.8093457221984863e+00" cType="1" res="-1.5025085769593716e-02" rms="2.4475073814392090e-01" purity="2.6767900586128235e-01" nType="0">
            <Node pos="l" depth="3" NCoef="0" IVar="-1" Cut="0.0000000000000000e+00" cType="1" res="1.7016142606735229e-02" rms="2.3049257695674896e-01" purity="1.1909645795822144e-01" nType="-99"/>
            <Node pos="r" depth="3" NCoef="0" IVar="-1" Cut="0.0000000000000000e+00" cType="1" res="-3.7138167768716812e-02" rms="2.5121039152145386e-01" purity="3.4719154238700867e-01" nType="-99"/>
          </Node>
          <Node pos="r" depth="2" NCoef="0" IVar="5" Cut="1.9128137207031250e+02" cType="1" res="-1.6778457211330533e-03" rms="2.4294409155845642e-01" purity="5.4862123727798462e-01" nType="0">
            <Node pos="l" depth="3" NCoef="0" IVar="-1" Cut="0.0000000000000000e+00" cType="1" res="-6.8436539731919765e-03" rms="2.6563856005668640e-01" purity="3.1205046176910400e-01" nType="-99"/>
            <Node pos="r" depth="3" NCoef="0" IVar="-1" Cut="0.0000000000000000e+00" cType="1" res="7.9151010140776634e-03" rms="2.0269174873828888e-01" purity="9.1539657115936279e-01" nType="-99"/>
          </Node>
        </Node>
        <Node pos="r" depth="1" NCoef="0" IVar="1" Cut="5.8712176978588104e-02" cType="1" res="1.2839080765843391e-02" rms="2.7061325311660767e-01" purity="3.5836738348007202e-01" nType="0">
          <Node pos="l" depth="2" NCoef="0" IVar="0" Cut="1.7387863769531250e+03" cType="1" res="2.6605620980262756e-02" rms="2.5302278995513916e-01" purity="1.8029935657978058e-01" nType="0">
            <Node pos="l" depth="3" NCoef="0" IVar="-1" Cut="0.0000000000000000e+00" cType="1" res="5.0938487052917480e-02" rms="1.6245967149734497e-01" purity="2.9147176072001457e-02" nType="-99"/>
            <Node pos="r" depth="3" NCoef="0" IVar="-1" Cut="0.0000000000000000e+00" cType="1" res="5.0089251250028610e-02" rms="3.3762565255165100e-01" purity="3.8482174277305603e-01" nType="-99"/>
          </Node>
          <Node pos="r" depth="2" NCoef="0" IVar="7" Cut="4.0096361190080643e-02" cType="1" res="-6.0100699774920940e-03" rms="2.9193913936614990e-01" purity="6.0217821598052979e-01" nType="0">
            <Node pos="l" depth="3" NCoef="0" IVar="-1" Cut="0.0000000000000000e+00" cType="1" res="4.1098105721175671e-03" rms="2.9038363695144653e-01" purity="5.9351789951324463e-01" nType="-99"/>
            <Node pos="r" depth="3" NCoef="0" IVar="-1" Cut="0.0000000000000000e+00" cType="1" res="-1.8529986962676048e-02" rms="2.9310560226440430e-01" purity="6.1036634445190430e-01" nType="-99"/>
          </Node>
        </Node>
      </Node>
    </BinaryTree>
    <BinaryTree type="DecisionTree" boostWeight="1.0000000000000000e+00" itree="216">
      <Node pos="s" depth="0" NCoef="0" IVar="8" Cut="-1.7333443164825439e+00" cType="1" res="2.0923316478729248e-03" rms="2.4674338102340698e-01" purity="5.0198113918304443e-01" nType="0">
        <Node pos="l" depth="1" NCoef="0" IVar="-1" Cut="0.0000000000000000e+00" cType="1" res="4.6277426183223724e-02" rms="2.4623823165893555e-01" purity="1.5665371716022491e-01" nType="-99"/>
        <Node pos="r" depth="1" NCoef="0" IVar="9" Cut="-1.9988809823989868e+00" cType="1" res="1.0359302395954728e-03" rms="2.4672643840312958e-01" purity="5.2061587572097778e-01" nType="0">
          <Node pos="l" depth="2" NCoef="0" IVar="-1" Cut="0.0000000000000000e+00" cType="1" res="-2.7142172679305077e-02" rms="2.5534072518348694e-01" purity="2.0095680654048920e-01" nType="-99"/>
          <Node pos="r" depth="2" NCoef="0" IVar="8" Cut="6.4078706502914429e-01" cType="1" res="1.7735465662553906e-03" rms="2.4638341367244720e-01" purity="5.3194296360015869e-01" nType="0">
            <Node pos="l" depth="3" NCoef="0" IVar="-1" Cut="0.0000000000000000e+00" cType="1" res="-9.2625099932774901e-04" rms="2.4158075451850891e-01" purity="5.6412005424499512e-01" nType="-99"/>
            <Node pos="r" depth="3" NCoef="0" IVar="-1" Cut="0.0000000000000000e+00" cType="1" res="1.1686702258884907e-02" rms="2.5813642144203186e-01" purity="4.4984579086303711e-01" nType="-99"/>
          </Node>
        </Node>
      </Node>
    </BinaryTree>
    <BinaryTree type="DecisionTree" boostWeight="1.0000000000000000e+00" itree="217">
      <Node pos="s" depth="0" NCoef="0" IVar="7" Cut="6.6817981004714966e-01" cType="1" res="-2.2386653290595859e-04" rms="2.4573665857315063e-01" purity="5.0093817710876465e-01" nType="0">
        <Node pos="l" depth="1" NCoef="0" IVar="1" Cut="6.1413206160068512e-02" cType="1" res="3.2336653675884008e-03" rms="2.4702773988246918e-01" purity="5.4897183179855347e-01" nType="0">
          <Node pos="l" depth="2" NCoef="0" IVar="6" Cut="-2.7680486440658569e-01" cType="1" res="-2.1473718807101250e-03" rms="2.4619559943675995e-01" purity="2.7239754796028137e-01" nType="0">
            <Node pos="l" depth="3" NCoef="0" IVar="-1" Cut="0.0000000000000000e+00" cType="1" res="-1.2613544240593910e-02" rms="2.5055932998657227e-01" purity="2.6469215750694275e-01" nType="-99"/>
            <Node pos="r" depth="3" NCoef="0" IVar="-1" Cut="0.0000000000000000e+00" cType="1" res="3.4583804663270712e-03" rms="2.4304659664630890e-01" purity="2.7772164344787598e-01" nType="-99"/>
          </Node>
          <Node pos="r" depth="2" NCoef="0" IVar="9" Cut="-1.1942429542541504e+00" cType="1" res="7.3493556119501591e-03" rms="2.4758338928222656e-01" purity="7.6050990819931030e-01" nType="0">
            <Node pos="l" depth="3" NCoef="0" IVar="-1" Cut="0.0000000000000000e+00" cType="1" res="2.6004696264863014e-02" rms="3.1271904706954956e-01" purity="6.7712658643722534e-01" nType="-99"/>
            <Node pos="r" depth="3" NCoef="0" IVar="-1" Cut="0.0000000000000000e+00" cType="1" res="8.7537607178092003e-03" rms="2.3698695003986359e-01" purity="7.7215385437011719e-01" nType="-99"/>
          </Node>
        </Node>
        <Node pos="r" depth="1" NCoef="0" IVar="0" Cut="2.1028469238281250e+03" cType="1" res="-1.0805239900946617e-02" rms="2.4143514037132263e-01" purity="3.5393670201301575e-01" nType="0">
          <Node pos="l" depth="2" NCoef="0" IVar="5" Cut="1.5740481567382812e+02" cType="1" res="-1.6885684803128242e-02" rms="2.2749087214469910e-01" purity="9.3870177865028381e-02" nType="0">
            <Node pos="l" depth="3" NCoef="0" IVar="-1" Cut="0.0000000000000000e+00" cType="1" res="-1.2932331301271915e-02" rms="2.0370259881019592e-01" purity="6.4805284142494202e-02" nType="-99"/>
            <Node pos="r" depth="3" NCoef="0" IVar="-1" Cut="0.0000000000000000e+00" cType="1" res="-5.2713271230459213e-02" rms="2.9379096627235413e-01" purity="1.9737528264522552e-01" nType="-99"/>
          </Node>
          <Node pos="r" depth="2" NCoef="0" IVar="9" Cut="-4.0306964516639709e-01" cType="1" res="5.9380714083090425e-04" rms="2.6523587107658386e-01" purity="8.4148496389389038e-01" nType="0">
            <Node pos="l" depth="3" NCoef="0" IVar="-1" Cut="0.0000000000000000e+00" cType="1" res="2.2017972543835640e-02" rms="2.9903662204742432e-01" purity="8.4662920236587524e-01" nType="-99"/>
            <Node pos="r" depth="3" NCoef="0" IVar="-1" Cut="0.0000000000000000e+00" cType="1" res="-1.0913683101534843e-02" rms="2.4862371385097504e-01" purity="8.3923304080963135e-01" nType="-99"/>
          </Node>
        </Node>
      </Node>
    </BinaryTree>
    <BinaryTree type="DecisionTree" boostWeight="1.0000000000000000e+00" itree="218">
      <Node pos="s" depth="0" NCoef="0" IVar="3" Cut="2.7414901733398438e+02" cType="1" res="-2.6685742195695639e-03" rms="2.5148832798004150e-01" purity="5.0143623352050781e-01" nType="0">
        <Node pos="l" depth="1" NCoef="0" IVar="1" Cut="3.6151859909296036e-02" cType="1" res="4.6885879710316658e-03" rms="2.5175070762634277e-01" purity="1.9408139586448669e-01" nType="0">
          <Node pos="l" depth="2" NCoef="0" IVar="7" Cut="9.3449407815933228e-01" cType="1" res="-3.9762309752404690e-03" rms="1.5858101844787598e-01" purity="4.5395471155643463e-02" nType="0">
            <Node pos="l" depth="3" NCoef="0" IVar="-1" Cut="0.0000000000000000e+00" cType="1" res="-2.6340333744883537e-02" rms="1.5940745174884796e-01" purity="4.3280541896820068e-02" nType="-99"/>
            <Node pos="r" depth="3" NCoef="0" IVar="-1" Cut="0.0000000000000000e+00" cType="1" res="2.4647679179906845e-02" rms="1.5603186190128326e-01" purity="5.0713129341602325e-02" nType="-99"/>
          </Node>
          <Node pos="r" depth="2" NCoef="0" IVar="7" Cut="-4.1565507650375366e-01" cType="1" res="1.1713256128132343e-02" rms="3.0702134966850281e-01" purity="3.1462275981903076e-01" nType="0">
            <Node pos="l" depth="3" NCoef="0" IVar="-1" Cut="0.0000000000000000e+00" cType="1" res="2.9929606243968010e-02" rms="3.0930611491203308e-01" purity="3.1448435783386230e-01" nType="-99"/>
            <Node pos="r" depth="3" NCoef="0" IVar="-1" Cut="0.0000000000000000e+00" cType="1" res="4.8684808425605297e-03" rms="3.0552598834037781e-01" purity="3.1469729542732239e-01" nType="-99"/>
          </Node>
        </Node>
        <Node pos="r" depth="1" NCoef="0" IVar="6" Cut="1.0055192708969116e+00" cType="1" res="-6.5423031337559223e-03" rms="2.5126346945762634e-01" purity="6.6326624155044556e-01" nType="0">
          <Node pos="l" depth="2" NCoef="0" IVar="0" Cut="2.1988581542968750e+03" cType="1" res="-8.4173120558261871e-03" rms="2.5025281310081482e-01" purity="6.9797939062118530e-01" nType="0">
            <Node pos="l" depth="3" NCoef="0" IVar="-1" Cut="0.0000000000000000e+00" cType="1" res="-1.9775019958615303e-02" rms="3.1902766227722168e-01" purity="2.6558625698089600e-01" nType="-99"/>
            <Node pos="r" depth="3" NCoef="0" IVar="-1" Cut="0.0000000000000000e+00" cType="1" res="-5.0180503167212009e-03" rms="2.0513787865638733e-01" purity="9.2361825704574585e-01" nType="-99"/>
          </Node>
          <Node pos="r" depth="2" NCoef="0" IVar="9" Cut="1.3155603408813477e-01" cType="1" res="1.0812162421643734e-02" rms="2.5979024171829224e-01" purity="3.4197294712066650e-01" nType="0">
            <Node pos="l" depth="3" NCoef="0" IVar="-1" Cut="0.0000000000000000e+00" cType="1" res="3.5313047468662262e-02" rms="2.5979155302047729e-01" purity="3.7047353386878967e-01" nType="-99"/>
            <Node pos="r" depth="3" NCoef="0" IVar="-1" Cut="0.0000000000000000e+00" cType="1" res="-4.5845392160117626e-03" rms="2.5905132293701172e-01" purity="3.1248164176940918e-01" nType="-99"/>
          </Node>
        </Node>
      </Node>
    </BinaryTree>
    <BinaryTree type="DecisionTree" boostWeight="1.0000000000000000e+00" itree="219">
      <Node pos="s" depth="0" NCoef="0" IVar="9" Cut="-1.1993937492370605e+00" cType="1" res="-1.3910122215747833e-03" rms="2.4277476966381073e-01" purity="4.9656790494918823e-01" nType="0">
        <Node pos="l" depth="1" NCoef="0" IVar="1" Cut="5.9098485857248306e-02" cType="1" res="-1.7403302714228630e-02" rms="2.6398089528083801e-01" purity="3.5879045724868774e-01" nType="0">
          <Node pos="l" depth="2" NCoef="0" IVar="7" Cut="-1.3119149208068848e-01" cType="1" res="-5.1272514974698424e-04" rms="2.2518882155418396e-01" purity="1.7558839917182922e-01" nType="0">
            <Node pos="l" depth="3" NCoef="0" IVar="-1" Cut="0.0000000000000000e+00" cType="1" res="2.7285736054182053e-02" rms="2.2907988727092743e-01" purity="2.0057861506938934e-01" nType="-99"/>
            <Node pos="r" depth="3" NCoef="0" IVar="-1" Cut="0.0000000000000000e+00" cType="1" res="-3.3408056944608688e-02" rms="2.1900294721126556e-01" purity="1.4589385688304901e-01" nType="-99"/>
          </Node>
          <Node pos="r" depth="2" NCoef="0" IVar="0" Cut="1.8999667968750000e+03" cType="1" res="-3.6764837801456451e-02" rms="3.0122408270835876e-01" purity="5.6879347562789917e-01" nType="0">
            <Node pos="l" depth="3" NCoef="0" IVar="-1" Cut="0.0000000000000000e+00" cType="1" res="-5.0742197781801224e-02" rms="3.1944298744201660e-01" purity="1.4630296826362610e-01" nType="-99"/>
            <Node pos="r" depth="3" NCoef="0" IVar="-1" Cut="0.0000000000000000e+00" cType="1" res="-2.4415323510766029e-02" rms="2.8738898038864136e-01" purity="8.4433043003082275e-01" nType="-99"/>
          </Node>
        </Node>
        <Node pos="r" depth="1" NCoef="0" IVar="2" Cut="3.1471743774414062e+02" cType="1" res="1.3061029603704810e-03" rms="2.3891215026378632e-01" purity="5.1977521181106567e-01" nType="0">
          <Node pos="l" depth="2" NCoef="0" IVar="5" Cut="1.3357440185546875e+02" cType="1" res="-1.5531456097960472e-02" rms="2.4294947087764740e-01" purity="1.8387472629547119e-01" nType="0">
            <Node pos="l" depth="3" NCoef="0" IVar="-1" Cut="0.0000000000000000e+00" cType="1" res="-5.2690550684928894e-02" rms="1.8429835140705109e-01" purity="4.7974996268749237e-02" nType="-99"/>
            <Node pos="r" depth="3" NCoef="0" IVar="-1" Cut="0.0000000000000000e+00" cType="1" res="-1.1193904094398022e-02" rms="2.7090746164321899e-01" purity="2.6229554414749146e-01" nType="-99"/>
          </Node>
          <Node pos="r" depth="2" NCoef="0" IVar="7" Cut="-1.7321887016296387e+00" cType="1" res="2.9908430296927691e-03" rms="2.3843899369239807e-01" purity="5.5338490009307861e-01" nType="0">
            <Node pos="l" depth="3" NCoef="0" IVar="-1" Cut="0.0000000000000000e+00" cType="1" res="-5.1826633512973785e-02" rms="1.7646338045597076e-01" purity="7.4161194264888763e-02" nType="-99"/>
            <Node pos="r" depth="3" NCoef="0" IVar="-1" Cut="0.0000000000000000e+00" cType="1" res="6.8895225413143635e-03" rms="2.4063037335872650e-01" purity="5.7348644733428955e-01" nType="-99"/>
          </Node>
        </Node>
      </Node>
    </BinaryTree>
    <BinaryTree type="DecisionTree" boostWeight="1.0000000000000000e+00" itree="220">
      <Node pos="s" depth="0" NCoef="0" IVar="0" Cut="2.1418708496093750e+03" cType="1" res="2.8830016963183880e-03" rms="2.4952460825443268e-01" purity="4.9662429094314575e-01" nType="0">
        <Node pos="l" depth="1" NCoef="0" IVar="0" Cut="2.0711840820312500e+03" cType="1" res="6.8214256316423416e-03" rms="2.6865139603614807e-01" purity="1.6447128355503082e-01" nType="0">
          <Node pos="l" depth="2" NCoef="0" IVar="2" Cut="6.0652795410156250e+02" cType="1" res="3.9335959590971470e-03" rms="2.6055645942687988e-01" purity="1.3701687753200531e-01" nType="0">
            <Node pos="l" depth="3" NCoef="0" IVar="-1" Cut="0.0000000000000000e+00" cType="1" res="9.2390850186347961e-03" rms="2.6648432016372681e-01" purity="1.4824643731117249e-01" nType="-99"/>
            <Node pos="r" depth="3" NCoef="0" IVar="-1" Cut="0.0000000000000000e+00" cType="1" res="-3.1904615461826324e-02" rms="2.0549425482749939e-01" purity="4.6350993216037750e-02" nType="-99"/>
          </Node>
          <Node pos="r" depth="2" NCoef="0" IVar="-1" Cut="0.0000000000000000e+00" cType="1" res="4.1560214012861252e-02" rms="3.7862738966941833e-01" purity="6.3746142387390137e-01" nType="-99"/>
        </Node>
        <Node pos="r" depth="1" NCoef="0" IVar="9" Cut="-1.4652544260025024e+00" cType="1" res="-1.8923495663329959e-03" rms="2.2406195104122162e-01" purity="8.9936089515686035e-01" nType="0">
          <Node pos="l" depth="2" NCoef="0" IVar="-1" Cut="0.0000000000000000e+00" cType="1" res="-4.3724779039621353e-02" rms="3.0656319856643677e-01" purity="7.3334562778472900e-01" nType="-99"/>
          <Node pos="r" depth="2" NCoef="0" IVar="2" Cut="6.6448413085937500e+02" cType="1" res="2.1177661255933344e-04" rms="2.1806554496288300e-01" purity="9.0911221504211426e-01" nType="0">
            <Node pos="l" depth="3" NCoef="0" IVar="-1" Cut="0.0000000000000000e+00" cType="1" res="-9.9912462756037712e-03" rms="2.0434430241584778e-01" purity="9.3600928783416748e-01" nType="-99"/>
            <Node pos="r" depth="3" NCoef="0" IVar="-1" Cut="0.0000000000000000e+00" cType="1" res="1.1562013998627663e-02" rms="2.3791716992855072e-01" purity="8.6676907539367676e-01" nType="-99"/>
          </Node>
        </Node>
      </Node>
    </BinaryTree>
    <BinaryTree type="DecisionTree" boostWeight="1.0000000000000000e+00" itree="221">
      <Node pos="s" depth="0" NCoef="0" IVar="6" Cut="-1.9333794713020325e-02" cType="1" res="1.6760366270318627e-03" rms="2.5039348006248474e-01" purity="5.0057899951934814e-01" nType="0">
        <Node pos="l" depth="1" NCoef="0" IVar="8" Cut="9.3344211578369141e-01" cType="1" res="-3.3212713897228241e-03" rms="2.4791663885116577e-01" purity="5.0008511543273926e-01" nType="0">
          <Node pos="l" depth="2" NCoef="0" IVar="7" Cut="-1.4621340036392212e+00" cType="1" res="-9.7189498774241656e-05" rms="2.4578593671321869e-01" purity="5.4049170017242432e-01" nType="0">
            <Node pos="l" depth="3" NCoef="0" IVar="-1" Cut="0.0000000000000000e+00" cType="1" res="-3.3591497689485550e-02" rms="2.0845285058021545e-01" purity="1.4449530839920044e-01" nType="-99"/>
            <Node pos="r" depth="3" NCoef="0" IVar="-1" Cut="0.0000000000000000e+00" cType="1" res="2.4679885245859623e-03" rms="2.4833488464355469e-01" purity="5.7077062129974365e-01" nType="-99"/>
          </Node>
          <Node pos="r" depth="2" NCoef="0" IVar="1" Cut="6.6622704267501831e-02" cType="1" res="-1.8182605504989624e-02" rms="2.5698781013488770e-01" purity="3.1383189558982849e-01" nType="0">
            <Node pos="l" depth="3" NCoef="0" IVar="-1" Cut="0.0000000000000000e+00" cType="1" res="1.9082325161434710e-04" rms="2.4452440440654755e-01" purity="1.6649734973907471e-01" nType="-99"/>
            <Node pos="r" depth="3" NCoef="0" IVar="-1" Cut="0.0000000000000000e+00" cType="1" res="-5.5440649390220642e-02" rms="2.7375099062919617e-01" purity="5.5837011337280273e-01" nType="-99"/>
          </Node>
        </Node>
        <Node pos="r" depth="1" NCoef="0" IVar="5" Cut="1.5847038269042969e+02" cType="1" res="6.3168387860059738e-03" rms="2.5258335471153259e-01" purity="5.0103759765625000e-01" nType="0">
          <Node pos="l" depth="2" NCoef="0" IVar="5" Cut="1.3297068786621094e+02" cType="1" res="1.1973230168223381e-02" rms="2.6084482669830322e-01" purity="2.1390748023986816e-01" nType="0">
            <Node pos="l" depth="3" NCoef="0" IVar="-1" Cut="0.0000000000000000e+00" cType="1" res="1.0424450039863586e-02" rms="2.4413008987903595e-01" purity="1.4002586901187897e-01" nType="-99"/>
            <Node pos="r" depth="3" NCoef="0" IVar="-1" Cut="0.0000000000000000e+00" cType="1" res="3.1360305845737457e-02" rms="2.9723972082138062e-01" purity="3.9465069770812988e-01" nType="-99"/>
          </Node>
          <Node pos="r" depth="2" NCoef="0" IVar="8" Cut="6.6314804553985596e-01" cType="1" res="6.7293975735083222e-04" rms="2.4393084645271301e-01" purity="7.8753352165222168e-01" nType="0">
            <Node pos="l" depth="3" NCoef="0" IVar="-1" Cut="0.0000000000000000e+00" cType="1" res="-7.1515454910695553e-03" rms="2.3873788118362427e-01" purity="7.8925096988677979e-01" nType="-99"/>
            <Node pos="r" depth="3" NCoef="0" IVar="-1" Cut="0.0000000000000000e+00" cType="1" res="2.4179236963391304e-02" rms="2.5897514820098877e-01" purity="7.8214412927627563e-01" nType="-99"/>
          </Node>
        </Node>
      </Node>
    </BinaryTree>
    <BinaryTree type="DecisionTree" boostWeight="1.0000000000000000e+00" itree="222">
      <Node pos="s" depth="0" NCoef="0" IVar="7" Cut="-6.6559052467346191e-01" cType="1" res="1.7896625213325024e-03" rms="2.4837711453437805e-01" purity="5.0402337312698364e-01" nType="0">
        <Node pos="l" depth="1" NCoef="0" IVar="3" Cut="3.7004714965820312e+02" cType="1" res="1.0278274305164814e-02" rms="2.5008532404899597e-01" purity="3.7644976377487183e-01" nType="0">
          <Node pos="l" depth="2" NCoef="0" IVar="0" Cut="1.5813714599609375e+03" cType="1" res="1.6324326395988464e-02" rms="2.5083512067794800e-01" purity="2.7323544025421143e-01" nType="0">
            <Node pos="l" depth="3" NCoef="0" IVar="-1" Cut="0.0000000000000000e+00" cType="1" res="-8.1255706027150154e-03" rms="1.4418046176433563e-01" purity="2.3584952577948570e-02" nType="-99"/>
            <Node pos="r" depth="3" NCoef="0" IVar="-1" Cut="0.0000000000000000e+00" cType="1" res="3.3676821738481522e-02" rms="3.0248531699180603e-01" purity="4.4486960768699646e-01" nType="-99"/>
          </Node>
          <Node pos="r" depth="2" NCoef="0" IVar="6" Cut="2.7800332754850388e-02" cType="1" res="-7.0827533490955830e-03" rms="2.4709877371788025e-01" purity="6.7282599210739136e-01" nType="0">
            <Node pos="l" depth="3" NCoef="0" IVar="-1" Cut="0.0000000000000000e+00" cType="1" res="8.5684265941381454e-03" rms="2.4832256138324738e-01" purity="7.4309897422790527e-01" nType="-99"/>
            <Node pos="r" depth="3" NCoef="0" IVar="-1" Cut="0.0000000000000000e+00" cType="1" res="-3.5142675042152405e-02" rms="2.4445451796054840e-01" purity="5.8055275678634644e-01" nType="-99"/>
          </Node>
        </Node>
        <Node pos="r" depth="1" NCoef="0" IVar="2" Cut="3.1064645385742188e+02" cType="1" res="-9.3364476924762130e-04" rms="2.4776497483253479e-01" purity="5.4495137929916382e-01" nType="0">
          <Node pos="l" depth="2" NCoef="0" IVar="4" Cut="1.8827960205078125e+02" cType="1" res="1.5887677669525146e-02" rms="2.7983859181404114e-01" purity="2.2861696779727936e-01" nType="0">
            <Node pos="l" depth="3" NCoef="0" IVar="-1" Cut="0.0000000000000000e+00" cType="1" res="-1.7624006140977144e-03" rms="2.4664482474327087e-01" purity="1.1596280336380005e-01" nType="-99"/>
            <Node pos="r" depth="3" NCoef="0" IVar="-1" Cut="0.0000000000000000e+00" cType="1" res="3.7521086633205414e-02" rms="3.1061053276062012e-01" purity="3.4992775321006775e-01" nType="-99"/>
          </Node>
          <Node pos="r" depth="2" NCoef="0" IVar="1" Cut="4.2475063353776932e-02" cType="1" res="-2.2724487353116274e-03" rms="2.4498233199119568e-01" purity="5.7012838125228882e-01" nType="0">
            <Node pos="l" depth="3" NCoef="0" IVar="-1" Cut="0.0000000000000000e+00" cType="1" res="6.9672437384724617e-03" rms="2.3950898647308350e-01" purity="2.3627062141895294e-01" nType="-99"/>
            <Node pos="r" depth="3" NCoef="0" IVar="-1" Cut="0.0000000000000000e+00" cType="1" res="-8.4695545956492424e-03" rms="2.4742059409618378e-01" purity="7.2479718923568726e-01" nType="-99"/>
          </Node>
        </Node>
      </Node>
    </BinaryTree>
    <BinaryTree type="DecisionTree" boostWeight="1.0000000000000000e+00" itree="223">
      <Node pos="s" depth="0" NCoef="0" IVar="8" Cut="1.1995910406112671e+00" cType="1" res="-3.3984793117269874e-04" rms="2.4813570082187653e-01" purity="5.0551491975784302e-01" nType="0">
        <Node pos="l" depth="1" NCoef="0" IVar="7" Cut="1.3344968855381012e-01" cType="1" res="-1.9578852225095034e-03" rms="2.4488130211830139e-01" purity="5.2888023853302002e-01" nType="0">
          <Node pos="l" depth="2" NCoef="0" IVar="0" Cut="2.2893134765625000e+03" cType="1" res="-5.5453679524362087e-03" rms="2.4254557490348816e-01" purity="5.3503215312957764e-01" nType="0">
            <Node pos="l" depth="3" NCoef="0" IVar="-1" Cut="0.0000000000000000e+00" cType="1" res="-1.6350921243429184e-02" rms="2.7669307589530945e-01" purity="2.2366298735141754e-01" nType="-99"/>
            <Node pos="r" depth="3" NCoef="0" IVar="-1" Cut="0.0000000000000000e+00" cType="1" res="9.8035000264644623e-03" rms="1.8959347903728485e-01" purity="9.3403917551040649e-01" nType="-99"/>
          </Node>
          <Node pos="r" depth="2" NCoef="0" IVar="9" Cut="-1.3298839330673218e-01" cType="1" res="2.7094653341919184e-03" rms="2.4780943989753723e-01" purity="5.2087658643722534e-01" nType="0">
            <Node pos="l" depth="3" NCoef="0" IVar="-1" Cut="0.0000000000000000e+00" cType="1" res="1.5944840386509895e-02" rms="2.5564324855804443e-01" purity="5.3170251846313477e-01" nType="-99"/>
            <Node pos="r" depth="3" NCoef="0" IVar="-1" Cut="0.0000000000000000e+00" cType="1" res="-5.6109125725924969e-03" rms="2.4127100408077240e-01" purity="5.1233702898025513e-01" nType="-99"/>
          </Node>
        </Node>
        <Node pos="r" depth="1" NCoef="0" IVar="4" Cut="2.3092318725585938e+02" cType="1" res="1.1756999418139458e-02" rms="2.7092596888542175e-01" purity="3.3082967996597290e-01" nType="0">
          <Node pos="l" depth="2" NCoef="0" IVar="5" Cut="1.2835884094238281e+02" cType="1" res="2.3943519219756126e-02" rms="2.6243278384208679e-01" purity="2.1885481476783752e-01" nType="0">
            <Node pos="l" depth="3" NCoef="0" IVar="-1" Cut="0.0000000000000000e+00" cType="1" res="1.0401034727692604e-02" rms="2.2219635546207428e-01" purity="8.9959360659122467e-02" nType="-99"/>
            <Node pos="r" depth="3" NCoef="0" IVar="-1" Cut="0.0000000000000000e+00" cType="1" res="5.9150096029043198e-02" rms="3.0463036894798279e-01" purity="3.8415086269378662e-01" nType="-99"/>
          </Node>
          <Node pos="r" depth="2" NCoef="0" IVar="-1" Cut="0.0000000000000000e+00" cType="1" res="-2.1442636847496033e-02" rms="2.8854089975357056e-01" purity="6.0553568601608276e-01" nType="-99"/>
        </Node>
      </Node>
    </BinaryTree>
    <BinaryTree type="DecisionTree" boostWeight="1.0000000000000000e+00" itree="224">
      <Node pos="s" depth="0" NCoef="0" IVar="1" Cut="1.0336129367351532e-01" cType="1" res="-9.2402893642429262e-05" rms="2.4795258045196533e-01" purity="5.0154012441635132e-01" nType="0">
        <Node pos="l" depth="1" NCoef="0" IVar="0" Cut="1.6473038330078125e+03" cType="1" res="4.1631343774497509e-03" rms="2.5611650943756104e-01" purity="3.5977715253829956e-01" nType="0">
          <Node pos="l" depth="2" NCoef="0" IVar="1" Cut="6.8982243537902832e-02" cType="1" res="-6.3917976804077625e-03" rms="1.3532407581806183e-01" purity="1.9820116460323334e-02" nType="0">
            <Node pos="l" depth="3" NCoef="0" IVar="-1" Cut="0.0000000000000000e+00" cType="1" res="-1.3964123092591763e-02" rms="1.2122689187526703e-01" purity="1.5666434541344643e-02" nType="-99"/>
            <Node pos="r" depth="3" NCoef="0" IVar="-1" Cut="0.0000000000000000e+00" cType="1" res="-4.6282999217510223e-02" rms="1.9598181545734406e-01" purity="4.3609354645013809e-02" nType="-99"/>
          </Node>
          <Node pos="r" depth="2" NCoef="0" IVar="4" Cut="2.8293933105468750e+02" cType="1" res="1.0104149580001831e-02" rms="3.0349910259246826e-01" purity="5.5112749338150024e-01" nType="0">
            <Node pos="l" depth="3" NCoef="0" IVar="-1" Cut="0.0000000000000000e+00" cType="1" res="1.8484182655811310e-02" rms="3.2524564862251282e-01" purity="4.1603082418441772e-01" nType="-99"/>
            <Node pos="r" depth="3" NCoef="0" IVar="-1" Cut="0.0000000000000000e+00" cType="1" res="-1.0096155107021332e-02" rms="2.5201833248138428e-01" purity="8.2949030399322510e-01" nType="-99"/>
          </Node>
        </Node>
        <Node pos="r" depth="1" NCoef="0" IVar="0" Cut="2.1238754882812500e+03" cType="1" res="-8.7503399699926376e-03" rms="2.3020924627780914e-01" purity="7.8995835781097412e-01" nType="0">
          <Node pos="l" depth="2" NCoef="0" IVar="0" Cut="1.6414085693359375e+03" cType="1" res="-2.8810350224375725e-02" rms="3.4397813677787781e-01" purity="3.7830117344856262e-01" nType="0">
            <Node pos="l" depth="3" NCoef="0" IVar="-1" Cut="0.0000000000000000e+00" cType="1" res="-8.8037494570016861e-03" rms="2.5009420514106750e-01" purity="8.1243738532066345e-02" nType="-99"/>
            <Node pos="r" depth="3" NCoef="0" IVar="-1" Cut="0.0000000000000000e+00" cType="1" res="-2.5087883695960045e-02" rms="3.9016449451446533e-01" purity="5.6156432628631592e-01" nType="-99"/>
          </Node>
          <Node pos="r" depth="2" NCoef="0" IVar="3" Cut="3.9441506958007812e+02" cType="1" res="1.7030393064487725e-04" rms="1.5390916168689728e-01" purity="9.7302138805389404e-01" nType="0">
            <Node pos="l" depth="3" NCoef="0" IVar="-1" Cut="0.0000000000000000e+00" cType="1" res="2.3962043225765228e-02" rms="1.4649686217308044e-01" purity="9.7607266902923584e-01" nType="-99"/>
            <Node pos="r" depth="3" NCoef="0" IVar="-1" Cut="0.0000000000000000e+00" cType="1" res="-2.2160312160849571e-02" rms="1.5926624834537506e-01" purity="9.7064715623855591e-01" nType="-99"/>
          </Node>
        </Node>
      </Node>
    </BinaryTree>
    <BinaryTree type="DecisionTree" boostWeight="1.0000000000000000e+00" itree="225">
      <Node pos="s" depth="0" NCoef="0" IVar="3" Cut="3.2899578857421875e+02" cType="1" res="1.3587166322395205e-03" rms="2.4525073170661926e-01" purity="5.0620383024215698e-01" nType="0">
        <Node pos="l" depth="1" NCoef="0" IVar="1" Cut="9.4214305281639099e-02" cType="1" res="-3.6670593544840813e-03" rms="2.5333112478256226e-01" purity="2.6745080947875977e-01" nType="0">
          <Node pos="l" depth="2" NCoef="0" IVar="5" Cut="1.1418538665771484e+02" cType="1" res="-7.2144060395658016e-03" rms="2.3387531936168671e-01" purity="1.5797516703605652e-01" nType="0">
            <Node pos="l" depth="3" NCoef="0" IVar="-1" Cut="0.0000000000000000e+00" cType="1" res="9.2821307480335236e-03" rms="1.7684887349605560e-01" purity="4.8634190112352371e-02" nType="-99"/>
            <Node pos="r" depth="3" NCoef="0" IVar="-1" Cut="0.0000000000000000e+00" cType="1" res="-1.8076281994581223e-02" rms="2.6471906900405884e-01" purity="2.3026587069034576e-01" nType="-99"/>
          </Node>
          <Node pos="r" depth="2" NCoef="0" IVar="1" Cut="1.2287151813507080e-01" cType="1" res="6.5451469272375107e-03" rms="3.0219954252243042e-01" purity="5.8261251449584961e-01" nType="0">
            <Node pos="l" depth="3" NCoef="0" IVar="-1" Cut="0.0000000000000000e+00" cType="1" res="2.9488874599337578e-02" rms="3.3167660236358643e-01" purity="4.9758124351501465e-01" nType="-99"/>
            <Node pos="r" depth="3" NCoef="0" IVar="-1" Cut="0.0000000000000000e+00" cType="1" res="-6.9698048755526543e-03" rms="2.8365981578826904e-01" purity="6.3005083799362183e-01" nType="-99"/>
          </Node>
        </Node>
        <Node pos="r" depth="1" NCoef="0" IVar="2" Cut="9.0782928466796875e+02" cType="1" res="6.8747717887163162e-03" rms="2.3594067990779877e-01" purity="7.6824790239334106e-01" nType="0">
          <Node pos="l" depth="2" NCoef="0" IVar="5" Cut="2.2072154235839844e+02" cType="1" res="8.2668485119938850e-03" rms="2.3216572403907776e-01" purity="7.6583200693130493e-01" nType="0">
            <Node pos="l" depth="3" NCoef="0" IVar="-1" Cut="0.0000000000000000e+00" cType="1" res="1.8709180876612663e-02" rms="2.7190417051315308e-01" purity="6.2492972612380981e-01" nType="-99"/>
            <Node pos="r" depth="3" NCoef="0" IVar="-1" Cut="0.0000000000000000e+00" cType="1" res="-3.7477756268344820e-04" rms="1.6642761230468750e-01" purity="9.4927406311035156e-01" nType="-99"/>
          </Node>
          <Node pos="r" depth="2" NCoef="0" IVar="-1" Cut="0.0000000000000000e+00" cType="1" res="-1.4354000799357891e-02" rms="2.8041458129882812e-01" purity="8.0014091730117798e-01" nType="-99"/>
        </Node>
      </Node>
    </BinaryTree>
    <BinaryTree type="DecisionTree" boostWeight="1.0000000000000000e+00" itree="226">
      <Node pos="s" depth="0" NCoef="0" IVar="8" Cut="1.4661195278167725e+00" cType="1" res="-3.0150886159390211e-03" rms="2.4788850545883179e-01" purity="4.9348205327987671e-01" nType="0">
        <Node pos="l" depth="1" NCoef="0" IVar="9" Cut="-1.1998535394668579e+00" cType="1" res="-1.7642045859247446e-03" rms="2.4809819459915161e-01" purity="5.1616531610488892e-01" nType="0">
          <Node pos="l" depth="2" NCoef="0" IVar="7" Cut="6.6587102413177490e-01" cType="1" res="9.1605428606271744e-03" rms="2.7253183722496033e-01" purity="4.0120813250541687e-01" nType="0">
            <Node pos="l" depth="3" NCoef="0" IVar="-1" Cut="0.0000000000000000e+00" cType="1" res="1.6292169457301497e-03" rms="2.7062582969665527e-01" purity="4.2002514004707336e-01" nType="-99"/>
            <Node pos="r" depth="3" NCoef="0" IVar="-1" Cut="0.0000000000000000e+00" cType="1" res="5.3119692951440811e-02" rms="2.7735257148742676e-01" purity="3.3420607447624207e-01" nType="-99"/>
          </Node>
          <Node pos="r" depth="2" NCoef="0" IVar="6" Cut="-8.1443625688552856e-01" cType="1" res="-3.6051834467798471e-03" rms="2.4369151890277863e-01" purity="5.3553730249404907e-01" nType="0">
            <Node pos="l" depth="3" NCoef="0" IVar="-1" Cut="0.0000000000000000e+00" cType="1" res="1.1216550134122372e-02" rms="2.5111222267150879e-01" purity="3.2186275720596313e-01" nType="-99"/>
            <Node pos="r" depth="3" NCoef="0" IVar="-1" Cut="0.0000000000000000e+00" cType="1" res="-9.4887558370828629e-03" rms="2.4218596518039703e-01" purity="5.7654088735580444e-01" nType="-99"/>
          </Node>
        </Node>
        <Node pos="r" depth="1" NCoef="0" IVar="4" Cut="1.8070521545410156e+02" cType="1" res="-1.9286243245005608e-02" rms="2.4456234276294708e-01" purity="1.9842422008514404e-01" nType="0">
          <Node pos="l" depth="2" NCoef="0" IVar="-1" Cut="0.0000000000000000e+00" cType="1" res="7.7849747613072395e-03" rms="2.1204152703285217e-01" purity="9.4976574182510376e-02" nType="-99"/>
          <Node pos="r" depth="2" NCoef="0" IVar="-1" Cut="0.0000000000000000e+00" cType="1" res="-5.2731316536664963e-02" rms="2.7136978507041931e-01" purity="3.0191597342491150e-01" nType="-99"/>
        </Node>
      </Node>
    </BinaryTree>
    <BinaryTree type="DecisionTree" boostWeight="1.0000000000000000e+00" itree="227">
      <Node pos="s" depth="0" NCoef="0" IVar="3" Cut="2.7611984252929688e+02" cType="1" res="-2.3128050379455090e-03" rms="2.4603222310543060e-01" purity="4.9943017959594727e-01" nType="0">
        <Node pos="l" depth="1" NCoef="0" IVar="5" Cut="1.6567327880859375e+02" cType="1" res="-9.4709051772952080e-03" rms="2.4063058197498322e-01" purity="1.8544584512710571e-01" nType="0">
          <Node pos="l" depth="2" NCoef="0" IVar="6" Cut="7.4793738126754761e-01" cType="1" res="-1.4645534567534924e-02" rms="2.1647761762142181e-01" purity="1.0812024027109146e-01" nType="0">
            <Node pos="l" depth="3" NCoef="0" IVar="-1" Cut="0.0000000000000000e+00" cType="1" res="-3.1798504292964935e-02" rms="2.2598126530647278e-01" purity="1.2515339255332947e-01" nType="-99"/>
            <Node pos="r" depth="3" NCoef="0" IVar="-1" Cut="0.0000000000000000e+00" cType="1" res="2.1018481347709894e-03" rms="1.8307012319564819e-01" purity="5.5312581360340118e-02" nType="-99"/>
          </Node>
          <Node pos="r" depth="2" NCoef="0" IVar="6" Cut="2.6979321241378784e-01" cType="1" res="1.0565917007625103e-02" rms="3.1646198034286499e-01" purity="4.8486036062240601e-01" nType="0">
            <Node pos="l" depth="3" NCoef="0" IVar="-1" Cut="0.0000000000000000e+00" cType="1" res="2.7387659996747971e-02" rms="3.1623524427413940e-01" purity="5.6788402795791626e-01" nType="-99"/>
            <Node pos="r" depth="3" NCoef="0" IVar="-1" Cut="0.0000000000000000e+00" cType="1" res="-1.3798412866890430e-02" rms="3.1539314985275269e-01" purity="3.7192493677139282e-01" nType="-99"/>
          </Node>
        </Node>
        <Node pos="r" depth="1" NCoef="0" IVar="8" Cut="9.3277859687805176e-01" cType="1" res="1.5993997221812606e-03" rms="2.4884791672229767e-01" purity="6.7103588581085205e-01" nType="0">
          <Node pos="l" depth="2" NCoef="0" IVar="9" Cut="-1.3391447067260742e-01" cType="1" res="-9.5014303224161267e-04" rms="2.4132816493511200e-01" purity="6.9442212581634521e-01" nType="0">
            <Node pos="l" depth="3" NCoef="0" IVar="-1" Cut="0.0000000000000000e+00" cType="1" res="-9.4990460202097893e-03" rms="2.4773690104484558e-01" purity="6.9623875617980957e-01" nType="-99"/>
            <Node pos="r" depth="3" NCoef="0" IVar="-1" Cut="0.0000000000000000e+00" cType="1" res="5.6355972774326801e-03" rms="2.3573711514472961e-01" purity="6.9289934635162354e-01" nType="-99"/>
          </Node>
          <Node pos="r" depth="2" NCoef="0" IVar="5" Cut="1.9306394958496094e+02" cType="1" res="1.4891638420522213e-02" rms="2.8448545932769775e-01" purity="5.4910981655120850e-01" nType="0">
            <Node pos="l" depth="3" NCoef="0" IVar="-1" Cut="0.0000000000000000e+00" cType="1" res="3.6785218864679337e-02" rms="3.0950188636779785e-01" purity="3.6649927496910095e-01" nType="-99"/>
            <Node pos="r" depth="3" NCoef="0" IVar="-1" Cut="0.0000000000000000e+00" cType="1" res="-1.8296046182513237e-02" rms="2.3761577904224396e-01" purity="8.3667874336242676e-01" nType="-99"/>
          </Node>
        </Node>
      </Node>
    </BinaryTree>
    <BinaryTree type="DecisionTree" boostWeight="1.0000000000000000e+00" itree="228">
      <Node pos="s" depth="0" NCoef="0" IVar="6" Cut="-6.1632066965103149e-01" cType="1" res="-2.5851726604741998e-05" rms="2.5152364373207092e-01" purity="4.9985489249229431e-01" nType="0">
        <Node pos="l" depth="1" NCoef="0" IVar="9" Cut="-1.1978962421417236e+00" cType="1" res="8.8408319279551506e-03" rms="2.5514745712280273e-01" purity="3.4926000237464905e-01" nType="0">
          <Node pos="l" depth="2" NCoef="0" IVar="-1" Cut="0.0000000000000000e+00" cType="1" res="5.3983114659786224e-02" rms="2.8035798668861389e-01" purity="2.9415181279182434e-01" nType="-99"/>
          <Node pos="r" depth="2" NCoef="0" IVar="2" Cut="4.3002865600585938e+02" cType="1" res="2.6033022440969944e-03" rms="2.4908076226711273e-01" purity="3.6083161830902100e-01" nType="0">
            <Node pos="l" depth="3" NCoef="0" IVar="-1" Cut="0.0000000000000000e+00" cType="1" res="2.5036184117197990e-02" rms="2.4988995492458344e-01" purity="2.6275604963302612e-01" nType="-99"/>
            <Node pos="r" depth="3" NCoef="0" IVar="-1" Cut="0.0000000000000000e+00" cType="1" res="-8.5576279088854790e-03" rms="2.4825705587863922e-01" purity="4.2112365365028381e-01" nType="-99"/>
          </Node>
        </Node>
        <Node pos="r" depth="1" NCoef="0" IVar="3" Cut="4.1853564453125000e+02" cType="1" res="-2.7276757173240185e-03" rms="2.5034657120704651e-01" purity="5.4574364423751831e-01" nType="0">
          <Node pos="l" depth="2" NCoef="0" IVar="3" Cut="2.9914422607421875e+02" cType="1" res="-5.7660304009914398e-03" rms="2.6149761676788330e-01" purity="4.2602190375328064e-01" nType="0">
            <Node pos="l" depth="3" NCoef="0" IVar="-1" Cut="0.0000000000000000e+00" cType="1" res="2.0906208374071866e-04" rms="2.6394668221473694e-01" purity="2.5656881928443909e-01" nType="-99"/>
            <Node pos="r" depth="3" NCoef="0" IVar="-1" Cut="0.0000000000000000e+00" cType="1" res="-1.8285157158970833e-02" rms="2.5827279686927795e-01" purity="6.3415855169296265e-01" nType="-99"/>
          </Node>
          <Node pos="r" depth="2" NCoef="0" IVar="5" Cut="1.5862675476074219e+02" cType="1" res="5.5870586074888706e-03" rms="2.1670180559158325e-01" purity="8.7337315082550049e-01" nType="0">
            <Node pos="l" depth="3" NCoef="0" IVar="-1" Cut="0.0000000000000000e+00" cType="1" res="2.9018564149737358e-02" rms="3.2656824588775635e-01" purity="5.8139711618423462e-01" nType="-99"/>
            <Node pos="r" depth="3" NCoef="0" IVar="-1" Cut="0.0000000000000000e+00" cType="1" res="-4.4749844819307327e-03" rms="1.7255046963691711e-01" purity="9.5638477802276611e-01" nType="-99"/>
          </Node>
        </Node>
      </Node>
    </BinaryTree>
    <BinaryTree type="DecisionTree" boostWeight="1.0000000000000000e+00" itree="229">
      <Node pos="s" depth="0" NCoef="0" IVar="7" Cut="3.9961576461791992e-01" cType="1" res="-9.5720379613339901e-04" rms="2.5018408894538879e-01" purity="5.0655686855316162e-01" nType="0">
        <Node pos="l" depth="1" NCoef="0" IVar="7" Cut="-1.1239113807678223e+00" cType="1" res="1.7990428023040295e-03" rms="2.4616988003253937e-01" purity="5.4014217853546143e-01" nType="0">
          <Node pos="l" depth="2" NCoef="0" IVar="4" Cut="1.6599877929687500e+02" cType="1" res="-8.9729847386479378e-03" rms="2.4047204852104187e-01" purity="2.3686876893043518e-01" nType="0">
            <Node pos="l" depth="3" NCoef="0" IVar="-1" Cut="0.0000000000000000e+00" cType="1" res="3.3317476511001587e-02" rms="1.8295863270759583e-01" purity="6.0199681669473648e-02" nType="-99"/>
            <Node pos="r" depth="3" NCoef="0" IVar="-1" Cut="0.0000000000000000e+00" cType="1" res="-2.4157574400305748e-02" rms="2.6724699139595032e-01" purity="3.3770769834518433e-01" nType="-99"/>
          </Node>
          <Node pos="r" depth="2" NCoef="0" IVar="7" Cut="-8.3366906642913818e-01" cType="1" res="4.2215823195874691e-03" rms="2.4736860394477844e-01" purity="6.0834580659866333e-01" nType="0">
            <Node pos="l" depth="3" NCoef="0" IVar="-1" Cut="0.0000000000000000e+00" cType="1" res="2.7699729427695274e-02" rms="2.6990187168121338e-01" purity="5.1950633525848389e-01" nType="-99"/>
            <Node pos="r" depth="3" NCoef="0" IVar="-1" Cut="0.0000000000000000e+00" cType="1" res="3.5141843836754560e-03" rms="2.4406421184539795e-01" purity="6.2045305967330933e-01" nType="-99"/>
          </Node>
        </Node>
        <Node pos="r" depth="1" NCoef="0" IVar="3" Cut="3.0621878051757812e+02" cType="1" res="-6.6137337125837803e-03" rms="2.5813475251197815e-01" purity="4.3763121962547302e-01" nType="0">
          <Node pos="l" depth="2" NCoef="0" IVar="4" Cut="2.0977220153808594e+02" cType="1" res="-7.6633814023807645e-04" rms="2.5178506970405579e-01" purity="2.2651037573814392e-01" nType="0">
            <Node pos="l" depth="3" NCoef="0" IVar="-1" Cut="0.0000000000000000e+00" cType="1" res="-1.5776190906763077e-02" rms="2.3349344730377197e-01" purity="1.2772822380065918e-01" nType="-99"/>
            <Node pos="r" depth="3" NCoef="0" IVar="-1" Cut="0.0000000000000000e+00" cType="1" res="2.2127592936158180e-02" rms="2.9271569848060608e-01" purity="4.8069149255752563e-01" nType="-99"/>
          </Node>
          <Node pos="r" depth="2" NCoef="0" IVar="1" Cut="7.8499272465705872e-02" cType="1" res="-1.2657704763114452e-02" rms="2.6440188288688660e-01" purity="6.5584939718246460e-01" nType="0">
            <Node pos="l" depth="3" NCoef="0" IVar="-1" Cut="0.0000000000000000e+00" cType="1" res="-2.6446584612131119e-02" rms="2.8913798928260803e-01" purity="4.5435425639152527e-01" nType="-99"/>
            <Node pos="r" depth="3" NCoef="0" IVar="-1" Cut="0.0000000000000000e+00" cType="1" res="-3.6969098728150129e-03" rms="2.3356898128986359e-01" purity="8.7859261035919189e-01" nType="-99"/>
          </Node>
        </Node>
      </Node>
    </BinaryTree>
    <BinaryTree type="DecisionTree" boostWeight="1.0000000000000000e+00" itree="230">
      <Node pos="s" depth="0" NCoef="0" IVar="8" Cut="1.7331423759460449e+00" cType="1" res="2.0931456238031387e-03" rms="2.5321236252784729e-01" purity="5.0527215003967285e-01" nType="0">
        <Node pos="l" depth="1" NCoef="0" IVar="7" Cut="-6.6559052467346191e-01" cType="1" res="1.0049279080703855e-03" rms="2.5225761532783508e-01" purity="5.2084118127822876e-01" nType="0">
          <Node pos="l" depth="2" NCoef="0" IVar="9" Cut="-1.3273599743843079e-01" cType="1" res="-8.1442268565297127e-03" rms="2.4663913249969482e-01" purity="3.7291106581687927e-01" nType="0">
            <Node pos="l" depth="3" NCoef="0" IVar="-1" Cut="0.0000000000000000e+00" cType="1" res="-2.4785798043012619e-02" rms="2.4934397637844086e-01" purity="3.4900981187820435e-01" nType="-99"/>
            <Node pos="r" depth="3" NCoef="0" IVar="-1" Cut="0.0000000000000000e+00" cType="1" res="2.1527211647480726e-03" rms="2.4350616335868835e-01" purity="3.9707705378532410e-01" nType="-99"/>
          </Node>
          <Node pos="r" depth="2" NCoef="0" IVar="0" Cut="1.8946096191406250e+03" cType="1" res="3.9879824034869671e-03" rms="2.5399142503738403e-01" purity="5.6907331943511963e-01" nType="0">
            <Node pos="l" depth="3" NCoef="0" IVar="-1" Cut="0.0000000000000000e+00" cType="1" res="1.8147323280572891e-02" rms="2.5686681270599365e-01" purity="1.0189723968505859e-01" nType="-99"/>
            <Node pos="r" depth="3" NCoef="0" IVar="-1" Cut="0.0000000000000000e+00" cType="1" res="-4.8522793804295361e-05" rms="2.5219467282295227e-01" purity="8.4447467327117920e-01" nType="-99"/>
          </Node>
        </Node>
        <Node pos="r" depth="1" NCoef="0" IVar="-1" Cut="0.0000000000000000e+00" cType="1" res="4.1210196912288666e-02" rms="2.7075675129890442e-01" purity="1.9251845777034760e-01" nType="-99"/>
      </Node>
    </BinaryTree>
    <BinaryTree type="DecisionTree" boostWeight="1.0000000000000000e+00" itree="231">
      <Node pos="s" depth="0" NCoef="0" IVar="7" Cut="-3.9635413885116577e-01" cType="1" res="-9.8088465165346861e-04" rms="2.4965420365333557e-01" purity="5.0120711326599121e-01" nType="0">
        <Node pos="l" depth="1" NCoef="0" IVar="9" Cut="9.3126559257507324e-01" cType="1" res="4.1505340486764908e-03" rms="2.4843849241733551e-01" purity="4.4681608676910400e-01" nType="0">
          <Node pos="l" depth="2" NCoef="0" IVar="5" Cut="1.0506439208984375e+02" cType="1" res="7.7543971128761768e-03" rms="2.4926353991031647e-01" purity="4.7140291333198547e-01" nType="0">
            <Node pos="l" depth="3" NCoef="0" IVar="-1" Cut="0.0000000000000000e+00" cType="1" res="-2.1477740257978439e-02" rms="1.8196022510528564e-01" purity="4.7733820974826813e-02" nType="-99"/>
            <Node pos="r" depth="3" NCoef="0" IVar="-1" Cut="0.0000000000000000e+00" cType="1" res="1.6203595325350761e-02" rms="2.6289668679237366e-01" purity="5.7433325052261353e-01" nType="-99"/>
          </Node>
          <Node pos="r" depth="2" NCoef="0" IVar="4" Cut="1.9771447753906250e+02" cType="1" res="-1.1957129463553429e-02" rms="2.4406734108924866e-01" purity="3.3692395687103271e-01" nType="0">
            <Node pos="l" depth="3" NCoef="0" IVar="-1" Cut="0.0000000000000000e+00" cType="1" res="3.7108226679265499e-03" rms="2.4706378579139709e-01" purity="1.4743340015411377e-01" nType="-99"/>
            <Node pos="r" depth="3" NCoef="0" IVar="-1" Cut="0.0000000000000000e+00" cType="1" res="-3.3476866781711578e-02" rms="2.4058082699775696e-01" purity="5.0990074872970581e-01" nType="-99"/>
          </Node>
        </Node>
        <Node pos="r" depth="1" NCoef="0" IVar="7" Cut="-2.4413597583770752e-01" cType="1" res="-3.6166899371892214e-03" rms="2.5023546814918518e-01" purity="5.2914559841156006e-01" nType="0">
          <Node pos="l" depth="2" NCoef="0" IVar="6" Cut="-7.8053407371044159e-02" cType="1" res="-2.6799520477652550e-02" rms="2.7058550715446472e-01" purity="5.8038276433944702e-01" nType="0">
            <Node pos="l" depth="3" NCoef="0" IVar="-1" Cut="0.0000000000000000e+00" cType="1" res="-1.0994101874530315e-02" rms="2.4911552667617798e-01" purity="6.3342475891113281e-01" nType="-99"/>
            <Node pos="r" depth="3" NCoef="0" IVar="-1" Cut="0.0000000000000000e+00" cType="1" res="-5.6594051420688629e-02" rms="2.8499326109886169e-01" purity="5.3980731964111328e-01" nType="-99"/>
          </Node>
          <Node pos="r" depth="2" NCoef="0" IVar="3" Cut="3.3602008056640625e+02" cType="1" res="-1.0723375016823411e-03" rms="2.4776823818683624e-01" purity="5.2352231740951538e-01" nType="0">
            <Node pos="l" depth="3" NCoef="0" IVar="-1" Cut="0.0000000000000000e+00" cType="1" res="-9.0034306049346924e-03" rms="2.5457412004470825e-01" purity="2.8767588734626770e-01" nType="-99"/>
            <Node pos="r" depth="3" NCoef="0" IVar="-1" Cut="0.0000000000000000e+00" cType="1" res="7.5259748846292496e-03" rms="2.3991288244724274e-01" purity="7.8381884098052979e-01" nType="-99"/>
          </Node>
        </Node>
      </Node>
    </BinaryTree>
    <BinaryTree type="DecisionTree" boostWeight="1.0000000000000000e+00" itree="232">
      <Node pos="s" depth="0" NCoef="0" IVar="6" Cut="9.5925283432006836e-01" cType="1" res="-3.3286309335380793e-03" rms="2.4840609729290009e-01" purity="4.9389868974685669e-01" nType="0">
        <Node pos="l" depth="1" NCoef="0" IVar="8" Cut="1.3359270989894867e-01" cType="1" res="-1.5764733543619514e-03" rms="2.5387883186340332e-01" purity="5.4576045274734497e-01" nType="0">
          <Node pos="l" depth="2" NCoef="0" IVar="6" Cut="-9.1945171356201172e-01" cType="1" res="2.3758145980536938e-03" rms="2.5231087207794189e-01" purity="5.6520754098892212e-01" nType="0">
            <Node pos="l" depth="3" NCoef="0" IVar="-1" Cut="0.0000000000000000e+00" cType="1" res="2.5219902396202087e-02" rms="2.4590022861957550e-01" purity="2.6742017269134521e-01" nType="-99"/>
            <Node pos="r" depth="3" NCoef="0" IVar="-1" Cut="0.0000000000000000e+00" cType="1" res="-9.4680704933125526e-05" rms="2.5347548723220825e-01" purity="6.2351113557815552e-01" nType="-99"/>
          </Node>
          <Node pos="r" depth="2" NCoef="0" IVar="4" Cut="2.8296051025390625e+02" cType="1" res="-6.4546829089522362e-03" rms="2.5571665167808533e-01" purity="5.2175742387771606e-01" nType="0">
            <Node pos="l" depth="3" NCoef="0" IVar="-1" Cut="0.0000000000000000e+00" cType="1" res="-1.4616192318499088e-02" rms="2.7381375432014465e-01" purity="3.5869538784027100e-01" nType="-99"/>
            <Node pos="r" depth="3" NCoef="0" IVar="-1" Cut="0.0000000000000000e+00" cType="1" res="8.6078168824315071e-03" rms="2.0734420418739319e-01" purity="9.0026307106018066e-01" nType="-99"/>
          </Node>
        </Node>
        <Node pos="r" depth="1" NCoef="0" IVar="6" Cut="1.4844958782196045e+00" cType="1" res="-1.3718597590923309e-02" rms="2.1278898417949677e-01" purity="1.8636807799339294e-01" nType="0">
          <Node pos="l" depth="2" NCoef="0" IVar="6" Cut="1.1343456506729126e+00" cType="1" res="-2.0180005580186844e-02" rms="2.4038437008857727e-01" purity="2.5589403510093689e-01" nType="0">
            <Node pos="l" depth="3" NCoef="0" IVar="-1" Cut="0.0000000000000000e+00" cType="1" res="-6.1594252474606037e-04" rms="2.5280213356018066e-01" purity="3.4682333469390869e-01" nType="-99"/>
            <Node pos="r" depth="3" NCoef="0" IVar="-1" Cut="0.0000000000000000e+00" cType="1" res="-5.2424382418394089e-02" rms="2.3040522634983063e-01" purity="1.9293275475502014e-01" nType="-99"/>
          </Node>
          <Node pos="r" depth="2" NCoef="0" IVar="9" Cut="1.3028511404991150e-01" cType="1" res="-2.0126767922192812e-03" rms="1.4970204234123230e-01" purity="6.0410164296627045e-02" nType="0">
            <Node pos="l" depth="3" NCoef="0" IVar="-1" Cut="0.0000000000000000e+00" cType="1" res="-1.8939040601253510e-02" rms="1.4568914473056793e-01" purity="6.3997797667980194e-02" nType="-99"/>
            <Node pos="r" depth="3" NCoef="0" IVar="-1" Cut="0.0000000000000000e+00" cType="1" res="5.7188095524907112e-03" rms="1.5345406532287598e-01" purity="5.6881044059991837e-02" nType="-99"/>
          </Node>
        </Node>
      </Node>
    </BinaryTree>
    <BinaryTree type="DecisionTree" boostWeight="1.0000000000000000e+00" itree="233">
      <Node pos="s" depth="0" NCoef="0" IVar="6" Cut="1.7052206397056580e-01" cType="1" res="1.7926101281773299e-04" rms="2.4612689018249512e-01" purity="4.9849084019660950e-01" nType="0">
        <Node pos="l" depth="1" NCoef="0" IVar="7" Cut="-1.1959449052810669e+00" cType="1" res="-5.2522178739309311e-03" rms="2.4875387549400330e-01" purity="5.2643144130706787e-01" nType="0">
          <Node pos="l" depth="2" NCoef="0" IVar="5" Cut="1.3203732299804688e+02" cType="1" res="1.2577164918184280e-02" rms="2.5693440437316895e-01" purity="2.9295253753662109e-01" nType="0">
            <Node pos="l" depth="3" NCoef="0" IVar="-1" Cut="0.0000000000000000e+00" cType="1" res="-1.9543169066309929e-02" rms="1.9081076979637146e-01" purity="4.9792416393756866e-02" nType="-99"/>
            <Node pos="r" depth="3" NCoef="0" IVar="-1" Cut="0.0000000000000000e+00" cType="1" res="3.4653797745704651e-02" rms="3.0578893423080444e-01" purity="5.2487975358963013e-01" nType="-99"/>
          </Node>
          <Node pos="r" depth="2" NCoef="0" IVar="7" Cut="-8.1548482179641724e-01" cType="1" res="-7.2222915478050709e-03" rms="2.4775469303131104e-01" purity="5.5222994089126587e-01" nType="0">
            <Node pos="l" depth="3" NCoef="0" IVar="-1" Cut="0.0000000000000000e+00" cType="1" res="-4.2666338384151459e-02" rms="2.5561696290969849e-01" purity="4.8715957999229431e-01" nType="-99"/>
            <Node pos="r" depth="3" NCoef="0" IVar="-1" Cut="0.0000000000000000e+00" cType="1" res="-7.3426682502031326e-03" rms="2.4670447409152985e-01" purity="5.5967098474502563e-01" nType="-99"/>
          </Node>
        </Node>
        <Node pos="r" depth="1" NCoef="0" IVar="6" Cut="2.9557549953460693e-01" cType="1" res="7.5807538814842701e-03" rms="2.4230538308620453e-01" purity="4.6041604876518250e-01" nType="0">
          <Node pos="l" depth="2" NCoef="0" IVar="-1" Cut="0.0000000000000000e+00" cType="1" res="4.3419573456048965e-02" rms="2.6738101243972778e-01" purity="6.4246279001235962e-01" nType="-99"/>
          <Node pos="r" depth="2" NCoef="0" IVar="3" Cut="3.4989828491210938e+02" cType="1" res="4.4022165238857269e-03" rms="2.3820902407169342e-01" purity="4.3349608778953552e-01" nType="0">
            <Node pos="l" depth="3" NCoef="0" IVar="-1" Cut="0.0000000000000000e+00" cType="1" res="-1.3401610776782036e-03" rms="2.4176028370857239e-01" purity="2.4195353686809540e-01" nType="-99"/>
            <Node pos="r" depth="3" NCoef="0" IVar="-1" Cut="0.0000000000000000e+00" cType="1" res="2.0266896113753319e-02" rms="2.3210830986499786e-01" purity="7.4303972721099854e-01" nType="-99"/>
          </Node>
        </Node>
      </Node>
    </BinaryTree>
    <BinaryTree type="DecisionTree" boostWeight="1.0000000000000000e+00" itree="234">
      <Node pos="s" depth="0" NCoef="0" IVar="6" Cut="1.0013545751571655e+00" cType="1" res="-1.8921771552413702e-03" rms="2.4786695837974548e-01" purity="4.9788129329681396e-01" nType="0">
        <Node pos="l" depth="1" NCoef="0" IVar="9" Cut="1.7330646514892578e+00" cType="1" res="-4.0126438252627850e-03" rms="2.5112050771713257e-01" purity="5.3838020563125610e-01" nType="0">
          <Node pos="l" depth="2" NCoef="0" IVar="8" Cut="-1.1991877555847168e+00" cType="1" res="-2.8846226632595062e-03" rms="2.4977372586727142e-01" purity="5.5877864360809326e-01" nType="0">
            <Node pos="l" depth="3" NCoef="0" IVar="-1" Cut="0.0000000000000000e+00" cType="1" res="1.3205153867602348e-02" rms="2.6833149790763855e-01" purity="3.4427756071090698e-01" nType="-99"/>
            <Node pos="r" depth="3" NCoef="0" IVar="-1" Cut="0.0000000000000000e+00" cType="1" res="-7.2752330452203751e-03" rms="2.4700134992599487e-01" purity="5.8897548913955688e-01" nType="-99"/>
          </Node>
          <Node pos="r" depth="2" NCoef="0" IVar="7" Cut="1.3375346362590790e-01" cType="1" res="-2.0902862772345543e-02" rms="2.6992228627204895e-01" purity="2.3294802010059357e-01" nType="0">
            <Node pos="l" depth="3" NCoef="0" IVar="-1" Cut="0.0000000000000000e+00" cType="1" res="-4.6562086790800095e-02" rms="2.7004155516624451e-01" purity="2.3661434650421143e-01" nType="-99"/>
            <Node pos="r" depth="3" NCoef="0" IVar="-1" Cut="0.0000000000000000e+00" cType="1" res="-2.0153345540165901e-03" rms="2.6843518018722534e-01" purity="2.2887985408306122e-01" nType="-99"/>
          </Node>
        </Node>
        <Node pos="r" depth="1" NCoef="0" IVar="1" Cut="4.3309945613145828e-02" cType="1" res="1.2932237237691879e-02" rms="2.2324185073375702e-01" purity="2.1474918723106384e-01" nType="0">
          <Node pos="l" depth="2" NCoef="0" IVar="3" Cut="2.9859933471679688e+02" cType="1" res="1.1033737100660801e-03" rms="1.8263132870197296e-01" purity="9.0278297662734985e-02" nType="0">
            <Node pos="l" depth="3" NCoef="0" IVar="-1" Cut="0.0000000000000000e+00" cType="1" res="-3.4162342548370361e-02" rms="1.2888514995574951e-01" purity="2.8577305376529694e-02" nType="-99"/>
            <Node pos="r" depth="3" NCoef="0" IVar="-1" Cut="0.0000000000000000e+00" cType="1" res="2.7204055339097977e-02" rms="2.5308904051780701e-01" purity="2.0494024455547333e-01" nType="-99"/>
          </Node>
          <Node pos="r" depth="2" NCoef="0" IVar="-1" Cut="0.0000000000000000e+00" cType="1" res="4.8576120287179947e-02" rms="2.9066997766494751e-01" purity="4.8364168405532837e-01" nType="-99"/>
        </Node>
      </Node>
    </BinaryTree>
    <BinaryTree type="DecisionTree" boostWeight="1.0000000000000000e+00" itree="235">
      <Node pos="s" depth="0" NCoef="0" IVar="6" Cut="6.9665724039077759e-01" cType="1" res="6.9318246096372604e-04" rms="2.4555924534797668e-01" purity="4.9303832650184631e-01" nType="0">
        <Node pos="l" depth="1" NCoef="0" IVar="8" Cut="1.7327353954315186e+00" cType="1" res="3.3371602185070515e-03" rms="2.4841216206550598e-01" purity="5.4293680191040039e-01" nType="0">
          <Node pos="l" depth="2" NCoef="0" IVar="4" Cut="1.4955502319335938e+02" cType="1" res="4.4302958995103836e-03" rms="2.5009843707084656e-01" purity="5.6277960538864136e-01" nType="0">
            <Node pos="l" depth="3" NCoef="0" IVar="-1" Cut="0.0000000000000000e+00" cType="1" res="-1.0037087835371494e-02" rms="2.0681631565093994e-01" purity="7.6735205948352814e-02" nType="-99"/>
            <Node pos="r" depth="3" NCoef="0" IVar="-1" Cut="0.0000000000000000e+00" cType="1" res="9.4970213249325752e-03" rms="2.5817763805389404e-01" purity="6.6420710086822510e-01" nType="-99"/>
          </Node>
          <Node pos="r" depth="2" NCoef="0" IVar="-1" Cut="0.0000000000000000e+00" cType="1" res="-3.2889857888221741e-02" rms="2.0943468809127808e-01" purity="1.3423977792263031e-01" nType="-99"/>
        </Node>
        <Node pos="r" depth="1" NCoef="0" IVar="8" Cut="-1.3381163775920868e-01" cType="1" res="-9.4839241355657578e-03" rms="2.3397524654865265e-01" purity="3.0097055435180664e-01" nType="0">
          <Node pos="l" depth="2" NCoef="0" IVar="4" Cut="2.1019000244140625e+02" cType="1" res="6.4133193518500775e-05" rms="2.3294906318187714e-01" purity="2.7420079708099365e-01" nType="0">
            <Node pos="l" depth="3" NCoef="0" IVar="-1" Cut="0.0000000000000000e+00" cType="1" res="2.4631433188915253e-02" rms="2.1189723908901215e-01" purity="1.0394248366355896e-01" nType="-99"/>
            <Node pos="r" depth="3" NCoef="0" IVar="-1" Cut="0.0000000000000000e+00" cType="1" res="-1.6846356913447380e-02" rms="2.5663799047470093e-01" purity="4.9001979827880859e-01" nType="-99"/>
          </Node>
          <Node pos="r" depth="2" NCoef="0" IVar="7" Cut="-6.6589003801345825e-01" cType="1" res="-1.7291115596890450e-02" rms="2.3452229797840118e-01" purity="3.2285949587821960e-01" nType="0">
            <Node pos="l" depth="3" NCoef="0" IVar="-1" Cut="0.0000000000000000e+00" cType="1" res="2.5281798094511032e-02" rms="2.1012200415134430e-01" purity="1.8093529343605042e-01" nType="-99"/>
            <Node pos="r" depth="3" NCoef="0" IVar="-1" Cut="0.0000000000000000e+00" cType="1" res="-3.8038343191146851e-02" rms="2.4065491557121277e-01" purity="3.6505985260009766e-01" nType="-99"/>
          </Node>
        </Node>
      </Node>
    </BinaryTree>
    <BinaryTree type="DecisionTree" boostWeight="1.0000000000000000e+00" itree="236">
      <Node pos="s" depth="0" NCoef="0" IVar="5" Cut="1.2120568847656250e+02" cType="1" res="-2.0850393921136856e-03" rms="2.4736386537551880e-01" purity="4.9527853727340698e-01" nType="0">
        <Node pos="l" depth="1" NCoef="0" IVar="1" Cut="7.4724145233631134e-02" cType="1" res="6.4702201634645462e-03" rms="2.3018708825111389e-01" purity="1.1717250198125839e-01" nType="0">
          <Node pos="l" depth="2" NCoef="0" IVar="5" Cut="9.1171943664550781e+01" cType="1" res="2.6318596210330725e-03" rms="2.0155598223209381e-01" purity="7.6702289283275604e-02" nType="0">
            <Node pos="l" depth="3" NCoef="0" IVar="-1" Cut="0.0000000000000000e+00" cType="1" res="-2.9064213857054710e-02" rms="1.3010030984878540e-01" purity="3.7190668284893036e-02" nType="-99"/>
            <Node pos="r" depth="3" NCoef="0" IVar="-1" Cut="0.0000000000000000e+00" cType="1" res="2.0778423175215721e-02" rms="2.3993709683418274e-01" purity="1.0515345633029938e-01" nType="-99"/>
          </Node>
          <Node pos="r" depth="2" NCoef="0" IVar="7" Cut="-1.7041857540607452e-01" cType="1" res="2.2679185494780540e-02" rms="3.2382315397262573e-01" purity="2.8807365894317627e-01" nType="0">
            <Node pos="l" depth="3" NCoef="0" IVar="-1" Cut="0.0000000000000000e+00" cType="1" res="-3.0905818566679955e-03" rms="2.9625654220581055e-01" purity="2.5946786999702454e-01" nType="-99"/>
            <Node pos="r" depth="3" NCoef="0" IVar="-1" Cut="0.0000000000000000e+00" cType="1" res="4.6662390232086182e-02" rms="3.4602171182632446e-01" purity="3.1491386890411377e-01" nType="-99"/>
          </Node>
        </Node>
        <Node pos="r" depth="1" NCoef="0" IVar="0" Cut="2.1988378906250000e+03" cType="1" res="-5.4223896004259586e-03" rms="2.5367113947868347e-01" purity="6.4277517795562744e-01" nType="0">
          <Node pos="l" depth="2" NCoef="0" IVar="0" Cut="1.9324891357421875e+03" cType="1" res="-1.4198336750268936e-02" rms="3.1212070584297180e-01" purity="2.6355430483818054e-01" nType="0">
            <Node pos="l" depth="3" NCoef="0" IVar="-1" Cut="0.0000000000000000e+00" cType="1" res="-7.5956620275974274e-03" rms="2.8338062763214111e-01" purity="1.3899774849414825e-01" nType="-99"/>
            <Node pos="r" depth="3" NCoef="0" IVar="-1" Cut="0.0000000000000000e+00" cType="1" res="-2.2365733981132507e-02" rms="3.7313944101333618e-01" purity="5.7149714231491089e-01" nType="-99"/>
          </Node>
          <Node pos="r" depth="2" NCoef="0" IVar="7" Cut="1.3382098078727722e-01" cType="1" res="1.2839080300182104e-03" rms="1.9741825759410858e-01" purity="9.3256360292434692e-01" nType="0">
            <Node pos="l" depth="3" NCoef="0" IVar="-1" Cut="0.0000000000000000e+00" cType="1" res="1.5296914614737034e-02" rms="1.8572263419628143e-01" purity="9.4086956977844238e-01" nType="-99"/>
            <Node pos="r" depth="3" NCoef="0" IVar="-1" Cut="0.0000000000000000e+00" cType="1" res="-1.1831328272819519e-02" rms="2.1161770820617676e-01" purity="9.2165619134902954e-01" nType="-99"/>
          </Node>
        </Node>
      </Node>
    </BinaryTree>
    <BinaryTree type="DecisionTree" boostWeight="1.0000000000000000e+00" itree="237">
      <Node pos="s" depth="0" NCoef="0" IVar="6" Cut="-2.7680486440658569e-01" cType="1" res="1.4841579832136631e-03" rms="2.4513576924800873e-01" purity="4.9619966745376587e-01" nType="0">
        <Node pos="l" depth="1" NCoef="0" IVar="0" Cut="2.4651035156250000e+03" cType="1" res="-6.4649074338376522e-03" rms="2.3999312520027161e-01" purity="4.3318536877632141e-01" nType="0">
          <Node pos="l" depth="2" NCoef="0" IVar="4" Cut="2.1027197265625000e+02" cType="1" res="-9.8039694130420685e-03" rms="2.6047787070274353e-01" purity="2.3093391954898834e-01" nType="0">
            <Node pos="l" depth="3" NCoef="0" IVar="-1" Cut="0.0000000000000000e+00" cType="1" res="-3.5386855597607791e-04" rms="2.2754418849945068e-01" purity="1.2215620279312134e-01" nType="-99"/>
            <Node pos="r" depth="3" NCoef="0" IVar="-1" Cut="0.0000000000000000e+00" cType="1" res="-2.6452932506799698e-02" rms="3.1094211339950562e-01" purity="4.2932215332984924e-01" nType="-99"/>
          </Node>
          <Node pos="r" depth="2" NCoef="0" IVar="5" Cut="2.1928730773925781e+02" cType="1" res="1.9963346421718597e-03" rms="1.7753320932388306e-01" purity="9.4569414854049683e-01" nType="0">
            <Node pos="l" depth="3" NCoef="0" IVar="-1" Cut="0.0000000000000000e+00" cType="1" res="-1.1361237615346909e-02" rms="2.2828249633312225e-01" purity="8.9533036947250366e-01" nType="-99"/>
            <Node pos="r" depth="3" NCoef="0" IVar="-1" Cut="0.0000000000000000e+00" cType="1" res="3.1271126121282578e-02" rms="1.3326223194599152e-01" purity="9.7915059328079224e-01" nType="-99"/>
          </Node>
        </Node>
        <Node pos="r" depth="1" NCoef="0" IVar="8" Cut="-1.7329754829406738e+00" cType="1" res="6.1597391031682491e-03" rms="2.4799187481403351e-01" purity="5.3326427936553955e-01" nType="0">
          <Node pos="l" depth="2" NCoef="0" IVar="-1" Cut="0.0000000000000000e+00" cType="1" res="-3.6864433437585831e-02" rms="2.2912116348743439e-01" purity="1.1853323131799698e-01" nType="-99"/>
          <Node pos="r" depth="2" NCoef="0" IVar="5" Cut="1.0758521270751953e+02" cType="1" res="7.4410443194210529e-03" rms="2.4885869026184082e-01" purity="5.5464529991149902e-01" nType="0">
            <Node pos="l" depth="3" NCoef="0" IVar="-1" Cut="0.0000000000000000e+00" cType="1" res="-9.2337979003787041e-03" rms="2.2075845301151276e-01" purity="9.8037794232368469e-02" nType="-99"/>
            <Node pos="r" depth="3" NCoef="0" IVar="-1" Cut="0.0000000000000000e+00" cType="1" res="1.5331345610320568e-02" rms="2.5447419285774231e-01" purity="6.5372645854949951e-01" nType="-99"/>
          </Node>
        </Node>
      </Node>
    </BinaryTree>
    <BinaryTree type="DecisionTree" boostWeight="1.0000000000000000e+00" itree="238">
      <Node pos="s" depth="0" NCoef="0" IVar="9" Cut="-1.1974048614501953e+00" cType="1" res="-5.7356985053047538e-04" rms="2.4732172489166260e-01" purity="4.9126690626144409e-01" nType="0">
        <Node pos="l" depth="1" NCoef="0" IVar="8" Cut="-9.3520170450210571e-01" cType="1" res="8.4082661196589470e-03" rms="2.7194714546203613e-01" purity="3.7988862395286560e-01" nType="0">
          <Node pos="l" depth="2" NCoef="0" IVar="-1" Cut="0.0000000000000000e+00" cType="1" res="-1.5414049848914146e-02" rms="2.3141774535179138e-01" purity="2.2743165493011475e-01" nType="-99"/>
          <Node pos="r" depth="2" NCoef="0" IVar="9" Cut="-1.7303129434585571e+00" cType="1" res="1.4315319247543812e-02" rms="2.8359645605087280e-01" purity="4.2931661009788513e-01" nType="0">
            <Node pos="l" depth="3" NCoef="0" IVar="-1" Cut="0.0000000000000000e+00" cType="1" res="-2.7552037499845028e-03" rms="2.8398188948631287e-01" purity="2.7136695384979248e-01" nType="-99"/>
            <Node pos="r" depth="3" NCoef="0" IVar="-1" Cut="0.0000000000000000e+00" cType="1" res="3.2462373375892639e-02" rms="2.8277239203453064e-01" purity="5.3932166099548340e-01" nType="-99"/>
          </Node>
        </Node>
        <Node pos="r" depth="1" NCoef="0" IVar="9" Cut="8.9618098735809326e-01" cType="1" res="-2.1077296696603298e-03" rms="2.4283276498317719e-01" purity="5.1029109954833984e-01" nType="0">
          <Node pos="l" depth="2" NCoef="0" IVar="7" Cut="4.0083369612693787e-01" cType="1" res="-4.0358523838222027e-03" rms="2.3576800525188446e-01" purity="5.4302752017974854e-01" nType="0">
            <Node pos="l" depth="3" NCoef="0" IVar="-1" Cut="0.0000000000000000e+00" cType="1" res="-1.2692756718024611e-03" rms="2.3341436684131622e-01" purity="5.7598376274108887e-01" nType="-99"/>
            <Node pos="r" depth="3" NCoef="0" IVar="-1" Cut="0.0000000000000000e+00" cType="1" res="-1.8693674355745316e-02" rms="2.4061939120292664e-01" purity="4.7182154655456543e-01" nType="-99"/>
          </Node>
          <Node pos="r" depth="2" NCoef="0" IVar="4" Cut="1.4654580688476562e+02" cType="1" res="3.6275456659495831e-03" rms="2.6264294981956482e-01" purity="4.1291511058807373e-01" nType="0">
            <Node pos="l" depth="3" NCoef="0" IVar="-1" Cut="0.0000000000000000e+00" cType="1" res="5.7229623198509216e-02" rms="2.3134160041809082e-01" purity="8.7228164076805115e-02" nType="-99"/>
            <Node pos="r" depth="3" NCoef="0" IVar="-1" Cut="0.0000000000000000e+00" cType="1" res="-1.0402527404949069e-03" rms="2.6991727948188782e-01" purity="4.9651730060577393e-01" nType="-99"/>
          </Node>
        </Node>
      </Node>
    </BinaryTree>
    <BinaryTree type="DecisionTree" boostWeight="1.0000000000000000e+00" itree="239">
      <Node pos="s" depth="0" NCoef="0" IVar="1" Cut="6.3420906662940979e-02" cType="1" res="-2.5408572400920093e-04" rms="2.4339042603969574e-01" purity="5.0577080249786377e-01" nType="0">
        <Node pos="l" depth="1" NCoef="0" IVar="9" Cut="1.1999199390411377e+00" cType="1" res="-5.5772000923752785e-03" rms="2.3639127612113953e-01" purity="2.5467392802238464e-01" nType="0">
          <Node pos="l" depth="2" NCoef="0" IVar="9" Cut="-1.8467363119125366e+00" cType="1" res="-2.3832423612475395e-03" rms="2.4023137986660004e-01" purity="2.7875360846519470e-01" nType="0">
            <Node pos="l" depth="3" NCoef="0" IVar="-1" Cut="0.0000000000000000e+00" cType="1" res="-3.8909379392862320e-02" rms="2.2344794869422913e-01" purity="9.1600485146045685e-02" nType="-99"/>
            <Node pos="r" depth="3" NCoef="0" IVar="-1" Cut="0.0000000000000000e+00" cType="1" res="-1.6125311376526952e-03" rms="2.4149480462074280e-01" purity="2.9402276873588562e-01" nType="-99"/>
          </Node>
          <Node pos="r" depth="2" NCoef="0" IVar="5" Cut="1.4551403808593750e+02" cType="1" res="-1.9541511312127113e-02" rms="2.1826374530792236e-01" purity="1.4939494431018829e-01" nType="0">
            <Node pos="l" depth="3" NCoef="0" IVar="-1" Cut="0.0000000000000000e+00" cType="1" res="-2.0425399765372276e-02" rms="1.8856245279312134e-01" purity="8.4530897438526154e-02" nType="-99"/>
            <Node pos="r" depth="3" NCoef="0" IVar="-1" Cut="0.0000000000000000e+00" cType="1" res="-4.7167219221591949e-02" rms="2.6275169849395752e-01" purity="2.6718291640281677e-01" nType="-99"/>
          </Node>
        </Node>
        <Node pos="r" depth="1" NCoef="0" IVar="9" Cut="1.3495126366615295e-01" cType="1" res="4.7431741841137409e-03" rms="2.4967943131923676e-01" purity="7.4149680137634277e-01" nType="0">
          <Node pos="l" depth="2" NCoef="0" IVar="4" Cut="2.1633120727539062e+02" cType="1" res="-2.6816490571945906e-03" rms="2.5255522131919861e-01" purity="7.3700553178787231e-01" nType="0">
            <Node pos="l" depth="3" NCoef="0" IVar="-1" Cut="0.0000000000000000e+00" cType="1" res="-1.9494401291012764e-02" rms="3.1187471747398376e-01" purity="3.7608399987220764e-01" nType="-99"/>
            <Node pos="r" depth="3" NCoef="0" IVar="-1" Cut="0.0000000000000000e+00" cType="1" res="8.3345342427492142e-03" rms="2.2271494567394257e-01" purity="8.8810956478118896e-01" nType="-99"/>
          </Node>
          <Node pos="r" depth="2" NCoef="0" IVar="0" Cut="2.1238754882812500e+03" cType="1" res="1.3762782327830791e-02" rms="2.4583929777145386e-01" purity="7.4695283174514771e-01" nType="0">
            <Node pos="l" depth="3" NCoef="0" IVar="-1" Cut="0.0000000000000000e+00" cType="1" res="2.4921368807554245e-02" rms="3.4466794133186340e-01" purity="3.4053310751914978e-01" nType="-99"/>
            <Node pos="r" depth="3" NCoef="0" IVar="-1" Cut="0.0000000000000000e+00" cType="1" res="1.6696376726031303e-02" rms="1.7027051746845245e-01" purity="9.6458643674850464e-01" nType="-99"/>
          </Node>
        </Node>
      </Node>
    </BinaryTree>
    <BinaryTree type="DecisionTree" boostWeight="1.0000000000000000e+00" itree="240">
      <Node pos="s" depth="0" NCoef="0" IVar="2" Cut="8.7266387939453125e+02" cType="1" res="3.0422511044889688e-03" rms="2.4714766442775726e-01" purity="5.0339680910110474e-01" nType="0">
        <Node pos="l" depth="1" NCoef="0" IVar="8" Cut="3.9956399798393250e-01" cType="1" res="4.0796366520226002e-03" rms="2.4450236558914185e-01" purity="4.8914524912834167e-01" nType="0">
          <Node pos="l" depth="2" NCoef="0" IVar="3" Cut="4.3402047729492188e+02" cType="1" res="8.7830243865028024e-04" rms="2.4177066981792450e-01" purity="5.0143831968307495e-01" nType="0">
            <Node pos="l" depth="3" NCoef="0" IVar="-1" Cut="0.0000000000000000e+00" cType="1" res="5.0506968982517719e-03" rms="2.4889887869358063e-01" purity="4.1121399402618408e-01" nType="-99"/>
            <Node pos="r" depth="3" NCoef="0" IVar="-1" Cut="0.0000000000000000e+00" cType="1" res="-1.9337993115186691e-02" rms="2.1143238246440887e-01" purity="8.5328340530395508e-01" nType="-99"/>
          </Node>
          <Node pos="r" depth="2" NCoef="0" IVar="9" Cut="-9.3113285303115845e-01" cType="1" res="9.9367257207632065e-03" rms="2.4931640923023224e-01" purity="4.6665409207344055e-01" nType="0">
            <Node pos="l" depth="3" NCoef="0" IVar="-1" Cut="0.0000000000000000e+00" cType="1" res="3.7288345396518707e-02" rms="2.6932299137115479e-01" purity="4.2177063226699829e-01" nType="-99"/>
            <Node pos="r" depth="3" NCoef="0" IVar="-1" Cut="0.0000000000000000e+00" cType="1" res="9.7163179889321327e-03" rms="2.4417966604232788e-01" purity="4.7726932168006897e-01" nType="-99"/>
          </Node>
        </Node>
        <Node pos="r" depth="1" NCoef="0" IVar="-1" Cut="0.0000000000000000e+00" cType="1" res="-2.0271969959139824e-02" rms="2.9067021608352661e-01" purity="7.6405328512191772e-01" nType="-99"/>
      </Node>
    </BinaryTree>
    <BinaryTree type="DecisionTree" boostWeight="1.0000000000000000e+00" itree="241">
      <Node pos="s" depth="0" NCoef="0" IVar="4" Cut="3.0679437255859375e+02" cType="1" res="3.0951360240578651e-03" rms="2.5026687979698181e-01" purity="5.0804954767227173e-01" nType="0">
        <Node pos="l" depth="1" NCoef="0" IVar="4" Cut="1.7461491394042969e+02" cType="1" res="5.7696672156453133e-03" rms="2.6369860768318176e-01" purity="3.8449275493621826e-01" nType="0">
          <Node pos="l" depth="2" NCoef="0" IVar="5" Cut="1.4450941467285156e+02" cType="1" res="-2.4019752163439989e-03" rms="2.2042655944824219e-01" purity="1.0650989413261414e-01" nType="0">
            <Node pos="l" depth="3" NCoef="0" IVar="-1" Cut="0.0000000000000000e+00" cType="1" res="4.0813494706526399e-04" rms="2.1232880651950836e-01" purity="8.8610172271728516e-02" nType="-99"/>
            <Node pos="r" depth="3" NCoef="0" IVar="-1" Cut="0.0000000000000000e+00" cType="1" res="-2.6145625859498978e-02" rms="2.7452945709228516e-01" purity="2.4561502039432526e-01" nType="-99"/>
          </Node>
          <Node pos="r" depth="2" NCoef="0" IVar="5" Cut="2.3162371826171875e+02" cType="1" res="1.0536383837461472e-02" rms="2.8582403063774109e-01" purity="5.4664689302444458e-01" nType="0">
            <Node pos="l" depth="3" NCoef="0" IVar="-1" Cut="0.0000000000000000e+00" cType="1" res="1.6209723427891731e-02" rms="2.9397580027580261e-01" purity="4.9526023864746094e-01" nType="-99"/>
            <Node pos="r" depth="3" NCoef="0" IVar="-1" Cut="0.0000000000000000e+00" cType="1" res="-1.5553289093077183e-02" rms="2.2744838893413544e-01" purity="8.6769253015518188e-01" nType="-99"/>
          </Node>
        </Node>
        <Node pos="r" depth="1" NCoef="0" IVar="7" Cut="-6.9327157735824585e-01" cType="1" res="-5.7492605410516262e-03" rms="1.9925527274608612e-01" purity="9.1663908958435059e-01" nType="0">
          <Node pos="l" depth="2" NCoef="0" IVar="-1" Cut="0.0000000000000000e+00" cType="1" res="-4.3612278997898102e-02" rms="2.5016418099403381e-01" purity="8.4287089109420776e-01" nType="-99"/>
          <Node pos="r" depth="2" NCoef="0" IVar="0" Cut="2.5873925781250000e+03" cType="1" res="-2.3653835523873568e-03" rms="1.8771487474441528e-01" purity="9.3080854415893555e-01" nType="0">
            <Node pos="l" depth="3" NCoef="0" IVar="-1" Cut="0.0000000000000000e+00" cType="1" res="-1.4806964434683323e-02" rms="3.0198431015014648e-01" purity="7.8248232603073120e-01" nType="-99"/>
            <Node pos="r" depth="3" NCoef="0" IVar="-1" Cut="0.0000000000000000e+00" cType="1" res="4.6938550658524036e-03" rms="1.3329529762268066e-01" purity="9.7699141502380371e-01" nType="-99"/>
          </Node>
        </Node>
      </Node>
    </BinaryTree>
    <BinaryTree type="DecisionTree" boostWeight="1.0000000000000000e+00" itree="242">
      <Node pos="s" depth="0" NCoef="0" IVar="8" Cut="4.0146085619926453e-01" cType="1" res="-1.8131106626242399e-03" rms="2.4226962029933929e-01" purity="5.0118720531463623e-01" nType="0">
        <Node pos="l" depth="1" NCoef="0" IVar="7" Cut="-1.2000684738159180e+00" cType="1" res="8.9922233019024134e-04" rms="2.4153828620910645e-01" purity="5.2157133817672729e-01" nType="0">
          <Node pos="l" depth="2" NCoef="0" IVar="7" Cut="-1.4289103746414185e+00" cType="1" res="-1.2906684540212154e-02" rms="2.1817728877067566e-01" purity="1.9743759930133820e-01" nType="0">
            <Node pos="l" depth="3" NCoef="0" IVar="-1" Cut="0.0000000000000000e+00" cType="1" res="4.8992359079420567e-03" rms="2.2079554200172424e-01" purity="1.6321824491024017e-01" nType="-99"/>
            <Node pos="r" depth="3" NCoef="0" IVar="-1" Cut="0.0000000000000000e+00" cType="1" res="-5.7356581091880798e-02" rms="2.1057562530040741e-01" purity="2.5939461588859558e-01" nType="-99"/>
          </Node>
          <Node pos="r" depth="2" NCoef="0" IVar="5" Cut="1.8509893798828125e+02" cType="1" res="2.7428283356130123e-03" rms="2.4442996084690094e-01" purity="5.6485527753829956e-01" nType="0">
            <Node pos="l" depth="3" NCoef="0" IVar="-1" Cut="0.0000000000000000e+00" cType="1" res="9.4758989289402962e-03" rms="2.6911479234695435e-01" purity="3.1586569547653198e-01" nType="-99"/>
            <Node pos="r" depth="3" NCoef="0" IVar="-1" Cut="0.0000000000000000e+00" cType="1" res="-6.0953204520046711e-03" rms="2.0733524858951569e-01" purity="8.9294457435607910e-01" nType="-99"/>
          </Node>
        </Node>
        <Node pos="r" depth="1" NCoef="0" IVar="8" Cut="8.5822254419326782e-01" cType="1" res="-7.0335785858333111e-03" rms="2.4358604848384857e-01" purity="4.6195381879806519e-01" nType="0">
          <Node pos="l" depth="2" NCoef="0" IVar="6" Cut="7.5747829675674438e-01" cType="1" res="-1.6071373596787453e-02" rms="2.3230332136154175e-01" purity="5.4533541202545166e-01" nType="0">
            <Node pos="l" depth="3" NCoef="0" IVar="-1" Cut="0.0000000000000000e+00" cType="1" res="-1.5970734879374504e-02" rms="2.3579937219619751e-01" purity="6.1289185285568237e-01" nType="-99"/>
            <Node pos="r" depth="3" NCoef="0" IVar="-1" Cut="0.0000000000000000e+00" cType="1" res="-5.4404769092798233e-02" rms="2.1608473360538483e-01" purity="2.8096884489059448e-01" nType="-99"/>
          </Node>
          <Node pos="r" depth="2" NCoef="0" IVar="1" Cut="5.9435140341520309e-02" cType="1" res="9.0742403699550778e-05" rms="2.5189593434333801e-01" purity="3.9622563123703003e-01" nType="0">
            <Node pos="l" depth="3" NCoef="0" IVar="-1" Cut="0.0000000000000000e+00" cType="1" res="-1.6963172703981400e-02" rms="2.1873283386230469e-01" purity="1.7431928217411041e-01" nType="-99"/>
            <Node pos="r" depth="3" NCoef="0" IVar="-1" Cut="0.0000000000000000e+00" cType="1" res="1.5447576530277729e-02" rms="2.8826609253883362e-01" purity="6.7938554286956787e-01" nType="-99"/>
          </Node>
        </Node>
      </Node>
    </BinaryTree>
    <BinaryTree type="DecisionTree" boostWeight="1.0000000000000000e+00" itree="243">
      <Node pos="s" depth="0" NCoef="0" IVar="9" Cut="-6.6627377271652222e-01" cType="1" res="-1.4491869369521737e-03" rms="2.4987491965293884e-01" purity="5.1085054874420166e-01" nType="0">
        <Node pos="l" depth="1" NCoef="0" IVar="5" Cut="1.9262435913085938e+02" cType="1" res="-8.3565358072519302e-03" rms="2.6196002960205078e-01" purity="4.4892209768295288e-01" nType="0">
          <Node pos="l" depth="2" NCoef="0" IVar="5" Cut="1.5900375366210938e+02" cType="1" res="-6.9562520366162062e-04" rms="2.6410645246505737e-01" purity="2.9576349258422852e-01" nType="0">
            <Node pos="l" depth="3" NCoef="0" IVar="-1" Cut="0.0000000000000000e+00" cType="1" res="-9.3523114919662476e-03" rms="2.5203374028205872e-01" purity="2.0258766412734985e-01" nType="-99"/>
            <Node pos="r" depth="3" NCoef="0" IVar="-1" Cut="0.0000000000000000e+00" cType="1" res="2.0207194611430168e-02" rms="3.0187261104583740e-01" purity="6.2245631217956543e-01" nType="-99"/>
          </Node>
          <Node pos="r" depth="2" NCoef="0" IVar="-1" Cut="0.0000000000000000e+00" cType="1" res="-4.8177197575569153e-02" rms="2.5522142648696899e-01" purity="8.4712886810302734e-01" nType="-99"/>
        </Node>
        <Node pos="r" depth="1" NCoef="0" IVar="9" Cut="8.1899034976959229e-01" cType="1" res="1.2533526169136167e-03" rms="2.4493134021759033e-01" purity="5.3508043289184570e-01" nType="0">
          <Node pos="l" depth="2" NCoef="0" IVar="6" Cut="-5.5472582578659058e-01" cType="1" res="3.7710308097302914e-03" rms="2.3978804051876068e-01" purity="5.7974028587341309e-01" nType="0">
            <Node pos="l" depth="3" NCoef="0" IVar="-1" Cut="0.0000000000000000e+00" cType="1" res="2.1934283897280693e-02" rms="2.5568994879722595e-01" purity="4.4051444530487061e-01" nType="-99"/>
            <Node pos="r" depth="3" NCoef="0" IVar="-1" Cut="0.0000000000000000e+00" cType="1" res="1.4336353633552790e-03" rms="2.3450969159603119e-01" purity="6.2333905696868896e-01" nType="-99"/>
          </Node>
          <Node pos="r" depth="2" NCoef="0" IVar="1" Cut="1.2981814146041870e-01" cType="1" res="-4.1545634157955647e-03" rms="2.5554552674293518e-01" purity="4.3915200233459473e-01" nType="0">
            <Node pos="l" depth="3" NCoef="0" IVar="-1" Cut="0.0000000000000000e+00" cType="1" res="-1.5521000605076551e-03" rms="2.5967416167259216e-01" purity="3.4532946348190308e-01" nType="-99"/>
            <Node pos="r" depth="3" NCoef="0" IVar="-1" Cut="0.0000000000000000e+00" cType="1" res="-2.7907166630029678e-02" rms="2.3844341933727264e-01" purity="8.0376374721527100e-01" nType="-99"/>
          </Node>
        </Node>
      </Node>
    </BinaryTree>
    <BinaryTree type="DecisionTree" boostWeight="1.0000000000000000e+00" itree="244">
      <Node pos="s" depth="0" NCoef="0" IVar="8" Cut="-6.6657793521881104e-01" cType="1" res="-2.1140025928616524e-03" rms="2.4632249772548676e-01" purity="4.9134802818298340e-01" nType="0">
        <Node pos="l" depth="1" NCoef="0" IVar="7" Cut="1.2000687122344971e+00" cType="1" res="4.1802171617746353e-03" rms="2.5422480702400208e-01" purity="4.1340389847755432e-01" nType="0">
          <Node pos="l" depth="2" NCoef="0" IVar="1" Cut="3.8628917187452316e-02" cType="1" res="7.0672659203410149e-03" rms="2.5832250714302063e-01" purity="4.4464582204818726e-01" nType="0">
            <Node pos="l" depth="3" NCoef="0" IVar="-1" Cut="0.0000000000000000e+00" cType="1" res="3.1854368746280670e-02" rms="2.3306258022785187e-01" purity="1.6747699677944183e-01" nType="-99"/>
            <Node pos="r" depth="3" NCoef="0" IVar="-1" Cut="0.0000000000000000e+00" cType="1" res="2.6532337069511414e-03" rms="2.7111285924911499e-01" purity="5.9745556116104126e-01" nType="-99"/>
          </Node>
          <Node pos="r" depth="2" NCoef="0" IVar="-1" Cut="0.0000000000000000e+00" cType="1" res="-3.5617433488368988e-02" rms="2.1502970159053802e-01" purity="1.4969107508659363e-01" nType="-99"/>
        </Node>
        <Node pos="r" depth="1" NCoef="0" IVar="8" Cut="-5.0152260065078735e-01" cType="1" res="-4.2942725121974945e-03" rms="2.4348747730255127e-01" purity="5.1834720373153687e-01" nType="0">
          <Node pos="l" depth="2" NCoef="0" IVar="-1" Cut="0.0000000000000000e+00" cType="1" res="-4.5507907867431641e-02" rms="2.3185814917087555e-01" purity="5.4949307441711426e-01" nType="-99"/>
          <Node pos="r" depth="2" NCoef="0" IVar="7" Cut="9.3207353353500366e-01" cType="1" res="-2.4671785067766905e-03" rms="2.4436870217323303e-01" purity="5.1568603515625000e-01" nType="0">
            <Node pos="l" depth="3" NCoef="0" IVar="-1" Cut="0.0000000000000000e+00" cType="1" res="-7.6151532121002674e-03" rms="2.4189591407775879e-01" purity="5.5626040697097778e-01" nType="-99"/>
            <Node pos="r" depth="3" NCoef="0" IVar="-1" Cut="0.0000000000000000e+00" cType="1" res="1.4006875455379486e-02" rms="2.5594958662986755e-01" purity="3.1529039144515991e-01" nType="-99"/>
          </Node>
        </Node>
      </Node>
    </BinaryTree>
    <BinaryTree type="DecisionTree" boostWeight="1.0000000000000000e+00" itree="245">
      <Node pos="s" depth="0" NCoef="0" IVar="3" Cut="5.4907354736328125e+02" cType="1" res="7.4679526733234525e-04" rms="2.5175493955612183e-01" purity="5.0463622808456421e-01" nType="0">
        <Node pos="l" depth="1" NCoef="0" IVar="9" Cut="-6.6562378406524658e-01" cType="1" res="2.0064194686710835e-03" rms="2.5245702266693115e-01" purity="4.7640603780746460e-01" nType="0">
          <Node pos="l" depth="2" NCoef="0" IVar="5" Cut="2.0265356445312500e+02" cType="1" res="8.8001899421215057e-03" rms="2.6863127946853638e-01" purity="4.4211491942405701e-01" nType="0">
            <Node pos="l" depth="3" NCoef="0" IVar="-1" Cut="0.0000000000000000e+00" cType="1" res="1.9287373870611191e-02" rms="2.7716463804244995e-01" purity="3.1611448526382446e-01" nType="-99"/>
            <Node pos="r" depth="3" NCoef="0" IVar="-1" Cut="0.0000000000000000e+00" cType="1" res="-1.5311134047806263e-02" rms="2.3686324059963226e-01" purity="8.6525470018386841e-01" nType="-99"/>
          </Node>
          <Node pos="r" depth="2" NCoef="0" IVar="9" Cut="2.1394522190093994e+00" cType="1" res="-6.1124906642362475e-04" rms="2.4589121341705322e-01" purity="4.8961853981018066e-01" nType="0">
            <Node pos="l" depth="3" NCoef="0" IVar="-1" Cut="0.0000000000000000e+00" cType="1" res="9.2112034326419234e-04" rms="2.4742749333381653e-01" purity="5.0903695821762085e-01" nType="-99"/>
            <Node pos="r" depth="3" NCoef="0" IVar="-1" Cut="0.0000000000000000e+00" cType="1" res="-4.6836681663990021e-02" rms="2.1077816188335419e-01" purity="9.4443142414093018e-02" nType="-99"/>
          </Node>
        </Node>
        <Node pos="r" depth="1" NCoef="0" IVar="5" Cut="1.9282957458496094e+02" cType="1" res="-1.5591985546052456e-02" rms="2.4187032878398895e-01" purity="8.7081480026245117e-01" nType="0">
          <Node pos="l" depth="2" NCoef="0" IVar="-1" Cut="0.0000000000000000e+00" cType="1" res="-2.0637870766222477e-03" rms="3.0249801278114319e-01" purity="7.4493020772933960e-01" nType="-99"/>
          <Node pos="r" depth="2" NCoef="0" IVar="-1" Cut="0.0000000000000000e+00" cType="1" res="-8.5384868085384369e-02" rms="1.9837135076522827e-01" purity="9.4321507215499878e-01" nType="-99"/>
        </Node>
      </Node>
    </BinaryTree>
    <BinaryTree type="DecisionTree" boostWeight="1.0000000000000000e+00" itree="246">
      <Node pos="s" depth="0" NCoef="0" IVar="4" Cut="2.6720108032226562e+02" cType="1" res="7.2477319918107241e-05" rms="2.4723419547080994e-01" purity="4.9314814805984497e-01" nType="0">
        <Node pos="l" depth="1" NCoef="0" IVar="9" Cut="-1.1993241310119629e+00" cType="1" res="-3.3218329772353172e-03" rms="2.6153802871704102e-01" purity="3.0024838447570801e-01" nType="0">
          <Node pos="l" depth="2" NCoef="0" IVar="4" Cut="1.9719038391113281e+02" cType="1" res="-1.8924999982118607e-02" rms="2.6908308267593384e-01" purity="2.4093666672706604e-01" nType="0">
            <Node pos="l" depth="3" NCoef="0" IVar="-1" Cut="0.0000000000000000e+00" cType="1" res="-2.4947299971245229e-04" rms="2.4371704459190369e-01" purity="1.6062910854816437e-01" nType="-99"/>
            <Node pos="r" depth="3" NCoef="0" IVar="-1" Cut="0.0000000000000000e+00" cType="1" res="-4.8176400363445282e-02" rms="3.0427068471908569e-01" purity="3.7521138787269592e-01" nType="-99"/>
          </Node>
          <Node pos="r" depth="2" NCoef="0" IVar="9" Cut="1.0860503911972046e+00" cType="1" res="1.1205295777472202e-05" rms="2.5977647304534912e-01" purity="3.1291809678077698e-01" nType="0">
            <Node pos="l" depth="3" NCoef="0" IVar="-1" Cut="0.0000000000000000e+00" cType="1" res="-3.6776044871658087e-03" rms="2.5944811105728149e-01" purity="3.3055245876312256e-01" nType="-99"/>
            <Node pos="r" depth="3" NCoef="0" IVar="-1" Cut="0.0000000000000000e+00" cType="1" res="1.2850339524447918e-02" rms="2.6065906882286072e-01" purity="2.5634419918060303e-01" nType="-99"/>
          </Node>
        </Node>
        <Node pos="r" depth="1" NCoef="0" IVar="8" Cut="-9.1749972105026245e-01" cType="1" res="6.6234874539077282e-03" rms="2.1682772040367126e-01" purity="8.6544424295425415e-01" nType="0">
          <Node pos="l" depth="2" NCoef="0" IVar="-1" Cut="0.0000000000000000e+00" cType="1" res="-2.5752892717719078e-02" rms="2.6794618368148804e-01" purity="7.0814126729965210e-01" nType="-99"/>
          <Node pos="r" depth="2" NCoef="0" IVar="0" Cut="2.4836162109375000e+03" cType="1" res="1.0109536349773407e-02" rms="2.0923696458339691e-01" purity="8.8528513908386230e-01" nType="0">
            <Node pos="l" depth="3" NCoef="0" IVar="-1" Cut="0.0000000000000000e+00" cType="1" res="2.1202955394983292e-02" rms="3.1250303983688354e-01" purity="6.8496578931808472e-01" nType="-99"/>
            <Node pos="r" depth="3" NCoef="0" IVar="-1" Cut="0.0000000000000000e+00" cType="1" res="1.8177375197410583e-02" rms="1.4755798876285553e-01" purity="9.6678435802459717e-01" nType="-99"/>
          </Node>
        </Node>
      </Node>
    </BinaryTree>
    <BinaryTree type="DecisionTree" boostWeight="1.0000000000000000e+00" itree="247">
      <Node pos="s" depth="0" NCoef="0" IVar="9" Cut="-1.9991481304168701e+00" cType="1" res="2.1008357871323824e-03" rms="2.4604085087776184e-01" purity="5.0199490785598755e-01" nType="0">
        <Node pos="l" depth="1" NCoef="0" IVar="-1" Cut="0.0000000000000000e+00" cType="1" res="4.4843405485153198e-02" rms="2.8379157185554504e-01" purity="2.3327054083347321e-01" nType="-99"/>
        <Node pos="r" depth="1" NCoef="0" IVar="3" Cut="2.0046240234375000e+02" cType="1" res="1.1294370051473379e-03" rms="2.4452045559883118e-01" purity="5.1164990663528442e-01" nType="0">
          <Node pos="l" depth="2" NCoef="0" IVar="8" Cut="9.3280142545700073e-01" cType="1" res="-7.0380475372076035e-03" rms="1.9349837303161621e-01" purity="7.4716009199619293e-02" nType="0">
            <Node pos="l" depth="3" NCoef="0" IVar="-1" Cut="0.0000000000000000e+00" cType="1" res="2.7786088176071644e-03" rms="2.0546509325504303e-01" purity="8.4811843931674957e-02" nType="-99"/>
            <Node pos="r" depth="3" NCoef="0" IVar="-1" Cut="0.0000000000000000e+00" cType="1" res="-7.7747330069541931e-02" rms="1.4324949681758881e-01" purity="4.1008464992046356e-02" nType="-99"/>
          </Node>
          <Node pos="r" depth="2" NCoef="0" IVar="7" Cut="-1.4666825532913208e+00" cType="1" res="2.1677291952073574e-03" rms="2.5024342536926270e-01" purity="5.6719511747360229e-01" nType="0">
            <Node pos="l" depth="3" NCoef="0" IVar="-1" Cut="0.0000000000000000e+00" cType="1" res="3.1306453049182892e-02" rms="2.2551983594894409e-01" purity="1.8144230544567108e-01" nType="-99"/>
            <Node pos="r" depth="3" NCoef="0" IVar="-1" Cut="0.0000000000000000e+00" cType="1" res="2.0779753103852272e-03" rms="2.5165775418281555e-01" purity="5.9085118770599365e-01" nType="-99"/>
          </Node>
        </Node>
      </Node>
    </BinaryTree>
    <BinaryTree type="DecisionTree" boostWeight="1.0000000000000000e+00" itree="248">
      <Node pos="s" depth="0" NCoef="0" IVar="1" Cut="1.0568731278181076e-01" cType="1" res="-3.1939116888679564e-04" rms="2.4986535310745239e-01" purity="5.0420135259628296e-01" nType="0">
        <Node pos="l" depth="1" NCoef="0" IVar="1" Cut="5.5368460714817047e-02" cType="1" res="2.5289733894169331e-03" rms="2.5594797730445862e-01" purity="3.6536738276481628e-01" nType="0">
          <Node pos="l" depth="2" NCoef="0" IVar="8" Cut="-1.3344016671180725e-01" cType="1" res="-9.5626839902251959e-04" rms="2.3411996662616730e-01" purity="2.3191301524639130e-01" nType="0">
            <Node pos="l" depth="3" NCoef="0" IVar="-1" Cut="0.0000000000000000e+00" cType="1" res="-1.0868893936276436e-02" rms="2.3076586425304413e-01" purity="2.0541092753410339e-01" nType="-99"/>
            <Node pos="r" depth="3" NCoef="0" IVar="-1" Cut="0.0000000000000000e+00" cType="1" res="5.8939363807439804e-03" rms="2.3693440854549408e-01" purity="2.5518438220024109e-01" nType="-99"/>
          </Node>
          <Node pos="r" depth="2" NCoef="0" IVar="5" Cut="1.0508579254150391e+02" cType="1" res="8.8447807356715202e-03" rms="2.9126021265983582e-01" purity="6.0720771551132202e-01" nType="0">
            <Node pos="l" depth="3" NCoef="0" IVar="-1" Cut="0.0000000000000000e+00" cType="1" res="6.6460438072681427e-02" rms="3.1532526016235352e-01" purity="1.7905394732952118e-01" nType="-99"/>
            <Node pos="r" depth="3" NCoef="0" IVar="-1" Cut="0.0000000000000000e+00" cType="1" res="4.9147726967930794e-03" rms="2.8750646114349365e-01" purity="6.6523915529251099e-01" nType="-99"/>
          </Node>
        </Node>
        <Node pos="r" depth="1" NCoef="0" IVar="0" Cut="2.1238549804687500e+03" cType="1" res="-6.6287466324865818e-03" rms="2.3571132123470306e-01" purity="8.1172978878021240e-01" nType="0">
          <Node pos="l" depth="2" NCoef="0" IVar="2" Cut="4.0059091186523438e+02" cType="1" res="-2.2343775257468224e-02" rms="3.7395885586738586e-01" purity="4.0007051825523376e-01" nType="0">
            <Node pos="l" depth="3" NCoef="0" IVar="-1" Cut="0.0000000000000000e+00" cType="1" res="4.5872586779296398e-03" rms="3.5371664166450500e-01" purity="4.0276265144348145e-01" nType="-99"/>
            <Node pos="r" depth="3" NCoef="0" IVar="-1" Cut="0.0000000000000000e+00" cType="1" res="-4.0660548955202103e-02" rms="3.9724031090736389e-01" purity="3.9629781246185303e-01" nType="-99"/>
          </Node>
          <Node pos="r" depth="2" NCoef="0" IVar="8" Cut="-6.3172465562820435e-01" cType="1" res="-4.7142611583694816e-04" rms="1.4967034757137299e-01" purity="9.7302234172821045e-01" nType="0">
            <Node pos="l" depth="3" NCoef="0" IVar="-1" Cut="0.0000000000000000e+00" cType="1" res="-3.2309159636497498e-02" rms="1.8922646343708038e-01" purity="9.5144301652908325e-01" nType="-99"/>
            <Node pos="r" depth="3" NCoef="0" IVar="-1" Cut="0.0000000000000000e+00" cType="1" res="1.0582317598164082e-02" rms="1.3676087558269501e-01" purity="9.7892093658447266e-01" nType="-99"/>
          </Node>
        </Node>
      </Node>
    </BinaryTree>
    <BinaryTree type="DecisionTree" boostWeight="1.0000000000000000e+00" itree="249">
      <Node pos="s" depth="0" NCoef="0" IVar="1" Cut="1.9112883508205414e-01" cType="1" res="1.5088939107954502e-03" rms="2.5069630146026611e-01" purity="5.0489234924316406e-01" nType="0">
        <Node pos="l" depth="1" NCoef="0" IVar="1" Cut="1.2744858860969543e-01" cType="1" res="1.0620967077556998e-04" rms="2.5565153360366821e-01" purity="4.6417990326881409e-01" nType="0">
          <Node pos="l" depth="2" NCoef="0" IVar="9" Cut="1.1999199390411377e+00" cType="1" res="1.7290599644184113e-03" rms="2.5878989696502686e-01" purity="4.0216484665870667e-01" nType="0">
            <Node pos="l" depth="3" NCoef="0" IVar="-1" Cut="0.0000000000000000e+00" cType="1" res="-4.6925179776735604e-04" rms="2.5517195463180542e-01" purity="4.2188638448715210e-01" nType="-99"/>
            <Node pos="r" depth="3" NCoef="0" IVar="-1" Cut="0.0000000000000000e+00" cType="1" res="1.7842201516032219e-02" rms="2.7726042270660400e-01" purity="2.9562795162200928e-01" nType="-99"/>
          </Node>
          <Node pos="r" depth="2" NCoef="0" IVar="7" Cut="1.4448358118534088e-01" cType="1" res="-8.3703435957431793e-03" rms="2.3840951919555664e-01" purity="7.8810018301010132e-01" nType="0">
            <Node pos="l" depth="3" NCoef="0" IVar="-1" Cut="0.0000000000000000e+00" cType="1" res="-3.7470128387212753e-02" rms="2.4153926968574524e-01" purity="7.8509598970413208e-01" nType="-99"/>
            <Node pos="r" depth="3" NCoef="0" IVar="-1" Cut="0.0000000000000000e+00" cType="1" res="1.2331037782132626e-02" rms="2.3319639265537262e-01" purity="7.9213434457778931e-01" nType="-99"/>
          </Node>
        </Node>
        <Node pos="r" depth="1" NCoef="0" IVar="-1" Cut="0.0000000000000000e+00" cType="1" res="3.5663854330778122e-02" rms="1.9470392167568207e-01" purity="9.0614086389541626e-01" nType="-99"/>
      </Node>
    </BinaryTree>
    <BinaryTree type="DecisionTree" boostWeight="1.0000000000000000e+00" itree="250">
      <Node pos="s" depth="0" NCoef="0" IVar="8" Cut="1.7326631546020508e+00" cType="1" res="2.9020863585174084e-03" rms="2.4807417392730713e-01" purity="5.0208079814910889e-01" nType="0">
        <Node pos="l" depth="1" NCoef="0" IVar="9" Cut="-1.4659709930419922e+00" cType="1" res="3.9394730702042580e-03" rms="2.4906694889068604e-01" purity="5.1952612400054932e-01" nType="0">
          <Node pos="l" depth="2" NCoef="0" IVar="5" Cut="1.3557304382324219e+02" cType="1" res="1.8191227689385414e-02" rms="2.7738177776336670e-01" purity="3.5001784563064575e-01" nType="0">
            <Node pos="l" depth="3" NCoef="0" IVar="-1" Cut="0.0000000000000000e+00" cType="1" res="5.5947881191968918e-03" rms="2.4777463078498840e-01" purity="1.4589397609233856e-01" nType="-99"/>
            <Node pos="r" depth="3" NCoef="0" IVar="-1" Cut="0.0000000000000000e+00" cType="1" res="3.7654671818017960e-02" rms="3.0646592378616333e-01" purity="5.7994163036346436e-01" nType="-99"/>
          </Node>
          <Node pos="r" depth="2" NCoef="0" IVar="9" Cut="1.3776286840438843e+00" cType="1" res="2.3701998870819807e-03" rms="2.4569936096668243e-01" purity="5.3819084167480469e-01" nType="0">
            <Node pos="l" depth="3" NCoef="0" IVar="-1" Cut="0.0000000000000000e+00" cType="1" res="9.4756792532280087e-04" rms="2.4205860495567322e-01" purity="5.6426066160202026e-01" nType="-99"/>
            <Node pos="r" depth="3" NCoef="0" IVar="-1" Cut="0.0000000000000000e+00" cType="1" res="2.1944327279925346e-02" rms="2.6986584067344666e-01" purity="3.5254916548728943e-01" nType="-99"/>
          </Node>
        </Node>
        <Node pos="r" depth="1" NCoef="0" IVar="-1" Cut="0.0000000000000000e+00" cType="1" res="-3.2678447663784027e-02" rms="2.2554385662078857e-01" purity="1.4190502464771271e-01" nType="-99"/>
      </Node>
    </BinaryTree>
    <BinaryTree type="DecisionTree" boostWeight="1.0000000000000000e+00" itree="251">
      <Node pos="s" depth="0" NCoef="0" IVar="5" Cut="1.5630731201171875e+02" cType="1" res="-1.1215809499844909e-03" rms="2.4711006879806519e-01" purity="5.0415724515914917e-01" nType="0">
        <Node pos="l" depth="1" NCoef="0" IVar="1" Cut="8.9981459081172943e-02" cType="1" res="-6.9015105254948139e-03" rms="2.5383183360099792e-01" purity="1.9791449606418610e-01" nType="0">
          <Node pos="l" depth="2" NCoef="0" IVar="0" Cut="2.5139990234375000e+03" cType="1" res="-2.3892165627330542e-03" rms="2.4200847744941711e-01" purity="1.3964860141277313e-01" nType="0">
            <Node pos="l" depth="3" NCoef="0" IVar="-1" Cut="0.0000000000000000e+00" cType="1" res="6.1311549507081509e-04" rms="2.3186172544956207e-01" purity="1.0043664276599884e-01" nType="-99"/>
            <Node pos="r" depth="3" NCoef="0" IVar="-1" Cut="0.0000000000000000e+00" cType="1" res="-3.4087833017110825e-02" rms="3.5192489624023438e-01" purity="6.8439012765884399e-01" nType="-99"/>
          </Node>
          <Node pos="r" depth="2" NCoef="0" IVar="6" Cut="-2.0838575065135956e-01" cType="1" res="-2.4056136608123779e-02" rms="2.9384803771972656e-01" purity="4.1942697763442993e-01" nType="0">
            <Node pos="l" depth="3" NCoef="0" IVar="-1" Cut="0.0000000000000000e+00" cType="1" res="1.7075631767511368e-03" rms="3.1812426447868347e-01" purity="4.2407879233360291e-01" nType="-99"/>
            <Node pos="r" depth="3" NCoef="0" IVar="-1" Cut="0.0000000000000000e+00" cType="1" res="-3.7756852805614471e-02" rms="2.7932474017143250e-01" purity="4.1698721051216125e-01" nType="-99"/>
          </Node>
        </Node>
        <Node pos="r" depth="1" NCoef="0" IVar="8" Cut="-9.3197154998779297e-01" cType="1" res="4.2390599846839905e-03" rms="2.4058410525321960e-01" purity="7.8818452358245850e-01" nType="0">
          <Node pos="l" depth="2" NCoef="0" IVar="3" Cut="3.3525729370117188e+02" cType="1" res="2.0964168012142181e-02" rms="2.7853879332542419e-01" purity="6.6923511028289795e-01" nType="0">
            <Node pos="l" depth="3" NCoef="0" IVar="-1" Cut="0.0000000000000000e+00" cType="1" res="4.4510670006275177e-02" rms="2.9928329586982727e-01" purity="4.8162186145782471e-01" nType="-99"/>
            <Node pos="r" depth="3" NCoef="0" IVar="-1" Cut="0.0000000000000000e+00" cType="1" res="4.1888891719281673e-03" rms="2.5521335005760193e-01" purity="8.5375380516052246e-01" nType="-99"/>
          </Node>
          <Node pos="r" depth="2" NCoef="0" IVar="6" Cut="-5.3148221969604492e-01" cType="1" res="1.3929283013567328e-03" rms="2.3339259624481201e-01" purity="8.0842632055282593e-01" nType="0">
            <Node pos="l" depth="3" NCoef="0" IVar="-1" Cut="0.0000000000000000e+00" cType="1" res="-1.7907293513417244e-02" rms="2.6370927691459656e-01" purity="6.7679560184478760e-01" nType="-99"/>
            <Node pos="r" depth="3" NCoef="0" IVar="-1" Cut="0.0000000000000000e+00" cType="1" res="1.0062844492495060e-02" rms="2.2404766082763672e-01" purity="8.4508657455444336e-01" nType="-99"/>
          </Node>
        </Node>
      </Node>
    </BinaryTree>
    <BinaryTree type="DecisionTree" boostWeight="1.0000000000000000e+00" itree="252">
      <Node pos="s" depth="0" NCoef="0" IVar="3" Cut="2.7448220825195312e+02" cType="1" res="-1.6693871293682605e-04" rms="2.4688786268234253e-01" purity="4.9618640542030334e-01" nType="0">
        <Node pos="l" depth="1" NCoef="0" IVar="5" Cut="1.6252540588378906e+02" cType="1" res="-6.2269861809909344e-03" rms="2.4689574539661407e-01" purity="1.7802090942859650e-01" nType="0">
          <Node pos="l" depth="2" NCoef="0" IVar="1" Cut="1.1833491176366806e-01" cType="1" res="1.1574028758332133e-03" rms="2.3018415272235870e-01" purity="1.0807351768016815e-01" nType="0">
            <Node pos="l" depth="3" NCoef="0" IVar="-1" Cut="0.0000000000000000e+00" cType="1" res="-4.4744499027729034e-03" rms="2.1449944376945496e-01" purity="8.4926187992095947e-02" nType="-99"/>
            <Node pos="r" depth="3" NCoef="0" IVar="-1" Cut="0.0000000000000000e+00" cType="1" res="3.0135517939925194e-02" rms="3.4452497959136963e-01" purity="3.2968339323997498e-01" nType="-99"/>
          </Node>
          <Node pos="r" depth="2" NCoef="0" IVar="2" Cut="3.4521011352539062e+02" cType="1" res="-3.1461443752050400e-02" rms="2.9560023546218872e-01" purity="4.1705006361007690e-01" nType="0">
            <Node pos="l" depth="3" NCoef="0" IVar="-1" Cut="0.0000000000000000e+00" cType="1" res="-6.0618460178375244e-02" rms="3.0062881112098694e-01" purity="2.7322146296501160e-01" nType="-99"/>
            <Node pos="r" depth="3" NCoef="0" IVar="-1" Cut="0.0000000000000000e+00" cType="1" res="-1.0785521939396858e-02" rms="2.8963986039161682e-01" purity="5.3094905614852905e-01" nType="-99"/>
          </Node>
        </Node>
        <Node pos="r" depth="1" NCoef="0" IVar="4" Cut="1.4921838378906250e+02" cType="1" res="3.2329328823834658e-03" rms="2.4681830406188965e-01" purity="6.7468702793121338e-01" nType="0">
          <Node pos="l" depth="2" NCoef="0" IVar="0" Cut="1.7022419433593750e+03" cType="1" res="1.8751475960016251e-02" rms="2.4952062964439392e-01" purity="1.3312330842018127e-01" nType="0">
            <Node pos="l" depth="3" NCoef="0" IVar="-1" Cut="0.0000000000000000e+00" cType="1" res="-2.9756368603557348e-03" rms="1.2544186413288116e-01" purity="1.7366880550980568e-02" nType="-99"/>
            <Node pos="r" depth="3" NCoef="0" IVar="-1" Cut="0.0000000000000000e+00" cType="1" res="4.1847903281450272e-02" rms="3.3888301253318787e-01" purity="2.6622682809829712e-01" nType="-99"/>
          </Node>
          <Node pos="r" depth="2" NCoef="0" IVar="7" Cut="-9.2327904701232910e-01" cType="1" res="1.6270306659862399e-03" rms="2.4648118019104004e-01" purity="7.3072946071624756e-01" nType="0">
            <Node pos="l" depth="3" NCoef="0" IVar="-1" Cut="0.0000000000000000e+00" cType="1" res="-1.8345221877098083e-02" rms="2.6858112215995789e-01" purity="4.9803552031517029e-01" nType="-99"/>
            <Node pos="r" depth="3" NCoef="0" IVar="-1" Cut="0.0000000000000000e+00" cType="1" res="5.9928358532488346e-03" rms="2.4312795698642731e-01" purity="7.6351183652877808e-01" nType="-99"/>
          </Node>
        </Node>
      </Node>
    </BinaryTree>
    <BinaryTree type="DecisionTree" boostWeight="1.0000000000000000e+00" itree="253">
      <Node pos="s" depth="0" NCoef="0" IVar="2" Cut="8.0880041503906250e+02" cType="1" res="-6.3760252669453621e-04" rms="2.4514560401439667e-01" purity="4.9921342730522156e-01" nType="0">
        <Node pos="l" depth="1" NCoef="0" IVar="2" Cut="4.9000946044921875e+02" cType="1" res="-1.9183476688340306e-03" rms="2.4463690817356110e-01" purity="4.7389286756515503e-01" nType="0">
          <Node pos="l" depth="2" NCoef="0" IVar="6" Cut="-9.1560818254947662e-02" cType="1" res="2.5185663253068924e-03" rms="2.6017296314239502e-01" purity="3.4680381417274475e-01" nType="0">
            <Node pos="l" depth="3" NCoef="0" IVar="-1" Cut="0.0000000000000000e+00" cType="1" res="-4.3419958092272282e-03" rms="2.5593855977058411e-01" purity="3.2984367012977600e-01" nType="-99"/>
            <Node pos="r" depth="3" NCoef="0" IVar="-1" Cut="0.0000000000000000e+00" cType="1" res="1.0278517380356789e-02" rms="2.6362687349319458e-01" purity="3.6121070384979248e-01" nType="-99"/>
          </Node>
          <Node pos="r" depth="2" NCoef="0" IVar="4" Cut="2.1182907104492188e+02" cType="1" res="-6.4829308539628983e-03" rms="2.2745923697948456e-01" purity="6.0463881492614746e-01" nType="0">
            <Node pos="l" depth="3" NCoef="0" IVar="-1" Cut="0.0000000000000000e+00" cType="1" res="-3.0053414404392242e-02" rms="2.3329572379589081e-01" purity="1.9609147310256958e-01" nType="-99"/>
            <Node pos="r" depth="3" NCoef="0" IVar="-1" Cut="0.0000000000000000e+00" cType="1" res="9.1051281196996570e-04" rms="2.2361518442630768e-01" purity="8.4833341836929321e-01" nType="-99"/>
          </Node>
        </Node>
        <Node pos="r" depth="1" NCoef="0" IVar="6" Cut="-1.7616271972656250e-01" cType="1" res="1.3498133048415184e-02" rms="2.5025647878646851e-01" purity="7.7867954969406128e-01" nType="0">
          <Node pos="l" depth="2" NCoef="0" IVar="-1" Cut="0.0000000000000000e+00" cType="1" res="-9.5279290690086782e-05" rms="2.6109692454338074e-01" purity="7.2096765041351318e-01" nType="-99"/>
          <Node pos="r" depth="2" NCoef="0" IVar="-1" Cut="0.0000000000000000e+00" cType="1" res="3.0068714171648026e-02" rms="2.4293351173400879e-01" purity="8.1436240673065186e-01" nType="-99"/>
        </Node>
      </Node>
    </BinaryTree>
    <BinaryTree type="DecisionTree" boostWeight="1.0000000000000000e+00" itree="254">
      <Node pos="s" depth="0" NCoef="0" IVar="6" Cut="-1.1415117979049683e+00" cType="1" res="-5.1312823779881001e-04" rms="2.4680101871490479e-01" purity="4.9841693043708801e-01" nType="0">
        <Node pos="l" depth="1" NCoef="0" IVar="0" Cut="1.7233507080078125e+03" cType="1" res="-1.4343632385134697e-02" rms="2.0404270291328430e-01" purity="1.4273941516876221e-01" nType="0">
          <Node pos="l" depth="2" NCoef="0" IVar="8" Cut="-1.1715000122785568e-01" cType="1" res="-5.7146209292113781e-04" rms="1.3072250783443451e-01" purity="2.1865820512175560e-02" nType="0">
            <Node pos="l" depth="3" NCoef="0" IVar="-1" Cut="0.0000000000000000e+00" cType="1" res="-3.1594607979059219e-02" rms="1.1640983819961548e-01" purity="1.9377009943127632e-02" nType="-99"/>
            <Node pos="r" depth="3" NCoef="0" IVar="-1" Cut="0.0000000000000000e+00" cType="1" res="3.9790716022253036e-02" rms="1.4383710920810699e-01" purity="2.4467438459396362e-02" nType="-99"/>
          </Node>
          <Node pos="r" depth="2" NCoef="0" IVar="-1" Cut="0.0000000000000000e+00" cType="1" res="-3.6157187074422836e-02" rms="2.8162306547164917e-01" purity="3.3204141259193420e-01" nType="-99"/>
        </Node>
        <Node pos="r" depth="1" NCoef="0" IVar="6" Cut="5.4662615060806274e-01" cType="1" res="1.0127103887498379e-03" rms="2.5102603435516357e-01" purity="5.3765672445297241e-01" nType="0">
          <Node pos="l" depth="2" NCoef="0" IVar="0" Cut="2.1314838867187500e+03" cType="1" res="4.1371821425855160e-03" rms="2.5773352384567261e-01" purity="6.1548340320587158e-01" nType="0">
            <Node pos="l" depth="3" NCoef="0" IVar="-1" Cut="0.0000000000000000e+00" cType="1" res="1.4223073609173298e-02" rms="3.0624926090240479e-01" purity="2.2840933501720428e-01" nType="-99"/>
            <Node pos="r" depth="3" NCoef="0" IVar="-1" Cut="0.0000000000000000e+00" cType="1" res="-5.7626897469162941e-03" rms="2.1209949254989624e-01" purity="9.1729772090911865e-01" nType="-99"/>
          </Node>
          <Node pos="r" depth="2" NCoef="0" IVar="7" Cut="3.9032360911369324e-01" cType="1" res="-6.7347418516874313e-03" rms="2.3338416218757629e-01" purity="3.4467747807502747e-01" nType="0">
            <Node pos="l" depth="3" NCoef="0" IVar="-1" Cut="0.0000000000000000e+00" cType="1" res="-2.0459534600377083e-02" rms="2.3079985380172729e-01" purity="3.5546284914016724e-01" nType="-99"/>
            <Node pos="r" depth="3" NCoef="0" IVar="-1" Cut="0.0000000000000000e+00" cType="1" res="3.7209787406027317e-03" rms="2.3769456148147583e-01" purity="3.2533034682273865e-01" nType="-99"/>
          </Node>
        </Node>
      </Node>
    </BinaryTree>
    <BinaryTree type="DecisionTree" boostWeight="1.0000000000000000e+00" itree="255">
      <Node pos="s" depth="0" NCoef="0" IVar="7" Cut="-6.6558647155761719e-01" cType="1" res="1.0016473243013024e-03" rms="2.4918477237224579e-01" purity="4.9933061003684998e-01" nType="0">
        <Node pos="l" depth="1" NCoef="0" IVar="6" Cut="4.9749150872230530e-01" cType="1" res="-5.6275650858879089e-03" rms="2.5431406497955322e-01" purity="3.5578170418739319e-01" nType="0">
          <Node pos="l" depth="2" NCoef="0" IVar="1" Cut="5.8360282331705093e-02" cType="1" res="-1.3666991144418716e-02" rms="2.6223424077033997e-01" purity="4.1160342097282410e-01" nType="0">
            <Node pos="l" depth="3" NCoef="0" IVar="-1" Cut="0.0000000000000000e+00" cType="1" res="-3.4849166404455900e-03" rms="2.4499607086181641e-01" purity="1.9096860289573669e-01" nType="-99"/>
            <Node pos="r" depth="3" NCoef="0" IVar="-1" Cut="0.0000000000000000e+00" cType="1" res="-3.2166149467229843e-02" rms="2.7926662564277649e-01" purity="6.5188568830490112e-01" nType="-99"/>
          </Node>
          <Node pos="r" depth="2" NCoef="0" IVar="7" Cut="-1.3750672340393066e+00" cType="1" res="1.3343646191060543e-02" rms="2.3347170650959015e-01" purity="2.2405518591403961e-01" nType="0">
            <Node pos="l" depth="3" NCoef="0" IVar="-1" Cut="0.0000000000000000e+00" cType="1" res="-1.7615823075175285e-02" rms="1.4902973175048828e-01" purity="6.7893631756305695e-02" nType="-99"/>
            <Node pos="r" depth="3" NCoef="0" IVar="-1" Cut="0.0000000000000000e+00" cType="1" res="4.0749959647655487e-02" rms="2.7810987830162048e-01" purity="3.3652940392494202e-01" nType="-99"/>
          </Node>
        </Node>
        <Node pos="r" depth="1" NCoef="0" IVar="9" Cut="-1.7324843406677246e+00" cType="1" res="3.1632417812943459e-03" rms="2.4745088815689087e-01" purity="5.4613775014877319e-01" nType="0">
          <Node pos="l" depth="2" NCoef="0" IVar="-1" Cut="0.0000000000000000e+00" cType="1" res="-2.1715018898248672e-02" rms="2.6349350810050964e-01" purity="2.7996742725372314e-01" nType="-99"/>
          <Node pos="r" depth="2" NCoef="0" IVar="6" Cut="-7.8691083192825317e-01" cType="1" res="4.1663399897515774e-03" rms="2.4651254713535309e-01" purity="5.6055265665054321e-01" nType="0">
            <Node pos="l" depth="3" NCoef="0" IVar="-1" Cut="0.0000000000000000e+00" cType="1" res="1.9461715593934059e-02" rms="2.4420383572578430e-01" purity="3.1860032677650452e-01" nType="-99"/>
            <Node pos="r" depth="3" NCoef="0" IVar="-1" Cut="0.0000000000000000e+00" cType="1" res="3.9295777678489685e-03" rms="2.4693445861339569e-01" purity="6.0882639884948730e-01" nType="-99"/>
          </Node>
        </Node>
      </Node>
    </BinaryTree>
    <BinaryTree type="DecisionTree" boostWeight="1.0000000000000000e+00" itree="256">
      <Node pos="s" depth="0" NCoef="0" IVar="9" Cut="1.4664783477783203e+00" cType="1" res="-6.3059839885681868e-04" rms="2.4658672511577606e-01" purity="5.0164097547531128e-01" nType="0">
        <Node pos="l" depth="1" NCoef="0" IVar="6" Cut="-5.5552184581756592e-01" cType="1" res="6.4802891574800014e-04" rms="2.4407835304737091e-01" purity="5.2337920665740967e-01" nType="0">
          <Node pos="l" depth="2" NCoef="0" IVar="1" Cut="3.7380129098892212e-02" cType="1" res="-5.2582835778594017e-03" rms="2.4867896735668182e-01" purity="3.5948038101196289e-01" nType="0">
            <Node pos="l" depth="3" NCoef="0" IVar="-1" Cut="0.0000000000000000e+00" cType="1" res="1.2710339389741421e-02" rms="2.1321724355220795e-01" purity="1.2747506797313690e-01" nType="-99"/>
            <Node pos="r" depth="3" NCoef="0" IVar="-1" Cut="0.0000000000000000e+00" cType="1" res="-1.7681529745459557e-02" rms="2.7294194698333740e-01" purity="5.4098939895629883e-01" nType="-99"/>
          </Node>
          <Node pos="r" depth="2" NCoef="0" IVar="5" Cut="1.4499893188476562e+02" cType="1" res="2.7011940255761147e-03" rms="2.4242493510246277e-01" purity="5.8035403490066528e-01" nType="0">
            <Node pos="l" depth="3" NCoef="0" IVar="-1" Cut="0.0000000000000000e+00" cType="1" res="-5.2196006290614605e-03" rms="2.5014078617095947e-01" purity="1.9191026687622070e-01" nType="-99"/>
            <Node pos="r" depth="3" NCoef="0" IVar="-1" Cut="0.0000000000000000e+00" cType="1" res="1.0831672698259354e-02" rms="2.3765200376510620e-01" purity="8.1102389097213745e-01" nType="-99"/>
          </Node>
        </Node>
        <Node pos="r" depth="1" NCoef="0" IVar="8" Cut="1.3161249458789825e-01" cType="1" res="-1.3110441155731678e-02" rms="2.6952928304672241e-01" purity="2.8946855664253235e-01" nType="0">
          <Node pos="l" depth="2" NCoef="0" IVar="-1" Cut="0.0000000000000000e+00" cType="1" res="-3.6488771438598633e-02" rms="2.7451556921005249e-01" purity="2.7256149053573608e-01" nType="-99"/>
          <Node pos="r" depth="2" NCoef="0" IVar="-1" Cut="0.0000000000000000e+00" cType="1" res="-4.9740199756342918e-05" rms="2.6394441723823547e-01" purity="3.0587378144264221e-01" nType="-99"/>
        </Node>
      </Node>
    </BinaryTree>
    <BinaryTree type="DecisionTree" boostWeight="1.0000000000000000e+00" itree="257">
      <Node pos="s" depth="0" NCoef="0" IVar="9" Cut="1.1999199390411377e+00" cType="1" res="-5.1636504940688610e-04" rms="2.4564668536186218e-01" purity="5.0072467327117920e-01" nType="0">
        <Node pos="l" depth="1" NCoef="0" IVar="8" Cut="-1.7334305047988892e+00" cType="1" res="2.3863238748162985e-03" rms="2.4503917992115021e-01" purity="5.3287702798843384e-01" nType="0">
          <Node pos="l" depth="2" NCoef="0" IVar="-1" Cut="0.0000000000000000e+00" cType="1" res="-3.1056718900799751e-02" rms="2.1461448073387146e-01" purity="1.3564828038215637e-01" nType="-99"/>
          <Node pos="r" depth="2" NCoef="0" IVar="7" Cut="1.7329702377319336e+00" cType="1" res="3.3459004480391741e-03" rms="2.4647432565689087e-01" purity="5.5344462394714355e-01" nType="0">
            <Node pos="l" depth="3" NCoef="0" IVar="-1" Cut="0.0000000000000000e+00" cType="1" res="6.3542379066348076e-03" rms="2.4900867044925690e-01" purity="5.6915521621704102e-01" nType="-99"/>
            <Node pos="r" depth="3" NCoef="0" IVar="-1" Cut="0.0000000000000000e+00" cType="1" res="-4.8714648932218552e-02" rms="1.5043149888515472e-01" purity="8.1976018846035004e-02" nType="-99"/>
          </Node>
        </Node>
        <Node pos="r" depth="1" NCoef="0" IVar="1" Cut="9.0772971510887146e-02" cType="1" res="-1.7113469541072845e-02" rms="2.4844142794609070e-01" purity="3.1688278913497925e-01" nType="0">
          <Node pos="l" depth="2" NCoef="0" IVar="1" Cut="1.7369497567415237e-02" cType="1" res="-2.3977566510438919e-02" rms="2.3308648169040680e-01" purity="1.7706945538520813e-01" nType="0">
            <Node pos="l" depth="3" NCoef="0" IVar="-1" Cut="0.0000000000000000e+00" cType="1" res="1.3707734644412994e-02" rms="1.6795578598976135e-01" purity="6.6770188510417938e-02" nType="-99"/>
            <Node pos="r" depth="3" NCoef="0" IVar="-1" Cut="0.0000000000000000e+00" cType="1" res="-4.5406345278024673e-02" rms="2.5144472718238831e-01" purity="2.1623134613037109e-01" nType="-99"/>
          </Node>
          <Node pos="r" depth="2" NCoef="0" IVar="-1" Cut="0.0000000000000000e+00" cType="1" res="2.6236819103360176e-03" rms="2.8638741374015808e-01" purity="7.1019977331161499e-01" nType="-99"/>
        </Node>
      </Node>
    </BinaryTree>
    <BinaryTree type="DecisionTree" boostWeight="1.0000000000000000e+00" itree="258">
      <Node pos="s" depth="0" NCoef="0" IVar="8" Cut="-1.7326179742813110e+00" cType="1" res="7.6127372449263930e-04" rms="2.4936515092849731e-01" purity="5.0670868158340454e-01" nType="0">
        <Node pos="l" depth="1" NCoef="0" IVar="-1" Cut="0.0000000000000000e+00" cType="1" res="-3.2983746379613876e-02" rms="2.4582806229591370e-01" purity="1.3245598971843719e-01" nType="-99"/>
        <Node pos="r" depth="1" NCoef="0" IVar="4" Cut="1.8284143066406250e+02" cType="1" res="1.6730846837162971e-03" rms="2.4949711561203003e-01" purity="5.2465635538101196e-01" nType="0">
          <Node pos="l" depth="2" NCoef="0" IVar="8" Cut="-6.5408182144165039e-01" cType="1" res="-4.5555219985544682e-03" rms="2.3062093555927277e-01" purity="1.2910242378711700e-01" nType="0">
            <Node pos="l" depth="3" NCoef="0" IVar="-1" Cut="0.0000000000000000e+00" cType="1" res="1.6848795115947723e-02" rms="2.3372416198253632e-01" purity="1.4641381800174713e-01" nType="-99"/>
            <Node pos="r" depth="3" NCoef="0" IVar="-1" Cut="0.0000000000000000e+00" cType="1" res="-1.7004964873194695e-02" rms="2.2939220070838928e-01" purity="1.2335301190614700e-01" nType="-99"/>
          </Node>
          <Node pos="r" depth="2" NCoef="0" IVar="2" Cut="5.3730352783203125e+02" cType="1" res="4.5046554878354073e-03" rms="2.5757166743278503e-01" purity="7.0447808504104614e-01" nType="0">
            <Node pos="l" depth="3" NCoef="0" IVar="-1" Cut="0.0000000000000000e+00" cType="1" res="1.4784262515604496e-02" rms="2.8049755096435547e-01" purity="5.8892846107482910e-01" nType="-99"/>
            <Node pos="r" depth="3" NCoef="0" IVar="-1" Cut="0.0000000000000000e+00" cType="1" res="-5.7037957012653351e-03" rms="2.2952932119369507e-01" purity="8.3137518167495728e-01" nType="-99"/>
          </Node>
        </Node>
      </Node>
    </BinaryTree>
    <BinaryTree type="DecisionTree" boostWeight="1.0000000000000000e+00" itree="259">
      <Node pos="s" depth="0" NCoef="0" IVar="1" Cut="1.0568731278181076e-01" cType="1" res="2.3707521613687277e-03" rms="2.4871608614921570e-01" purity="5.0155299901962280e-01" nType="0">
        <Node pos="l" depth="1" NCoef="0" IVar="9" Cut="1.7330390214920044e+00" cType="1" res="5.7105147279798985e-03" rms="2.5676497817039490e-01" purity="3.6281156539916992e-01" nType="0">
          <Node pos="l" depth="2" NCoef="0" IVar="2" Cut="6.8722314453125000e+02" cType="1" res="4.1736075654625893e-03" rms="2.5596636533737183e-01" purity="3.7741786241531372e-01" nType="0">
            <Node pos="l" depth="3" NCoef="0" IVar="-1" Cut="0.0000000000000000e+00" cType="1" res="1.0264800861477852e-02" rms="2.5192713737487793e-01" purity="3.1445825099945068e-01" nType="-99"/>
            <Node pos="r" depth="3" NCoef="0" IVar="-1" Cut="0.0000000000000000e+00" cType="1" res="-7.2089973837137222e-03" rms="2.7193543314933777e-01" purity="6.3981401920318604e-01" nType="-99"/>
          </Node>
          <Node pos="r" depth="2" NCoef="0" IVar="1" Cut="3.0206734314560890e-02" cType="1" res="2.3763876408338547e-02" rms="2.6530054211616516e-01" purity="1.9123801589012146e-01" nType="0">
            <Node pos="l" depth="3" NCoef="0" IVar="-1" Cut="0.0000000000000000e+00" cType="1" res="-6.8643749691545963e-03" rms="1.7852461338043213e-01" purity="5.2445787936449051e-02" nType="-99"/>
            <Node pos="r" depth="3" NCoef="0" IVar="-1" Cut="0.0000000000000000e+00" cType="1" res="5.7967245578765869e-02" rms="3.2603681087493896e-01" purity="3.2517832517623901e-01" nType="-99"/>
          </Node>
        </Node>
        <Node pos="r" depth="1" NCoef="0" IVar="0" Cut="2.3651066894531250e+03" cType="1" res="-5.0620627589523792e-03" rms="2.2961886227130890e-01" purity="8.1032937765121460e-01" nType="0">
          <Node pos="l" depth="2" NCoef="0" IVar="0" Cut="2.0434422607421875e+03" cType="1" res="-1.6393497586250305e-02" rms="3.2846856117248535e-01" purity="5.6519210338592529e-01" nType="0">
            <Node pos="l" depth="3" NCoef="0" IVar="-1" Cut="0.0000000000000000e+00" cType="1" res="-2.0659066736698151e-02" rms="3.6571264266967773e-01" purity="3.3833512663841248e-01" nType="-99"/>
            <Node pos="r" depth="3" NCoef="0" IVar="-1" Cut="0.0000000000000000e+00" cType="1" res="4.8283967189490795e-03" rms="2.6037722826004028e-01" purity="9.1132998466491699e-01" nType="-99"/>
          </Node>
          <Node pos="r" depth="2" NCoef="0" IVar="4" Cut="3.3746609497070312e+02" cType="1" res="3.0504083260893822e-03" rms="1.1433171480894089e-01" purity="9.8582953214645386e-01" nType="0">
            <Node pos="l" depth="3" NCoef="0" IVar="-1" Cut="0.0000000000000000e+00" cType="1" res="2.7558306232094765e-02" rms="1.1698614805936813e-01" purity="9.8484289646148682e-01" nType="-99"/>
            <Node pos="r" depth="3" NCoef="0" IVar="-1" Cut="0.0000000000000000e+00" cType="1" res="3.6545265465974808e-03" rms="1.1075795441865921e-01" purity="9.8710298538208008e-01" nType="-99"/>
          </Node>
        </Node>
      </Node>
    </BinaryTree>
    <BinaryTree type="DecisionTree" boostWeight="1.0000000000000000e+00" itree="260">
      <Node pos="s" depth="0" NCoef="0" IVar="7" Cut="-9.2913311719894409e-01" cType="1" res="-8.1222422886639833e-04" rms="2.4593572318553925e-01" purity="5.0886768102645874e-01" nType="0">
        <Node pos="l" depth="1" NCoef="0" IVar="9" Cut="4.0431150794029236e-01" cType="1" res="1.2195169925689697e-02" rms="2.4646994471549988e-01" purity="2.9854732751846313e-01" nType="0">
          <Node pos="l" depth="2" NCoef="0" IVar="0" Cut="1.6228071289062500e+03" cType="1" res="2.2215291857719421e-02" rms="2.5039625167846680e-01" purity="3.2497152686119080e-01" nType="0">
            <Node pos="l" depth="3" NCoef="0" IVar="-1" Cut="0.0000000000000000e+00" cType="1" res="-3.3346880227327347e-02" rms="1.1065797507762909e-01" purity="1.3779601082205772e-02" nType="-99"/>
            <Node pos="r" depth="3" NCoef="0" IVar="-1" Cut="0.0000000000000000e+00" cType="1" res="4.2661704123020172e-02" rms="2.9992443323135376e-01" purity="4.9734610319137573e-01" nType="-99"/>
          </Node>
          <Node pos="r" depth="2" NCoef="0" IVar="-1" Cut="0.0000000000000000e+00" cType="1" res="-1.5249295160174370e-02" rms="2.3635645210742950e-01" purity="2.4164232611656189e-01" nType="-99"/>
        </Node>
        <Node pos="r" depth="1" NCoef="0" IVar="4" Cut="2.4265408325195312e+02" cType="1" res="-3.3079585991799831e-03" rms="2.4575439095497131e-01" purity="5.4922193288803101e-01" nType="0">
          <Node pos="l" depth="2" NCoef="0" IVar="4" Cut="1.7095434570312500e+02" cType="1" res="-8.5626812651753426e-03" rms="2.5960427522659302e-01" purity="2.7768141031265259e-01" nType="0">
            <Node pos="l" depth="3" NCoef="0" IVar="-1" Cut="0.0000000000000000e+00" cType="1" res="2.7999188750982285e-03" rms="2.2927570343017578e-01" purity="1.1513999849557877e-01" nType="-99"/>
            <Node pos="r" depth="3" NCoef="0" IVar="-1" Cut="0.0000000000000000e+00" cType="1" res="-2.0239669829607010e-02" rms="2.8360044956207275e-01" purity="4.2242905497550964e-01" nType="-99"/>
          </Node>
          <Node pos="r" depth="2" NCoef="0" IVar="2" Cut="5.6062115478515625e+02" cType="1" res="2.8244785498827696e-03" rms="2.2837938368320465e-01" purity="8.6611884832382202e-01" nType="0">
            <Node pos="l" depth="3" NCoef="0" IVar="-1" Cut="0.0000000000000000e+00" cType="1" res="1.9143171608448029e-02" rms="2.4167464673519135e-01" purity="8.2008635997772217e-01" nType="-99"/>
            <Node pos="r" depth="3" NCoef="0" IVar="-1" Cut="0.0000000000000000e+00" cType="1" res="-1.2050276622176170e-02" rms="2.1536391973495483e-01" purity="9.0759712457656860e-01" nType="-99"/>
          </Node>
        </Node>
      </Node>
    </BinaryTree>
    <BinaryTree type="DecisionTree" boostWeight="1.0000000000000000e+00" itree="261">
      <Node pos="s" depth="0" NCoef="0" IVar="9" Cut="-1.4659042358398438e+00" cType="1" res="-1.0260896524414420e-03" rms="2.4599519371986389e-01" purity="4.9646726250648499e-01" nType="0">
        <Node pos="l" depth="1" NCoef="0" IVar="9" Cut="-1.6563438177108765e+00" cType="1" res="-1.3930667191743851e-02" rms="2.6724395155906677e-01" purity="2.9206359386444092e-01" nType="0">
          <Node pos="l" depth="2" NCoef="0" IVar="1" Cut="5.3038511425256729e-02" cType="1" res="-2.4759765714406967e-02" rms="2.6220345497131348e-01" purity="2.4193722009658813e-01" nType="0">
            <Node pos="l" depth="3" NCoef="0" IVar="-1" Cut="0.0000000000000000e+00" cType="1" res="-1.4870658516883850e-02" rms="1.9207414984703064e-01" purity="1.0457613319158554e-01" nType="-99"/>
            <Node pos="r" depth="3" NCoef="0" IVar="-1" Cut="0.0000000000000000e+00" cType="1" res="-4.6113062649965286e-02" rms="3.3388733863830566e-01" purity="4.3062320351600647e-01" nType="-99"/>
          </Node>
          <Node pos="r" depth="2" NCoef="0" IVar="-1" Cut="0.0000000000000000e+00" cType="1" res="1.8420172855257988e-02" rms="2.7806562185287476e-01" purity="4.2394968867301941e-01" nType="-99"/>
        </Node>
        <Node pos="r" depth="1" NCoef="0" IVar="3" Cut="2.7412768554687500e+02" cType="1" res="3.6782523966394365e-04" rms="2.4354815483093262e-01" purity="5.1854634284973145e-01" nType="0">
          <Node pos="l" depth="2" NCoef="0" IVar="5" Cut="1.2292928314208984e+02" cType="1" res="4.7955983318388462e-03" rms="2.4644021689891815e-01" purity="1.9372521340847015e-01" nType="0">
            <Node pos="l" depth="3" NCoef="0" IVar="-1" Cut="0.0000000000000000e+00" cType="1" res="-5.8470126241445541e-03" rms="1.8435360491275787e-01" purity="5.1703993231058121e-02" nType="-99"/>
            <Node pos="r" depth="3" NCoef="0" IVar="-1" Cut="0.0000000000000000e+00" cType="1" res="1.3478689827024937e-02" rms="2.9139629006385803e-01" purity="3.2253840565681458e-01" nType="-99"/>
          </Node>
          <Node pos="r" depth="2" NCoef="0" IVar="4" Cut="2.6796429443359375e+02" cType="1" res="-1.8475997494533658e-03" rms="2.4205775558948517e-01" purity="6.8106979131698608e-01" nType="0">
            <Node pos="l" depth="3" NCoef="0" IVar="-1" Cut="0.0000000000000000e+00" cType="1" res="-9.2613222077488899e-03" rms="2.7242505550384521e-01" purity="4.4995993375778198e-01" nType="-99"/>
            <Node pos="r" depth="3" NCoef="0" IVar="-1" Cut="0.0000000000000000e+00" cType="1" res="5.6367930956184864e-03" rms="2.1254725754261017e-01" purity="8.7884896993637085e-01" nType="-99"/>
          </Node>
        </Node>
      </Node>
    </BinaryTree>
    <BinaryTree type="DecisionTree" boostWeight="1.0000000000000000e+00" itree="262">
      <Node pos="s" depth="0" NCoef="0" IVar="8" Cut="-9.3292564153671265e-01" cType="1" res="-1.8607354722917080e-03" rms="2.4862977862358093e-01" purity="4.9312028288841248e-01" nType="0">
        <Node pos="l" depth="1" NCoef="0" IVar="9" Cut="-1.3441596925258636e-01" cType="1" res="7.6711405999958515e-03" rms="2.6505157351493835e-01" purity="3.7217450141906738e-01" nType="0">
          <Node pos="l" depth="2" NCoef="0" IVar="9" Cut="-6.4150536060333252e-01" cType="1" res="-1.7522562993690372e-03" rms="2.5525414943695068e-01" purity="3.4514248371124268e-01" nType="0">
            <Node pos="l" depth="3" NCoef="0" IVar="-1" Cut="0.0000000000000000e+00" cType="1" res="1.6286067664623260e-02" rms="2.4222940206527710e-01" purity="3.1792619824409485e-01" nType="-99"/>
            <Node pos="r" depth="3" NCoef="0" IVar="-1" Cut="0.0000000000000000e+00" cType="1" res="-3.5879284143447876e-02" rms="2.7901607751846313e-01" purity="4.0289378166198730e-01" nType="-99"/>
          </Node>
          <Node pos="r" depth="2" NCoef="0" IVar="9" Cut="4.2347645759582520e-01" cType="1" res="1.7881007865071297e-02" rms="2.7490904927253723e-01" purity="4.0146255493164062e-01" nType="0">
            <Node pos="l" depth="3" NCoef="0" IVar="-1" Cut="0.0000000000000000e+00" cType="1" res="5.4399881511926651e-02" rms="2.6740303635597229e-01" purity="4.8577281832695007e-01" nType="-99"/>
            <Node pos="r" depth="3" NCoef="0" IVar="-1" Cut="0.0000000000000000e+00" cType="1" res="1.4070043340325356e-02" rms="2.7861446142196655e-01" purity="3.5455855727195740e-01" nType="-99"/>
          </Node>
        </Node>
        <Node pos="r" depth="1" NCoef="0" IVar="6" Cut="-1.1446983814239502e+00" cType="1" res="-4.0462086908519268e-03" rms="2.4465700984001160e-01" purity="5.2085077762603760e-01" nType="0">
          <Node pos="l" depth="2" NCoef="0" IVar="0" Cut="1.5784211425781250e+03" cType="1" res="-1.9341392442584038e-02" rms="1.9384428858757019e-01" purity="1.5491206943988800e-01" nType="0">
            <Node pos="l" depth="3" NCoef="0" IVar="-1" Cut="0.0000000000000000e+00" cType="1" res="-3.0864518135786057e-02" rms="8.6224786937236786e-02" purity="8.0098025500774384e-03" nType="-99"/>
            <Node pos="r" depth="3" NCoef="0" IVar="-1" Cut="0.0000000000000000e+00" cType="1" res="-3.9414789527654648e-02" rms="2.3648145794868469e-01" purity="2.4557770788669586e-01" nType="-99"/>
          </Node>
          <Node pos="r" depth="2" NCoef="0" IVar="9" Cut="-1.7324783802032471e+00" cType="1" res="-2.5441695470362902e-03" rms="2.4903801083564758e-01" purity="5.5678725242614746e-01" nType="0">
            <Node pos="l" depth="3" NCoef="0" IVar="-1" Cut="0.0000000000000000e+00" cType="1" res="2.6652280241250992e-02" rms="2.9206827282905579e-01" purity="3.4317323565483093e-01" nType="-99"/>
            <Node pos="r" depth="3" NCoef="0" IVar="-1" Cut="0.0000000000000000e+00" cType="1" res="-6.1962637118995190e-03" rms="2.4655388295650482e-01" purity="5.6779038906097412e-01" nType="-99"/>
          </Node>
        </Node>
      </Node>
    </BinaryTree>
    <BinaryTree type="DecisionTree" boostWeight="1.0000000000000000e+00" itree="263">
      <Node pos="s" depth="0" NCoef="0" IVar="7" Cut="1.2000366449356079e+00" cType="1" res="8.9586433023214340e-04" rms="2.5033679604530334e-01" purity="5.0455933809280396e-01" nType="0">
        <Node pos="l" depth="1" NCoef="0" IVar="7" Cut="1.0095072984695435e+00" cType="1" res="-3.8234371459111571e-04" rms="2.5107961893081665e-01" purity="5.3716439008712769e-01" nType="0">
          <Node pos="l" depth="2" NCoef="0" IVar="7" Cut="4.6561554074287415e-01" cType="1" res="7.2335533332079649e-04" rms="2.4993737041950226e-01" purity="5.4214984178543091e-01" nType="0">
            <Node pos="l" depth="3" NCoef="0" IVar="-1" Cut="0.0000000000000000e+00" cType="1" res="-2.0261139143258333e-03" rms="2.4837023019790649e-01" purity="5.3805285692214966e-01" nType="-99"/>
            <Node pos="r" depth="3" NCoef="0" IVar="-1" Cut="0.0000000000000000e+00" cType="1" res="1.3436504639685154e-02" rms="2.5634452700614929e-01" purity="5.5962878465652466e-01" nType="-99"/>
          </Node>
          <Node pos="r" depth="2" NCoef="0" IVar="-1" Cut="0.0000000000000000e+00" cType="1" res="-3.2923236489295959e-02" rms="2.7287694811820984e-01" purity="4.3277981877326965e-01" nType="-99"/>
        </Node>
        <Node pos="r" depth="1" NCoef="0" IVar="9" Cut="9.3668526411056519e-01" cType="1" res="1.1774102225899696e-02" rms="2.4365229904651642e-01" purity="2.2707305848598480e-01" nType="0">
          <Node pos="l" depth="2" NCoef="0" IVar="9" Cut="4.8960503190755844e-02" cType="1" res="5.0181658007204533e-03" rms="2.3804149031639099e-01" purity="2.3743310570716858e-01" nType="0">
            <Node pos="l" depth="3" NCoef="0" IVar="-1" Cut="0.0000000000000000e+00" cType="1" res="2.5017114356160164e-02" rms="2.3613531887531281e-01" purity="2.2598530352115631e-01" nType="-99"/>
            <Node pos="r" depth="3" NCoef="0" IVar="-1" Cut="0.0000000000000000e+00" cType="1" res="-1.4311441220343113e-02" rms="2.4033401906490326e-01" purity="2.5518870353698730e-01" nType="-99"/>
          </Node>
          <Node pos="r" depth="2" NCoef="0" IVar="-1" Cut="0.0000000000000000e+00" cType="1" res="5.0062697380781174e-02" rms="2.5555586814880371e-01" purity="2.0293746888637543e-01" nType="-99"/>
        </Node>
      </Node>
    </BinaryTree>
    <BinaryTree type="DecisionTree" boostWeight="1.0000000000000000e+00" itree="264">
      <Node pos="s" depth="0" NCoef="0" IVar="7" Cut="-9.2971986532211304e-01" cType="1" res="-1.1034093331545591e-03" rms="2.4474570155143738e-01" purity="4.8971799015998840e-01" nType="0">
        <Node pos="l" depth="1" NCoef="0" IVar="6" Cut="-5.3695726394653320e-01" cType="1" res="9.7008580341935158e-03" rms="2.4322737753391266e-01" purity="2.9008936882019043e-01" nType="0">
          <Node pos="l" depth="2" NCoef="0" IVar="-1" Cut="0.0000000000000000e+00" cType="1" res="-1.1264891363680363e-02" rms="2.1584758162498474e-01" purity="2.3763273656368256e-01" nType="-99"/>
          <Node pos="r" depth="2" NCoef="0" IVar="0" Cut="1.6155301513671875e+03" cType="1" res="1.6425020992755890e-02" rms="2.5327301025390625e-01" purity="3.1155452132225037e-01" nType="0">
            <Node pos="l" depth="3" NCoef="0" IVar="-1" Cut="0.0000000000000000e+00" cType="1" res="3.2753804698586464e-03" rms="1.4101690053939819e-01" purity="2.2306811064481735e-02" nType="-99"/>
            <Node pos="r" depth="3" NCoef="0" IVar="-1" Cut="0.0000000000000000e+00" cType="1" res="2.9518224298954010e-02" rms="2.9677721858024597e-01" purity="4.6930530667304993e-01" nType="-99"/>
          </Node>
        </Node>
        <Node pos="r" depth="1" NCoef="0" IVar="9" Cut="1.9995913505554199e+00" cType="1" res="-3.3425001893192530e-03" rms="2.4499958753585815e-01" purity="5.3108924627304077e-01" nType="0">
          <Node pos="l" depth="2" NCoef="0" IVar="0" Cut="3.3551027832031250e+03" cType="1" res="-2.3702080361545086e-03" rms="2.4466396868228912e-01" purity="5.4569560289382935e-01" nType="0">
            <Node pos="l" depth="3" NCoef="0" IVar="-1" Cut="0.0000000000000000e+00" cType="1" res="-5.2891541272401810e-03" rms="2.5061780214309692e-01" purity="5.1601248979568481e-01" nType="-99"/>
            <Node pos="r" depth="3" NCoef="0" IVar="-1" Cut="0.0000000000000000e+00" cType="1" res="4.9703832715749741e-02" rms="1.2783364951610565e-01" purity="9.8111009597778320e-01" nType="-99"/>
          </Node>
          <Node pos="r" depth="2" NCoef="0" IVar="-1" Cut="0.0000000000000000e+00" cType="1" res="-4.3632008135318756e-02" rms="2.5227311253547668e-01" purity="1.5033851563930511e-01" nType="-99"/>
        </Node>
      </Node>
    </BinaryTree>
    <BinaryTree type="DecisionTree" boostWeight="1.0000000000000000e+00" itree="265">
      <Node pos="s" depth="0" NCoef="0" IVar="7" Cut="6.6566956043243408e-01" cType="1" res="1.4987986069172621e-03" rms="2.4766483902931213e-01" purity="5.0437784194946289e-01" nType="0">
        <Node pos="l" depth="1" NCoef="0" IVar="7" Cut="3.3557772636413574e-01" cType="1" res="3.8497382774949074e-03" rms="2.4785631895065308e-01" purity="5.4493874311447144e-01" nType="0">
          <Node pos="l" depth="2" NCoef="0" IVar="2" Cut="3.2210559082031250e+02" cType="1" res="1.1353768641129136e-03" rms="2.4552538990974426e-01" purity="5.2574318647384644e-01" nType="0">
            <Node pos="l" depth="3" NCoef="0" IVar="-1" Cut="0.0000000000000000e+00" cType="1" res="2.4483045563101768e-02" rms="2.8765970468521118e-01" purity="2.1791636943817139e-01" nType="-99"/>
            <Node pos="r" depth="3" NCoef="0" IVar="-1" Cut="0.0000000000000000e+00" cType="1" res="-1.1911229230463505e-03" rms="2.4019183218479156e-01" purity="5.6076538562774658e-01" nType="-99"/>
          </Node>
          <Node pos="r" depth="2" NCoef="0" IVar="0" Cut="2.4405830078125000e+03" cType="1" res="1.8967112526297569e-02" rms="2.5993883609771729e-01" purity="6.5184688568115234e-01" nType="0">
            <Node pos="l" depth="3" NCoef="0" IVar="-1" Cut="0.0000000000000000e+00" cType="1" res="3.4938994795084000e-02" rms="3.1046110391616821e-01" purity="4.1931051015853882e-01" nType="-99"/>
            <Node pos="r" depth="3" NCoef="0" IVar="-1" Cut="0.0000000000000000e+00" cType="1" res="6.1263930983841419e-03" rms="1.7157550156116486e-01" purity="9.5537537336349487e-01" nType="-99"/>
          </Node>
        </Node>
        <Node pos="r" depth="1" NCoef="0" IVar="8" Cut="-9.3244314193725586e-01" cType="1" res="-6.0294005088508129e-03" rms="2.4690012633800507e-01" purity="3.7449327111244202e-01" nType="0">
          <Node pos="l" depth="2" NCoef="0" IVar="-1" Cut="0.0000000000000000e+00" cType="1" res="-3.9581134915351868e-02" rms="2.5273311138153076e-01" purity="2.2921653091907501e-01" nType="-99"/>
          <Node pos="r" depth="2" NCoef="0" IVar="0" Cut="1.8376362304687500e+03" cType="1" res="-1.0698827682062984e-03" rms="2.4533699452877045e-01" purity="4.0596193075180054e-01" nType="0">
            <Node pos="l" depth="3" NCoef="0" IVar="-1" Cut="0.0000000000000000e+00" cType="1" res="-2.3767851293087006e-02" rms="1.8380895256996155e-01" purity="4.7959711402654648e-02" nType="-99"/>
            <Node pos="r" depth="3" NCoef="0" IVar="-1" Cut="0.0000000000000000e+00" cType="1" res="8.8588260114192963e-03" rms="2.9258534312248230e-01" purity="7.5248324871063232e-01" nType="-99"/>
          </Node>
        </Node>
      </Node>
    </BinaryTree>
    <BinaryTree type="DecisionTree" boostWeight="1.0000000000000000e+00" itree="266">
      <Node pos="s" depth="0" NCoef="0" IVar="2" Cut="7.6451062011718750e+02" cType="1" res="-9.6705928444862366e-04" rms="2.4353195726871490e-01" purity="5.0615036487579346e-01" nType="0">
        <Node pos="l" depth="1" NCoef="0" IVar="4" Cut="2.3975532531738281e+02" cType="1" res="-2.5508727412670851e-03" rms="2.4308261275291443e-01" purity="4.7342848777770996e-01" nType="0">
          <Node pos="l" depth="2" NCoef="0" IVar="1" Cut="7.2778262197971344e-02" cType="1" res="-6.7142378538846970e-03" rms="2.5119584798812866e-01" purity="2.1899493038654327e-01" nType="0">
            <Node pos="l" depth="3" NCoef="0" IVar="-1" Cut="0.0000000000000000e+00" cType="1" res="-4.5878724195063114e-03" rms="2.1909530460834503e-01" purity="1.0964389145374298e-01" nType="-99"/>
            <Node pos="r" depth="3" NCoef="0" IVar="-1" Cut="0.0000000000000000e+00" cType="1" res="-1.6763558611273766e-02" rms="3.1008601188659668e-01" purity="4.5948004722595215e-01" nType="-99"/>
          </Node>
          <Node pos="r" depth="2" NCoef="0" IVar="3" Cut="2.8857846069335938e+02" cType="1" res="3.1895269639790058e-03" rms="2.3130732774734497e-01" purity="8.2423841953277588e-01" nType="0">
            <Node pos="l" depth="3" NCoef="0" IVar="-1" Cut="0.0000000000000000e+00" cType="1" res="4.0367469191551208e-02" rms="2.9798606038093567e-01" purity="6.3145619630813599e-01" nType="-99"/>
            <Node pos="r" depth="3" NCoef="0" IVar="-1" Cut="0.0000000000000000e+00" cType="1" res="4.1565179708413780e-04" rms="2.2371245920658112e-01" purity="8.4256166219711304e-01" nType="-99"/>
          </Node>
        </Node>
        <Node pos="r" depth="1" NCoef="0" IVar="1" Cut="3.6484230309724808e-02" cType="1" res="1.1673481203615665e-02" rms="2.4672490358352661e-01" purity="7.6730650663375854e-01" nType="0">
          <Node pos="l" depth="2" NCoef="0" IVar="-1" Cut="0.0000000000000000e+00" cType="1" res="2.6193153113126755e-02" rms="3.0666062235832214e-01" purity="4.7963967919349670e-01" nType="-99"/>
          <Node pos="r" depth="2" NCoef="0" IVar="6" Cut="-1.2965121865272522e-01" cType="1" res="5.4480177350342274e-03" rms="2.1175509691238403e-01" purity="9.0532582998275757e-01" nType="0">
            <Node pos="l" depth="3" NCoef="0" IVar="-1" Cut="0.0000000000000000e+00" cType="1" res="3.3225990831851959e-02" rms="1.9486181437969208e-01" purity="9.2032718658447266e-01" nType="-99"/>
            <Node pos="r" depth="3" NCoef="0" IVar="-1" Cut="0.0000000000000000e+00" cType="1" res="-7.9123238101601601e-03" rms="2.2299088537693024e-01" purity="8.9416581392288208e-01" nType="-99"/>
          </Node>
        </Node>
      </Node>
    </BinaryTree>
    <BinaryTree type="DecisionTree" boostWeight="1.0000000000000000e+00" itree="267">
      <Node pos="s" depth="0" NCoef="0" IVar="6" Cut="-3.0283802747726440e-01" cType="1" res="4.0009976364672184e-03" rms="2.5200095772743225e-01" purity="5.0842911005020142e-01" nType="0">
        <Node pos="l" depth="1" NCoef="0" IVar="0" Cut="1.6342697753906250e+03" cType="1" res="1.2192469090223312e-02" rms="2.5860130786895752e-01" purity="4.5904698967933655e-01" nType="0">
          <Node pos="l" depth="2" NCoef="0" IVar="7" Cut="6.7037642002105713e-01" cType="1" res="-5.7038670638576150e-04" rms="1.5273855626583099e-01" purity="2.6893198490142822e-02" nType="0">
            <Node pos="l" depth="3" NCoef="0" IVar="-1" Cut="0.0000000000000000e+00" cType="1" res="2.9037363827228546e-02" rms="1.8126904964447021e-01" purity="3.8733821362257004e-02" nType="-99"/>
            <Node pos="r" depth="3" NCoef="0" IVar="-1" Cut="0.0000000000000000e+00" cType="1" res="-8.6539164185523987e-02" rms="6.6440790891647339e-02" purity="3.9172377437353134e-03" nType="-99"/>
          </Node>
          <Node pos="r" depth="2" NCoef="0" IVar="0" Cut="2.3035852050781250e+03" cType="1" res="1.7285823822021484e-02" rms="2.9010635614395142e-01" purity="6.3150930404663086e-01" nType="0">
            <Node pos="l" depth="3" NCoef="0" IVar="-1" Cut="0.0000000000000000e+00" cType="1" res="2.7871729806065559e-02" rms="3.5058763623237610e-01" purity="3.6523050069808960e-01" nType="-99"/>
            <Node pos="r" depth="3" NCoef="0" IVar="-1" Cut="0.0000000000000000e+00" cType="1" res="5.7784570381045341e-03" rms="2.0885160565376282e-01" purity="9.0729945898056030e-01" nType="-99"/>
          </Node>
        </Node>
        <Node pos="r" depth="1" NCoef="0" IVar="3" Cut="3.4627020263671875e+02" cType="1" res="-4.5582055463455617e-04" rms="2.4822263419628143e-01" purity="5.3529691696166992e-01" nType="0">
          <Node pos="l" depth="2" NCoef="0" IVar="9" Cut="-1.4659913778305054e+00" cType="1" res="4.4568288139998913e-03" rms="2.6005172729492188e-01" purity="3.2265695929527283e-01" nType="0">
            <Node pos="l" depth="3" NCoef="0" IVar="-1" Cut="0.0000000000000000e+00" cType="1" res="4.5673333108425140e-02" rms="2.8001961112022400e-01" purity="2.4342238903045654e-01" nType="-99"/>
            <Node pos="r" depth="3" NCoef="0" IVar="-1" Cut="0.0000000000000000e+00" cType="1" res="1.9260948756709695e-03" rms="2.5735989212989807e-01" purity="3.3220124244689941e-01" nType="-99"/>
          </Node>
          <Node pos="r" depth="2" NCoef="0" IVar="9" Cut="-1.1986370086669922e+00" cType="1" res="-6.5157776698470116e-03" rms="2.3266157507896423e-01" purity="7.9759716987609863e-01" nType="0">
            <Node pos="l" depth="3" NCoef="0" IVar="-1" Cut="0.0000000000000000e+00" cType="1" res="-4.3633591383695602e-02" rms="2.7938652038574219e-01" purity="6.3174563646316528e-01" nType="-99"/>
            <Node pos="r" depth="3" NCoef="0" IVar="-1" Cut="0.0000000000000000e+00" cType="1" res="-5.5042537860572338e-03" rms="2.2629854083061218e-01" purity="8.1696861982345581e-01" nType="-99"/>
          </Node>
        </Node>
      </Node>
    </BinaryTree>
    <BinaryTree type="DecisionTree" boostWeight="1.0000000000000000e+00" itree="268">
      <Node pos="s" depth="0" NCoef="0" IVar="5" Cut="1.6803842163085938e+02" cType="1" res="8.8295649038627744e-04" rms="2.5128927826881409e-01" purity="5.0113844871520996e-01" nType="0">
        <Node pos="l" depth="1" NCoef="0" IVar="1" Cut="1.4917790889739990e-01" cType="1" res="5.2948589436709881e-03" rms="2.6892811059951782e-01" purity="2.3517279326915741e-01" nType="0">
          <Node pos="l" depth="2" NCoef="0" IVar="1" Cut="7.8082665801048279e-02" cType="1" res="7.0803356356918812e-03" rms="2.6609891653060913e-01" purity="2.0820349454879761e-01" nType="0">
            <Node pos="l" depth="3" NCoef="0" IVar="-1" Cut="0.0000000000000000e+00" cType="1" res="4.7357114963233471e-03" rms="2.4564838409423828e-01" purity="1.4878231287002563e-01" nType="-99"/>
            <Node pos="r" depth="3" NCoef="0" IVar="-1" Cut="0.0000000000000000e+00" cType="1" res="2.4013536050915718e-02" rms="3.3399453759193420e-01" purity="4.4171854853630066e-01" nType="-99"/>
          </Node>
          <Node pos="r" depth="2" NCoef="0" IVar="-1" Cut="0.0000000000000000e+00" cType="1" res="-1.5792641788721085e-02" rms="2.9931509494781494e-01" purity="5.5128878355026245e-01" nType="-99"/>
        </Node>
        <Node pos="r" depth="1" NCoef="0" IVar="0" Cut="2.1418779296875000e+03" cType="1" res="-4.2565725743770599e-03" rms="2.2892761230468750e-01" purity="8.1096810102462769e-01" nType="0">
          <Node pos="l" depth="2" NCoef="0" IVar="4" Cut="2.4888401794433594e+02" cType="1" res="-2.1675767377018929e-02" rms="3.3833232522010803e-01" purity="3.5650125145912170e-01" nType="0">
            <Node pos="l" depth="3" NCoef="0" IVar="-1" Cut="0.0000000000000000e+00" cType="1" res="-6.4380494877696037e-03" rms="3.2530438899993896e-01" purity="3.1544640660285950e-01" nType="-99"/>
            <Node pos="r" depth="3" NCoef="0" IVar="-1" Cut="0.0000000000000000e+00" cType="1" res="-3.9723977446556091e-02" rms="3.6753228306770325e-01" purity="4.6340510249137878e-01" nType="-99"/>
          </Node>
          <Node pos="r" depth="2" NCoef="0" IVar="6" Cut="-8.0895227193832397e-01" cType="1" res="1.0066424729302526e-03" rms="1.8313039839267731e-01" purity="9.4828534126281738e-01" nType="0">
            <Node pos="l" depth="3" NCoef="0" IVar="-1" Cut="0.0000000000000000e+00" cType="1" res="1.9491931423544884e-02" rms="2.5008752942085266e-01" purity="8.7133711576461792e-01" nType="-99"/>
            <Node pos="r" depth="3" NCoef="0" IVar="-1" Cut="0.0000000000000000e+00" cType="1" res="-1.1432025348767638e-03" rms="1.7475050687789917e-01" purity="9.5618689060211182e-01" nType="-99"/>
          </Node>
        </Node>
      </Node>
    </BinaryTree>
    <BinaryTree type="DecisionTree" boostWeight="1.0000000000000000e+00" itree="269">
      <Node pos="s" depth="0" NCoef="0" IVar="7" Cut="1.3343593478202820e-01" cType="1" res="-2.4874298833310604e-03" rms="2.4841207265853882e-01" purity="5.0114381313323975e-01" nType="0">
        <Node pos="l" depth="1" NCoef="0" IVar="9" Cut="6.6673791408538818e-01" cType="1" res="1.5009840717539191e-03" rms="2.4524478614330292e-01" purity="5.2147102355957031e-01" nType="0">
          <Node pos="l" depth="2" NCoef="0" IVar="2" Cut="4.2448306274414062e+02" cType="1" res="-2.5019089225679636e-03" rms="2.4055592715740204e-01" purity="5.3573524951934814e-01" nType="0">
            <Node pos="l" depth="3" NCoef="0" IVar="-1" Cut="0.0000000000000000e+00" cType="1" res="-1.8773555755615234e-02" rms="2.4763481318950653e-01" purity="3.0347555875778198e-01" nType="-99"/>
            <Node pos="r" depth="3" NCoef="0" IVar="-1" Cut="0.0000000000000000e+00" cType="1" res="2.7079184073954821e-03" rms="2.3745575547218323e-01" purity="6.3149666786193848e-01" nType="-99"/>
          </Node>
          <Node pos="r" depth="2" NCoef="0" IVar="8" Cut="9.3333882093429565e-01" cType="1" res="1.3006893917918205e-02" rms="2.5790306925773621e-01" purity="4.8047018051147461e-01" nType="0">
            <Node pos="l" depth="3" NCoef="0" IVar="-1" Cut="0.0000000000000000e+00" cType="1" res="1.2379334308207035e-02" rms="2.5112861394882202e-01" purity="5.2086716890335083e-01" nType="-99"/>
            <Node pos="r" depth="3" NCoef="0" IVar="-1" Cut="0.0000000000000000e+00" cType="1" res="4.3504953384399414e-02" rms="2.8104260563850403e-01" purity="3.2884028553962708e-01" nType="-99"/>
          </Node>
        </Node>
        <Node pos="r" depth="1" NCoef="0" IVar="0" Cut="1.6342749023437500e+03" cType="1" res="-7.6100383885204792e-03" rms="2.5232928991317749e-01" purity="4.7503614425659180e-01" nType="0">
          <Node pos="l" depth="2" NCoef="0" IVar="2" Cut="3.9954257202148438e+02" cType="1" res="7.7858618460595608e-03" rms="1.8517740070819855e-01" purity="4.0133140981197357e-02" nType="0">
            <Node pos="l" depth="3" NCoef="0" IVar="-1" Cut="0.0000000000000000e+00" cType="1" res="4.6013619750738144e-02" rms="2.3003575205802917e-01" purity="6.2953062355518341e-02" nType="-99"/>
            <Node pos="r" depth="3" NCoef="0" IVar="-1" Cut="0.0000000000000000e+00" cType="1" res="-4.0671471506357193e-02" rms="9.4039507210254669e-02" purity="9.3535901978611946e-03" nType="-99"/>
          </Node>
          <Node pos="r" depth="2" NCoef="0" IVar="9" Cut="-9.3105190992355347e-01" cType="1" res="-1.3674159534275532e-02" rms="2.7406543493270874e-01" purity="6.4633524417877197e-01" nType="0">
            <Node pos="l" depth="3" NCoef="0" IVar="-1" Cut="0.0000000000000000e+00" cType="1" res="-3.7756420671939850e-02" rms="3.0443155765533447e-01" purity="5.9629422426223755e-01" nType="-99"/>
            <Node pos="r" depth="3" NCoef="0" IVar="-1" Cut="0.0000000000000000e+00" cType="1" res="-1.2800035066902637e-02" rms="2.6703166961669922e-01" purity="6.5686792135238647e-01" nType="-99"/>
          </Node>
        </Node>
      </Node>
    </BinaryTree>
    <BinaryTree type="DecisionTree" boostWeight="1.0000000000000000e+00" itree="270">
      <Node pos="s" depth="0" NCoef="0" IVar="8" Cut="-6.6662669181823730e-01" cType="1" res="-9.8544906359165907e-04" rms="2.4761356413364410e-01" purity="5.0472903251647949e-01" nType="0">
        <Node pos="l" depth="1" NCoef="0" IVar="5" Cut="1.6885067749023438e+02" cType="1" res="-9.0588498860597610e-03" rms="2.5325512886047363e-01" purity="3.9831078052520752e-01" nType="0">
          <Node pos="l" depth="2" NCoef="0" IVar="8" Cut="-1.0729943513870239e+00" cType="1" res="-1.9151564687490463e-02" rms="2.4435235559940338e-01" purity="1.8185354769229889e-01" nType="0">
            <Node pos="l" depth="3" NCoef="0" IVar="-1" Cut="0.0000000000000000e+00" cType="1" res="-1.0175255127251148e-02" rms="2.3968735337257385e-01" purity="1.6901850700378418e-01" nType="-99"/>
            <Node pos="r" depth="3" NCoef="0" IVar="-1" Cut="0.0000000000000000e+00" cType="1" res="-5.1299024373292923e-02" rms="2.5074890255928040e-01" purity="2.0411397516727448e-01" nType="-99"/>
          </Node>
          <Node pos="r" depth="2" NCoef="0" IVar="9" Cut="1.2880706787109375e-01" cType="1" res="8.3248699083924294e-03" rms="2.6700359582901001e-01" purity="7.7113735675811768e-01" nType="0">
            <Node pos="l" depth="3" NCoef="0" IVar="-1" Cut="0.0000000000000000e+00" cType="1" res="2.9947414994239807e-02" rms="2.7346467971801758e-01" purity="7.9124033451080322e-01" nType="-99"/>
            <Node pos="r" depth="3" NCoef="0" IVar="-1" Cut="0.0000000000000000e+00" cType="1" res="-1.8178489059209824e-02" rms="2.5662678480148315e-01" purity="7.4381446838378906e-01" nType="-99"/>
          </Node>
        </Node>
        <Node pos="r" depth="1" NCoef="0" IVar="7" Cut="6.6667455434799194e-01" cType="1" res="1.8611958948895335e-03" rms="2.4553018808364868e-01" purity="5.4225158691406250e-01" nType="0">
          <Node pos="l" depth="2" NCoef="0" IVar="2" Cut="8.8727685546875000e+02" cType="1" res="5.3195008076727390e-03" rms="2.4679680168628693e-01" purity="5.9570407867431641e-01" nType="0">
            <Node pos="l" depth="3" NCoef="0" IVar="-1" Cut="0.0000000000000000e+00" cType="1" res="1.0964058339595795e-02" rms="2.4473279714584351e-01" purity="5.8380675315856934e-01" nType="-99"/>
            <Node pos="r" depth="3" NCoef="0" IVar="-1" Cut="0.0000000000000000e+00" cType="1" res="-2.5187183171510696e-02" rms="2.7897715568542480e-01" purity="8.0117589235305786e-01" nType="-99"/>
          </Node>
          <Node pos="r" depth="2" NCoef="0" IVar="9" Cut="1.1962310075759888e+00" cType="1" res="-8.4634255617856979e-03" rms="2.4141472578048706e-01" purity="3.8267153501510620e-01" nType="0">
            <Node pos="l" depth="3" NCoef="0" IVar="-1" Cut="0.0000000000000000e+00" cType="1" res="-2.1670766174793243e-02" rms="2.3570182919502258e-01" purity="3.9522933959960938e-01" nType="-99"/>
            <Node pos="r" depth="3" NCoef="0" IVar="-1" Cut="0.0000000000000000e+00" cType="1" res="2.3034511134028435e-02" rms="2.6583054661750793e-01" purity="3.2265278697013855e-01" nType="-99"/>
          </Node>
        </Node>
      </Node>
    </BinaryTree>
    <BinaryTree type="DecisionTree" boostWeight="1.0000000000000000e+00" itree="271">
      <Node pos="s" depth="0" NCoef="0" IVar="2" Cut="4.2936538696289062e+02" cType="1" res="1.9985053222626448e-03" rms="2.4424088001251221e-01" purity="4.9603283405303955e-01" nType="0">
        <Node pos="l" depth="1" NCoef="0" IVar="3" Cut="3.4576031494140625e+02" cType="1" res="-6.9277202710509300e-03" rms="2.5549721717834473e-01" purity="2.7725252509117126e-01" nType="0">
          <Node pos="l" depth="2" NCoef="0" IVar="4" Cut="2.6148937988281250e+02" cType="1" res="-1.0767170228064060e-02" rms="2.5434872508049011e-01" purity="2.2661052644252777e-01" nType="0">
            <Node pos="l" depth="3" NCoef="0" IVar="-1" Cut="0.0000000000000000e+00" cType="1" res="-9.7688362002372742e-03" rms="2.5216552615165710e-01" purity="1.8546330928802490e-01" nType="-99"/>
            <Node pos="r" depth="3" NCoef="0" IVar="-1" Cut="0.0000000000000000e+00" cType="1" res="-5.7229459285736084e-02" rms="2.6946499943733215e-01" purity="5.8060729503631592e-01" nType="-99"/>
          </Node>
          <Node pos="r" depth="2" NCoef="0" IVar="-1" Cut="0.0000000000000000e+00" cType="1" res="2.4893105030059814e-02" rms="2.6122459769248962e-01" purity="5.8955317735671997e-01" nType="-99"/>
        </Node>
        <Node pos="r" depth="1" NCoef="0" IVar="0" Cut="1.6664266357421875e+03" cType="1" res="6.4149494282901287e-03" rms="2.3835159838199615e-01" purity="6.0427910089492798e-01" nType="0">
          <Node pos="l" depth="2" NCoef="0" IVar="3" Cut="2.5183787536621094e+02" cType="1" res="-3.5139243118464947e-03" rms="9.9999167025089264e-02" purity="1.1169236153364182e-02" nType="0">
            <Node pos="l" depth="3" NCoef="0" IVar="-1" Cut="0.0000000000000000e+00" cType="1" res="-5.6402109563350677e-02" rms="7.6813615858554840e-02" purity="6.1268555000424385e-03" nType="-99"/>
            <Node pos="r" depth="3" NCoef="0" IVar="-1" Cut="0.0000000000000000e+00" cType="1" res="1.9364446401596069e-02" rms="1.3273663818836212e-01" purity="2.0624572411179543e-02" nType="-99"/>
          </Node>
          <Node pos="r" depth="2" NCoef="0" IVar="0" Cut="2.1737612304687500e+03" cType="1" res="8.2642519846558571e-03" rms="2.5594651699066162e-01" purity="7.1474879980087280e-01" nType="0">
            <Node pos="l" depth="3" NCoef="0" IVar="-1" Cut="0.0000000000000000e+00" cType="1" res="1.7892733216285706e-02" rms="3.2372811436653137e-01" purity="2.6649183034896851e-01" nType="-99"/>
            <Node pos="r" depth="3" NCoef="0" IVar="-1" Cut="0.0000000000000000e+00" cType="1" res="7.5032245367765427e-03" rms="2.2172851860523224e-01" purity="9.0047496557235718e-01" nType="-99"/>
          </Node>
        </Node>
      </Node>
    </BinaryTree>
    <BinaryTree type="DecisionTree" boostWeight="1.0000000000000000e+00" itree="272">
      <Node pos="s" depth="0" NCoef="0" IVar="7" Cut="1.2007124423980713e+00" cType="1" res="-2.7189846150577068e-03" rms="2.4613142013549805e-01" purity="5.0013756752014160e-01" nType="0">
        <Node pos="l" depth="1" NCoef="0" IVar="1" Cut="2.0674405992031097e-01" cType="1" res="-1.2825971934944391e-03" rms="2.4786178767681122e-01" purity="5.3495603799819946e-01" nType="0">
          <Node pos="l" depth="2" NCoef="0" IVar="1" Cut="1.5744504332542419e-01" cType="1" res="-1.1344141967128962e-04" rms="2.5177133083343506e-01" purity="5.0515300035476685e-01" nType="0">
            <Node pos="l" depth="3" NCoef="0" IVar="-1" Cut="0.0000000000000000e+00" cType="1" res="-2.7814467903226614e-03" rms="2.5609478354454041e-01" purity="4.6342334151268005e-01" nType="-99"/>
            <Node pos="r" depth="3" NCoef="0" IVar="-1" Cut="0.0000000000000000e+00" cType="1" res="3.0649544671177864e-02" rms="2.1017818152904510e-01" purity="8.6564457416534424e-01" nType="-99"/>
          </Node>
          <Node pos="r" depth="2" NCoef="0" IVar="-1" Cut="0.0000000000000000e+00" cType="1" res="-3.7718221545219421e-02" rms="1.9603867828845978e-01" purity="8.8285803794860840e-01" nType="-99"/>
        </Node>
        <Node pos="r" depth="1" NCoef="0" IVar="0" Cut="1.7455744628906250e+03" cType="1" res="-1.5134220942854881e-02" rms="2.3026156425476074e-01" purity="1.9918856024742126e-01" nType="0">
          <Node pos="l" depth="2" NCoef="0" IVar="6" Cut="1.5761289000511169e-01" cType="1" res="-5.6646886514499784e-04" rms="1.5133225917816162e-01" purity="2.7331585064530373e-02" nType="0">
            <Node pos="l" depth="3" NCoef="0" IVar="-1" Cut="0.0000000000000000e+00" cType="1" res="4.5775827020406723e-02" rms="1.6935268044471741e-01" purity="3.4822914749383926e-02" nType="-99"/>
            <Node pos="r" depth="3" NCoef="0" IVar="-1" Cut="0.0000000000000000e+00" cType="1" res="-4.9313347786664963e-02" rms="1.2393134832382202e-01" purity="1.7940038815140724e-02" nType="-99"/>
          </Node>
          <Node pos="r" depth="2" NCoef="0" IVar="-1" Cut="0.0000000000000000e+00" cType="1" res="-3.6748468875885010e-02" rms="3.0608224868774414e-01" purity="4.3517220020294189e-01" nType="-99"/>
        </Node>
      </Node>
    </BinaryTree>
    <BinaryTree type="DecisionTree" boostWeight="1.0000000000000000e+00" itree="273">
      <Node pos="s" depth="0" NCoef="0" IVar="9" Cut="-1.4638570547103882e+00" cType="1" res="1.8530876841396093e-03" rms="2.5023049116134644e-01" purity="5.0226181745529175e-01" nType="0">
        <Node pos="l" depth="1" NCoef="0" IVar="6" Cut="-3.6132723093032837e-01" cType="1" res="-1.7527526244521141e-02" rms="2.8583499789237976e-01" purity="3.1886911392211914e-01" nType="0">
          <Node pos="l" depth="2" NCoef="0" IVar="-1" Cut="0.0000000000000000e+00" cType="1" res="1.3880484737455845e-02" rms="2.8058063983917236e-01" purity="2.8435504436492920e-01" nType="-99"/>
          <Node pos="r" depth="2" NCoef="0" IVar="6" Cut="3.8713920116424561e-01" cType="1" res="-3.2661184668540955e-02" rms="2.8749856352806091e-01" purity="3.3750501275062561e-01" nType="0">
            <Node pos="l" depth="3" NCoef="0" IVar="-1" Cut="0.0000000000000000e+00" cType="1" res="-5.5173426866531372e-02" rms="3.2182008028030396e-01" purity="4.7428077459335327e-01" nType="-99"/>
            <Node pos="r" depth="3" NCoef="0" IVar="-1" Cut="0.0000000000000000e+00" cType="1" res="-1.9585810601711273e-02" rms="2.4945709109306335e-01" purity="2.0927806198596954e-01" nType="-99"/>
          </Node>
        </Node>
        <Node pos="r" depth="1" NCoef="0" IVar="8" Cut="4.0032380819320679e-01" cType="1" res="3.8629660848528147e-03" rms="2.4615633487701416e-01" purity="5.2128070592880249e-01" nType="0">
          <Node pos="l" depth="2" NCoef="0" IVar="2" Cut="3.1487808227539062e+02" cType="1" res="7.7406102791428566e-03" rms="2.4423559010028839e-01" purity="5.4949754476547241e-01" nType="0">
            <Node pos="l" depth="3" NCoef="0" IVar="-1" Cut="0.0000000000000000e+00" cType="1" res="3.6384589970111847e-02" rms="2.8676816821098328e-01" purity="2.2426249086856842e-01" nType="-99"/>
            <Node pos="r" depth="3" NCoef="0" IVar="-1" Cut="0.0000000000000000e+00" cType="1" res="1.0272759944200516e-02" rms="2.3977173864841461e-01" purity="5.8012449741363525e-01" nType="-99"/>
          </Node>
          <Node pos="r" depth="2" NCoef="0" IVar="7" Cut="-6.5844243764877319e-01" cType="1" res="-3.2226161565631628e-03" rms="2.4947229027748108e-01" purity="4.6972030401229858e-01" nType="0">
            <Node pos="l" depth="3" NCoef="0" IVar="-1" Cut="0.0000000000000000e+00" cType="1" res="-2.6676563546061516e-02" rms="2.6469722390174866e-01" purity="3.0074036121368408e-01" nType="-99"/>
            <Node pos="r" depth="3" NCoef="0" IVar="-1" Cut="0.0000000000000000e+00" cType="1" res="1.4378876658156514e-03" rms="2.4485601484775543e-01" purity="5.1733285188674927e-01" nType="-99"/>
          </Node>
        </Node>
      </Node>
    </BinaryTree>
    <BinaryTree type="DecisionTree" boostWeight="1.0000000000000000e+00" itree="274">
      <Node pos="s" depth="0" NCoef="0" IVar="0" Cut="2.7313715820312500e+03" cType="1" res="-4.8418366350233555e-03" rms="2.4511389434337616e-01" purity="4.9605828523635864e-01" nType="0">
        <Node pos="l" depth="1" NCoef="0" IVar="4" Cut="2.2169239807128906e+02" cType="1" res="-6.7915623076260090e-03" rms="2.6563182473182678e-01" purity="3.6229032278060913e-01" nType="0">
          <Node pos="l" depth="2" NCoef="0" IVar="7" Cut="9.3469929695129395e-01" cType="1" res="-2.3041169624775648e-03" rms="2.5025990605354309e-01" purity="1.7910529673099518e-01" nType="0">
            <Node pos="l" depth="3" NCoef="0" IVar="-1" Cut="0.0000000000000000e+00" cType="1" res="-8.3840107545256615e-03" rms="2.5678950548171997e-01" purity="1.9463863968849182e-01" nType="-99"/>
            <Node pos="r" depth="3" NCoef="0" IVar="-1" Cut="0.0000000000000000e+00" cType="1" res="2.0378643646836281e-02" rms="2.2459669411182404e-01" purity="1.2281613051891327e-01" nType="-99"/>
          </Node>
          <Node pos="r" depth="2" NCoef="0" IVar="9" Cut="-6.6326844692230225e-01" cType="1" res="-1.3638781383633614e-02" rms="2.8737282752990723e-01" purity="6.4180535078048706e-01" nType="0">
            <Node pos="l" depth="3" NCoef="0" IVar="-1" Cut="0.0000000000000000e+00" cType="1" res="-3.3233024179935455e-02" rms="2.9418602585792542e-01" purity="5.7527267932891846e-01" nType="-99"/>
            <Node pos="r" depth="3" NCoef="0" IVar="-1" Cut="0.0000000000000000e+00" cType="1" res="-7.5292685069143772e-03" rms="2.8430861234664917e-01" purity="6.6800928115844727e-01" nType="-99"/>
          </Node>
        </Node>
        <Node pos="r" depth="1" NCoef="0" IVar="3" Cut="6.0666357421875000e+02" cType="1" res="1.9179177470505238e-03" rms="1.5391360223293304e-01" purity="9.5983552932739258e-01" nType="0">
          <Node pos="l" depth="2" NCoef="0" IVar="8" Cut="-1.2510888278484344e-01" cType="1" res="5.2570686675608158e-03" rms="1.3609275221824646e-01" purity="9.7280883789062500e-01" nType="0">
            <Node pos="l" depth="3" NCoef="0" IVar="-1" Cut="0.0000000000000000e+00" cType="1" res="4.1325330734252930e-02" rms="1.2868779897689819e-01" purity="9.7678196430206299e-01" nType="-99"/>
            <Node pos="r" depth="3" NCoef="0" IVar="-1" Cut="0.0000000000000000e+00" cType="1" res="6.1906683258712292e-03" rms="1.4147508144378662e-01" purity="9.6971243619918823e-01" nType="-99"/>
          </Node>
          <Node pos="r" depth="2" NCoef="0" IVar="-1" Cut="0.0000000000000000e+00" cType="1" res="-3.0954504385590553e-02" rms="2.2142566740512848e-01" purity="8.9539706707000732e-01" nType="-99"/>
        </Node>
      </Node>
    </BinaryTree>
    <BinaryTree type="DecisionTree" boostWeight="1.0000000000000000e+00" itree="275">
      <Node pos="s" depth="0" NCoef="0" IVar="7" Cut="-1.3165897130966187e-01" cType="1" res="-1.8520646262913942e-03" rms="2.4409809708595276e-01" purity="5.0787800550460815e-01" nType="0">
        <Node pos="l" depth="1" NCoef="0" IVar="8" Cut="1.3301751017570496e-01" cType="1" res="1.7492413753643632e-03" rms="2.4049487709999084e-01" purity="4.9422237277030945e-01" nType="0">
          <Node pos="l" depth="2" NCoef="0" IVar="7" Cut="-2.5856342911720276e-01" cType="1" res="-3.1964804511517286e-03" rms="2.3679886758327484e-01" purity="4.9600556492805481e-01" nType="0">
            <Node pos="l" depth="3" NCoef="0" IVar="-1" Cut="0.0000000000000000e+00" cType="1" res="-1.0560155846178532e-02" rms="2.3402492702007294e-01" purity="4.6761012077331543e-01" nType="-99"/>
            <Node pos="r" depth="3" NCoef="0" IVar="-1" Cut="0.0000000000000000e+00" cType="1" res="3.4564722329378128e-02" rms="2.5437495112419128e-01" purity="6.9736772775650024e-01" nType="-99"/>
          </Node>
          <Node pos="r" depth="2" NCoef="0" IVar="6" Cut="7.5747829675674438e-01" cType="1" res="8.2311490550637245e-03" rms="2.4510352313518524e-01" purity="4.9188527464866638e-01" nType="0">
            <Node pos="l" depth="3" NCoef="0" IVar="-1" Cut="0.0000000000000000e+00" cType="1" res="2.1750561892986298e-02" rms="2.5154522061347961e-01" purity="5.6081557273864746e-01" nType="-99"/>
            <Node pos="r" depth="3" NCoef="0" IVar="-1" Cut="0.0000000000000000e+00" cType="1" res="-2.0916327834129333e-02" rms="2.1646814048290253e-01" purity="2.1872998774051666e-01" nType="-99"/>
          </Node>
        </Node>
        <Node pos="r" depth="1" NCoef="0" IVar="8" Cut="-4.0001997351646423e-01" cType="1" res="-4.8190616071224213e-03" rms="2.4698773026466370e-01" purity="5.1912838220596313e-01" nType="0">
          <Node pos="l" depth="2" NCoef="0" IVar="6" Cut="-5.2347552776336670e-01" cType="1" res="3.0582754407078028e-03" rms="2.5554642081260681e-01" purity="4.8642334342002869e-01" nType="0">
            <Node pos="l" depth="3" NCoef="0" IVar="-1" Cut="0.0000000000000000e+00" cType="1" res="2.2384161129593849e-02" rms="2.6646420359611511e-01" purity="3.6121371388435364e-01" nType="-99"/>
            <Node pos="r" depth="3" NCoef="0" IVar="-1" Cut="0.0000000000000000e+00" cType="1" res="-2.4496593978255987e-03" rms="2.5094071030616760e-01" purity="5.3600794076919556e-01" nType="-99"/>
          </Node>
          <Node pos="r" depth="2" NCoef="0" IVar="9" Cut="-1.4654783010482788e+00" cType="1" res="-8.7630804628133774e-03" rms="2.4249304831027985e-01" purity="5.3550314903259277e-01" nType="0">
            <Node pos="l" depth="3" NCoef="0" IVar="-1" Cut="0.0000000000000000e+00" cType="1" res="-4.2703632265329361e-02" rms="2.8635323047637939e-01" purity="3.0752551555633545e-01" nType="-99"/>
            <Node pos="r" depth="3" NCoef="0" IVar="-1" Cut="0.0000000000000000e+00" cType="1" res="-1.1124698445200920e-02" rms="2.3873072862625122e-01" purity="5.5264073610305786e-01" nType="-99"/>
          </Node>
        </Node>
      </Node>
    </BinaryTree>
    <BinaryTree type="DecisionTree" boostWeight="1.0000000000000000e+00" itree="276">
      <Node pos="s" depth="0" NCoef="0" IVar="2" Cut="4.2435952758789062e+02" cType="1" res="-1.1425374541431665e-03" rms="2.4269512295722961e-01" purity="4.9463471770286560e-01" nType="0">
        <Node pos="l" depth="1" NCoef="0" IVar="0" Cut="1.7110718994140625e+03" cType="1" res="-9.0357018634676933e-03" rms="2.5427895784378052e-01" purity="2.7474319934844971e-01" nType="0">
          <Node pos="l" depth="2" NCoef="0" IVar="6" Cut="2.3283976316452026e-01" cType="1" res="-1.5826139133423567e-03" rms="2.0733462274074554e-01" purity="5.4222263395786285e-02" nType="0">
            <Node pos="l" depth="3" NCoef="0" IVar="-1" Cut="0.0000000000000000e+00" cType="1" res="1.1759350076317787e-02" rms="2.2691909968852997e-01" purity="6.6746033728122711e-02" nType="-99"/>
            <Node pos="r" depth="3" NCoef="0" IVar="-1" Cut="0.0000000000000000e+00" cType="1" res="-2.3328520357608795e-02" rms="1.8223808705806732e-01" purity="4.0016371756792068e-02" nType="-99"/>
          </Node>
          <Node pos="r" depth="2" NCoef="0" IVar="0" Cut="2.0666403808593750e+03" cType="1" res="-2.1985121071338654e-02" rms="3.1944409012794495e-01" purity="6.5788882970809937e-01" nType="0">
            <Node pos="l" depth="3" NCoef="0" IVar="-1" Cut="0.0000000000000000e+00" cType="1" res="-3.0727453529834747e-02" rms="3.8510274887084961e-01" purity="4.2349576950073242e-01" nType="-99"/>
            <Node pos="r" depth="3" NCoef="0" IVar="-1" Cut="0.0000000000000000e+00" cType="1" res="2.1256543695926666e-02" rms="2.1352124214172363e-01" purity="9.3439656496047974e-01" nType="-99"/>
          </Node>
        </Node>
        <Node pos="r" depth="1" NCoef="0" IVar="8" Cut="-1.4663760662078857e+00" cType="1" res="2.5140249636024237e-03" rms="2.3704805970191956e-01" purity="5.9650093317031860e-01" nType="0">
          <Node pos="l" depth="2" NCoef="0" IVar="-1" Cut="0.0000000000000000e+00" cType="1" res="4.1852500289678574e-02" rms="2.7228993177413940e-01" purity="3.2469287514686584e-01" nType="-99"/>
          <Node pos="r" depth="2" NCoef="0" IVar="8" Cut="-4.4380743056535721e-02" cType="1" res="7.0571195101365447e-04" rms="2.3417550325393677e-01" purity="6.1626762151718140e-01" nType="0">
            <Node pos="l" depth="3" NCoef="0" IVar="-1" Cut="0.0000000000000000e+00" cType="1" res="-1.0229065082967281e-02" rms="2.2966985404491425e-01" purity="6.2269437313079834e-01" nType="-99"/>
            <Node pos="r" depth="3" NCoef="0" IVar="-1" Cut="0.0000000000000000e+00" cType="1" res="1.0512400418519974e-02" rms="2.3774442076683044e-01" purity="6.1088639497756958e-01" nType="-99"/>
          </Node>
        </Node>
      </Node>
    </BinaryTree>
    <BinaryTree type="DecisionTree" boostWeight="1.0000000000000000e+00" itree="277">
      <Node pos="s" depth="0" NCoef="0" IVar="9" Cut="-1.7325633764266968e+00" cType="1" res="2.0386713731568307e-04" rms="2.4855530261993408e-01" purity="4.9701756238937378e-01" nType="0">
        <Node pos="l" depth="1" NCoef="0" IVar="7" Cut="-1.3448186218738556e-01" cType="1" res="3.0173169448971748e-02" rms="2.8861975669860840e-01" purity="2.6109346747398376e-01" nType="0">
          <Node pos="l" depth="2" NCoef="0" IVar="-1" Cut="0.0000000000000000e+00" cType="1" res="6.6224701702594757e-02" rms="2.9473236203193665e-01" purity="2.6645797491073608e-01" nType="-99"/>
          <Node pos="r" depth="2" NCoef="0" IVar="-1" Cut="0.0000000000000000e+00" cType="1" res="1.7656883224844933e-02" rms="2.8078457713127136e-01" purity="2.5522893667221069e-01" nType="-99"/>
        </Node>
        <Node pos="r" depth="1" NCoef="0" IVar="7" Cut="-6.6591632366180420e-01" cType="1" res="-1.5143707860261202e-03" rms="2.4594996869564056e-01" purity="5.1054382324218750e-01" nType="0">
          <Node pos="l" depth="2" NCoef="0" IVar="4" Cut="1.3517312622070312e+02" cType="1" res="-1.2674169614911079e-02" rms="2.3914842307567596e-01" purity="3.6970636248588562e-01" nType="0">
            <Node pos="l" depth="3" NCoef="0" IVar="-1" Cut="0.0000000000000000e+00" cType="1" res="3.9196867495775223e-02" rms="1.8508879840373993e-01" purity="4.4542849063873291e-02" nType="-99"/>
            <Node pos="r" depth="3" NCoef="0" IVar="-1" Cut="0.0000000000000000e+00" cType="1" res="-2.4865977466106415e-02" rms="2.4826446175575256e-01" purity="4.3443727493286133e-01" nType="-99"/>
          </Node>
          <Node pos="r" depth="2" NCoef="0" IVar="6" Cut="2.1828809380531311e-01" cType="1" res="2.1262322552502155e-03" rms="2.4801987409591675e-01" purity="5.5648851394653320e-01" nType="0">
            <Node pos="l" depth="3" NCoef="0" IVar="-1" Cut="0.0000000000000000e+00" cType="1" res="-1.6188784502446651e-03" rms="2.4929367005825043e-01" purity="5.7517075538635254e-01" nType="-99"/>
            <Node pos="r" depth="3" NCoef="0" IVar="-1" Cut="0.0000000000000000e+00" cType="1" res="1.0949080809950829e-02" rms="2.4602526426315308e-01" purity="5.2851778268814087e-01" nType="-99"/>
          </Node>
        </Node>
      </Node>
    </BinaryTree>
    <BinaryTree type="DecisionTree" boostWeight="1.0000000000000000e+00" itree="278">
      <Node pos="s" depth="0" NCoef="0" IVar="5" Cut="1.9128137207031250e+02" cType="1" res="-8.5847056470811367e-04" rms="2.4555601179599762e-01" purity="5.0001597404479980e-01" nType="0">
        <Node pos="l" depth="1" NCoef="0" IVar="4" Cut="1.9560375976562500e+02" cType="1" res="-3.8433053996413946e-03" rms="2.6045992970466614e-01" purity="2.9298833012580872e-01" nType="0">
          <Node pos="l" depth="2" NCoef="0" IVar="0" Cut="2.1314958496093750e+03" cType="1" res="1.1087247403338552e-03" rms="2.4136231839656830e-01" purity="1.5491588413715363e-01" nType="0">
            <Node pos="l" depth="3" NCoef="0" IVar="-1" Cut="0.0000000000000000e+00" cType="1" res="8.2243178039789200e-03" rms="2.2633124887943268e-01" purity="9.1622374951839447e-02" nType="-99"/>
            <Node pos="r" depth="3" NCoef="0" IVar="-1" Cut="0.0000000000000000e+00" cType="1" res="-1.9319539889693260e-02" rms="3.3155637979507446e-01" purity="6.2542718648910522e-01" nType="-99"/>
          </Node>
          <Node pos="r" depth="2" NCoef="0" IVar="3" Cut="4.3168350219726562e+02" cType="1" res="-1.0983741842210293e-02" rms="2.8560781478881836e-01" purity="4.9207794666290283e-01" nType="0">
            <Node pos="l" depth="3" NCoef="0" IVar="-1" Cut="0.0000000000000000e+00" cType="1" res="-1.9458785653114319e-02" rms="2.8738120198249817e-01" purity="3.9887258410453796e-01" nType="-99"/>
            <Node pos="r" depth="3" NCoef="0" IVar="-1" Cut="0.0000000000000000e+00" cType="1" res="1.3376739807426929e-02" rms="2.7816411852836609e-01" purity="8.1788057088851929e-01" nType="-99"/>
          </Node>
        </Node>
        <Node pos="r" depth="1" NCoef="0" IVar="1" Cut="8.4919936954975128e-02" cType="1" res="4.6445773914456367e-03" rms="2.1528306603431702e-01" purity="8.8170635700225830e-01" nType="0">
          <Node pos="l" depth="2" NCoef="0" IVar="9" Cut="4.1042429208755493e-01" cType="1" res="1.6342110931873322e-02" rms="2.6844316720962524e-01" purity="7.8312432765960693e-01" nType="0">
            <Node pos="l" depth="3" NCoef="0" IVar="-1" Cut="0.0000000000000000e+00" cType="1" res="3.3353418111801147e-02" rms="2.6581498980522156e-01" purity="8.1642955541610718e-01" nType="-99"/>
            <Node pos="r" depth="3" NCoef="0" IVar="-1" Cut="0.0000000000000000e+00" cType="1" res="-1.4170706272125244e-03" rms="2.7299174666404724e-01" purity="7.1392464637756348e-01" nType="-99"/>
          </Node>
          <Node pos="r" depth="2" NCoef="0" IVar="1" Cut="1.1911762505769730e-01" cType="1" res="-2.2817659191787243e-03" rms="1.7604397237300873e-01" purity="9.4007873535156250e-01" nType="0">
            <Node pos="l" depth="3" NCoef="0" IVar="-1" Cut="0.0000000000000000e+00" cType="1" res="-3.9460897445678711e-02" rms="2.2107906639575958e-01" purity="8.8804197311401367e-01" nType="-99"/>
            <Node pos="r" depth="3" NCoef="0" IVar="-1" Cut="0.0000000000000000e+00" cType="1" res="1.7499776557087898e-02" rms="1.5336239337921143e-01" purity="9.6132093667984009e-01" nType="-99"/>
          </Node>
        </Node>
      </Node>
    </BinaryTree>
    <BinaryTree type="DecisionTree" boostWeight="1.0000000000000000e+00" itree="279">
      <Node pos="s" depth="0" NCoef="0" IVar="6" Cut="-6.1697292327880859e-01" cType="1" res="-7.6751620508730412e-04" rms="2.4780558049678802e-01" purity="4.9751558899879456e-01" nType="0">
        <Node pos="l" depth="1" NCoef="0" IVar="4" Cut="2.8858288574218750e+02" cType="1" res="-8.3602303639054298e-03" rms="2.4265620112419128e-01" purity="3.2703313231468201e-01" nType="0">
          <Node pos="l" depth="2" NCoef="0" IVar="5" Cut="1.8631584167480469e+02" cType="1" res="-1.2703346088528633e-02" rms="2.4283660948276520e-01" purity="2.0127110183238983e-01" nType="0">
            <Node pos="l" depth="3" NCoef="0" IVar="-1" Cut="0.0000000000000000e+00" cType="1" res="-1.1732978746294975e-02" rms="2.2823317348957062e-01" purity="1.2834544479846954e-01" nType="-99"/>
            <Node pos="r" depth="3" NCoef="0" IVar="-1" Cut="0.0000000000000000e+00" cType="1" res="-4.3590806424617767e-02" rms="3.0537480115890503e-01" purity="5.7743477821350098e-01" nType="-99"/>
          </Node>
          <Node pos="r" depth="2" NCoef="0" IVar="-1" Cut="0.0000000000000000e+00" cType="1" res="1.3810998760163784e-02" rms="2.4109566211700439e-01" purity="8.4333419799804688e-01" nType="-99"/>
        </Node>
        <Node pos="r" depth="1" NCoef="0" IVar="1" Cut="2.0343499258160591e-02" cType="1" res="1.4982583234086633e-03" rms="2.4927683174610138e-01" purity="5.4839003086090088e-01" nType="0">
          <Node pos="l" depth="2" NCoef="0" IVar="4" Cut="1.7828587341308594e+02" cType="1" res="-1.1473595164716244e-02" rms="1.8115624785423279e-01" purity="1.0400962829589844e-01" nType="0">
            <Node pos="l" depth="3" NCoef="0" IVar="-1" Cut="0.0000000000000000e+00" cType="1" res="-1.4659170061349869e-02" rms="1.3088689744472504e-01" purity="3.0677223578095436e-02" nType="-99"/>
            <Node pos="r" depth="3" NCoef="0" IVar="-1" Cut="0.0000000000000000e+00" cType="1" res="-3.1991191208362579e-02" rms="2.3064516484737396e-01" purity="2.0021918416023254e-01" nType="-99"/>
          </Node>
          <Node pos="r" depth="2" NCoef="0" IVar="0" Cut="2.1418613281250000e+03" cType="1" res="3.6429096944630146e-03" rms="2.5875517725944519e-01" purity="6.2185996770858765e-01" nType="0">
            <Node pos="l" depth="3" NCoef="0" IVar="-1" Cut="0.0000000000000000e+00" cType="1" res="1.0464853607118130e-02" rms="3.1296330690383911e-01" purity="2.4282419681549072e-01" nType="-99"/>
            <Node pos="r" depth="3" NCoef="0" IVar="-1" Cut="0.0000000000000000e+00" cType="1" res="-4.1615092195570469e-03" rms="2.0320956408977509e-01" purity="9.3490403890609741e-01" nType="-99"/>
          </Node>
        </Node>
      </Node>
    </BinaryTree>
    <BinaryTree type="DecisionTree" boostWeight="1.0000000000000000e+00" itree="280">
      <Node pos="s" depth="0" NCoef="0" IVar="9" Cut="-9.3385076522827148e-01" cType="1" res="-1.1807563714683056e-03" rms="2.4321407079696655e-01" purity="4.9803826212882996e-01" nType="0">
        <Node pos="l" depth="1" NCoef="0" IVar="2" Cut="5.3653320312500000e+02" cType="1" res="7.2245388291776180e-03" rms="2.5524693727493286e-01" purity="4.2008417844772339e-01" nType="0">
          <Node pos="l" depth="2" NCoef="0" IVar="1" Cut="6.6576331853866577e-02" cType="1" res="1.7538752581458539e-04" rms="2.5438994169235229e-01" purity="3.0374020338058472e-01" nType="0">
            <Node pos="l" depth="3" NCoef="0" IVar="-1" Cut="0.0000000000000000e+00" cType="1" res="-1.8883151933550835e-02" rms="2.0171365141868591e-01" purity="1.1344916373491287e-01" nType="-99"/>
            <Node pos="r" depth="3" NCoef="0" IVar="-1" Cut="0.0000000000000000e+00" cType="1" res="1.3096698559820652e-02" rms="3.0916959047317505e-01" purity="5.5035775899887085e-01" nType="-99"/>
          </Node>
          <Node pos="r" depth="2" NCoef="0" IVar="5" Cut="1.3587915039062500e+02" cType="1" res="1.7670162022113800e-02" rms="2.5615516304969788e-01" purity="5.9248584508895874e-01" nType="0">
            <Node pos="l" depth="3" NCoef="0" IVar="-1" Cut="0.0000000000000000e+00" cType="1" res="3.9544619619846344e-02" rms="2.8819927573204041e-01" purity="2.6913985610008240e-01" nType="-99"/>
            <Node pos="r" depth="3" NCoef="0" IVar="-1" Cut="0.0000000000000000e+00" cType="1" res="1.2449563480913639e-02" rms="2.3047530651092529e-01" purity="8.1977391242980957e-01" nType="-99"/>
          </Node>
        </Node>
        <Node pos="r" depth="1" NCoef="0" IVar="0" Cut="1.6472932128906250e+03" cType="1" res="-3.4798316191881895e-03" rms="2.3976629972457886e-01" purity="5.1936078071594238e-01" nType="0">
          <Node pos="l" depth="2" NCoef="0" IVar="8" Cut="6.6524183750152588e-01" cType="1" res="3.7509712856262922e-03" rms="1.7683541774749756e-01" purity="3.6877509206533432e-02" nType="0">
            <Node pos="l" depth="3" NCoef="0" IVar="-1" Cut="0.0000000000000000e+00" cType="1" res="-1.1245784349739552e-02" rms="1.6466468572616577e-01" purity="3.1369306147098541e-02" nType="-99"/>
            <Node pos="r" depth="3" NCoef="0" IVar="-1" Cut="0.0000000000000000e+00" cType="1" res="7.4068091809749603e-02" rms="2.0019128918647766e-01" purity="4.9029003828763962e-02" nType="-99"/>
          </Node>
          <Node pos="r" depth="2" NCoef="0" IVar="5" Cut="1.7648397827148438e+02" cType="1" res="-5.9407437220215797e-03" rms="2.5765615701675415e-01" purity="6.8356794118881226e-01" nType="0">
            <Node pos="l" depth="3" NCoef="0" IVar="-1" Cut="0.0000000000000000e+00" cType="1" res="-1.5984479337930679e-02" rms="3.0668923258781433e-01" purity="3.9532425999641418e-01" nType="-99"/>
            <Node pos="r" depth="3" NCoef="0" IVar="-1" Cut="0.0000000000000000e+00" cType="1" res="2.1317971404641867e-03" rms="2.1543009579181671e-01" purity="8.9043158292770386e-01" nType="-99"/>
          </Node>
        </Node>
      </Node>
    </BinaryTree>
    <BinaryTree type="DecisionTree" boostWeight="1.0000000000000000e+00" itree="281">
      <Node pos="s" depth="0" NCoef="0" IVar="4" Cut="2.7839813232421875e+02" cType="1" res="7.7242625411599874e-04" rms="2.4944210052490234e-01" purity="5.0405997037887573e-01" nType="0">
        <Node pos="l" depth="1" NCoef="0" IVar="5" Cut="1.8971008300781250e+02" cType="1" res="3.7485102657228708e-03" rms="2.6372659206390381e-01" purity="3.3164158463478088e-01" nType="0">
          <Node pos="l" depth="2" NCoef="0" IVar="4" Cut="2.5713189697265625e+02" cType="1" res="6.4921411685645580e-03" rms="2.5928857922554016e-01" purity="2.4104018509387970e-01" nType="0">
            <Node pos="l" depth="3" NCoef="0" IVar="-1" Cut="0.0000000000000000e+00" cType="1" res="6.6966870799660683e-03" rms="2.5748795270919800e-01" purity="2.2348560392856598e-01" nType="-99"/>
            <Node pos="r" depth="3" NCoef="0" IVar="-1" Cut="0.0000000000000000e+00" cType="1" res="4.6982038766145706e-02" rms="2.8988113999366760e-01" purity="5.9137696027755737e-01" nType="-99"/>
          </Node>
          <Node pos="r" depth="2" NCoef="0" IVar="1" Cut="8.3100721240043640e-02" cType="1" res="-8.7006539106369019e-03" rms="2.8265655040740967e-01" purity="7.4274355173110962e-01" nType="0">
            <Node pos="l" depth="3" NCoef="0" IVar="-1" Cut="0.0000000000000000e+00" cType="1" res="5.3024385124444962e-03" rms="3.1208565831184387e-01" purity="6.0133635997772217e-01" nType="-99"/>
            <Node pos="r" depth="3" NCoef="0" IVar="-1" Cut="0.0000000000000000e+00" cType="1" res="-2.9364222660660744e-02" rms="2.5843667984008789e-01" purity="8.4666419029235840e-01" nType="-99"/>
          </Node>
        </Node>
        <Node pos="r" depth="1" NCoef="0" IVar="7" Cut="4.0012717247009277e-01" cType="1" res="-5.7805906981229782e-03" rms="2.1451872587203979e-01" purity="8.8370651006698608e-01" nType="0">
          <Node pos="l" depth="2" NCoef="0" IVar="0" Cut="2.4038679199218750e+03" cType="1" res="-5.7096203090623021e-04" rms="1.9807575643062592e-01" purity="9.1011840105056763e-01" nType="0">
            <Node pos="l" depth="3" NCoef="0" IVar="-1" Cut="0.0000000000000000e+00" cType="1" res="1.1121802031993866e-02" rms="3.1442520022392273e-01" purity="6.8687629699707031e-01" nType="-99"/>
            <Node pos="r" depth="3" NCoef="0" IVar="-1" Cut="0.0000000000000000e+00" cType="1" res="-1.4432728290557861e-02" rms="1.5917065739631653e-01" purity="9.6197402477264404e-01" nType="-99"/>
          </Node>
          <Node pos="r" depth="2" NCoef="0" IVar="0" Cut="2.6537841796875000e+03" cType="1" res="-1.8536800518631935e-02" rms="2.4980184435844421e-01" purity="8.1903457641601562e-01" nType="0">
            <Node pos="l" depth="3" NCoef="0" IVar="-1" Cut="0.0000000000000000e+00" cType="1" res="-4.4746566563844681e-02" rms="3.2996499538421631e-01" purity="6.3559281826019287e-01" nType="-99"/>
            <Node pos="r" depth="3" NCoef="0" IVar="-1" Cut="0.0000000000000000e+00" cType="1" res="4.8963986337184906e-03" rms="1.6346313059329987e-01" purity="9.5622110366821289e-01" nType="-99"/>
          </Node>
        </Node>
      </Node>
    </BinaryTree>
    <BinaryTree type="DecisionTree" boostWeight="1.0000000000000000e+00" itree="282">
      <Node pos="s" depth="0" NCoef="0" IVar="2" Cut="3.2194494628906250e+02" cType="1" res="-6.6390342544764280e-04" rms="2.4666476249694824e-01" purity="4.9029240012168884e-01" nType="0">
        <Node pos="l" depth="1" NCoef="0" IVar="6" Cut="4.8630067706108093e-01" cType="1" res="-1.1355843394994736e-02" rms="2.5549036264419556e-01" purity="1.7348793148994446e-01" nType="0">
          <Node pos="l" depth="2" NCoef="0" IVar="1" Cut="5.8906033635139465e-02" cType="1" res="-2.7720665559172630e-02" rms="2.4703408777713776e-01" purity="1.6872751712799072e-01" nType="0">
            <Node pos="l" depth="3" NCoef="0" IVar="-1" Cut="0.0000000000000000e+00" cType="1" res="-1.4976408332586288e-02" rms="1.9386802613735199e-01" purity="6.0037363320589066e-02" nType="-99"/>
            <Node pos="r" depth="3" NCoef="0" IVar="-1" Cut="0.0000000000000000e+00" cType="1" res="-4.2149893939495087e-02" rms="2.7539321780204773e-01" purity="2.3971402645111084e-01" nType="-99"/>
          </Node>
          <Node pos="r" depth="2" NCoef="0" IVar="-1" Cut="0.0000000000000000e+00" cType="1" res="3.6015287041664124e-02" rms="2.6874154806137085e-01" purity="1.8309818208217621e-01" nType="-99"/>
        </Node>
        <Node pos="r" depth="1" NCoef="0" IVar="9" Cut="1.9996509552001953e+00" cType="1" res="6.0153531376272440e-04" rms="2.4556842446327209e-01" purity="5.2778762578964233e-01" nType="0">
          <Node pos="l" depth="2" NCoef="0" IVar="2" Cut="6.6970452880859375e+02" cType="1" res="-5.1426861318759620e-05" rms="2.4404703080654144e-01" purity="5.3893893957138062e-01" nType="0">
            <Node pos="l" depth="3" NCoef="0" IVar="-1" Cut="0.0000000000000000e+00" cType="1" res="-2.8957272879779339e-03" rms="2.4269580841064453e-01" purity="4.8331290483474731e-01" nType="-99"/>
            <Node pos="r" depth="3" NCoef="0" IVar="-1" Cut="0.0000000000000000e+00" cType="1" res="9.3449475243687630e-03" rms="2.4858316779136658e-01" purity="7.3177421092987061e-01" nType="-99"/>
          </Node>
          <Node pos="r" depth="2" NCoef="0" IVar="-1" Cut="0.0000000000000000e+00" cType="1" res="2.9381960630416870e-02" rms="2.8359040617942810e-01" purity="2.2160096466541290e-01" nType="-99"/>
        </Node>
      </Node>
    </BinaryTree>
    <BinaryTree type="DecisionTree" boostWeight="1.0000000000000000e+00" itree="283">
      <Node pos="s" depth="0" NCoef="0" IVar="5" Cut="1.0760304260253906e+02" cType="1" res="6.2778656138107181e-04" rms="2.4857124686241150e-01" purity="4.9001502990722656e-01" nType="0">
        <Node pos="l" depth="1" NCoef="0" IVar="0" Cut="1.8456152343750000e+03" cType="1" res="9.4865253195166588e-03" rms="2.1877360343933105e-01" purity="1.0076941549777985e-01" nType="0">
          <Node pos="l" depth="2" NCoef="0" IVar="0" Cut="1.6546153564453125e+03" cType="1" res="2.5263493880629539e-03" rms="1.5749792754650116e-01" purity="2.9238877817988396e-02" nType="0">
            <Node pos="l" depth="3" NCoef="0" IVar="-1" Cut="0.0000000000000000e+00" cType="1" res="-1.0569026693701744e-02" rms="1.1761534959077835e-01" purity="1.5040861442685127e-02" nType="-99"/>
            <Node pos="r" depth="3" NCoef="0" IVar="-1" Cut="0.0000000000000000e+00" cType="1" res="3.4244373440742493e-02" rms="2.4603235721588135e-01" purity="7.5787231326103210e-02" nType="-99"/>
          </Node>
          <Node pos="r" depth="2" NCoef="0" IVar="-1" Cut="0.0000000000000000e+00" cType="1" res="2.9061714187264442e-02" rms="3.5933279991149902e-01" purity="3.5530510544776917e-01" nType="-99"/>
        </Node>
        <Node pos="r" depth="1" NCoef="0" IVar="9" Cut="1.7330545186996460e+00" cType="1" res="-1.6648088349029422e-03" rms="2.5566777586936951e-01" purity="5.9074980020523071e-01" nType="0">
          <Node pos="l" depth="2" NCoef="0" IVar="0" Cut="2.3649667968750000e+03" cType="1" res="-3.2354102586396039e-04" rms="2.5538200139999390e-01" purity="6.1141717433929443e-01" nType="0">
            <Node pos="l" depth="3" NCoef="0" IVar="-1" Cut="0.0000000000000000e+00" cType="1" res="-4.6694613993167877e-03" rms="3.0580827593803406e-01" purity="3.2542422413825989e-01" nType="-99"/>
            <Node pos="r" depth="3" NCoef="0" IVar="-1" Cut="0.0000000000000000e+00" cType="1" res="1.2749057263135910e-02" rms="1.7802532017230988e-01" purity="9.4981420040130615e-01" nType="-99"/>
          </Node>
          <Node pos="r" depth="2" NCoef="0" IVar="-1" Cut="0.0000000000000000e+00" cType="1" res="-3.3240176737308502e-02" rms="2.5923833250999451e-01" purity="2.6219233870506287e-01" nType="-99"/>
        </Node>
      </Node>
    </BinaryTree>
    <BinaryTree type="DecisionTree" boostWeight="1.0000000000000000e+00" itree="284">
      <Node pos="s" depth="0" NCoef="0" IVar="8" Cut="-3.9945104718208313e-01" cType="1" res="-1.4584899181500077e-03" rms="2.4783086776733398e-01" purity="4.9425598978996277e-01" nType="0">
        <Node pos="l" depth="1" NCoef="0" IVar="3" Cut="1.9535488891601562e+02" cType="1" res="-7.1820868179202080e-03" rms="2.4504999816417694e-01" purity="4.4034951925277710e-01" nType="0">
          <Node pos="l" depth="2" NCoef="0" IVar="-1" Cut="0.0000000000000000e+00" cType="1" res="2.9685910791158676e-02" rms="2.0323264598846436e-01" purity="6.3735842704772949e-02" nType="-99"/>
          <Node pos="r" depth="2" NCoef="0" IVar="3" Cut="3.1254504394531250e+02" cType="1" res="-9.2876888811588287e-03" rms="2.4948690831661224e-01" purity="4.8526790738105774e-01" nType="0">
            <Node pos="l" depth="3" NCoef="0" IVar="-1" Cut="0.0000000000000000e+00" cType="1" res="-2.3461349308490753e-02" rms="2.5142785906791687e-01" purity="2.4783092737197876e-01" nType="-99"/>
            <Node pos="r" depth="3" NCoef="0" IVar="-1" Cut="0.0000000000000000e+00" cType="1" res="-5.5069732479751110e-03" rms="2.4769712984561920e-01" purity="6.8506056070327759e-01" nType="-99"/>
          </Node>
        </Node>
        <Node pos="r" depth="1" NCoef="0" IVar="9" Cut="1.4665524959564209e+00" cType="1" res="1.7494999337941408e-03" rms="2.4931849539279938e-01" purity="5.2446973323822021e-01" nType="0">
          <Node pos="l" depth="2" NCoef="0" IVar="9" Cut="-1.7831257581710815e+00" cType="1" res="1.2099870218662545e-04" rms="2.4718388915061951e-01" purity="5.4635351896286011e-01" nType="0">
            <Node pos="l" depth="3" NCoef="0" IVar="-1" Cut="0.0000000000000000e+00" cType="1" res="3.0675789341330528e-02" rms="2.7254608273506165e-01" purity="3.0326151847839355e-01" nType="-99"/>
            <Node pos="r" depth="3" NCoef="0" IVar="-1" Cut="0.0000000000000000e+00" cType="1" res="-1.9887771923094988e-03" rms="2.4551229178905487e-01" purity="5.6097191572189331e-01" nType="-99"/>
          </Node>
          <Node pos="r" depth="2" NCoef="0" IVar="4" Cut="1.9402859497070312e+02" cType="1" res="1.6063153743743896e-02" rms="2.6692116260528564e-01" purity="3.3212301135063171e-01" nType="0">
            <Node pos="l" depth="3" NCoef="0" IVar="-1" Cut="0.0000000000000000e+00" cType="1" res="-2.4479918181896210e-02" rms="2.0959849655628204e-01" purity="9.9733926355838776e-02" nType="-99"/>
            <Node pos="r" depth="3" NCoef="0" IVar="-1" Cut="0.0000000000000000e+00" cType="1" res="4.3063651770353317e-02" rms="3.0596303939819336e-01" purity="5.3261750936508179e-01" nType="-99"/>
          </Node>
        </Node>
      </Node>
    </BinaryTree>
    <BinaryTree type="DecisionTree" boostWeight="1.0000000000000000e+00" itree="285">
      <Node pos="s" depth="0" NCoef="0" IVar="9" Cut="-1.4659042358398438e+00" cType="1" res="-2.1655159071087837e-03" rms="2.4515131115913391e-01" purity="4.9863442778587341e-01" nType="0">
        <Node pos="l" depth="1" NCoef="0" IVar="7" Cut="4.1152977943420410e-01" cType="1" res="-2.0357668399810791e-02" rms="2.6863613724708557e-01" purity="3.0727270245552063e-01" nType="0">
          <Node pos="l" depth="2" NCoef="0" IVar="1" Cut="3.9490107446908951e-02" cType="1" res="-3.0389107763767242e-02" rms="2.6955449581146240e-01" purity="3.1450673937797546e-01" nType="0">
            <Node pos="l" depth="3" NCoef="0" IVar="-1" Cut="0.0000000000000000e+00" cType="1" res="-1.1984055861830711e-02" rms="2.0048819482326508e-01" purity="8.8964611291885376e-02" nType="-99"/>
            <Node pos="r" depth="3" NCoef="0" IVar="-1" Cut="0.0000000000000000e+00" cType="1" res="-4.8552945256233215e-02" rms="3.1135323643684387e-01" purity="4.8912972211837769e-01" nType="-99"/>
          </Node>
          <Node pos="r" depth="2" NCoef="0" IVar="-1" Cut="0.0000000000000000e+00" cType="1" res="7.3354844935238361e-03" rms="2.6455950736999512e-01" purity="2.8881040215492249e-01" nType="-99"/>
        </Node>
        <Node pos="r" depth="1" NCoef="0" IVar="5" Cut="1.1392766571044922e+02" cType="1" res="-2.5999257923103869e-04" rms="2.4248093366622925e-01" purity="5.1867848634719849e-01" nType="0">
          <Node pos="l" depth="2" NCoef="0" IVar="1" Cut="3.7310451269149780e-02" cType="1" res="-8.9360205456614494e-03" rms="2.0014096796512604e-01" purity="8.6036399006843567e-02" nType="0">
            <Node pos="l" depth="3" NCoef="0" IVar="-1" Cut="0.0000000000000000e+00" cType="1" res="-5.2065745694562793e-04" rms="1.6557909548282623e-01" purity="5.0867583602666855e-02" nType="-99"/>
            <Node pos="r" depth="3" NCoef="0" IVar="-1" Cut="0.0000000000000000e+00" cType="1" res="-3.1805016100406647e-02" rms="2.4070648849010468e-01" purity="1.3654519617557526e-01" nType="-99"/>
          </Node>
          <Node pos="r" depth="2" NCoef="0" IVar="6" Cut="4.8877745866775513e-01" cType="1" res="2.2475351579487324e-03" rms="2.5334823131561279e-01" purity="6.4371979236602783e-01" nType="0">
            <Node pos="l" depth="3" NCoef="0" IVar="-1" Cut="0.0000000000000000e+00" cType="1" res="-3.7319454713724554e-04" rms="2.4805653095245361e-01" purity="6.8424510955810547e-01" nType="-99"/>
            <Node pos="r" depth="3" NCoef="0" IVar="-1" Cut="0.0000000000000000e+00" cType="1" res="1.2791444547474384e-02" rms="2.6744025945663452e-01" purity="5.3062427043914795e-01" nType="-99"/>
          </Node>
        </Node>
      </Node>
    </BinaryTree>
    <BinaryTree type="DecisionTree" boostWeight="1.0000000000000000e+00" itree="286">
      <Node pos="s" depth="0" NCoef="0" IVar="9" Cut="-1.4657335281372070e+00" cType="1" res="2.3049439769238234e-03" rms="2.4659615755081177e-01" purity="5.0279134511947632e-01" nType="0">
        <Node pos="l" depth="1" NCoef="0" IVar="7" Cut="-6.6628205776214600e-01" cType="1" res="1.4926289208233356e-02" rms="2.7322125434875488e-01" purity="3.3992087841033936e-01" nType="0">
          <Node pos="l" depth="2" NCoef="0" IVar="-1" Cut="0.0000000000000000e+00" cType="1" res="-1.8023611977696419e-02" rms="2.3582959175109863e-01" purity="2.2215360403060913e-01" nType="-99"/>
          <Node pos="r" depth="2" NCoef="0" IVar="0" Cut="1.8447434082031250e+03" cType="1" res="2.8937431052327156e-02" rms="2.9039222002029419e-01" purity="4.0327098965644836e-01" nType="0">
            <Node pos="l" depth="3" NCoef="0" IVar="-1" Cut="0.0000000000000000e+00" cType="1" res="2.8342496603727341e-02" rms="2.6448312401771545e-01" purity="1.0202769935131073e-01" nType="-99"/>
            <Node pos="r" depth="3" NCoef="0" IVar="-1" Cut="0.0000000000000000e+00" cType="1" res="3.8169123232364655e-02" rms="3.1414496898651123e-01" purity="7.1037530899047852e-01" nType="-99"/>
          </Node>
        </Node>
        <Node pos="r" depth="1" NCoef="0" IVar="8" Cut="-1.7329998016357422e+00" cType="1" res="9.6653593936935067e-04" rms="2.4356380105018616e-01" purity="5.2006268501281738e-01" nType="0">
          <Node pos="l" depth="2" NCoef="0" IVar="-1" Cut="0.0000000000000000e+00" cType="1" res="-2.8883757069706917e-02" rms="2.2731134295463562e-01" purity="1.4739887416362762e-01" nType="-99"/>
          <Node pos="r" depth="2" NCoef="0" IVar="1" Cut="1.2012117356061935e-01" cType="1" res="1.8155856523662806e-03" rms="2.4431724846363068e-01" purity="5.3870022296905518e-01" nType="0">
            <Node pos="l" depth="3" NCoef="0" IVar="-1" Cut="0.0000000000000000e+00" cType="1" res="-5.0961849046871066e-04" rms="2.5411200523376465e-01" purity="4.1742426156997681e-01" nType="-99"/>
            <Node pos="r" depth="3" NCoef="0" IVar="-1" Cut="0.0000000000000000e+00" cType="1" res="1.5178174711763859e-02" rms="2.1694451570510864e-01" purity="8.5128337144851685e-01" nType="-99"/>
          </Node>
        </Node>
      </Node>
    </BinaryTree>
    <BinaryTree type="DecisionTree" boostWeight="1.0000000000000000e+00" itree="287">
      <Node pos="s" depth="0" NCoef="0" IVar="0" Cut="2.1988249511718750e+03" cType="1" res="1.1199035216122866e-03" rms="2.4918910861015320e-01" purity="4.9948301911354065e-01" nType="0">
        <Node pos="l" depth="1" NCoef="0" IVar="0" Cut="2.0846035156250000e+03" cType="1" res="3.9731008000671864e-03" rms="2.6944005489349365e-01" purity="1.8649628758430481e-01" nType="0">
          <Node pos="l" depth="2" NCoef="0" IVar="4" Cut="2.4618101501464844e+02" cType="1" res="1.4192251255735755e-03" rms="2.5909078121185303e-01" purity="1.4060862362384796e-01" nType="0">
            <Node pos="l" depth="3" NCoef="0" IVar="-1" Cut="0.0000000000000000e+00" cType="1" res="6.3230944797396660e-03" rms="2.4558401107788086e-01" purity="1.2056518346071243e-01" nType="-99"/>
            <Node pos="r" depth="3" NCoef="0" IVar="-1" Cut="0.0000000000000000e+00" cType="1" res="-1.3712855987250805e-02" rms="3.4569394588470459e-01" purity="2.9578411579132080e-01" nType="-99"/>
          </Node>
          <Node pos="r" depth="2" NCoef="0" IVar="-1" Cut="0.0000000000000000e+00" cType="1" res="2.3684235289692879e-02" rms="3.6042609810829163e-01" purity="6.7402523756027222e-01" nType="-99"/>
        </Node>
        <Node pos="r" depth="1" NCoef="0" IVar="4" Cut="2.3722004699707031e+02" cType="1" res="-2.5969978887587786e-03" rms="2.1997438371181488e-01" purity="9.0721541643142700e-01" nType="0">
          <Node pos="l" depth="2" NCoef="0" IVar="8" Cut="6.6518557071685791e-01" cType="1" res="-1.2568374164402485e-02" rms="3.0378845334053040e-01" purity="7.8318196535110474e-01" nType="0">
            <Node pos="l" depth="3" NCoef="0" IVar="-1" Cut="0.0000000000000000e+00" cType="1" res="-2.5796985253691673e-02" rms="3.0249246954917908e-01" purity="7.7887779474258423e-01" nType="-99"/>
            <Node pos="r" depth="3" NCoef="0" IVar="-1" Cut="0.0000000000000000e+00" cType="1" res="1.2963593937456608e-02" rms="3.0584377050399780e-01" purity="7.9436314105987549e-01" nType="-99"/>
          </Node>
          <Node pos="r" depth="2" NCoef="0" IVar="1" Cut="1.0653936117887497e-01" cType="1" res="6.4729953010100871e-05" rms="1.9140775501728058e-01" purity="9.4032448530197144e-01" nType="0">
            <Node pos="l" depth="3" NCoef="0" IVar="-1" Cut="0.0000000000000000e+00" cType="1" res="-6.9237407296895981e-03" rms="2.4778111279010773e-01" purity="8.9231455326080322e-01" nType="-99"/>
            <Node pos="r" depth="3" NCoef="0" IVar="-1" Cut="0.0000000000000000e+00" cType="1" res="2.3597212508320808e-02" rms="1.1631985753774643e-01" purity="9.8506611585617065e-01" nType="-99"/>
          </Node>
        </Node>
      </Node>
    </BinaryTree>
    <BinaryTree type="DecisionTree" boostWeight="1.0000000000000000e+00" itree="288">
      <Node pos="s" depth="0" NCoef="0" IVar="0" Cut="2.1418613281250000e+03" cType="1" res="1.2548302765935659e-03" rms="2.4547770619392395e-01" purity="5.0207650661468506e-01" nType="0">
        <Node pos="l" depth="1" NCoef="0" IVar="0" Cut="2.0004812011718750e+03" cType="1" res="5.2476031705737114e-03" rms="2.6298296451568604e-01" purity="1.6444759070873260e-01" nType="0">
          <Node pos="l" depth="2" NCoef="0" IVar="3" Cut="3.7129406738281250e+02" cType="1" res="2.4013905785977840e-03" rms="2.4828431010246277e-01" purity="1.1381442099809647e-01" nType="0">
            <Node pos="l" depth="3" NCoef="0" IVar="-1" Cut="0.0000000000000000e+00" cType="1" res="7.0944712497293949e-03" rms="2.4544882774353027e-01" purity="1.1328405141830444e-01" nType="-99"/>
            <Node pos="r" depth="3" NCoef="0" IVar="-1" Cut="0.0000000000000000e+00" cType="1" res="-2.4633735418319702e-02" rms="2.7940914034843445e-01" purity="1.2025839835405350e-01" nType="-99"/>
          </Node>
          <Node pos="r" depth="2" NCoef="0" IVar="7" Cut="-1.5859606862068176e-01" cType="1" res="2.7940459549427032e-02" rms="3.5846501588821411e-01" purity="5.6814599037170410e-01" nType="0">
            <Node pos="l" depth="3" NCoef="0" IVar="-1" Cut="0.0000000000000000e+00" cType="1" res="-2.7599928434938192e-03" rms="3.3369234204292297e-01" purity="5.0978106260299683e-01" nType="-99"/>
            <Node pos="r" depth="3" NCoef="0" IVar="-1" Cut="0.0000000000000000e+00" cType="1" res="3.8295075297355652e-02" rms="3.7526759505271912e-01" purity="6.1510580778121948e-01" nType="-99"/>
          </Node>
        </Node>
        <Node pos="r" depth="1" NCoef="0" IVar="1" Cut="2.1277295425534248e-02" cType="1" res="-3.4332477953284979e-03" rms="2.2308716177940369e-01" purity="8.9850044250488281e-01" nType="0">
          <Node pos="l" depth="2" NCoef="0" IVar="-1" Cut="0.0000000000000000e+00" cType="1" res="-2.2980200126767159e-02" rms="3.2507359981536865e-01" purity="4.7124066948890686e-01" nType="-99"/>
          <Node pos="r" depth="2" NCoef="0" IVar="6" Cut="-8.5147780179977417e-01" cType="1" res="-1.8461799481883645e-03" rms="2.1444867551326752e-01" purity="9.2707979679107666e-01" nType="0">
            <Node pos="l" depth="3" NCoef="0" IVar="-1" Cut="0.0000000000000000e+00" cType="1" res="1.9332505762577057e-02" rms="2.6280304789543152e-01" purity="8.7256532907485962e-01" nType="-99"/>
            <Node pos="r" depth="3" NCoef="0" IVar="-1" Cut="0.0000000000000000e+00" cType="1" res="-7.5489603914320469e-03" rms="2.0985670387744904e-01" purity="9.3161910772323608e-01" nType="-99"/>
          </Node>
        </Node>
      </Node>
    </BinaryTree>
    <BinaryTree type="DecisionTree" boostWeight="1.0000000000000000e+00" itree="289">
      <Node pos="s" depth="0" NCoef="0" IVar="9" Cut="-1.9990600347518921e+00" cType="1" res="1.5853389631956816e-03" rms="2.4651582539081573e-01" purity="5.0600868463516235e-01" nType="0">
        <Node pos="l" depth="1" NCoef="0" IVar="-1" Cut="0.0000000000000000e+00" cType="1" res="3.5681985318660736e-02" rms="2.6694631576538086e-01" purity="2.2344805300235748e-01" nType="-99"/>
        <Node pos="r" depth="1" NCoef="0" IVar="1" Cut="2.1154498681426048e-02" cType="1" res="8.2892755744978786e-04" rms="2.4572946131229401e-01" purity="5.1598298549652100e-01" nType="0">
          <Node pos="l" depth="2" NCoef="0" IVar="5" Cut="1.5905804443359375e+02" cType="1" res="8.2966731861233711e-03" rms="1.8951126933097839e-01" purity="1.1402816325426102e-01" nType="0">
            <Node pos="l" depth="3" NCoef="0" IVar="-1" Cut="0.0000000000000000e+00" cType="1" res="5.1903701387345791e-03" rms="1.5773481130599976e-01" purity="4.8431117087602615e-02" nType="-99"/>
            <Node pos="r" depth="3" NCoef="0" IVar="-1" Cut="0.0000000000000000e+00" cType="1" res="4.3651126325130463e-02" rms="2.8775230050086975e-01" purity="3.9924854040145874e-01" nType="-99"/>
          </Node>
          <Node pos="r" depth="2" NCoef="0" IVar="6" Cut="1.1018778085708618e+00" cType="1" res="-7.1530451532453299e-04" rms="2.5579053163528442e-01" purity="5.9910196065902710e-01" nType="0">
            <Node pos="l" depth="3" NCoef="0" IVar="-1" Cut="0.0000000000000000e+00" cType="1" res="4.1241259896196425e-04" rms="2.5520944595336914e-01" purity="6.2245506048202515e-01" nType="-99"/>
            <Node pos="r" depth="3" NCoef="0" IVar="-1" Cut="0.0000000000000000e+00" cType="1" res="-2.0959451794624329e-02" rms="2.6350229978561401e-01" purity="2.6737645268440247e-01" nType="-99"/>
          </Node>
        </Node>
      </Node>
    </BinaryTree>
    <BinaryTree type="DecisionTree" boostWeight="1.0000000000000000e+00" itree="290">
      <Node pos="s" depth="0" NCoef="0" IVar="6" Cut="-7.9110646247863770e-01" cType="1" res="1.4772091526538134e-03" rms="2.4667695164680481e-01" purity="4.9778860807418823e-01" nType="0">
        <Node pos="l" depth="1" NCoef="0" IVar="7" Cut="-1.2439872324466705e-01" cType="1" res="-6.5722553990781307e-03" rms="2.4684239923954010e-01" purity="2.7453556656837463e-01" nType="0">
          <Node pos="l" depth="2" NCoef="0" IVar="6" Cut="-1.1294074058532715e+00" cType="1" res="6.4664110541343689e-03" rms="2.4590671062469482e-01" purity="3.0120441317558289e-01" nType="0">
            <Node pos="l" depth="3" NCoef="0" IVar="-1" Cut="0.0000000000000000e+00" cType="1" res="-1.2051702477037907e-02" rms="2.2522005438804626e-01" purity="1.6275353729724884e-01" nType="-99"/>
            <Node pos="r" depth="3" NCoef="0" IVar="-1" Cut="0.0000000000000000e+00" cType="1" res="3.1481742858886719e-02" rms="2.6847440004348755e-01" purity="4.7258022427558899e-01" nType="-99"/>
          </Node>
          <Node pos="r" depth="2" NCoef="0" IVar="6" Cut="-1.3882812261581421e+00" cType="1" res="-1.7769632861018181e-02" rms="2.4709458649158478e-01" purity="2.5163280963897705e-01" nType="0">
            <Node pos="l" depth="3" NCoef="0" IVar="-1" Cut="0.0000000000000000e+00" cType="1" res="9.9701508879661560e-03" rms="1.9335986673831940e-01" purity="7.8829370439052582e-02" nType="-99"/>
            <Node pos="r" depth="3" NCoef="0" IVar="-1" Cut="0.0000000000000000e+00" cType="1" res="-3.7513349205255508e-02" rms="2.7120065689086914e-01" purity="3.4565415978431702e-01" nType="-99"/>
          </Node>
        </Node>
        <Node pos="r" depth="1" NCoef="0" IVar="9" Cut="1.7330646514892578e+00" cType="1" res="3.0532218515872955e-03" rms="2.4661380052566528e-01" purity="5.4149955511093140e-01" nType="0">
          <Node pos="l" depth="2" NCoef="0" IVar="8" Cut="-4.0022727847099304e-01" cType="1" res="4.0235561318695545e-03" rms="2.4630509316921234e-01" purity="5.6033837795257568e-01" nType="0">
            <Node pos="l" depth="3" NCoef="0" IVar="-1" Cut="0.0000000000000000e+00" cType="1" res="1.4330736361443996e-02" rms="2.4920497834682465e-01" purity="5.0850850343704224e-01" nType="-99"/>
            <Node pos="r" depth="3" NCoef="0" IVar="-1" Cut="0.0000000000000000e+00" cType="1" res="2.0483061671257019e-03" rms="2.4468955397605896e-01" purity="5.8816844224929810e-01" nType="-99"/>
          </Node>
          <Node pos="r" depth="2" NCoef="0" IVar="1" Cut="4.4563457369804382e-02" cType="1" res="-1.1510209180414677e-02" rms="2.5075075030326843e-01" purity="2.5875410437583923e-01" nType="0">
            <Node pos="l" depth="3" NCoef="0" IVar="-1" Cut="0.0000000000000000e+00" cType="1" res="-2.6951509062200785e-03" rms="1.9748307764530182e-01" purity="1.0233324766159058e-01" nType="-99"/>
            <Node pos="r" depth="3" NCoef="0" IVar="-1" Cut="0.0000000000000000e+00" cType="1" res="-2.2374305874109268e-02" rms="2.9268422722816467e-01" purity="4.0938052535057068e-01" nType="-99"/>
          </Node>
        </Node>
      </Node>
    </BinaryTree>
    <BinaryTree type="DecisionTree" boostWeight="1.0000000000000000e+00" itree="291">
      <Node pos="s" depth="0" NCoef="0" IVar="1" Cut="1.9106325507164001e-01" cType="1" res="-1.9716625101864338e-03" rms="2.4596112966537476e-01" purity="5.0483721494674683e-01" nType="0">
        <Node pos="l" depth="1" NCoef="0" IVar="0" Cut="1.6443947753906250e+03" cType="1" res="-3.3620055764913559e-03" rms="2.5075244903564453e-01" purity="4.6384227275848389e-01" nType="0">
          <Node pos="l" depth="2" NCoef="0" IVar="1" Cut="7.2861529886722565e-02" cType="1" res="3.6612260155379772e-03" rms="1.6857589781284332e-01" purity="3.4707933664321899e-02" nType="0">
            <Node pos="l" depth="3" NCoef="0" IVar="-1" Cut="0.0000000000000000e+00" cType="1" res="-1.2936241924762726e-02" rms="1.2467020004987717e-01" purity="1.7200244590640068e-02" nType="-99"/>
            <Node pos="r" depth="3" NCoef="0" IVar="-1" Cut="0.0000000000000000e+00" cType="1" res="4.2329769581556320e-02" rms="2.7910414338111877e-01" purity="1.0292778164148331e-01" nType="-99"/>
          </Node>
          <Node pos="r" depth="2" NCoef="0" IVar="9" Cut="-1.1993613243103027e+00" cType="1" res="-6.1996146105229855e-03" rms="2.7707639336585999e-01" purity="6.3722622394561768e-01" nType="0">
            <Node pos="l" depth="3" NCoef="0" IVar="-1" Cut="0.0000000000000000e+00" cType="1" res="-2.0900975912809372e-02" rms="3.0150645971298218e-01" purity="5.0239574909210205e-01" nType="-99"/>
            <Node pos="r" depth="3" NCoef="0" IVar="-1" Cut="0.0000000000000000e+00" cType="1" res="-5.1385122351348400e-03" rms="2.7283796668052673e-01" purity="6.5907561779022217e-01" nType="-99"/>
          </Node>
        </Node>
        <Node pos="r" depth="1" NCoef="0" IVar="-1" Cut="0.0000000000000000e+00" cType="1" res="2.8061272576451302e-02" rms="1.9186043739318848e-01" purity="9.0927720069885254e-01" nType="-99"/>
      </Node>
    </BinaryTree>
    <BinaryTree type="DecisionTree" boostWeight="1.0000000000000000e+00" itree="292">
      <Node pos="s" depth="0" NCoef="0" IVar="8" Cut="1.7325356006622314e+00" cType="1" res="-5.1901439292123541e-05" rms="2.4581971764564514e-01" purity="4.9656060338020325e-01" nType="0">
        <Node pos="l" depth="1" NCoef="0" IVar="8" Cut="1.3005201816558838e+00" cType="1" res="-7.3659105692058802e-04" rms="2.4522885680198669e-01" purity="5.1094847917556763e-01" nType="0">
          <Node pos="l" depth="2" NCoef="0" IVar="9" Cut="9.3331712484359741e-01" cType="1" res="1.7721793847158551e-04" rms="2.4411092698574066e-01" purity="5.1865005493164062e-01" nType="0">
            <Node pos="l" depth="3" NCoef="0" IVar="-1" Cut="0.0000000000000000e+00" cType="1" res="-2.6658964343369007e-03" rms="2.4043722450733185e-01" purity="5.3529852628707886e-01" nType="-99"/>
            <Node pos="r" depth="3" NCoef="0" IVar="-1" Cut="0.0000000000000000e+00" cType="1" res="1.0959700681269169e-02" rms="2.5874403119087219e-01" purity="4.4919332861900330e-01" nType="-99"/>
          </Node>
          <Node pos="r" depth="2" NCoef="0" IVar="-1" Cut="0.0000000000000000e+00" cType="1" res="-2.2066004574298859e-02" rms="2.6391416788101196e-01" purity="3.7303367257118225e-01" nType="-99"/>
        </Node>
        <Node pos="r" depth="1" NCoef="0" IVar="-1" Cut="0.0000000000000000e+00" cType="1" res="2.4229722097516060e-02" rms="2.5757762789726257e-01" purity="1.9214516878128052e-01" nType="-99"/>
      </Node>
    </BinaryTree>
    <BinaryTree type="DecisionTree" boostWeight="1.0000000000000000e+00" itree="293">
      <Node pos="s" depth="0" NCoef="0" IVar="8" Cut="-1.1991020441055298e+00" cType="1" res="3.3877859823405743e-03" rms="2.4736669659614563e-01" purity="5.0249570608139038e-01" nType="0">
        <Node pos="l" depth="1" NCoef="0" IVar="1" Cut="5.6986652314662933e-02" cType="1" res="1.2841565534472466e-02" rms="2.6888367533683777e-01" purity="3.2490205764770508e-01" nType="0">
          <Node pos="l" depth="2" NCoef="0" IVar="9" Cut="-4.0261292457580566e-01" cType="1" res="2.7665745001286268e-03" rms="2.2876490652561188e-01" purity="1.5109409391880035e-01" nType="0">
            <Node pos="l" depth="3" NCoef="0" IVar="-1" Cut="0.0000000000000000e+00" cType="1" res="2.8246033936738968e-02" rms="2.4283801019191742e-01" purity="1.7623688280582428e-01" nType="-99"/>
            <Node pos="r" depth="3" NCoef="0" IVar="-1" Cut="0.0000000000000000e+00" cType="1" res="-1.4002903364598751e-02" rms="2.1662425994873047e-01" purity="1.3140052556991577e-01" nType="-99"/>
          </Node>
          <Node pos="r" depth="2" NCoef="0" IVar="-1" Cut="0.0000000000000000e+00" cType="1" res="2.8288433328270912e-02" rms="3.1662416458129883e-01" purity="5.7127314805984497e-01" nType="-99"/>
        </Node>
        <Node pos="r" depth="1" NCoef="0" IVar="9" Cut="-1.4654988050460815e+00" cType="1" res="2.0752046257257462e-03" rms="2.4420046806335449e-01" purity="5.2715313434600830e-01" nType="0">
          <Node pos="l" depth="2" NCoef="0" IVar="9" Cut="-1.7830538749694824e+00" cType="1" res="-9.4637218862771988e-03" rms="2.6172000169754028e-01" purity="3.4507665038108826e-01" nType="0">
            <Node pos="l" depth="3" NCoef="0" IVar="-1" Cut="0.0000000000000000e+00" cType="1" res="1.1072568595409393e-02" rms="2.6058444380760193e-01" purity="2.8652808070182800e-01" nType="-99"/>
            <Node pos="r" depth="3" NCoef="0" IVar="-1" Cut="0.0000000000000000e+00" cType="1" res="-3.5625595599412918e-02" rms="2.6155850291252136e-01" purity="4.1210514307022095e-01" nType="-99"/>
          </Node>
          <Node pos="r" depth="2" NCoef="0" IVar="1" Cut="1.4005671441555023e-01" cType="1" res="3.2901037484407425e-03" rms="2.4225021898746490e-01" purity="5.4632347822189331e-01" nType="0">
            <Node pos="l" depth="3" NCoef="0" IVar="-1" Cut="0.0000000000000000e+00" cType="1" res="8.5589298978447914e-03" rms="2.5029379129409790e-01" purity="4.5684701204299927e-01" nType="-99"/>
            <Node pos="r" depth="3" NCoef="0" IVar="-1" Cut="0.0000000000000000e+00" cType="1" res="-1.0062551125884056e-02" rms="2.1138083934783936e-01" purity="8.6080193519592285e-01" nType="-99"/>
          </Node>
        </Node>
      </Node>
    </BinaryTree>
    <BinaryTree type="DecisionTree" boostWeight="1.0000000000000000e+00" itree="294">
      <Node pos="s" depth="0" NCoef="0" IVar="3" Cut="3.4372229003906250e+02" cType="1" res="1.7374643357470632e-03" rms="2.4812392890453339e-01" purity="5.0525289773941040e-01" nType="0">
        <Node pos="l" depth="1" NCoef="0" IVar="0" Cut="1.5987694091796875e+03" cType="1" res="6.4676790498197079e-03" rms="2.5938233733177185e-01" purity="3.0385756492614746e-01" nType="0">
          <Node pos="l" depth="2" NCoef="0" IVar="1" Cut="9.2320822179317474e-02" cType="1" res="-1.4023932162672281e-03" rms="1.6133338212966919e-01" purity="2.9566805809736252e-02" nType="0">
            <Node pos="l" depth="3" NCoef="0" IVar="-1" Cut="0.0000000000000000e+00" cType="1" res="1.1933465488255024e-02" rms="1.4375936985015869e-01" purity="2.3400504142045975e-02" nType="-99"/>
            <Node pos="r" depth="3" NCoef="0" IVar="-1" Cut="0.0000000000000000e+00" cType="1" res="-2.8936102986335754e-02" rms="2.2775983810424805e-01" purity="5.9754136949777603e-02" nType="-99"/>
          </Node>
          <Node pos="r" depth="2" NCoef="0" IVar="9" Cut="-1.7330026626586914e+00" cType="1" res="1.1425041593611240e-02" rms="3.0528590083122253e-01" purity="4.7663345932960510e-01" nType="0">
            <Node pos="l" depth="3" NCoef="0" IVar="-1" Cut="0.0000000000000000e+00" cType="1" res="-2.3040479049086571e-02" rms="2.8140127658843994e-01" purity="2.3482644557952881e-01" nType="-99"/>
            <Node pos="r" depth="3" NCoef="0" IVar="-1" Cut="0.0000000000000000e+00" cType="1" res="1.5087239444255829e-02" rms="3.0694848299026489e-01" purity="4.9572470784187317e-01" nType="-99"/>
          </Node>
        </Node>
        <Node pos="r" depth="1" NCoef="0" IVar="8" Cut="-1.1914185285568237e+00" cType="1" res="-4.5184609480202198e-03" rms="2.3225010931491852e-01" purity="7.7160745859146118e-01" nType="0">
          <Node pos="l" depth="2" NCoef="0" IVar="-1" Cut="0.0000000000000000e+00" cType="1" res="-4.1729576885700226e-02" rms="2.8116559982299805e-01" purity="5.1905143260955811e-01" nType="-99"/>
          <Node pos="r" depth="2" NCoef="0" IVar="9" Cut="-9.3242126703262329e-01" cType="1" res="-2.0709107629954815e-03" rms="2.2763088345527649e-01" purity="7.9216998815536499e-01" nType="0">
            <Node pos="l" depth="3" NCoef="0" IVar="-1" Cut="0.0000000000000000e+00" cType="1" res="1.8207931891083717e-02" rms="2.4058467149734497e-01" purity="7.4120247364044189e-01" nType="-99"/>
            <Node pos="r" depth="3" NCoef="0" IVar="-1" Cut="0.0000000000000000e+00" cType="1" res="-1.0163618251681328e-02" rms="2.2463497519493103e-01" purity="8.0308198928833008e-01" nType="-99"/>
          </Node>
        </Node>
      </Node>
    </BinaryTree>
    <BinaryTree type="DecisionTree" boostWeight="1.0000000000000000e+00" itree="295">
      <Node pos="s" depth="0" NCoef="0" IVar="6" Cut="4.7251811623573303e-01" cType="1" res="-2.1539930457947776e-05" rms="2.4382857978343964e-01" purity="5.0186842679977417e-01" nType="0">
        <Node pos="l" depth="1" NCoef="0" IVar="7" Cut="3.9996671676635742e-01" cType="1" res="2.7414481155574322e-03" rms="2.4577783048152924e-01" purity="5.5053621530532837e-01" nType="0">
          <Node pos="l" depth="2" NCoef="0" IVar="7" Cut="2.4762135744094849e-01" cType="1" res="-2.0425998081918806e-04" rms="2.4445596337318420e-01" purity="5.8762228488922119e-01" nType="0">
            <Node pos="l" depth="3" NCoef="0" IVar="-1" Cut="0.0000000000000000e+00" cType="1" res="2.6936552021652460e-03" rms="2.4533553421497345e-01" purity="5.8259153366088867e-01" nType="-99"/>
            <Node pos="r" depth="3" NCoef="0" IVar="-1" Cut="0.0000000000000000e+00" cType="1" res="-3.0082242563366890e-02" rms="2.3461529612541199e-01" purity="6.3803780078887939e-01" nType="-99"/>
          </Node>
          <Node pos="r" depth="2" NCoef="0" IVar="6" Cut="-8.5620284080505371e-01" cType="1" res="8.8066682219505310e-03" rms="2.4836741387844086e-01" purity="4.7417595982551575e-01" nType="0">
            <Node pos="l" depth="3" NCoef="0" IVar="-1" Cut="0.0000000000000000e+00" cType="1" res="-1.6083927825093269e-02" rms="2.0485302805900574e-01" purity="1.5539503097534180e-01" nType="-99"/>
            <Node pos="r" depth="3" NCoef="0" IVar="-1" Cut="0.0000000000000000e+00" cType="1" res="2.0115744322538376e-02" rms="2.5955083966255188e-01" purity="5.6770384311676025e-01" nType="-99"/>
          </Node>
        </Node>
        <Node pos="r" depth="1" NCoef="0" IVar="1" Cut="7.0426546037197113e-02" cType="1" res="-7.1439980529248714e-03" rms="2.3858290910720825e-01" purity="3.7641215324401855e-01" nType="0">
          <Node pos="l" depth="2" NCoef="0" IVar="4" Cut="1.9036607360839844e+02" cType="1" res="-4.3713892227970064e-04" rms="2.2613073885440826e-01" purity="2.1547529101371765e-01" nType="0">
            <Node pos="l" depth="3" NCoef="0" IVar="-1" Cut="0.0000000000000000e+00" cType="1" res="-2.5373004376888275e-02" rms="1.6719268262386322e-01" purity="5.5926591157913208e-02" nType="-99"/>
            <Node pos="r" depth="3" NCoef="0" IVar="-1" Cut="0.0000000000000000e+00" cType="1" res="1.0945839807391167e-02" rms="2.7817314863204956e-01" purity="3.9719134569168091e-01" nType="-99"/>
          </Node>
          <Node pos="r" depth="2" NCoef="0" IVar="0" Cut="2.1332453613281250e+03" cType="1" res="-1.8837805837392807e-02" rms="2.5844937562942505e-01" purity="6.5701520442962646e-01" nType="0">
            <Node pos="l" depth="3" NCoef="0" IVar="-1" Cut="0.0000000000000000e+00" cType="1" res="-3.4447781741619110e-02" rms="3.3384886384010315e-01" purity="2.6372206211090088e-01" nType="-99"/>
            <Node pos="r" depth="3" NCoef="0" IVar="-1" Cut="0.0000000000000000e+00" cType="1" res="8.7349727982655168e-04" rms="1.7772765457630157e-01" purity="9.5967727899551392e-01" nType="-99"/>
          </Node>
        </Node>
      </Node>
    </BinaryTree>
    <BinaryTree type="DecisionTree" boostWeight="1.0000000000000000e+00" itree="296">
      <Node pos="s" depth="0" NCoef="0" IVar="8" Cut="-4.0027663111686707e-01" cType="1" res="-2.5657904334366322e-03" rms="2.4683949351310730e-01" purity="5.0172358751296997e-01" nType="0">
        <Node pos="l" depth="1" NCoef="0" IVar="6" Cut="7.4918597936630249e-01" cType="1" res="5.2028275094926357e-03" rms="2.5417008996009827e-01" purity="4.6836405992507935e-01" nType="0">
          <Node pos="l" depth="2" NCoef="0" IVar="3" Cut="3.7472811889648438e+02" cType="1" res="2.0173005759716034e-03" rms="2.5544345378875732e-01" purity="5.1727890968322754e-01" nType="0">
            <Node pos="l" depth="3" NCoef="0" IVar="-1" Cut="0.0000000000000000e+00" cType="1" res="-4.3689673766493797e-03" rms="2.6912617683410645e-01" purity="3.5026115179061890e-01" nType="-99"/>
            <Node pos="r" depth="3" NCoef="0" IVar="-1" Cut="0.0000000000000000e+00" cType="1" res="2.0490437746047974e-02" rms="2.2679452598094940e-01" purity="8.3543163537979126e-01" nType="-99"/>
          </Node>
          <Node pos="r" depth="2" NCoef="0" IVar="9" Cut="-1.4036504924297333e-01" cType="1" res="1.9236639142036438e-02" rms="2.4799585342407227e-01" purity="2.5286993384361267e-01" nType="0">
            <Node pos="l" depth="3" NCoef="0" IVar="-1" Cut="0.0000000000000000e+00" cType="1" res="4.3841279111802578e-03" rms="2.3556847870349884e-01" purity="2.3696430027484894e-01" nType="-99"/>
            <Node pos="r" depth="3" NCoef="0" IVar="-1" Cut="0.0000000000000000e+00" cType="1" res="6.0692064464092255e-02" rms="2.5666108727455139e-01" purity="2.6552900671958923e-01" nType="-99"/>
          </Node>
        </Node>
        <Node pos="r" depth="1" NCoef="0" IVar="4" Cut="2.9449691772460938e+02" cType="1" res="-6.7468290217220783e-03" rms="2.4269968271255493e-01" purity="5.1967751979827881e-01" nType="0">
          <Node pos="l" depth="2" NCoef="0" IVar="7" Cut="1.1995071172714233e+00" cType="1" res="-1.0135550051927567e-02" rms="2.5943785905838013e-01" purity="3.5861539840698242e-01" nType="0">
            <Node pos="l" depth="3" NCoef="0" IVar="-1" Cut="0.0000000000000000e+00" cType="1" res="-1.7980242148041725e-02" rms="2.6234576106071472e-01" purity="3.8953682780265808e-01" nType="-99"/>
            <Node pos="r" depth="3" NCoef="0" IVar="-1" Cut="0.0000000000000000e+00" cType="1" res="1.6863716766238213e-02" rms="2.3994839191436768e-01" purity="1.6923663020133972e-01" nType="-99"/>
          </Node>
          <Node pos="r" depth="2" NCoef="0" IVar="8" Cut="8.1899017095565796e-01" cType="1" res="1.8464210443198681e-03" rms="1.9361509382724762e-01" purity="9.2810523509979248e-01" nType="0">
            <Node pos="l" depth="3" NCoef="0" IVar="-1" Cut="0.0000000000000000e+00" cType="1" res="1.6979316249489784e-02" rms="1.8178746104240417e-01" purity="9.4256907701492310e-01" nType="-99"/>
            <Node pos="r" depth="3" NCoef="0" IVar="-1" Cut="0.0000000000000000e+00" cType="1" res="-2.9865030199289322e-02" rms="2.3645755648612976e-01" purity="8.6696666479110718e-01" nType="-99"/>
          </Node>
        </Node>
      </Node>
    </BinaryTree>
    <BinaryTree type="DecisionTree" boostWeight="1.0000000000000000e+00" itree="297">
      <Node pos="s" depth="0" NCoef="0" IVar="0" Cut="2.1237272949218750e+03" cType="1" res="-1.5652453294023871e-03" rms="2.4972197413444519e-01" purity="5.0322407484054565e-01" nType="0">
        <Node pos="l" depth="1" NCoef="0" IVar="1" Cut="1.2408964335918427e-01" cType="1" res="2.7906484901905060e-03" rms="2.6521962881088257e-01" purity="1.6126590967178345e-01" nType="0">
          <Node pos="l" depth="2" NCoef="0" IVar="1" Cut="7.6849885284900665e-02" cType="1" res="-7.7545933891087770e-05" rms="2.4950571358203888e-01" purity="1.1719565093517303e-01" nType="0">
            <Node pos="l" depth="3" NCoef="0" IVar="-1" Cut="0.0000000000000000e+00" cType="1" res="6.8300389684736729e-03" rms="2.2463569045066833e-01" purity="8.6820155382156372e-02" nType="-99"/>
            <Node pos="r" depth="3" NCoef="0" IVar="-1" Cut="0.0000000000000000e+00" cType="1" res="-1.2887387536466122e-02" rms="3.4021767973899841e-01" purity="2.5582090020179749e-01" nType="-99"/>
          </Node>
          <Node pos="r" depth="2" NCoef="0" IVar="8" Cut="-1.2462295591831207e-01" cType="1" res="2.2390918806195259e-02" rms="3.5379955172538757e-01" purity="4.6242704987525940e-01" nType="0">
            <Node pos="l" depth="3" NCoef="0" IVar="-1" Cut="0.0000000000000000e+00" cType="1" res="3.1872089952230453e-02" rms="3.7073615193367004e-01" purity="5.0488483905792236e-01" nType="-99"/>
            <Node pos="r" depth="3" NCoef="0" IVar="-1" Cut="0.0000000000000000e+00" cType="1" res="3.1626054551452398e-03" rms="3.3864346146583557e-01" purity="4.2875337600708008e-01" nType="-99"/>
          </Node>
        </Node>
        <Node pos="r" depth="1" NCoef="0" IVar="5" Cut="1.1370928955078125e+02" cType="1" res="-6.4092604443430901e-03" rms="2.3117488622665405e-01" purity="8.8350206613540649e-01" nType="0">
          <Node pos="l" depth="2" NCoef="0" IVar="-1" Cut="0.0000000000000000e+00" cType="1" res="-3.3800080418586731e-02" rms="3.6890390515327454e-01" purity="4.6331238746643066e-01" nType="-99"/>
          <Node pos="r" depth="2" NCoef="0" IVar="6" Cut="2.0286266505718231e-01" cType="1" res="-4.1215387172996998e-03" rms="2.2043976187705994e-01" purity="9.0766102075576782e-01" nType="0">
            <Node pos="l" depth="3" NCoef="0" IVar="-1" Cut="0.0000000000000000e+00" cType="1" res="-2.1163595840334892e-02" rms="2.2345252335071564e-01" purity="9.0369462966918945e-01" nType="-99"/>
            <Node pos="r" depth="3" NCoef="0" IVar="-1" Cut="0.0000000000000000e+00" cType="1" res="1.1855922639369965e-02" rms="2.1460941433906555e-01" purity="9.1471892595291138e-01" nType="-99"/>
          </Node>
        </Node>
      </Node>
    </BinaryTree>
    <BinaryTree type="DecisionTree" boostWeight="1.0000000000000000e+00" itree="298">
      <Node pos="s" depth="0" NCoef="0" IVar="8" Cut="-1.3308921456336975e-01" cType="1" res="-9.7353133605793118e-04" rms="2.4792949855327606e-01" purity="5.0301158428192139e-01" nType="0">
        <Node pos="l" depth="1" NCoef="0" IVar="0" Cut="1.8945809326171875e+03" cType="1" res="-5.3180120885372162e-03" rms="2.4874466657638550e-01" purity="4.7480285167694092e-01" nType="0">
          <Node pos="l" depth="2" NCoef="0" IVar="6" Cut="2.4213390052318573e-01" cType="1" res="1.1692488333210349e-03" rms="2.2468107938766479e-01" purity="8.0186426639556885e-02" nType="0">
            <Node pos="l" depth="3" NCoef="0" IVar="-1" Cut="0.0000000000000000e+00" cType="1" res="1.2429076246917248e-02" rms="2.4141222238540649e-01" purity="9.5133684575557709e-02" nType="-99"/>
            <Node pos="r" depth="3" NCoef="0" IVar="-1" Cut="0.0000000000000000e+00" cType="1" res="-1.3995533809065819e-02" rms="2.0039623975753784e-01" purity="6.0603398829698563e-02" nType="-99"/>
          </Node>
          <Node pos="r" depth="2" NCoef="0" IVar="5" Cut="1.9712420654296875e+02" cType="1" res="-1.0691752657294273e-02" rms="2.6692140102386475e-01" purity="8.0168449878692627e-01" nType="0">
            <Node pos="l" depth="3" NCoef="0" IVar="-1" Cut="0.0000000000000000e+00" cType="1" res="-2.2291790693998337e-02" rms="3.3039826154708862e-01" purity="6.4131265878677368e-01" nType="-99"/>
            <Node pos="r" depth="3" NCoef="0" IVar="-1" Cut="0.0000000000000000e+00" cType="1" res="6.4396343077532947e-05" rms="1.9784344732761383e-01" purity="9.3641346693038940e-01" nType="-99"/>
          </Node>
        </Node>
        <Node pos="r" depth="1" NCoef="0" IVar="6" Cut="4.1663068532943726e-01" cType="1" res="2.6982596609741449e-03" rms="2.4717891216278076e-01" purity="5.2685254812240601e-01" nType="0">
          <Node pos="l" depth="2" NCoef="0" IVar="5" Cut="1.6253788757324219e+02" cType="1" res="-2.4672057406860404e-05" rms="2.4662017822265625e-01" purity="5.7306605577468872e-01" nType="0">
            <Node pos="l" depth="3" NCoef="0" IVar="-1" Cut="0.0000000000000000e+00" cType="1" res="-7.5122523121535778e-03" rms="2.6490676403045654e-01" purity="2.5557899475097656e-01" nType="-99"/>
            <Node pos="r" depth="3" NCoef="0" IVar="-1" Cut="0.0000000000000000e+00" cType="1" res="8.8093420490622520e-03" rms="2.2940523922443390e-01" purity="8.4955930709838867e-01" nType="-99"/>
          </Node>
          <Node pos="r" depth="2" NCoef="0" IVar="3" Cut="3.0647171020507812e+02" cType="1" res="8.6041884496808052e-03" rms="2.4828389286994934e-01" purity="4.2661738395690918e-01" nType="0">
            <Node pos="l" depth="3" NCoef="0" IVar="-1" Cut="0.0000000000000000e+00" cType="1" res="2.4485099129378796e-03" rms="2.3978962004184723e-01" purity="1.9916599988937378e-01" nType="-99"/>
            <Node pos="r" depth="3" NCoef="0" IVar="-1" Cut="0.0000000000000000e+00" cType="1" res="2.3338183760643005e-02" rms="2.5652626156806946e-01" purity="6.6089105606079102e-01" nType="-99"/>
          </Node>
        </Node>
      </Node>
    </BinaryTree>
    <BinaryTree type="DecisionTree" boostWeight="1.0000000000000000e+00" itree="299">
      <Node pos="s" depth="0" NCoef="0" IVar="8" Cut="-9.3350368738174438e-01" cType="1" res="-3.2546897418797016e-03" rms="2.4381630122661591e-01" purity="5.0052583217620850e-01" nType="0">
        <Node pos="l" depth="1" NCoef="0" IVar="1" Cut="7.6391614973545074e-02" cType="1" res="-1.3100017793476582e-02" rms="2.4959696829319000e-01" purity="3.3892920613288879e-01" nType="0">
          <Node pos="l" depth="2" NCoef="0" IVar="5" Cut="1.6802859497070312e+02" cType="1" res="-4.5413714833557606e-03" rms="2.3376792669296265e-01" purity="2.0404610037803650e-01" nType="0">
            <Node pos="l" depth="3" NCoef="0" IVar="-1" Cut="0.0000000000000000e+00" cType="1" res="-2.4677490815520287e-02" rms="2.0629952847957611e-01" purity="9.4984665513038635e-02" nType="-99"/>
            <Node pos="r" depth="3" NCoef="0" IVar="-1" Cut="0.0000000000000000e+00" cType="1" res="2.1063596010208130e-02" rms="3.0744764208793640e-01" purity="5.7144749164581299e-01" nType="-99"/>
          </Node>
          <Node pos="r" depth="2" NCoef="0" IVar="-1" Cut="0.0000000000000000e+00" cType="1" res="-3.6887552589178085e-02" rms="2.7840867638587952e-01" purity="6.1517560482025146e-01" nType="-99"/>
        </Node>
        <Node pos="r" depth="1" NCoef="0" IVar="9" Cut="-1.4657540321350098e+00" cType="1" res="-1.0026404634118080e-03" rms="2.4241845309734344e-01" purity="5.3748989105224609e-01" nType="0">
          <Node pos="l" depth="2" NCoef="0" IVar="1" Cut="5.2495975047349930e-02" cType="1" res="1.9427029415965080e-02" rms="2.7656009793281555e-01" purity="3.8674697279930115e-01" nType="0">
            <Node pos="l" depth="3" NCoef="0" IVar="-1" Cut="0.0000000000000000e+00" cType="1" res="2.0975037477910519e-03" rms="2.3154161870479584e-01" purity="1.4495845139026642e-01" nType="-99"/>
            <Node pos="r" depth="3" NCoef="0" IVar="-1" Cut="0.0000000000000000e+00" cType="1" res="3.6470416933298111e-02" rms="3.1223917007446289e-01" purity="6.1527585983276367e-01" nType="-99"/>
          </Node>
          <Node pos="r" depth="2" NCoef="0" IVar="1" Cut="2.0769765600562096e-02" cType="1" res="-2.9113760683685541e-03" rms="2.3889037966728210e-01" purity="5.5157381296157837e-01" nType="0">
            <Node pos="l" depth="3" NCoef="0" IVar="-1" Cut="0.0000000000000000e+00" cType="1" res="1.4433926902711391e-02" rms="1.8481706082820892e-01" purity="1.2746864557266235e-01" nType="-99"/>
            <Node pos="r" depth="3" NCoef="0" IVar="-1" Cut="0.0000000000000000e+00" cType="1" res="-7.1451100520789623e-03" rms="2.4797628819942474e-01" purity="6.3377702236175537e-01" nType="-99"/>
          </Node>
        </Node>
      </Node>
    </BinaryTree>
    <BinaryTree type="DecisionTree" boostWeight="1.0000000000000000e+00" itree="300">
      <Node pos="s" depth="0" NCoef="0" IVar="2" Cut="3.2200823974609375e+02" cType="1" res="2.1008981857448816e-03" rms="2.4697460234165192e-01" purity="5.0205856561660767e-01" nType="0">
        <Node pos="l" depth="1" NCoef="0" IVar="5" Cut="1.4975291442871094e+02" cType="1" res="-1.4410614967346191e-02" rms="2.6269069314002991e-01" purity="1.7420625686645508e-01" nType="0">
          <Node pos="l" depth="2" NCoef="0" IVar="1" Cut="5.4292462766170502e-02" cType="1" res="3.5699019208550453e-03" rms="2.3777207732200623e-01" purity="9.4151571393013000e-02" nType="0">
            <Node pos="l" depth="3" NCoef="0" IVar="-1" Cut="0.0000000000000000e+00" cType="1" res="-2.9098469763994217e-02" rms="1.3671213388442993e-01" purity="2.7248075231909752e-02" nType="-99"/>
            <Node pos="r" depth="3" NCoef="0" IVar="-1" Cut="0.0000000000000000e+00" cType="1" res="1.7591845244169235e-02" rms="3.0325898528099060e-01" purity="1.5722684562206268e-01" nType="-99"/>
          </Node>
          <Node pos="r" depth="2" NCoef="0" IVar="-1" Cut="0.0000000000000000e+00" cType="1" res="-4.0092568844556808e-02" rms="2.8783446550369263e-01" purity="2.6837790012359619e-01" nType="-99"/>
        </Node>
        <Node pos="r" depth="1" NCoef="0" IVar="5" Cut="2.1851588439941406e+02" cType="1" res="4.0055210702121258e-03" rms="2.4502533674240112e-01" purity="5.3987669944763184e-01" nType="0">
          <Node pos="l" depth="2" NCoef="0" IVar="1" Cut="6.3855051994323730e-02" cType="1" res="7.0115709677338600e-03" rms="2.6428341865539551e-01" purity="3.9444765448570251e-01" nType="0">
            <Node pos="l" depth="3" NCoef="0" IVar="-1" Cut="0.0000000000000000e+00" cType="1" res="4.0701343677937984e-03" rms="2.4648171663284302e-01" purity="2.0433628559112549e-01" nType="-99"/>
            <Node pos="r" depth="3" NCoef="0" IVar="-1" Cut="0.0000000000000000e+00" cType="1" res="1.5314793214201927e-02" rms="2.8782415390014648e-01" purity="6.6770333051681519e-01" nType="-99"/>
          </Node>
          <Node pos="r" depth="2" NCoef="0" IVar="0" Cut="2.4774572753906250e+03" cType="1" res="-3.9898464456200600e-03" rms="1.8401555716991425e-01" purity="9.2668282985687256e-01" nType="0">
            <Node pos="l" depth="3" NCoef="0" IVar="-1" Cut="0.0000000000000000e+00" cType="1" res="-2.2011481225490570e-02" rms="3.0482059717178345e-01" purity="7.4366569519042969e-01" nType="-99"/>
            <Node pos="r" depth="3" NCoef="0" IVar="-1" Cut="0.0000000000000000e+00" cType="1" res="5.5281254462897778e-03" rms="1.2988865375518799e-01" purity="9.7898536920547485e-01" nType="-99"/>
          </Node>
        </Node>
      </Node>
    </BinaryTree>
    <BinaryTree type="DecisionTree" boostWeight="1.0000000000000000e+00" itree="301">
      <Node pos="s" depth="0" NCoef="0" IVar="3" Cut="2.7448220825195312e+02" cType="1" res="1.5544918132945895e-03" rms="2.4410322308540344e-01" purity="4.9752148985862732e-01" nType="0">
        <Node pos="l" depth="1" NCoef="0" IVar="5" Cut="1.4364312744140625e+02" cType="1" res="-4.1150688193738461e-03" rms="2.4197195470333099e-01" purity="1.8300737440586090e-01" nType="0">
          <Node pos="l" depth="2" NCoef="0" IVar="0" Cut="1.7447358398437500e+03" cType="1" res="-9.7747445106506348e-03" rms="2.0253524184226990e-01" purity="7.3046974837779999e-02" nType="0">
            <Node pos="l" depth="3" NCoef="0" IVar="-1" Cut="0.0000000000000000e+00" cType="1" res="-1.5366283245384693e-02" rms="1.5961436927318573e-01" purity="2.9339890927076340e-02" nType="-99"/>
            <Node pos="r" depth="3" NCoef="0" IVar="-1" Cut="0.0000000000000000e+00" cType="1" res="-2.7381256222724915e-02" rms="3.1964430212974548e-01" purity="2.4657624959945679e-01" nType="-99"/>
          </Node>
          <Node pos="r" depth="2" NCoef="0" IVar="7" Cut="-1.3461434841156006e-01" cType="1" res="6.6595203243196011e-03" rms="3.0289575457572937e-01" purity="3.9234414696693420e-01" nType="0">
            <Node pos="l" depth="3" NCoef="0" IVar="-1" Cut="0.0000000000000000e+00" cType="1" res="2.7172559872269630e-02" rms="3.1946280598640442e-01" purity="4.1412523388862610e-01" nType="-99"/>
            <Node pos="r" depth="3" NCoef="0" IVar="-1" Cut="0.0000000000000000e+00" cType="1" res="-7.1042389608919621e-03" rms="2.9067268967628479e-01" purity="3.7794169783592224e-01" nType="-99"/>
          </Node>
        </Node>
        <Node pos="r" depth="1" NCoef="0" IVar="0" Cut="1.6664447021484375e+03" cType="1" res="4.6029551886022091e-03" rms="2.4518732726573944e-01" purity="6.6663247346878052e-01" nType="0">
          <Node pos="l" depth="2" NCoef="0" IVar="8" Cut="1.3465772569179535e-01" cType="1" res="-8.8290385901927948e-03" rms="1.3543356955051422e-01" purity="2.0343257114291191e-02" nType="0">
            <Node pos="l" depth="3" NCoef="0" IVar="-1" Cut="0.0000000000000000e+00" cType="1" res="1.4188216067850590e-02" rms="1.6441424190998077e-01" purity="3.1618054956197739e-02" nType="-99"/>
            <Node pos="r" depth="3" NCoef="0" IVar="-1" Cut="0.0000000000000000e+00" cType="1" res="-8.7441533803939819e-02" rms="8.5566423833370209e-02" purity="6.5846084617078304e-03" nType="-99"/>
          </Node>
          <Node pos="r" depth="2" NCoef="0" IVar="5" Cut="1.9265426635742188e+02" cType="1" res="6.5549267455935478e-03" rms="2.5721117854118347e-01" purity="7.6055282354354858e-01" nType="0">
            <Node pos="l" depth="3" NCoef="0" IVar="-1" Cut="0.0000000000000000e+00" cType="1" res="1.4228985644876957e-02" rms="3.1230515241622925e-01" purity="5.7336592674255371e-01" nType="-99"/>
            <Node pos="r" depth="3" NCoef="0" IVar="-1" Cut="0.0000000000000000e+00" cType="1" res="5.7016336359083652e-04" rms="2.0101216435432434e-01" purity="9.1365402936935425e-01" nType="-99"/>
          </Node>
        </Node>
      </Node>
    </BinaryTree>
    <BinaryTree type="DecisionTree" boostWeight="1.0000000000000000e+00" itree="302">
      <Node pos="s" depth="0" NCoef="0" IVar="7" Cut="-1.3404329121112823e-01" cType="1" res="2.0861774100922048e-04" rms="2.4634458124637604e-01" purity="4.9750292301177979e-01" nType="0">
        <Node pos="l" depth="1" NCoef="0" IVar="3" Cut="4.1059170532226562e+02" cType="1" res="5.2338931709527969e-03" rms="2.4896170198917389e-01" purity="4.8395726084709167e-01" nType="0">
          <Node pos="l" depth="2" NCoef="0" IVar="5" Cut="1.4696740722656250e+02" cType="1" res="8.5129169747233391e-03" rms="2.5764828920364380e-01" purity="3.7217202782630920e-01" nType="0">
            <Node pos="l" depth="3" NCoef="0" IVar="-1" Cut="0.0000000000000000e+00" cType="1" res="5.7337596081197262e-04" rms="2.3574954271316528e-01" purity="1.1967068165540695e-01" nType="-99"/>
            <Node pos="r" depth="3" NCoef="0" IVar="-1" Cut="0.0000000000000000e+00" cType="1" res="2.2081594914197922e-02" rms="2.7916046977043152e-01" purity="6.4559030532836914e-01" nType="-99"/>
          </Node>
          <Node pos="r" depth="2" NCoef="0" IVar="6" Cut="7.1834780275821686e-02" cType="1" res="-4.7358237206935883e-03" rms="2.2015832364559174e-01" purity="8.2383507490158081e-01" nType="0">
            <Node pos="l" depth="3" NCoef="0" IVar="-1" Cut="0.0000000000000000e+00" cType="1" res="8.1651993095874786e-03" rms="2.1128387749195099e-01" purity="8.5670709609985352e-01" nType="-99"/>
            <Node pos="r" depth="3" NCoef="0" IVar="-1" Cut="0.0000000000000000e+00" cType="1" res="-3.1890910118818283e-02" rms="2.3153489828109741e-01" purity="7.7747195959091187e-01" nType="-99"/>
          </Node>
        </Node>
        <Node pos="r" depth="1" NCoef="0" IVar="8" Cut="1.3416630029678345e-01" cType="1" res="-3.7843224126845598e-03" rms="2.4417138099670410e-01" purity="5.0826591253280640e-01" nType="0">
          <Node pos="l" depth="2" NCoef="0" IVar="1" Cut="4.2475063353776932e-02" cType="1" res="-8.8582206517457962e-03" rms="2.4762719869613647e-01" purity="5.1072978973388672e-01" nType="0">
            <Node pos="l" depth="3" NCoef="0" IVar="-1" Cut="0.0000000000000000e+00" cType="1" res="9.2123318463563919e-03" rms="2.3029533028602600e-01" purity="2.0478750765323639e-01" nType="-99"/>
            <Node pos="r" depth="3" NCoef="0" IVar="-1" Cut="0.0000000000000000e+00" cType="1" res="-2.3012191057205200e-02" rms="2.5554674863815308e-01" purity="6.6338926553726196e-01" nType="-99"/>
          </Node>
          <Node pos="r" depth="2" NCoef="0" IVar="5" Cut="8.8175941467285156e+01" cType="1" res="1.9848742522299290e-03" rms="2.4005132913589478e-01" purity="5.0546443462371826e-01" nType="0">
            <Node pos="l" depth="3" NCoef="0" IVar="-1" Cut="0.0000000000000000e+00" cType="1" res="-6.9032080471515656e-02" rms="1.3388325273990631e-01" purity="2.8944512829184532e-02" nType="-99"/>
            <Node pos="r" depth="3" NCoef="0" IVar="-1" Cut="0.0000000000000000e+00" cType="1" res="8.1306202337145805e-03" rms="2.4990843236446381e-01" purity="5.6450808048248291e-01" nType="-99"/>
          </Node>
        </Node>
      </Node>
    </BinaryTree>
    <BinaryTree type="DecisionTree" boostWeight="1.0000000000000000e+00" itree="303">
      <Node pos="s" depth="0" NCoef="0" IVar="7" Cut="9.3373483419418335e-01" cType="1" res="-7.3513256211299449e-05" rms="2.4544231593608856e-01" purity="4.9984481930732727e-01" nType="0">
        <Node pos="l" depth="1" NCoef="0" IVar="9" Cut="-1.1993846893310547e+00" cType="1" res="-1.7045477870851755e-03" rms="2.4356514215469360e-01" purity="5.3450876474380493e-01" nType="0">
          <Node pos="l" depth="2" NCoef="0" IVar="7" Cut="-4.8636370897293091e-01" cType="1" res="8.5648028180003166e-03" rms="2.6954135298728943e-01" purity="4.1601029038429260e-01" nType="0">
            <Node pos="l" depth="3" NCoef="0" IVar="-1" Cut="0.0000000000000000e+00" cType="1" res="-5.4997219704091549e-03" rms="2.6134476065635681e-01" purity="3.1112089753150940e-01" nType="-99"/>
            <Node pos="r" depth="3" NCoef="0" IVar="-1" Cut="0.0000000000000000e+00" cType="1" res="2.4632580578327179e-02" rms="2.7593132853507996e-01" purity="5.0599229335784912e-01" nType="-99"/>
          </Node>
          <Node pos="r" depth="2" NCoef="0" IVar="1" Cut="1.2751019001007080e-01" cType="1" res="-3.4424455370754004e-03" rms="2.3884616792201996e-01" purity="5.5456238985061646e-01" nType="0">
            <Node pos="l" depth="3" NCoef="0" IVar="-1" Cut="0.0000000000000000e+00" cType="1" res="-9.3757072463631630e-03" rms="2.4974839389324188e-01" purity="4.3841317296028137e-01" nType="-99"/>
            <Node pos="r" depth="3" NCoef="0" IVar="-1" Cut="0.0000000000000000e+00" cType="1" res="7.3689175769686699e-03" rms="2.0780384540557861e-01" purity="8.5546410083770752e-01" nType="-99"/>
          </Node>
        </Node>
        <Node pos="r" depth="1" NCoef="0" IVar="9" Cut="6.6561907529830933e-01" cType="1" res="8.4325727075338364e-03" rms="2.5483912229537964e-01" purity="3.1906762719154358e-01" nType="0">
          <Node pos="l" depth="2" NCoef="0" IVar="7" Cut="1.5553288459777832e+00" cType="1" res="1.4138317666947842e-02" rms="2.5649800896644592e-01" purity="3.4171700477600098e-01" nType="0">
            <Node pos="l" depth="3" NCoef="0" IVar="-1" Cut="0.0000000000000000e+00" cType="1" res="3.0642958357930183e-02" rms="2.7833005785942078e-01" purity="4.3276128172874451e-01" nType="-99"/>
            <Node pos="r" depth="3" NCoef="0" IVar="-1" Cut="0.0000000000000000e+00" cType="1" res="-8.7792817503213882e-03" rms="1.9863882660865784e-01" purity="1.4008167386054993e-01" nType="-99"/>
          </Node>
          <Node pos="r" depth="2" NCoef="0" IVar="9" Cut="1.3762849569320679e+00" cType="1" res="-1.3542784145101905e-03" rms="2.5166720151901245e-01" purity="2.8021794557571411e-01" nType="0">
            <Node pos="l" depth="3" NCoef="0" IVar="-1" Cut="0.0000000000000000e+00" cType="1" res="-3.7593293935060501e-02" rms="2.4463771283626556e-01" purity="3.1305438280105591e-01" nType="-99"/>
            <Node pos="r" depth="3" NCoef="0" IVar="-1" Cut="0.0000000000000000e+00" cType="1" res="4.6007651835680008e-02" rms="2.5726285576820374e-01" purity="2.3838320374488831e-01" nType="-99"/>
          </Node>
        </Node>
      </Node>
    </BinaryTree>
    <BinaryTree type="DecisionTree" boostWeight="1.0000000000000000e+00" itree="304">
      <Node pos="s" depth="0" NCoef="0" IVar="9" Cut="-3.9962577819824219e-01" cType="1" res="-2.0634843967854977e-03" rms="2.4499851465225220e-01" purity="5.0040322542190552e-01" nType="0">
        <Node pos="l" depth="1" NCoef="0" IVar="2" Cut="5.3702117919921875e+02" cType="1" res="-7.9684108495712280e-03" rms="2.5003233551979065e-01" purity="4.6633547544479370e-01" nType="0">
          <Node pos="l" depth="2" NCoef="0" IVar="4" Cut="2.2232826232910156e+02" cType="1" res="-1.4150166884064674e-02" rms="2.5598716735839844e-01" purity="3.4172153472900391e-01" nType="0">
            <Node pos="l" depth="3" NCoef="0" IVar="-1" Cut="0.0000000000000000e+00" cType="1" res="-4.1197785176336765e-03" rms="2.4679146707057953e-01" purity="1.6800263524055481e-01" nType="-99"/>
            <Node pos="r" depth="3" NCoef="0" IVar="-1" Cut="0.0000000000000000e+00" cType="1" res="-3.7833943963050842e-02" rms="2.6854979991912842e-01" purity="6.0901802778244019e-01" nType="-99"/>
          </Node>
          <Node pos="r" depth="2" NCoef="0" IVar="8" Cut="1.2617367506027222e-01" cType="1" res="8.1837066682055593e-04" rms="2.4104270339012146e-01" purity="6.4346230030059814e-01" nType="0">
            <Node pos="l" depth="3" NCoef="0" IVar="-1" Cut="0.0000000000000000e+00" cType="1" res="-1.3659278862178326e-02" rms="2.3795601725578308e-01" purity="6.3481718301773071e-01" nType="-99"/>
            <Node pos="r" depth="3" NCoef="0" IVar="-1" Cut="0.0000000000000000e+00" cType="1" res="2.4883046746253967e-02" rms="2.4482139945030212e-01" purity="6.5609419345855713e-01" nType="-99"/>
          </Node>
        </Node>
        <Node pos="r" depth="1" NCoef="0" IVar="2" Cut="4.4407931518554688e+02" cType="1" res="1.3901476049795747e-03" rms="2.4193905293941498e-01" purity="5.2032858133316040e-01" nType="0">
          <Node pos="l" depth="2" NCoef="0" IVar="8" Cut="4.0092641115188599e-01" cType="1" res="7.3374556377530098e-03" rms="2.6637190580368042e-01" purity="3.2161462306976318e-01" nType="0">
            <Node pos="l" depth="3" NCoef="0" IVar="-1" Cut="0.0000000000000000e+00" cType="1" res="1.5912383096292615e-03" rms="2.5800824165344238e-01" purity="3.2950776815414429e-01" nType="-99"/>
            <Node pos="r" depth="3" NCoef="0" IVar="-1" Cut="0.0000000000000000e+00" cType="1" res="2.5475308299064636e-02" rms="2.7984073758125305e-01" purity="3.0804368853569031e-01" nType="-99"/>
          </Node>
          <Node pos="r" depth="2" NCoef="0" IVar="3" Cut="2.7587606811523438e+02" cType="1" res="-1.9518500193953514e-03" rms="2.2699011862277985e-01" purity="6.3199281692504883e-01" nType="0">
            <Node pos="l" depth="3" NCoef="0" IVar="-1" Cut="0.0000000000000000e+00" cType="1" res="1.3893203809857368e-02" rms="2.3381270468235016e-01" purity="2.2751797735691071e-01" nType="-99"/>
            <Node pos="r" depth="3" NCoef="0" IVar="-1" Cut="0.0000000000000000e+00" cType="1" res="-8.8172620162367821e-03" rms="2.2475644946098328e-01" purity="7.5693631172180176e-01" nType="-99"/>
          </Node>
        </Node>
      </Node>
    </BinaryTree>
    <BinaryTree type="DecisionTree" boostWeight="1.0000000000000000e+00" itree="305">
      <Node pos="s" depth="0" NCoef="0" IVar="7" Cut="1.2004952430725098e+00" cType="1" res="-1.5600231708958745e-03" rms="2.4425679445266724e-01" purity="4.9777510762214661e-01" nType="0">
        <Node pos="l" depth="1" NCoef="0" IVar="4" Cut="2.4355023193359375e+02" cType="1" res="-2.7493899688124657e-04" rms="2.4651318788528442e-01" purity="5.3540605306625366e-01" nType="0">
          <Node pos="l" depth="2" NCoef="0" IVar="7" Cut="6.2917524576187134e-01" cType="1" res="-2.8700360562652349e-03" rms="2.6331782341003418e-01" purity="2.7825868129730225e-01" nType="0">
            <Node pos="l" depth="3" NCoef="0" IVar="-1" Cut="0.0000000000000000e+00" cType="1" res="-7.2800219058990479e-03" rms="2.6196745038032532e-01" purity="2.7730268239974976e-01" nType="-99"/>
            <Node pos="r" depth="3" NCoef="0" IVar="-1" Cut="0.0000000000000000e+00" cType="1" res="1.1377356015145779e-02" rms="2.6929369568824768e-01" purity="2.8275018930435181e-01" nType="-99"/>
          </Node>
          <Node pos="r" depth="2" NCoef="0" IVar="9" Cut="-6.6671341657638550e-01" cType="1" res="2.9922674875706434e-03" rms="2.2352440655231476e-01" purity="8.5915255546569824e-01" nType="0">
            <Node pos="l" depth="3" NCoef="0" IVar="-1" Cut="0.0000000000000000e+00" cType="1" res="1.9911397248506546e-02" rms="2.5215253233909607e-01" purity="8.2139837741851807e-01" nType="-99"/>
            <Node pos="r" depth="3" NCoef="0" IVar="-1" Cut="0.0000000000000000e+00" cType="1" res="-5.0366256618872285e-04" rms="2.1291458606719971e-01" purity="8.7187498807907104e-01" nType="-99"/>
          </Node>
        </Node>
        <Node pos="r" depth="1" NCoef="0" IVar="5" Cut="1.2757973480224609e+02" cType="1" res="-1.1898499913513660e-02" rms="2.2501654922962189e-01" purity="1.9503475725650787e-01" nType="0">
          <Node pos="l" depth="2" NCoef="0" IVar="1" Cut="2.1676056087017059e-02" cType="1" res="1.9419825403019786e-03" rms="1.7626264691352844e-01" purity="5.5140968412160873e-02" nType="0">
            <Node pos="l" depth="3" NCoef="0" IVar="-1" Cut="0.0000000000000000e+00" cType="1" res="-3.6197014153003693e-02" rms="1.1227029561996460e-01" purity="1.6416484490036964e-02" nType="-99"/>
            <Node pos="r" depth="3" NCoef="0" IVar="-1" Cut="0.0000000000000000e+00" cType="1" res="2.2867735475301743e-02" rms="2.2144038975238800e-01" purity="9.3129232525825500e-02" nType="-99"/>
          </Node>
          <Node pos="r" depth="2" NCoef="0" IVar="4" Cut="2.1771128845214844e+02" cType="1" res="-2.3890968412160873e-02" rms="2.5937297940254211e-01" purity="3.1624960899353027e-01" nType="0">
            <Node pos="l" depth="3" NCoef="0" IVar="-1" Cut="0.0000000000000000e+00" cType="1" res="-2.0175728946924210e-02" rms="2.2530278563499451e-01" purity="1.3671541213989258e-01" nType="-99"/>
            <Node pos="r" depth="3" NCoef="0" IVar="-1" Cut="0.0000000000000000e+00" cType="1" res="-3.9576739072799683e-02" rms="2.9584801197052002e-01" purity="5.4078245162963867e-01" nType="-99"/>
          </Node>
        </Node>
      </Node>
    </BinaryTree>
    <BinaryTree type="DecisionTree" boostWeight="1.0000000000000000e+00" itree="306">
      <Node pos="s" depth="0" NCoef="0" IVar="8" Cut="9.3449902534484863e-01" cType="1" res="1.5805031871423125e-03" rms="2.4708525836467743e-01" purity="5.0240582227706909e-01" nType="0">
        <Node pos="l" depth="1" NCoef="0" IVar="4" Cut="1.9550964355468750e+02" cType="1" res="3.2858711201697588e-03" rms="2.4433714151382446e-01" purity="5.3031218051910400e-01" nType="0">
          <Node pos="l" depth="2" NCoef="0" IVar="6" Cut="-7.8318230807781219e-03" cType="1" res="-1.8258858472108841e-03" rms="2.3974435031414032e-01" purity="1.5042318403720856e-01" nType="0">
            <Node pos="l" depth="3" NCoef="0" IVar="-1" Cut="0.0000000000000000e+00" cType="1" res="-1.4390869066119194e-02" rms="2.4137718975543976e-01" purity="1.5318547189235687e-01" nType="-99"/>
            <Node pos="r" depth="3" NCoef="0" IVar="-1" Cut="0.0000000000000000e+00" cType="1" res="9.8077021539211273e-03" rms="2.3784029483795166e-01" purity="1.4758111536502838e-01" nType="-99"/>
          </Node>
          <Node pos="r" depth="2" NCoef="0" IVar="6" Cut="-2.6795870065689087e-01" cType="1" res="6.0959393158555031e-03" rms="2.4678044021129608e-01" purity="7.3914724588394165e-01" nType="0">
            <Node pos="l" depth="3" NCoef="0" IVar="-1" Cut="0.0000000000000000e+00" cType="1" res="2.2812098264694214e-02" rms="2.5669756531715393e-01" purity="7.1512603759765625e-01" nType="-99"/>
            <Node pos="r" depth="3" NCoef="0" IVar="-1" Cut="0.0000000000000000e+00" cType="1" res="8.8799727382138371e-04" rms="2.4075044691562653e-01" purity="7.5288003683090210e-01" nType="-99"/>
          </Node>
        </Node>
        <Node pos="r" depth="1" NCoef="0" IVar="9" Cut="1.3365025818347931e-01" cType="1" res="-6.2135984189808369e-03" rms="2.5913172960281372e-01" purity="3.7486433982849121e-01" nType="0">
          <Node pos="l" depth="2" NCoef="0" IVar="5" Cut="1.3778837585449219e+02" cType="1" res="6.3608437776565552e-03" rms="2.7659466862678528e-01" purity="4.1911149024963379e-01" nType="0">
            <Node pos="l" depth="3" NCoef="0" IVar="-1" Cut="0.0000000000000000e+00" cType="1" res="4.7049053013324738e-02" rms="2.6813456416130066e-01" purity="1.8961654603481293e-01" nType="-99"/>
            <Node pos="r" depth="3" NCoef="0" IVar="-1" Cut="0.0000000000000000e+00" cType="1" res="-1.4854920096695423e-02" rms="2.8184044361114502e-01" purity="6.0144668817520142e-01" nType="-99"/>
          </Node>
          <Node pos="r" depth="2" NCoef="0" IVar="6" Cut="-5.8510940521955490e-02" cType="1" res="-1.7897490411996841e-02" rms="2.4119088053703308e-01" purity="3.3375090360641479e-01" nType="0">
            <Node pos="l" depth="3" NCoef="0" IVar="-1" Cut="0.0000000000000000e+00" cType="1" res="-3.7009303923696280e-03" rms="2.4490775167942047e-01" purity="3.3587148785591125e-01" nType="-99"/>
            <Node pos="r" depth="3" NCoef="0" IVar="-1" Cut="0.0000000000000000e+00" cType="1" res="-4.3272126466035843e-02" rms="2.3777578771114349e-01" purity="3.3218786120414734e-01" nType="-99"/>
          </Node>
        </Node>
      </Node>
    </BinaryTree>
    <BinaryTree type="DecisionTree" boostWeight="1.0000000000000000e+00" itree="307">
      <Node pos="s" depth="0" NCoef="0" IVar="5" Cut="1.9134161376953125e+02" cType="1" res="-5.4588564671576023e-04" rms="2.4477210640907288e-01" purity="4.9658450484275818e-01" nType="0">
        <Node pos="l" depth="1" NCoef="0" IVar="5" Cut="1.6464474487304688e+02" cType="1" res="-3.9661680348217487e-03" rms="2.6041573286056519e-01" purity="2.8382483124732971e-01" nType="0">
          <Node pos="l" depth="2" NCoef="0" IVar="9" Cut="-3.9962577819824219e-01" cType="1" res="-1.0666241869330406e-03" rms="2.5372904539108276e-01" purity="2.1527121961116791e-01" nType="0">
            <Node pos="l" depth="3" NCoef="0" IVar="-1" Cut="0.0000000000000000e+00" cType="1" res="1.4126108959317207e-02" rms="2.6867076754570007e-01" purity="2.2409553825855255e-01" nType="-99"/>
            <Node pos="r" depth="3" NCoef="0" IVar="-1" Cut="0.0000000000000000e+00" cType="1" res="-1.2127448804676533e-02" rms="2.4331456422805786e-01" purity="2.0955580472946167e-01" nType="-99"/>
          </Node>
          <Node pos="r" depth="2" NCoef="0" IVar="5" Cut="1.7354711914062500e+02" cType="1" res="-1.6162145882844925e-02" rms="2.8651833534240723e-01" purity="5.7217299938201904e-01" nType="0">
            <Node pos="l" depth="3" NCoef="0" IVar="-1" Cut="0.0000000000000000e+00" cType="1" res="-3.7652432918548584e-02" rms="2.8489178419113159e-01" purity="4.4182294607162476e-01" nType="-99"/>
            <Node pos="r" depth="3" NCoef="0" IVar="-1" Cut="0.0000000000000000e+00" cType="1" res="-4.6710404567420483e-03" rms="2.8670522570610046e-01" purity="6.4619779586791992e-01" nType="-99"/>
          </Node>
        </Node>
        <Node pos="r" depth="1" NCoef="0" IVar="0" Cut="1.9333505859375000e+03" cType="1" res="5.8355755172669888e-03" rms="2.1238104999065399e-01" purity="8.9354521036148071e-01" nType="0">
          <Node pos="l" depth="2" NCoef="0" IVar="-1" Cut="0.0000000000000000e+00" cType="1" res="2.6942154392600060e-02" rms="3.6413174867630005e-01" purity="2.9951804876327515e-01" nType="-99"/>
          <Node pos="r" depth="2" NCoef="0" IVar="2" Cut="4.4867184448242188e+02" cType="1" res="3.5675866529345512e-03" rms="1.9557382166385651e-01" purity="9.3961584568023682e-01" nType="0">
            <Node pos="l" depth="3" NCoef="0" IVar="-1" Cut="0.0000000000000000e+00" cType="1" res="-1.2162605300545692e-02" rms="2.4464042484760284e-01" purity="9.0477448701858521e-01" nType="-99"/>
            <Node pos="r" depth="3" NCoef="0" IVar="-1" Cut="0.0000000000000000e+00" cType="1" res="1.5920545905828476e-02" rms="1.8237137794494629e-01" purity="9.4761371612548828e-01" nType="-99"/>
          </Node>
        </Node>
      </Node>
    </BinaryTree>
    <BinaryTree type="DecisionTree" boostWeight="1.0000000000000000e+00" itree="308">
      <Node pos="s" depth="0" NCoef="0" IVar="2" Cut="8.6284387207031250e+02" cType="1" res="5.9562030946835876e-04" rms="2.4596321582794189e-01" purity="5.0579160451889038e-01" nType="0">
        <Node pos="l" depth="1" NCoef="0" IVar="9" Cut="1.4666392803192139e+00" cType="1" res="-1.0653131175786257e-03" rms="2.4505436420440674e-01" purity="4.8742231726646423e-01" nType="0">
          <Node pos="l" depth="2" NCoef="0" IVar="2" Cut="3.5811700439453125e+02" cType="1" res="-2.4612650740891695e-03" rms="2.4216121435165405e-01" purity="5.0791627168655396e-01" nType="0">
            <Node pos="l" depth="3" NCoef="0" IVar="-1" Cut="0.0000000000000000e+00" cType="1" res="9.3374820426106453e-03" rms="2.7389010787010193e-01" purity="2.4961087107658386e-01" nType="-99"/>
            <Node pos="r" depth="3" NCoef="0" IVar="-1" Cut="0.0000000000000000e+00" cType="1" res="-7.6028569601476192e-03" rms="2.3486973345279694e-01" purity="5.6245660781860352e-01" nType="-99"/>
          </Node>
          <Node pos="r" depth="2" NCoef="0" IVar="5" Cut="1.4801914978027344e+02" cType="1" res="1.2118528597056866e-02" rms="2.7050334215164185e-01" purity="2.9387065768241882e-01" nType="0">
            <Node pos="l" depth="3" NCoef="0" IVar="-1" Cut="0.0000000000000000e+00" cType="1" res="4.2015459388494492e-02" rms="2.5943723320960999e-01" purity="1.7042000591754913e-01" nType="-99"/>
            <Node pos="r" depth="3" NCoef="0" IVar="-1" Cut="0.0000000000000000e+00" cType="1" res="-4.2831986211240292e-03" rms="2.8464499115943909e-01" purity="4.6793743968009949e-01" nType="-99"/>
          </Node>
        </Node>
        <Node pos="r" depth="1" NCoef="0" IVar="4" Cut="2.7783819580078125e+02" cType="1" res="2.7883952483534813e-02" rms="2.5892040133476257e-01" purity="8.0759066343307495e-01" nType="0">
          <Node pos="l" depth="2" NCoef="0" IVar="-1" Cut="0.0000000000000000e+00" cType="1" res="4.2745601385831833e-02" rms="3.1504198908805847e-01" purity="6.5740907192230225e-01" nType="-99"/>
          <Node pos="r" depth="2" NCoef="0" IVar="-1" Cut="0.0000000000000000e+00" cType="1" res="2.6142297312617302e-02" rms="2.0299719274044037e-01" purity="9.2583340406417847e-01" nType="-99"/>
        </Node>
      </Node>
    </BinaryTree>
    <BinaryTree type="DecisionTree" boostWeight="1.0000000000000000e+00" itree="309">
      <Node pos="s" depth="0" NCoef="0" IVar="9" Cut="-1.1993395090103149e+00" cType="1" res="-6.9283746415749192e-04" rms="2.4443675577640533e-01" purity="4.9526169896125793e-01" nType="0">
        <Node pos="l" depth="1" NCoef="0" IVar="7" Cut="-6.6829264163970947e-01" cType="1" res="-1.3549378141760826e-02" rms="2.5762310624122620e-01" purity="3.6517995595932007e-01" nType="0">
          <Node pos="l" depth="2" NCoef="0" IVar="-1" Cut="0.0000000000000000e+00" cType="1" res="1.1589061468839645e-02" rms="2.3947501182556152e-01" purity="2.6853823661804199e-01" nType="-99"/>
          <Node pos="r" depth="2" NCoef="0" IVar="4" Cut="2.3138485717773438e+02" cType="1" res="-2.3514283820986748e-02" rms="2.6502823829650879e-01" purity="4.0999814867973328e-01" nType="0">
            <Node pos="l" depth="3" NCoef="0" IVar="-1" Cut="0.0000000000000000e+00" cType="1" res="-4.4717222452163696e-02" rms="2.6375260949134827e-01" purity="2.1214576065540314e-01" nType="-99"/>
            <Node pos="r" depth="3" NCoef="0" IVar="-1" Cut="0.0000000000000000e+00" cType="1" res="-5.9129307046532631e-03" rms="2.6602429151535034e-01" purity="7.3537719249725342e-01" nType="-99"/>
          </Node>
        </Node>
        <Node pos="r" depth="1" NCoef="0" IVar="9" Cut="-4.3759503960609436e-01" cType="1" res="1.5655651222914457e-03" rms="2.4197572469711304e-01" purity="5.1811212301254272e-01" nType="0">
          <Node pos="l" depth="2" NCoef="0" IVar="8" Cut="3.9960891008377075e-01" cType="1" res="1.0938594117760658e-02" rms="2.4425871670246124e-01" purity="5.3515869379043579e-01" nType="0">
            <Node pos="l" depth="3" NCoef="0" IVar="-1" Cut="0.0000000000000000e+00" cType="1" res="1.1346379294991493e-02" rms="2.3166136443614960e-01" purity="5.3902584314346313e-01" nType="-99"/>
            <Node pos="r" depth="3" NCoef="0" IVar="-1" Cut="0.0000000000000000e+00" cType="1" res="3.3848818391561508e-02" rms="2.7124151587486267e-01" purity="5.2608036994934082e-01" nType="-99"/>
          </Node>
          <Node pos="r" depth="2" NCoef="0" IVar="7" Cut="-6.6309243440628052e-01" cType="1" res="-1.5023887390270829e-03" rms="2.4114464223384857e-01" purity="5.1253247261047363e-01" nType="0">
            <Node pos="l" depth="3" NCoef="0" IVar="-1" Cut="0.0000000000000000e+00" cType="1" res="-1.6547273844480515e-02" rms="2.4508480727672577e-01" purity="3.8169187307357788e-01" nType="-99"/>
            <Node pos="r" depth="3" NCoef="0" IVar="-1" Cut="0.0000000000000000e+00" cType="1" res="1.7951752524822950e-03" rms="2.3993015289306641e-01" purity="5.5044376850128174e-01" nType="-99"/>
          </Node>
        </Node>
      </Node>
    </BinaryTree>
    <BinaryTree type="DecisionTree" boostWeight="1.0000000000000000e+00" itree="310">
      <Node pos="s" depth="0" NCoef="0" IVar="8" Cut="-1.7336759567260742e+00" cType="1" res="1.3665258884429932e-03" rms="2.4569644033908844e-01" purity="5.0379669666290283e-01" nType="0">
        <Node pos="l" depth="1" NCoef="0" IVar="-1" Cut="0.0000000000000000e+00" cType="1" res="4.3625976890325546e-02" rms="2.5719299912452698e-01" purity="1.5808488428592682e-01" nType="-99"/>
        <Node pos="r" depth="1" NCoef="0" IVar="8" Cut="-1.3018476963043213e+00" cType="1" res="3.4586607944220304e-04" rms="2.4508669972419739e-01" purity="5.2032577991485596e-01" nType="0">
          <Node pos="l" depth="2" NCoef="0" IVar="9" Cut="-1.3451358675956726e-01" cType="1" res="-1.6124391928315163e-02" rms="2.4396434426307678e-01" purity="3.3479002118110657e-01" nType="0">
            <Node pos="l" depth="3" NCoef="0" IVar="-1" Cut="0.0000000000000000e+00" cType="1" res="-8.7754707783460617e-03" rms="2.5460958480834961e-01" purity="3.6484894156455994e-01" nType="-99"/>
            <Node pos="r" depth="3" NCoef="0" IVar="-1" Cut="0.0000000000000000e+00" cType="1" res="-3.8273602724075317e-02" rms="2.3246002197265625e-01" purity="3.0471360683441162e-01" nType="-99"/>
          </Node>
          <Node pos="r" depth="2" NCoef="0" IVar="1" Cut="2.1437594667077065e-02" cType="1" res="1.3249523472040892e-03" rms="2.4511840939521790e-01" purity="5.3135514259338379e-01" nType="0">
            <Node pos="l" depth="3" NCoef="0" IVar="-1" Cut="0.0000000000000000e+00" cType="1" res="-1.6451071947813034e-02" rms="1.8146985769271851e-01" purity="1.0772331058979034e-01" nType="-99"/>
            <Node pos="r" depth="3" NCoef="0" IVar="-1" Cut="0.0000000000000000e+00" cType="1" res="4.4457772746682167e-03" rms="2.5634583830833435e-01" purity="6.1944371461868286e-01" nType="-99"/>
          </Node>
        </Node>
      </Node>
    </BinaryTree>
    <BinaryTree type="DecisionTree" boostWeight="1.0000000000000000e+00" itree="311">
      <Node pos="s" depth="0" NCoef="0" IVar="2" Cut="9.3051434326171875e+02" cType="1" res="-1.0802004253491759e-03" rms="2.4616757035255432e-01" purity="4.9818995594978333e-01" nType="0">
        <Node pos="l" depth="1" NCoef="0" IVar="6" Cut="2.3556627333164215e-01" cType="1" res="-1.7923712730407715e-03" rms="2.4468961358070374e-01" purity="4.8715063929557800e-01" nType="0">
          <Node pos="l" depth="2" NCoef="0" IVar="2" Cut="3.3927661132812500e+02" cType="1" res="1.0299340356141329e-03" rms="2.4635867774486542e-01" purity="5.1857155561447144e-01" nType="0">
            <Node pos="l" depth="3" NCoef="0" IVar="-1" Cut="0.0000000000000000e+00" cType="1" res="2.0916406065225601e-02" rms="2.8521001338958740e-01" purity="2.3656919598579407e-01" nType="-99"/>
            <Node pos="r" depth="3" NCoef="0" IVar="-1" Cut="0.0000000000000000e+00" cType="1" res="-1.5854698140174150e-03" rms="2.4020422995090485e-01" purity="5.5902636051177979e-01" nType="-99"/>
          </Node>
          <Node pos="r" depth="2" NCoef="0" IVar="7" Cut="9.3562150001525879e-01" cType="1" res="-6.2650665640830994e-03" rms="2.4195352196693420e-01" purity="4.3735590577125549e-01" nType="0">
            <Node pos="l" depth="3" NCoef="0" IVar="-1" Cut="0.0000000000000000e+00" cType="1" res="-1.5827836468815804e-02" rms="2.4203416705131531e-01" purity="4.6919822692871094e-01" nType="-99"/>
            <Node pos="r" depth="3" NCoef="0" IVar="-1" Cut="0.0000000000000000e+00" cType="1" res="1.5800110995769501e-02" rms="2.4098056554794312e-01" purity="2.9886910319328308e-01" nType="-99"/>
          </Node>
        </Node>
        <Node pos="r" depth="1" NCoef="0" IVar="-1" Cut="0.0000000000000000e+00" cType="1" res="1.9977323710918427e-02" rms="2.8068646788597107e-01" purity="7.8016209602355957e-01" nType="-99"/>
      </Node>
    </BinaryTree>
    <BinaryTree type="DecisionTree" boostWeight="1.0000000000000000e+00" itree="312">
      <Node pos="s" depth="0" NCoef="0" IVar="0" Cut="2.1988581542968750e+03" cType="1" res="-1.8275248585268855e-03" rms="2.3979879915714264e-01" purity="4.9690964818000793e-01" nType="0">
        <Node pos="l" depth="1" NCoef="0" IVar="3" Cut="2.4596569824218750e+02" cType="1" res="-6.1138379387557507e-03" rms="2.6265209913253784e-01" purity="1.7447972297668457e-01" nType="0">
          <Node pos="l" depth="2" NCoef="0" IVar="6" Cut="7.4918597936630249e-01" cType="1" res="5.1898922538384795e-04" rms="2.3447634279727936e-01" purity="1.0782426595687866e-01" nType="0">
            <Node pos="l" depth="3" NCoef="0" IVar="-1" Cut="0.0000000000000000e+00" cType="1" res="8.6614135652780533e-03" rms="2.5202685594558716e-01" purity="1.2986670434474945e-01" nType="-99"/>
            <Node pos="r" depth="3" NCoef="0" IVar="-1" Cut="0.0000000000000000e+00" cType="1" res="-3.5640440881252289e-02" rms="1.7424678802490234e-01" purity="4.4931877404451370e-02" nType="-99"/>
          </Node>
          <Node pos="r" depth="2" NCoef="0" IVar="2" Cut="6.4854565429687500e+02" cType="1" res="-1.0603534989058971e-02" rms="2.8003099560737610e-01" purity="2.1959815919399261e-01" nType="0">
            <Node pos="l" depth="3" NCoef="0" IVar="-1" Cut="0.0000000000000000e+00" cType="1" res="-8.6816912516951561e-03" rms="2.8517341613769531e-01" purity="2.3149967193603516e-01" nType="-99"/>
            <Node pos="r" depth="3" NCoef="0" IVar="-1" Cut="0.0000000000000000e+00" cType="1" res="-5.7632606476545334e-02" rms="2.0588663220405579e-01" purity="7.7864386141300201e-02" nType="-99"/>
          </Node>
        </Node>
        <Node pos="r" depth="1" NCoef="0" IVar="1" Cut="2.1370977163314819e-02" cType="1" res="3.7014903500676155e-03" rms="2.0648837089538574e-01" purity="9.1281956434249878e-01" nType="0">
          <Node pos="l" depth="2" NCoef="0" IVar="-1" Cut="0.0000000000000000e+00" cType="1" res="2.0910337567329407e-02" rms="3.1658071279525757e-01" purity="5.6482172012329102e-01" nType="-99"/>
          <Node pos="r" depth="2" NCoef="0" IVar="6" Cut="8.8706992566585541e-02" cType="1" res="2.2056594025343657e-03" rms="1.9634455442428589e-01" purity="9.3730765581130981e-01" nType="0">
            <Node pos="l" depth="3" NCoef="0" IVar="-1" Cut="0.0000000000000000e+00" cType="1" res="1.6426200047135353e-02" rms="1.9327001273632050e-01" purity="9.4103360176086426e-01" nType="-99"/>
            <Node pos="r" depth="3" NCoef="0" IVar="-1" Cut="0.0000000000000000e+00" cType="1" res="-9.9882325157523155e-03" rms="2.0002318918704987e-01" purity="9.3255525827407837e-01" nType="-99"/>
          </Node>
        </Node>
      </Node>
    </BinaryTree>
    <BinaryTree type="DecisionTree" boostWeight="1.0000000000000000e+00" itree="313">
      <Node pos="s" depth="0" NCoef="0" IVar="4" Cut="1.9150077819824219e+02" cType="1" res="1.5666892286390066e-03" rms="2.4661925435066223e-01" purity="5.0136417150497437e-01" nType="0">
        <Node pos="l" depth="1" NCoef="0" IVar="1" Cut="5.2236191928386688e-02" cType="1" res="7.6659037731587887e-03" rms="2.4303574860095978e-01" purity="1.5324886143207550e-01" nType="0">
          <Node pos="l" depth="2" NCoef="0" IVar="5" Cut="1.3803082275390625e+02" cType="1" res="2.1911954972893000e-03" rms="1.8829488754272461e-01" purity="6.7059114575386047e-02" nType="0">
            <Node pos="l" depth="3" NCoef="0" IVar="-1" Cut="0.0000000000000000e+00" cType="1" res="-4.7350553795695305e-03" rms="1.6674101352691650e-01" purity="4.3758027255535126e-02" nType="-99"/>
            <Node pos="r" depth="3" NCoef="0" IVar="-1" Cut="0.0000000000000000e+00" cType="1" res="2.9746079817414284e-02" rms="2.6206621527671814e-01" purity="1.6912934184074402e-01" nType="-99"/>
          </Node>
          <Node pos="r" depth="2" NCoef="0" IVar="8" Cut="9.3221181631088257e-01" cType="1" res="1.7703674733638763e-02" rms="3.1969004869461060e-01" purity="3.1127607822418213e-01" nType="0">
            <Node pos="l" depth="3" NCoef="0" IVar="-1" Cut="0.0000000000000000e+00" cType="1" res="1.0471306741237640e-02" rms="3.1379732489585876e-01" purity="2.9924193024635315e-01" nType="-99"/>
            <Node pos="r" depth="3" NCoef="0" IVar="-1" Cut="0.0000000000000000e+00" cType="1" res="4.4919546693563461e-02" rms="3.3828330039978027e-01" purity="3.5408627986907959e-01" nType="-99"/>
          </Node>
        </Node>
        <Node pos="r" depth="1" NCoef="0" IVar="7" Cut="-9.2545694112777710e-01" cType="1" res="-1.9510200945660472e-03" rms="2.4859452247619629e-01" purity="7.0213901996612549e-01" nType="0">
          <Node pos="l" depth="2" NCoef="0" IVar="8" Cut="1.1324093490839005e-01" cType="1" res="-1.7436083406209946e-02" rms="2.6245510578155518e-01" purity="4.9301564693450928e-01" nType="0">
            <Node pos="l" depth="3" NCoef="0" IVar="-1" Cut="0.0000000000000000e+00" cType="1" res="-8.5197016596794128e-03" rms="2.5793671607971191e-01" purity="5.4225224256515503e-01" nType="-99"/>
            <Node pos="r" depth="3" NCoef="0" IVar="-1" Cut="0.0000000000000000e+00" cType="1" res="-3.9020597934722900e-02" rms="2.6764386892318726e-01" purity="4.2736050486564636e-01" nType="-99"/>
          </Node>
          <Node pos="r" depth="2" NCoef="0" IVar="8" Cut="-1.4658108949661255e+00" cType="1" res="3.9542964077554643e-04" rms="2.4634131789207458e-01" purity="7.3382741212844849e-01" nType="0">
            <Node pos="l" depth="3" NCoef="0" IVar="-1" Cut="0.0000000000000000e+00" cType="1" res="-3.0239408835768700e-02" rms="2.6809313893318176e-01" purity="3.4134122729301453e-01" nType="-99"/>
            <Node pos="r" depth="3" NCoef="0" IVar="-1" Cut="0.0000000000000000e+00" cType="1" res="2.9193505179136992e-03" rms="2.4495010077953339e-01" purity="7.5651204586029053e-01" nType="-99"/>
          </Node>
        </Node>
      </Node>
    </BinaryTree>
    <BinaryTree type="DecisionTree" boostWeight="1.0000000000000000e+00" itree="314">
      <Node pos="s" depth="0" NCoef="0" IVar="0" Cut="2.3891486816406250e+03" cType="1" res="4.0255123749375343e-03" rms="2.4702239036560059e-01" purity="5.0700151920318604e-01" nType="0">
        <Node pos="l" depth="1" NCoef="0" IVar="0" Cut="1.9651628417968750e+03" cType="1" res="7.2423932142555714e-03" rms="2.7400726079940796e-01" purity="2.6471811532974243e-01" nType="0">
          <Node pos="l" depth="2" NCoef="0" IVar="0" Cut="1.6959774169921875e+03" cType="1" res="8.1888289423659444e-04" rms="2.4297371506690979e-01" purity="1.0381829738616943e-01" nType="0">
            <Node pos="l" depth="3" NCoef="0" IVar="-1" Cut="0.0000000000000000e+00" cType="1" res="-9.1500449925661087e-03" rms="1.7836703360080719e-01" purity="3.7838537245988846e-02" nType="-99"/>
            <Node pos="r" depth="3" NCoef="0" IVar="-1" Cut="0.0000000000000000e+00" cType="1" res="8.0124223604798317e-03" rms="3.4101974964141846e-01" purity="2.4285191297531128e-01" nType="-99"/>
          </Node>
          <Node pos="r" depth="2" NCoef="0" IVar="2" Cut="6.3038067626953125e+02" cType="1" res="2.4159075692296028e-02" rms="3.4196096658706665e-01" purity="6.8845701217651367e-01" nType="0">
            <Node pos="l" depth="3" NCoef="0" IVar="-1" Cut="0.0000000000000000e+00" cType="1" res="1.3673957437276840e-02" rms="3.3239337801933289e-01" purity="7.6897251605987549e-01" nType="-99"/>
            <Node pos="r" depth="3" NCoef="0" IVar="-1" Cut="0.0000000000000000e+00" cType="1" res="4.2718607932329178e-02" rms="3.7310346961021423e-01" purity="3.9542520046234131e-01" nType="-99"/>
          </Node>
        </Node>
        <Node pos="r" depth="1" NCoef="0" IVar="4" Cut="2.3519624328613281e+02" cType="1" res="-1.6655791550874710e-03" rms="1.8998813629150391e-01" purity="9.3563306331634521e-01" nType="0">
          <Node pos="l" depth="2" NCoef="0" IVar="9" Cut="1.3210365176200867e-01" cType="1" res="9.4714909791946411e-03" rms="2.7831155061721802e-01" purity="8.3246082067489624e-01" nType="0">
            <Node pos="l" depth="3" NCoef="0" IVar="-1" Cut="0.0000000000000000e+00" cType="1" res="3.4367773681879044e-02" rms="2.7465507388114929e-01" purity="8.5532259941101074e-01" nType="-99"/>
            <Node pos="r" depth="3" NCoef="0" IVar="-1" Cut="0.0000000000000000e+00" cType="1" res="-1.4266839250922203e-02" rms="2.8142771124839783e-01" purity="8.0420029163360596e-01" nType="-99"/>
          </Node>
          <Node pos="r" depth="2" NCoef="0" IVar="1" Cut="4.2890049517154694e-02" cType="1" res="-3.7506832741200924e-03" rms="1.6829758882522583e-01" purity="9.5494925975799561e-01" nType="0">
            <Node pos="l" depth="3" NCoef="0" IVar="-1" Cut="0.0000000000000000e+00" cType="1" res="-3.2244917005300522e-02" rms="2.9034665226936340e-01" purity="8.0265700817108154e-01" nType="-99"/>
            <Node pos="r" depth="3" NCoef="0" IVar="-1" Cut="0.0000000000000000e+00" cType="1" res="-2.5687518063932657e-03" rms="1.4306189119815826e-01" purity="9.7609370946884155e-01" nType="-99"/>
          </Node>
        </Node>
      </Node>
    </BinaryTree>
    <BinaryTree type="DecisionTree" boostWeight="1.0000000000000000e+00" itree="315">
      <Node pos="s" depth="0" NCoef="0" IVar="7" Cut="1.2011342048645020e+00" cType="1" res="2.1330022718757391e-03" rms="2.4400761723518372e-01" purity="5.0655746459960938e-01" nType="0">
        <Node pos="l" depth="1" NCoef="0" IVar="2" Cut="8.7308453369140625e+02" cType="1" res="4.0779612027108669e-03" rms="2.4690286815166473e-01" purity="5.4385471343994141e-01" nType="0">
          <Node pos="l" depth="2" NCoef="0" IVar="1" Cut="1.0576146841049194e-01" cType="1" res="4.8515079542994499e-03" rms="2.4511653184890747e-01" purity="5.3066575527191162e-01" nType="0">
            <Node pos="l" depth="3" NCoef="0" IVar="-1" Cut="0.0000000000000000e+00" cType="1" res="1.1040369980037212e-02" rms="2.5356587767601013e-01" purity="3.8267192244529724e-01" nType="-99"/>
            <Node pos="r" depth="3" NCoef="0" IVar="-1" Cut="0.0000000000000000e+00" cType="1" res="1.0178614174947143e-03" rms="2.2849753499031067e-01" purity="8.0613249540328979e-01" nType="-99"/>
          </Node>
          <Node pos="r" depth="2" NCoef="0" IVar="0" Cut="3.2095539550781250e+03" cType="1" res="-8.3999959751963615e-03" rms="2.7381247282028198e-01" purity="7.5660383701324463e-01" nType="0">
            <Node pos="l" depth="3" NCoef="0" IVar="-1" Cut="0.0000000000000000e+00" cType="1" res="-1.3002786785364151e-02" rms="3.2062056660652161e-01" purity="5.8237010240554810e-01" nType="-99"/>
            <Node pos="r" depth="3" NCoef="0" IVar="-1" Cut="0.0000000000000000e+00" cType="1" res="-6.3951136544346809e-03" rms="2.1548271179199219e-01" purity="9.3493926525115967e-01" nType="-99"/>
          </Node>
        </Node>
        <Node pos="r" depth="1" NCoef="0" IVar="1" Cut="4.1553996503353119e-02" cType="1" res="-1.3885849155485630e-02" rms="2.1805040538311005e-01" purity="1.9937393069267273e-01" nType="0">
          <Node pos="l" depth="2" NCoef="0" IVar="7" Cut="1.8106123208999634e+00" cType="1" res="-2.9070531018078327e-03" rms="1.7825108766555786e-01" purity="8.1867776811122894e-02" nType="0">
            <Node pos="l" depth="3" NCoef="0" IVar="-1" Cut="0.0000000000000000e+00" cType="1" res="9.5237959176301956e-03" rms="2.1187733113765717e-01" purity="1.2108036130666733e-01" nType="-99"/>
            <Node pos="r" depth="3" NCoef="0" IVar="-1" Cut="0.0000000000000000e+00" cType="1" res="-5.9191305190324783e-02" rms="1.0970826447010040e-01" purity="2.3485366255044937e-02" nType="-99"/>
          </Node>
          <Node pos="r" depth="2" NCoef="0" IVar="-1" Cut="0.0000000000000000e+00" cType="1" res="-3.6708928644657135e-02" rms="2.7068489789962769e-01" purity="3.9500558376312256e-01" nType="-99"/>
        </Node>
      </Node>
    </BinaryTree>
    <BinaryTree type="DecisionTree" boostWeight="1.0000000000000000e+00" itree="316">
      <Node pos="s" depth="0" NCoef="0" IVar="8" Cut="1.3365976512432098e-01" cType="1" res="-1.5484255272895098e-03" rms="2.4663542211055756e-01" purity="4.9677172303199768e-01" nType="0">
        <Node pos="l" depth="1" NCoef="0" IVar="1" Cut="2.1248178556561470e-02" cType="1" res="3.0033104121685028e-03" rms="2.4612593650817871e-01" purity="5.0564217567443848e-01" nType="0">
          <Node pos="l" depth="2" NCoef="0" IVar="1" Cut="1.2150838039815426e-02" cType="1" res="-8.7819648906588554e-03" rms="1.6775371134281158e-01" purity="9.8996564745903015e-02" nType="0">
            <Node pos="l" depth="3" NCoef="0" IVar="-1" Cut="0.0000000000000000e+00" cType="1" res="1.4435349032282829e-02" rms="1.4279727637767792e-01" purity="6.0293503105640411e-02" nType="-99"/>
            <Node pos="r" depth="3" NCoef="0" IVar="-1" Cut="0.0000000000000000e+00" cType="1" res="-5.0073146820068359e-02" rms="1.9175225496292114e-01" purity="1.4404244720935822e-01" nType="-99"/>
          </Node>
          <Node pos="r" depth="2" NCoef="0" IVar="9" Cut="-1.4654783010482788e+00" cType="1" res="5.7272496633231640e-03" rms="2.6083627343177795e-01" purity="5.9963053464889526e-01" nType="0">
            <Node pos="l" depth="3" NCoef="0" IVar="-1" Cut="0.0000000000000000e+00" cType="1" res="3.2258071005344391e-02" rms="3.2096052169799805e-01" purity="4.5209071040153503e-01" nType="-99"/>
            <Node pos="r" depth="3" NCoef="0" IVar="-1" Cut="0.0000000000000000e+00" cType="1" res="5.3175413049757481e-03" rms="2.5409471988677979e-01" purity="6.1402684450149536e-01" nType="-99"/>
          </Node>
        </Node>
        <Node pos="r" depth="1" NCoef="0" IVar="2" Cut="4.4397982788085938e+02" cType="1" res="-7.2188605554401875e-03" rms="2.4715141952037811e-01" purity="4.8572105169296265e-01" nType="0">
          <Node pos="l" depth="2" NCoef="0" IVar="7" Cut="-3.9935404062271118e-01" cType="1" res="2.2653827909380198e-03" rms="2.5845974683761597e-01" purity="3.0686861276626587e-01" nType="0">
            <Node pos="l" depth="3" NCoef="0" IVar="-1" Cut="0.0000000000000000e+00" cType="1" res="-2.0599797368049622e-02" rms="2.2681635618209839e-01" purity="2.3650199174880981e-01" nType="-99"/>
            <Node pos="r" depth="3" NCoef="0" IVar="-1" Cut="0.0000000000000000e+00" cType="1" res="1.3718287460505962e-02" rms="2.7327099442481995e-01" purity="3.4371936321258545e-01" nType="-99"/>
          </Node>
          <Node pos="r" depth="2" NCoef="0" IVar="4" Cut="1.2818771362304688e+02" cType="1" res="-1.2427903711795807e-02" rms="2.4055558443069458e-01" purity="5.8395230770111084e-01" nType="0">
            <Node pos="l" depth="3" NCoef="0" IVar="-1" Cut="0.0000000000000000e+00" cType="1" res="1.8549114465713501e-02" rms="1.8874107301235199e-01" purity="5.2767369896173477e-02" nType="-99"/>
            <Node pos="r" depth="3" NCoef="0" IVar="-1" Cut="0.0000000000000000e+00" cType="1" res="-2.2995337843894958e-02" rms="2.4586999416351318e-01" purity="6.4670521020889282e-01" nType="-99"/>
          </Node>
        </Node>
      </Node>
    </BinaryTree>
    <BinaryTree type="DecisionTree" boostWeight="1.0000000000000000e+00" itree="317">
      <Node pos="s" depth="0" NCoef="0" IVar="7" Cut="3.9961576461791992e-01" cType="1" res="8.8327325647696853e-04" rms="2.4433882534503937e-01" purity="5.0018376111984253e-01" nType="0">
        <Node pos="l" depth="1" NCoef="0" IVar="4" Cut="1.9655262756347656e+02" cType="1" res="4.5803552493453026e-03" rms="2.4182349443435669e-01" purity="5.3986072540283203e-01" nType="0">
          <Node pos="l" depth="2" NCoef="0" IVar="7" Cut="-5.6595664471387863e-02" cType="1" res="-1.6104020178318024e-03" rms="2.3878797888755798e-01" purity="1.7093288898468018e-01" nType="0">
            <Node pos="l" depth="3" NCoef="0" IVar="-1" Cut="0.0000000000000000e+00" cType="1" res="6.4353770576417446e-03" rms="2.3562973737716675e-01" purity="1.6161371767520905e-01" nType="-99"/>
            <Node pos="r" depth="3" NCoef="0" IVar="-1" Cut="0.0000000000000000e+00" cType="1" res="-2.6289042085409164e-02" rms="2.4816074967384338e-01" purity="2.0187221467494965e-01" nType="-99"/>
          </Node>
          <Node pos="r" depth="2" NCoef="0" IVar="4" Cut="3.5769244384765625e+02" cType="1" res="8.0793639644980431e-03" rms="2.4345280230045319e-01" purity="7.4837821722030640e-01" nType="0">
            <Node pos="l" depth="3" NCoef="0" IVar="-1" Cut="0.0000000000000000e+00" cType="1" res="1.6376951709389687e-02" rms="2.6162216067314148e-01" purity="6.8492060899734497e-01" nType="-99"/>
            <Node pos="r" depth="3" NCoef="0" IVar="-1" Cut="0.0000000000000000e+00" cType="1" res="-1.1577855795621872e-02" rms="1.7056137323379517e-01" purity="9.5590478181838989e-01" nType="-99"/>
          </Node>
        </Node>
        <Node pos="r" depth="1" NCoef="0" IVar="2" Cut="5.4389636230468750e+02" cType="1" res="-6.3077504746615887e-03" rms="2.4900136888027191e-01" purity="4.2300990223884583e-01" nType="0">
          <Node pos="l" depth="2" NCoef="0" IVar="7" Cut="6.2838548421859741e-01" cType="1" res="-1.2860192917287350e-02" rms="2.5348156690597534e-01" purity="3.1147879362106323e-01" nType="0">
            <Node pos="l" depth="3" NCoef="0" IVar="-1" Cut="0.0000000000000000e+00" cType="1" res="-5.1878463476896286e-02" rms="2.8061327338218689e-01" purity="4.3442189693450928e-01" nType="-99"/>
            <Node pos="r" depth="3" NCoef="0" IVar="-1" Cut="0.0000000000000000e+00" cType="1" res="-7.5188586488366127e-03" rms="2.4480032920837402e-01" purity="2.7738830447196960e-01" nType="-99"/>
          </Node>
          <Node pos="r" depth="2" NCoef="0" IVar="8" Cut="-1.3367389142513275e-01" cType="1" res="4.0376638062298298e-03" rms="2.4139699339866638e-01" purity="5.9910231828689575e-01" nType="0">
            <Node pos="l" depth="3" NCoef="0" IVar="-1" Cut="0.0000000000000000e+00" cType="1" res="-1.3885535299777985e-02" rms="2.5982934236526489e-01" purity="5.5573594570159912e-01" nType="-99"/>
            <Node pos="r" depth="3" NCoef="0" IVar="-1" Cut="0.0000000000000000e+00" cType="1" res="2.3882502689957619e-02" rms="2.2684457898139954e-01" purity="6.3008803129196167e-01" nType="-99"/>
          </Node>
        </Node>
      </Node>
    </BinaryTree>
    <BinaryTree type="DecisionTree" boostWeight="1.0000000000000000e+00" itree="318">
      <Node pos="s" depth="0" NCoef="0" IVar="9" Cut="-1.4660094976425171e+00" cType="1" res="1.0639092652127147e-03" rms="2.4820226430892944e-01" purity="5.1095271110534668e-01" nType="0">
        <Node pos="l" depth="1" NCoef="0" IVar="5" Cut="1.4745948791503906e+02" cType="1" res="-1.7223950475454330e-02" rms="2.6445326209068298e-01" purity="3.1469082832336426e-01" nType="0">
          <Node pos="l" depth="2" NCoef="0" IVar="0" Cut="1.6224224853515625e+03" cType="1" res="-2.8332229703664780e-02" rms="2.4658197164535522e-01" purity="1.3602897524833679e-01" nType="0">
            <Node pos="l" depth="3" NCoef="0" IVar="-1" Cut="0.0000000000000000e+00" cType="1" res="1.9606044515967369e-03" rms="1.6409714519977570e-01" purity="2.8278496116399765e-02" nType="-99"/>
            <Node pos="r" depth="3" NCoef="0" IVar="-1" Cut="0.0000000000000000e+00" cType="1" res="-5.2089609205722809e-02" rms="2.9812425374984741e-01" purity="2.2961816191673279e-01" nType="-99"/>
          </Node>
          <Node pos="r" depth="2" NCoef="0" IVar="-1" Cut="0.0000000000000000e+00" cType="1" res="1.8828023939931882e-06" rms="2.8915363550186157e-01" purity="5.9174227714538574e-01" nType="-99"/>
        </Node>
        <Node pos="r" depth="1" NCoef="0" IVar="2" Cut="3.1064645385742188e+02" cType="1" res="2.9977657832205296e-03" rms="2.4634177982807159e-01" purity="5.3170651197433472e-01" nType="0">
          <Node pos="l" depth="2" NCoef="0" IVar="8" Cut="-1.3941419124603271e-01" cType="1" res="-1.4235742390155792e-02" rms="2.5355353951454163e-01" purity="1.5881109237670898e-01" nType="0">
            <Node pos="l" depth="3" NCoef="0" IVar="-1" Cut="0.0000000000000000e+00" cType="1" res="5.3813518024981022e-03" rms="2.6654636859893799e-01" purity="1.8438245356082916e-01" nType="-99"/>
            <Node pos="r" depth="3" NCoef="0" IVar="-1" Cut="0.0000000000000000e+00" cType="1" res="-3.7213612347841263e-02" rms="2.4334129691123962e-01" purity="1.4109688997268677e-01" nType="-99"/>
          </Node>
          <Node pos="r" depth="2" NCoef="0" IVar="8" Cut="1.7331526279449463e+00" cType="1" res="4.5779049396514893e-03" rms="2.4560943245887756e-01" purity="5.6589728593826294e-01" nType="0">
            <Node pos="l" depth="3" NCoef="0" IVar="-1" Cut="0.0000000000000000e+00" cType="1" res="9.4649232923984528e-03" rms="2.4628582596778870e-01" purity="5.8125716447830200e-01" nType="-99"/>
            <Node pos="r" depth="3" NCoef="0" IVar="-1" Cut="0.0000000000000000e+00" cType="1" res="-4.2293041944503784e-02" rms="2.2594191133975983e-01" purity="1.7803409695625305e-01" nType="-99"/>
          </Node>
        </Node>
      </Node>
    </BinaryTree>
    <BinaryTree type="DecisionTree" boostWeight="1.0000000000000000e+00" itree="319">
      <Node pos="s" depth="0" NCoef="0" IVar="9" Cut="-1.7323213815689087e+00" cType="1" res="1.9346503540873528e-03" rms="2.4545183777809143e-01" purity="5.0267219543457031e-01" nType="0">
        <Node pos="l" depth="1" NCoef="0" IVar="3" Cut="2.5397021484375000e+02" cType="1" res="-1.4281373471021652e-02" rms="2.5873932242393494e-01" purity="2.2260980308055878e-01" nType="0">
          <Node pos="l" depth="2" NCoef="0" IVar="-1" Cut="0.0000000000000000e+00" cType="1" res="4.1836034506559372e-04" rms="2.1752101182937622e-01" purity="9.3837939202785492e-02" nType="-99"/>
          <Node pos="r" depth="2" NCoef="0" IVar="-1" Cut="0.0000000000000000e+00" cType="1" res="-3.1007738783955574e-02" rms="2.8318637609481812e-01" purity="3.1111365556716919e-01" nType="-99"/>
        </Node>
        <Node pos="r" depth="1" NCoef="0" IVar="6" Cut="1.7612699270248413e+00" cType="1" res="3.0064089223742485e-03" rms="2.4451030790805817e-01" purity="5.2118223905563354e-01" nType="0">
          <Node pos="l" depth="2" NCoef="0" IVar="7" Cut="4.0091219544410706e-01" cType="1" res="3.5256042610853910e-03" rms="2.4741216003894806e-01" purity="5.3613173961639404e-01" nType="0">
            <Node pos="l" depth="3" NCoef="0" IVar="-1" Cut="0.0000000000000000e+00" cType="1" res="2.4287737905979156e-03" rms="2.4553294479846954e-01" purity="5.6403052806854248e-01" nType="-99"/>
            <Node pos="r" depth="3" NCoef="0" IVar="-1" Cut="0.0000000000000000e+00" cType="1" res="1.1772704310715199e-02" rms="2.5107622146606445e-01" purity="4.8039907217025757e-01" nType="-99"/>
          </Node>
          <Node pos="r" depth="2" NCoef="0" IVar="-1" Cut="0.0000000000000000e+00" cType="1" res="-7.7438756823539734e-02" rms="1.0607934743165970e-01" purity="1.6236534342169762e-02" nType="-99"/>
        </Node>
      </Node>
    </BinaryTree>
    <BinaryTree type="DecisionTree" boostWeight="1.0000000000000000e+00" itree="320">
      <Node pos="s" depth="0" NCoef="0" IVar="3" Cut="2.3945591735839844e+02" cType="1" res="-2.7081565931439400e-03" rms="2.4965439736843109e-01" purity="4.9886310100555420e-01" nType="0">
        <Node pos="l" depth="1" NCoef="0" IVar="7" Cut="-6.6593122482299805e-01" cType="1" res="5.3105256520211697e-03" rms="2.4159546196460724e-01" purity="1.3588201999664307e-01" nType="0">
          <Node pos="l" depth="2" NCoef="0" IVar="4" Cut="1.6881787109375000e+02" cType="1" res="1.8869804218411446e-02" rms="2.3569111526012421e-01" purity="1.2144864350557327e-01" nType="0">
            <Node pos="l" depth="3" NCoef="0" IVar="-1" Cut="0.0000000000000000e+00" cType="1" res="1.7870815470814705e-02" rms="1.9540995359420776e-01" purity="5.7151403278112411e-02" nType="-99"/>
            <Node pos="r" depth="3" NCoef="0" IVar="-1" Cut="0.0000000000000000e+00" cType="1" res="6.2852606177330017e-02" rms="2.9599437117576599e-01" purity="2.4351333081722260e-01" nType="-99"/>
          </Node>
          <Node pos="r" depth="2" NCoef="0" IVar="7" Cut="-1.7097994685173035e-01" cType="1" res="-9.4392197206616402e-04" rms="2.4401706457138062e-01" purity="1.4253965020179749e-01" nType="0">
            <Node pos="l" depth="3" NCoef="0" IVar="-1" Cut="0.0000000000000000e+00" cType="1" res="-4.0833622217178345e-02" rms="2.2370445728302002e-01" purity="1.4888702332973480e-01" nType="-99"/>
            <Node pos="r" depth="3" NCoef="0" IVar="-1" Cut="0.0000000000000000e+00" cType="1" res="8.2065071910619736e-03" rms="2.4836240708827972e-01" purity="1.4099708199501038e-01" nType="-99"/>
          </Node>
        </Node>
        <Node pos="r" depth="1" NCoef="0" IVar="1" Cut="4.0981676429510117e-02" cType="1" res="-5.0866547971963882e-03" rms="2.5194621086120605e-01" purity="6.0653042793273926e-01" nType="0">
          <Node pos="l" depth="2" NCoef="0" IVar="0" Cut="2.0951591796875000e+03" cType="1" res="4.0348991751670837e-03" rms="2.4723960459232330e-01" purity="2.5863769650459290e-01" nType="0">
            <Node pos="l" depth="3" NCoef="0" IVar="-1" Cut="0.0000000000000000e+00" cType="1" res="-2.6700810994952917e-03" rms="1.9631923735141754e-01" purity="5.5473953485488892e-02" nType="-99"/>
            <Node pos="r" depth="3" NCoef="0" IVar="-1" Cut="0.0000000000000000e+00" cType="1" res="1.2503145262598991e-02" rms="3.2449662685394287e-01" purity="6.5729814767837524e-01" nType="-99"/>
          </Node>
          <Node pos="r" depth="2" NCoef="0" IVar="0" Cut="2.9976643066406250e+03" cType="1" res="-8.8645825162529945e-03" rms="2.5377401709556580e-01" purity="7.5061923265457153e-01" nType="0">
            <Node pos="l" depth="3" NCoef="0" IVar="-1" Cut="0.0000000000000000e+00" cType="1" res="-1.5802862122654915e-02" rms="2.8043404221534729e-01" purity="6.8708050251007080e-01" nType="-99"/>
            <Node pos="r" depth="3" NCoef="0" IVar="-1" Cut="0.0000000000000000e+00" cType="1" res="2.9347816482186317e-02" rms="1.0482800751924515e-01" purity="9.8789972066879272e-01" nType="-99"/>
          </Node>
        </Node>
      </Node>
    </BinaryTree>
    <BinaryTree type="DecisionTree" boostWeight="1.0000000000000000e+00" itree="321">
      <Node pos="s" depth="0" NCoef="0" IVar="8" Cut="-4.0022176504135132e-01" cType="1" res="1.8045856850221753e-03" rms="2.4570482969284058e-01" purity="5.0549846887588501e-01" nType="0">
        <Node pos="l" depth="1" NCoef="0" IVar="4" Cut="3.2445855712890625e+02" cType="1" res="7.9924417659640312e-03" rms="2.5334417819976807e-01" purity="4.6073371171951294e-01" nType="0">
          <Node pos="l" depth="2" NCoef="0" IVar="6" Cut="-3.9918683469295502e-02" cType="1" res="1.1493717320263386e-02" rms="2.6262566447257996e-01" purity="3.7421062588691711e-01" nType="0">
            <Node pos="l" depth="3" NCoef="0" IVar="-1" Cut="0.0000000000000000e+00" cType="1" res="2.9518690425902605e-03" rms="2.6203238964080811e-01" purity="3.7507238984107971e-01" nType="-99"/>
            <Node pos="r" depth="3" NCoef="0" IVar="-1" Cut="0.0000000000000000e+00" cType="1" res="3.0703982338309288e-02" rms="2.6287296414375305e-01" purity="3.7342223525047302e-01" nType="-99"/>
          </Node>
          <Node pos="r" depth="2" NCoef="0" IVar="-1" Cut="0.0000000000000000e+00" cType="1" res="-2.7262015268206596e-02" rms="1.9739310443401337e-01" purity="9.0927374362945557e-01" nType="-99"/>
        </Node>
        <Node pos="r" depth="1" NCoef="0" IVar="2" Cut="8.8726977539062500e+02" cType="1" res="-1.5996223082765937e-03" rms="2.4133136868476868e-01" purity="5.3012549877166748e-01" nType="0">
          <Node pos="l" depth="2" NCoef="0" IVar="9" Cut="-1.1961017847061157e+00" cType="1" res="-5.3534447215497494e-04" rms="2.4020607769489288e-01" purity="5.1619875431060791e-01" nType="0">
            <Node pos="l" depth="3" NCoef="0" IVar="-1" Cut="0.0000000000000000e+00" cType="1" res="1.1623384431004524e-02" rms="2.6230090856552124e-01" purity="4.1468459367752075e-01" nType="-99"/>
            <Node pos="r" depth="3" NCoef="0" IVar="-1" Cut="0.0000000000000000e+00" cType="1" res="-3.3568134531378746e-03" rms="2.3656253516674042e-01" purity="5.3195029497146606e-01" nType="-99"/>
          </Node>
          <Node pos="r" depth="2" NCoef="0" IVar="-1" Cut="0.0000000000000000e+00" cType="1" res="-3.1581021845340729e-02" rms="2.6092877984046936e-01" purity="7.9411488771438599e-01" nType="-99"/>
        </Node>
      </Node>
    </BinaryTree>
    <BinaryTree type="DecisionTree" boostWeight="1.0000000000000000e+00" itree="322">
      <Node pos="s" depth="0" NCoef="0" IVar="8" Cut="-9.3359655141830444e-01" cType="1" res="-1.2213112786412239e-03" rms="2.4432399868965149e-01" purity="4.9936541914939880e-01" nType="0">
        <Node pos="l" depth="1" NCoef="0" IVar="5" Cut="1.4450175476074219e+02" cType="1" res="7.4641951359808445e-03" rms="2.5356042385101318e-01" purity="3.5413300991058350e-01" nType="0">
          <Node pos="l" depth="2" NCoef="0" IVar="7" Cut="-6.5510779619216919e-01" cType="1" res="-1.3350796652957797e-03" rms="2.2899708151817322e-01" purity="1.1464456468820572e-01" nType="0">
            <Node pos="l" depth="3" NCoef="0" IVar="-1" Cut="0.0000000000000000e+00" cType="1" res="3.9172995835542679e-02" rms="2.1600680053234100e-01" purity="8.2164444029331207e-02" nType="-99"/>
            <Node pos="r" depth="3" NCoef="0" IVar="-1" Cut="0.0000000000000000e+00" cType="1" res="-1.6901478171348572e-02" rms="2.3574486374855042e-01" purity="1.3364066183567047e-01" nType="-99"/>
          </Node>
          <Node pos="r" depth="2" NCoef="0" IVar="6" Cut="-4.5727697014808655e-01" cType="1" res="1.6952445730566978e-02" rms="2.7730974555015564e-01" purity="6.1237323284149170e-01" nType="0">
            <Node pos="l" depth="3" NCoef="0" IVar="-1" Cut="0.0000000000000000e+00" cType="1" res="4.5984614640474319e-02" rms="2.8223437070846558e-01" purity="5.8267229795455933e-01" nType="-99"/>
            <Node pos="r" depth="3" NCoef="0" IVar="-1" Cut="0.0000000000000000e+00" cType="1" res="8.0148912966251373e-03" rms="2.7435672283172607e-01" purity="6.2618058919906616e-01" nType="-99"/>
          </Node>
        </Node>
        <Node pos="r" depth="1" NCoef="0" IVar="8" Cut="-5.7804334163665771e-01" cType="1" res="-3.2849861308932304e-03" rms="2.4203179776668549e-01" purity="5.3387266397476196e-01" nType="0">
          <Node pos="l" depth="2" NCoef="0" IVar="4" Cut="1.8150891113281250e+02" cType="1" res="-2.7333844453096390e-02" rms="2.3372840881347656e-01" purity="5.3488689661026001e-01" nType="0">
            <Node pos="l" depth="3" NCoef="0" IVar="-1" Cut="0.0000000000000000e+00" cType="1" res="-9.1477312147617340e-02" rms="1.8325254321098328e-01" purity="8.2995414733886719e-02" nType="-99"/>
            <Node pos="r" depth="3" NCoef="0" IVar="-1" Cut="0.0000000000000000e+00" cType="1" res="-2.3323867470026016e-02" rms="2.4964989721775055e-01" purity="7.1195369958877563e-01" nType="-99"/>
          </Node>
          <Node pos="r" depth="2" NCoef="0" IVar="6" Cut="-2.7414849400520325e-01" cType="1" res="1.5051642549224198e-04" rms="2.4300062656402588e-01" purity="5.3372776508331299e-01" nType="0">
            <Node pos="l" depth="3" NCoef="0" IVar="-1" Cut="0.0000000000000000e+00" cType="1" res="-1.0418286547064781e-02" rms="2.4510526657104492e-01" purity="4.7089374065399170e-01" nType="-99"/>
            <Node pos="r" depth="3" NCoef="0" IVar="-1" Cut="0.0000000000000000e+00" cType="1" res="6.0111102648079395e-03" rms="2.4179002642631531e-01" purity="5.6753623485565186e-01" nType="-99"/>
          </Node>
        </Node>
      </Node>
    </BinaryTree>
    <BinaryTree type="DecisionTree" boostWeight="1.0000000000000000e+00" itree="323">
      <Node pos="s" depth="0" NCoef="0" IVar="6" Cut="-2.1050600335001945e-02" cType="1" res="-3.0275762546807528e-03" rms="2.4225437641143799e-01" purity="4.9539035558700562e-01" nType="0">
        <Node pos="l" depth="1" NCoef="0" IVar="1" Cut="8.2690007984638214e-02" cType="1" res="-6.9574643857777119e-03" rms="2.4380235373973846e-01" purity="4.9272826313972473e-01" nType="0">
          <Node pos="l" depth="2" NCoef="0" IVar="0" Cut="1.6663205566406250e+03" cType="1" res="-1.3311401009559631e-02" rms="2.4759350717067719e-01" purity="2.9064443707466125e-01" nType="0">
            <Node pos="l" depth="3" NCoef="0" IVar="-1" Cut="0.0000000000000000e+00" cType="1" res="-1.0614787228405476e-02" rms="1.3872405886650085e-01" purity="2.0800985395908356e-02" nType="-99"/>
            <Node pos="r" depth="3" NCoef="0" IVar="-1" Cut="0.0000000000000000e+00" cType="1" res="-2.1746939048171043e-02" rms="2.9650861024856567e-01" purity="4.6222066879272461e-01" nType="-99"/>
          </Node>
          <Node pos="r" depth="2" NCoef="0" IVar="6" Cut="-6.0166776180267334e-01" cType="1" res="2.6200218126177788e-03" rms="2.3765292763710022e-01" purity="7.9733544588088989e-01" nType="0">
            <Node pos="l" depth="3" NCoef="0" IVar="-1" Cut="0.0000000000000000e+00" cType="1" res="2.4918736889958382e-02" rms="2.7537006139755249e-01" purity="7.4428433179855347e-01" nType="-99"/>
            <Node pos="r" depth="3" NCoef="0" IVar="-1" Cut="0.0000000000000000e+00" cType="1" res="-6.6585545428097248e-03" rms="2.2083988785743713e-01" purity="8.1810766458511353e-01" nType="-99"/>
          </Node>
        </Node>
        <Node pos="r" depth="1" NCoef="0" IVar="6" Cut="1.0523177385330200e+00" cType="1" res="9.1889040777459741e-04" rms="2.4062526226043701e-01" purity="4.9806374311447144e-01" nType="0">
          <Node pos="l" depth="2" NCoef="0" IVar="1" Cut="1.2104617804288864e-01" cType="1" res="3.6311240401118994e-03" rms="2.4832570552825928e-01" purity="5.8650696277618408e-01" nType="0">
            <Node pos="l" depth="3" NCoef="0" IVar="-1" Cut="0.0000000000000000e+00" cType="1" res="1.1316473595798016e-02" rms="2.6024284958839417e-01" purity="4.8693752288818359e-01" nType="-99"/>
            <Node pos="r" depth="3" NCoef="0" IVar="-1" Cut="0.0000000000000000e+00" cType="1" res="-1.1779711581766605e-02" rms="2.2073441743850708e-01" purity="7.9702305793762207e-01" nType="-99"/>
          </Node>
          <Node pos="r" depth="2" NCoef="0" IVar="6" Cut="1.2184578180313110e+00" cType="1" res="-8.8867554441094398e-03" rms="2.1015593409538269e-01" purity="1.7831133306026459e-01" nType="0">
            <Node pos="l" depth="3" NCoef="0" IVar="-1" Cut="0.0000000000000000e+00" cType="1" res="-3.8808833807706833e-02" rms="2.5248765945434570e-01" purity="3.0791872739791870e-01" nType="-99"/>
            <Node pos="r" depth="3" NCoef="0" IVar="-1" Cut="0.0000000000000000e+00" cType="1" res="-5.3358008153736591e-03" rms="1.9266596436500549e-01" purity="1.3285109400749207e-01" nType="-99"/>
          </Node>
        </Node>
      </Node>
    </BinaryTree>
    <BinaryTree type="DecisionTree" boostWeight="1.0000000000000000e+00" itree="324">
      <Node pos="s" depth="0" NCoef="0" IVar="9" Cut="9.3324851989746094e-01" cType="1" res="1.4205605839379132e-04" rms="2.4443371593952179e-01" purity="4.9884942173957825e-01" nType="0">
        <Node pos="l" depth="1" NCoef="0" IVar="9" Cut="7.5550359487533569e-01" cType="1" res="2.1614728029817343e-03" rms="2.4363307654857635e-01" purity="5.2894675731658936e-01" nType="0">
          <Node pos="l" depth="2" NCoef="0" IVar="8" Cut="6.6744273900985718e-01" cType="1" res="1.0110100265592337e-03" rms="2.4373769760131836e-01" purity="5.2621591091156006e-01" nType="0">
            <Node pos="l" depth="3" NCoef="0" IVar="-1" Cut="0.0000000000000000e+00" cType="1" res="-2.1965391933917999e-03" rms="2.4038662016391754e-01" purity="5.4950922727584839e-01" nType="-99"/>
            <Node pos="r" depth="3" NCoef="0" IVar="-1" Cut="0.0000000000000000e+00" cType="1" res="1.3003658503293991e-02" rms="2.5414314866065979e-01" purity="4.5078909397125244e-01" nType="-99"/>
          </Node>
          <Node pos="r" depth="2" NCoef="0" IVar="-1" Cut="0.0000000000000000e+00" cType="1" res="3.4385927021503448e-02" rms="2.4134616553783417e-01" purity="5.7069844007492065e-01" nType="-99"/>
        </Node>
        <Node pos="r" depth="1" NCoef="0" IVar="5" Cut="1.2027326202392578e+02" cType="1" res="-7.3665441013872623e-03" rms="2.4724324047565460e-01" purity="3.8694128394126892e-01" nType="0">
          <Node pos="l" depth="2" NCoef="0" IVar="9" Cut="1.7323267459869385e+00" cType="1" res="4.3262988328933716e-03" rms="2.1170783042907715e-01" purity="1.1550206691026688e-01" nType="0">
            <Node pos="l" depth="3" NCoef="0" IVar="-1" Cut="0.0000000000000000e+00" cType="1" res="-1.7470842227339745e-02" rms="1.8235847353935242e-01" purity="1.0977496951818466e-01" nType="-99"/>
            <Node pos="r" depth="3" NCoef="0" IVar="-1" Cut="0.0000000000000000e+00" cType="1" res="4.6932443976402283e-02" rms="2.4988070130348206e-01" purity="1.2453243881464005e-01" nType="-99"/>
          </Node>
          <Node pos="r" depth="2" NCoef="0" IVar="7" Cut="4.0994933247566223e-01" cType="1" res="-1.3995205983519554e-02" rms="2.6505348086357117e-01" purity="5.4081988334655762e-01" nType="0">
            <Node pos="l" depth="3" NCoef="0" IVar="-1" Cut="0.0000000000000000e+00" cType="1" res="-3.0337870121002197e-02" rms="2.5305238366127014e-01" purity="5.7517814636230469e-01" nType="-99"/>
            <Node pos="r" depth="3" NCoef="0" IVar="-1" Cut="0.0000000000000000e+00" cType="1" res="2.0233846735209227e-03" rms="2.8372603654861450e-01" purity="4.8207923769950867e-01" nType="-99"/>
          </Node>
        </Node>
      </Node>
    </BinaryTree>
    <BinaryTree type="DecisionTree" boostWeight="1.0000000000000000e+00" itree="325">
      <Node pos="s" depth="0" NCoef="0" IVar="8" Cut="1.1997438669204712e+00" cType="1" res="-3.4480933099985123e-03" rms="2.3982372879981995e-01" purity="5.0026243925094604e-01" nType="0">
        <Node pos="l" depth="1" NCoef="0" IVar="8" Cut="-1.0852849483489990e+00" cType="1" res="-2.1321906242519617e-03" rms="2.3990491032600403e-01" purity="5.2712088823318481e-01" nType="0">
          <Node pos="l" depth="2" NCoef="0" IVar="1" Cut="8.4888868033885956e-02" cType="1" res="-1.1649234220385551e-02" rms="2.5041481852531433e-01" purity="3.1165629625320435e-01" nType="0">
            <Node pos="l" depth="3" NCoef="0" IVar="-1" Cut="0.0000000000000000e+00" cType="1" res="5.8845942839980125e-03" rms="2.3552858829498291e-01" purity="2.0587490499019623e-01" nType="-99"/>
            <Node pos="r" depth="3" NCoef="0" IVar="-1" Cut="0.0000000000000000e+00" cType="1" res="-5.6659605354070663e-02" rms="2.7982237935066223e-01" purity="5.6796634197235107e-01" nType="-99"/>
          </Node>
          <Node pos="r" depth="2" NCoef="0" IVar="8" Cut="1.1157206445932388e-01" cType="1" res="-2.1212847786955535e-04" rms="2.3768202960491180e-01" purity="5.7059079408645630e-01" nType="0">
            <Node pos="l" depth="3" NCoef="0" IVar="-1" Cut="0.0000000000000000e+00" cType="1" res="-7.2396085597574711e-03" rms="2.3420986533164978e-01" purity="5.6433874368667603e-01" nType="-99"/>
            <Node pos="r" depth="3" NCoef="0" IVar="-1" Cut="0.0000000000000000e+00" cType="1" res="7.3258881457149982e-03" rms="2.4170964956283569e-01" purity="5.7810986042022705e-01" nType="-99"/>
          </Node>
        </Node>
        <Node pos="r" depth="1" NCoef="0" IVar="1" Cut="1.7550021409988403e-02" cType="1" res="-1.3450891710817814e-02" rms="2.3896890878677368e-01" purity="2.9609915614128113e-01" nType="0">
          <Node pos="l" depth="2" NCoef="0" IVar="-1" Cut="0.0000000000000000e+00" cType="1" res="9.9170859903097153e-03" rms="1.6049338877201080e-01" purity="5.3034264594316483e-02" nType="-99"/>
          <Node pos="r" depth="2" NCoef="0" IVar="6" Cut="-3.1029134988784790e-01" cType="1" res="-1.8949005752801895e-02" rms="2.6018494367599487e-01" purity="3.7913253903388977e-01" nType="0">
            <Node pos="l" depth="3" NCoef="0" IVar="-1" Cut="0.0000000000000000e+00" cType="1" res="-4.6706642955541611e-02" rms="2.4972808361053467e-01" purity="2.8586786985397339e-01" nType="-99"/>
            <Node pos="r" depth="3" NCoef="0" IVar="-1" Cut="0.0000000000000000e+00" cType="1" res="-1.5539794228971004e-02" rms="2.6477837562561035e-01" purity="4.2371219396591187e-01" nType="-99"/>
          </Node>
        </Node>
      </Node>
    </BinaryTree>
    <BinaryTree type="DecisionTree" boostWeight="1.0000000000000000e+00" itree="326">
      <Node pos="s" depth="0" NCoef="0" IVar="3" Cut="2.0503410339355469e+02" cType="1" res="2.6498101651668549e-03" rms="2.5006490945816040e-01" purity="5.0585120916366577e-01" nType="0">
        <Node pos="l" depth="1" NCoef="0" IVar="0" Cut="1.5742534179687500e+03" cType="1" res="-9.7475145012140274e-03" rms="2.0448744297027588e-01" purity="7.3556318879127502e-02" nType="0">
          <Node pos="l" depth="2" NCoef="0" IVar="8" Cut="-1.3254730403423309e-01" cType="1" res="-2.8398637659847736e-03" rms="1.4220096170902252e-01" purity="2.2785164415836334e-02" nType="0">
            <Node pos="l" depth="3" NCoef="0" IVar="-1" Cut="0.0000000000000000e+00" cType="1" res="-4.3981954455375671e-02" rms="1.1753915250301361e-01" purity="1.5726627781987190e-02" nType="-99"/>
            <Node pos="r" depth="3" NCoef="0" IVar="-1" Cut="0.0000000000000000e+00" cType="1" res="1.6310384497046471e-02" rms="1.6041237115859985e-01" purity="2.8959535062313080e-02" nType="-99"/>
          </Node>
          <Node pos="r" depth="2" NCoef="0" IVar="-1" Cut="0.0000000000000000e+00" cType="1" res="-2.5690354406833649e-02" rms="2.6805436611175537e-01" purity="1.4455708861351013e-01" nType="-99"/>
        </Node>
        <Node pos="r" depth="1" NCoef="0" IVar="0" Cut="2.4650922851562500e+03" cType="1" res="4.2958771809935570e-03" rms="2.5546059012413025e-01" purity="5.6324958801269531e-01" nType="0">
          <Node pos="l" depth="2" NCoef="0" IVar="1" Cut="4.1443709284067154e-02" cType="1" res="8.3072511479258537e-03" rms="2.9148694872856140e-01" purity="3.3262017369270325e-01" nType="0">
            <Node pos="l" depth="3" NCoef="0" IVar="-1" Cut="0.0000000000000000e+00" cType="1" res="-1.6153518809005618e-03" rms="2.2089815139770508e-01" purity="9.5993228256702423e-02" nType="-99"/>
            <Node pos="r" depth="3" NCoef="0" IVar="-1" Cut="0.0000000000000000e+00" cType="1" res="1.3853590935468674e-02" rms="3.3408582210540771e-01" purity="5.0766360759735107e-01" nType="-99"/>
          </Node>
          <Node pos="r" depth="2" NCoef="0" IVar="9" Cut="-1.2003904581069946e+00" cType="1" res="-2.3449561558663845e-03" rms="1.8046744167804718e-01" purity="9.4505685567855835e-01" nType="0">
            <Node pos="l" depth="3" NCoef="0" IVar="-1" Cut="0.0000000000000000e+00" cType="1" res="-5.5331651121377945e-02" rms="2.5033372640609741e-01" purity="8.6916291713714600e-01" nType="-99"/>
            <Node pos="r" depth="3" NCoef="0" IVar="-1" Cut="0.0000000000000000e+00" cType="1" res="1.5717603964731097e-03" rms="1.7172127962112427e-01" purity="9.5260119438171387e-01" nType="-99"/>
          </Node>
        </Node>
      </Node>
    </BinaryTree>
    <BinaryTree type="DecisionTree" boostWeight="1.0000000000000000e+00" itree="327">
      <Node pos="s" depth="0" NCoef="0" IVar="8" Cut="-1.7335728406906128e+00" cType="1" res="5.4562190780416131e-04" rms="2.4745135009288788e-01" purity="5.0202840566635132e-01" nType="0">
        <Node pos="l" depth="1" NCoef="0" IVar="5" Cut="1.2326586151123047e+02" cType="1" res="1.8558152019977570e-02" rms="2.5213658809661865e-01" purity="1.6681121289730072e-01" nType="0">
          <Node pos="l" depth="2" NCoef="0" IVar="-1" Cut="0.0000000000000000e+00" cType="1" res="3.8541972637176514e-02" rms="1.7877472937107086e-01" purity="4.5381668955087662e-02" nType="-99"/>
          <Node pos="r" depth="2" NCoef="0" IVar="-1" Cut="0.0000000000000000e+00" cType="1" res="3.4798774868249893e-02" rms="3.1052201986312866e-01" purity="2.9365634918212891e-01" nType="-99"/>
        </Node>
        <Node pos="r" depth="1" NCoef="0" IVar="8" Cut="-1.0860233306884766e+00" cType="1" res="-4.5283866347745061e-04" rms="2.4715064465999603e-01" purity="5.2061003446578979e-01" nType="0">
          <Node pos="l" depth="2" NCoef="0" IVar="4" Cut="1.9147557067871094e+02" cType="1" res="-1.3359820470213890e-02" rms="2.6684266328811646e-01" purity="3.8846072554588318e-01" nType="0">
            <Node pos="l" depth="3" NCoef="0" IVar="-1" Cut="0.0000000000000000e+00" cType="1" res="1.6892353072762489e-02" rms="2.5555056333541870e-01" purity="1.8154419958591461e-01" nType="-99"/>
            <Node pos="r" depth="3" NCoef="0" IVar="-1" Cut="0.0000000000000000e+00" cType="1" res="-3.9003908634185791e-02" rms="2.7383926510810852e-01" purity="5.5073434114456177e-01" nType="-99"/>
          </Node>
          <Node pos="r" depth="2" NCoef="0" IVar="7" Cut="-1.1975950002670288e+00" cType="1" res="1.0715739335864782e-03" rms="2.4467530846595764e-01" purity="5.3621780872344971e-01" nType="0">
            <Node pos="l" depth="3" NCoef="0" IVar="-1" Cut="0.0000000000000000e+00" cType="1" res="2.1647343412041664e-02" rms="2.4981656670570374e-01" purity="2.5312286615371704e-01" nType="-99"/>
            <Node pos="r" depth="3" NCoef="0" IVar="-1" Cut="0.0000000000000000e+00" cType="1" res="-4.4196887756697834e-04" rms="2.4404762685298920e-01" purity="5.6840318441390991e-01" nType="-99"/>
          </Node>
        </Node>
      </Node>
    </BinaryTree>
    <BinaryTree type="DecisionTree" boostWeight="1.0000000000000000e+00" itree="328">
      <Node pos="s" depth="0" NCoef="0" IVar="8" Cut="-4.0022176504135132e-01" cType="1" res="5.7666498469188809e-04" rms="2.4764566123485565e-01" purity="5.0039196014404297e-01" nType="0">
        <Node pos="l" depth="1" NCoef="0" IVar="1" Cut="7.8642033040523529e-02" cType="1" res="6.0310978442430496e-03" rms="2.5173360109329224e-01" purity="4.6334138512611389e-01" nType="0">
          <Node pos="l" depth="2" NCoef="0" IVar="6" Cut="-1.0353964567184448e+00" cType="1" res="-1.0086067486554384e-03" rms="2.5232768058776855e-01" purity="2.5710260868072510e-01" nType="0">
            <Node pos="l" depth="3" NCoef="0" IVar="-1" Cut="0.0000000000000000e+00" cType="1" res="3.3389572054147720e-02" rms="2.3695570230484009e-01" purity="1.2896394729614258e-01" nType="-99"/>
            <Node pos="r" depth="3" NCoef="0" IVar="-1" Cut="0.0000000000000000e+00" cType="1" res="-7.1234963834285736e-03" rms="2.5562086701393127e-01" purity="2.8692206740379333e-01" nType="-99"/>
          </Node>
          <Node pos="r" depth="2" NCoef="0" IVar="5" Cut="1.4536677551269531e+02" cType="1" res="1.6309754922986031e-02" rms="2.5050863623619080e-01" purity="7.6447021961212158e-01" nType="0">
            <Node pos="l" depth="3" NCoef="0" IVar="-1" Cut="0.0000000000000000e+00" cType="1" res="4.3286170810461044e-02" rms="3.4631052613258362e-01" purity="3.9580929279327393e-01" nType="-99"/>
            <Node pos="r" depth="3" NCoef="0" IVar="-1" Cut="0.0000000000000000e+00" cType="1" res="1.3620995916426182e-02" rms="2.1148264408111572e-01" purity="8.7855571508407593e-01" nType="-99"/>
          </Node>
        </Node>
        <Node pos="r" depth="1" NCoef="0" IVar="8" Cut="1.5803930759429932e+00" cType="1" res="-2.3826435208320618e-03" rms="2.4534851312637329e-01" purity="5.2049368619918823e-01" nType="0">
          <Node pos="l" depth="2" NCoef="0" IVar="8" Cut="-3.0589091777801514e-01" cType="1" res="-4.1005397215485573e-03" rms="2.4397177994251251e-01" purity="5.5354195833206177e-01" nType="0">
            <Node pos="l" depth="3" NCoef="0" IVar="-1" Cut="0.0000000000000000e+00" cType="1" res="2.7072345837950706e-02" rms="2.6803794503211975e-01" purity="5.9613728523254395e-01" nType="-99"/>
            <Node pos="r" depth="3" NCoef="0" IVar="-1" Cut="0.0000000000000000e+00" cType="1" res="-8.6856503039598465e-03" rms="2.4241010844707489e-01" purity="5.5100721120834351e-01" nType="-99"/>
          </Node>
          <Node pos="r" depth="2" NCoef="0" IVar="4" Cut="1.7925981140136719e+02" cType="1" res="1.3480320572853088e-02" rms="2.5717219710350037e-01" purity="2.1532808244228363e-01" nType="0">
            <Node pos="l" depth="3" NCoef="0" IVar="-1" Cut="0.0000000000000000e+00" cType="1" res="6.8202652037143707e-02" rms="2.3583813011646271e-01" purity="1.1841411888599396e-01" nType="-99"/>
            <Node pos="r" depth="3" NCoef="0" IVar="-1" Cut="0.0000000000000000e+00" cType="1" res="-5.8926544152200222e-03" rms="2.7809390425682068e-01" purity="3.2425972819328308e-01" nType="-99"/>
          </Node>
        </Node>
      </Node>
    </BinaryTree>
    <BinaryTree type="DecisionTree" boostWeight="1.0000000000000000e+00" itree="329">
      <Node pos="s" depth="0" NCoef="0" IVar="9" Cut="1.7330983877182007e+00" cType="1" res="7.9520902363583446e-04" rms="2.4580264091491699e-01" purity="4.9678751826286316e-01" nType="0">
        <Node pos="l" depth="1" NCoef="0" IVar="9" Cut="1.3015000820159912e+00" cType="1" res="-2.1570459648501128e-04" rms="2.4343281984329224e-01" purity="5.1016974449157715e-01" nType="0">
          <Node pos="l" depth="2" NCoef="0" IVar="9" Cut="-4.5578747987747192e-01" cType="1" res="7.8795134322717786e-04" rms="2.4315156042575836e-01" purity="5.1898276805877686e-01" nType="0">
            <Node pos="l" depth="3" NCoef="0" IVar="-1" Cut="0.0000000000000000e+00" cType="1" res="-6.9170170463621616e-03" rms="2.5132977962493896e-01" purity="4.6781823039054871e-01" nType="-99"/>
            <Node pos="r" depth="3" NCoef="0" IVar="-1" Cut="0.0000000000000000e+00" cType="1" res="7.4983937665820122e-03" rms="2.3758739233016968e-01" purity="5.5242961645126343e-01" nType="-99"/>
          </Node>
          <Node pos="r" depth="2" NCoef="0" IVar="4" Cut="1.8142231750488281e+02" cType="1" res="-1.3966555707156658e-02" rms="2.4684348702430725e-01" purity="3.8942414522171021e-01" nType="0">
            <Node pos="l" depth="3" NCoef="0" IVar="-1" Cut="0.0000000000000000e+00" cType="1" res="-4.4897224754095078e-02" rms="2.1949300169944763e-01" purity="1.0859667509794235e-01" nType="-99"/>
            <Node pos="r" depth="3" NCoef="0" IVar="-1" Cut="0.0000000000000000e+00" cType="1" res="-5.7156868278980255e-03" rms="2.6281762123107910e-01" purity="5.7347309589385986e-01" nType="-99"/>
          </Node>
        </Node>
        <Node pos="r" depth="1" NCoef="0" IVar="3" Cut="2.7872360229492188e+02" cType="1" res="1.7629547044634819e-02" rms="2.8182539343833923e-01" purity="2.7393946051597595e-01" nType="0">
          <Node pos="l" depth="2" NCoef="0" IVar="-1" Cut="0.0000000000000000e+00" cType="1" res="4.7483615577220917e-02" rms="2.5679197907447815e-01" purity="1.4745126664638519e-01" nType="-99"/>
          <Node pos="r" depth="2" NCoef="0" IVar="-1" Cut="0.0000000000000000e+00" cType="1" res="8.9730927720665932e-03" rms="3.0509439110755920e-01" purity="4.0375772118568420e-01" nType="-99"/>
        </Node>
      </Node>
    </BinaryTree>
    <BinaryTree type="DecisionTree" boostWeight="1.0000000000000000e+00" itree="330">
      <Node pos="s" depth="0" NCoef="0" IVar="9" Cut="-1.1993846893310547e+00" cType="1" res="-1.9976741168648005e-03" rms="2.4306625127792358e-01" purity="5.0002610683441162e-01" nType="0">
        <Node pos="l" depth="1" NCoef="0" IVar="5" Cut="1.6995790100097656e+02" cType="1" res="1.1967794038355350e-02" rms="2.6846078038215637e-01" purity="3.9995229244232178e-01" nType="0">
          <Node pos="l" depth="2" NCoef="0" IVar="3" Cut="2.5244061279296875e+02" cType="1" res="3.3002751879394054e-03" rms="2.6500666141510010e-01" purity="2.3437586426734924e-01" nType="0">
            <Node pos="l" depth="3" NCoef="0" IVar="-1" Cut="0.0000000000000000e+00" cType="1" res="-1.1988971382379532e-02" rms="2.3920594155788422e-01" purity="1.0651545971632004e-01" nType="-99"/>
            <Node pos="r" depth="3" NCoef="0" IVar="-1" Cut="0.0000000000000000e+00" cType="1" res="1.3160338625311852e-02" rms="2.8269708156585693e-01" purity="3.3102077245712280e-01" nType="-99"/>
          </Node>
          <Node pos="r" depth="2" NCoef="0" IVar="-1" Cut="0.0000000000000000e+00" cType="1" res="3.7836469709873199e-02" rms="2.7483162283897400e-01" purity="7.5689214468002319e-01" nType="-99"/>
        </Node>
        <Node pos="r" depth="1" NCoef="0" IVar="0" Cut="2.1988581542968750e+03" cType="1" res="-4.3150102719664574e-03" rms="2.3851205408573151e-01" purity="5.1663166284561157e-01" nType="0">
          <Node pos="l" depth="2" NCoef="0" IVar="1" Cut="4.1357293725013733e-02" cType="1" res="-8.8870851323008537e-03" rms="2.6004758477210999e-01" purity="1.7462991178035736e-01" nType="0">
            <Node pos="l" depth="3" NCoef="0" IVar="-1" Cut="0.0000000000000000e+00" cType="1" res="-5.1773963496088982e-03" rms="1.7776492238044739e-01" purity="5.3219839930534363e-02" nType="-99"/>
            <Node pos="r" depth="3" NCoef="0" IVar="-1" Cut="0.0000000000000000e+00" cType="1" res="-1.4410723000764847e-02" rms="3.2385528087615967e-01" purity="3.0055046081542969e-01" nType="-99"/>
          </Node>
          <Node pos="r" depth="2" NCoef="0" IVar="8" Cut="1.2002629041671753e+00" cType="1" res="1.0591596364974976e-03" rms="2.1027176082134247e-01" purity="9.1863191127777100e-01" nType="0">
            <Node pos="l" depth="3" NCoef="0" IVar="-1" Cut="0.0000000000000000e+00" cType="1" res="5.8656339533627033e-03" rms="2.0262148976325989e-01" purity="9.2694997787475586e-01" nType="-99"/>
            <Node pos="r" depth="3" NCoef="0" IVar="-1" Cut="0.0000000000000000e+00" cType="1" res="-2.0866610109806061e-02" rms="2.9358267784118652e-01" purity="8.0713564157485962e-01" nType="-99"/>
          </Node>
        </Node>
      </Node>
    </BinaryTree>
    <BinaryTree type="DecisionTree" boostWeight="1.0000000000000000e+00" itree="331">
      <Node pos="s" depth="0" NCoef="0" IVar="6" Cut="5.0252568721771240e-01" cType="1" res="1.1894286144524813e-03" rms="2.4691532552242279e-01" purity="5.1033067703247070e-01" nType="0">
        <Node pos="l" depth="1" NCoef="0" IVar="3" Cut="2.7483660888671875e+02" cType="1" res="-1.3968029525130987e-03" rms="2.5021845102310181e-01" purity="5.5765157938003540e-01" nType="0">
          <Node pos="l" depth="2" NCoef="0" IVar="0" Cut="1.9171263427734375e+03" cType="1" res="-1.2103118002414703e-02" rms="2.5856089591979980e-01" purity="2.1200264990329742e-01" nType="0">
            <Node pos="l" depth="3" NCoef="0" IVar="-1" Cut="0.0000000000000000e+00" cType="1" res="-1.0318496264517307e-02" rms="2.3613078892230988e-01" purity="8.9155375957489014e-02" nType="-99"/>
            <Node pos="r" depth="3" NCoef="0" IVar="-1" Cut="0.0000000000000000e+00" cType="1" res="-3.5064365714788437e-02" rms="3.2579126954078674e-01" purity="6.5330493450164795e-01" nType="-99"/>
          </Node>
          <Node pos="r" depth="2" NCoef="0" IVar="4" Cut="2.4142269897460938e+02" cType="1" res="3.6349920555949211e-03" rms="2.4603913724422455e-01" purity="7.2010105848312378e-01" nType="0">
            <Node pos="l" depth="3" NCoef="0" IVar="-1" Cut="0.0000000000000000e+00" cType="1" res="1.7284538596868515e-02" rms="2.9252919554710388e-01" purity="4.2294064164161682e-01" nType="-99"/>
            <Node pos="r" depth="3" NCoef="0" IVar="-1" Cut="0.0000000000000000e+00" cType="1" res="-3.6639033351093531e-03" rms="2.1867094933986664e-01" purity="8.6999726295471191e-01" nType="-99"/>
          </Node>
        </Node>
        <Node pos="r" depth="1" NCoef="0" IVar="5" Cut="1.3186912536621094e+02" cType="1" res="8.0998679623007774e-03" rms="2.3772642016410828e-01" purity="3.8388860225677490e-01" nType="0">
          <Node pos="l" depth="2" NCoef="0" IVar="9" Cut="6.6351014375686646e-01" cType="1" res="-4.6887826174497604e-03" rms="1.8697033822536469e-01" purity="8.5669361054897308e-02" nType="0">
            <Node pos="l" depth="3" NCoef="0" IVar="-1" Cut="0.0000000000000000e+00" cType="1" res="1.0906005278229713e-02" rms="1.9022987782955170e-01" purity="9.2174887657165527e-02" nType="-99"/>
            <Node pos="r" depth="3" NCoef="0" IVar="-1" Cut="0.0000000000000000e+00" cType="1" res="-5.3828187286853790e-02" rms="1.7911404371261597e-01" purity="7.2871081531047821e-02" nType="-99"/>
          </Node>
          <Node pos="r" depth="2" NCoef="0" IVar="0" Cut="2.0562687988281250e+03" cType="1" res="1.7602270469069481e-02" rms="2.6892161369323730e-01" purity="6.0547566413879395e-01" nType="0">
            <Node pos="l" depth="3" NCoef="0" IVar="-1" Cut="0.0000000000000000e+00" cType="1" res="4.2649324983358383e-02" rms="3.2379415631294250e-01" purity="2.2789715230464935e-01" nType="-99"/>
            <Node pos="r" depth="3" NCoef="0" IVar="-1" Cut="0.0000000000000000e+00" cType="1" res="4.0890667587518692e-03" rms="2.2069692611694336e-01" purity="8.7322419881820679e-01" nType="-99"/>
          </Node>
        </Node>
      </Node>
    </BinaryTree>
    <BinaryTree type="DecisionTree" boostWeight="1.0000000000000000e+00" itree="332">
      <Node pos="s" depth="0" NCoef="0" IVar="5" Cut="1.2120568847656250e+02" cType="1" res="-9.5137499738484621e-04" rms="2.4388463795185089e-01" purity="4.9638819694519043e-01" nType="0">
        <Node pos="l" depth="1" NCoef="0" IVar="5" Cut="9.7841926574707031e+01" cType="1" res="5.7929246686398983e-03" rms="2.2918818891048431e-01" purity="1.1173324286937714e-01" nType="0">
          <Node pos="l" depth="2" NCoef="0" IVar="9" Cut="1.2000541687011719e+00" cType="1" res="-1.1648419313132763e-03" rms="1.8652479350566864e-01" purity="6.6934056580066681e-02" nType="0">
            <Node pos="l" depth="3" NCoef="0" IVar="-1" Cut="0.0000000000000000e+00" cType="1" res="-1.3005541637539864e-02" rms="1.7947719991207123e-01" purity="6.3940413296222687e-02" nType="-99"/>
            <Node pos="r" depth="3" NCoef="0" IVar="-1" Cut="0.0000000000000000e+00" cType="1" res="3.3123988658189774e-02" rms="2.1142211556434631e-01" purity="7.8684911131858826e-02" nType="-99"/>
          </Node>
          <Node pos="r" depth="2" NCoef="0" IVar="9" Cut="-3.9816612005233765e-01" cType="1" res="1.3214863836765289e-02" rms="2.6709440350532532e-01" purity="1.5952108800411224e-01" nType="0">
            <Node pos="l" depth="3" NCoef="0" IVar="-1" Cut="0.0000000000000000e+00" cType="1" res="-1.3440091861411929e-03" rms="2.4817478656768799e-01" purity="1.4999385178089142e-01" nType="-99"/>
            <Node pos="r" depth="3" NCoef="0" IVar="-1" Cut="0.0000000000000000e+00" cType="1" res="3.8178972899913788e-02" rms="2.7855259180068970e-01" purity="1.6584451496601105e-01" nType="-99"/>
          </Node>
        </Node>
        <Node pos="r" depth="1" NCoef="0" IVar="3" Cut="3.8967529296875000e+02" cType="1" res="-3.6813605111092329e-03" rms="2.4953578412532806e-01" purity="6.5209043025970459e-01" nType="0">
          <Node pos="l" depth="2" NCoef="0" IVar="7" Cut="9.3273806571960449e-01" cType="1" res="-8.6459480226039886e-03" rms="2.7787080407142639e-01" purity="4.9242979288101196e-01" nType="0">
            <Node pos="l" depth="3" NCoef="0" IVar="-1" Cut="0.0000000000000000e+00" cType="1" res="-1.4472436159849167e-02" rms="2.7827742695808411e-01" purity="5.2101612091064453e-01" nType="-99"/>
            <Node pos="r" depth="3" NCoef="0" IVar="-1" Cut="0.0000000000000000e+00" cType="1" res="5.9416648000478745e-03" rms="2.7568441629409790e-01" purity="3.6783489584922791e-01" nType="-99"/>
          </Node>
          <Node pos="r" depth="2" NCoef="0" IVar="7" Cut="-6.5966022014617920e-01" cType="1" res="4.0816208347678185e-03" rms="1.9698145985603333e-01" purity="9.0174704790115356e-01" nType="0">
            <Node pos="l" depth="3" NCoef="0" IVar="-1" Cut="0.0000000000000000e+00" cType="1" res="-1.9404480233788490e-02" rms="2.3659935593605042e-01" purity="7.9564893245697021e-01" nType="-99"/>
            <Node pos="r" depth="3" NCoef="0" IVar="-1" Cut="0.0000000000000000e+00" cType="1" res="1.7030401155352592e-02" rms="1.8828803300857544e-01" purity="9.2207068204879761e-01" nType="-99"/>
          </Node>
        </Node>
      </Node>
    </BinaryTree>
    <BinaryTree type="DecisionTree" boostWeight="1.0000000000000000e+00" itree="333">
      <Node pos="s" depth="0" NCoef="0" IVar="6" Cut="-8.1270122528076172e-01" cType="1" res="-1.1245828354731202e-03" rms="2.4916326999664307e-01" purity="4.9781176447868347e-01" nType="0">
        <Node pos="l" depth="1" NCoef="0" IVar="1" Cut="4.8342555761337280e-02" cType="1" res="1.0498953983187675e-02" rms="2.4161218106746674e-01" purity="2.8025728464126587e-01" nType="0">
          <Node pos="l" depth="2" NCoef="0" IVar="6" Cut="-1.1566997766494751e+00" cType="1" res="-4.8225253704003990e-04" rms="2.1056826412677765e-01" purity="1.1327283084392548e-01" nType="0">
            <Node pos="l" depth="3" NCoef="0" IVar="-1" Cut="0.0000000000000000e+00" cType="1" res="1.4595405198633671e-02" rms="1.8240641057491302e-01" purity="7.2088122367858887e-02" nType="-99"/>
            <Node pos="r" depth="3" NCoef="0" IVar="-1" Cut="0.0000000000000000e+00" cType="1" res="-1.7649834975600243e-02" rms="2.6349070668220520e-01" purity="2.0737430453300476e-01" nType="-99"/>
          </Node>
          <Node pos="r" depth="2" NCoef="0" IVar="2" Cut="4.1867675781250000e+02" cType="1" res="2.8494032099843025e-02" rms="2.8435614705085754e-01" purity="5.5389744043350220e-01" nType="0">
            <Node pos="l" depth="3" NCoef="0" IVar="-1" Cut="0.0000000000000000e+00" cType="1" res="4.3024767190217972e-02" rms="3.2051706314086914e-01" purity="3.9311110973358154e-01" nType="-99"/>
            <Node pos="r" depth="3" NCoef="0" IVar="-1" Cut="0.0000000000000000e+00" cType="1" res="2.2779155522584915e-02" rms="2.4951234459877014e-01" purity="6.8876838684082031e-01" nType="-99"/>
          </Node>
        </Node>
        <Node pos="r" depth="1" NCoef="0" IVar="6" Cut="7.3450416326522827e-01" cType="1" res="-3.5148330498486757e-03" rms="2.5062105059623718e-01" purity="5.4254937171936035e-01" nType="0">
          <Node pos="l" depth="2" NCoef="0" IVar="5" Cut="2.0791989135742188e+02" cType="1" res="-7.6279663480818272e-03" rms="2.5509652495384216e-01" purity="6.1985599994659424e-01" nType="0">
            <Node pos="l" depth="3" NCoef="0" IVar="-1" Cut="0.0000000000000000e+00" cType="1" res="-1.5802137553691864e-02" rms="2.8645399212837219e-01" purity="4.4496917724609375e-01" nType="-99"/>
            <Node pos="r" depth="3" NCoef="0" IVar="-1" Cut="0.0000000000000000e+00" cType="1" res="7.1165170520544052e-03" rms="1.8198083341121674e-01" purity="9.4738924503326416e-01" nType="-99"/>
          </Node>
          <Node pos="r" depth="2" NCoef="0" IVar="6" Cut="1.4221886396408081e+00" cType="1" res="9.3544917181134224e-03" rms="2.3560729622840881e-01" purity="3.0066961050033569e-01" nType="0">
            <Node pos="l" depth="3" NCoef="0" IVar="-1" Cut="0.0000000000000000e+00" cType="1" res="2.4809686467051506e-02" rms="2.6180362701416016e-01" purity="4.0054547786712646e-01" nType="-99"/>
            <Node pos="r" depth="3" NCoef="0" IVar="-1" Cut="0.0000000000000000e+00" cType="1" res="-3.1302999705076218e-02" rms="1.5239462256431580e-01" purity="5.6826200336217880e-02" nType="-99"/>
          </Node>
        </Node>
      </Node>
    </BinaryTree>
    <BinaryTree type="DecisionTree" boostWeight="1.0000000000000000e+00" itree="334">
      <Node pos="s" depth="0" NCoef="0" IVar="6" Cut="7.2972512245178223e-01" cType="1" res="3.1616602791473269e-04" rms="2.4649605154991150e-01" purity="5.0758451223373413e-01" nType="0">
        <Node pos="l" depth="1" NCoef="0" IVar="2" Cut="5.2321655273437500e+02" cType="1" res="2.6361127384006977e-03" rms="2.4806199967861176e-01" purity="5.5816304683685303e-01" nType="0">
          <Node pos="l" depth="2" NCoef="0" IVar="3" Cut="3.5323797607421875e+02" cType="1" res="-2.1550056990236044e-03" rms="2.6352113485336304e-01" purity="4.1658869385719299e-01" nType="0">
            <Node pos="l" depth="3" NCoef="0" IVar="-1" Cut="0.0000000000000000e+00" cType="1" res="-8.5657816380262375e-03" rms="2.6563090085983276e-01" purity="3.0259001255035400e-01" nType="-99"/>
            <Node pos="r" depth="3" NCoef="0" IVar="-1" Cut="0.0000000000000000e+00" cType="1" res="1.5106230042874813e-02" rms="2.5674507021903992e-01" purity="7.5647658109664917e-01" nType="-99"/>
          </Node>
          <Node pos="r" depth="2" NCoef="0" IVar="9" Cut="-1.4654783010482788e+00" cType="1" res="7.6616713777184486e-03" rms="2.3062913119792938e-01" purity="7.0666497945785522e-01" nType="0">
            <Node pos="l" depth="3" NCoef="0" IVar="-1" Cut="0.0000000000000000e+00" cType="1" res="-1.4044378884136677e-02" rms="2.7152308821678162e-01" purity="4.3069845438003540e-01" nType="-99"/>
            <Node pos="r" depth="3" NCoef="0" IVar="-1" Cut="0.0000000000000000e+00" cType="1" res="1.7211942002177238e-02" rms="2.2636020183563232e-01" purity="7.3234844207763672e-01" nType="-99"/>
          </Node>
        </Node>
        <Node pos="r" depth="1" NCoef="0" IVar="5" Cut="1.6396836853027344e+02" cType="1" res="-9.5530822873115540e-03" rms="2.3946909606456757e-01" purity="2.9241919517517090e-01" nType="0">
          <Node pos="l" depth="2" NCoef="0" IVar="1" Cut="2.9811779037117958e-02" cType="1" res="2.4310058506671339e-04" rms="2.1486386656761169e-01" purity="1.1885461956262589e-01" nType="0">
            <Node pos="l" depth="3" NCoef="0" IVar="-1" Cut="0.0000000000000000e+00" cType="1" res="-3.7719592452049255e-02" rms="1.4343789219856262e-01" purity="3.3811502158641815e-02" nType="-99"/>
            <Node pos="r" depth="3" NCoef="0" IVar="-1" Cut="0.0000000000000000e+00" cType="1" res="1.5515892766416073e-02" rms="2.7868562936782837e-01" purity="2.2435340285301208e-01" nType="-99"/>
          </Node>
          <Node pos="r" depth="2" NCoef="0" IVar="0" Cut="2.1370012207031250e+03" cType="1" res="-2.5836283341050148e-02" rms="2.7477708458900452e-01" purity="5.8091795444488525e-01" nType="0">
            <Node pos="l" depth="3" NCoef="0" IVar="-1" Cut="0.0000000000000000e+00" cType="1" res="-4.3209135532379150e-02" rms="2.9439112544059753e-01" purity="1.8229447305202484e-01" nType="-99"/>
            <Node pos="r" depth="3" NCoef="0" IVar="-1" Cut="0.0000000000000000e+00" cType="1" res="-1.8001493066549301e-02" rms="2.5788041949272156e-01" purity="8.8400751352310181e-01" nType="-99"/>
          </Node>
        </Node>
      </Node>
    </BinaryTree>
    <BinaryTree type="DecisionTree" boostWeight="1.0000000000000000e+00" itree="335">
      <Node pos="s" depth="0" NCoef="0" IVar="7" Cut="6.6732788085937500e-01" cType="1" res="1.7206080956384540e-03" rms="2.4770991504192352e-01" purity="5.0086742639541626e-01" nType="0">
        <Node pos="l" depth="1" NCoef="0" IVar="9" Cut="1.3435889780521393e-01" cType="1" res="4.4589107856154442e-03" rms="2.4800480902194977e-01" purity="5.4437631368637085e-01" nType="0">
          <Node pos="l" depth="2" NCoef="0" IVar="7" Cut="-8.1291115283966064e-01" cType="1" res="1.2747041182592511e-04" rms="2.4341523647308350e-01" purity="5.4429340362548828e-01" nType="0">
            <Node pos="l" depth="3" NCoef="0" IVar="-1" Cut="0.0000000000000000e+00" cType="1" res="-1.8001630902290344e-02" rms="2.3122616112232208e-01" purity="3.2720482349395752e-01" nType="-99"/>
            <Node pos="r" depth="3" NCoef="0" IVar="-1" Cut="0.0000000000000000e+00" cType="1" res="7.1394382975995541e-03" rms="2.4760308861732483e-01" purity="6.2402540445327759e-01" nType="-99"/>
          </Node>
          <Node pos="r" depth="2" NCoef="0" IVar="3" Cut="2.0685711669921875e+02" cType="1" res="1.0036539286375046e-02" rms="2.5368371605873108e-01" purity="5.4448300600051880e-01" nType="0">
            <Node pos="l" depth="3" NCoef="0" IVar="-1" Cut="0.0000000000000000e+00" cType="1" res="7.4461027979850769e-02" rms="2.7243360877037048e-01" purity="1.3762395083904266e-01" nType="-99"/>
            <Node pos="r" depth="3" NCoef="0" IVar="-1" Cut="0.0000000000000000e+00" cType="1" res="9.6933096647262573e-03" rms="2.5067326426506042e-01" purity="6.0225838422775269e-01" nType="-99"/>
          </Node>
        </Node>
        <Node pos="r" depth="1" NCoef="0" IVar="8" Cut="-6.6705375909805298e-01" cType="1" res="-7.1892915293574333e-03" rms="2.4653758108615875e-01" purity="3.5929808020591736e-01" nType="0">
          <Node pos="l" depth="2" NCoef="0" IVar="8" Cut="-1.2761672735214233e+00" cType="1" res="3.6796028725802898e-03" rms="2.6139777898788452e-01" purity="2.7106308937072754e-01" nType="0">
            <Node pos="l" depth="3" NCoef="0" IVar="-1" Cut="0.0000000000000000e+00" cType="1" res="-1.5532668679952621e-02" rms="2.3870709538459778e-01" purity="1.7169786989688873e-01" nType="-99"/>
            <Node pos="r" depth="3" NCoef="0" IVar="-1" Cut="0.0000000000000000e+00" cType="1" res="1.9671203568577766e-02" rms="2.7891844511032104e-01" purity="3.5622549057006836e-01" nType="-99"/>
          </Node>
          <Node pos="r" depth="2" NCoef="0" IVar="0" Cut="1.6089422607421875e+03" cType="1" res="-1.0685752145946026e-02" rms="2.4145887792110443e-01" purity="3.8768273591995239e-01" nType="0">
            <Node pos="l" depth="3" NCoef="0" IVar="-1" Cut="0.0000000000000000e+00" cType="1" res="1.4444947242736816e-02" rms="1.5774646401405334e-01" purity="2.7903120964765549e-02" nType="-99"/>
            <Node pos="r" depth="3" NCoef="0" IVar="-1" Cut="0.0000000000000000e+00" cType="1" res="-2.2599589079618454e-02" rms="2.7066788077354431e-01" purity="5.5008965730667114e-01" nType="-99"/>
          </Node>
        </Node>
      </Node>
    </BinaryTree>
    <BinaryTree type="DecisionTree" boostWeight="1.0000000000000000e+00" itree="336">
      <Node pos="s" depth="0" NCoef="0" IVar="1" Cut="2.1340871229767799e-02" cType="1" res="-1.3684198493137956e-03" rms="2.4543720483779907e-01" purity="4.9348109960556030e-01" nType="0">
        <Node pos="l" depth="1" NCoef="0" IVar="4" Cut="2.5975115966796875e+02" cType="1" res="8.0091627314686775e-03" rms="1.9199684262275696e-01" purity="1.1340405046939850e-01" nType="0">
          <Node pos="l" depth="2" NCoef="0" IVar="5" Cut="1.3912414550781250e+02" cType="1" res="3.1313898507505655e-03" rms="1.6858926415443420e-01" purity="5.4226107895374298e-02" nType="0">
            <Node pos="l" depth="3" NCoef="0" IVar="-1" Cut="0.0000000000000000e+00" cType="1" res="-7.4355807155370712e-03" rms="1.2810990214347839e-01" purity="2.6642035692930222e-02" nType="-99"/>
            <Node pos="r" depth="3" NCoef="0" IVar="-1" Cut="0.0000000000000000e+00" cType="1" res="3.3580739051103592e-02" rms="2.6452431082725525e-01" purity="1.5040418505668640e-01" nType="-99"/>
          </Node>
          <Node pos="r" depth="2" NCoef="0" IVar="-1" Cut="0.0000000000000000e+00" cType="1" res="4.1966661810874939e-02" rms="3.0068811774253845e-01" purity="4.9694788455963135e-01" nType="-99"/>
        </Node>
        <Node pos="r" depth="1" NCoef="0" IVar="1" Cut="8.1976272165775299e-02" cType="1" res="-3.5945642739534378e-03" rms="2.5644290447235107e-01" purity="5.8370757102966309e-01" nType="0">
          <Node pos="l" depth="2" NCoef="0" IVar="1" Cut="6.7533925175666809e-02" cType="1" res="-1.0033603757619858e-02" rms="2.6929262280464172e-01" purity="3.9015549421310425e-01" nType="0">
            <Node pos="l" depth="3" NCoef="0" IVar="-1" Cut="0.0000000000000000e+00" cType="1" res="-6.8646948784589767e-03" rms="2.6729848980903625e-01" purity="3.5507354140281677e-01" nType="-99"/>
            <Node pos="r" depth="3" NCoef="0" IVar="-1" Cut="0.0000000000000000e+00" cType="1" res="-3.4737482666969299e-02" rms="2.7625066041946411e-01" purity="5.3170222043991089e-01" nType="-99"/>
          </Node>
          <Node pos="r" depth="2" NCoef="0" IVar="5" Cut="1.4203450012207031e+02" cType="1" res="2.6144660077989101e-03" rms="2.4324926733970642e-01" purity="7.7034574747085571e-01" nType="0">
            <Node pos="l" depth="3" NCoef="0" IVar="-1" Cut="0.0000000000000000e+00" cType="1" res="-1.0221432894468307e-02" rms="3.1504237651824951e-01" purity="3.5317787528038025e-01" nType="-99"/>
            <Node pos="r" depth="3" NCoef="0" IVar="-1" Cut="0.0000000000000000e+00" cType="1" res="1.1747316457331181e-02" rms="2.2073990106582642e-01" purity="8.7846028804779053e-01" nType="-99"/>
          </Node>
        </Node>
      </Node>
    </BinaryTree>
    <BinaryTree type="DecisionTree" boostWeight="1.0000000000000000e+00" itree="337">
      <Node pos="s" depth="0" NCoef="0" IVar="9" Cut="-1.9983521699905396e+00" cType="1" res="3.4455102868378162e-03" rms="2.4975216388702393e-01" purity="5.0008702278137207e-01" nType="0">
        <Node pos="l" depth="1" NCoef="0" IVar="-1" Cut="0.0000000000000000e+00" cType="1" res="-4.4310223311185837e-02" rms="2.5093609094619751e-01" purity="1.6202777624130249e-01" nType="-99"/>
        <Node pos="r" depth="1" NCoef="0" IVar="7" Cut="-9.2963999509811401e-01" cType="1" res="4.6885581687092781e-03" rms="2.4962306022644043e-01" purity="5.1312541961669922e-01" nType="0">
          <Node pos="l" depth="2" NCoef="0" IVar="0" Cut="1.6155406494140625e+03" cType="1" res="1.8729813396930695e-02" rms="2.5150933861732483e-01" purity="3.2500922679901123e-01" nType="0">
            <Node pos="l" depth="3" NCoef="0" IVar="-1" Cut="0.0000000000000000e+00" cType="1" res="1.2293304316699505e-03" rms="1.4708930253982544e-01" purity="2.5941357016563416e-02" nType="-99"/>
            <Node pos="r" depth="3" NCoef="0" IVar="-1" Cut="0.0000000000000000e+00" cType="1" res="3.3698562532663345e-02" rms="2.9202714562416077e-01" purity="4.8526486754417419e-01" nType="-99"/>
          </Node>
          <Node pos="r" depth="2" NCoef="0" IVar="5" Cut="1.7634881591796875e+02" cType="1" res="2.0729552488774061e-03" rms="2.4918270111083984e-01" purity="5.4816770553588867e-01" nType="0">
            <Node pos="l" depth="3" NCoef="0" IVar="-1" Cut="0.0000000000000000e+00" cType="1" res="9.0926457196474075e-03" rms="2.7137905359268188e-01" purity="2.8659266233444214e-01" nType="-99"/>
            <Node pos="r" depth="3" NCoef="0" IVar="-1" Cut="0.0000000000000000e+00" cType="1" res="-6.4348378218710423e-03" rms="2.1922497451305389e-01" purity="8.6465203762054443e-01" nType="-99"/>
          </Node>
        </Node>
      </Node>
    </BinaryTree>
    <BinaryTree type="DecisionTree" boostWeight="1.0000000000000000e+00" itree="338">
      <Node pos="s" depth="0" NCoef="0" IVar="7" Cut="1.3416051864624023e-01" cType="1" res="-2.9133302159607410e-03" rms="2.4611228704452515e-01" purity="4.9792027473449707e-01" nType="0">
        <Node pos="l" depth="1" NCoef="0" IVar="2" Cut="5.2487774658203125e+02" cType="1" res="-7.3219276964664459e-03" rms="2.4750876426696777e-01" purity="5.1101917028427124e-01" nType="0">
          <Node pos="l" depth="2" NCoef="0" IVar="3" Cut="2.2848750305175781e+02" cType="1" res="-1.4152099378407001e-02" rms="2.5811704993247986e-01" purity="3.7447291612625122e-01" nType="0">
            <Node pos="l" depth="3" NCoef="0" IVar="-1" Cut="0.0000000000000000e+00" cType="1" res="1.2688620947301388e-02" rms="2.4495114386081696e-01" purity="1.1842440068721771e-01" nType="-99"/>
            <Node pos="r" depth="3" NCoef="0" IVar="-1" Cut="0.0000000000000000e+00" cType="1" res="-2.8396086767315865e-02" rms="2.6156595349311829e-01" purity="4.5029717683792114e-01" nType="-99"/>
          </Node>
          <Node pos="r" depth="2" NCoef="0" IVar="6" Cut="-2.4491140246391296e-01" cType="1" res="6.5328588243573904e-04" rms="2.3426367342472076e-01" purity="6.7045664787292480e-01" nType="0">
            <Node pos="l" depth="3" NCoef="0" IVar="-1" Cut="0.0000000000000000e+00" cType="1" res="2.2773137316107750e-02" rms="2.3467434942722321e-01" purity="6.5537720918655396e-01" nType="-99"/>
            <Node pos="r" depth="3" NCoef="0" IVar="-1" Cut="0.0000000000000000e+00" cType="1" res="-1.2747542932629585e-02" rms="2.3367339372634888e-01" purity="6.7960804700851440e-01" nType="-99"/>
          </Node>
        </Node>
        <Node pos="r" depth="1" NCoef="0" IVar="8" Cut="-9.3341535329818726e-01" cType="1" res="2.4864953011274338e-03" rms="2.4428258836269379e-01" purity="4.8187634348869324e-01" nType="0">
          <Node pos="l" depth="2" NCoef="0" IVar="3" Cut="2.5352397155761719e+02" cType="1" res="1.7447156831622124e-02" rms="2.7870160341262817e-01" purity="3.6493909358978271e-01" nType="0">
            <Node pos="l" depth="3" NCoef="0" IVar="-1" Cut="0.0000000000000000e+00" cType="1" res="7.8914314508438110e-02" rms="2.8330257534980774e-01" purity="1.8281638622283936e-01" nType="-99"/>
            <Node pos="r" depth="3" NCoef="0" IVar="-1" Cut="0.0000000000000000e+00" cType="1" res="2.5979196652770042e-03" rms="2.7472674846649170e-01" purity="4.7579327225685120e-01" nType="-99"/>
          </Node>
          <Node pos="r" depth="2" NCoef="0" IVar="7" Cut="5.1486337184906006e-01" cType="1" res="-5.2762456471100450e-04" rms="2.3662889003753662e-01" purity="5.0543564558029175e-01" nType="0">
            <Node pos="l" depth="3" NCoef="0" IVar="-1" Cut="0.0000000000000000e+00" cType="1" res="1.3512005098164082e-02" rms="2.3094789683818817e-01" purity="6.7034888267517090e-01" nType="-99"/>
            <Node pos="r" depth="3" NCoef="0" IVar="-1" Cut="0.0000000000000000e+00" cType="1" res="-8.2586007192730904e-03" rms="2.3936291038990021e-01" purity="4.2108574509620667e-01" nType="-99"/>
          </Node>
        </Node>
      </Node>
    </BinaryTree>
    <BinaryTree type="DecisionTree" boostWeight="1.0000000000000000e+00" itree="339">
      <Node pos="s" depth="0" NCoef="0" IVar="8" Cut="6.6625678539276123e-01" cType="1" res="7.6714291935786605e-04" rms="2.4828940629959106e-01" purity="5.1202231645584106e-01" nType="0">
        <Node pos="l" depth="1" NCoef="0" IVar="6" Cut="2.3710910975933075e-01" cType="1" res="-1.5039313584566116e-03" rms="2.4378609657287598e-01" purity="5.3870248794555664e-01" nType="0">
          <Node pos="l" depth="2" NCoef="0" IVar="6" Cut="-5.6402724981307983e-01" cType="1" res="1.6810878878459334e-03" rms="2.4477896094322205e-01" purity="5.7677048444747925e-01" nType="0">
            <Node pos="l" depth="3" NCoef="0" IVar="-1" Cut="0.0000000000000000e+00" cType="1" res="-7.3243281804025173e-03" rms="2.4391044676303864e-01" purity="3.9114090800285339e-01" nType="-99"/>
            <Node pos="r" depth="3" NCoef="0" IVar="-1" Cut="0.0000000000000000e+00" cType="1" res="1.0164401493966579e-02" rms="2.4527382850646973e-01" purity="7.0273178815841675e-01" nType="-99"/>
          </Node>
          <Node pos="r" depth="2" NCoef="0" IVar="9" Cut="9.3250602483749390e-01" cType="1" res="-6.8840249441564083e-03" rms="2.4200451374053955e-01" purity="4.7439864277839661e-01" nType="0">
            <Node pos="l" depth="3" NCoef="0" IVar="-1" Cut="0.0000000000000000e+00" cType="1" res="-1.9928777590394020e-02" rms="2.3855713009834290e-01" purity="4.8724693059921265e-01" nType="-99"/>
            <Node pos="r" depth="3" NCoef="0" IVar="-1" Cut="0.0000000000000000e+00" cType="1" res="1.5008628368377686e-02" rms="2.5389152765274048e-01" purity="4.2583844065666199e-01" nType="-99"/>
          </Node>
        </Node>
        <Node pos="r" depth="1" NCoef="0" IVar="0" Cut="1.6444130859375000e+03" cType="1" res="7.3405741713941097e-03" rms="2.6077467203140259e-01" purity="4.3479877710342407e-01" nType="0">
          <Node pos="l" depth="2" NCoef="0" IVar="2" Cut="3.6262048339843750e+02" cType="1" res="-3.3675928134471178e-03" rms="1.6929271817207336e-01" purity="3.2704252749681473e-02" nType="0">
            <Node pos="l" depth="3" NCoef="0" IVar="-1" Cut="0.0000000000000000e+00" cType="1" res="-2.9270505532622337e-02" rms="1.9043062627315521e-01" purity="4.2996753007173538e-02" nType="-99"/>
            <Node pos="r" depth="3" NCoef="0" IVar="-1" Cut="0.0000000000000000e+00" cType="1" res="2.6600999757647514e-02" rms="1.5002024173736572e-01" purity="2.4583952501416206e-02" nType="-99"/>
          </Node>
          <Node pos="r" depth="2" NCoef="0" IVar="0" Cut="2.1099174804687500e+03" cType="1" res="1.2326997704803944e-02" rms="2.9367673397064209e-01" purity="6.2204033136367798e-01" nType="0">
            <Node pos="l" depth="3" NCoef="0" IVar="-1" Cut="0.0000000000000000e+00" cType="1" res="2.5556398555636406e-02" rms="3.4390851855278015e-01" purity="2.8972834348678589e-01" nType="-99"/>
            <Node pos="r" depth="3" NCoef="0" IVar="-1" Cut="0.0000000000000000e+00" cType="1" res="6.7769258748739958e-05" rms="2.4996396899223328e-01" purity="8.6490666866302490e-01" nType="-99"/>
          </Node>
        </Node>
      </Node>
    </BinaryTree>
    <BinaryTree type="DecisionTree" boostWeight="1.0000000000000000e+00" itree="340">
      <Node pos="s" depth="0" NCoef="0" IVar="3" Cut="3.4497390747070312e+02" cType="1" res="3.0949720530770719e-04" rms="2.4624502658843994e-01" purity="5.0565260648727417e-01" nType="0">
        <Node pos="l" depth="1" NCoef="0" IVar="9" Cut="6.6736274957656860e-01" cType="1" res="4.0139756165444851e-03" rms="2.5575286149978638e-01" purity="2.9817867279052734e-01" nType="0">
          <Node pos="l" depth="2" NCoef="0" IVar="8" Cut="9.2821210622787476e-01" cType="1" res="7.3744896799325943e-03" rms="2.5667905807495117e-01" purity="3.1372597813606262e-01" nType="0">
            <Node pos="l" depth="3" NCoef="0" IVar="-1" Cut="0.0000000000000000e+00" cType="1" res="1.4516100287437439e-02" rms="2.5903570652008057e-01" purity="3.3311426639556885e-01" nType="-99"/>
            <Node pos="r" depth="3" NCoef="0" IVar="-1" Cut="0.0000000000000000e+00" cType="1" res="-2.2703567519783974e-03" rms="2.4736070632934570e-01" purity="2.4038983881473541e-01" nType="-99"/>
          </Node>
          <Node pos="r" depth="2" NCoef="0" IVar="5" Cut="1.1639966583251953e+02" cType="1" res="-3.7122801877558231e-03" rms="2.5344166159629822e-01" purity="2.6243340969085693e-01" nType="0">
            <Node pos="l" depth="3" NCoef="0" IVar="-1" Cut="0.0000000000000000e+00" cType="1" res="3.4975469112396240e-02" rms="2.2407610714435577e-01" purity="8.7681137025356293e-02" nType="-99"/>
            <Node pos="r" depth="3" NCoef="0" IVar="-1" Cut="0.0000000000000000e+00" cType="1" res="-1.5052648261189461e-02" rms="2.6638948917388916e-01" purity="3.4918648004531860e-01" nType="-99"/>
          </Node>
        </Node>
        <Node pos="r" depth="1" NCoef="0" IVar="4" Cut="2.8475469970703125e+02" cType="1" res="-4.5676268637180328e-03" rms="2.3304718732833862e-01" purity="7.7880215644836426e-01" nType="0">
          <Node pos="l" depth="2" NCoef="0" IVar="0" Cut="2.8511171875000000e+03" cType="1" res="-1.1830592527985573e-02" rms="2.8197225928306580e-01" purity="5.6119525432586670e-01" nType="0">
            <Node pos="l" depth="3" NCoef="0" IVar="-1" Cut="0.0000000000000000e+00" cType="1" res="-1.7827723175287247e-02" rms="2.9370614886283875e-01" purity="4.8770335316658020e-01" nType="-99"/>
            <Node pos="r" depth="3" NCoef="0" IVar="-1" Cut="0.0000000000000000e+00" cType="1" res="1.8614102154970169e-02" rms="2.1135550737380981e-01" purity="9.3475359678268433e-01" nType="-99"/>
          </Node>
          <Node pos="r" depth="2" NCoef="0" IVar="9" Cut="-1.4174707233905792e-01" cType="1" res="2.5378153077326715e-04" rms="1.9371588528156281e-01" purity="9.2325711250305176e-01" nType="0">
            <Node pos="l" depth="3" NCoef="0" IVar="-1" Cut="0.0000000000000000e+00" cType="1" res="-2.0406302064657211e-02" rms="2.0848692953586578e-01" purity="9.1630399227142334e-01" nType="-99"/>
            <Node pos="r" depth="3" NCoef="0" IVar="-1" Cut="0.0000000000000000e+00" cType="1" res="1.7438169568777084e-02" rms="1.8117383122444153e-01" purity="9.2864811420440674e-01" nType="-99"/>
          </Node>
        </Node>
      </Node>
    </BinaryTree>
    <BinaryTree type="DecisionTree" boostWeight="1.0000000000000000e+00" itree="341">
      <Node pos="s" depth="0" NCoef="0" IVar="9" Cut="-6.6621208190917969e-01" cType="1" res="-6.8260752595961094e-04" rms="2.4564990401268005e-01" purity="5.0371384620666504e-01" nType="0">
        <Node pos="l" depth="1" NCoef="0" IVar="8" Cut="-1.1967957019805908e+00" cType="1" res="-8.2206018269062042e-03" rms="2.4738395214080811e-01" purity="4.5208945870399475e-01" nType="0">
          <Node pos="l" depth="2" NCoef="0" IVar="-1" Cut="0.0000000000000000e+00" cType="1" res="-3.5669077187776566e-02" rms="2.4136425554752350e-01" purity="2.6802003383636475e-01" nType="-99"/>
          <Node pos="r" depth="2" NCoef="0" IVar="8" Cut="-6.2601631879806519e-01" cType="1" res="-5.0858859904110432e-03" rms="2.4834281206130981e-01" purity="4.8579952120780945e-01" nType="0">
            <Node pos="l" depth="3" NCoef="0" IVar="-1" Cut="0.0000000000000000e+00" cType="1" res="1.9555462524294853e-02" rms="2.3792441189289093e-01" purity="4.6852609515190125e-01" nType="-99"/>
            <Node pos="r" depth="3" NCoef="0" IVar="-1" Cut="0.0000000000000000e+00" cType="1" res="-1.4322677627205849e-02" rms="2.5049290060997009e-01" purity="4.8978507518768311e-01" nType="-99"/>
          </Node>
        </Node>
        <Node pos="r" depth="1" NCoef="0" IVar="6" Cut="1.2394111156463623e+00" cType="1" res="2.2327725309878588e-03" rms="2.4491374194622040e-01" purity="5.2367997169494629e-01" nType="0">
          <Node pos="l" depth="2" NCoef="0" IVar="7" Cut="6.6856694221496582e-01" cType="1" res="8.8881526608020067e-04" rms="2.4635273218154907e-01" purity="5.5210256576538086e-01" nType="0">
            <Node pos="l" depth="3" NCoef="0" IVar="-1" Cut="0.0000000000000000e+00" cType="1" res="5.9096529148519039e-03" rms="2.4944454431533813e-01" purity="6.0546243190765381e-01" nType="-99"/>
            <Node pos="r" depth="3" NCoef="0" IVar="-1" Cut="0.0000000000000000e+00" cType="1" res="-1.2850974686443806e-02" rms="2.3603437840938568e-01" purity="3.8224393129348755e-01" nType="-99"/>
          </Node>
          <Node pos="r" depth="2" NCoef="0" IVar="1" Cut="2.0120218396186829e-02" cType="1" res="1.9155584275722504e-02" rms="2.2532670199871063e-01" purity="1.6578884422779083e-01" nType="0">
            <Node pos="l" depth="3" NCoef="0" IVar="-1" Cut="0.0000000000000000e+00" cType="1" res="3.8367759436368942e-02" rms="1.0623696446418762e-01" purity="2.9695110395550728e-02" nType="-99"/>
            <Node pos="r" depth="3" NCoef="0" IVar="-1" Cut="0.0000000000000000e+00" cType="1" res="4.5336727052927017e-02" rms="2.9957464337348938e-01" purity="3.0126982927322388e-01" nType="-99"/>
          </Node>
        </Node>
      </Node>
    </BinaryTree>
    <BinaryTree type="DecisionTree" boostWeight="1.0000000000000000e+00" itree="342">
      <Node pos="s" depth="0" NCoef="0" IVar="7" Cut="-3.9945673942565918e-01" cType="1" res="-3.2835544552654028e-03" rms="2.4730238318443298e-01" purity="4.9991765618324280e-01" nType="0">
        <Node pos="l" depth="1" NCoef="0" IVar="4" Cut="2.4559722900390625e+02" cType="1" res="-8.5349446162581444e-03" rms="2.4327526986598969e-01" purity="4.2259851098060608e-01" nType="0">
          <Node pos="l" depth="2" NCoef="0" IVar="5" Cut="1.3426414489746094e+02" cType="1" res="-1.4931473881006241e-02" rms="2.4390944838523865e-01" purity="2.0408549904823303e-01" nType="0">
            <Node pos="l" depth="3" NCoef="0" IVar="-1" Cut="0.0000000000000000e+00" cType="1" res="-1.1212157085537910e-02" rms="2.0525933802127838e-01" purity="8.3026930689811707e-02" nType="-99"/>
            <Node pos="r" depth="3" NCoef="0" IVar="-1" Cut="0.0000000000000000e+00" cType="1" res="-3.0359543859958649e-02" rms="2.8476315736770630e-01" purity="3.5656985640525818e-01" nType="-99"/>
          </Node>
          <Node pos="r" depth="2" NCoef="0" IVar="7" Cut="-6.2662947177886963e-01" cType="1" res="2.8599782381206751e-03" rms="2.4172241985797882e-01" purity="8.1186252832412720e-01" nType="0">
            <Node pos="l" depth="3" NCoef="0" IVar="-1" Cut="0.0000000000000000e+00" cType="1" res="1.4092625118792057e-02" rms="2.5389277935028076e-01" purity="7.7769356966018677e-01" nType="-99"/>
            <Node pos="r" depth="3" NCoef="0" IVar="-1" Cut="0.0000000000000000e+00" cType="1" res="-2.1583590656518936e-02" rms="2.1638493239879608e-01" purity="8.7621039152145386e-01" nType="-99"/>
          </Node>
        </Node>
        <Node pos="r" depth="1" NCoef="0" IVar="2" Cut="4.4365881347656250e+02" cType="1" res="-7.1636965731158853e-04" rms="2.4920712411403656e-01" purity="5.3771579265594482e-01" nType="0">
          <Node pos="l" depth="2" NCoef="0" IVar="9" Cut="-9.2790323495864868e-01" cType="1" res="5.6976899504661560e-03" rms="2.7762177586555481e-01" purity="3.4167897701263428e-01" nType="0">
            <Node pos="l" depth="3" NCoef="0" IVar="-1" Cut="0.0000000000000000e+00" cType="1" res="-3.0697872862219810e-02" rms="2.8383466601371765e-01" purity="2.7824708819389343e-01" nType="-99"/>
            <Node pos="r" depth="3" NCoef="0" IVar="-1" Cut="0.0000000000000000e+00" cType="1" res="2.0068531855940819e-02" rms="2.7524858713150024e-01" purity="3.5929930210113525e-01" nType="-99"/>
          </Node>
          <Node pos="r" depth="2" NCoef="0" IVar="9" Cut="-1.1998400688171387e+00" cType="1" res="-4.0571652352809906e-03" rms="2.3296904563903809e-01" purity="6.3982254266738892e-01" nType="0">
            <Node pos="l" depth="3" NCoef="0" IVar="-1" Cut="0.0000000000000000e+00" cType="1" res="2.1794376894831657e-02" rms="2.5920823216438293e-01" purity="5.3517460823059082e-01" nType="-99"/>
            <Node pos="r" depth="3" NCoef="0" IVar="-1" Cut="0.0000000000000000e+00" cType="1" res="-1.2613830156624317e-02" rms="2.2898678481578827e-01" purity="6.5422654151916504e-01" nType="-99"/>
          </Node>
        </Node>
      </Node>
    </BinaryTree>
    <BinaryTree type="DecisionTree" boostWeight="1.0000000000000000e+00" itree="343">
      <Node pos="s" depth="0" NCoef="0" IVar="7" Cut="1.1990807056427002e+00" cType="1" res="1.0998982470482588e-03" rms="2.4884761869907379e-01" purity="4.9475130438804626e-01" nType="0">
        <Node pos="l" depth="1" NCoef="0" IVar="6" Cut="2.3556627333164215e-01" cType="1" res="-5.4564239690080285e-04" rms="2.4876512587070465e-01" purity="5.3168964385986328e-01" nType="0">
          <Node pos="l" depth="2" NCoef="0" IVar="2" Cut="3.1350100708007812e+02" cType="1" res="-4.2220852337777615e-03" rms="2.4840945005416870e-01" purity="5.6439024209976196e-01" nType="0">
            <Node pos="l" depth="3" NCoef="0" IVar="-1" Cut="0.0000000000000000e+00" cType="1" res="-3.2785117626190186e-02" rms="2.5816410779953003e-01" purity="1.8383570015430450e-01" nType="-99"/>
            <Node pos="r" depth="3" NCoef="0" IVar="-1" Cut="0.0000000000000000e+00" cType="1" res="-3.8994592614471912e-03" rms="2.4753420054912567e-01" purity="5.9469342231750488e-01" nType="-99"/>
          </Node>
          <Node pos="r" depth="2" NCoef="0" IVar="7" Cut="-5.1480406522750854e-01" cType="1" res="5.2089779637753963e-03" rms="2.4921195209026337e-01" purity="4.8050439357757568e-01" nType="0">
            <Node pos="l" depth="3" NCoef="0" IVar="-1" Cut="0.0000000000000000e+00" cType="1" res="2.3534826934337616e-02" rms="2.5817102193832397e-01" purity="3.2278007268905640e-01" nType="-99"/>
            <Node pos="r" depth="3" NCoef="0" IVar="-1" Cut="0.0000000000000000e+00" cType="1" res="9.3816086882725358e-04" rms="2.4451071023941040e-01" purity="5.5881857872009277e-01" nType="-99"/>
          </Node>
        </Node>
        <Node pos="r" depth="1" NCoef="0" IVar="6" Cut="7.1985989809036255e-01" cType="1" res="1.3652459718286991e-02" rms="2.4911852180957794e-01" purity="2.1297727525234222e-01" nType="0">
          <Node pos="l" depth="2" NCoef="0" IVar="6" Cut="-2.3720949888229370e-01" cType="1" res="2.0234262570738792e-02" rms="2.5920185446739197e-01" purity="2.4249498546123505e-01" nType="0">
            <Node pos="l" depth="3" NCoef="0" IVar="-1" Cut="0.0000000000000000e+00" cType="1" res="1.0593276470899582e-02" rms="2.2002428770065308e-01" purity="1.6236048936843872e-01" nType="-99"/>
            <Node pos="r" depth="3" NCoef="0" IVar="-1" Cut="0.0000000000000000e+00" cType="1" res="5.0540264695882797e-02" rms="2.9935577511787415e-01" purity="3.4074190258979797e-01" nType="-99"/>
          </Node>
          <Node pos="r" depth="2" NCoef="0" IVar="-1" Cut="0.0000000000000000e+00" cType="1" res="-1.1088625527918339e-02" rms="2.1663038432598114e-01" purity="1.2858945131301880e-01" nType="-99"/>
        </Node>
      </Node>
    </BinaryTree>
    <BinaryTree type="DecisionTree" boostWeight="1.0000000000000000e+00" itree="344">
      <Node pos="s" depth="0" NCoef="0" IVar="9" Cut="-1.1993241310119629e+00" cType="1" res="1.0198716772720218e-03" rms="2.4492175877094269e-01" purity="5.0139427185058594e-01" nType="0">
        <Node pos="l" depth="1" NCoef="0" IVar="1" Cut="5.3463354706764221e-02" cType="1" res="1.3148219324648380e-02" rms="2.6778918504714966e-01" purity="3.9997401833534241e-01" nType="0">
          <Node pos="l" depth="2" NCoef="0" IVar="1" Cut="3.0635656788945198e-02" cType="1" res="6.5102323424071074e-04" rms="2.1831688284873962e-01" purity="1.6983966529369354e-01" nType="0">
            <Node pos="l" depth="3" NCoef="0" IVar="-1" Cut="0.0000000000000000e+00" cType="1" res="-1.2767218053340912e-02" rms="1.7502309381961823e-01" purity="1.1214664578437805e-01" nType="-99"/>
            <Node pos="r" depth="3" NCoef="0" IVar="-1" Cut="0.0000000000000000e+00" cType="1" res="1.4886138029396534e-02" rms="2.8133484721183777e-01" purity="2.7721995115280151e-01" nType="-99"/>
          </Node>
          <Node pos="r" depth="2" NCoef="0" IVar="1" Cut="9.9103547632694244e-02" cType="1" res="2.5577854365110397e-02" rms="3.0873933434486389e-01" purity="6.2886422872543335e-01" nType="0">
            <Node pos="l" depth="3" NCoef="0" IVar="-1" Cut="0.0000000000000000e+00" cType="1" res="5.6695684790611267e-02" rms="3.5159671306610107e-01" purity="5.1216274499893188e-01" nType="-99"/>
            <Node pos="r" depth="3" NCoef="0" IVar="-1" Cut="0.0000000000000000e+00" cType="1" res="1.2935993727296591e-03" rms="2.6683819293975830e-01" purity="7.2273862361907959e-01" nType="-99"/>
          </Node>
        </Node>
        <Node pos="r" depth="1" NCoef="0" IVar="8" Cut="-9.3317729234695435e-01" cType="1" res="-9.9691306240856647e-04" rms="2.4084959924221039e-01" purity="5.1825916767120361e-01" nType="0">
          <Node pos="l" depth="2" NCoef="0" IVar="7" Cut="6.6699200868606567e-01" cType="1" res="-1.0664545930922031e-02" rms="2.5203874707221985e-01" purity="3.5925996303558350e-01" nType="0">
            <Node pos="l" depth="3" NCoef="0" IVar="-1" Cut="0.0000000000000000e+00" cType="1" res="-3.1418432481586933e-03" rms="2.5750717520713806e-01" purity="4.1212856769561768e-01" nType="-99"/>
            <Node pos="r" depth="3" NCoef="0" IVar="-1" Cut="0.0000000000000000e+00" cType="1" res="-4.8444397747516632e-02" rms="2.3319077491760254e-01" purity="2.0190747082233429e-01" nType="-99"/>
          </Node>
          <Node pos="r" depth="2" NCoef="0" IVar="7" Cut="-6.6478538513183594e-01" cType="1" res="1.1751853162422776e-03" rms="2.3820939660072327e-01" purity="5.5398273468017578e-01" nType="0">
            <Node pos="l" depth="3" NCoef="0" IVar="-1" Cut="0.0000000000000000e+00" cType="1" res="-1.2737200595438480e-02" rms="2.4990385770797729e-01" purity="4.0607979893684387e-01" nType="-99"/>
            <Node pos="r" depth="3" NCoef="0" IVar="-1" Cut="0.0000000000000000e+00" cType="1" res="6.7131775431334972e-03" rms="2.3470470309257507e-01" purity="5.9613150358200073e-01" nType="-99"/>
          </Node>
        </Node>
      </Node>
    </BinaryTree>
    <BinaryTree type="DecisionTree" boostWeight="1.0000000000000000e+00" itree="345">
      <Node pos="s" depth="0" NCoef="0" IVar="7" Cut="1.1994578838348389e+00" cType="1" res="-2.9253974207676947e-04" rms="2.4747012555599213e-01" purity="4.9703466892242432e-01" nType="0">
        <Node pos="l" depth="1" NCoef="0" IVar="0" Cut="1.8824879150390625e+03" cType="1" res="-1.8417967949062586e-03" rms="2.4803164601325989e-01" purity="5.2869844436645508e-01" nType="0">
          <Node pos="l" depth="2" NCoef="0" IVar="0" Cut="1.7676113281250000e+03" cType="1" res="3.6925161257386208e-03" rms="2.3639069497585297e-01" purity="8.8073343038558960e-02" nType="0">
            <Node pos="l" depth="3" NCoef="0" IVar="-1" Cut="0.0000000000000000e+00" cType="1" res="-2.2967297991272062e-04" rms="2.0780356228351593e-01" purity="5.6564882397651672e-02" nType="-99"/>
            <Node pos="r" depth="3" NCoef="0" IVar="-1" Cut="0.0000000000000000e+00" cType="1" res="1.9630551338195801e-02" rms="3.5106855630874634e-01" purity="2.5644722580909729e-01" nType="-99"/>
          </Node>
          <Node pos="r" depth="2" NCoef="0" IVar="0" Cut="2.1007536621093750e+03" cType="1" res="-5.5209510028362274e-03" rms="2.5541073083877563e-01" purity="8.2162147760391235e-01" nType="0">
            <Node pos="l" depth="3" NCoef="0" IVar="-1" Cut="0.0000000000000000e+00" cType="1" res="-1.2492736801505089e-02" rms="3.7966287136077881e-01" purity="4.3765920400619507e-01" nType="-99"/>
            <Node pos="r" depth="3" NCoef="0" IVar="-1" Cut="0.0000000000000000e+00" cType="1" res="-6.3340589404106140e-03" rms="2.2500757873058319e-01" purity="8.9251887798309326e-01" nType="-99"/>
          </Node>
        </Node>
        <Node pos="r" depth="1" NCoef="0" IVar="0" Cut="1.9557597656250000e+03" cType="1" res="1.2726583518087864e-02" rms="2.4230897426605225e-01" purity="2.3094910383224487e-01" nType="0">
          <Node pos="l" depth="2" NCoef="0" IVar="8" Cut="1.3494145870208740e-01" cType="1" res="5.1333778537809849e-03" rms="1.9423092901706696e-01" purity="5.8553185313940048e-02" nType="0">
            <Node pos="l" depth="3" NCoef="0" IVar="-1" Cut="0.0000000000000000e+00" cType="1" res="5.1514510065317154e-02" rms="2.1075418591499329e-01" purity="7.2350464761257172e-02" nType="-99"/>
            <Node pos="r" depth="3" NCoef="0" IVar="-1" Cut="0.0000000000000000e+00" cType="1" res="-2.4640727788209915e-02" rms="1.7378996312618256e-01" purity="4.3881561607122421e-02" nType="-99"/>
          </Node>
          <Node pos="r" depth="2" NCoef="0" IVar="-1" Cut="0.0000000000000000e+00" cType="1" res="2.8720509260892868e-02" rms="3.3131384849548340e-01" purity="6.5433794260025024e-01" nType="-99"/>
        </Node>
      </Node>
    </BinaryTree>
    <BinaryTree type="DecisionTree" boostWeight="1.0000000000000000e+00" itree="346">
      <Node pos="s" depth="0" NCoef="0" IVar="9" Cut="-1.1999096870422363e+00" cType="1" res="-1.4202882302924991e-03" rms="2.4194821715354919e-01" purity="4.9464413523674011e-01" nType="0">
        <Node pos="l" depth="1" NCoef="0" IVar="1" Cut="1.9865032285451889e-02" cType="1" res="1.2534530833363533e-02" rms="2.6923656463623047e-01" purity="3.9735665917396545e-01" nType="0">
          <Node pos="l" depth="2" NCoef="0" IVar="-1" Cut="0.0000000000000000e+00" cType="1" res="-2.8886454179883003e-02" rms="1.3913838565349579e-01" purity="5.0917427986860275e-02" nType="-99"/>
          <Node pos="r" depth="2" NCoef="0" IVar="0" Cut="2.0477553710937500e+03" cType="1" res="1.8365988507866859e-02" rms="2.9569539427757263e-01" purity="4.9582690000534058e-01" nType="0">
            <Node pos="l" depth="3" NCoef="0" IVar="-1" Cut="0.0000000000000000e+00" cType="1" res="3.4875780344009399e-02" rms="3.1373342871665955e-01" purity="2.0319962501525879e-01" nType="-99"/>
            <Node pos="r" depth="3" NCoef="0" IVar="-1" Cut="0.0000000000000000e+00" cType="1" res="4.3109501712024212e-03" rms="2.7104356884956360e-01" purity="8.5698318481445312e-01" nType="-99"/>
          </Node>
        </Node>
        <Node pos="r" depth="1" NCoef="0" IVar="5" Cut="1.9189631652832031e+02" cType="1" res="-3.7798909470438957e-03" rms="2.3694251477718353e-01" purity="5.1109439134597778e-01" nType="0">
          <Node pos="l" depth="2" NCoef="0" IVar="4" Cut="2.6168472290039062e+02" cType="1" res="-8.0574555322527885e-03" rms="2.5404477119445801e-01" purity="2.8739333152770996e-01" nType="0">
            <Node pos="l" depth="3" NCoef="0" IVar="-1" Cut="0.0000000000000000e+00" cType="1" res="-6.2084933742880821e-03" rms="2.4713888764381409e-01" purity="2.1524706482887268e-01" nType="-99"/>
            <Node pos="r" depth="3" NCoef="0" IVar="-1" Cut="0.0000000000000000e+00" cType="1" res="-3.3488858491182327e-02" rms="2.8702005743980408e-01" purity="6.7047131061553955e-01" nType="-99"/>
          </Node>
          <Node pos="r" depth="2" NCoef="0" IVar="7" Cut="6.5076017379760742e-01" cType="1" res="3.7440094165503979e-03" rms="2.0318298041820526e-01" purity="9.0456688404083252e-01" nType="0">
            <Node pos="l" depth="3" NCoef="0" IVar="-1" Cut="0.0000000000000000e+00" cType="1" res="2.0771929994225502e-03" rms="1.9282129406929016e-01" purity="9.1634178161621094e-01" nType="-99"/>
            <Node pos="r" depth="3" NCoef="0" IVar="-1" Cut="0.0000000000000000e+00" cType="1" res="2.5588430464267731e-02" rms="2.4207551777362823e-01" purity="8.5432422161102295e-01" nType="-99"/>
          </Node>
        </Node>
      </Node>
    </BinaryTree>
    <BinaryTree type="DecisionTree" boostWeight="1.0000000000000000e+00" itree="347">
      <Node pos="s" depth="0" NCoef="0" IVar="9" Cut="4.0004062652587891e-01" cType="1" res="1.2630026321858168e-03" rms="2.5008821487426758e-01" purity="4.9980840086936951e-01" nType="0">
        <Node pos="l" depth="1" NCoef="0" IVar="1" Cut="4.1564296931028366e-02" cType="1" res="-2.2848418448120356e-03" rms="2.4578553438186646e-01" purity="5.1569813489913940e-01" nType="0">
          <Node pos="l" depth="2" NCoef="0" IVar="3" Cut="4.4698257446289062e+02" cType="1" res="5.4158396087586880e-03" rms="2.1751625835895538e-01" purity="2.0838183164596558e-01" nType="0">
            <Node pos="l" depth="3" NCoef="0" IVar="-1" Cut="0.0000000000000000e+00" cType="1" res="2.1690179128199816e-03" rms="2.0977431535720825e-01" purity="1.3572503626346588e-01" nType="-99"/>
            <Node pos="r" depth="3" NCoef="0" IVar="-1" Cut="0.0000000000000000e+00" cType="1" res="3.7365324795246124e-02" rms="2.5902020931243896e-01" purity="6.6266530752182007e-01" nType="-99"/>
          </Node>
          <Node pos="r" depth="2" NCoef="0" IVar="6" Cut="-4.7189676761627197e-01" cType="1" res="-6.1982306651771069e-03" rms="2.5888398289680481e-01" purity="6.7187237739562988e-01" nType="0">
            <Node pos="l" depth="3" NCoef="0" IVar="-1" Cut="0.0000000000000000e+00" cType="1" res="1.0186973959207535e-02" rms="2.7263197302818298e-01" purity="6.3610440492630005e-01" nType="-99"/>
            <Node pos="r" depth="3" NCoef="0" IVar="-1" Cut="0.0000000000000000e+00" cType="1" res="-1.5987113118171692e-02" rms="2.5416401028633118e-01" purity="6.8333768844604492e-01" nType="-99"/>
          </Node>
        </Node>
        <Node pos="r" depth="1" NCoef="0" IVar="2" Cut="3.1012014770507812e+02" cType="1" res="7.5919982045888901e-03" rms="2.5746396183967590e-01" purity="4.7146275639533997e-01" nType="0">
          <Node pos="l" depth="2" NCoef="0" IVar="-1" Cut="0.0000000000000000e+00" cType="1" res="3.6037571728229523e-02" rms="3.0804479122161865e-01" purity="2.1058137714862823e-01" nType="-99"/>
          <Node pos="r" depth="2" NCoef="0" IVar="5" Cut="1.8503695678710938e+02" cType="1" res="5.5113392882049084e-03" rms="2.5181224942207336e-01" purity="4.9727553129196167e-01" nType="0">
            <Node pos="l" depth="3" NCoef="0" IVar="-1" Cut="0.0000000000000000e+00" cType="1" res="1.4406946487724781e-02" rms="2.6540890336036682e-01" purity="3.0293744802474976e-01" nType="-99"/>
            <Node pos="r" depth="3" NCoef="0" IVar="-1" Cut="0.0000000000000000e+00" cType="1" res="-4.9410951323807240e-03" rms="2.2416213154792786e-01" purity="8.5820174217224121e-01" nType="-99"/>
          </Node>
        </Node>
      </Node>
    </BinaryTree>
    <BinaryTree type="DecisionTree" boostWeight="1.0000000000000000e+00" itree="348">
      <Node pos="s" depth="0" NCoef="0" IVar="8" Cut="6.6651892662048340e-01" cType="1" res="1.1845606059068814e-04" rms="2.4370899796485901e-01" purity="4.9718707799911499e-01" nType="0">
        <Node pos="l" depth="1" NCoef="0" IVar="7" Cut="1.2019609212875366e+00" cType="1" res="2.7826665900647640e-03" rms="2.4008941650390625e-01" purity="5.2793610095977783e-01" nType="0">
          <Node pos="l" depth="2" NCoef="0" IVar="9" Cut="-1.1972372531890869e+00" cType="1" res="4.3929405510425568e-03" rms="2.4175037443637848e-01" purity="5.6265497207641602e-01" nType="0">
            <Node pos="l" depth="3" NCoef="0" IVar="-1" Cut="0.0000000000000000e+00" cType="1" res="1.8888080492615700e-02" rms="2.6706051826477051e-01" purity="4.3355163931846619e-01" nType="-99"/>
            <Node pos="r" depth="3" NCoef="0" IVar="-1" Cut="0.0000000000000000e+00" cType="1" res="4.6316371299326420e-03" rms="2.3708041012287140e-01" purity="5.8488082885742188e-01" nType="-99"/>
          </Node>
          <Node pos="r" depth="2" NCoef="0" IVar="3" Cut="2.6940698242187500e+02" cType="1" res="-1.1978330090641975e-02" rms="2.2375212609767914e-01" purity="2.0967625081539154e-01" nType="0">
            <Node pos="l" depth="3" NCoef="0" IVar="-1" Cut="0.0000000000000000e+00" cType="1" res="-9.0544354170560837e-03" rms="1.8296897411346436e-01" purity="1.0493796318769455e-01" nType="-99"/>
            <Node pos="r" depth="3" NCoef="0" IVar="-1" Cut="0.0000000000000000e+00" cType="1" res="-2.7820827439427376e-02" rms="2.5733685493469238e-01" purity="3.1253695487976074e-01" nType="-99"/>
          </Node>
        </Node>
        <Node pos="r" depth="1" NCoef="0" IVar="9" Cut="-1.1993256807327271e+00" cType="1" res="-7.2971316985785961e-03" rms="2.5336432456970215e-01" purity="4.1160005331039429e-01" nType="0">
          <Node pos="l" depth="2" NCoef="0" IVar="-1" Cut="0.0000000000000000e+00" cType="1" res="-3.5083554685115814e-02" rms="2.5667867064476013e-01" purity="2.8765156865119934e-01" nType="-99"/>
          <Node pos="r" depth="2" NCoef="0" IVar="7" Cut="1.1910347938537598e+00" cType="1" res="-3.3733518794178963e-03" rms="2.5257796049118042e-01" purity="4.3314969539642334e-01" nType="0">
            <Node pos="l" depth="3" NCoef="0" IVar="-1" Cut="0.0000000000000000e+00" cType="1" res="-8.2782283425331116e-04" rms="2.5892242789268494e-01" purity="4.7874888777732849e-01" nType="-99"/>
            <Node pos="r" depth="3" NCoef="0" IVar="-1" Cut="0.0000000000000000e+00" cType="1" res="-3.7148457020521164e-02" rms="2.1098531782627106e-01" purity="1.6662436723709106e-01" nType="-99"/>
          </Node>
        </Node>
      </Node>
    </BinaryTree>
    <BinaryTree type="DecisionTree" boostWeight="1.0000000000000000e+00" itree="349">
      <Node pos="s" depth="0" NCoef="0" IVar="6" Cut="7.4737668037414551e-01" cType="1" res="9.7426644060760736e-05" rms="2.4530056118965149e-01" purity="4.9774450063705444e-01" nType="0">
        <Node pos="l" depth="1" NCoef="0" IVar="6" Cut="-2.0415927469730377e-01" cType="1" res="1.8133226549252868e-03" rms="2.4894553422927856e-01" purity="5.4840177297592163e-01" nType="0">
          <Node pos="l" depth="2" NCoef="0" IVar="9" Cut="-1.1993739604949951e+00" cType="1" res="-3.7052673287689686e-03" rms="2.4740087985992432e-01" purity="4.5635378360748291e-01" nType="0">
            <Node pos="l" depth="3" NCoef="0" IVar="-1" Cut="0.0000000000000000e+00" cType="1" res="-3.1521797180175781e-02" rms="2.6302617788314819e-01" purity="3.5052019357681274e-01" nType="-99"/>
            <Node pos="r" depth="3" NCoef="0" IVar="-1" Cut="0.0000000000000000e+00" cType="1" res="2.0884924742858857e-04" rms="2.4418425559997559e-01" purity="4.7609657049179077e-01" nType="-99"/>
          </Node>
          <Node pos="r" depth="2" NCoef="0" IVar="2" Cut="8.7730584716796875e+02" cType="1" res="7.2817038744688034e-03" rms="2.5034677982330322e-01" purity="6.3961231708526611e-01" nType="0">
            <Node pos="l" depth="3" NCoef="0" IVar="-1" Cut="0.0000000000000000e+00" cType="1" res="8.5937455296516418e-03" rms="2.4848315119743347e-01" purity="6.2134438753128052e-01" nType="-99"/>
            <Node pos="r" depth="3" NCoef="0" IVar="-1" Cut="0.0000000000000000e+00" cType="1" res="3.9403941482305527e-02" rms="2.7035829424858093e-01" purity="8.5521554946899414e-01" nType="-99"/>
          </Node>
        </Node>
        <Node pos="r" depth="1" NCoef="0" IVar="1" Cut="8.3859525620937347e-02" cType="1" res="-7.0690810680389404e-03" rms="2.2931338846683502e-01" purity="2.8617233037948608e-01" nType="0">
          <Node pos="l" depth="2" NCoef="0" IVar="5" Cut="1.3081170654296875e+02" cType="1" res="-2.1102763712406158e-03" rms="2.2305929660797119e-01" purity="1.8034054338932037e-01" nType="0">
            <Node pos="l" depth="3" NCoef="0" IVar="-1" Cut="0.0000000000000000e+00" cType="1" res="-4.7568969428539276e-02" rms="1.6157732903957367e-01" purity="3.7440989166498184e-02" nType="-99"/>
            <Node pos="r" depth="3" NCoef="0" IVar="-1" Cut="0.0000000000000000e+00" cType="1" res="1.4192028902471066e-02" rms="2.7816969156265259e-01" purity="3.4920787811279297e-01" nType="-99"/>
          </Node>
          <Node pos="r" depth="2" NCoef="0" IVar="-1" Cut="0.0000000000000000e+00" cType="1" res="-3.1260602176189423e-02" rms="2.4917577207088470e-01" purity="6.5614467859268188e-01" nType="-99"/>
        </Node>
      </Node>
    </BinaryTree>
    <BinaryTree type="DecisionTree" boostWeight="1.0000000000000000e+00" itree="350">
      <Node pos="s" depth="0" NCoef="0" IVar="9" Cut="1.7326012849807739e+00" cType="1" res="4.6048845979385078e-04" rms="2.4636915326118469e-01" purity="4.9570283293724060e-01" nType="0">
        <Node pos="l" depth="1" NCoef="0" IVar="7" Cut="6.6582411527633667e-01" cType="1" res="1.2824682053178549e-03" rms="2.4591343104839325e-01" purity="5.1118916273117065e-01" nType="0">
          <Node pos="l" depth="2" NCoef="0" IVar="7" Cut="1.7095378041267395e-01" cType="1" res="-6.4145831856876612e-04" rms="2.4709044396877289e-01" purity="5.5295389890670776e-01" nType="0">
            <Node pos="l" depth="3" NCoef="0" IVar="-1" Cut="0.0000000000000000e+00" cType="1" res="3.4342466387897730e-03" rms="2.4727708101272583e-01" purity="5.2663362026214600e-01" nType="-99"/>
            <Node pos="r" depth="3" NCoef="0" IVar="-1" Cut="0.0000000000000000e+00" cType="1" res="-1.4364361763000488e-02" rms="2.4629449844360352e-01" purity="6.3636040687561035e-01" nType="-99"/>
          </Node>
          <Node pos="r" depth="2" NCoef="0" IVar="0" Cut="1.6342906494140625e+03" cType="1" res="7.2454828768968582e-03" rms="2.4213199317455292e-01" purity="3.8174375891685486e-01" nType="0">
            <Node pos="l" depth="3" NCoef="0" IVar="-1" Cut="0.0000000000000000e+00" cType="1" res="-2.9810102656483650e-02" rms="1.4160634577274323e-01" purity="2.3923030123114586e-02" nType="-99"/>
            <Node pos="r" depth="3" NCoef="0" IVar="-1" Cut="0.0000000000000000e+00" cType="1" res="1.9704209640622139e-02" rms="2.8355300426483154e-01" purity="5.8576160669326782e-01" nType="-99"/>
          </Node>
        </Node>
        <Node pos="r" depth="1" NCoef="0" IVar="9" Cut="2.0881690979003906e+00" cType="1" res="-1.2814678251743317e-02" rms="2.5324654579162598e-01" purity="2.4559406936168671e-01" nType="0">
          <Node pos="l" depth="2" NCoef="0" IVar="-1" Cut="0.0000000000000000e+00" cType="1" res="-2.5370305404067039e-02" rms="2.6339557766914368e-01" purity="3.3519297838211060e-01" nType="-99"/>
          <Node pos="r" depth="2" NCoef="0" IVar="-1" Cut="0.0000000000000000e+00" cType="1" res="-1.1856939643621445e-02" rms="2.4350734055042267e-01" purity="1.6401655972003937e-01" nType="-99"/>
        </Node>
      </Node>
    </BinaryTree>
    <BinaryTree type="DecisionTree" boostWeight="1.0000000000000000e+00" itree="351">
      <Node pos="s" depth="0" NCoef="0" IVar="6" Cut="-5.5518031120300293e-01" cType="1" res="-3.7303869612514973e-04" rms="2.4446199834346771e-01" purity="4.9771392345428467e-01" nType="0">
        <Node pos="l" depth="1" NCoef="0" IVar="8" Cut="6.6542410850524902e-01" cType="1" res="8.3990152925252914e-03" rms="2.5463786721229553e-01" purity="3.7202236056327820e-01" nType="0">
          <Node pos="l" depth="2" NCoef="0" IVar="7" Cut="-9.1943693161010742e-01" cType="1" res="3.1207078136503696e-03" rms="2.5023531913757324e-01" purity="4.1078069806098938e-01" nType="0">
            <Node pos="l" depth="3" NCoef="0" IVar="-1" Cut="0.0000000000000000e+00" cType="1" res="-3.4320481121540070e-02" rms="2.1759705245494843e-01" purity="2.3746879398822784e-01" nType="-99"/>
            <Node pos="r" depth="3" NCoef="0" IVar="-1" Cut="0.0000000000000000e+00" cType="1" res="1.2483526952564716e-02" rms="2.5623190402984619e-01" purity="4.4691121578216553e-01" nType="-99"/>
          </Node>
          <Node pos="r" depth="2" NCoef="0" IVar="6" Cut="-9.4163340330123901e-01" cType="1" res="2.2726818919181824e-02" rms="2.6569354534149170e-01" purity="2.6681399345397949e-01" nType="0">
            <Node pos="l" depth="3" NCoef="0" IVar="-1" Cut="0.0000000000000000e+00" cType="1" res="2.3190509527921677e-02" rms="2.1950899064540863e-01" purity="1.3188900053501129e-01" nType="-99"/>
            <Node pos="r" depth="3" NCoef="0" IVar="-1" Cut="0.0000000000000000e+00" cType="1" res="5.1182638853788376e-02" rms="3.2158911228179932e-01" purity="4.6828752756118774e-01" nType="-99"/>
          </Node>
        </Node>
        <Node pos="r" depth="1" NCoef="0" IVar="9" Cut="-3.9966255426406860e-01" cType="1" res="-3.2661391887813807e-03" rms="2.4094168841838837e-01" purity="5.3916811943054199e-01" nType="0">
          <Node pos="l" depth="2" NCoef="0" IVar="3" Cut="3.2157922363281250e+02" cType="1" res="3.5818303003907204e-03" rms="2.5174975395202637e-01" purity="5.2878838777542114e-01" nType="0">
            <Node pos="l" depth="3" NCoef="0" IVar="-1" Cut="0.0000000000000000e+00" cType="1" res="1.6627579927444458e-02" rms="2.6410841941833496e-01" purity="2.9953545331954956e-01" nType="-99"/>
            <Node pos="r" depth="3" NCoef="0" IVar="-1" Cut="0.0000000000000000e+00" cType="1" res="-7.1137780323624611e-03" rms="2.3897023499011993e-01" purity="7.4969059228897095e-01" nType="-99"/>
          </Node>
          <Node pos="r" depth="2" NCoef="0" IVar="8" Cut="1.2001714706420898e+00" cType="1" res="-7.0942537859082222e-03" rms="2.3459593951702118e-01" purity="5.4497051239013672e-01" nType="0">
            <Node pos="l" depth="3" NCoef="0" IVar="-1" Cut="0.0000000000000000e+00" cType="1" res="-1.6064884141087532e-02" rms="2.3040390014648438e-01" purity="5.6778377294540405e-01" nType="-99"/>
            <Node pos="r" depth="3" NCoef="0" IVar="-1" Cut="0.0000000000000000e+00" cType="1" res="1.5009445138275623e-02" rms="2.6465049386024475e-01" purity="3.6521083116531372e-01" nType="-99"/>
          </Node>
        </Node>
      </Node>
    </BinaryTree>
    <BinaryTree type="DecisionTree" boostWeight="1.0000000000000000e+00" itree="352">
      <Node pos="s" depth="0" NCoef="0" IVar="2" Cut="5.2121887207031250e+02" cType="1" res="8.5966603364795446e-04" rms="2.4458310008049011e-01" purity="5.0299239158630371e-01" nType="0">
        <Node pos="l" depth="1" NCoef="0" IVar="3" Cut="1.9713449096679688e+02" cType="1" res="4.2461398988962173e-03" rms="2.5520074367523193e-01" purity="3.7870845198631287e-01" nType="0">
          <Node pos="l" depth="2" NCoef="0" IVar="4" Cut="1.3706472778320312e+02" cType="1" res="-1.0405815206468105e-02" rms="1.8760170042514801e-01" purity="5.4355993866920471e-02" nType="0">
            <Node pos="l" depth="3" NCoef="0" IVar="-1" Cut="0.0000000000000000e+00" cType="1" res="4.1588056832551956e-02" rms="1.6915416717529297e-01" purity="3.1998228281736374e-02" nType="-99"/>
            <Node pos="r" depth="3" NCoef="0" IVar="-1" Cut="0.0000000000000000e+00" cType="1" res="-4.7266710549592972e-02" rms="2.0154339075088501e-01" purity="7.4968010187149048e-02" nType="-99"/>
          </Node>
          <Node pos="r" depth="2" NCoef="0" IVar="3" Cut="2.2751235961914062e+02" cType="1" res="6.3210520893335342e-03" rms="2.6330897212028503e-01" purity="4.2464104294776917e-01" nType="0">
            <Node pos="l" depth="3" NCoef="0" IVar="-1" Cut="0.0000000000000000e+00" cType="1" res="3.6194976419210434e-02" rms="2.8234037756919861e-01" purity="1.8551385402679443e-01" nType="-99"/>
            <Node pos="r" depth="3" NCoef="0" IVar="-1" Cut="0.0000000000000000e+00" cType="1" res="5.0627388991415501e-03" rms="2.6021403074264526e-01" purity="4.6056109666824341e-01" nType="-99"/>
          </Node>
        </Node>
        <Node pos="r" depth="1" NCoef="0" IVar="1" Cut="4.2475063353776932e-02" cType="1" res="-3.1363693997263908e-03" rms="2.3136487603187561e-01" purity="6.4964735507965088e-01" nType="0">
          <Node pos="l" depth="2" NCoef="0" IVar="1" Cut="3.4382730722427368e-02" cType="1" res="-1.2785661034286022e-02" rms="2.4190607666969299e-01" purity="2.9235664010047913e-01" nType="0">
            <Node pos="l" depth="3" NCoef="0" IVar="-1" Cut="0.0000000000000000e+00" cType="1" res="-1.0734876617789268e-02" rms="2.3310598731040955e-01" purity="2.5087890028953552e-01" nType="-99"/>
            <Node pos="r" depth="3" NCoef="0" IVar="-1" Cut="0.0000000000000000e+00" cType="1" res="-4.9802649766206741e-02" rms="2.8139266371726990e-01" purity="5.1106113195419312e-01" nType="-99"/>
          </Node>
          <Node pos="r" depth="2" NCoef="0" IVar="8" Cut="-1.2553183734416962e-01" cType="1" res="2.1876024547964334e-03" rms="2.2516085207462311e-01" purity="8.4678155183792114e-01" nType="0">
            <Node pos="l" depth="3" NCoef="0" IVar="-1" Cut="0.0000000000000000e+00" cType="1" res="1.3952814042568207e-02" rms="2.2173710167407990e-01" purity="8.4992903470993042e-01" nType="-99"/>
            <Node pos="r" depth="3" NCoef="0" IVar="-1" Cut="0.0000000000000000e+00" cType="1" res="-3.7447179201990366e-03" rms="2.2769173979759216e-01" purity="8.4434443712234497e-01" nType="-99"/>
          </Node>
        </Node>
      </Node>
    </BinaryTree>
    <BinaryTree type="DecisionTree" boostWeight="1.0000000000000000e+00" itree="353">
      <Node pos="s" depth="0" NCoef="0" IVar="7" Cut="-6.6611748933792114e-01" cType="1" res="-8.9186534751206636e-04" rms="2.4698600172996521e-01" purity="5.0155860185623169e-01" nType="0">
        <Node pos="l" depth="1" NCoef="0" IVar="9" Cut="-1.4626659154891968e+00" cType="1" res="8.3927577361464500e-03" rms="2.5118920207023621e-01" purity="3.9021268486976624e-01" nType="0">
          <Node pos="l" depth="2" NCoef="0" IVar="-1" Cut="0.0000000000000000e+00" cType="1" res="5.1342487335205078e-02" rms="3.1455489993095398e-01" purity="2.9197397828102112e-01" nType="-99"/>
          <Node pos="r" depth="2" NCoef="0" IVar="0" Cut="2.0759553222656250e+03" cType="1" res="3.9536436088383198e-03" rms="2.4022071063518524e-01" purity="4.0455955266952515e-01" nType="0">
            <Node pos="l" depth="3" NCoef="0" IVar="-1" Cut="0.0000000000000000e+00" cType="1" res="-7.0096510462462902e-03" rms="2.2997263073921204e-01" purity="1.0735433548688889e-01" nType="-99"/>
            <Node pos="r" depth="3" NCoef="0" IVar="-1" Cut="0.0000000000000000e+00" cType="1" res="2.3083383217453957e-02" rms="2.5422272086143494e-01" purity="8.4628725051879883e-01" nType="-99"/>
          </Node>
        </Node>
        <Node pos="r" depth="1" NCoef="0" IVar="3" Cut="2.4999435424804688e+02" cType="1" res="-3.7105598021298647e-03" rms="2.4562630057334900e-01" purity="5.3536182641983032e-01" nType="0">
          <Node pos="l" depth="2" NCoef="0" IVar="3" Cut="2.3271376037597656e+02" cType="1" res="-1.2953044846653938e-02" rms="2.3761774599552155e-01" purity="1.5016762912273407e-01" nType="0">
            <Node pos="l" depth="3" NCoef="0" IVar="-1" Cut="0.0000000000000000e+00" cType="1" res="-1.2428728863596916e-02" rms="2.2988797724246979e-01" purity="1.2569499015808105e-01" nType="-99"/>
            <Node pos="r" depth="3" NCoef="0" IVar="-1" Cut="0.0000000000000000e+00" cType="1" res="-4.2058300226926804e-02" rms="2.5962889194488525e-01" purity="2.2751727700233459e-01" nType="-99"/>
          </Node>
          <Node pos="r" depth="2" NCoef="0" IVar="6" Cut="1.0058153867721558e+00" cType="1" res="-7.5876462506130338e-04" rms="2.4805702269077301e-01" purity="6.5838229656219482e-01" nType="0">
            <Node pos="l" depth="3" NCoef="0" IVar="-1" Cut="0.0000000000000000e+00" cType="1" res="-4.7471909783780575e-03" rms="2.4663825333118439e-01" purity="6.8800055980682373e-01" nType="-99"/>
            <Node pos="r" depth="3" NCoef="0" IVar="-1" Cut="0.0000000000000000e+00" cType="1" res="2.7457410469651222e-02" rms="2.6026439666748047e-01" purity="3.7813168764114380e-01" nType="-99"/>
          </Node>
        </Node>
      </Node>
    </BinaryTree>
    <BinaryTree type="DecisionTree" boostWeight="1.0000000000000000e+00" itree="354">
      <Node pos="s" depth="0" NCoef="0" IVar="9" Cut="-1.1989691257476807e+00" cType="1" res="-2.8065475635230541e-03" rms="2.4354986846446991e-01" purity="5.0066536664962769e-01" nType="0">
        <Node pos="l" depth="1" NCoef="0" IVar="3" Cut="3.0620663452148438e+02" cType="1" res="-1.4791557565331459e-02" rms="2.6475816965103149e-01" purity="3.4410685300827026e-01" nType="0">
          <Node pos="l" depth="2" NCoef="0" IVar="8" Cut="3.8810354471206665e-01" cType="1" res="-1.5959800221025944e-03" rms="2.5161513686180115e-01" purity="1.9854848086833954e-01" nType="0">
            <Node pos="l" depth="3" NCoef="0" IVar="-1" Cut="0.0000000000000000e+00" cType="1" res="1.4138341881334782e-02" rms="2.7253726124763489e-01" purity="2.1976745128631592e-01" nType="-99"/>
            <Node pos="r" depth="3" NCoef="0" IVar="-1" Cut="0.0000000000000000e+00" cType="1" res="-2.9569938778877258e-02" rms="2.1242907643318176e-01" purity="1.6433352231979370e-01" nType="-99"/>
          </Node>
          <Node pos="r" depth="2" NCoef="0" IVar="3" Cut="4.0200805664062500e+02" cType="1" res="-3.0958360061049461e-02" rms="2.7917209267616272e-01" purity="5.2244043350219727e-01" nType="0">
            <Node pos="l" depth="3" NCoef="0" IVar="-1" Cut="0.0000000000000000e+00" cType="1" res="-5.6923951953649521e-02" rms="2.7993172407150269e-01" purity="3.9201402664184570e-01" nType="-99"/>
            <Node pos="r" depth="3" NCoef="0" IVar="-1" Cut="0.0000000000000000e+00" cType="1" res="3.6950788926333189e-03" rms="2.7459612488746643e-01" purity="7.2300332784652710e-01" nType="-99"/>
          </Node>
        </Node>
        <Node pos="r" depth="1" NCoef="0" IVar="6" Cut="4.7251811623573303e-01" cType="1" res="-6.4923230092972517e-04" rms="2.3946931958198547e-01" purity="5.2884608507156372e-01" nType="0">
          <Node pos="l" depth="2" NCoef="0" IVar="9" Cut="1.8473085165023804e+00" cType="1" res="1.6512153670191765e-03" rms="2.4248357117176056e-01" purity="5.8411520719528198e-01" nType="0">
            <Node pos="l" depth="3" NCoef="0" IVar="-1" Cut="0.0000000000000000e+00" cType="1" res="4.3764384463429451e-03" rms="2.3994964361190796e-01" purity="6.0356503725051880e-01" nType="-99"/>
            <Node pos="r" depth="3" NCoef="0" IVar="-1" Cut="0.0000000000000000e+00" cType="1" res="-1.9755985587835312e-02" rms="2.8459158539772034e-01" purity="2.2631797194480896e-01" nType="-99"/>
          </Node>
          <Node pos="r" depth="2" NCoef="0" IVar="2" Cut="6.4208734130859375e+02" cType="1" res="-6.3121393322944641e-03" rms="2.3178511857986450e-01" purity="3.9279267191886902e-01" nType="0">
            <Node pos="l" depth="3" NCoef="0" IVar="-1" Cut="0.0000000000000000e+00" cType="1" res="-2.6735565625131130e-03" rms="2.3047679662704468e-01" purity="3.4469756484031677e-01" nType="-99"/>
            <Node pos="r" depth="3" NCoef="0" IVar="-1" Cut="0.0000000000000000e+00" cType="1" res="-4.9804579466581345e-02" rms="2.3650704324245453e-01" purity="6.1473864316940308e-01" nType="-99"/>
          </Node>
        </Node>
      </Node>
    </BinaryTree>
    <BinaryTree type="DecisionTree" boostWeight="1.0000000000000000e+00" itree="355">
      <Node pos="s" depth="0" NCoef="0" IVar="6" Cut="4.6920871734619141e-01" cType="1" res="-8.2479137927293777e-04" rms="2.4636366963386536e-01" purity="4.9672433733940125e-01" nType="0">
        <Node pos="l" depth="1" NCoef="0" IVar="5" Cut="2.5231335449218750e+02" cType="1" res="1.4471916947513819e-03" rms="2.5207468867301941e-01" purity="5.4697728157043457e-01" nType="0">
          <Node pos="l" depth="2" NCoef="0" IVar="6" Cut="-8.5791927576065063e-01" cType="1" res="3.2371806446462870e-03" rms="2.6627930998802185e-01" purity="4.6519050002098083e-01" nType="0">
            <Node pos="l" depth="3" NCoef="0" IVar="-1" Cut="0.0000000000000000e+00" cType="1" res="-7.6200529001653194e-03" rms="2.3618674278259277e-01" purity="1.8697541952133179e-01" nType="-99"/>
            <Node pos="r" depth="3" NCoef="0" IVar="-1" Cut="0.0000000000000000e+00" cType="1" res="7.5020217336714268e-03" rms="2.7541819214820862e-01" purity="5.5674880743026733e-01" nType="-99"/>
          </Node>
          <Node pos="r" depth="2" NCoef="0" IVar="0" Cut="2.9977888183593750e+03" cType="1" res="-7.5251613743603230e-03" rms="1.6290432214736938e-01" purity="9.5693486928939819e-01" nType="0">
            <Node pos="l" depth="3" NCoef="0" IVar="-1" Cut="0.0000000000000000e+00" cType="1" res="-5.1427237689495087e-02" rms="2.0777818560600281e-01" purity="9.2477929592132568e-01" nType="-99"/>
            <Node pos="r" depth="3" NCoef="0" IVar="-1" Cut="0.0000000000000000e+00" cType="1" res="2.7456928044557571e-02" rms="9.5661237835884094e-02" purity="9.9010068178176880e-01" nType="-99"/>
          </Node>
        </Node>
        <Node pos="r" depth="1" NCoef="0" IVar="9" Cut="1.3487136363983154e-01" cType="1" res="-6.2806573696434498e-03" rms="2.3198530077934265e-01" purity="3.7604871392250061e-01" nType="0">
          <Node pos="l" depth="2" NCoef="0" IVar="6" Cut="1.0209316015243530e+00" cType="1" res="-1.4072020538151264e-02" rms="2.4353638291358948e-01" purity="3.8312327861785889e-01" nType="0">
            <Node pos="l" depth="3" NCoef="0" IVar="-1" Cut="0.0000000000000000e+00" cType="1" res="-3.4138001501560211e-02" rms="2.6024180650711060e-01" purity="5.1948004961013794e-01" nType="-99"/>
            <Node pos="r" depth="3" NCoef="0" IVar="-1" Cut="0.0000000000000000e+00" cType="1" res="3.0302358791232109e-03" rms="2.1608519554138184e-01" purity="1.8537127971649170e-01" nType="-99"/>
          </Node>
          <Node pos="r" depth="2" NCoef="0" IVar="4" Cut="2.5741049194335938e+02" cType="1" res="2.1299696527421474e-03" rms="2.1852128207683563e-01" purity="3.6841192841529846e-01" nType="0">
            <Node pos="l" depth="3" NCoef="0" IVar="-1" Cut="0.0000000000000000e+00" cType="1" res="-9.8819090053439140e-03" rms="2.1557325124740601e-01" purity="1.7828500270843506e-01" nType="-99"/>
            <Node pos="r" depth="3" NCoef="0" IVar="-1" Cut="0.0000000000000000e+00" cType="1" res="3.2122381031513214e-02" rms="2.2455772757530212e-01" purity="8.3720266819000244e-01" nType="-99"/>
          </Node>
        </Node>
      </Node>
    </BinaryTree>
    <BinaryTree type="DecisionTree" boostWeight="1.0000000000000000e+00" itree="356">
      <Node pos="s" depth="0" NCoef="0" IVar="1" Cut="2.0550150424242020e-02" cType="1" res="3.0817147344350815e-03" rms="2.5016167759895325e-01" purity="5.0716847181320190e-01" nType="0">
        <Node pos="l" depth="1" NCoef="0" IVar="9" Cut="1.4649231433868408e+00" cType="1" res="-4.6855607070028782e-03" rms="1.7790305614471436e-01" purity="9.1830924153327942e-02" nType="0">
          <Node pos="l" depth="2" NCoef="0" IVar="7" Cut="-3.9985984563827515e-01" cType="1" res="-6.5428076777607203e-04" rms="1.8320828676223755e-01" purity="1.0302694886922836e-01" nType="0">
            <Node pos="l" depth="3" NCoef="0" IVar="-1" Cut="0.0000000000000000e+00" cType="1" res="2.6504997164011002e-02" rms="1.8459251523017883e-01" purity="9.0620331466197968e-02" nType="-99"/>
            <Node pos="r" depth="3" NCoef="0" IVar="-1" Cut="0.0000000000000000e+00" cType="1" res="-1.8944678828120232e-02" rms="1.8194992840290070e-01" purity="1.1171620339155197e-01" nType="-99"/>
          </Node>
          <Node pos="r" depth="2" NCoef="0" IVar="-1" Cut="0.0000000000000000e+00" cType="1" res="-8.1069856882095337e-02" rms="1.4194551110267639e-01" purity="2.8223048895597458e-02" nType="-99"/>
        </Node>
        <Node pos="r" depth="1" NCoef="0" IVar="0" Cut="1.6443947753906250e+03" cType="1" res="4.9012978561222553e-03" rms="2.6421484351158142e-01" purity="6.0446661710739136e-01" nType="0">
          <Node pos="l" depth="2" NCoef="0" IVar="2" Cut="4.7312808227539062e+02" cType="1" res="1.4105152338743210e-02" rms="2.2968339920043945e-01" purity="6.3238099217414856e-02" nType="0">
            <Node pos="l" depth="3" NCoef="0" IVar="-1" Cut="0.0000000000000000e+00" cType="1" res="4.0260113775730133e-02" rms="2.4657449126243591e-01" purity="7.3364481329917908e-02" nType="-99"/>
            <Node pos="r" depth="3" NCoef="0" IVar="-1" Cut="0.0000000000000000e+00" cType="1" res="-3.1862594187259674e-02" rms="1.2540756165981293e-01" purity="1.7332537099719048e-02" nType="-99"/>
          </Node>
          <Node pos="r" depth="2" NCoef="0" IVar="5" Cut="1.6895468139648438e+02" cType="1" res="2.3935891222208738e-03" rms="2.7281308174133301e-01" purity="7.5193125009536743e-01" nType="0">
            <Node pos="l" depth="3" NCoef="0" IVar="-1" Cut="0.0000000000000000e+00" cType="1" res="-3.3501312136650085e-03" rms="3.3754560351371765e-01" purity="4.9510574340820312e-01" nType="-99"/>
            <Node pos="r" depth="3" NCoef="0" IVar="-1" Cut="0.0000000000000000e+00" cType="1" res="1.0712020099163055e-02" rms="2.2924683988094330e-01" purity="8.9388716220855713e-01" nType="-99"/>
          </Node>
        </Node>
      </Node>
    </BinaryTree>
    <BinaryTree type="DecisionTree" boostWeight="1.0000000000000000e+00" itree="357">
      <Node pos="s" depth="0" NCoef="0" IVar="0" Cut="1.8661213378906250e+03" cType="1" res="1.3072743313387036e-03" rms="2.4512033164501190e-01" purity="4.9862188100814819e-01" nType="0">
        <Node pos="l" depth="1" NCoef="0" IVar="1" Cut="7.3895707726478577e-02" cType="1" res="-3.9306934922933578e-03" rms="2.2128191590309143e-01" purity="7.2566196322441101e-02" nType="0">
          <Node pos="l" depth="2" NCoef="0" IVar="8" Cut="4.0122011303901672e-01" cType="1" res="1.9771570805460215e-04" rms="1.7536237835884094e-01" purity="3.8435515016317368e-02" nType="0">
            <Node pos="l" depth="3" NCoef="0" IVar="-1" Cut="0.0000000000000000e+00" cType="1" res="1.4425078406929970e-02" rms="1.8278867006301880e-01" purity="4.1936893016099930e-02" nType="-99"/>
            <Node pos="r" depth="3" NCoef="0" IVar="-1" Cut="0.0000000000000000e+00" cType="1" res="-2.0802445709705353e-02" rms="1.6219569742679596e-01" purity="3.2690595835447311e-02" nType="-99"/>
          </Node>
          <Node pos="r" depth="2" NCoef="0" IVar="0" Cut="1.6884876708984375e+03" cType="1" res="-1.7614752054214478e-02" rms="3.3029276132583618e-01" purity="1.8569603562355042e-01" nType="0">
            <Node pos="l" depth="3" NCoef="0" IVar="-1" Cut="0.0000000000000000e+00" cType="1" res="-2.8587165288627148e-03" rms="2.8050914406776428e-01" purity="1.0735969245433807e-01" nType="-99"/>
            <Node pos="r" depth="3" NCoef="0" IVar="-1" Cut="0.0000000000000000e+00" cType="1" res="-2.5452172383666039e-02" rms="4.1138237714767456e-01" purity="3.4426599740982056e-01" nType="-99"/>
          </Node>
        </Node>
        <Node pos="r" depth="1" NCoef="0" IVar="5" Cut="1.9694030761718750e+02" cType="1" res="5.1367213018238544e-03" rms="2.6110872626304626e-01" purity="8.1010866165161133e-01" nType="0">
          <Node pos="l" depth="2" NCoef="0" IVar="9" Cut="1.4647201299667358e+00" cType="1" res="1.1207764968276024e-02" rms="3.1968954205513000e-01" purity="6.7122894525527954e-01" nType="0">
            <Node pos="l" depth="3" NCoef="0" IVar="-1" Cut="0.0000000000000000e+00" cType="1" res="7.7016386203467846e-03" rms="3.1520020961761475e-01" purity="6.7916041612625122e-01" nType="-99"/>
            <Node pos="r" depth="3" NCoef="0" IVar="-1" Cut="0.0000000000000000e+00" cType="1" res="3.7128943949937820e-02" rms="3.5823908448219299e-01" purity="5.9536910057067871e-01" nType="-99"/>
          </Node>
          <Node pos="r" depth="2" NCoef="0" IVar="9" Cut="6.6089451313018799e-01" cType="1" res="-1.3264972949400544e-04" rms="1.9643609225749969e-01" purity="9.3064963817596436e-01" nType="0">
            <Node pos="l" depth="3" NCoef="0" IVar="-1" Cut="0.0000000000000000e+00" cType="1" res="7.1534533053636551e-03" rms="1.9026915729045868e-01" purity="9.4224315881729126e-01" nType="-99"/>
            <Node pos="r" depth="3" NCoef="0" IVar="-1" Cut="0.0000000000000000e+00" cType="1" res="-2.1729143336415291e-02" rms="2.1666587889194489e-01" purity="8.8936501741409302e-01" nType="-99"/>
          </Node>
        </Node>
      </Node>
    </BinaryTree>
    <BinaryTree type="DecisionTree" boostWeight="1.0000000000000000e+00" itree="358">
      <Node pos="s" depth="0" NCoef="0" IVar="8" Cut="-1.9999579191207886e+00" cType="1" res="-1.0671609779819846e-03" rms="2.4305360019207001e-01" purity="4.9938040971755981e-01" nType="0">
        <Node pos="l" depth="1" NCoef="0" IVar="-1" Cut="0.0000000000000000e+00" cType="1" res="-6.1836320906877518e-02" rms="1.8702578544616699e-01" purity="7.4316672980785370e-02" nType="-99"/>
        <Node pos="r" depth="1" NCoef="0" IVar="9" Cut="-1.7326663732528687e+00" cType="1" res="-3.4503423376008868e-04" rms="2.4439156055450439e-01" purity="5.1122426986694336e-01" nType="0">
          <Node pos="l" depth="2" NCoef="0" IVar="5" Cut="1.3092045593261719e+02" cType="1" res="1.5827368944883347e-02" rms="2.7532058954238892e-01" purity="2.8169494867324829e-01" nType="0">
            <Node pos="l" depth="3" NCoef="0" IVar="-1" Cut="0.0000000000000000e+00" cType="1" res="-8.7700979784131050e-03" rms="2.0344683527946472e-01" purity="1.2107152491807938e-01" nType="-99"/>
            <Node pos="r" depth="3" NCoef="0" IVar="-1" Cut="0.0000000000000000e+00" cType="1" res="3.7015091627836227e-02" rms="3.3348062634468079e-01" purity="4.5140254497528076e-01" nType="-99"/>
          </Node>
          <Node pos="r" depth="2" NCoef="0" IVar="6" Cut="-8.1939703226089478e-01" cType="1" res="-1.3387319631874561e-03" rms="2.4232727289199829e-01" purity="5.2532750368118286e-01" nType="0">
            <Node pos="l" depth="3" NCoef="0" IVar="-1" Cut="0.0000000000000000e+00" cType="1" res="1.2930030003190041e-02" rms="2.3735582828521729e-01" purity="2.9381373524665833e-01" nType="-99"/>
            <Node pos="r" depth="3" NCoef="0" IVar="-1" Cut="0.0000000000000000e+00" cType="1" res="-4.9648974090814590e-03" rms="2.4324074387550354e-01" purity="5.7020753622055054e-01" nType="-99"/>
          </Node>
        </Node>
      </Node>
    </BinaryTree>
    <BinaryTree type="DecisionTree" boostWeight="1.0000000000000000e+00" itree="359">
      <Node pos="s" depth="0" NCoef="0" IVar="0" Cut="1.9325506591796875e+03" cType="1" res="-1.1884360574185848e-03" rms="2.3820970952510834e-01" purity="4.9643430113792419e-01" nType="0">
        <Node pos="l" depth="1" NCoef="0" IVar="1" Cut="5.6547008454799652e-02" cType="1" res="-5.1920088008046150e-03" rms="2.2925840318202972e-01" purity="8.5680432617664337e-02" nType="0">
          <Node pos="l" depth="2" NCoef="0" IVar="8" Cut="-6.6639858484268188e-01" cType="1" res="-1.1230115887883585e-05" rms="1.6624273359775543e-01" purity="3.4112352877855301e-02" nType="0">
            <Node pos="l" depth="3" NCoef="0" IVar="-1" Cut="0.0000000000000000e+00" cType="1" res="-2.9660115018486977e-02" rms="1.4299204945564270e-01" purity="2.3289063945412636e-02" nType="-99"/>
            <Node pos="r" depth="3" NCoef="0" IVar="-1" Cut="0.0000000000000000e+00" cType="1" res="1.2940539047122002e-02" rms="1.7634864151477814e-01" purity="3.9390228688716888e-02" nType="-99"/>
          </Node>
          <Node pos="r" depth="2" NCoef="0" IVar="7" Cut="5.9473353624343872e-01" cType="1" res="-1.5081254765391350e-02" rms="3.1620216369628906e-01" purity="1.8411532044410706e-01" nType="0">
            <Node pos="l" depth="3" NCoef="0" IVar="-1" Cut="0.0000000000000000e+00" cType="1" res="-2.1602896973490715e-02" rms="3.1580263376235962e-01" purity="1.8012638390064240e-01" nType="-99"/>
            <Node pos="r" depth="3" NCoef="0" IVar="-1" Cut="0.0000000000000000e+00" cType="1" res="1.1479903943836689e-02" rms="3.1577971577644348e-01" purity="1.9578666985034943e-01" nType="-99"/>
          </Node>
        </Node>
        <Node pos="r" depth="1" NCoef="0" IVar="9" Cut="1.3398276269435883e-01" cType="1" res="2.1788936574012041e-03" rms="2.4543535709381104e-01" purity="8.4191173315048218e-01" nType="0">
          <Node pos="l" depth="2" NCoef="0" IVar="0" Cut="2.1511367187500000e+03" cType="1" res="6.6263964399695396e-03" rms="2.4608986079692841e-01" purity="8.4968715906143188e-01" nType="0">
            <Node pos="l" depth="3" NCoef="0" IVar="-1" Cut="0.0000000000000000e+00" cType="1" res="1.3071143999695778e-02" rms="3.6711096763610840e-01" purity="5.5635929107666016e-01" nType="-99"/>
            <Node pos="r" depth="3" NCoef="0" IVar="-1" Cut="0.0000000000000000e+00" cType="1" res="8.6322687566280365e-03" rms="2.1300908923149109e-01" purity="9.0957939624786377e-01" nType="-99"/>
          </Node>
          <Node pos="r" depth="2" NCoef="0" IVar="2" Cut="4.3225759887695312e+02" cType="1" res="-3.4003707114607096e-03" rms="2.4449743330478668e-01" purity="8.3215761184692383e-01" nType="0">
            <Node pos="l" depth="3" NCoef="0" IVar="-1" Cut="0.0000000000000000e+00" cType="1" res="-3.2540660351514816e-02" rms="2.7181458473205566e-01" purity="8.4514498710632324e-01" nType="-99"/>
            <Node pos="r" depth="3" NCoef="0" IVar="-1" Cut="0.0000000000000000e+00" cType="1" res="6.8828416988253593e-04" rms="2.3883588612079620e-01" purity="8.2972347736358643e-01" nType="-99"/>
          </Node>
        </Node>
      </Node>
    </BinaryTree>
    <BinaryTree type="DecisionTree" boostWeight="1.0000000000000000e+00" itree="360">
      <Node pos="s" depth="0" NCoef="0" IVar="9" Cut="-1.9990645647048950e+00" cType="1" res="-1.0696365498006344e-03" rms="2.4594853818416595e-01" purity="4.9916934967041016e-01" nType="0">
        <Node pos="l" depth="1" NCoef="0" IVar="-1" Cut="0.0000000000000000e+00" cType="1" res="-3.1706120818853378e-02" rms="2.4933688342571259e-01" purity="1.7903798818588257e-01" nType="-99"/>
        <Node pos="r" depth="1" NCoef="0" IVar="6" Cut="-3.0244985222816467e-01" cType="1" res="-3.4411691012792289e-04" rms="2.4579678475856781e-01" purity="5.1045596599578857e-01" nType="0">
          <Node pos="l" depth="2" NCoef="0" IVar="1" Cut="5.7642109692096710e-02" cType="1" res="-5.3492859005928040e-03" rms="2.4603149294853210e-01" purity="4.4652235507965088e-01" nType="0">
            <Node pos="l" depth="3" NCoef="0" IVar="-1" Cut="0.0000000000000000e+00" cType="1" res="2.3964857682585716e-03" rms="2.3610475659370422e-01" purity="2.1951214969158173e-01" nType="-99"/>
            <Node pos="r" depth="3" NCoef="0" IVar="-1" Cut="0.0000000000000000e+00" cType="1" res="-1.7481219023466110e-02" rms="2.5590503215789795e-01" purity="6.8616402149200439e-01" nType="-99"/>
          </Node>
          <Node pos="r" depth="2" NCoef="0" IVar="6" Cut="1.1737096309661865e+00" cType="1" res="2.3397477343678474e-03" rms="2.4562883377075195e-01" purity="5.4473835229873657e-01" nType="0">
            <Node pos="l" depth="3" NCoef="0" IVar="-1" Cut="0.0000000000000000e+00" cType="1" res="6.4494982361793518e-03" rms="2.5288286805152893e-01" purity="6.1689019203186035e-01" nType="-99"/>
            <Node pos="r" depth="3" NCoef="0" IVar="-1" Cut="0.0000000000000000e+00" cType="1" res="-1.9328024238348007e-02" rms="1.9860725104808807e-01" purity="1.3066704571247101e-01" nType="-99"/>
          </Node>
        </Node>
      </Node>
    </BinaryTree>
    <BinaryTree type="DecisionTree" boostWeight="1.0000000000000000e+00" itree="361">
      <Node pos="s" depth="0" NCoef="0" IVar="8" Cut="-9.3325954675674438e-01" cType="1" res="-3.3648032695055008e-04" rms="2.3985835909843445e-01" purity="4.9622678756713867e-01" nType="0">
        <Node pos="l" depth="1" NCoef="0" IVar="7" Cut="1.3600103557109833e-01" cType="1" res="-8.6901886388659477e-03" rms="2.4476611614227295e-01" purity="3.2842189073562622e-01" nType="0">
          <Node pos="l" depth="2" NCoef="0" IVar="4" Cut="1.8327000427246094e+02" cType="1" res="-1.7236273735761642e-02" rms="2.3474092781543732e-01" purity="3.1941515207290649e-01" nType="0">
            <Node pos="l" depth="3" NCoef="0" IVar="-1" Cut="0.0000000000000000e+00" cType="1" res="-1.6906409291550517e-03" rms="2.0840287208557129e-01" purity="1.1449554562568665e-01" nType="-99"/>
            <Node pos="r" depth="3" NCoef="0" IVar="-1" Cut="0.0000000000000000e+00" cType="1" res="-3.9870236068964005e-02" rms="2.5061920285224915e-01" purity="4.6020531654357910e-01" nType="-99"/>
          </Node>
          <Node pos="r" depth="2" NCoef="0" IVar="1" Cut="5.2339296787977219e-02" cType="1" res="3.5826195962727070e-03" rms="2.5798904895782471e-01" purity="3.4135621786117554e-01" nType="0">
            <Node pos="l" depth="3" NCoef="0" IVar="-1" Cut="0.0000000000000000e+00" cType="1" res="-2.4164330214262009e-02" rms="2.0820070803165436e-01" purity="1.3540214300155640e-01" nType="-99"/>
            <Node pos="r" depth="3" NCoef="0" IVar="-1" Cut="0.0000000000000000e+00" cType="1" res="2.3969968780875206e-02" rms="3.0705788731575012e-01" purity="5.9368109703063965e-01" nType="-99"/>
          </Node>
        </Node>
        <Node pos="r" depth="1" NCoef="0" IVar="9" Cut="1.9996682405471802e+00" cType="1" res="1.6404890920966864e-03" rms="2.3863933980464935e-01" purity="5.3593903779983521e-01" nType="0">
          <Node pos="l" depth="2" NCoef="0" IVar="6" Cut="7.4966251850128174e-01" cType="1" res="2.4492447264492512e-03" rms="2.3854453861713409e-01" purity="5.4732060432434082e-01" nType="0">
            <Node pos="l" depth="3" NCoef="0" IVar="-1" Cut="0.0000000000000000e+00" cType="1" res="1.3247592141851783e-03" rms="2.3858335614204407e-01" purity="5.9232449531555176e-01" nType="-99"/>
            <Node pos="r" depth="3" NCoef="0" IVar="-1" Cut="0.0000000000000000e+00" cType="1" res="1.7779836431145668e-02" rms="2.3822598159313202e-01" purity="3.4364414215087891e-01" nType="-99"/>
          </Node>
          <Node pos="r" depth="2" NCoef="0" IVar="-1" Cut="0.0000000000000000e+00" cType="1" res="-3.7358425557613373e-02" rms="2.4021150171756744e-01" purity="1.8528296053409576e-01" nType="-99"/>
        </Node>
      </Node>
    </BinaryTree>
    <BinaryTree type="DecisionTree" boostWeight="1.0000000000000000e+00" itree="362">
      <Node pos="s" depth="0" NCoef="0" IVar="9" Cut="4.0015679597854614e-01" cType="1" res="-1.8299324437975883e-03" rms="2.4157932400703430e-01" purity="4.9245649576187134e-01" nType="0">
        <Node pos="l" depth="1" NCoef="0" IVar="6" Cut="-2.0619289949536324e-02" cType="1" res="1.3847305672243237e-03" rms="2.4137030541896820e-01" purity="5.1356524229049683e-01" nType="0">
          <Node pos="l" depth="2" NCoef="0" IVar="7" Cut="9.3947964906692505e-01" cType="1" res="6.1140726320445538e-03" rms="2.5009426474571228e-01" purity="5.2183872461318970e-01" nType="0">
            <Node pos="l" depth="3" NCoef="0" IVar="-1" Cut="0.0000000000000000e+00" cType="1" res="1.6228824853897095e-02" rms="2.5019636750221252e-01" purity="5.6628292798995972e-01" nType="-99"/>
            <Node pos="r" depth="3" NCoef="0" IVar="-1" Cut="0.0000000000000000e+00" cType="1" res="-2.9632199555635452e-02" rms="2.4811217188835144e-01" purity="2.5954577326774597e-01" nType="-99"/>
          </Node>
          <Node pos="r" depth="2" NCoef="0" IVar="8" Cut="6.5613347291946411e-01" cType="1" res="-3.3468238543719053e-03" rms="2.3221829533576965e-01" purity="5.0528788566589355e-01" nType="0">
            <Node pos="l" depth="3" NCoef="0" IVar="-1" Cut="0.0000000000000000e+00" cType="1" res="-1.1775264516472816e-02" rms="2.2869175672531128e-01" purity="5.1292562484741211e-01" nType="-99"/>
            <Node pos="r" depth="3" NCoef="0" IVar="-1" Cut="0.0000000000000000e+00" cType="1" res="1.2428648769855499e-02" rms="2.4243086576461792e-01" purity="4.8168820142745972e-01" nType="-99"/>
          </Node>
        </Node>
        <Node pos="r" depth="1" NCoef="0" IVar="2" Cut="5.9104095458984375e+02" cType="1" res="-7.5014466419816017e-03" rms="2.4184349179267883e-01" purity="4.5521503686904907e-01" nType="0">
          <Node pos="l" depth="2" NCoef="0" IVar="9" Cut="1.3141030073165894e+00" cType="1" res="-1.1775061488151550e-02" rms="2.4506458640098572e-01" purity="3.6992147564888000e-01" nType="0">
            <Node pos="l" depth="3" NCoef="0" IVar="-1" Cut="0.0000000000000000e+00" cType="1" res="-3.1161064282059669e-02" rms="2.4741555750370026e-01" purity="4.3335324525833130e-01" nType="-99"/>
            <Node pos="r" depth="3" NCoef="0" IVar="-1" Cut="0.0000000000000000e+00" cType="1" res="2.0140714477747679e-03" rms="2.4039803445339203e-01" purity="2.6055186986923218e-01" nType="-99"/>
          </Node>
          <Node pos="r" depth="2" NCoef="0" IVar="3" Cut="4.8644439697265625e+02" cType="1" res="2.0887649152427912e-03" rms="2.3417045176029205e-01" purity="6.4661812782287598e-01" nType="0">
            <Node pos="l" depth="3" NCoef="0" IVar="-1" Cut="0.0000000000000000e+00" cType="1" res="1.6039662063121796e-02" rms="2.3668594658374786e-01" purity="5.5699080228805542e-01" nType="-99"/>
            <Node pos="r" depth="3" NCoef="0" IVar="-1" Cut="0.0000000000000000e+00" cType="1" res="-2.6351748034358025e-02" rms="2.2776463627815247e-01" purity="8.4003973007202148e-01" nType="-99"/>
          </Node>
        </Node>
      </Node>
    </BinaryTree>
    <BinaryTree type="DecisionTree" boostWeight="1.0000000000000000e+00" itree="363">
      <Node pos="s" depth="0" NCoef="0" IVar="7" Cut="-1.3320507109165192e-01" cType="1" res="-5.3409190149977803e-04" rms="2.4462942779064178e-01" purity="4.9839347600936890e-01" nType="0">
        <Node pos="l" depth="1" NCoef="0" IVar="9" Cut="1.3324697315692902e-01" cType="1" res="-6.0972920618951321e-03" rms="2.4071146547794342e-01" purity="4.7762241959571838e-01" nType="0">
          <Node pos="l" depth="2" NCoef="0" IVar="5" Cut="2.3994985961914062e+02" cType="1" res="-1.4989833347499371e-02" rms="2.4212068319320679e-01" purity="4.7396892309188843e-01" nType="0">
            <Node pos="l" depth="3" NCoef="0" IVar="-1" Cut="0.0000000000000000e+00" cType="1" res="-2.8857927769422531e-02" rms="2.5699120759963989e-01" purity="3.6039370298385620e-01" nType="-99"/>
            <Node pos="r" depth="3" NCoef="0" IVar="-1" Cut="0.0000000000000000e+00" cType="1" res="2.4309512227773666e-02" rms="1.6317582130432129e-01" purity="9.5375782251358032e-01" nType="-99"/>
          </Node>
          <Node pos="r" depth="2" NCoef="0" IVar="5" Cut="1.4555870056152344e+02" cType="1" res="6.1855684034526348e-03" rms="2.3820596933364868e-01" purity="4.8266878724098206e-01" nType="0">
            <Node pos="l" depth="3" NCoef="0" IVar="-1" Cut="0.0000000000000000e+00" cType="1" res="-9.5229661092162132e-03" rms="2.2238017618656158e-01" purity="1.4265957474708557e-01" nType="-99"/>
            <Node pos="r" depth="3" NCoef="0" IVar="-1" Cut="0.0000000000000000e+00" cType="1" res="2.4970512837171555e-02" rms="2.5033190846443176e-01" purity="7.6831132173538208e-01" nType="-99"/>
          </Node>
        </Node>
        <Node pos="r" depth="1" NCoef="0" IVar="9" Cut="-1.3270078599452972e-01" cType="1" res="3.9999205619096756e-03" rms="2.4768435955047607e-01" purity="5.1532191038131714e-01" nType="0">
          <Node pos="l" depth="2" NCoef="0" IVar="6" Cut="9.9868792295455933e-01" cType="1" res="1.1257302016019821e-02" rms="2.5449493527412415e-01" purity="5.2593189477920532e-01" nType="0">
            <Node pos="l" depth="3" NCoef="0" IVar="-1" Cut="0.0000000000000000e+00" cType="1" res="2.4539137259125710e-02" rms="2.5961267948150635e-01" purity="5.7397884130477905e-01" nType="-99"/>
            <Node pos="r" depth="3" NCoef="0" IVar="-1" Cut="0.0000000000000000e+00" cType="1" res="-5.0598587840795517e-02" rms="2.1171647310256958e-01" purity="1.9018904864788055e-01" nType="-99"/>
          </Node>
          <Node pos="r" depth="2" NCoef="0" IVar="8" Cut="-1.1977727413177490e+00" cType="1" res="-1.4731164555996656e-03" rms="2.4227799475193024e-01" purity="5.0732058286666870e-01" nType="0">
            <Node pos="l" depth="3" NCoef="0" IVar="-1" Cut="0.0000000000000000e+00" cType="1" res="-3.1709473580121994e-02" rms="2.5994181632995605e-01" purity="2.4438148736953735e-01" nType="-99"/>
            <Node pos="r" depth="3" NCoef="0" IVar="-1" Cut="0.0000000000000000e+00" cType="1" res="1.0641890112310648e-03" rms="2.4023032188415527e-01" purity="5.3522419929504395e-01" nType="-99"/>
          </Node>
        </Node>
      </Node>
    </BinaryTree>
    <BinaryTree type="DecisionTree" boostWeight="1.0000000000000000e+00" itree="364">
      <Node pos="s" depth="0" NCoef="0" IVar="8" Cut="9.3305498361587524e-01" cType="1" res="-1.2192364083603024e-03" rms="2.4043361842632294e-01" purity="4.9616113305091858e-01" nType="0">
        <Node pos="l" depth="1" NCoef="0" IVar="2" Cut="8.7274401855468750e+02" cType="1" res="7.7754980884492397e-04" rms="2.3854790627956390e-01" purity="5.2802181243896484e-01" nType="0">
          <Node pos="l" depth="2" NCoef="0" IVar="9" Cut="1.3346202671527863e-01" cType="1" res="1.8988599767908454e-03" rms="2.3658674955368042e-01" purity="5.1415598392486572e-01" nType="0">
            <Node pos="l" depth="3" NCoef="0" IVar="-1" Cut="0.0000000000000000e+00" cType="1" res="-3.5298331640660763e-03" rms="2.3313662409782410e-01" purity="5.1026320457458496e-01" nType="-99"/>
            <Node pos="r" depth="3" NCoef="0" IVar="-1" Cut="0.0000000000000000e+00" cType="1" res="1.2177354656159878e-02" rms="2.4103774130344391e-01" purity="5.1938349008560181e-01" nType="-99"/>
          </Node>
          <Node pos="r" depth="2" NCoef="0" IVar="-1" Cut="0.0000000000000000e+00" cType="1" res="-2.7980109676718712e-02" rms="2.7060213685035706e-01" purity="7.7725869417190552e-01" nType="-99"/>
        </Node>
        <Node pos="r" depth="1" NCoef="0" IVar="7" Cut="-3.9060077071189880e-01" cType="1" res="-1.0020256042480469e-02" rms="2.4838341772556305e-01" purity="3.5573244094848633e-01" nType="0">
          <Node pos="l" depth="2" NCoef="0" IVar="8" Cut="1.2884694337844849e+00" cType="1" res="-1.8707133131101727e-03" rms="2.5811621546745300e-01" purity="3.0045127868652344e-01" nType="0">
            <Node pos="l" depth="3" NCoef="0" IVar="-1" Cut="0.0000000000000000e+00" cType="1" res="2.9736652970314026e-02" rms="2.8675100207328796e-01" purity="4.5439141988754272e-01" nType="-99"/>
            <Node pos="r" depth="3" NCoef="0" IVar="-1" Cut="0.0000000000000000e+00" cType="1" res="-3.2069422304630280e-02" rms="2.3222085833549500e-01" purity="1.8268083035945892e-01" nType="-99"/>
          </Node>
          <Node pos="r" depth="2" NCoef="0" IVar="4" Cut="1.9705760192871094e+02" cType="1" res="-1.3900993391871452e-02" rms="2.4351628124713898e-01" purity="3.8205686211585999e-01" nType="0">
            <Node pos="l" depth="3" NCoef="0" IVar="-1" Cut="0.0000000000000000e+00" cType="1" res="-4.1601959615945816e-02" rms="2.0984812080860138e-01" purity="1.2927156686782837e-01" nType="-99"/>
            <Node pos="r" depth="3" NCoef="0" IVar="-1" Cut="0.0000000000000000e+00" cType="1" res="-4.1990312747657299e-03" rms="2.6858672499656677e-01" purity="5.9883838891983032e-01" nType="-99"/>
          </Node>
        </Node>
      </Node>
    </BinaryTree>
    <BinaryTree type="DecisionTree" boostWeight="1.0000000000000000e+00" itree="365">
      <Node pos="s" depth="0" NCoef="0" IVar="9" Cut="-1.3287624716758728e-01" cType="1" res="2.5905154179781675e-03" rms="2.4663512408733368e-01" purity="5.0236475467681885e-01" nType="0">
        <Node pos="l" depth="1" NCoef="0" IVar="0" Cut="1.8876590576171875e+03" cType="1" res="6.6993590444326401e-03" rms="2.5219514966011047e-01" purity="5.0345885753631592e-01" nType="0">
          <Node pos="l" depth="2" NCoef="0" IVar="8" Cut="-1.2004599571228027e+00" cType="1" res="1.3292555231601000e-03" rms="2.3282442986965179e-01" purity="8.2853332161903381e-02" nType="0">
            <Node pos="l" depth="3" NCoef="0" IVar="-1" Cut="0.0000000000000000e+00" cType="1" res="-4.5725405216217041e-02" rms="1.7588011920452118e-01" purity="3.8877371698617935e-02" nType="-99"/>
            <Node pos="r" depth="3" NCoef="0" IVar="-1" Cut="0.0000000000000000e+00" cType="1" res="1.1751750484108925e-02" rms="2.4556757509708405e-01" purity="9.4645433127880096e-02" nType="-99"/>
          </Node>
          <Node pos="r" depth="2" NCoef="0" IVar="6" Cut="-7.9787725210189819e-01" cType="1" res="1.0799293406307697e-02" rms="2.6596343517303467e-01" purity="8.2458031177520752e-01" nType="0">
            <Node pos="l" depth="3" NCoef="0" IVar="-1" Cut="0.0000000000000000e+00" cType="1" res="4.1445497423410416e-02" rms="3.1038093566894531e-01" purity="6.9319027662277222e-01" nType="-99"/>
            <Node pos="r" depth="3" NCoef="0" IVar="-1" Cut="0.0000000000000000e+00" cType="1" res="9.8972339183092117e-03" rms="2.5934073328971863e-01" purity="8.4176504611968994e-01" nType="-99"/>
          </Node>
        </Node>
        <Node pos="r" depth="1" NCoef="0" IVar="8" Cut="-4.0077966451644897e-01" cType="1" res="-7.9102360177785158e-04" rms="2.4191111326217651e-01" purity="5.0146436691284180e-01" nType="0">
          <Node pos="l" depth="2" NCoef="0" IVar="7" Cut="-9.3040561676025391e-01" cType="1" res="7.3652905412018299e-03" rms="2.5075960159301758e-01" purity="4.8209890723228455e-01" nType="0">
            <Node pos="l" depth="3" NCoef="0" IVar="-1" Cut="0.0000000000000000e+00" cType="1" res="-1.8984626978635788e-02" rms="1.9178697466850281e-01" purity="2.5602465867996216e-01" nType="-99"/>
            <Node pos="r" depth="3" NCoef="0" IVar="-1" Cut="0.0000000000000000e+00" cType="1" res="1.7562679946422577e-02" rms="2.6296031475067139e-01" purity="5.3708034753799438e-01" nType="-99"/>
          </Node>
          <Node pos="r" depth="2" NCoef="0" IVar="2" Cut="6.4854174804687500e+02" cType="1" res="-4.7891195863485336e-03" rms="2.3735098540782928e-01" purity="5.1095700263977051e-01" nType="0">
            <Node pos="l" depth="3" NCoef="0" IVar="-1" Cut="0.0000000000000000e+00" cType="1" res="-2.1834499784745276e-04" rms="2.3912465572357178e-01" purity="4.5785120129585266e-01" nType="-99"/>
            <Node pos="r" depth="3" NCoef="0" IVar="-1" Cut="0.0000000000000000e+00" cType="1" res="-3.0101204290986061e-02" rms="2.3160615563392639e-01" purity="6.6486138105392456e-01" nType="-99"/>
          </Node>
        </Node>
      </Node>
    </BinaryTree>
    <BinaryTree type="DecisionTree" boostWeight="1.0000000000000000e+00" itree="366">
      <Node pos="s" depth="0" NCoef="0" IVar="1" Cut="6.2095254659652710e-02" cType="1" res="8.3458737935870886e-04" rms="2.4830816686153412e-01" purity="4.9987170100212097e-01" nType="0">
        <Node pos="l" depth="1" NCoef="0" IVar="6" Cut="-6.1632066965103149e-01" cType="1" res="7.4770143255591393e-03" rms="2.4590171873569489e-01" purity="2.6173698902130127e-01" nType="0">
          <Node pos="l" depth="2" NCoef="0" IVar="5" Cut="1.6214065551757812e+02" cType="1" res="-2.6894665788859129e-03" rms="2.2395837306976318e-01" purity="1.7353060841560364e-01" nType="0">
            <Node pos="l" depth="3" NCoef="0" IVar="-1" Cut="0.0000000000000000e+00" cType="1" res="1.4171809889376163e-02" rms="1.9540385901927948e-01" purity="7.4857898056507111e-02" nType="-99"/>
            <Node pos="r" depth="3" NCoef="0" IVar="-1" Cut="0.0000000000000000e+00" cType="1" res="-2.7457317337393761e-02" rms="2.8435894846916199e-01" purity="4.3153765797615051e-01" nType="-99"/>
          </Node>
          <Node pos="r" depth="2" NCoef="0" IVar="6" Cut="1.6595218181610107e+00" cType="1" res="1.2201721780002117e-02" rms="2.5532105565071106e-01" purity="3.0272945761680603e-01" nType="0">
            <Node pos="l" depth="3" NCoef="0" IVar="-1" Cut="0.0000000000000000e+00" cType="1" res="2.1111292764544487e-02" rms="2.6685783267021179e-01" purity="3.3539506793022156e-01" nType="-99"/>
            <Node pos="r" depth="3" NCoef="0" IVar="-1" Cut="0.0000000000000000e+00" cType="1" res="-2.4599464610219002e-02" rms="1.2278996407985687e-01" purity="3.2782237976789474e-02" nType="-99"/>
          </Node>
        </Node>
        <Node pos="r" depth="1" NCoef="0" IVar="5" Cut="1.6942547607421875e+02" cType="1" res="-5.5040386505424976e-03" rms="2.5041875243186951e-01" purity="7.2711497545242310e-01" nType="0">
          <Node pos="l" depth="2" NCoef="0" IVar="7" Cut="7.3699003458023071e-01" cType="1" res="-1.4962618239223957e-02" rms="3.1005570292472839e-01" purity="4.2982029914855957e-01" nType="0">
            <Node pos="l" depth="3" NCoef="0" IVar="-1" Cut="0.0000000000000000e+00" cType="1" res="-9.7001679241657257e-03" rms="3.1228855252265930e-01" purity="4.5486283302307129e-01" nType="-99"/>
            <Node pos="r" depth="3" NCoef="0" IVar="-1" Cut="0.0000000000000000e+00" cType="1" res="-3.3281471580266953e-02" rms="2.9991936683654785e-01" purity="3.2874158024787903e-01" nType="-99"/>
          </Node>
          <Node pos="r" depth="2" NCoef="0" IVar="0" Cut="2.1332592773437500e+03" cType="1" res="7.5821415521204472e-05" rms="2.0714095234870911e-01" purity="9.0249681472778320e-01" nType="0">
            <Node pos="l" depth="3" NCoef="0" IVar="-1" Cut="0.0000000000000000e+00" cType="1" res="7.5777415186166763e-03" rms="3.7185335159301758e-01" purity="5.6531012058258057e-01" nType="-99"/>
            <Node pos="r" depth="3" NCoef="0" IVar="-1" Cut="0.0000000000000000e+00" cType="1" res="-9.6513498574495316e-03" rms="1.5341773629188538e-01" purity="9.7087174654006958e-01" nType="-99"/>
          </Node>
        </Node>
      </Node>
    </BinaryTree>
    <BinaryTree type="DecisionTree" boostWeight="1.0000000000000000e+00" itree="367">
      <Node pos="s" depth="0" NCoef="0" IVar="3" Cut="5.2486010742187500e+02" cType="1" res="-1.1521445121616125e-03" rms="2.4823464453220367e-01" purity="4.9627441167831421e-01" nType="0">
        <Node pos="l" depth="1" NCoef="0" IVar="6" Cut="-5.3299039602279663e-01" cType="1" res="1.6409803356509656e-04" rms="2.5079974532127380e-01" purity="4.5548328757286072e-01" nType="0">
          <Node pos="l" depth="2" NCoef="0" IVar="9" Cut="9.3431210517883301e-01" cType="1" res="7.5711039826273918e-03" rms="2.6345413923263550e-01" purity="3.3944618701934814e-01" nType="0">
            <Node pos="l" depth="3" NCoef="0" IVar="-1" Cut="0.0000000000000000e+00" cType="1" res="2.0705960690975189e-02" rms="2.7196434140205383e-01" purity="3.7063911557197571e-01" nType="-99"/>
            <Node pos="r" depth="3" NCoef="0" IVar="-1" Cut="0.0000000000000000e+00" cType="1" res="-2.3296356201171875e-02" rms="2.2621500492095947e-01" purity="2.1869885921478271e-01" nType="-99"/>
          </Node>
          <Node pos="r" depth="2" NCoef="0" IVar="7" Cut="6.6679847240447998e-01" cType="1" res="-2.6893911417573690e-03" rms="2.4569138884544373e-01" purity="5.0018566846847534e-01" nType="0">
            <Node pos="l" depth="3" NCoef="0" IVar="-1" Cut="0.0000000000000000e+00" cType="1" res="-4.8548792256042361e-04" rms="2.4509875476360321e-01" purity="5.2869963645935059e-01" nType="-99"/>
            <Node pos="r" depth="3" NCoef="0" IVar="-1" Cut="0.0000000000000000e+00" cType="1" res="-1.4351303689181805e-02" rms="2.4733492732048035e-01" purity="4.1397678852081299e-01" nType="-99"/>
          </Node>
        </Node>
        <Node pos="r" depth="1" NCoef="0" IVar="8" Cut="1.3711100816726685e-01" cType="1" res="-1.3178058899939060e-02" rms="2.2307956218719482e-01" purity="8.6896425485610962e-01" nType="0">
          <Node pos="l" depth="2" NCoef="0" IVar="-1" Cut="0.0000000000000000e+00" cType="1" res="-9.2579424381256104e-03" rms="2.1597601473331451e-01" purity="8.9041870832443237e-01" nType="-99"/>
          <Node pos="r" depth="2" NCoef="0" IVar="-1" Cut="0.0000000000000000e+00" cType="1" res="-4.5806515961885452e-02" rms="2.3150286078453064e-01" purity="8.4095340967178345e-01" nType="-99"/>
        </Node>
      </Node>
    </BinaryTree>
    <BinaryTree type="DecisionTree" boostWeight="1.0000000000000000e+00" itree="368">
      <Node pos="s" depth="0" NCoef="0" IVar="8" Cut="-1.1990067958831787e+00" cType="1" res="-1.2665275717154145e-03" rms="2.4346566200256348e-01" purity="4.9848133325576782e-01" nType="0">
        <Node pos="l" depth="1" NCoef="0" IVar="1" Cut="5.6940298527479172e-02" cType="1" res="1.0938551276922226e-02" rms="2.4735340476036072e-01" purity="3.1152415275573730e-01" nType="0">
          <Node pos="l" depth="2" NCoef="0" IVar="5" Cut="1.3370564270019531e+02" cType="1" res="4.7915315371938050e-04" rms="2.0785181224346161e-01" purity="1.4823715388774872e-01" nType="0">
            <Node pos="l" depth="3" NCoef="0" IVar="-1" Cut="0.0000000000000000e+00" cType="1" res="2.8049983084201813e-02" rms="1.9116486608982086e-01" purity="6.4376316964626312e-02" nType="-99"/>
            <Node pos="r" depth="3" NCoef="0" IVar="-1" Cut="0.0000000000000000e+00" cType="1" res="-1.7145477235317230e-02" rms="2.2875851392745972e-01" purity="2.6642817258834839e-01" nType="-99"/>
          </Node>
          <Node pos="r" depth="2" NCoef="0" IVar="-1" Cut="0.0000000000000000e+00" cType="1" res="3.0182709917426109e-02" rms="2.9478311538696289e-01" purity="5.4856085777282715e-01" nType="-99"/>
        </Node>
        <Node pos="r" depth="1" NCoef="0" IVar="7" Cut="-6.6611748933792114e-01" cType="1" res="-3.0469249468296766e-03" rms="2.4284209311008453e-01" purity="5.2575337886810303e-01" nType="0">
          <Node pos="l" depth="2" NCoef="0" IVar="3" Cut="3.0891986083984375e+02" cType="1" res="-1.1692404747009277e-02" rms="2.4091090261936188e-01" purity="3.8022822141647339e-01" nType="0">
            <Node pos="l" depth="3" NCoef="0" IVar="-1" Cut="0.0000000000000000e+00" cType="1" res="-3.3480223268270493e-02" rms="2.2624930739402771e-01" purity="1.8553251028060913e-01" nType="-99"/>
            <Node pos="r" depth="3" NCoef="0" IVar="-1" Cut="0.0000000000000000e+00" cType="1" res="-3.7169600836932659e-03" rms="2.5623798370361328e-01" purity="6.0125803947448730e-01" nType="-99"/>
          </Node>
          <Node pos="r" depth="2" NCoef="0" IVar="8" Cut="5.1457953453063965e-01" cType="1" res="-3.3412248012609780e-04" rms="2.4338160455226898e-01" purity="5.7141667604446411e-01" nType="0">
            <Node pos="l" depth="3" NCoef="0" IVar="-1" Cut="0.0000000000000000e+00" cType="1" res="-6.6180611029267311e-03" rms="2.3551777005195618e-01" purity="6.0654926300048828e-01" nType="-99"/>
            <Node pos="r" depth="3" NCoef="0" IVar="-1" Cut="0.0000000000000000e+00" cType="1" res="9.5004709437489510e-03" rms="2.5743573904037476e-01" purity="5.0513154268264771e-01" nType="-99"/>
          </Node>
        </Node>
      </Node>
    </BinaryTree>
    <BinaryTree type="DecisionTree" boostWeight="1.0000000000000000e+00" itree="369">
      <Node pos="s" depth="0" NCoef="0" IVar="2" Cut="9.3070495605468750e+02" cType="1" res="1.5021940926089883e-03" rms="2.4819998443126678e-01" purity="5.0484693050384521e-01" nType="0">
        <Node pos="l" depth="1" NCoef="0" IVar="5" Cut="2.1893048095703125e+02" cType="1" res="2.6849594432860613e-03" rms="2.4601186811923981e-01" purity="4.9673008918762207e-01" nType="0">
          <Node pos="l" depth="2" NCoef="0" IVar="8" Cut="-6.6667193174362183e-01" cType="1" res="5.4083452560007572e-03" rms="2.6270651817321777e-01" purity="3.5903668403625488e-01" nType="0">
            <Node pos="l" depth="3" NCoef="0" IVar="-1" Cut="0.0000000000000000e+00" cType="1" res="-7.6667289249598980e-03" rms="2.5679531693458557e-01" purity="2.7840667963027954e-01" nType="-99"/>
            <Node pos="r" depth="3" NCoef="0" IVar="-1" Cut="0.0000000000000000e+00" cType="1" res="1.3816220685839653e-02" rms="2.6489123702049255e-01" purity="3.9092302322387695e-01" nType="-99"/>
          </Node>
          <Node pos="r" depth="2" NCoef="0" IVar="6" Cut="4.9770236015319824e-01" cType="1" res="-5.5512730032205582e-03" rms="1.8640513718128204e-01" purity="9.1315084695816040e-01" nType="0">
            <Node pos="l" depth="3" NCoef="0" IVar="-1" Cut="0.0000000000000000e+00" cType="1" res="3.4377217525616288e-04" rms="1.7595437169075012e-01" purity="9.4068771600723267e-01" nType="-99"/>
            <Node pos="r" depth="3" NCoef="0" IVar="-1" Cut="0.0000000000000000e+00" cType="1" res="-4.2442664504051208e-02" rms="2.1635949611663818e-01" purity="8.2210421562194824e-01" nType="-99"/>
          </Node>
        </Node>
        <Node pos="r" depth="1" NCoef="0" IVar="-1" Cut="0.0000000000000000e+00" cType="1" res="-3.4794963896274567e-02" rms="2.9900941252708435e-01" purity="7.2128242254257202e-01" nType="-99"/>
      </Node>
    </BinaryTree>
    <BinaryTree type="DecisionTree" boostWeight="1.0000000000000000e+00" itree="370">
      <Node pos="s" depth="0" NCoef="0" IVar="3" Cut="5.5404656982421875e+02" cType="1" res="-1.3165329582989216e-03" rms="2.4345587193965912e-01" purity="4.9848929047584534e-01" nType="0">
        <Node pos="l" depth="1" NCoef="0" IVar="9" Cut="-1.4646655321121216e+00" cType="1" res="-2.8639689553529024e-03" rms="2.4547468125820160e-01" purity="4.6689549088478088e-01" nType="0">
          <Node pos="l" depth="2" NCoef="0" IVar="1" Cut="7.0552088320255280e-02" cType="1" res="1.4556876383721828e-02" rms="2.5570917129516602e-01" purity="3.2468107342720032e-01" nType="0">
            <Node pos="l" depth="3" NCoef="0" IVar="-1" Cut="0.0000000000000000e+00" cType="1" res="1.9750313367694616e-03" rms="2.2656592726707458e-01" purity="1.5504607558250427e-01" nType="-99"/>
            <Node pos="r" depth="3" NCoef="0" IVar="-1" Cut="0.0000000000000000e+00" cType="1" res="4.1665256023406982e-02" rms="3.0079826712608337e-01" purity="6.3902884721755981e-01" nType="-99"/>
          </Node>
          <Node pos="r" depth="2" NCoef="0" IVar="8" Cut="-9.3321996927261353e-01" cType="1" res="-4.7813761048018932e-03" rms="2.4424614012241364e-01" purity="4.8254820704460144e-01" nType="0">
            <Node pos="l" depth="3" NCoef="0" IVar="-1" Cut="0.0000000000000000e+00" cType="1" res="6.0312994755804539e-03" rms="2.5784099102020264e-01" purity="3.5089334845542908e-01" nType="-99"/>
            <Node pos="r" depth="3" NCoef="0" IVar="-1" Cut="0.0000000000000000e+00" cType="1" res="-1.1155851185321808e-02" rms="2.4104574322700500e-01" purity="5.1209533214569092e-01" nType="-99"/>
          </Node>
        </Node>
        <Node pos="r" depth="1" NCoef="0" IVar="4" Cut="3.2582055664062500e+02" cType="1" res="1.8622901290655136e-02" rms="2.1476429700851440e-01" purity="9.0558987855911255e-01" nType="0">
          <Node pos="l" depth="2" NCoef="0" IVar="-1" Cut="0.0000000000000000e+00" cType="1" res="5.6054353713989258e-02" rms="2.8180477023124695e-01" purity="8.0953001976013184e-01" nType="-99"/>
          <Node pos="r" depth="2" NCoef="0" IVar="-1" Cut="0.0000000000000000e+00" cType="1" res="7.9083498567342758e-03" rms="1.6224637627601624e-01" purity="9.6065682172775269e-01" nType="-99"/>
        </Node>
      </Node>
    </BinaryTree>
    <BinaryTree type="DecisionTree" boostWeight="1.0000000000000000e+00" itree="371">
      <Node pos="s" depth="0" NCoef="0" IVar="9" Cut="-1.7323213815689087e+00" cType="1" res="-1.7070086905732751e-03" rms="2.4097144603729248e-01" purity="4.8962378501892090e-01" nType="0">
        <Node pos="l" depth="1" NCoef="0" IVar="8" Cut="-1.3435351848602295e-01" cType="1" res="-1.6185063868761063e-02" rms="2.4561478197574615e-01" purity="2.4737142026424408e-01" nType="0">
          <Node pos="l" depth="2" NCoef="0" IVar="-1" Cut="0.0000000000000000e+00" cType="1" res="-3.2988075166940689e-02" rms="2.4569049477577209e-01" purity="2.1277563273906708e-01" nType="-99"/>
          <Node pos="r" depth="2" NCoef="0" IVar="-1" Cut="0.0000000000000000e+00" cType="1" res="-1.3118409551680088e-02" rms="2.4531619250774384e-01" purity="2.8437620401382446e-01" nType="-99"/>
        </Node>
        <Node pos="r" depth="1" NCoef="0" IVar="2" Cut="4.2926391601562500e+02" cType="1" res="-7.7859271550551057e-04" rms="2.4064092338085175e-01" purity="5.0515836477279663e-01" nType="0">
          <Node pos="l" depth="2" NCoef="0" IVar="1" Cut="1.6554883122444153e-01" cType="1" res="5.3024543449282646e-03" rms="2.6047793030738831e-01" purity="3.0733096599578857e-01" nType="0">
            <Node pos="l" depth="3" NCoef="0" IVar="-1" Cut="0.0000000000000000e+00" cType="1" res="2.9911184683442116e-03" rms="2.5832617282867432e-01" purity="2.3858068883419037e-01" nType="-99"/>
            <Node pos="r" depth="3" NCoef="0" IVar="-1" Cut="0.0000000000000000e+00" cType="1" res="3.2519474625587463e-02" rms="2.7239760756492615e-01" purity="7.2651445865631104e-01" nType="-99"/>
          </Node>
          <Node pos="r" depth="2" NCoef="0" IVar="6" Cut="-5.2340298891067505e-01" cType="1" res="-3.5621984861791134e-03" rms="2.3093941807746887e-01" purity="5.9571409225463867e-01" nType="0">
            <Node pos="l" depth="3" NCoef="0" IVar="-1" Cut="0.0000000000000000e+00" cType="1" res="-2.3017263039946556e-02" rms="2.3870763182640076e-01" purity="4.6008321642875671e-01" nType="-99"/>
            <Node pos="r" depth="3" NCoef="0" IVar="-1" Cut="0.0000000000000000e+00" cType="1" res="-7.8181142453104258e-04" rms="2.2836141288280487e-01" purity="6.3820356130599976e-01" nType="-99"/>
          </Node>
        </Node>
      </Node>
    </BinaryTree>
    <BinaryTree type="DecisionTree" boostWeight="1.0000000000000000e+00" itree="372">
      <Node pos="s" depth="0" NCoef="0" IVar="9" Cut="-9.3103712797164917e-01" cType="1" res="2.2797260899096727e-03" rms="2.4518659710884094e-01" purity="5.0453960895538330e-01" nType="0">
        <Node pos="l" depth="1" NCoef="0" IVar="9" Cut="-1.7304195165634155e+00" cType="1" res="-4.5693116262555122e-03" rms="2.5692272186279297e-01" purity="4.0454035997390747e-01" nType="0">
          <Node pos="l" depth="2" NCoef="0" IVar="9" Cut="-2.0349707603454590e+00" cType="1" res="1.5333402901887894e-02" rms="2.6365494728088379e-01" purity="2.6618707180023193e-01" nType="0">
            <Node pos="l" depth="3" NCoef="0" IVar="-1" Cut="0.0000000000000000e+00" cType="1" res="-3.3792967442423105e-03" rms="2.4976027011871338e-01" purity="1.9781094789505005e-01" nType="-99"/>
            <Node pos="r" depth="3" NCoef="0" IVar="-1" Cut="0.0000000000000000e+00" cType="1" res="4.6603612601757050e-02" rms="2.7746552228927612e-01" purity="3.4510755538940430e-01" nType="-99"/>
          </Node>
          <Node pos="r" depth="2" NCoef="0" IVar="4" Cut="2.3516262817382812e+02" cType="1" res="-1.2209256179630756e-02" rms="2.5387704372406006e-01" purity="4.5764923095703125e-01" nType="0">
            <Node pos="l" depth="3" NCoef="0" IVar="-1" Cut="0.0000000000000000e+00" cType="1" res="-3.7382766604423523e-03" rms="2.4431937932968140e-01" purity="2.4322460591793060e-01" nType="-99"/>
            <Node pos="r" depth="3" NCoef="0" IVar="-1" Cut="0.0000000000000000e+00" cType="1" res="-4.5183360576629639e-02" rms="2.6687538623809814e-01" purity="7.7831232547760010e-01" nType="-99"/>
          </Node>
        </Node>
        <Node pos="r" depth="1" NCoef="0" IVar="9" Cut="2.0888767242431641e+00" cType="1" res="4.1827345266938210e-03" rms="2.4179017543792725e-01" purity="5.3232443332672119e-01" nType="0">
          <Node pos="l" depth="2" NCoef="0" IVar="9" Cut="3.6303707957267761e-01" cType="1" res="5.1986780017614365e-03" rms="2.4241480231285095e-01" purity="5.4740852117538452e-01" nType="0">
            <Node pos="l" depth="3" NCoef="0" IVar="-1" Cut="0.0000000000000000e+00" cType="1" res="2.4145140778273344e-03" rms="2.3941171169281006e-01" purity="5.6886798143386841e-01" nType="-99"/>
            <Node pos="r" depth="3" NCoef="0" IVar="-1" Cut="0.0000000000000000e+00" cType="1" res="1.5607806853950024e-02" rms="2.4598357081413269e-01" purity="5.2096188068389893e-01" nType="-99"/>
          </Node>
          <Node pos="r" depth="2" NCoef="0" IVar="-1" Cut="0.0000000000000000e+00" cType="1" res="-3.3686958253383636e-02" rms="2.2404837608337402e-01" purity="1.5383940935134888e-01" nType="-99"/>
        </Node>
      </Node>
    </BinaryTree>
    <BinaryTree type="DecisionTree" boostWeight="1.0000000000000000e+00" itree="373">
      <Node pos="s" depth="0" NCoef="0" IVar="1" Cut="1.0568731278181076e-01" cType="1" res="-4.7716221888549626e-04" rms="2.4654918909072876e-01" purity="4.9154171347618103e-01" nType="0">
        <Node pos="l" depth="1" NCoef="0" IVar="1" Cut="3.5242218524217606e-02" cType="1" res="-3.0460294801741838e-03" rms="2.5496381521224976e-01" purity="3.4574699401855469e-01" nType="0">
          <Node pos="l" depth="2" NCoef="0" IVar="5" Cut="1.6114382934570312e+02" cType="1" res="3.0186057556420565e-03" rms="2.1723723411560059e-01" purity="1.5471804141998291e-01" nType="0">
            <Node pos="l" depth="3" NCoef="0" IVar="-1" Cut="0.0000000000000000e+00" cType="1" res="-2.2074453590903431e-04" rms="1.9244836270809174e-01" purity="6.9451436400413513e-02" nType="-99"/>
            <Node pos="r" depth="3" NCoef="0" IVar="-1" Cut="0.0000000000000000e+00" cType="1" res="1.6853010281920433e-02" rms="2.8685003519058228e-01" purity="4.5058989524841309e-01" nType="-99"/>
          </Node>
          <Node pos="r" depth="2" NCoef="0" IVar="6" Cut="-9.9153798818588257e-01" cType="1" res="-7.8368885442614555e-03" rms="2.8111815452575684e-01" purity="4.9665343761444092e-01" nType="0">
            <Node pos="l" depth="3" NCoef="0" IVar="-1" Cut="0.0000000000000000e+00" cType="1" res="-3.0113724991679192e-02" rms="2.6466879248619080e-01" purity="3.1412848830223083e-01" nType="-99"/>
            <Node pos="r" depth="3" NCoef="0" IVar="-1" Cut="0.0000000000000000e+00" cType="1" res="-6.9316891022026539e-03" rms="2.8291618824005127e-01" purity="5.1828461885452271e-01" nType="-99"/>
          </Node>
        </Node>
        <Node pos="r" depth="1" NCoef="0" IVar="0" Cut="2.1239846191406250e+03" cType="1" res="5.1776999607682228e-03" rms="2.2682681679725647e-01" purity="8.1248039007186890e-01" nType="0">
          <Node pos="l" depth="2" NCoef="0" IVar="3" Cut="2.9506225585937500e+02" cType="1" res="1.7417434602975845e-02" rms="3.5297247767448425e-01" purity="4.1585648059844971e-01" nType="0">
            <Node pos="l" depth="3" NCoef="0" IVar="-1" Cut="0.0000000000000000e+00" cType="1" res="1.5243465313687921e-03" rms="3.2967251539230347e-01" purity="3.4040299057960510e-01" nType="-99"/>
            <Node pos="r" depth="3" NCoef="0" IVar="-1" Cut="0.0000000000000000e+00" cType="1" res="3.0988266691565514e-02" rms="3.9179643988609314e-01" purity="5.5939811468124390e-01" nType="-99"/>
          </Node>
          <Node pos="r" depth="2" NCoef="0" IVar="5" Cut="2.2905529785156250e+02" cType="1" res="1.6736300312913954e-04" rms="1.4637093245983124e-01" purity="9.7483843564987183e-01" nType="0">
            <Node pos="l" depth="3" NCoef="0" IVar="-1" Cut="0.0000000000000000e+00" cType="1" res="-1.2701823376119137e-02" rms="1.8037414550781250e-01" purity="9.5930743217468262e-01" nType="-99"/>
            <Node pos="r" depth="3" NCoef="0" IVar="-1" Cut="0.0000000000000000e+00" cType="1" res="2.7678200975060463e-02" rms="1.0724154114723206e-01" purity="9.8867088556289673e-01" nType="-99"/>
          </Node>
        </Node>
      </Node>
    </BinaryTree>
    <BinaryTree type="DecisionTree" boostWeight="1.0000000000000000e+00" itree="374">
      <Node pos="s" depth="0" NCoef="0" IVar="2" Cut="9.3063476562500000e+02" cType="1" res="-7.8626483445987105e-04" rms="2.4532772600650787e-01" purity="4.9909108877182007e-01" nType="0">
        <Node pos="l" depth="1" NCoef="0" IVar="3" Cut="3.7781015014648438e+02" cType="1" res="-1.7851311713457108e-03" rms="2.4323303997516632e-01" purity="4.8777550458908081e-01" nType="0">
          <Node pos="l" depth="2" NCoef="0" IVar="7" Cut="1.3161636888980865e-01" cType="1" res="1.1345933889970183e-03" rms="2.5329634547233582e-01" purity="3.3085072040557861e-01" nType="0">
            <Node pos="l" depth="3" NCoef="0" IVar="-1" Cut="0.0000000000000000e+00" cType="1" res="1.0553932748734951e-02" rms="2.5819262862205505e-01" purity="3.4950128197669983e-01" nType="-99"/>
            <Node pos="r" depth="3" NCoef="0" IVar="-1" Cut="0.0000000000000000e+00" cType="1" res="-9.0397484600543976e-03" rms="2.4724452197551727e-01" purity="3.0894055962562561e-01" nType="-99"/>
          </Node>
          <Node pos="r" depth="2" NCoef="0" IVar="1" Cut="4.2636670172214508e-02" cType="1" res="-7.6483995653688908e-03" rms="2.2153235971927643e-01" purity="8.0290532112121582e-01" nType="0">
            <Node pos="l" depth="3" NCoef="0" IVar="-1" Cut="0.0000000000000000e+00" cType="1" res="-2.4092582985758781e-02" rms="2.8575438261032104e-01" purity="4.2446425557136536e-01" nType="-99"/>
            <Node pos="r" depth="3" NCoef="0" IVar="-1" Cut="0.0000000000000000e+00" cType="1" res="-8.9795570820569992e-03" rms="1.9958932697772980e-01" purity="9.0940570831298828e-01" nType="-99"/>
          </Node>
        </Node>
        <Node pos="r" depth="1" NCoef="0" IVar="-1" Cut="0.0000000000000000e+00" cType="1" res="2.7729488909244537e-02" rms="2.9233145713806152e-01" purity="7.8589200973510742e-01" nType="-99"/>
      </Node>
    </BinaryTree>
    <BinaryTree type="DecisionTree" boostWeight="1.0000000000000000e+00" itree="375">
      <Node pos="s" depth="0" NCoef="0" IVar="9" Cut="-9.3216484785079956e-01" cType="1" res="1.6317864356096834e-04" rms="2.3974311351776123e-01" purity="4.9025079607963562e-01" nType="0">
        <Node pos="l" depth="1" NCoef="0" IVar="7" Cut="-6.5824413299560547e-01" cType="1" res="6.6621722653508186e-03" rms="2.5330737233161926e-01" purity="4.2129123210906982e-01" nType="0">
          <Node pos="l" depth="2" NCoef="0" IVar="3" Cut="2.9492279052734375e+02" cType="1" res="-9.5053296536207199e-03" rms="2.4172084033489227e-01" purity="2.6396587491035461e-01" nType="0">
            <Node pos="l" depth="3" NCoef="0" IVar="-1" Cut="0.0000000000000000e+00" cType="1" res="1.0413182899355888e-02" rms="2.2863620519638062e-01" purity="1.3803321123123169e-01" nType="-99"/>
            <Node pos="r" depth="3" NCoef="0" IVar="-1" Cut="0.0000000000000000e+00" cType="1" res="-3.7685543298721313e-02" rms="2.5501438975334167e-01" purity="4.1030624508857727e-01" nType="-99"/>
          </Node>
          <Node pos="r" depth="2" NCoef="0" IVar="9" Cut="-1.2877539396286011e+00" cType="1" res="1.3588273897767067e-02" rms="2.5780186057090759e-01" purity="4.8868885636329651e-01" nType="0">
            <Node pos="l" depth="3" NCoef="0" IVar="-1" Cut="0.0000000000000000e+00" cType="1" res="3.0530823394656181e-02" rms="2.7881306409835815e-01" purity="4.6153116226196289e-01" nType="-99"/>
            <Node pos="r" depth="3" NCoef="0" IVar="-1" Cut="0.0000000000000000e+00" cType="1" res="1.5580637846142054e-03" rms="2.2847710549831390e-01" purity="5.2233958244323730e-01" nType="-99"/>
          </Node>
        </Node>
        <Node pos="r" depth="1" NCoef="0" IVar="9" Cut="3.1172922253608704e-01" cType="1" res="-1.5616028103977442e-03" rms="2.3598235845565796e-01" purity="5.0855207443237305e-01" nType="0">
          <Node pos="l" depth="2" NCoef="0" IVar="4" Cut="2.1956358337402344e+02" cType="1" res="-5.5312132462859154e-03" rms="2.3155365884304047e-01" purity="5.5504065752029419e-01" nType="0">
            <Node pos="l" depth="3" NCoef="0" IVar="-1" Cut="0.0000000000000000e+00" cType="1" res="-2.3297892883419991e-02" rms="2.3201689124107361e-01" purity="2.0091463625431061e-01" nType="-99"/>
            <Node pos="r" depth="3" NCoef="0" IVar="-1" Cut="0.0000000000000000e+00" cType="1" res="2.0522451959550381e-03" rms="2.3098847270011902e-01" purity="8.1282675266265869e-01" nType="-99"/>
          </Node>
          <Node pos="r" depth="2" NCoef="0" IVar="4" Cut="1.3790785217285156e+02" cType="1" res="2.3811906576156616e-03" rms="2.4023543298244476e-01" purity="4.6237763762474060e-01" nType="0">
            <Node pos="l" depth="3" NCoef="0" IVar="-1" Cut="0.0000000000000000e+00" cType="1" res="-3.6991059780120850e-02" rms="1.5920157730579376e-01" purity="3.4155189990997314e-02" nType="-99"/>
            <Node pos="r" depth="3" NCoef="0" IVar="-1" Cut="0.0000000000000000e+00" cType="1" res="7.6205572113394737e-03" rms="2.5280630588531494e-01" purity="5.4495972394943237e-01" nType="-99"/>
          </Node>
        </Node>
      </Node>
    </BinaryTree>
    <BinaryTree type="DecisionTree" boostWeight="1.0000000000000000e+00" itree="376">
      <Node pos="s" depth="0" NCoef="0" IVar="8" Cut="1.4665397405624390e+00" cType="1" res="5.8312376495450735e-04" rms="2.4689671397209167e-01" purity="4.9574762582778931e-01" nType="0">
        <Node pos="l" depth="1" NCoef="0" IVar="6" Cut="-6.1700725555419922e-01" cType="1" res="-1.4068875461816788e-03" rms="2.4454571306705475e-01" purity="5.1621180772781372e-01" nType="0">
          <Node pos="l" depth="2" NCoef="0" IVar="6" Cut="-7.1703791618347168e-01" cType="1" res="-1.0896366089582443e-02" rms="2.3944367468357086e-01" purity="3.5454854369163513e-01" nType="0">
            <Node pos="l" depth="3" NCoef="0" IVar="-1" Cut="0.0000000000000000e+00" cType="1" res="-9.4669470563530922e-03" rms="2.3475337028503418e-01" purity="3.2000643014907837e-01" nType="-99"/>
            <Node pos="r" depth="3" NCoef="0" IVar="-1" Cut="0.0000000000000000e+00" cType="1" res="-5.8779586106538773e-02" rms="2.6271757483482361e-01" purity="5.5046385526657104e-01" nType="-99"/>
          </Node>
          <Node pos="r" depth="2" NCoef="0" IVar="7" Cut="1.1994578838348389e+00" cType="1" res="1.3907630927860737e-03" rms="2.4595980346202850e-01" purity="5.6387275457382202e-01" nType="0">
            <Node pos="l" depth="3" NCoef="0" IVar="-1" Cut="0.0000000000000000e+00" cType="1" res="4.4876295141875744e-03" rms="2.4709169566631317e-01" purity="5.9931409358978271e-01" nType="-99"/>
            <Node pos="r" depth="3" NCoef="0" IVar="-1" Cut="0.0000000000000000e+00" cType="1" res="-1.8021153286099434e-02" rms="2.3502975702285767e-01" purity="2.4093070626258850e-01" nType="-99"/>
          </Node>
        </Node>
        <Node pos="r" depth="1" NCoef="0" IVar="9" Cut="-1.2708131968975067e-01" cType="1" res="2.5258064270019531e-02" rms="2.7317780256271362e-01" purity="2.4200391769409180e-01" nType="0">
          <Node pos="l" depth="2" NCoef="0" IVar="-1" Cut="0.0000000000000000e+00" cType="1" res="7.2600189596414566e-03" rms="2.6463022828102112e-01" purity="2.0563782751560211e-01" nType="-99"/>
          <Node pos="r" depth="2" NCoef="0" IVar="-1" Cut="0.0000000000000000e+00" cType="1" res="6.4322747290134430e-02" rms="2.7839371562004089e-01" purity="2.6918336749076843e-01" nType="-99"/>
        </Node>
      </Node>
    </BinaryTree>
    <BinaryTree type="DecisionTree" boostWeight="1.0000000000000000e+00" itree="377">
      <Node pos="s" depth="0" NCoef="0" IVar="9" Cut="-1.4659171104431152e+00" cType="1" res="-3.8612430216744542e-04" rms="2.4631400406360626e-01" purity="4.9535024166107178e-01" nType="0">
        <Node pos="l" depth="1" NCoef="0" IVar="9" Cut="-1.6563926935195923e+00" cType="1" res="-2.1282913163304329e-02" rms="2.7915930747985840e-01" purity="3.0513933300971985e-01" nType="0">
          <Node pos="l" depth="2" NCoef="0" IVar="2" Cut="5.1021987915039062e+02" cType="1" res="-5.2430415526032448e-03" rms="2.6350876688957214e-01" purity="2.6936593651771545e-01" nType="0">
            <Node pos="l" depth="3" NCoef="0" IVar="-1" Cut="0.0000000000000000e+00" cType="1" res="-2.0445851609110832e-02" rms="2.4853356182575226e-01" purity="1.9004087150096893e-01" nType="-99"/>
            <Node pos="r" depth="3" NCoef="0" IVar="-1" Cut="0.0000000000000000e+00" cType="1" res="9.6453735604882240e-03" rms="2.8428882360458374e-01" purity="3.8999047875404358e-01" nType="-99"/>
          </Node>
          <Node pos="r" depth="2" NCoef="0" IVar="-1" Cut="0.0000000000000000e+00" cType="1" res="-6.1272889375686646e-02" rms="3.1092026829719543e-01" purity="3.9333924651145935e-01" nType="-99"/>
        </Node>
        <Node pos="r" depth="1" NCoef="0" IVar="3" Cut="2.5649304199218750e+02" cType="1" res="1.7869508592411876e-03" rms="2.4253998696804047e-01" purity="5.1513046026229858e-01" nType="0">
          <Node pos="l" depth="2" NCoef="0" IVar="4" Cut="1.7930584716796875e+02" cType="1" res="9.7777871415019035e-03" rms="2.4251303076744080e-01" purity="1.6998952627182007e-01" nType="0">
            <Node pos="l" depth="3" NCoef="0" IVar="-1" Cut="0.0000000000000000e+00" cType="1" res="5.4598646238446236e-03" rms="2.1048776805400848e-01" purity="8.4621988236904144e-02" nType="-99"/>
            <Node pos="r" depth="3" NCoef="0" IVar="-1" Cut="0.0000000000000000e+00" cType="1" res="2.9533740133047104e-02" rms="2.9017907381057739e-01" purity="3.2095500826835632e-01" nType="-99"/>
          </Node>
          <Node pos="r" depth="2" NCoef="0" IVar="7" Cut="-1.4601292610168457e+00" cType="1" res="-1.2884453171864152e-03" rms="2.4248018860816956e-01" purity="6.4796322584152222e-01" nType="0">
            <Node pos="l" depth="3" NCoef="0" IVar="-1" Cut="0.0000000000000000e+00" cType="1" res="-3.9521746337413788e-02" rms="2.0907957851886749e-01" purity="1.7662204802036285e-01" nType="-99"/>
            <Node pos="r" depth="3" NCoef="0" IVar="-1" Cut="0.0000000000000000e+00" cType="1" res="-1.5662769146729261e-04" rms="2.4421140551567078e-01" purity="6.7511034011840820e-01" nType="-99"/>
          </Node>
        </Node>
      </Node>
    </BinaryTree>
    <BinaryTree type="DecisionTree" boostWeight="1.0000000000000000e+00" itree="378">
      <Node pos="s" depth="0" NCoef="0" IVar="9" Cut="-1.9986711740493774e+00" cType="1" res="6.2089308630675077e-04" rms="2.4294693768024445e-01" purity="5.0189816951751709e-01" nType="0">
        <Node pos="l" depth="1" NCoef="0" IVar="-1" Cut="0.0000000000000000e+00" cType="1" res="3.3100925385951996e-02" rms="2.6739859580993652e-01" purity="1.9582729041576385e-01" nType="-99"/>
        <Node pos="r" depth="1" NCoef="0" IVar="1" Cut="1.9022013247013092e-01" cType="1" res="-4.3261316022835672e-05" rms="2.4197676777839661e-01" purity="5.1313179731369019e-01" nType="0">
          <Node pos="l" depth="2" NCoef="0" IVar="9" Cut="9.7139793634414673e-01" cType="1" res="-1.1176490224897861e-03" rms="2.4715088307857513e-01" purity="4.7030726075172424e-01" nType="0">
            <Node pos="l" depth="3" NCoef="0" IVar="-1" Cut="0.0000000000000000e+00" cType="1" res="-4.2545460164546967e-03" rms="2.4381853640079498e-01" purity="5.0139474868774414e-01" nType="-99"/>
            <Node pos="r" depth="3" NCoef="0" IVar="-1" Cut="0.0000000000000000e+00" cType="1" res="6.6642388701438904e-03" rms="2.5891518592834473e-01" purity="3.5642313957214355e-01" nType="-99"/>
          </Node>
          <Node pos="r" depth="2" NCoef="0" IVar="-1" Cut="0.0000000000000000e+00" cType="1" res="2.4362629279494286e-02" rms="1.8802459537982941e-01" purity="9.0389215946197510e-01" nType="-99"/>
        </Node>
      </Node>
    </BinaryTree>
    <BinaryTree type="DecisionTree" boostWeight="1.0000000000000000e+00" itree="379">
      <Node pos="s" depth="0" NCoef="0" IVar="3" Cut="3.2453222656250000e+02" cType="1" res="2.5894650025293231e-04" rms="2.4216721951961517e-01" purity="4.9977639317512512e-01" nType="0">
        <Node pos="l" depth="1" NCoef="0" IVar="0" Cut="2.0896252441406250e+03" cType="1" res="-3.3082806039601564e-03" rms="2.4684803187847137e-01" purity="2.6075005531311035e-01" nType="0">
          <Node pos="l" depth="2" NCoef="0" IVar="6" Cut="4.6954372525215149e-01" cType="1" res="-5.4213795810937881e-03" rms="2.4278010427951813e-01" purity="1.2251870334148407e-01" nType="0">
            <Node pos="l" depth="3" NCoef="0" IVar="-1" Cut="0.0000000000000000e+00" cType="1" res="-1.4920993708074093e-02" rms="2.5210538506507874e-01" purity="1.3394744694232941e-01" nType="-99"/>
            <Node pos="r" depth="3" NCoef="0" IVar="-1" Cut="0.0000000000000000e+00" cType="1" res="7.6416325755417347e-03" rms="2.2366349399089813e-01" purity="1.0076616704463959e-01" nType="-99"/>
          </Node>
          <Node pos="r" depth="2" NCoef="0" IVar="6" Cut="-2.3689068853855133e-01" cType="1" res="5.6084841489791870e-03" rms="2.6313567161560059e-01" purity="8.4405291080474854e-01" nType="0">
            <Node pos="l" depth="3" NCoef="0" IVar="-1" Cut="0.0000000000000000e+00" cType="1" res="2.2455181926488876e-02" rms="2.6297500729560852e-01" purity="8.3078581094741821e-01" nType="-99"/>
            <Node pos="r" depth="3" NCoef="0" IVar="-1" Cut="0.0000000000000000e+00" cType="1" res="-1.3750916114076972e-03" rms="2.6299574971199036e-01" purity="8.5136318206787109e-01" nType="-99"/>
          </Node>
        </Node>
        <Node pos="r" depth="1" NCoef="0" IVar="5" Cut="1.5645040893554688e+02" cType="1" res="3.9775334298610687e-03" rms="2.3713235557079315e-01" purity="7.4894475936889648e-01" nType="0">
          <Node pos="l" depth="2" NCoef="0" IVar="9" Cut="-1.2829634547233582e-01" cType="1" res="1.5716833993792534e-02" rms="2.9551595449447632e-01" purity="3.8870874047279358e-01" nType="0">
            <Node pos="l" depth="3" NCoef="0" IVar="-1" Cut="0.0000000000000000e+00" cType="1" res="3.4219384193420410e-02" rms="3.0323272943496704e-01" purity="4.1877597570419312e-01" nType="-99"/>
            <Node pos="r" depth="3" NCoef="0" IVar="-1" Cut="0.0000000000000000e+00" cType="1" res="2.1855942904949188e-03" rms="2.8797093033790588e-01" purity="3.6276149749755859e-01" nType="-99"/>
          </Node>
          <Node pos="r" depth="2" NCoef="0" IVar="2" Cut="6.3868341064453125e+02" cType="1" res="-8.8930176571011543e-04" rms="2.0798672735691071e-01" purity="8.9829003810882568e-01" nType="0">
            <Node pos="l" depth="3" NCoef="0" IVar="-1" Cut="0.0000000000000000e+00" cType="1" res="6.4739896915853024e-03" rms="2.1684196591377258e-01" purity="8.7989604473114014e-01" nType="-99"/>
            <Node pos="r" depth="3" NCoef="0" IVar="-1" Cut="0.0000000000000000e+00" cType="1" res="-2.1007250994443893e-02" rms="1.9251734018325806e-01" purity="9.2821341753005981e-01" nType="-99"/>
          </Node>
        </Node>
      </Node>
    </BinaryTree>
    <BinaryTree type="DecisionTree" boostWeight="1.0000000000000000e+00" itree="380">
      <Node pos="s" depth="0" NCoef="0" IVar="1" Cut="2.1229013800621033e-01" cType="1" res="-1.2128897942602634e-03" rms="2.4256858229637146e-01" purity="4.9674755334854126e-01" nType="0">
        <Node pos="l" depth="1" NCoef="0" IVar="1" Cut="7.0775806903839111e-02" cType="1" res="-9.1707668616436422e-05" rms="2.4528840184211731e-01" purity="4.7067064046859741e-01" nType="0">
          <Node pos="l" depth="2" NCoef="0" IVar="1" Cut="3.3713776618242264e-02" cType="1" res="-4.0624230168759823e-03" rms="2.3860813677310944e-01" purity="2.6748731732368469e-01" nType="0">
            <Node pos="l" depth="3" NCoef="0" IVar="-1" Cut="0.0000000000000000e+00" cType="1" res="-4.3805767199955881e-04" rms="2.1123850345611572e-01" purity="1.4631150662899017e-01" nType="-99"/>
            <Node pos="r" depth="3" NCoef="0" IVar="-1" Cut="0.0000000000000000e+00" cType="1" res="-1.1729896068572998e-02" rms="2.6975300908088684e-01" purity="4.2374733090400696e-01" nType="-99"/>
          </Node>
          <Node pos="r" depth="2" NCoef="0" IVar="0" Cut="1.8825717773437500e+03" cType="1" res="5.0139715895056725e-03" rms="2.5352829694747925e-01" purity="7.3193055391311646e-01" nType="0">
            <Node pos="l" depth="3" NCoef="0" IVar="-1" Cut="0.0000000000000000e+00" cType="1" res="-6.7435353994369507e-03" rms="3.3170658349990845e-01" purity="1.7850591242313385e-01" nType="-99"/>
            <Node pos="r" depth="3" NCoef="0" IVar="-1" Cut="0.0000000000000000e+00" cType="1" res="1.8728420138359070e-02" rms="2.1865458786487579e-01" purity="9.3019425868988037e-01" nType="-99"/>
          </Node>
        </Node>
        <Node pos="r" depth="1" NCoef="0" IVar="-1" Cut="0.0000000000000000e+00" cType="1" res="-4.1608657687902451e-02" rms="1.9778433442115784e-01" purity="8.7865626811981201e-01" nType="-99"/>
      </Node>
    </BinaryTree>
    <BinaryTree type="DecisionTree" boostWeight="1.0000000000000000e+00" itree="381">
      <Node pos="s" depth="0" NCoef="0" IVar="5" Cut="1.9147676086425781e+02" cType="1" res="2.1763509139418602e-03" rms="2.4854248762130737e-01" purity="5.0664407014846802e-01" nType="0">
        <Node pos="l" depth="1" NCoef="0" IVar="1" Cut="2.1340871229767799e-02" cType="1" res="6.1777587980031967e-03" rms="2.6586824655532837e-01" purity="3.0124908685684204e-01" nType="0">
          <Node pos="l" depth="2" NCoef="0" IVar="5" Cut="1.1150677490234375e+02" cType="1" res="-3.8646410685032606e-03" rms="1.6029272973537445e-01" purity="5.8722227811813354e-02" nType="0">
            <Node pos="l" depth="3" NCoef="0" IVar="-1" Cut="0.0000000000000000e+00" cType="1" res="-4.1364859789609909e-02" rms="1.1317643523216248e-01" purity="2.1200630813837051e-02" nType="-99"/>
            <Node pos="r" depth="3" NCoef="0" IVar="-1" Cut="0.0000000000000000e+00" cType="1" res="3.1348790507763624e-03" rms="2.0206150412559509e-01" purity="1.0294280946254730e-01" nType="-99"/>
          </Node>
          <Node pos="r" depth="2" NCoef="0" IVar="0" Cut="2.2373049316406250e+03" cType="1" res="9.7959134727716446e-03" rms="2.9469752311706543e-01" purity="3.8862857222557068e-01" nType="0">
            <Node pos="l" depth="3" NCoef="0" IVar="-1" Cut="0.0000000000000000e+00" cType="1" res="1.6736663877964020e-02" rms="3.0338454246520996e-01" purity="2.2407685220241547e-01" nType="-99"/>
            <Node pos="r" depth="3" NCoef="0" IVar="-1" Cut="0.0000000000000000e+00" cType="1" res="-6.0263569466769695e-03" rms="2.6677250862121582e-01" purity="8.7675547599792480e-01" nType="-99"/>
          </Node>
        </Node>
        <Node pos="r" depth="1" NCoef="0" IVar="0" Cut="2.1035095214843750e+03" cType="1" res="-5.1138456910848618e-03" rms="2.1319751441478729e-01" purity="8.8085472583770752e-01" nType="0">
          <Node pos="l" depth="2" NCoef="0" IVar="-1" Cut="0.0000000000000000e+00" cType="1" res="-2.3992372676730156e-02" rms="3.6640328168869019e-01" purity="4.2330533266067505e-01" nType="-99"/>
          <Node pos="r" depth="2" NCoef="0" IVar="9" Cut="-9.3187332153320312e-01" cType="1" res="-6.1469996580854058e-04" rms="1.7716658115386963e-01" purity="9.5255833864212036e-01" nType="0">
            <Node pos="l" depth="3" NCoef="0" IVar="-1" Cut="0.0000000000000000e+00" cType="1" res="-2.5610107928514481e-02" rms="2.1564346551895142e-01" purity="9.2150586843490601e-01" nType="-99"/>
            <Node pos="r" depth="3" NCoef="0" IVar="-1" Cut="0.0000000000000000e+00" cType="1" res="4.2856652289628983e-03" rms="1.6945074498653412e-01" purity="9.5800203084945679e-01" nType="-99"/>
          </Node>
        </Node>
      </Node>
    </BinaryTree>
    <BinaryTree type="DecisionTree" boostWeight="1.0000000000000000e+00" itree="382">
      <Node pos="s" depth="0" NCoef="0" IVar="7" Cut="-3.9976122975349426e-01" cType="1" res="-2.4675781605765224e-04" rms="2.4538868665695190e-01" purity="5.0018644332885742e-01" nType="0">
        <Node pos="l" depth="1" NCoef="0" IVar="6" Cut="-7.6755589246749878e-01" cType="1" res="5.0792549736797810e-03" rms="2.5399804115295410e-01" purity="4.4150534272193909e-01" nType="0">
          <Node pos="l" depth="2" NCoef="0" IVar="6" Cut="-1.2768394947052002e+00" cType="1" res="-1.0061284527182579e-02" rms="2.4032911658287048e-01" purity="2.5346630811691284e-01" nType="0">
            <Node pos="l" depth="3" NCoef="0" IVar="-1" Cut="0.0000000000000000e+00" cType="1" res="9.5987636595964432e-03" rms="2.0365570485591888e-01" purity="1.0575064271688461e-01" nType="-99"/>
            <Node pos="r" depth="3" NCoef="0" IVar="-1" Cut="0.0000000000000000e+00" cType="1" res="-2.7609182521700859e-02" rms="2.6247134804725647e-01" purity="3.5649654269218445e-01" nType="-99"/>
          </Node>
          <Node pos="r" depth="2" NCoef="0" IVar="9" Cut="9.3302798271179199e-01" cType="1" res="8.6858803406357765e-03" rms="2.5701549649238586e-01" purity="4.8629805445671082e-01" nType="0">
            <Node pos="l" depth="3" NCoef="0" IVar="-1" Cut="0.0000000000000000e+00" cType="1" res="1.9546151161193848e-02" rms="2.6243793964385986e-01" purity="5.1164042949676514e-01" nType="-99"/>
            <Node pos="r" depth="3" NCoef="0" IVar="-1" Cut="0.0000000000000000e+00" cType="1" res="-1.1398383416235447e-02" rms="2.2988873720169067e-01" purity="3.7039542198181152e-01" nType="-99"/>
          </Node>
        </Node>
        <Node pos="r" depth="1" NCoef="0" IVar="7" Cut="-2.4735309183597565e-01" cType="1" res="-2.9070237651467323e-03" rms="2.4092920124530792e-01" purity="5.2949678897857666e-01" nType="0">
          <Node pos="l" depth="2" NCoef="0" IVar="9" Cut="1.2596285343170166e-01" cType="1" res="-2.0996941253542900e-02" rms="2.4785239994525909e-01" purity="6.0559564828872681e-01" nType="0">
            <Node pos="l" depth="3" NCoef="0" IVar="-1" Cut="0.0000000000000000e+00" cType="1" res="-4.7554749995470047e-02" rms="2.5310662388801575e-01" purity="6.0924077033996582e-01" nType="-99"/>
            <Node pos="r" depth="3" NCoef="0" IVar="-1" Cut="0.0000000000000000e+00" cType="1" res="-1.5087247826159000e-02" rms="2.4075098335742950e-01" purity="6.0122025012969971e-01" nType="-99"/>
          </Node>
          <Node pos="r" depth="2" NCoef="0" IVar="7" Cut="7.6792293787002563e-01" cType="1" res="-1.1018904624506831e-03" rms="2.4015264213085175e-01" purity="5.2190315723419189e-01" nType="0">
            <Node pos="l" depth="3" NCoef="0" IVar="-1" Cut="0.0000000000000000e+00" cType="1" res="-8.6066061630845070e-03" rms="2.3704953491687775e-01" purity="6.1065691709518433e-01" nType="-99"/>
            <Node pos="r" depth="3" NCoef="0" IVar="-1" Cut="0.0000000000000000e+00" cType="1" res="1.1613866314291954e-02" rms="2.4584300816059113e-01" purity="3.5024085640907288e-01" nType="-99"/>
          </Node>
        </Node>
      </Node>
    </BinaryTree>
    <BinaryTree type="DecisionTree" boostWeight="1.0000000000000000e+00" itree="383">
      <Node pos="s" depth="0" NCoef="0" IVar="7" Cut="-1.1957439184188843e+00" cType="1" res="-9.3773868866264820e-04" rms="2.4076758325099945e-01" purity="5.0174683332443237e-01" nType="0">
        <Node pos="l" depth="1" NCoef="0" IVar="1" Cut="2.8133856132626534e-02" cType="1" res="1.3412383385002613e-02" rms="2.4361173808574677e-01" purity="2.3673860728740692e-01" nType="0">
          <Node pos="l" depth="2" NCoef="0" IVar="-1" Cut="0.0000000000000000e+00" cType="1" res="-2.6146706193685532e-02" rms="1.6117091476917267e-01" purity="4.3563682585954666e-02" nType="-99"/>
          <Node pos="r" depth="2" NCoef="0" IVar="6" Cut="3.4983783960342407e-02" cType="1" res="2.9945502057671547e-02" rms="2.9258817434310913e-01" purity="3.9230567216873169e-01" nType="0">
            <Node pos="l" depth="3" NCoef="0" IVar="-1" Cut="0.0000000000000000e+00" cType="1" res="5.2368823438882828e-02" rms="3.0367225408554077e-01" purity="4.4656679034233093e-01" nType="-99"/>
            <Node pos="r" depth="3" NCoef="0" IVar="-1" Cut="0.0000000000000000e+00" cType="1" res="1.5675080940127373e-02" rms="2.7669146656990051e-01" purity="3.2265916466712952e-01" nType="-99"/>
          </Node>
        </Node>
        <Node pos="r" depth="1" NCoef="0" IVar="9" Cut="-1.4654783010482788e+00" cType="1" res="-2.6421768125146627e-03" rms="2.4037061631679535e-01" purity="5.3322315216064453e-01" nType="0">
          <Node pos="l" depth="2" NCoef="0" IVar="1" Cut="3.9552722126245499e-02" cType="1" res="-2.0121324807405472e-02" rms="2.5928360223770142e-01" purity="3.3816143870353699e-01" nType="0">
            <Node pos="l" depth="3" NCoef="0" IVar="-1" Cut="0.0000000000000000e+00" cType="1" res="-5.3626423323294148e-05" rms="1.9880956411361694e-01" purity="1.1575647443532944e-01" nType="-99"/>
            <Node pos="r" depth="3" NCoef="0" IVar="-1" Cut="0.0000000000000000e+00" cType="1" res="-3.4221600741147995e-02" rms="2.9066520929336548e-01" purity="4.8010584712028503e-01" nType="-99"/>
          </Node>
          <Node pos="r" depth="2" NCoef="0" IVar="9" Cut="-6.5301346778869629e-01" cType="1" res="-8.8160979794338346e-04" rms="2.3831140995025635e-01" purity="5.5287057161331177e-01" nType="0">
            <Node pos="l" depth="3" NCoef="0" IVar="-1" Cut="0.0000000000000000e+00" cType="1" res="1.2521370314061642e-02" rms="2.4802739918231964e-01" purity="5.6984692811965942e-01" nType="-99"/>
            <Node pos="r" depth="3" NCoef="0" IVar="-1" Cut="0.0000000000000000e+00" cType="1" res="-5.2872761152684689e-03" rms="2.3574028909206390e-01" purity="5.4858177900314331e-01" nType="-99"/>
          </Node>
        </Node>
      </Node>
    </BinaryTree>
    <BinaryTree type="DecisionTree" boostWeight="1.0000000000000000e+00" itree="384">
      <Node pos="s" depth="0" NCoef="0" IVar="9" Cut="1.7330832481384277e+00" cType="1" res="4.8328252887586132e-05" rms="2.4389183521270752e-01" purity="4.9001324176788330e-01" nType="0">
        <Node pos="l" depth="1" NCoef="0" IVar="6" Cut="-6.1697292327880859e-01" cType="1" res="-1.1820065556094050e-03" rms="2.3988805711269379e-01" purity="5.0184422731399536e-01" nType="0">
          <Node pos="l" depth="2" NCoef="0" IVar="1" Cut="7.3788307607173920e-02" cType="1" res="5.4294192232191563e-03" rms="2.4236820638179779e-01" purity="3.4222918748855591e-01" nType="0">
            <Node pos="l" depth="3" NCoef="0" IVar="-1" Cut="0.0000000000000000e+00" cType="1" res="3.2019161153584719e-04" rms="2.2662152349948883e-01" purity="1.9552512466907501e-01" nType="-99"/>
            <Node pos="r" depth="3" NCoef="0" IVar="-1" Cut="0.0000000000000000e+00" cType="1" res="2.4075396358966827e-02" rms="2.7574163675308228e-01" purity="6.9009351730346680e-01" nType="-99"/>
          </Node>
          <Node pos="r" depth="2" NCoef="0" IVar="8" Cut="-1.1993199586868286e+00" cType="1" res="-3.0691649299114943e-03" rms="2.3914188146591187e-01" purity="5.4740458726882935e-01" nType="0">
            <Node pos="l" depth="3" NCoef="0" IVar="-1" Cut="0.0000000000000000e+00" cType="1" res="1.5219636261463165e-02" rms="2.4931325018405914e-01" purity="2.9741153120994568e-01" nType="-99"/>
            <Node pos="r" depth="3" NCoef="0" IVar="-1" Cut="0.0000000000000000e+00" cType="1" res="-8.0646760761737823e-03" rms="2.3760257661342621e-01" purity="5.8307689428329468e-01" nType="-99"/>
          </Node>
        </Node>
        <Node pos="r" depth="1" NCoef="0" IVar="2" Cut="4.9342126464843750e+02" cType="1" res="2.0388128235936165e-02" rms="3.0177131295204163e-01" purity="2.9442366957664490e-01" nType="0">
          <Node pos="l" depth="2" NCoef="0" IVar="-1" Cut="0.0000000000000000e+00" cType="1" res="5.8624934405088425e-02" rms="3.1324127316474915e-01" purity="2.3409424722194672e-01" nType="-99"/>
          <Node pos="r" depth="2" NCoef="0" IVar="-1" Cut="0.0000000000000000e+00" cType="1" res="-3.8330350071191788e-03" rms="2.8556782007217407e-01" purity="3.6718314886093140e-01" nType="-99"/>
        </Node>
      </Node>
    </BinaryTree>
    <BinaryTree type="DecisionTree" boostWeight="1.0000000000000000e+00" itree="385">
      <Node pos="s" depth="0" NCoef="0" IVar="8" Cut="-1.2001172304153442e+00" cType="1" res="9.0334862761665136e-05" rms="2.4830530583858490e-01" purity="5.0582695007324219e-01" nType="0">
        <Node pos="l" depth="1" NCoef="0" IVar="1" Cut="6.8437464535236359e-02" cType="1" res="-1.1011908762156963e-02" rms="2.5224623084068298e-01" purity="2.6552188396453857e-01" nType="0">
          <Node pos="l" depth="2" NCoef="0" IVar="3" Cut="2.3422827148437500e+02" cType="1" res="-4.4064511894248426e-04" rms="2.2511088848114014e-01" purity="1.4230722188949585e-01" nType="0">
            <Node pos="l" depth="3" NCoef="0" IVar="-1" Cut="0.0000000000000000e+00" cType="1" res="3.8333173841238022e-02" rms="2.1326836943626404e-01" purity="5.8003429323434830e-02" nType="-99"/>
            <Node pos="r" depth="3" NCoef="0" IVar="-1" Cut="0.0000000000000000e+00" cType="1" res="-1.1354094371199608e-02" rms="2.3074658215045929e-01" purity="1.8600735068321228e-01" nType="-99"/>
          </Node>
          <Node pos="r" depth="2" NCoef="0" IVar="-1" Cut="0.0000000000000000e+00" cType="1" res="-3.8365181535482407e-02" rms="3.0170124769210815e-01" purity="5.3345263004302979e-01" nType="-99"/>
        </Node>
        <Node pos="r" depth="1" NCoef="0" IVar="8" Cut="-5.7474236935377121e-02" cType="1" res="1.7167155165225267e-03" rms="2.4768093228340149e-01" purity="5.4102957248687744e-01" nType="0">
          <Node pos="l" depth="2" NCoef="0" IVar="7" Cut="1.2815749645233154e-01" cType="1" res="5.8556417934596539e-03" rms="2.4371477961540222e-01" purity="5.7720589637756348e-01" nType="0">
            <Node pos="l" depth="3" NCoef="0" IVar="-1" Cut="0.0000000000000000e+00" cType="1" res="-1.8836054950952530e-03" rms="2.4222341179847717e-01" purity="5.7954514026641846e-01" nType="-99"/>
            <Node pos="r" depth="3" NCoef="0" IVar="-1" Cut="0.0000000000000000e+00" cType="1" res="2.3567827418446541e-02" rms="2.4533624947071075e-01" purity="5.7418376207351685e-01" nType="-99"/>
          </Node>
          <Node pos="r" depth="2" NCoef="0" IVar="9" Cut="-1.7304348945617676e+00" cType="1" res="-1.0888284305110574e-03" rms="2.5029471516609192e-01" purity="5.1650762557983398e-01" nType="0">
            <Node pos="l" depth="3" NCoef="0" IVar="-1" Cut="0.0000000000000000e+00" cType="1" res="-3.6095831543207169e-02" rms="2.6701951026916504e-01" purity="2.5658094882965088e-01" nType="-99"/>
            <Node pos="r" depth="3" NCoef="0" IVar="-1" Cut="0.0000000000000000e+00" cType="1" res="8.1130873877555132e-04" rms="2.4922564625740051e-01" purity="5.3111666440963745e-01" nType="-99"/>
          </Node>
        </Node>
      </Node>
    </BinaryTree>
    <BinaryTree type="DecisionTree" boostWeight="1.0000000000000000e+00" itree="386">
      <Node pos="s" depth="0" NCoef="0" IVar="3" Cut="6.1883062744140625e+02" cType="1" res="2.9974445351399481e-04" rms="2.4395410716533661e-01" purity="4.9840629100799561e-01" nType="0">
        <Node pos="l" depth="1" NCoef="0" IVar="9" Cut="-6.6615170240402222e-01" cType="1" res="1.0899984044954181e-03" rms="2.4402461946010590e-01" purity="4.8580542206764221e-01" nType="0">
          <Node pos="l" depth="2" NCoef="0" IVar="3" Cut="2.1951499938964844e+02" cType="1" res="7.2294566780328751e-03" rms="2.5485992431640625e-01" purity="4.4018855690956116e-01" nType="0">
            <Node pos="l" depth="3" NCoef="0" IVar="-1" Cut="0.0000000000000000e+00" cType="1" res="-2.8572285547852516e-02" rms="2.1976453065872192e-01" purity="8.9013554155826569e-02" nType="-99"/>
            <Node pos="r" depth="3" NCoef="0" IVar="-1" Cut="0.0000000000000000e+00" cType="1" res="1.6744168475270271e-02" rms="2.6186367869377136e-01" purity="5.1920485496520996e-01" nType="-99"/>
          </Node>
          <Node pos="r" depth="2" NCoef="0" IVar="9" Cut="6.5407061576843262e-01" cType="1" res="-1.2973883422091603e-03" rms="2.3963649570941925e-01" purity="5.0354403257369995e-01" nType="0">
            <Node pos="l" depth="3" NCoef="0" IVar="-1" Cut="0.0000000000000000e+00" cType="1" res="-9.7493780776858330e-03" rms="2.3137749731540680e-01" purity="5.4523521661758423e-01" nType="-99"/>
            <Node pos="r" depth="3" NCoef="0" IVar="-1" Cut="0.0000000000000000e+00" cType="1" res="7.6164337806403637e-03" rms="2.5157943367958069e-01" purity="4.3995812535285950e-01" nType="-99"/>
          </Node>
        </Node>
        <Node pos="r" depth="1" NCoef="0" IVar="-1" Cut="0.0000000000000000e+00" cType="1" res="-4.0458768606185913e-02" rms="2.4084229767322540e-01" purity="8.5807025432586670e-01" nType="-99"/>
      </Node>
    </BinaryTree>
    <BinaryTree type="DecisionTree" boostWeight="1.0000000000000000e+00" itree="387">
      <Node pos="s" depth="0" NCoef="0" IVar="8" Cut="6.6616725921630859e-01" cType="1" res="-1.7721538897603750e-03" rms="2.4566924571990967e-01" purity="5.0400447845458984e-01" nType="0">
        <Node pos="l" depth="1" NCoef="0" IVar="3" Cut="3.4699795532226562e+02" cType="1" res="-4.3778358958661556e-03" rms="2.4064169824123383e-01" purity="5.3023904561996460e-01" nType="0">
          <Node pos="l" depth="2" NCoef="0" IVar="1" Cut="6.0036472976207733e-02" cType="1" res="-1.0246708057820797e-02" rms="2.5132334232330322e-01" purity="3.0713963508605957e-01" nType="0">
            <Node pos="l" depth="3" NCoef="0" IVar="-1" Cut="0.0000000000000000e+00" cType="1" res="-6.7984117195010185e-03" rms="2.0941428840160370e-01" purity="1.2691657245159149e-01" nType="-99"/>
            <Node pos="r" depth="3" NCoef="0" IVar="-1" Cut="0.0000000000000000e+00" cType="1" res="-2.0810987800359726e-02" rms="2.9257664084434509e-01" purity="5.1774370670318604e-01" nType="-99"/>
          </Node>
          <Node pos="r" depth="2" NCoef="0" IVar="8" Cut="-4.8710009455680847e-01" cType="1" res="2.8008664958178997e-03" rms="2.2668690979480743e-01" purity="8.0313038825988770e-01" nType="0">
            <Node pos="l" depth="3" NCoef="0" IVar="-1" Cut="0.0000000000000000e+00" cType="1" res="1.6663217917084694e-02" rms="2.4317382276058197e-01" purity="7.5719887018203735e-01" nType="-99"/>
            <Node pos="r" depth="3" NCoef="0" IVar="-1" Cut="0.0000000000000000e+00" cType="1" res="-3.8070965092629194e-03" rms="2.1658428013324738e-01" purity="8.2932901382446289e-01" nType="-99"/>
          </Node>
        </Node>
        <Node pos="r" depth="1" NCoef="0" IVar="4" Cut="1.2612927246093750e+02" cType="1" res="5.9796348214149475e-03" rms="2.5989747047424316e-01" purity="4.2595785856246948e-01" nType="0">
          <Node pos="l" depth="2" NCoef="0" IVar="-1" Cut="0.0000000000000000e+00" cType="1" res="1.1953036487102509e-01" rms="2.3822508752346039e-01" purity="9.4807110726833344e-02" nType="-99"/>
          <Node pos="r" depth="2" NCoef="0" IVar="4" Cut="2.8483666992187500e+02" cType="1" res="1.7296855803579092e-03" rms="2.6239821314811707e-01" purity="4.7067961096763611e-01" nType="0">
            <Node pos="l" depth="3" NCoef="0" IVar="-1" Cut="0.0000000000000000e+00" cType="1" res="9.0708499774336815e-03" rms="2.6908341050148010e-01" purity="3.5560119152069092e-01" nType="-99"/>
            <Node pos="r" depth="3" NCoef="0" IVar="-1" Cut="0.0000000000000000e+00" cType="1" res="-2.6283690705895424e-02" rms="2.3914361000061035e-01" purity="8.3656495809555054e-01" nType="-99"/>
          </Node>
        </Node>
      </Node>
    </BinaryTree>
    <BinaryTree type="DecisionTree" boostWeight="1.0000000000000000e+00" itree="388">
      <Node pos="s" depth="0" NCoef="0" IVar="9" Cut="1.1998043060302734e+00" cType="1" res="-1.4918915694579482e-03" rms="2.4627259373664856e-01" purity="4.9904316663742065e-01" nType="0">
        <Node pos="l" depth="1" NCoef="0" IVar="3" Cut="3.2899578857421875e+02" cType="1" res="8.0028217053040862e-04" rms="2.4519766867160797e-01" purity="5.2708137035369873e-01" nType="0">
          <Node pos="l" depth="2" NCoef="0" IVar="1" Cut="1.1315469443798065e-01" cType="1" res="5.6770779192447662e-03" rms="2.6018583774566650e-01" purity="2.8936699032783508e-01" nType="0">
            <Node pos="l" depth="3" NCoef="0" IVar="-1" Cut="0.0000000000000000e+00" cType="1" res="1.4380579814314842e-02" rms="2.5299924612045288e-01" purity="1.9979734718799591e-01" nType="-99"/>
            <Node pos="r" depth="3" NCoef="0" IVar="-1" Cut="0.0000000000000000e+00" cType="1" res="-6.5587703138589859e-03" rms="2.8559982776641846e-01" purity="6.3014340400695801e-01" nType="-99"/>
          </Node>
          <Node pos="r" depth="2" NCoef="0" IVar="0" Cut="2.4656044921875000e+03" cType="1" res="-4.2894105426967144e-03" rms="2.2839817404747009e-01" purity="7.7517324686050415e-01" nType="0">
            <Node pos="l" depth="3" NCoef="0" IVar="-1" Cut="0.0000000000000000e+00" cType="1" res="-1.3187788426876068e-02" rms="3.0420142412185669e-01" purity="4.6983242034912109e-01" nType="-99"/>
            <Node pos="r" depth="3" NCoef="0" IVar="-1" Cut="0.0000000000000000e+00" cType="1" res="2.0609407220035791e-03" rms="1.6923086345195770e-01" purity="9.5260500907897949e-01" nType="-99"/>
          </Node>
        </Node>
        <Node pos="r" depth="1" NCoef="0" IVar="8" Cut="-4.0406373143196106e-01" cType="1" res="-1.4943754300475121e-02" rms="2.5206893682479858e-01" purity="3.3449810743331909e-01" nType="0">
          <Node pos="l" depth="2" NCoef="0" IVar="-1" Cut="0.0000000000000000e+00" cType="1" res="-5.5338855832815170e-02" rms="2.3815919458866119e-01" purity="2.6317635178565979e-01" nType="-99"/>
          <Node pos="r" depth="2" NCoef="0" IVar="4" Cut="1.8587501525878906e+02" cType="1" res="-3.5725682973861694e-03" rms="2.5757247209548950e-01" purity="3.6806118488311768e-01" nType="0">
            <Node pos="l" depth="3" NCoef="0" IVar="-1" Cut="0.0000000000000000e+00" cType="1" res="2.5801669806241989e-02" rms="2.5566238164901733e-01" purity="1.4398925006389618e-01" nType="-99"/>
            <Node pos="r" depth="3" NCoef="0" IVar="-1" Cut="0.0000000000000000e+00" cType="1" res="-2.1030865609645844e-02" rms="2.5813081860542297e-01" purity="5.1528346538543701e-01" nType="-99"/>
          </Node>
        </Node>
      </Node>
    </BinaryTree>
    <BinaryTree type="DecisionTree" boostWeight="1.0000000000000000e+00" itree="389">
      <Node pos="s" depth="0" NCoef="0" IVar="8" Cut="-6.6645944118499756e-01" cType="1" res="-1.1960235424339771e-03" rms="2.4405127763748169e-01" purity="4.9468624591827393e-01" nType="0">
        <Node pos="l" depth="1" NCoef="0" IVar="9" Cut="-4.0109822154045105e-01" cType="1" res="6.4071849919855595e-03" rms="2.4420861899852753e-01" purity="4.0420469641685486e-01" nType="0">
          <Node pos="l" depth="2" NCoef="0" IVar="6" Cut="-7.6924508810043335e-01" cType="1" res="-4.5502451248466969e-03" rms="2.3791602253913879e-01" purity="3.4484064579010010e-01" nType="0">
            <Node pos="l" depth="3" NCoef="0" IVar="-1" Cut="0.0000000000000000e+00" cType="1" res="-3.1069098040461540e-02" rms="2.2495701909065247e-01" purity="1.7453919351100922e-01" nType="-99"/>
            <Node pos="r" depth="3" NCoef="0" IVar="-1" Cut="0.0000000000000000e+00" cType="1" res="2.7268248231848702e-05" rms="2.4202324450016022e-01" purity="4.0312862396240234e-01" nType="-99"/>
          </Node>
          <Node pos="r" depth="2" NCoef="0" IVar="9" Cut="9.6836358308792114e-01" cType="1" res="1.4311441220343113e-02" rms="2.4834901094436646e-01" purity="4.4702762365341187e-01" nType="0">
            <Node pos="l" depth="3" NCoef="0" IVar="-1" Cut="0.0000000000000000e+00" cType="1" res="1.6003336757421494e-02" rms="2.4289579689502716e-01" purity="4.9379298090934753e-01" nType="-99"/>
            <Node pos="r" depth="3" NCoef="0" IVar="-1" Cut="0.0000000000000000e+00" cType="1" res="3.7751402705907822e-02" rms="2.5967741012573242e-01" purity="3.4374645352363586e-01" nType="-99"/>
          </Node>
        </Node>
        <Node pos="r" depth="1" NCoef="0" IVar="8" Cut="-3.3620193600654602e-01" cType="1" res="-3.9139348082244396e-03" rms="2.4393752217292786e-01" purity="5.2703064680099487e-01" nType="0">
          <Node pos="l" depth="2" NCoef="0" IVar="8" Cut="-4.1485026478767395e-01" cType="1" res="-1.5127718448638916e-02" rms="2.5017005205154419e-01" purity="5.6195938587188721e-01" nType="0">
            <Node pos="l" depth="3" NCoef="0" IVar="-1" Cut="0.0000000000000000e+00" cType="1" res="-9.6221547573804855e-03" rms="2.4905541539192200e-01" purity="5.6456094980239868e-01" nType="-99"/>
            <Node pos="r" depth="3" NCoef="0" IVar="-1" Cut="0.0000000000000000e+00" cType="1" res="-8.2433782517910004e-02" rms="2.5114020705223083e-01" purity="5.5335640907287598e-01" nType="-99"/>
          </Node>
          <Node pos="r" depth="2" NCoef="0" IVar="1" Cut="1.9417561590671539e-01" cType="1" res="-1.7421797383576632e-03" rms="2.4265208840370178e-01" purity="5.2026605606079102e-01" nType="0">
            <Node pos="l" depth="3" NCoef="0" IVar="-1" Cut="0.0000000000000000e+00" cType="1" res="-1.1571210779948160e-04" rms="2.4544112384319305e-01" purity="4.8531201481819153e-01" nType="-99"/>
            <Node pos="r" depth="3" NCoef="0" IVar="-1" Cut="0.0000000000000000e+00" cType="1" res="-4.0771819651126862e-02" rms="2.1232849359512329e-01" purity="8.6678361892700195e-01" nType="-99"/>
          </Node>
        </Node>
      </Node>
    </BinaryTree>
    <BinaryTree type="DecisionTree" boostWeight="1.0000000000000000e+00" itree="390">
      <Node pos="s" depth="0" NCoef="0" IVar="4" Cut="1.4055323791503906e+02" cType="1" res="2.6471822056919336e-03" rms="2.4366229772567749e-01" purity="5.0396090745925903e-01" nType="0">
        <Node pos="l" depth="1" NCoef="0" IVar="0" Cut="1.6216822509765625e+03" cType="1" res="-9.1322232037782669e-03" rms="1.7933337390422821e-01" purity="4.9782335758209229e-02" nType="0">
          <Node pos="l" depth="2" NCoef="0" IVar="0" Cut="1.5371590576171875e+03" cType="1" res="-5.3688017942477018e-05" rms="1.2256039679050446e-01" purity="1.6598690301179886e-02" nType="0">
            <Node pos="l" depth="3" NCoef="0" IVar="-1" Cut="0.0000000000000000e+00" cType="1" res="-3.9050333201885223e-02" rms="8.9535817503929138e-02" purity="8.2942089065909386e-03" nType="-99"/>
            <Node pos="r" depth="3" NCoef="0" IVar="-1" Cut="0.0000000000000000e+00" cType="1" res="5.0583630800247192e-02" rms="1.7587660253047943e-01" purity="3.5677101463079453e-02" nType="-99"/>
          </Node>
          <Node pos="r" depth="2" NCoef="0" IVar="8" Cut="-1.3109512627124786e-01" cType="1" res="-2.2991741076111794e-02" rms="2.4084849655628204e-01" purity="1.0044132918119431e-01" nType="0">
            <Node pos="l" depth="3" NCoef="0" IVar="-1" Cut="0.0000000000000000e+00" cType="1" res="-9.0218596160411835e-03" rms="2.5516045093536377e-01" purity="1.1742374300956726e-01" nType="-99"/>
            <Node pos="r" depth="3" NCoef="0" IVar="-1" Cut="0.0000000000000000e+00" cType="1" res="-6.1242062598466873e-02" rms="2.2684143483638763e-01" purity="8.5887476801872253e-02" nType="-99"/>
          </Node>
        </Node>
        <Node pos="r" depth="1" NCoef="0" IVar="8" Cut="-6.6821765899658203e-01" cType="1" res="4.6006268821656704e-03" rms="2.5269946455955505e-01" purity="5.7927989959716797e-01" nType="0">
          <Node pos="l" depth="2" NCoef="0" IVar="1" Cut="6.1647955328226089e-02" cType="1" res="-2.0099035464227200e-03" rms="2.5653755664825439e-01" purity="4.7168996930122375e-01" nType="0">
            <Node pos="l" depth="3" NCoef="0" IVar="-1" Cut="0.0000000000000000e+00" cType="1" res="-1.6104452311992645e-02" rms="2.4682192504405975e-01" purity="2.3788507282733917e-01" nType="-99"/>
            <Node pos="r" depth="3" NCoef="0" IVar="-1" Cut="0.0000000000000000e+00" cType="1" res="9.0010780841112137e-03" rms="2.6557755470275879e-01" purity="7.0481336116790771e-01" nType="-99"/>
          </Node>
          <Node pos="r" depth="2" NCoef="0" IVar="5" Cut="2.0795953369140625e+02" cType="1" res="6.7805186845362186e-03" rms="2.5138285756111145e-01" purity="6.1475878953933716e-01" nType="0">
            <Node pos="l" depth="3" NCoef="0" IVar="-1" Cut="0.0000000000000000e+00" cType="1" res="1.3401961885392666e-02" rms="2.7926614880561829e-01" purity="4.4319987297058105e-01" nType="-99"/>
            <Node pos="r" depth="3" NCoef="0" IVar="-1" Cut="0.0000000000000000e+00" cType="1" res="-1.1920983670279384e-03" rms="1.9064314663410187e-01" purity="9.2511898279190063e-01" nType="-99"/>
          </Node>
        </Node>
      </Node>
    </BinaryTree>
    <BinaryTree type="DecisionTree" boostWeight="1.0000000000000000e+00" itree="391">
      <Node pos="s" depth="0" NCoef="0" IVar="8" Cut="9.3287640810012817e-01" cType="1" res="2.7327507268637419e-03" rms="2.4836784601211548e-01" purity="5.0844609737396240e-01" nType="0">
        <Node pos="l" depth="1" NCoef="0" IVar="0" Cut="2.4650922851562500e+03" cType="1" res="4.6494230628013611e-03" rms="2.4570256471633911e-01" purity="5.3632605075836182e-01" nType="0">
          <Node pos="l" depth="2" NCoef="0" IVar="0" Cut="2.0085505371093750e+03" cType="1" res="7.7617424540221691e-03" rms="2.7692729234695435e-01" purity="3.1008580327033997e-01" nType="0">
            <Node pos="l" depth="3" NCoef="0" IVar="-1" Cut="0.0000000000000000e+00" cType="1" res="1.8509187502786517e-03" rms="2.5436058640480042e-01" purity="1.2677738070487976e-01" nType="-99"/>
            <Node pos="r" depth="3" NCoef="0" IVar="-1" Cut="0.0000000000000000e+00" cType="1" res="2.1836631000041962e-02" rms="3.2368814945220947e-01" purity="7.4469530582427979e-01" nType="-99"/>
          </Node>
          <Node pos="r" depth="2" NCoef="0" IVar="0" Cut="3.1117912597656250e+03" cType="1" res="-1.0037058964371681e-03" rms="1.7515388131141663e-01" purity="9.4726240634918213e-01" nType="0">
            <Node pos="l" depth="3" NCoef="0" IVar="-1" Cut="0.0000000000000000e+00" cType="1" res="-1.1476767249405384e-02" rms="1.9419288635253906e-01" purity="9.3317335844039917e-01" nType="-99"/>
            <Node pos="r" depth="3" NCoef="0" IVar="-1" Cut="0.0000000000000000e+00" cType="1" res="2.5224607437849045e-02" rms="1.2709595263004303e-01" purity="9.7623783349990845e-01" nType="-99"/>
          </Node>
        </Node>
        <Node pos="r" depth="1" NCoef="0" IVar="2" Cut="4.4434588623046875e+02" cType="1" res="-6.1540571041405201e-03" rms="2.6018494367599487e-01" purity="3.7917834520339966e-01" nType="0">
          <Node pos="l" depth="2" NCoef="0" IVar="0" Cut="1.6756203613281250e+03" cType="1" res="-2.1451668813824654e-02" rms="2.6593700051307678e-01" purity="2.2197531163692474e-01" nType="0">
            <Node pos="l" depth="3" NCoef="0" IVar="-1" Cut="0.0000000000000000e+00" cType="1" res="-7.8079560771584511e-03" rms="1.9105996191501617e-01" purity="4.6063326299190521e-02" nType="-99"/>
            <Node pos="r" depth="3" NCoef="0" IVar="-1" Cut="0.0000000000000000e+00" cType="1" res="-4.3249767273664474e-02" rms="3.4760433435440063e-01" purity="4.8598390817642212e-01" nType="-99"/>
          </Node>
          <Node pos="r" depth="2" NCoef="0" IVar="3" Cut="3.3103253173828125e+02" cType="1" res="4.0123979561030865e-03" rms="2.5578531622886658e-01" purity="4.8365202546119690e-01" nType="0">
            <Node pos="l" depth="3" NCoef="0" IVar="-1" Cut="0.0000000000000000e+00" cType="1" res="-1.8516240641474724e-02" rms="2.3134890198707581e-01" purity="2.3485349118709564e-01" nType="-99"/>
            <Node pos="r" depth="3" NCoef="0" IVar="-1" Cut="0.0000000000000000e+00" cType="1" res="2.2108577191829681e-02" rms="2.7347624301910400e-01" purity="6.8676280975341797e-01" nType="-99"/>
          </Node>
        </Node>
      </Node>
    </BinaryTree>
    <BinaryTree type="DecisionTree" boostWeight="1.0000000000000000e+00" itree="392">
      <Node pos="s" depth="0" NCoef="0" IVar="9" Cut="-1.4659913778305054e+00" cType="1" res="-2.0516910590231419e-03" rms="2.3675195872783661e-01" purity="4.9780863523483276e-01" nType="0">
        <Node pos="l" depth="1" NCoef="0" IVar="3" Cut="2.4592013549804688e+02" cType="1" res="-1.5698146075010300e-02" rms="2.5793969631195068e-01" purity="2.9567542672157288e-01" nType="0">
          <Node pos="l" depth="2" NCoef="0" IVar="-1" Cut="0.0000000000000000e+00" cType="1" res="-5.7505280710756779e-03" rms="2.3994214832782745e-01" purity="1.2658770382404327e-01" nType="-99"/>
          <Node pos="r" depth="2" NCoef="0" IVar="8" Cut="-1.4430911839008331e-01" cType="1" res="-2.2199429571628571e-02" rms="2.6676526665687561e-01" purity="3.8536015152931213e-01" nType="0">
            <Node pos="l" depth="3" NCoef="0" IVar="-1" Cut="0.0000000000000000e+00" cType="1" res="-6.6964696161448956e-03" rms="2.6130905747413635e-01" purity="3.7395867705345154e-01" nType="-99"/>
            <Node pos="r" depth="3" NCoef="0" IVar="-1" Cut="0.0000000000000000e+00" cType="1" res="-4.5758541673421860e-02" rms="2.7094653248786926e-01" purity="3.9643877744674683e-01" nType="-99"/>
          </Node>
        </Node>
        <Node pos="r" depth="1" NCoef="0" IVar="1" Cut="1.4804440736770630e-01" cType="1" res="-6.7443057196214795e-04" rms="2.3446315526962280e-01" purity="5.1820880174636841e-01" nType="0">
          <Node pos="l" depth="2" NCoef="0" IVar="9" Cut="-4.4155120849609375e-02" cType="1" res="-2.4313249159604311e-03" rms="2.4063925445079803e-01" purity="4.3509981036186218e-01" nType="0">
            <Node pos="l" depth="3" NCoef="0" IVar="-1" Cut="0.0000000000000000e+00" cType="1" res="4.3491479009389877e-03" rms="2.4072228372097015e-01" purity="4.7376343607902527e-01" nType="-99"/>
            <Node pos="r" depth="3" NCoef="0" IVar="-1" Cut="0.0000000000000000e+00" cType="1" res="-9.8276585340499878e-03" rms="2.4050880968570709e-01" purity="4.0683388710021973e-01" nType="-99"/>
          </Node>
          <Node pos="r" depth="2" NCoef="0" IVar="0" Cut="2.1241015625000000e+03" cType="1" res="6.9857244379818439e-03" rms="2.0520041882991791e-01" purity="8.8056850433349609e-01" nType="0">
            <Node pos="l" depth="3" NCoef="0" IVar="-1" Cut="0.0000000000000000e+00" cType="1" res="1.9448673352599144e-02" rms="3.6541303992271423e-01" purity="5.2928513288497925e-01" nType="-99"/>
            <Node pos="r" depth="3" NCoef="0" IVar="-1" Cut="0.0000000000000000e+00" cType="1" res="7.0318090729415417e-03" rms="1.2269695103168488e-01" purity="9.8393249511718750e-01" nType="-99"/>
          </Node>
        </Node>
      </Node>
    </BinaryTree>
    <BinaryTree type="DecisionTree" boostWeight="1.0000000000000000e+00" itree="393">
      <Node pos="s" depth="0" NCoef="0" IVar="9" Cut="-1.3306549191474915e-01" cType="1" res="-1.2757773511111736e-03" rms="2.4136048555374146e-01" purity="4.9546694755554199e-01" nType="0">
        <Node pos="l" depth="1" NCoef="0" IVar="7" Cut="-6.6320526599884033e-01" cType="1" res="-5.1071811467409134e-03" rms="2.4403895437717438e-01" purity="4.8188021779060364e-01" nType="0">
          <Node pos="l" depth="2" NCoef="0" IVar="1" Cut="5.0112519413232803e-02" cType="1" res="-1.7287548631429672e-02" rms="2.4558807909488678e-01" purity="3.3625897765159607e-01" nType="0">
            <Node pos="l" depth="3" NCoef="0" IVar="-1" Cut="0.0000000000000000e+00" cType="1" res="-9.8097035661339760e-03" rms="1.9886825978755951e-01" purity="1.3608011603355408e-01" nType="-99"/>
            <Node pos="r" depth="3" NCoef="0" IVar="-1" Cut="0.0000000000000000e+00" cType="1" res="-3.9779119193553925e-02" rms="2.8772634267807007e-01" purity="5.5641067028045654e-01" nType="-99"/>
          </Node>
          <Node pos="r" depth="2" NCoef="0" IVar="5" Cut="1.4548579406738281e+02" cType="1" res="-8.0226873978972435e-04" rms="2.4334332346916199e-01" purity="5.3334724903106689e-01" nType="0">
            <Node pos="l" depth="3" NCoef="0" IVar="-1" Cut="0.0000000000000000e+00" cType="1" res="1.3338255695998669e-02" rms="2.4859476089477539e-01" purity="1.9950973987579346e-01" nType="-99"/>
            <Node pos="r" depth="3" NCoef="0" IVar="-1" Cut="0.0000000000000000e+00" cType="1" res="-1.1602471582591534e-02" rms="2.3951455950737000e-01" purity="7.5985187292098999e-01" nType="-99"/>
          </Node>
        </Node>
        <Node pos="r" depth="1" NCoef="0" IVar="7" Cut="9.3273806571960449e-01" cType="1" res="2.0230242516845465e-03" rms="2.3898109793663025e-01" purity="5.0716501474380493e-01" nType="0">
          <Node pos="l" depth="2" NCoef="0" IVar="7" Cut="5.7738834619522095e-01" cType="1" res="4.7590597532689571e-03" rms="2.4188640713691711e-01" purity="5.6424933671951294e-01" nType="0">
            <Node pos="l" depth="3" NCoef="0" IVar="-1" Cut="0.0000000000000000e+00" cType="1" res="3.9497683756053448e-03" rms="2.3960296809673309e-01" purity="5.6278407573699951e-01" nType="-99"/>
            <Node pos="r" depth="3" NCoef="0" IVar="-1" Cut="0.0000000000000000e+00" cType="1" res="3.0936196446418762e-02" rms="2.5517579913139343e-01" purity="5.7340258359909058e-01" nType="-99"/>
          </Node>
          <Node pos="r" depth="2" NCoef="0" IVar="7" Cut="1.4657980203628540e+00" cType="1" res="-9.2536397278308868e-03" rms="2.2626508772373199e-01" purity="2.7189007401466370e-01" nType="0">
            <Node pos="l" depth="3" NCoef="0" IVar="-1" Cut="0.0000000000000000e+00" cType="1" res="-2.8918650001287460e-02" rms="2.3222376406192780e-01" purity="3.5427975654602051e-01" nType="-99"/>
            <Node pos="r" depth="3" NCoef="0" IVar="-1" Cut="0.0000000000000000e+00" cType="1" res="1.9698459655046463e-02" rms="2.1433465182781219e-01" purity="1.2855905294418335e-01" nType="-99"/>
          </Node>
        </Node>
      </Node>
    </BinaryTree>
    <BinaryTree type="DecisionTree" boostWeight="1.0000000000000000e+00" itree="394">
      <Node pos="s" depth="0" NCoef="0" IVar="0" Cut="3.5301777343750000e+03" cType="1" res="2.4836983066052198e-03" rms="2.4526354670524597e-01" purity="5.0340044498443604e-01" nType="0">
        <Node pos="l" depth="1" NCoef="0" IVar="8" Cut="-9.3346101045608521e-01" cType="1" res="1.5845721354708076e-03" rms="2.4940192699432373e-01" purity="4.8553982377052307e-01" nType="0">
          <Node pos="l" depth="2" NCoef="0" IVar="0" Cut="2.1085666503906250e+03" cType="1" res="-6.4966185018420219e-03" rms="2.4530915915966034e-01" purity="3.3341509103775024e-01" nType="0">
            <Node pos="l" depth="3" NCoef="0" IVar="-1" Cut="0.0000000000000000e+00" cType="1" res="-2.2398004308342934e-02" rms="2.3232893645763397e-01" purity="1.0358098149299622e-01" nType="-99"/>
            <Node pos="r" depth="3" NCoef="0" IVar="-1" Cut="0.0000000000000000e+00" cType="1" res="1.0864824056625366e-02" rms="2.7038478851318359e-01" purity="8.2508170604705811e-01" nType="-99"/>
          </Node>
          <Node pos="r" depth="2" NCoef="0" IVar="4" Cut="3.4600082397460938e+02" cType="1" res="3.4870053641498089e-03" rms="2.5031775236129761e-01" purity="5.2135223150253296e-01" nType="0">
            <Node pos="l" depth="3" NCoef="0" IVar="-1" Cut="0.0000000000000000e+00" cType="1" res="8.0564413219690323e-03" rms="2.5935679674148560e-01" purity="4.4868484139442444e-01" nType="-99"/>
            <Node pos="r" depth="3" NCoef="0" IVar="-1" Cut="0.0000000000000000e+00" cType="1" res="-2.3278422653675079e-02" rms="1.8997636437416077e-01" purity="9.3810486793518066e-01" nType="-99"/>
          </Node>
        </Node>
        <Node pos="r" depth="1" NCoef="0" IVar="-1" Cut="0.0000000000000000e+00" cType="1" res="9.9729329347610474e-02" rms="5.8097649365663528e-02" purity="9.9328571557998657e-01" nType="-99"/>
      </Node>
    </BinaryTree>
    <BinaryTree type="DecisionTree" boostWeight="1.0000000000000000e+00" itree="395">
      <Node pos="s" depth="0" NCoef="0" IVar="9" Cut="1.4667693376541138e+00" cType="1" res="6.2356574926525354e-04" rms="2.4538052082061768e-01" purity="5.0073611736297607e-01" nType="0">
        <Node pos="l" depth="1" NCoef="0" IVar="6" Cut="-1.1417706012725830e+00" cType="1" res="2.4189576506614685e-03" rms="2.4594715237617493e-01" purity="5.2586060762405396e-01" nType="0">
          <Node pos="l" depth="2" NCoef="0" IVar="9" Cut="4.7871828079223633e-02" cType="1" res="-1.0758743621408939e-02" rms="2.0306980609893799e-01" purity="1.4283010363578796e-01" nType="0">
            <Node pos="l" depth="3" NCoef="0" IVar="-1" Cut="0.0000000000000000e+00" cType="1" res="-3.6009088158607483e-02" rms="2.0807713270187378e-01" purity="1.3804805278778076e-01" nType="-99"/>
            <Node pos="r" depth="3" NCoef="0" IVar="-1" Cut="0.0000000000000000e+00" cType="1" res="6.8834451958537102e-03" rms="1.9358679652214050e-01" purity="1.5089000761508942e-01" nType="-99"/>
          </Node>
          <Node pos="r" depth="2" NCoef="0" IVar="0" Cut="1.9325543212890625e+03" cType="1" res="3.9450512267649174e-03" rms="2.5039407610893250e-01" purity="5.7021892070770264e-01" nType="0">
            <Node pos="l" depth="3" NCoef="0" IVar="-1" Cut="0.0000000000000000e+00" cType="1" res="1.4302763156592846e-02" rms="2.5888708233833313e-01" purity="1.1909195035696030e-01" nType="-99"/>
            <Node pos="r" depth="3" NCoef="0" IVar="-1" Cut="0.0000000000000000e+00" cType="1" res="7.8233814565464854e-04" rms="2.4475933611392975e-01" purity="8.5799479484558105e-01" nType="-99"/>
          </Node>
        </Node>
        <Node pos="r" depth="1" NCoef="0" IVar="0" Cut="1.8948684082031250e+03" cType="1" res="-1.4480073004961014e-02" rms="2.4002981185913086e-01" purity="2.8937792778015137e-01" nType="0">
          <Node pos="l" depth="2" NCoef="0" IVar="9" Cut="1.9103771448135376e+00" cType="1" res="-3.2884605228900909e-02" rms="1.8370467424392700e-01" purity="3.9431940764188766e-02" nType="0">
            <Node pos="l" depth="3" NCoef="0" IVar="-1" Cut="0.0000000000000000e+00" cType="1" res="-8.1507183611392975e-02" rms="1.8494522571563721e-01" purity="4.0878657251596451e-02" nType="-99"/>
            <Node pos="r" depth="3" NCoef="0" IVar="-1" Cut="0.0000000000000000e+00" cType="1" res="-1.7075559124350548e-02" rms="1.7862701416015625e-01" purity="3.7731554359197617e-02" nType="-99"/>
          </Node>
          <Node pos="r" depth="2" NCoef="0" IVar="-1" Cut="0.0000000000000000e+00" cType="1" res="1.3869435526430607e-02" rms="3.0470439791679382e-01" purity="6.7207616567611694e-01" nType="-99"/>
        </Node>
      </Node>
    </BinaryTree>
    <BinaryTree type="DecisionTree" boostWeight="1.0000000000000000e+00" itree="396">
      <Node pos="s" depth="0" NCoef="0" IVar="9" Cut="-1.9980623722076416e+00" cType="1" res="8.9107028907164931e-04" rms="2.4485760927200317e-01" purity="5.0183677673339844e-01" nType="0">
        <Node pos="l" depth="1" NCoef="0" IVar="-1" Cut="0.0000000000000000e+00" cType="1" res="4.5045591890811920e-02" rms="2.6953837275505066e-01" purity="2.2971592843532562e-01" nType="-99"/>
        <Node pos="r" depth="1" NCoef="0" IVar="7" Cut="-1.1998240947723389e+00" cType="1" res="-3.2568092137807980e-05" rms="2.4391086399555206e-01" purity="5.1120567321777344e-01" nType="0">
          <Node pos="l" depth="2" NCoef="0" IVar="7" Cut="-1.9618065357208252e+00" cType="1" res="1.0491495952010155e-02" rms="2.2923736274242401e-01" purity="2.2416472434997559e-01" nType="0">
            <Node pos="l" depth="3" NCoef="0" IVar="-1" Cut="0.0000000000000000e+00" cType="1" res="-8.9061297476291656e-02" rms="1.1088060587644577e-01" purity="2.2911813110113144e-02" nType="-99"/>
            <Node pos="r" depth="3" NCoef="0" IVar="-1" Cut="0.0000000000000000e+00" cType="1" res="3.4314863383769989e-02" rms="2.5697377324104309e-01" purity="2.9426383972167969e-01" nType="-99"/>
          </Node>
          <Node pos="r" depth="2" NCoef="0" IVar="8" Cut="-1.7322281599044800e+00" cType="1" res="-1.2811842607334256e-03" rms="2.4556368589401245e-01" purity="5.4526138305664062e-01" nType="0">
            <Node pos="l" depth="3" NCoef="0" IVar="-1" Cut="0.0000000000000000e+00" cType="1" res="-3.5752393305301666e-02" rms="2.2425329685211182e-01" purity="1.4028607308864594e-01" nType="-99"/>
            <Node pos="r" depth="3" NCoef="0" IVar="-1" Cut="0.0000000000000000e+00" cType="1" res="-5.4300244664773345e-04" rms="2.4653153121471405e-01" purity="5.6527924537658691e-01" nType="-99"/>
          </Node>
        </Node>
      </Node>
    </BinaryTree>
    <BinaryTree type="DecisionTree" boostWeight="1.0000000000000000e+00" itree="397">
      <Node pos="s" depth="0" NCoef="0" IVar="4" Cut="3.2330599975585938e+02" cType="1" res="-6.9731415715068579e-04" rms="2.4119767546653748e-01" purity="4.9825197458267212e-01" nType="0">
        <Node pos="l" depth="1" NCoef="0" IVar="3" Cut="1.5472837829589844e+02" cType="1" res="-2.5604506954550743e-03" rms="2.5332915782928467e-01" purity="3.9437866210937500e-01" nType="0">
          <Node pos="l" depth="2" NCoef="0" IVar="-1" Cut="0.0000000000000000e+00" cType="1" res="8.4731347858905792e-02" rms="1.8782748281955719e-01" purity="4.5603759586811066e-02" nType="-99"/>
          <Node pos="r" depth="2" NCoef="0" IVar="8" Cut="1.7326316833496094e+00" cType="1" res="-3.3261410426348448e-03" rms="2.5536730885505676e-01" purity="4.0709391236305237e-01" nType="0">
            <Node pos="l" depth="3" NCoef="0" IVar="-1" Cut="0.0000000000000000e+00" cType="1" res="-3.1853148248046637e-03" rms="2.5802421569824219e-01" purity="4.2264932394027710e-01" nType="-99"/>
            <Node pos="r" depth="3" NCoef="0" IVar="-1" Cut="0.0000000000000000e+00" cType="1" res="-3.9076674729585648e-02" rms="2.0403413474559784e-01" purity="1.4256401360034943e-01" nType="-99"/>
          </Node>
        </Node>
        <Node pos="r" depth="1" NCoef="0" IVar="6" Cut="3.6250466108322144e-01" cType="1" res="7.1641453541815281e-03" rms="1.8106843531131744e-01" purity="9.3654286861419678e-01" nType="0">
          <Node pos="l" depth="2" NCoef="0" IVar="4" Cut="3.8114465332031250e+02" cType="1" res="2.9326130170375109e-03" rms="1.7248368263244629e-01" purity="9.4461929798126221e-01" nType="0">
            <Node pos="l" depth="3" NCoef="0" IVar="-1" Cut="0.0000000000000000e+00" cType="1" res="1.8476750701665878e-02" rms="1.8988350033760071e-01" purity="9.2698645591735840e-01" nType="-99"/>
            <Node pos="r" depth="3" NCoef="0" IVar="-1" Cut="0.0000000000000000e+00" cType="1" res="-5.5474485270678997e-03" rms="1.5317927300930023e-01" purity="9.6209812164306641e-01" nType="-99"/>
          </Node>
          <Node pos="r" depth="2" NCoef="0" IVar="-1" Cut="0.0000000000000000e+00" cType="1" res="3.8727384060621262e-02" rms="2.0173867046833038e-01" purity="9.1502195596694946e-01" nType="-99"/>
        </Node>
      </Node>
    </BinaryTree>
    <BinaryTree type="DecisionTree" boostWeight="1.0000000000000000e+00" itree="398">
      <Node pos="s" depth="0" NCoef="0" IVar="1" Cut="8.2803405821323395e-02" cType="1" res="1.5681097283959389e-03" rms="2.4435719847679138e-01" purity="5.0627857446670532e-01" nType="0">
        <Node pos="l" depth="1" NCoef="0" IVar="6" Cut="1.7146608233451843e-01" cType="1" res="4.7344341874122620e-03" rms="2.4897022545337677e-01" purity="3.1777891516685486e-01" nType="0">
          <Node pos="l" depth="2" NCoef="0" IVar="9" Cut="1.1957689523696899e+00" cType="1" res="8.3836363628506660e-03" rms="2.5834700465202332e-01" purity="3.4344124794006348e-01" nType="0">
            <Node pos="l" depth="3" NCoef="0" IVar="-1" Cut="0.0000000000000000e+00" cType="1" res="8.7817581370472908e-03" rms="2.5585809350013733e-01" purity="3.6538380384445190e-01" nType="-99"/>
            <Node pos="r" depth="3" NCoef="0" IVar="-1" Cut="0.0000000000000000e+00" cType="1" res="3.3001981675624847e-02" rms="2.7073842287063599e-01" purity="2.2739045321941376e-01" nType="-99"/>
          </Node>
          <Node pos="r" depth="2" NCoef="0" IVar="0" Cut="2.3891545410156250e+03" cType="1" res="4.2719472548924387e-04" rms="2.3735436797142029e-01" purity="2.8748905658721924e-01" nType="0">
            <Node pos="l" depth="3" NCoef="0" IVar="-1" Cut="0.0000000000000000e+00" cType="1" res="-7.2224568575620651e-03" rms="2.3364830017089844e-01" purity="1.2536913156509399e-01" nType="-99"/>
            <Node pos="r" depth="3" NCoef="0" IVar="-1" Cut="0.0000000000000000e+00" cType="1" res="2.3701705038547516e-02" rms="2.4973960220813751e-01" purity="8.8005393743515015e-01" nType="-99"/>
          </Node>
        </Node>
        <Node pos="r" depth="1" NCoef="0" IVar="0" Cut="1.5986257324218750e+03" cType="1" res="-3.0300107318907976e-03" rms="2.3742353916168213e-01" purity="7.8001672029495239e-01" nType="0">
          <Node pos="l" depth="2" NCoef="0" IVar="-1" Cut="0.0000000000000000e+00" cType="1" res="-4.0260322391986847e-02" rms="2.0990352332592010e-01" purity="4.8444733023643494e-02" nType="-99"/>
          <Node pos="r" depth="2" NCoef="0" IVar="4" Cut="1.7741165161132812e+02" cType="1" res="-2.5494911824353039e-04" rms="2.4044090509414673e-01" purity="8.6988705396652222e-01" nType="0">
            <Node pos="l" depth="3" NCoef="0" IVar="-1" Cut="0.0000000000000000e+00" cType="1" res="-1.6120621934533119e-02" rms="3.6854031682014465e-01" purity="5.0395804643630981e-01" nType="-99"/>
            <Node pos="r" depth="3" NCoef="0" IVar="-1" Cut="0.0000000000000000e+00" cType="1" res="2.8756456449627876e-03" rms="2.2716641426086426e-01" purity="8.9881014823913574e-01" nType="-99"/>
          </Node>
        </Node>
      </Node>
    </BinaryTree>
    <BinaryTree type="DecisionTree" boostWeight="1.0000000000000000e+00" itree="399">
      <Node pos="s" depth="0" NCoef="0" IVar="8" Cut="1.1992057561874390e+00" cType="1" res="7.6130230445414782e-04" rms="2.4520070850849152e-01" purity="4.9672034382820129e-01" nType="0">
        <Node pos="l" depth="1" NCoef="0" IVar="8" Cut="8.1823116540908813e-01" cType="1" res="-1.2089443625882268e-03" rms="2.4302387237548828e-01" purity="5.2081626653671265e-01" nType="0">
          <Node pos="l" depth="2" NCoef="0" IVar="6" Cut="-1.0779069662094116e+00" cType="1" res="2.0152187789790332e-04" rms="2.4147933721542358e-01" purity="5.2724575996398926e-01" nType="0">
            <Node pos="l" depth="3" NCoef="0" IVar="-1" Cut="0.0000000000000000e+00" cType="1" res="2.1573597565293312e-02" rms="2.2905945777893066e-01" purity="2.0860767364501953e-01" nType="-99"/>
            <Node pos="r" depth="3" NCoef="0" IVar="-1" Cut="0.0000000000000000e+00" cType="1" res="-1.7875684425234795e-03" rms="2.4280282855033875e-01" purity="5.6306779384613037e-01" nType="-99"/>
          </Node>
          <Node pos="r" depth="2" NCoef="0" IVar="6" Cut="2.4841466546058655e-01" cType="1" res="-1.3005821034312248e-02" rms="2.5527182221412659e-01" purity="4.6704137325286865e-01" nType="0">
            <Node pos="l" depth="3" NCoef="0" IVar="-1" Cut="0.0000000000000000e+00" cType="1" res="2.0598052069544792e-03" rms="2.7543839812278748e-01" purity="5.2020037174224854e-01" nType="-99"/>
            <Node pos="r" depth="3" NCoef="0" IVar="-1" Cut="0.0000000000000000e+00" cType="1" res="-4.5466262847185135e-02" rms="2.2613564133644104e-01" purity="4.0033337473869324e-01" nType="-99"/>
          </Node>
        </Node>
        <Node pos="r" depth="1" NCoef="0" IVar="5" Cut="1.0446881866455078e+02" cType="1" res="1.4763378538191319e-02" rms="2.5971660017967224e-01" purity="3.2547602057456970e-01" nType="0">
          <Node pos="l" depth="2" NCoef="0" IVar="-1" Cut="0.0000000000000000e+00" cType="1" res="-1.4586762525141239e-02" rms="1.8010202050209045e-01" purity="5.0243802368640900e-02" nType="-99"/>
          <Node pos="r" depth="2" NCoef="0" IVar="7" Cut="-3.9287725090980530e-01" cType="1" res="2.2302933037281036e-02" rms="2.8377524018287659e-01" purity="4.2987808585166931e-01" nType="0">
            <Node pos="l" depth="3" NCoef="0" IVar="-1" Cut="0.0000000000000000e+00" cType="1" res="2.0460241939872503e-03" rms="2.5300252437591553e-01" purity="2.8760531544685364e-01" nType="-99"/>
            <Node pos="r" depth="3" NCoef="0" IVar="-1" Cut="0.0000000000000000e+00" cType="1" res="4.0327120572328568e-02" rms="2.9729667305946350e-01" purity="5.0030523538589478e-01" nType="-99"/>
          </Node>
        </Node>
      </Node>
    </BinaryTree>
    <BinaryTree type="DecisionTree" boostWeight="1.0000000000000000e+00" itree="400">
      <Node pos="s" depth="0" NCoef="0" IVar="6" Cut="6.9665724039077759e-01" cType="1" res="-3.4724525175988674e-03" rms="2.4327293038368225e-01" purity="4.9458390474319458e-01" nType="0">
        <Node pos="l" depth="1" NCoef="0" IVar="1" Cut="8.1765942275524139e-02" cType="1" res="-5.7077617384493351e-03" rms="2.4480845034122467e-01" purity="5.4129362106323242e-01" nType="0">
          <Node pos="l" depth="2" NCoef="0" IVar="6" Cut="-4.4131624698638916e-01" cType="1" res="-7.3735334444791079e-04" rms="2.5610753893852234e-01" purity="3.4833356738090515e-01" nType="0">
            <Node pos="l" depth="3" NCoef="0" IVar="-1" Cut="0.0000000000000000e+00" cType="1" res="-1.2229193933308125e-02" rms="2.3408991098403931e-01" purity="2.3529550433158875e-01" nType="-99"/>
            <Node pos="r" depth="3" NCoef="0" IVar="-1" Cut="0.0000000000000000e+00" cType="1" res="7.0674819871783257e-03" rms="2.7462813258171082e-01" purity="4.5209857821464539e-01" nType="-99"/>
          </Node>
          <Node pos="r" depth="2" NCoef="0" IVar="0" Cut="2.1942019042968750e+03" cType="1" res="-1.1425752192735672e-02" rms="2.3099541664123535e-01" purity="7.6327621936798096e-01" nType="0">
            <Node pos="l" depth="3" NCoef="0" IVar="-1" Cut="0.0000000000000000e+00" cType="1" res="-2.2444549947977066e-02" rms="3.3019632101058960e-01" purity="3.8194409012794495e-01" nType="-99"/>
            <Node pos="r" depth="3" NCoef="0" IVar="-1" Cut="0.0000000000000000e+00" cType="1" res="-1.0834994725883007e-02" rms="1.4968785643577576e-01" purity="9.7367703914642334e-01" nType="-99"/>
          </Node>
        </Node>
        <Node pos="r" depth="1" NCoef="0" IVar="1" Cut="1.7208551988005638e-02" cType="1" res="5.1772226579487324e-03" rms="2.3703901469707489e-01" purity="3.1383761763572693e-01" nType="0">
          <Node pos="l" depth="2" NCoef="0" IVar="9" Cut="1.2815964221954346e-01" cType="1" res="-8.0184061080217361e-03" rms="1.3136851787567139e-01" purity="4.1455868631601334e-02" nType="0">
            <Node pos="l" depth="3" NCoef="0" IVar="-1" Cut="0.0000000000000000e+00" cType="1" res="-6.8640254437923431e-02" rms="1.3396555185317993e-01" purity="3.3525355160236359e-02" nType="-99"/>
            <Node pos="r" depth="3" NCoef="0" IVar="-1" Cut="0.0000000000000000e+00" cType="1" res="3.2877186313271523e-03" rms="1.2814255058765411e-01" purity="4.9328535795211792e-02" nType="-99"/>
          </Node>
          <Node pos="r" depth="2" NCoef="0" IVar="7" Cut="-9.1410392522811890e-01" cType="1" res="1.0141940787434578e-02" rms="2.6597794890403748e-01" purity="4.1631838679313660e-01" nType="0">
            <Node pos="l" depth="3" NCoef="0" IVar="-1" Cut="0.0000000000000000e+00" cType="1" res="-1.9371777772903442e-02" rms="2.6351842284202576e-01" purity="1.7919041216373444e-01" nType="-99"/>
            <Node pos="r" depth="3" NCoef="0" IVar="-1" Cut="0.0000000000000000e+00" cType="1" res="2.0817765966057777e-02" rms="2.6622858643531799e-01" purity="4.6627467870712280e-01" nType="-99"/>
          </Node>
        </Node>
      </Node>
    </BinaryTree>
    <BinaryTree type="DecisionTree" boostWeight="1.0000000000000000e+00" itree="401">
      <Node pos="s" depth="0" NCoef="0" IVar="5" Cut="1.9128137207031250e+02" cType="1" res="1.9142881501466036e-03" rms="2.4442662298679352e-01" purity="4.9943915009498596e-01" nType="0">
        <Node pos="l" depth="1" NCoef="0" IVar="4" Cut="2.4265408325195312e+02" cType="1" res="4.6797697432339191e-03" rms="2.5912243127822876e-01" purity="2.9656913876533508e-01" nType="0">
          <Node pos="l" depth="2" NCoef="0" IVar="8" Cut="-1.4666423797607422e+00" cType="1" res="2.0523858256638050e-03" rms="2.4899117648601532e-01" purity="2.0681902766227722e-01" nType="0">
            <Node pos="l" depth="3" NCoef="0" IVar="-1" Cut="0.0000000000000000e+00" cType="1" res="4.4070117175579071e-02" rms="2.3802298307418823e-01" purity="1.4798101782798767e-01" nType="-99"/>
            <Node pos="r" depth="3" NCoef="0" IVar="-1" Cut="0.0000000000000000e+00" cType="1" res="-1.0017306776717305e-03" rms="2.5033110380172729e-01" purity="2.1485938131809235e-01" nType="-99"/>
          </Node>
          <Node pos="r" depth="2" NCoef="0" IVar="8" Cut="6.7458009719848633e-01" cType="1" res="1.5552029013633728e-02" rms="2.9715263843536377e-01" purity="6.6795992851257324e-01" nType="0">
            <Node pos="l" depth="3" NCoef="0" IVar="-1" Cut="0.0000000000000000e+00" cType="1" res="8.4361853078007698e-03" rms="2.8843975067138672e-01" purity="6.8103790283203125e-01" nType="-99"/>
            <Node pos="r" depth="3" NCoef="0" IVar="-1" Cut="0.0000000000000000e+00" cType="1" res="4.5786786824464798e-02" rms="3.2233449816703796e-01" purity="6.2546908855438232e-01" nType="-99"/>
          </Node>
        </Node>
        <Node pos="r" depth="1" NCoef="0" IVar="1" Cut="1.6928708553314209e-01" cType="1" res="-3.2435243483632803e-03" rms="2.1424724161624908e-01" purity="8.7780553102493286e-01" nType="0">
          <Node pos="l" depth="2" NCoef="0" IVar="0" Cut="2.9982653808593750e+03" cType="1" res="-6.2057632021605968e-03" rms="2.3453676700592041e-01" purity="8.4664595127105713e-01" nType="0">
            <Node pos="l" depth="3" NCoef="0" IVar="-1" Cut="0.0000000000000000e+00" cType="1" res="-1.5601426362991333e-02" rms="2.7345013618469238e-01" purity="7.8235870599746704e-01" nType="-99"/>
            <Node pos="r" depth="3" NCoef="0" IVar="-1" Cut="0.0000000000000000e+00" cType="1" res="2.5951595976948738e-02" rms="1.1024163663387299e-01" purity="9.8548358678817749e-01" nType="-99"/>
          </Node>
          <Node pos="r" depth="2" NCoef="0" IVar="-1" Cut="0.0000000000000000e+00" cType="1" res="2.8200630098581314e-02" rms="1.3188324868679047e-01" purity="9.7497737407684326e-01" nType="-99"/>
        </Node>
      </Node>
    </BinaryTree>
    <BinaryTree type="DecisionTree" boostWeight="1.0000000000000000e+00" itree="402">
      <Node pos="s" depth="0" NCoef="0" IVar="4" Cut="2.4355023193359375e+02" cType="1" res="-1.5722010284662247e-03" rms="2.3898895084857941e-01" purity="4.9755880236625671e-01" nType="0">
        <Node pos="l" depth="1" NCoef="0" IVar="4" Cut="1.6298197937011719e+02" cType="1" res="-6.2601738609373569e-03" rms="2.5021281838417053e-01" purity="2.4611476063728333e-01" nType="0">
          <Node pos="l" depth="2" NCoef="0" IVar="4" Cut="1.2205500030517578e+02" cType="1" res="1.5614661388099194e-03" rms="2.0875798165798187e-01" purity="8.7148442864418030e-02" nType="0">
            <Node pos="l" depth="3" NCoef="0" IVar="-1" Cut="0.0000000000000000e+00" cType="1" res="-3.0774880200624466e-02" rms="1.5094420313835144e-01" purity="2.8956968337297440e-02" nType="-99"/>
            <Node pos="r" depth="3" NCoef="0" IVar="-1" Cut="0.0000000000000000e+00" cType="1" res="1.3142818585038185e-02" rms="2.3615282773971558e-01" purity="1.2148283421993256e-01" nType="-99"/>
          </Node>
          <Node pos="r" depth="2" NCoef="0" IVar="4" Cut="2.0518392944335938e+02" cType="1" res="-1.1725457385182381e-02" rms="2.7536961436271667e-01" purity="3.5719066858291626e-01" nType="0">
            <Node pos="l" depth="3" NCoef="0" IVar="-1" Cut="0.0000000000000000e+00" cType="1" res="-2.3968128487467766e-02" rms="2.6670792698860168e-01" purity="2.5317284464836121e-01" nType="-99"/>
            <Node pos="r" depth="3" NCoef="0" IVar="-1" Cut="0.0000000000000000e+00" cType="1" res="-3.7234558258205652e-03" rms="2.8564065694808960e-01" purity="4.8778882622718811e-01" nType="-99"/>
          </Node>
        </Node>
        <Node pos="r" depth="1" NCoef="0" IVar="6" Cut="7.3090922832489014e-01" cType="1" res="4.7509400174021721e-03" rms="2.2280077636241913e-01" purity="8.3670675754547119e-01" nType="0">
          <Node pos="l" depth="2" NCoef="0" IVar="1" Cut="5.9425797313451767e-02" cType="1" res="2.1949736401438713e-03" rms="2.1621926128864288e-01" purity="8.7007921934127808e-01" nType="0">
            <Node pos="l" depth="3" NCoef="0" IVar="-1" Cut="0.0000000000000000e+00" cType="1" res="-7.7569936402142048e-03" rms="2.8715386986732483e-01" purity="6.7173302173614502e-01" nType="-99"/>
            <Node pos="r" depth="3" NCoef="0" IVar="-1" Cut="0.0000000000000000e+00" cType="1" res="1.2358445674180984e-02" rms="1.8971219658851624e-01" purity="9.2968362569808960e-01" nType="-99"/>
          </Node>
          <Node pos="r" depth="2" NCoef="0" IVar="3" Cut="3.7762008666992188e+02" cType="1" res="1.9761141389608383e-02" rms="2.5757509469985962e-01" purity="6.4072304964065552e-01" nType="0">
            <Node pos="l" depth="3" NCoef="0" IVar="-1" Cut="0.0000000000000000e+00" cType="1" res="3.8989823311567307e-02" rms="2.7718085050582886e-01" purity="4.6844336390495300e-01" nType="-99"/>
            <Node pos="r" depth="3" NCoef="0" IVar="-1" Cut="0.0000000000000000e+00" cType="1" res="1.6379939392209053e-02" rms="2.3560547828674316e-01" purity="8.1674683094024658e-01" nType="-99"/>
          </Node>
        </Node>
      </Node>
    </BinaryTree>
    <BinaryTree type="DecisionTree" boostWeight="1.0000000000000000e+00" itree="403">
      <Node pos="s" depth="0" NCoef="0" IVar="7" Cut="-6.6526067256927490e-01" cType="1" res="-2.1792177576571703e-03" rms="2.4528145790100098e-01" purity="5.0448405742645264e-01" nType="0">
        <Node pos="l" depth="1" NCoef="0" IVar="9" Cut="1.3566057384014130e-01" cType="1" res="4.1339411400258541e-03" rms="2.5094503164291382e-01" purity="3.7256684899330139e-01" nType="0">
          <Node pos="l" depth="2" NCoef="0" IVar="0" Cut="1.6095695800781250e+03" cType="1" res="9.0616950765252113e-03" rms="2.5087580084800720e-01" purity="3.8065800070762634e-01" nType="0">
            <Node pos="l" depth="3" NCoef="0" IVar="-1" Cut="0.0000000000000000e+00" cType="1" res="-2.6894506067037582e-02" rms="1.2360098212957382e-01" purity="1.6654770821332932e-02" nType="-99"/>
            <Node pos="r" depth="3" NCoef="0" IVar="-1" Cut="0.0000000000000000e+00" cType="1" res="1.8588416278362274e-02" rms="2.8992468118667603e-01" purity="5.4298299551010132e-01" nType="-99"/>
          </Node>
          <Node pos="r" depth="2" NCoef="0" IVar="4" Cut="2.4046334838867188e+02" cType="1" res="-3.3208320382982492e-03" rms="2.5086584687232971e-01" purity="3.6032640933990479e-01" nType="0">
            <Node pos="l" depth="3" NCoef="0" IVar="-1" Cut="0.0000000000000000e+00" cType="1" res="8.6784744635224342e-03" rms="2.4940000474452972e-01" purity="1.7253348231315613e-01" nType="-99"/>
            <Node pos="r" depth="3" NCoef="0" IVar="-1" Cut="0.0000000000000000e+00" cType="1" res="-2.8343925252556801e-02" rms="2.5288346409797668e-01" purity="7.2635906934738159e-01" nType="-99"/>
          </Node>
        </Node>
        <Node pos="r" depth="1" NCoef="0" IVar="9" Cut="-1.7322714328765869e+00" cType="1" res="-4.1721751913428307e-03" rms="2.4343220889568329e-01" purity="5.4612815380096436e-01" nType="0">
          <Node pos="l" depth="2" NCoef="0" IVar="-1" Cut="0.0000000000000000e+00" cType="1" res="-2.8831847012042999e-02" rms="2.7041256427764893e-01" purity="2.6290631294250488e-01" nType="-99"/>
          <Node pos="r" depth="2" NCoef="0" IVar="9" Cut="-1.3007631301879883e+00" cType="1" res="-3.1951477285474539e-03" rms="2.4185451865196228e-01" purity="5.6138783693313599e-01" nType="0">
            <Node pos="l" depth="3" NCoef="0" IVar="-1" Cut="0.0000000000000000e+00" cType="1" res="2.1674519404768944e-02" rms="2.6836988329887390e-01" purity="5.4622954130172729e-01" nType="-99"/>
            <Node pos="r" depth="3" NCoef="0" IVar="-1" Cut="0.0000000000000000e+00" cType="1" res="-7.5493408367037773e-03" rms="2.3993393778800964e-01" purity="5.6239420175552368e-01" nType="-99"/>
          </Node>
        </Node>
      </Node>
    </BinaryTree>
    <BinaryTree type="DecisionTree" boostWeight="1.0000000000000000e+00" itree="404">
      <Node pos="s" depth="0" NCoef="0" IVar="8" Cut="-6.6657793521881104e-01" cType="1" res="2.9749486129730940e-03" rms="2.4388639628887177e-01" purity="5.0034648180007935e-01" nType="0">
        <Node pos="l" depth="1" NCoef="0" IVar="7" Cut="-1.1922720670700073e+00" cType="1" res="1.3282556086778641e-02" rms="2.5897359848022461e-01" purity="4.1618010401725769e-01" nType="0">
          <Node pos="l" depth="2" NCoef="0" IVar="-1" Cut="0.0000000000000000e+00" cType="1" res="-2.1742153912782669e-02" rms="2.0209664106369019e-01" purity="1.5417113900184631e-01" nType="-99"/>
          <Node pos="r" depth="2" NCoef="0" IVar="7" Cut="8.9756286144256592e-01" cType="1" res="1.6962602734565735e-02" rms="2.6629316806793213e-01" purity="4.5562708377838135e-01" nType="0">
            <Node pos="l" depth="3" NCoef="0" IVar="-1" Cut="0.0000000000000000e+00" cType="1" res="3.2384995371103287e-02" rms="2.7418157458305359e-01" purity="5.1256406307220459e-01" nType="-99"/>
            <Node pos="r" depth="3" NCoef="0" IVar="-1" Cut="0.0000000000000000e+00" cType="1" res="-4.1275224648416042e-03" rms="2.3096200823783875e-01" purity="2.2726128995418549e-01" nType="-99"/>
          </Node>
        </Node>
        <Node pos="r" depth="1" NCoef="0" IVar="4" Cut="2.9054785156250000e+02" cType="1" res="-6.3168414635583758e-04" rms="2.3827669024467468e-01" purity="5.2979636192321777e-01" nType="0">
          <Node pos="l" depth="2" NCoef="0" IVar="7" Cut="-9.2918568849563599e-01" cType="1" res="2.0150262862443924e-03" rms="2.5442460179328918e-01" purity="3.6414074897766113e-01" nType="0">
            <Node pos="l" depth="3" NCoef="0" IVar="-1" Cut="0.0000000000000000e+00" cType="1" res="2.6862910017371178e-02" rms="2.4801461398601532e-01" purity="2.3979400098323822e-01" nType="-99"/>
            <Node pos="r" depth="3" NCoef="0" IVar="-1" Cut="0.0000000000000000e+00" cType="1" res="-1.5652197180315852e-03" rms="2.5573551654815674e-01" purity="3.9199459552764893e-01" nType="-99"/>
          </Node>
          <Node pos="r" depth="2" NCoef="0" IVar="0" Cut="2.3889875488281250e+03" cType="1" res="-6.7584896460175514e-03" rms="1.9571578502655029e-01" purity="9.1326844692230225e-01" nType="0">
            <Node pos="l" depth="3" NCoef="0" IVar="-1" Cut="0.0000000000000000e+00" cType="1" res="-2.4540012702345848e-02" rms="3.3933302760124207e-01" purity="6.3172245025634766e-01" nType="-99"/>
            <Node pos="r" depth="3" NCoef="0" IVar="-1" Cut="0.0000000000000000e+00" cType="1" res="-1.1440254747867584e-02" rms="1.5527778863906860e-01" purity="9.6490699052810669e-01" nType="-99"/>
          </Node>
        </Node>
      </Node>
    </BinaryTree>
    <BinaryTree type="DecisionTree" boostWeight="1.0000000000000000e+00" itree="405">
      <Node pos="s" depth="0" NCoef="0" IVar="6" Cut="-5.6077247858047485e-01" cType="1" res="1.8799036042764783e-03" rms="2.4474197626113892e-01" purity="4.9522623419761658e-01" nType="0">
        <Node pos="l" depth="1" NCoef="0" IVar="7" Cut="-1.3065022230148315e-01" cType="1" res="1.0020692832767963e-02" rms="2.4686810374259949e-01" purity="3.5996040701866150e-01" nType="0">
          <Node pos="l" depth="2" NCoef="0" IVar="9" Cut="-9.2520499229431152e-01" cType="1" res="1.3687040191143751e-03" rms="2.4514204263687134e-01" purity="3.6745068430900574e-01" nType="0">
            <Node pos="l" depth="3" NCoef="0" IVar="-1" Cut="0.0000000000000000e+00" cType="1" res="2.7285866439342499e-02" rms="2.5345310568809509e-01" purity="3.0389329791069031e-01" nType="-99"/>
            <Node pos="r" depth="3" NCoef="0" IVar="-1" Cut="0.0000000000000000e+00" cType="1" res="-7.3047610931098461e-03" rms="2.4161987006664276e-01" purity="3.9192369580268860e-01" nType="-99"/>
          </Node>
          <Node pos="r" depth="2" NCoef="0" IVar="8" Cut="9.3244099617004395e-01" cType="1" res="1.7229411751031876e-02" rms="2.4806672334671021e-01" purity="3.5371962189674377e-01" nType="0">
            <Node pos="l" depth="3" NCoef="0" IVar="-1" Cut="0.0000000000000000e+00" cType="1" res="3.6926083266735077e-02" rms="2.6331365108489990e-01" purity="4.1223478317260742e-01" nType="-99"/>
            <Node pos="r" depth="3" NCoef="0" IVar="-1" Cut="0.0000000000000000e+00" cType="1" res="-9.3461554497480392e-03" rms="1.8902656435966492e-01" purity="1.6459563374519348e-01" nType="-99"/>
          </Node>
        </Node>
        <Node pos="r" depth="1" NCoef="0" IVar="8" Cut="4.0000876784324646e-01" cType="1" res="-8.0994440941140056e-04" rms="2.4397569894790649e-01" purity="5.3992027044296265e-01" nType="0">
          <Node pos="l" depth="2" NCoef="0" IVar="6" Cut="7.8889921307563782e-02" cType="1" res="2.8717082459479570e-03" rms="2.4289956688880920e-01" purity="5.6440979242324829e-01" nType="0">
            <Node pos="l" depth="3" NCoef="0" IVar="-1" Cut="0.0000000000000000e+00" cType="1" res="-1.3186059892177582e-02" rms="2.3908720910549164e-01" purity="6.6204583644866943e-01" nType="-99"/>
            <Node pos="r" depth="3" NCoef="0" IVar="-1" Cut="0.0000000000000000e+00" cType="1" res="1.6020340844988823e-02" rms="2.4507966637611389e-01" purity="5.0146353244781494e-01" nType="-99"/>
          </Node>
          <Node pos="r" depth="2" NCoef="0" IVar="5" Cut="1.8338121032714844e+02" cType="1" res="-7.6749245636165142e-03" rms="2.4582253396511078e-01" purity="4.9425598978996277e-01" nType="0">
            <Node pos="l" depth="3" NCoef="0" IVar="-1" Cut="0.0000000000000000e+00" cType="1" res="-2.0531734451651573e-02" rms="2.5938504934310913e-01" purity="2.7703988552093506e-01" nType="-99"/>
            <Node pos="r" depth="3" NCoef="0" IVar="-1" Cut="0.0000000000000000e+00" cType="1" res="1.0579442605376244e-02" rms="2.1875846385955811e-01" purity="8.8447141647338867e-01" nType="-99"/>
          </Node>
        </Node>
      </Node>
    </BinaryTree>
    <BinaryTree type="DecisionTree" boostWeight="1.0000000000000000e+00" itree="406">
      <Node pos="s" depth="0" NCoef="0" IVar="7" Cut="-6.6651457548141479e-01" cType="1" res="-2.5174976326525211e-03" rms="2.4626542627811432e-01" purity="5.0071632862091064e-01" nType="0">
        <Node pos="l" depth="1" NCoef="0" IVar="7" Cut="-1.1744560003280640e+00" cType="1" res="7.2222761809825897e-03" rms="2.5105077028274536e-01" purity="3.6770641803741455e-01" nType="0">
          <Node pos="l" depth="2" NCoef="0" IVar="4" Cut="2.3511160278320312e+02" cType="1" res="-6.2130480073392391e-03" rms="2.3428562283515930e-01" purity="2.0681931078433990e-01" nType="0">
            <Node pos="l" depth="3" NCoef="0" IVar="-1" Cut="0.0000000000000000e+00" cType="1" res="-2.7109099552035332e-02" rms="2.0440797507762909e-01" purity="9.2655904591083527e-02" nType="-99"/>
            <Node pos="r" depth="3" NCoef="0" IVar="-1" Cut="0.0000000000000000e+00" cType="1" res="1.1825595051050186e-02" rms="2.9622459411621094e-01" purity="4.9625045061111450e-01" nType="-99"/>
          </Node>
          <Node pos="r" depth="2" NCoef="0" IVar="6" Cut="-7.2194546461105347e-01" cType="1" res="1.8997780978679657e-02" rms="2.6431253552436829e-01" purity="5.0871729850769043e-01" nType="0">
            <Node pos="l" depth="3" NCoef="0" IVar="-1" Cut="0.0000000000000000e+00" cType="1" res="-1.1164186522364616e-02" rms="2.2394415736198425e-01" purity="2.8801590204238892e-01" nType="-99"/>
            <Node pos="r" depth="3" NCoef="0" IVar="-1" Cut="0.0000000000000000e+00" cType="1" res="3.5931784659624100e-02" rms="2.7382996678352356e-01" purity="5.6856209039688110e-01" nType="-99"/>
          </Node>
        </Node>
        <Node pos="r" depth="1" NCoef="0" IVar="1" Cut="1.4104671776294708e-01" cType="1" res="-5.6012440472841263e-03" rms="2.4465002119541168e-01" purity="5.4282915592193604e-01" nType="0">
          <Node pos="l" depth="2" NCoef="0" IVar="8" Cut="-1.3289563357830048e-01" cType="1" res="-8.7642138823866844e-03" rms="2.5476732850074768e-01" purity="4.4923329353332520e-01" nType="0">
            <Node pos="l" depth="3" NCoef="0" IVar="-1" Cut="0.0000000000000000e+00" cType="1" res="-2.2679407149553299e-02" rms="2.5714087486267090e-01" purity="4.2748448252677917e-01" nType="-99"/>
            <Node pos="r" depth="3" NCoef="0" IVar="-1" Cut="0.0000000000000000e+00" cType="1" res="-4.8473626375198364e-03" rms="2.5272244215011597e-01" purity="4.6656906604766846e-01" nType="-99"/>
          </Node>
          <Node pos="r" depth="2" NCoef="0" IVar="5" Cut="1.6095272827148438e+02" cType="1" res="5.4648909717798233e-03" rms="2.0498366653919220e-01" purity="8.7028843164443970e-01" nType="0">
            <Node pos="l" depth="3" NCoef="0" IVar="-1" Cut="0.0000000000000000e+00" cType="1" res="3.3297996968030930e-02" rms="3.2044002413749695e-01" purity="6.1298376321792603e-01" nType="-99"/>
            <Node pos="r" depth="3" NCoef="0" IVar="-1" Cut="0.0000000000000000e+00" cType="1" res="-8.6091281846165657e-03" rms="1.5729039907455444e-01" purity="9.4237816333770752e-01" nType="-99"/>
          </Node>
        </Node>
      </Node>
    </BinaryTree>
    <BinaryTree type="DecisionTree" boostWeight="1.0000000000000000e+00" itree="407">
      <Node pos="s" depth="0" NCoef="0" IVar="2" Cut="4.4381143188476562e+02" cType="1" res="-1.0430720867589116e-03" rms="2.4279353022575378e-01" purity="4.9721089005470276e-01" nType="0">
        <Node pos="l" depth="1" NCoef="0" IVar="7" Cut="-3.9985984563827515e-01" cType="1" res="3.9902562275528908e-03" rms="2.6049813628196716e-01" purity="3.1222170591354370e-01" nType="0">
          <Node pos="l" depth="2" NCoef="0" IVar="6" Cut="-1.4583973214030266e-02" cType="1" res="-4.4624526053667068e-03" rms="2.3885734379291534e-01" purity="2.4981799721717834e-01" nType="0">
            <Node pos="l" depth="3" NCoef="0" IVar="-1" Cut="0.0000000000000000e+00" cType="1" res="-2.5448938831686974e-02" rms="2.4257017672061920e-01" purity="2.6726984977722168e-01" nType="-99"/>
            <Node pos="r" depth="3" NCoef="0" IVar="-1" Cut="0.0000000000000000e+00" cType="1" res="1.1221538297832012e-02" rms="2.3508942127227783e-01" purity="2.3480661213397980e-01" nType="-99"/>
          </Node>
          <Node pos="r" depth="2" NCoef="0" IVar="5" Cut="1.5895228576660156e+02" cType="1" res="9.0533532202243805e-03" rms="2.7251389622688293e-01" purity="3.4960100054740906e-01" nType="0">
            <Node pos="l" depth="3" NCoef="0" IVar="-1" Cut="0.0000000000000000e+00" cType="1" res="2.8315788134932518e-02" rms="2.6544487476348877e-01" purity="1.6264608502388000e-01" nType="-99"/>
            <Node pos="r" depth="3" NCoef="0" IVar="-1" Cut="0.0000000000000000e+00" cType="1" res="-4.1189487092196941e-03" rms="2.8188982605934143e-01" purity="6.1811250448226929e-01" nType="-99"/>
          </Node>
        </Node>
        <Node pos="r" depth="1" NCoef="0" IVar="8" Cut="-1.4669857025146484e+00" cType="1" res="-3.8467082194983959e-03" rms="2.3230025172233582e-01" purity="6.0025250911712646e-01" nType="0">
          <Node pos="l" depth="2" NCoef="0" IVar="-1" Cut="0.0000000000000000e+00" cType="1" res="-3.1335487961769104e-02" rms="2.6576066017150879e-01" purity="2.6457917690277100e-01" nType="-99"/>
          <Node pos="r" depth="2" NCoef="0" IVar="8" Cut="7.6649194955825806e-01" cType="1" res="-2.6394857559353113e-03" rms="2.2969840466976166e-01" purity="6.2402027845382690e-01" nType="0">
            <Node pos="l" depth="3" NCoef="0" IVar="-1" Cut="0.0000000000000000e+00" cType="1" res="2.0559072436299175e-04" rms="2.2419065237045288e-01" purity="6.6446459293365479e-01" nType="-99"/>
            <Node pos="r" depth="3" NCoef="0" IVar="-1" Cut="0.0000000000000000e+00" cType="1" res="-1.8534645438194275e-02" rms="2.4809345602989197e-01" purity="4.7983759641647339e-01" nType="-99"/>
          </Node>
        </Node>
      </Node>
    </BinaryTree>
    <BinaryTree type="DecisionTree" boostWeight="1.0000000000000000e+00" itree="408">
      <Node pos="s" depth="0" NCoef="0" IVar="9" Cut="-9.3279838562011719e-01" cType="1" res="4.3225567787885666e-04" rms="2.4588564038276672e-01" purity="5.0338906049728394e-01" nType="0">
        <Node pos="l" depth="1" NCoef="0" IVar="1" Cut="3.8940217345952988e-02" cType="1" res="-8.1192320212721825e-03" rms="2.5536763668060303e-01" purity="3.9699339866638184e-01" nType="0">
          <Node pos="l" depth="2" NCoef="0" IVar="4" Cut="2.0692141723632812e+02" cType="1" res="8.8050635531544685e-03" rms="2.1885865926742554e-01" purity="1.4578677713871002e-01" nType="0">
            <Node pos="l" depth="3" NCoef="0" IVar="-1" Cut="0.0000000000000000e+00" cType="1" res="-1.0459296405315399e-02" rms="1.7494128644466400e-01" purity="6.4922355115413666e-02" nType="-99"/>
            <Node pos="r" depth="3" NCoef="0" IVar="-1" Cut="0.0000000000000000e+00" cType="1" res="4.7912485897541046e-02" rms="2.9435327649116516e-01" purity="3.3244010806083679e-01" nType="-99"/>
          </Node>
          <Node pos="r" depth="2" NCoef="0" IVar="1" Cut="9.1629035770893097e-02" cType="1" res="-1.8373450264334679e-02" rms="2.7463427186012268e-01" purity="5.4919636249542236e-01" nType="0">
            <Node pos="l" depth="3" NCoef="0" IVar="-1" Cut="0.0000000000000000e+00" cType="1" res="-3.5378631204366684e-02" rms="2.8279858827590942e-01" purity="3.7017348408699036e-01" nType="-99"/>
            <Node pos="r" depth="3" NCoef="0" IVar="-1" Cut="0.0000000000000000e+00" cType="1" res="-4.2529739439487457e-03" rms="2.6588967442512512e-01" purity="7.1644145250320435e-01" nType="-99"/>
          </Node>
        </Node>
        <Node pos="r" depth="1" NCoef="0" IVar="4" Cut="1.4955502319335938e+02" cType="1" res="2.8597391210496426e-03" rms="2.4307182431221008e-01" purity="5.3359127044677734e-01" nType="0">
          <Node pos="l" depth="2" NCoef="0" IVar="9" Cut="1.3755625486373901e+00" cType="1" res="-4.4369064271450043e-03" rms="1.9883640110492706e-01" purity="6.4344234764575958e-02" nType="0">
            <Node pos="l" depth="3" NCoef="0" IVar="-1" Cut="0.0000000000000000e+00" cType="1" res="4.2369598522782326e-03" rms="2.0162732899188995e-01" purity="6.6873043775558472e-02" nType="-99"/>
            <Node pos="r" depth="3" NCoef="0" IVar="-1" Cut="0.0000000000000000e+00" cType="1" res="-5.9993609786033630e-02" rms="1.8567392230033875e-01" purity="5.4456979036331177e-02" nType="-99"/>
          </Node>
          <Node pos="r" depth="2" NCoef="0" IVar="8" Cut="-1.1970777511596680e+00" cType="1" res="4.3600965291261673e-03" rms="2.5117769837379456e-01" purity="6.3007920980453491e-01" nType="0">
            <Node pos="l" depth="3" NCoef="0" IVar="-1" Cut="0.0000000000000000e+00" cType="1" res="2.0485674962401390e-02" rms="2.7655845880508423e-01" purity="4.2038607597351074e-01" nType="-99"/>
            <Node pos="r" depth="3" NCoef="0" IVar="-1" Cut="0.0000000000000000e+00" cType="1" res="4.8588444478809834e-03" rms="2.4805468320846558e-01" purity="6.5421199798583984e-01" nType="-99"/>
          </Node>
        </Node>
      </Node>
    </BinaryTree>
    <BinaryTree type="DecisionTree" boostWeight="1.0000000000000000e+00" itree="409">
      <Node pos="s" depth="0" NCoef="0" IVar="1" Cut="1.6536529362201691e-01" cType="1" res="-8.0669636372476816e-04" rms="2.4480397999286652e-01" purity="5.0100988149642944e-01" nType="0">
        <Node pos="l" depth="1" NCoef="0" IVar="8" Cut="3.9963716268539429e-01" cType="1" res="6.7012681392952800e-04" rms="2.4949522316455841e-01" purity="4.4459116458892822e-01" nType="0">
          <Node pos="l" depth="2" NCoef="0" IVar="9" Cut="1.7330832481384277e+00" cType="1" res="3.5369503311812878e-03" rms="2.4931338429450989e-01" purity="4.6152293682098389e-01" nType="0">
            <Node pos="l" depth="3" NCoef="0" IVar="-1" Cut="0.0000000000000000e+00" cType="1" res="2.8101806528866291e-03" rms="2.4725906550884247e-01" purity="4.7382342815399170e-01" nType="-99"/>
            <Node pos="r" depth="3" NCoef="0" IVar="-1" Cut="0.0000000000000000e+00" cType="1" res="4.5572236180305481e-02" rms="2.7745717763900757e-01" purity="2.7369579672813416e-01" nType="-99"/>
          </Node>
          <Node pos="r" depth="2" NCoef="0" IVar="9" Cut="4.0134090185165405e-01" cType="1" res="-4.7299889847636223e-03" rms="2.4974800646305084e-01" purity="4.1269749402999878e-01" nType="0">
            <Node pos="l" depth="3" NCoef="0" IVar="-1" Cut="0.0000000000000000e+00" cType="1" res="5.9804820921272039e-04" rms="2.5905913114547729e-01" purity="4.4067972898483276e-01" nType="-99"/>
            <Node pos="r" depth="3" NCoef="0" IVar="-1" Cut="0.0000000000000000e+00" cType="1" res="-1.9008712843060493e-02" rms="2.3495717346668243e-01" purity="3.7092941999435425e-01" nType="-99"/>
          </Node>
        </Node>
        <Node pos="r" depth="1" NCoef="0" IVar="0" Cut="2.0672792968750000e+03" cType="1" res="-9.9571105092763901e-03" rms="2.1322283148765564e-01" purity="8.5058081150054932e-01" nType="0">
          <Node pos="l" depth="2" NCoef="0" IVar="-1" Cut="0.0000000000000000e+00" cType="1" res="-2.4168992415070534e-02" rms="3.6397755146026611e-01" purity="4.1616615653038025e-01" nType="-99"/>
          <Node pos="r" depth="2" NCoef="0" IVar="-1" Cut="0.0000000000000000e+00" cType="1" res="-1.5939842909574509e-02" rms="1.4016118645668030e-01" purity="9.7832846641540527e-01" nType="-99"/>
        </Node>
      </Node>
    </BinaryTree>
    <BinaryTree type="DecisionTree" boostWeight="1.0000000000000000e+00" itree="410">
      <Node pos="s" depth="0" NCoef="0" IVar="6" Cut="-3.5449746251106262e-01" cType="1" res="-9.3916070181876421e-04" rms="2.4502910673618317e-01" purity="4.9878850579261780e-01" nType="0">
        <Node pos="l" depth="1" NCoef="0" IVar="6" Cut="-4.6701920032501221e-01" cType="1" res="6.0148146003484726e-03" rms="2.5194808840751648e-01" purity="4.2380413413047791e-01" nType="0">
          <Node pos="l" depth="2" NCoef="0" IVar="2" Cut="3.2241647338867188e+02" cType="1" res="3.4475182183086872e-03" rms="2.4991247057914734e-01" purity="3.8757932186126709e-01" nType="0">
            <Node pos="l" depth="3" NCoef="0" IVar="-1" Cut="0.0000000000000000e+00" cType="1" res="3.2100081443786621e-02" rms="2.8541609644889832e-01" purity="1.7010319232940674e-01" nType="-99"/>
            <Node pos="r" depth="3" NCoef="0" IVar="-1" Cut="0.0000000000000000e+00" cType="1" res="1.8703757086768746e-03" rms="2.4460391700267792e-01" purity="4.1709327697753906e-01" nType="-99"/>
          </Node>
          <Node pos="r" depth="2" NCoef="0" IVar="-1" Cut="0.0000000000000000e+00" cType="1" res="3.1921584159135818e-02" rms="2.6322770118713379e-01" purity="6.3953703641891479e-01" nType="-99"/>
        </Node>
        <Node pos="r" depth="1" NCoef="0" IVar="8" Cut="1.7307437658309937e+00" cType="1" res="-4.3442603200674057e-03" rms="2.4149584770202637e-01" purity="5.3550547361373901e-01" nType="0">
          <Node pos="l" depth="2" NCoef="0" IVar="6" Cut="9.5645703375339508e-02" cType="1" res="-5.2564702928066254e-03" rms="2.4049760401248932e-01" purity="5.4818356037139893e-01" nType="0">
            <Node pos="l" depth="3" NCoef="0" IVar="-1" Cut="0.0000000000000000e+00" cType="1" res="7.9253228614106774e-04" rms="2.4984222650527954e-01" purity="6.8630456924438477e-01" nType="-99"/>
            <Node pos="r" depth="3" NCoef="0" IVar="-1" Cut="0.0000000000000000e+00" cType="1" res="-1.3096032664179802e-02" rms="2.3605792224407196e-01" purity="4.8506841063499451e-01" nType="-99"/>
          </Node>
          <Node pos="r" depth="2" NCoef="0" IVar="-1" Cut="0.0000000000000000e+00" cType="1" res="2.4409707635641098e-02" rms="2.6281520724296570e-01" purity="2.3976312577724457e-01" nType="-99"/>
        </Node>
      </Node>
    </BinaryTree>
    <BinaryTree type="DecisionTree" boostWeight="1.0000000000000000e+00" itree="411">
      <Node pos="s" depth="0" NCoef="0" IVar="0" Cut="2.1988310546875000e+03" cType="1" res="4.6071466058492661e-03" rms="2.4578115344047546e-01" purity="5.0818717479705811e-01" nType="0">
        <Node pos="l" depth="1" NCoef="0" IVar="0" Cut="1.7042866210937500e+03" cType="1" res="8.9628212153911591e-03" rms="2.6973956823348999e-01" purity="1.9273191690444946e-01" nType="0">
          <Node pos="l" depth="2" NCoef="0" IVar="4" Cut="2.2024993896484375e+02" cType="1" res="1.4838376082479954e-03" rms="1.8557666242122650e-01" purity="4.4191692024469376e-02" nType="0">
            <Node pos="l" depth="3" NCoef="0" IVar="-1" Cut="0.0000000000000000e+00" cType="1" res="1.2947011739015579e-02" rms="1.8671008944511414e-01" purity="4.4714450836181641e-02" nType="-99"/>
            <Node pos="r" depth="3" NCoef="0" IVar="-1" Cut="0.0000000000000000e+00" cType="1" res="-3.5184867680072784e-02" rms="1.7724877595901489e-01" purity="4.0914438664913177e-02" nType="-99"/>
          </Node>
          <Node pos="r" depth="2" NCoef="0" IVar="7" Cut="4.0548300743103027e-01" cType="1" res="1.9012615084648132e-02" rms="3.5224464535713196e-01" purity="3.9233100414276123e-01" nType="0">
            <Node pos="l" depth="3" NCoef="0" IVar="-1" Cut="0.0000000000000000e+00" cType="1" res="8.4931533783674240e-03" rms="3.5749903321266174e-01" purity="3.9658415317535400e-01" nType="-99"/>
            <Node pos="r" depth="3" NCoef="0" IVar="-1" Cut="0.0000000000000000e+00" cType="1" res="2.8195118531584740e-02" rms="3.4195670485496521e-01" purity="3.8459071516990662e-01" nType="-99"/>
          </Node>
        </Node>
        <Node pos="r" depth="1" NCoef="0" IVar="9" Cut="-1.1987149715423584e+00" cType="1" res="-9.4661157345399261e-04" rms="2.1119889616966248e-01" purity="9.1041225194931030e-01" nType="0">
          <Node pos="l" depth="2" NCoef="0" IVar="-1" Cut="0.0000000000000000e+00" cType="1" res="1.6297936439514160e-02" rms="2.5429034233093262e-01" purity="8.6150050163269043e-01" nType="-99"/>
          <Node pos="r" depth="2" NCoef="0" IVar="8" Cut="-9.3341535329818726e-01" cType="1" res="-2.4369242601096630e-03" rms="2.0574483275413513e-01" purity="9.1590368747711182e-01" nType="0">
            <Node pos="l" depth="3" NCoef="0" IVar="-1" Cut="0.0000000000000000e+00" cType="1" res="-2.6957411319017410e-02" rms="2.4208539724349976e-01" purity="8.7253063917160034e-01" nType="-99"/>
            <Node pos="r" depth="3" NCoef="0" IVar="-1" Cut="0.0000000000000000e+00" cType="1" res="-1.7431956948712468e-03" rms="2.0018011331558228e-01" purity="9.2185872793197632e-01" nType="-99"/>
          </Node>
        </Node>
      </Node>
    </BinaryTree>
    <BinaryTree type="DecisionTree" boostWeight="1.0000000000000000e+00" itree="412">
      <Node pos="s" depth="0" NCoef="0" IVar="9" Cut="-9.3259066343307495e-01" cType="1" res="1.7638570861890912e-03" rms="2.4658705294132233e-01" purity="5.1077711582183838e-01" nType="0">
        <Node pos="l" depth="1" NCoef="0" IVar="6" Cut="6.9559741020202637e-01" cType="1" res="9.2578548938035965e-03" rms="2.6566988229751587e-01" purity="4.3184667825698853e-01" nType="0">
          <Node pos="l" depth="2" NCoef="0" IVar="9" Cut="-1.9100311994552612e+00" cType="1" res="3.7386661861091852e-03" rms="2.6478350162506104e-01" purity="4.7431871294975281e-01" nType="0">
            <Node pos="l" depth="3" NCoef="0" IVar="-1" Cut="0.0000000000000000e+00" cType="1" res="4.4983204454183578e-02" rms="2.7894192934036255e-01" purity="2.8141814470291138e-01" nType="-99"/>
            <Node pos="r" depth="3" NCoef="0" IVar="-1" Cut="0.0000000000000000e+00" cType="1" res="-4.7544441185891628e-03" rms="2.6071628928184509e-01" purity="5.2126508951187134e-01" nType="-99"/>
          </Node>
          <Node pos="r" depth="2" NCoef="0" IVar="-1" Cut="0.0000000000000000e+00" cType="1" res="5.6146528571844101e-02" rms="2.6799929141998291e-01" purity="2.6798215508460999e-01" nType="-99"/>
        </Node>
        <Node pos="r" depth="1" NCoef="0" IVar="9" Cut="-7.5484269857406616e-01" cType="1" res="-2.3529682948719710e-04" rms="2.4120211601257324e-01" purity="5.3183311223983765e-01" nType="0">
          <Node pos="l" depth="2" NCoef="0" IVar="-1" Cut="0.0000000000000000e+00" cType="1" res="-3.7831760942935944e-02" rms="2.3904792964458466e-01" purity="5.7009702920913696e-01" nType="-99"/>
          <Node pos="r" depth="2" NCoef="0" IVar="2" Cut="4.2598275756835938e+02" cType="1" res="1.1912803165614605e-03" rms="2.4125948548316956e-01" purity="5.2949965000152588e-01" nType="0">
            <Node pos="l" depth="3" NCoef="0" IVar="-1" Cut="0.0000000000000000e+00" cType="1" res="1.2304794974625111e-02" rms="2.6177942752838135e-01" purity="3.2336673140525818e-01" nType="-99"/>
            <Node pos="r" depth="3" NCoef="0" IVar="-1" Cut="0.0000000000000000e+00" cType="1" res="-3.5641940776258707e-03" rms="2.3175472021102905e-01" purity="6.1862766742706299e-01" nType="-99"/>
          </Node>
        </Node>
      </Node>
    </BinaryTree>
    <BinaryTree type="DecisionTree" boostWeight="1.0000000000000000e+00" itree="413">
      <Node pos="s" depth="0" NCoef="0" IVar="9" Cut="1.7332456111907959e+00" cType="1" res="1.3562003150582314e-03" rms="2.4348603188991547e-01" purity="5.0060677528381348e-01" nType="0">
        <Node pos="l" depth="1" NCoef="0" IVar="8" Cut="-1.9999748468399048e+00" cType="1" res="2.7981160674244165e-03" rms="2.4257750809192657e-01" purity="5.1661872863769531e-01" nType="0">
          <Node pos="l" depth="2" NCoef="0" IVar="-1" Cut="0.0000000000000000e+00" cType="1" res="6.2082163989543915e-02" rms="2.5835838913917542e-01" purity="1.4637231826782227e-01" nType="-99"/>
          <Node pos="r" depth="2" NCoef="0" IVar="2" Cut="9.3051434326171875e+02" cType="1" res="2.0495750941336155e-03" rms="2.4206316471099854e-01" purity="5.2736282348632812e-01" nType="0">
            <Node pos="l" depth="3" NCoef="0" IVar="-1" Cut="0.0000000000000000e+00" cType="1" res="4.3467469513416290e-03" rms="2.3993226885795593e-01" purity="5.1848614215850830e-01" nType="-99"/>
            <Node pos="r" depth="3" NCoef="0" IVar="-1" Cut="0.0000000000000000e+00" cType="1" res="-1.6689261421561241e-02" rms="2.9037919640541077e-01" purity="7.5203227996826172e-01" nType="-99"/>
          </Node>
        </Node>
        <Node pos="r" depth="1" NCoef="0" IVar="1" Cut="4.3661989271640778e-02" cType="1" res="-2.2555554285645485e-02" rms="2.5690937042236328e-01" purity="2.3507559299468994e-01" nType="0">
          <Node pos="l" depth="2" NCoef="0" IVar="-1" Cut="0.0000000000000000e+00" cType="1" res="-6.2282350845634937e-03" rms="2.0671524107456207e-01" purity="9.2639140784740448e-02" nType="-99"/>
          <Node pos="r" depth="2" NCoef="0" IVar="-1" Cut="0.0000000000000000e+00" cType="1" res="-5.0484385341405869e-02" rms="3.0478820204734802e-01" purity="4.0594574809074402e-01" nType="-99"/>
        </Node>
      </Node>
    </BinaryTree>
    <BinaryTree type="DecisionTree" boostWeight="1.0000000000000000e+00" itree="414">
      <Node pos="s" depth="0" NCoef="0" IVar="1" Cut="8.2761690020561218e-02" cType="1" res="7.8280695015564561e-04" rms="2.4395841360092163e-01" purity="4.9883431196212769e-01" nType="0">
        <Node pos="l" depth="1" NCoef="0" IVar="8" Cut="-4.0032750368118286e-01" cType="1" res="-2.7126038912683725e-03" rms="2.4937328696250916e-01" purity="3.0500507354736328e-01" nType="0">
          <Node pos="l" depth="2" NCoef="0" IVar="0" Cut="1.8318643798828125e+03" cType="1" res="-9.8635414615273476e-03" rms="2.4664884805679321e-01" purity="2.5601106882095337e-01" nType="0">
            <Node pos="l" depth="3" NCoef="0" IVar="-1" Cut="0.0000000000000000e+00" cType="1" res="-3.6123071331530809e-03" rms="1.6937848925590515e-01" purity="3.3972550183534622e-02" nType="-99"/>
            <Node pos="r" depth="3" NCoef="0" IVar="-1" Cut="0.0000000000000000e+00" cType="1" res="-2.0807852968573570e-02" rms="3.2291102409362793e-01" purity="5.5773437023162842e-01" nType="-99"/>
          </Node>
          <Node pos="r" depth="2" NCoef="0" IVar="6" Cut="4.7200053930282593e-01" cType="1" res="1.6970071010291576e-03" rms="2.5093701481819153e-01" purity="3.3521708846092224e-01" nType="0">
            <Node pos="l" depth="3" NCoef="0" IVar="-1" Cut="0.0000000000000000e+00" cType="1" res="9.7793592140078545e-03" rms="2.6508486270904541e-01" purity="3.7787017226219177e-01" nType="-99"/>
            <Node pos="r" depth="3" NCoef="0" IVar="-1" Cut="0.0000000000000000e+00" cType="1" res="-1.3561409898102283e-02" rms="2.2149106860160828e-01" purity="2.5475832819938660e-01" nType="-99"/>
          </Node>
        </Node>
        <Node pos="r" depth="1" NCoef="0" IVar="4" Cut="2.3255078125000000e+02" cType="1" res="5.7073566131293774e-03" rms="2.3603114485740662e-01" purity="7.7191287279129028e-01" nType="0">
          <Node pos="l" depth="2" NCoef="0" IVar="0" Cut="1.5569814453125000e+03" cType="1" res="1.7774812877178192e-02" rms="3.0425882339477539e-01" purity="5.0330084562301636e-01" nType="0">
            <Node pos="l" depth="3" NCoef="0" IVar="-1" Cut="0.0000000000000000e+00" cType="1" res="-1.9819136708974838e-02" rms="2.1672631800174713e-01" purity="4.9688071012496948e-02" nType="-99"/>
            <Node pos="r" depth="3" NCoef="0" IVar="-1" Cut="0.0000000000000000e+00" cType="1" res="2.5371873751282692e-02" rms="3.3038610219955444e-01" purity="6.7234122753143311e-01" nType="-99"/>
          </Node>
          <Node pos="r" depth="2" NCoef="0" IVar="6" Cut="-2.7157971262931824e-01" cType="1" res="-3.2986258156597614e-04" rms="1.9276766479015350e-01" purity="9.0629655122756958e-01" nType="0">
            <Node pos="l" depth="3" NCoef="0" IVar="-1" Cut="0.0000000000000000e+00" cType="1" res="2.8319835662841797e-02" rms="1.9818289577960968e-01" purity="9.1881138086318970e-01" nType="-99"/>
            <Node pos="r" depth="3" NCoef="0" IVar="-1" Cut="0.0000000000000000e+00" cType="1" res="-1.5042198821902275e-02" rms="1.9003890454769135e-01" purity="9.0070462226867676e-01" nType="-99"/>
          </Node>
        </Node>
      </Node>
    </BinaryTree>
    <BinaryTree type="DecisionTree" boostWeight="1.0000000000000000e+00" itree="415">
      <Node pos="s" depth="0" NCoef="0" IVar="5" Cut="1.1808435058593750e+02" cType="1" res="-8.9956214651465416e-04" rms="2.4681080877780914e-01" purity="5.0391477346420288e-01" nType="0">
        <Node pos="l" depth="1" NCoef="0" IVar="2" Cut="3.2279998779296875e+02" cType="1" res="7.4660992249846458e-03" rms="2.3021857440471649e-01" purity="1.1681277304887772e-01" nType="0">
          <Node pos="l" depth="2" NCoef="0" IVar="-1" Cut="0.0000000000000000e+00" cType="1" res="8.9434154331684113e-02" rms="2.6546189188957214e-01" purity="8.9936062693595886e-02" nType="-99"/>
          <Node pos="r" depth="2" NCoef="0" IVar="6" Cut="7.5295233726501465e-01" cType="1" res="4.4813663698732853e-03" rms="2.2573249042034149e-01" purity="1.1982360482215881e-01" nType="0">
            <Node pos="l" depth="3" NCoef="0" IVar="-1" Cut="0.0000000000000000e+00" cType="1" res="1.5169893391430378e-02" rms="2.4554401636123657e-01" purity="1.4361245930194855e-01" nType="-99"/>
            <Node pos="r" depth="3" NCoef="0" IVar="-1" Cut="0.0000000000000000e+00" cType="1" res="-3.0259197577834129e-02" rms="1.4870913326740265e-01" purity="4.6888556331396103e-02" nType="-99"/>
          </Node>
        </Node>
        <Node pos="r" depth="1" NCoef="0" IVar="9" Cut="-9.2961591482162476e-01" cType="1" res="-3.9467159658670425e-03" rms="2.5251492857933044e-01" purity="6.4491486549377441e-01" nType="0">
          <Node pos="l" depth="2" NCoef="0" IVar="9" Cut="-1.1961927413940430e+00" cType="1" res="-1.3515618629753590e-02" rms="2.7685886621475220e-01" purity="5.6387513875961304e-01" nType="0">
            <Node pos="l" depth="3" NCoef="0" IVar="-1" Cut="0.0000000000000000e+00" cType="1" res="-3.6272166762501001e-03" rms="2.8079840540885925e-01" purity="5.3700596094131470e-01" nType="-99"/>
            <Node pos="r" depth="3" NCoef="0" IVar="-1" Cut="0.0000000000000000e+00" cType="1" res="-4.7379288822412491e-02" rms="2.6804342865943909e-01" purity="6.1522138118743896e-01" nType="-99"/>
          </Node>
          <Node pos="r" depth="2" NCoef="0" IVar="6" Cut="4.9175184965133667e-01" cType="1" res="-1.6957952175289392e-03" rms="2.4638533592224121e-01" purity="6.6397804021835327e-01" nType="0">
            <Node pos="l" depth="3" NCoef="0" IVar="-1" Cut="0.0000000000000000e+00" cType="1" res="-8.0805849283933640e-03" rms="2.4165634810924530e-01" purity="7.0480906963348389e-01" nType="-99"/>
            <Node pos="r" depth="3" NCoef="0" IVar="-1" Cut="0.0000000000000000e+00" cType="1" res="1.0563310235738754e-02" rms="2.5884133577346802e-01" purity="5.5068236589431763e-01" nType="-99"/>
          </Node>
        </Node>
      </Node>
    </BinaryTree>
    <BinaryTree type="DecisionTree" boostWeight="1.0000000000000000e+00" itree="416">
      <Node pos="s" depth="0" NCoef="0" IVar="2" Cut="3.1471743774414062e+02" cType="1" res="-2.8343868907541037e-03" rms="2.4229852855205536e-01" purity="4.9777078628540039e-01" nType="0">
        <Node pos="l" depth="1" NCoef="0" IVar="6" Cut="2.1958787739276886e-01" cType="1" res="-2.1714951843023300e-02" rms="2.3983097076416016e-01" purity="1.7618225514888763e-01" nType="0">
          <Node pos="l" depth="2" NCoef="0" IVar="-1" Cut="0.0000000000000000e+00" cType="1" res="-1.6224239021539688e-02" rms="2.5804445147514343e-01" purity="2.0565161108970642e-01" nType="-99"/>
          <Node pos="r" depth="2" NCoef="0" IVar="-1" Cut="0.0000000000000000e+00" cType="1" res="-4.6383939683437347e-02" rms="2.1356931328773499e-01" purity="1.3818798959255219e-01" nType="-99"/>
        </Node>
        <Node pos="r" depth="1" NCoef="0" IVar="7" Cut="6.6622978448867798e-01" cType="1" res="-9.8529958631843328e-04" rms="2.4245980381965637e-01" purity="5.2926588058471680e-01" nType="0">
          <Node pos="l" depth="2" NCoef="0" IVar="5" Cut="2.2610237121582031e+02" cType="1" res="1.3009986141696572e-03" rms="2.4181374907493591e-01" purity="5.6987172365188599e-01" nType="0">
            <Node pos="l" depth="3" NCoef="0" IVar="-1" Cut="0.0000000000000000e+00" cType="1" res="5.7757333852350712e-03" rms="2.6338395476341248e-01" purity="4.3336081504821777e-01" nType="-99"/>
            <Node pos="r" depth="3" NCoef="0" IVar="-1" Cut="0.0000000000000000e+00" cType="1" res="-2.0506666973233223e-02" rms="1.6953028738498688e-01" purity="9.4135355949401855e-01" nType="-99"/>
          </Node>
          <Node pos="r" depth="2" NCoef="0" IVar="1" Cut="1.9843906164169312e-02" cType="1" res="-8.8054817169904709e-03" rms="2.4449513852596283e-01" purity="3.9037537574768066e-01" nType="0">
            <Node pos="l" depth="3" NCoef="0" IVar="-1" Cut="0.0000000000000000e+00" cType="1" res="1.6586247831583023e-02" rms="1.8537759780883789e-01" purity="9.1697864234447479e-02" nType="-99"/>
            <Node pos="r" depth="3" NCoef="0" IVar="-1" Cut="0.0000000000000000e+00" cType="1" res="-1.9042875617742538e-02" rms="2.6005083322525024e-01" purity="4.8364228010177612e-01" nType="-99"/>
          </Node>
        </Node>
      </Node>
    </BinaryTree>
    <BinaryTree type="DecisionTree" boostWeight="1.0000000000000000e+00" itree="417">
      <Node pos="s" depth="0" NCoef="0" IVar="7" Cut="-1.4655451774597168e+00" cType="1" res="-9.5404172316193581e-04" rms="2.4445924162864685e-01" purity="4.9969920516014099e-01" nType="0">
        <Node pos="l" depth="1" NCoef="0" IVar="4" Cut="1.9872480773925781e+02" cType="1" res="-1.6726382076740265e-02" rms="2.1360604465007782e-01" purity="1.2610730528831482e-01" nType="0">
          <Node pos="l" depth="2" NCoef="0" IVar="-1" Cut="0.0000000000000000e+00" cType="1" res="7.5099468231201172e-03" rms="1.8382291495800018e-01" purity="5.4425541311502457e-02" nType="-99"/>
          <Node pos="r" depth="2" NCoef="0" IVar="-1" Cut="0.0000000000000000e+00" cType="1" res="-5.9808298945426941e-02" rms="2.5060945749282837e-01" purity="2.3924505710601807e-01" nType="-99"/>
        </Node>
        <Node pos="r" depth="1" NCoef="0" IVar="5" Cut="2.2072154235839844e+02" cType="1" res="1.7239029693882912e-04" rms="2.4647642672061920e-01" purity="5.2638047933578491e-01" nType="0">
          <Node pos="l" depth="2" NCoef="0" IVar="5" Cut="2.0458506774902344e+02" cType="1" res="-2.1936371922492981e-03" rms="2.6669591665267944e-01" purity="3.8533446192741394e-01" nType="0">
            <Node pos="l" depth="3" NCoef="0" IVar="-1" Cut="0.0000000000000000e+00" cType="1" res="-4.8789572902023792e-03" rms="2.6868709921836853e-01" purity="3.4411537647247314e-01" nType="-99"/>
            <Node pos="r" depth="3" NCoef="0" IVar="-1" Cut="0.0000000000000000e+00" cType="1" res="2.0306926220655441e-02" rms="2.4238167703151703e-01" purity="8.5370087623596191e-01" nType="-99"/>
          </Node>
          <Node pos="r" depth="2" NCoef="0" IVar="0" Cut="2.6007182617187500e+03" cType="1" res="7.1164011023938656e-03" rms="1.7387755215167999e-01" purity="9.4033384323120117e-01" nType="0">
            <Node pos="l" depth="3" NCoef="0" IVar="-1" Cut="0.0000000000000000e+00" cType="1" res="1.9028486683964729e-02" rms="2.6253533363342285e-01" purity="8.4099465608596802e-01" nType="-99"/>
            <Node pos="r" depth="3" NCoef="0" IVar="-1" Cut="0.0000000000000000e+00" cType="1" res="2.1443499252200127e-02" rms="1.1383797973394394e-01" purity="9.8458027839660645e-01" nType="-99"/>
          </Node>
        </Node>
      </Node>
    </BinaryTree>
    <BinaryTree type="DecisionTree" boostWeight="1.0000000000000000e+00" itree="418">
      <Node pos="s" depth="0" NCoef="0" IVar="9" Cut="-1.1981507539749146e+00" cType="1" res="-1.6569716390222311e-03" rms="2.4192631244659424e-01" purity="4.9725395441055298e-01" nType="0">
        <Node pos="l" depth="1" NCoef="0" IVar="1" Cut="3.9472483098506927e-02" cType="1" res="-1.4478660188615322e-02" rms="2.6017111539840698e-01" purity="3.6959791183471680e-01" nType="0">
          <Node pos="l" depth="2" NCoef="0" IVar="4" Cut="1.7644218444824219e+02" cType="1" res="8.8742416119202971e-04" rms="2.0110148191452026e-01" purity="1.3932088017463684e-01" nType="0">
            <Node pos="l" depth="3" NCoef="0" IVar="-1" Cut="0.0000000000000000e+00" cType="1" res="-4.3746713548898697e-02" rms="1.3876350224018097e-01" purity="2.7071623131632805e-02" nType="-99"/>
            <Node pos="r" depth="3" NCoef="0" IVar="-1" Cut="0.0000000000000000e+00" cType="1" res="2.0797042176127434e-02" rms="2.5552043318748474e-01" purity="2.7326124906539917e-01" nType="-99"/>
          </Node>
          <Node pos="r" depth="2" NCoef="0" IVar="1" Cut="7.4992477893829346e-02" cType="1" res="-2.4553768336772919e-02" rms="2.9205808043479919e-01" purity="5.2058410644531250e-01" nType="0">
            <Node pos="l" depth="3" NCoef="0" IVar="-1" Cut="0.0000000000000000e+00" cType="1" res="-4.7509331256151199e-02" rms="3.0327087640762329e-01" purity="3.4025672078132629e-01" nType="-99"/>
            <Node pos="r" depth="3" NCoef="0" IVar="-1" Cut="0.0000000000000000e+00" cType="1" res="-1.2409558519721031e-02" rms="2.8486117720603943e-01" purity="6.1792755126953125e-01" nType="-99"/>
          </Node>
        </Node>
        <Node pos="r" depth="1" NCoef="0" IVar="5" Cut="1.9164437866210938e+02" cType="1" res="5.6765927001833916e-04" rms="2.3854860663414001e-01" purity="5.1940298080444336e-01" nType="0">
          <Node pos="l" depth="2" NCoef="0" IVar="5" Cut="1.7830276489257812e+02" cType="1" res="-4.0998468175530434e-03" rms="2.5904816389083862e-01" purity="2.9232314229011536e-01" nType="0">
            <Node pos="l" depth="3" NCoef="0" IVar="-1" Cut="0.0000000000000000e+00" cType="1" res="-2.4803946726024151e-03" rms="2.5486975908279419e-01" purity="2.5309103727340698e-01" nType="-99"/>
            <Node pos="r" depth="3" NCoef="0" IVar="-1" Cut="0.0000000000000000e+00" cType="1" res="-3.1401127576828003e-02" rms="2.9453924298286438e-01" purity="6.6193473339080811e-01" nType="-99"/>
          </Node>
          <Node pos="r" depth="2" NCoef="0" IVar="0" Cut="2.0999426269531250e+03" cType="1" res="8.3464356139302254e-03" rms="1.9952103495597839e-01" purity="8.9784991741180420e-01" nType="0">
            <Node pos="l" depth="3" NCoef="0" IVar="-1" Cut="0.0000000000000000e+00" cType="1" res="2.4941133335232735e-02" rms="3.7963169813156128e-01" purity="4.6881553530693054e-01" nType="-99"/>
            <Node pos="r" depth="3" NCoef="0" IVar="-1" Cut="0.0000000000000000e+00" cType="1" res="1.5113283880054951e-02" rms="1.5873137116432190e-01" purity="9.5750033855438232e-01" nType="-99"/>
          </Node>
        </Node>
      </Node>
    </BinaryTree>
    <BinaryTree type="DecisionTree" boostWeight="1.0000000000000000e+00" itree="419">
      <Node pos="s" depth="0" NCoef="0" IVar="8" Cut="-1.4660701751708984e+00" cType="1" res="1.8136529251933098e-03" rms="2.4364873766899109e-01" purity="5.0381565093994141e-01" nType="0">
        <Node pos="l" depth="1" NCoef="0" IVar="7" Cut="-6.6826754808425903e-01" cType="1" res="-1.1745458468794823e-02" rms="2.3545207083225250e-01" purity="2.1370962262153625e-01" nType="0">
          <Node pos="l" depth="2" NCoef="0" IVar="-1" Cut="0.0000000000000000e+00" cType="1" res="2.9591225087642670e-02" rms="2.2445678710937500e-01" purity="1.9825860857963562e-01" nType="-99"/>
          <Node pos="r" depth="2" NCoef="0" IVar="9" Cut="-1.3652808964252472e-01" cType="1" res="-2.4215031415224075e-02" rms="2.3945309221744537e-01" purity="2.2099766135215759e-01" nType="0">
            <Node pos="l" depth="3" NCoef="0" IVar="-1" Cut="0.0000000000000000e+00" cType="1" res="-1.1181990616023540e-02" rms="2.3726470768451691e-01" purity="2.4663439393043518e-01" nType="-99"/>
            <Node pos="r" depth="3" NCoef="0" IVar="-1" Cut="0.0000000000000000e+00" cType="1" res="-6.1119757592678070e-02" rms="2.4060951173305511e-01" purity="1.9387634098529816e-01" nType="-99"/>
          </Node>
        </Node>
        <Node pos="r" depth="1" NCoef="0" IVar="5" Cut="8.4913253784179688e+01" cType="1" res="3.0019718687981367e-03" rms="2.4431812763214111e-01" purity="5.2924054861068726e-01" nType="0">
          <Node pos="l" depth="2" NCoef="0" IVar="1" Cut="3.2095063477754593e-02" cType="1" res="-1.2560542672872543e-02" rms="1.5812730789184570e-01" purity="4.2086739093065262e-02" nType="0">
            <Node pos="l" depth="3" NCoef="0" IVar="-1" Cut="0.0000000000000000e+00" cType="1" res="-2.4009399116039276e-02" rms="1.0433284938335419e-01" purity="2.0422127097845078e-02" nType="-99"/>
            <Node pos="r" depth="3" NCoef="0" IVar="-1" Cut="0.0000000000000000e+00" cType="1" res="-5.0389148294925690e-02" rms="2.1192461252212524e-01" purity="7.3067724704742432e-02" nType="-99"/>
          </Node>
          <Node pos="r" depth="2" NCoef="0" IVar="6" Cut="-1.3361694812774658e+00" cType="1" res="4.1699884459376335e-03" rms="2.4954995512962341e-01" purity="5.6580293178558350e-01" nType="0">
            <Node pos="l" depth="3" NCoef="0" IVar="-1" Cut="0.0000000000000000e+00" cType="1" res="-2.8256366029381752e-02" rms="1.8519340455532074e-01" purity="1.1180687695741653e-01" nType="-99"/>
            <Node pos="r" depth="3" NCoef="0" IVar="-1" Cut="0.0000000000000000e+00" cType="1" res="8.0847144126892090e-03" rms="2.5309115648269653e-01" purity="5.9496277570724487e-01" nType="-99"/>
          </Node>
        </Node>
      </Node>
    </BinaryTree>
    <BinaryTree type="DecisionTree" boostWeight="1.0000000000000000e+00" itree="420">
      <Node pos="s" depth="0" NCoef="0" IVar="8" Cut="3.9998289942741394e-01" cType="1" res="-7.0123560726642609e-04" rms="2.4218629300594330e-01" purity="4.9780118465423584e-01" nType="0">
        <Node pos="l" depth="1" NCoef="0" IVar="3" Cut="3.4054861450195312e+02" cType="1" res="2.4945014156401157e-03" rms="2.3924295604228973e-01" purity="5.2573812007904053e-01" nType="0">
          <Node pos="l" depth="2" NCoef="0" IVar="9" Cut="-1.1993241310119629e+00" cType="1" res="-1.0751903755590320e-03" rms="2.5111770629882812e-01" purity="2.9861581325531006e-01" nType="0">
            <Node pos="l" depth="3" NCoef="0" IVar="-1" Cut="0.0000000000000000e+00" cType="1" res="-2.2428808733820915e-02" rms="2.5530177354812622e-01" purity="2.3638242483139038e-01" nType="-99"/>
            <Node pos="r" depth="3" NCoef="0" IVar="-1" Cut="0.0000000000000000e+00" cType="1" res="3.5422216169536114e-03" rms="2.5000089406967163e-01" purity="3.1327646970748901e-01" nType="-99"/>
          </Node>
          <Node pos="r" depth="2" NCoef="0" IVar="5" Cut="1.4629736328125000e+02" cType="1" res="6.7021236754953861e-03" rms="2.2436791658401489e-01" purity="7.9344874620437622e-01" nType="0">
            <Node pos="l" depth="3" NCoef="0" IVar="-1" Cut="0.0000000000000000e+00" cType="1" res="2.2148741409182549e-02" rms="2.9272341728210449e-01" purity="3.7381884455680847e-01" nType="-99"/>
            <Node pos="r" depth="3" NCoef="0" IVar="-1" Cut="0.0000000000000000e+00" cType="1" res="6.6934106871485710e-03" rms="1.9968198239803314e-01" purity="9.1693913936614990e-01" nType="-99"/>
          </Node>
        </Node>
        <Node pos="r" depth="1" NCoef="0" IVar="4" Cut="1.3215090942382812e+02" cType="1" res="-6.6144666634500027e-03" rms="2.4743139743804932e-01" purity="4.4610816240310669e-01" nType="0">
          <Node pos="l" depth="2" NCoef="0" IVar="-1" Cut="0.0000000000000000e+00" cType="1" res="4.4042844325304031e-02" rms="1.9809113442897797e-01" purity="6.2717199325561523e-02" nType="-99"/>
          <Node pos="r" depth="2" NCoef="0" IVar="9" Cut="-6.6516751050949097e-01" cType="1" res="-9.6984766423702240e-03" rms="2.5417172908782959e-01" purity="5.0629830360412598e-01" nType="0">
            <Node pos="l" depth="3" NCoef="0" IVar="-1" Cut="0.0000000000000000e+00" cType="1" res="-2.7182502672076225e-02" rms="2.5914326310157776e-01" purity="4.3804192543029785e-01" nType="-99"/>
            <Node pos="r" depth="3" NCoef="0" IVar="-1" Cut="0.0000000000000000e+00" cType="1" res="-7.9485066235065460e-03" rms="2.5216716527938843e-01" purity="5.3151291608810425e-01" nType="-99"/>
          </Node>
        </Node>
      </Node>
    </BinaryTree>
    <BinaryTree type="DecisionTree" boostWeight="1.0000000000000000e+00" itree="421">
      <Node pos="s" depth="0" NCoef="0" IVar="9" Cut="1.9996509552001953e+00" cType="1" res="-6.5200787503272295e-04" rms="2.4311670660972595e-01" purity="5.0548839569091797e-01" nType="0">
        <Node pos="l" depth="1" NCoef="0" IVar="8" Cut="-9.3376374244689941e-01" cType="1" res="-1.3980733929201961e-03" rms="2.4276679754257202e-01" purity="5.1643270254135132e-01" nType="0">
          <Node pos="l" depth="2" NCoef="0" IVar="8" Cut="-2.0000979900360107e+00" cType="1" res="-8.5090249776840210e-03" rms="2.5379657745361328e-01" purity="3.4743767976760864e-01" nType="0">
            <Node pos="l" depth="3" NCoef="0" IVar="-1" Cut="0.0000000000000000e+00" cType="1" res="2.3823171854019165e-02" rms="2.4824540317058563e-01" purity="1.2730082869529724e-01" nType="-99"/>
            <Node pos="r" depth="3" NCoef="0" IVar="-1" Cut="0.0000000000000000e+00" cType="1" res="-1.6543779522180557e-02" rms="2.5460585951805115e-01" purity="3.8619676232337952e-01" nType="-99"/>
          </Node>
          <Node pos="r" depth="2" NCoef="0" IVar="6" Cut="7.2972512245178223e-01" cType="1" res="1.6346533084288239e-04" rms="2.4024872481822968e-01" purity="5.5354338884353638e-01" nType="0">
            <Node pos="l" depth="3" NCoef="0" IVar="-1" Cut="0.0000000000000000e+00" cType="1" res="-2.6425675023347139e-03" rms="2.3985444009304047e-01" purity="5.9958583116531372e-01" nType="-99"/>
            <Node pos="r" depth="3" NCoef="0" IVar="-1" Cut="0.0000000000000000e+00" cType="1" res="1.3296962715685368e-02" rms="2.4181167781352997e-01" purity="3.5259082913398743e-01" nType="-99"/>
          </Node>
        </Node>
        <Node pos="r" depth="1" NCoef="0" IVar="-1" Cut="0.0000000000000000e+00" cType="1" res="3.1978279352188110e-02" rms="2.5178846716880798e-01" purity="2.0038633048534393e-01" nType="-99"/>
      </Node>
    </BinaryTree>
    <BinaryTree type="DecisionTree" boostWeight="1.0000000000000000e+00" itree="422">
      <Node pos="s" depth="0" NCoef="0" IVar="0" Cut="2.3058486328125000e+03" cType="1" res="-3.0232153367251158e-03" rms="2.4068222939968109e-01" purity="5.0200289487838745e-01" nType="0">
        <Node pos="l" depth="1" NCoef="0" IVar="4" Cut="2.4625131225585938e+02" cType="1" res="-7.8619616106152534e-03" rms="2.6697531342506409e-01" purity="2.1718670427799225e-01" nType="0">
          <Node pos="l" depth="2" NCoef="0" IVar="9" Cut="1.1998972892761230e+00" cType="1" res="-3.7080319598317146e-03" rms="2.4988444149494171e-01" purity="1.6585667431354523e-01" nType="0">
            <Node pos="l" depth="3" NCoef="0" IVar="-1" Cut="0.0000000000000000e+00" cType="1" res="-1.6925557283684611e-03" rms="2.5482532382011414e-01" purity="1.7381884157657623e-01" nType="-99"/>
            <Node pos="r" depth="3" NCoef="0" IVar="-1" Cut="0.0000000000000000e+00" cType="1" res="-2.4138189852237701e-02" rms="2.2568729519844055e-01" purity="1.2965498864650726e-01" nType="-99"/>
          </Node>
          <Node pos="r" depth="2" NCoef="0" IVar="7" Cut="-3.9750322699546814e-01" cType="1" res="-2.8285583481192589e-02" rms="3.3794373273849487e-01" purity="4.6956107020378113e-01" nType="0">
            <Node pos="l" depth="3" NCoef="0" IVar="-1" Cut="0.0000000000000000e+00" cType="1" res="-1.1668937513604760e-03" rms="3.4194478392601013e-01" purity="4.2027047276496887e-01" nType="-99"/>
            <Node pos="r" depth="3" NCoef="0" IVar="-1" Cut="0.0000000000000000e+00" cType="1" res="-3.3753100782632828e-02" rms="3.3515346050262451e-01" purity="4.9391683936119080e-01" nType="-99"/>
          </Node>
        </Node>
        <Node pos="r" depth="1" NCoef="0" IVar="4" Cut="1.9320591735839844e+02" cType="1" res="4.2399046942591667e-03" rms="1.9443355500698090e-01" purity="9.2952156066894531e-01" nType="0">
          <Node pos="l" depth="2" NCoef="0" IVar="-1" Cut="0.0000000000000000e+00" cType="1" res="3.0692514032125473e-02" rms="3.1939682364463806e-01" purity="7.3502737283706665e-01" nType="-99"/>
          <Node pos="r" depth="2" NCoef="0" IVar="6" Cut="7.5047719478607178e-01" cType="1" res="2.0373219158500433e-03" rms="1.8158556520938873e-01" purity="9.4394224882125854e-01" nType="0">
            <Node pos="l" depth="3" NCoef="0" IVar="-1" Cut="0.0000000000000000e+00" cType="1" res="2.3380317725241184e-03" rms="1.7746405303478241e-01" purity="9.4827628135681152e-01" nType="-99"/>
            <Node pos="r" depth="3" NCoef="0" IVar="-1" Cut="0.0000000000000000e+00" cType="1" res="2.2791825234889984e-02" rms="2.1462130546569824e-01" purity="9.0520626306533813e-01" nType="-99"/>
          </Node>
        </Node>
      </Node>
    </BinaryTree>
    <BinaryTree type="DecisionTree" boostWeight="1.0000000000000000e+00" itree="423">
      <Node pos="s" depth="0" NCoef="0" IVar="8" Cut="6.6569459438323975e-01" cType="1" res="-1.2767956650350243e-04" rms="2.4021409451961517e-01" purity="5.0647401809692383e-01" nType="0">
        <Node pos="l" depth="1" NCoef="0" IVar="8" Cut="-1.8096678256988525e+00" cType="1" res="2.1204657386988401e-03" rms="2.3537680506706238e-01" purity="5.3276950120925903e-01" nType="0">
          <Node pos="l" depth="2" NCoef="0" IVar="-1" Cut="0.0000000000000000e+00" cType="1" res="-2.1126484498381615e-02" rms="2.1613524854183197e-01" purity="1.1283615976572037e-01" nType="-99"/>
          <Node pos="r" depth="2" NCoef="0" IVar="3" Cut="2.7050549316406250e+02" cType="1" res="2.8854524716734886e-03" rms="2.3647674918174744e-01" purity="5.5834937095642090e-01" nType="0">
            <Node pos="l" depth="3" NCoef="0" IVar="-1" Cut="0.0000000000000000e+00" cType="1" res="-2.0779685582965612e-03" rms="2.4892032146453857e-01" purity="1.9858586788177490e-01" nType="-99"/>
            <Node pos="r" depth="3" NCoef="0" IVar="-1" Cut="0.0000000000000000e+00" cType="1" res="8.1199137493968010e-03" rms="2.3094256222248077e-01" purity="7.1178752183914185e-01" nType="-99"/>
          </Node>
        </Node>
        <Node pos="r" depth="1" NCoef="0" IVar="1" Cut="1.1858402937650681e-01" cType="1" res="-6.9045671261847019e-03" rms="2.5411921739578247e-01" purity="4.2720794677734375e-01" nType="0">
          <Node pos="l" depth="2" NCoef="0" IVar="0" Cut="2.6219519042968750e+03" cType="1" res="-2.1318402141332626e-03" rms="2.5706991553306580e-01" purity="3.3084350824356079e-01" nType="0">
            <Node pos="l" depth="3" NCoef="0" IVar="-1" Cut="0.0000000000000000e+00" cType="1" res="-7.8056389465928078e-03" rms="2.6192718744277954e-01" purity="2.1375012397766113e-01" nType="-99"/>
            <Node pos="r" depth="3" NCoef="0" IVar="-1" Cut="0.0000000000000000e+00" cType="1" res="2.6950111612677574e-02" rms="2.3059765994548798e-01" purity="9.1378086805343628e-01" nType="-99"/>
          </Node>
          <Node pos="r" depth="2" NCoef="0" IVar="-1" Cut="0.0000000000000000e+00" cType="1" res="-3.5876318812370300e-02" rms="2.4382923543453217e-01" purity="7.3505473136901855e-01" nType="-99"/>
        </Node>
      </Node>
    </BinaryTree>
    <BinaryTree type="DecisionTree" boostWeight="1.0000000000000000e+00" itree="424">
      <Node pos="s" depth="0" NCoef="0" IVar="9" Cut="4.0013313293457031e-01" cType="1" res="5.2677574567496777e-03" rms="2.4573887884616852e-01" purity="5.1074784994125366e-01" nType="0">
        <Node pos="l" depth="1" NCoef="0" IVar="6" Cut="6.9665724039077759e-01" cType="1" res="8.5641508921980858e-03" rms="2.4665147066116333e-01" purity="5.2336633205413818e-01" nType="0">
          <Node pos="l" depth="2" NCoef="0" IVar="2" Cut="3.2241647338867188e+02" cType="1" res="5.1691434346139431e-03" rms="2.4568462371826172e-01" purity="5.6453883647918701e-01" nType="0">
            <Node pos="l" depth="3" NCoef="0" IVar="-1" Cut="0.0000000000000000e+00" cType="1" res="2.6106242090463638e-02" rms="2.7598005533218384e-01" purity="2.1466568112373352e-01" nType="-99"/>
            <Node pos="r" depth="3" NCoef="0" IVar="-1" Cut="0.0000000000000000e+00" cType="1" res="6.4178355969488621e-03" rms="2.4250604212284088e-01" purity="5.9850347042083740e-01" nType="-99"/>
          </Node>
          <Node pos="r" depth="2" NCoef="0" IVar="6" Cut="1.4970792531967163e+00" cType="1" res="2.2748544812202454e-02" rms="2.5015273690223694e-01" purity="3.5134676098823547e-01" nType="0">
            <Node pos="l" depth="3" NCoef="0" IVar="-1" Cut="0.0000000000000000e+00" cType="1" res="4.2947348207235336e-02" rms="2.7315625548362732e-01" purity="4.3617632985115051e-01" nType="-99"/>
            <Node pos="r" depth="3" NCoef="0" IVar="-1" Cut="0.0000000000000000e+00" cType="1" res="2.4965414777398109e-03" rms="1.4152731001377106e-01" purity="5.5983737111091614e-02" nType="-99"/>
          </Node>
        </Node>
        <Node pos="r" depth="1" NCoef="0" IVar="2" Cut="7.4143737792968750e+02" cType="1" res="-5.2973325364291668e-04" rms="2.4401757121086121e-01" purity="4.8855525255203247e-01" nType="0">
          <Node pos="l" depth="2" NCoef="0" IVar="7" Cut="-1.3065022230148315e-01" cType="1" res="1.6528109554201365e-03" rms="2.4348857998847961e-01" purity="4.5711600780487061e-01" nType="0">
            <Node pos="l" depth="3" NCoef="0" IVar="-1" Cut="0.0000000000000000e+00" cType="1" res="1.3842264190316200e-02" rms="2.3670302331447601e-01" purity="4.6004182100296021e-01" nType="-99"/>
            <Node pos="r" depth="3" NCoef="0" IVar="-1" Cut="0.0000000000000000e+00" cType="1" res="-4.6614920720458031e-03" rms="2.4795691668987274e-01" purity="4.5509859919548035e-01" nType="-99"/>
          </Node>
          <Node pos="r" depth="2" NCoef="0" IVar="-1" Cut="0.0000000000000000e+00" cType="1" res="-2.3464240133762360e-02" rms="2.4712669849395752e-01" purity="7.0670449733734131e-01" nType="-99"/>
        </Node>
      </Node>
    </BinaryTree>
    <BinaryTree type="DecisionTree" boostWeight="1.0000000000000000e+00" itree="425">
      <Node pos="s" depth="0" NCoef="0" IVar="1" Cut="6.2097717076539993e-02" cType="1" res="1.7731606203597039e-04" rms="2.3864468932151794e-01" purity="5.0356495380401611e-01" nType="0">
        <Node pos="l" depth="1" NCoef="0" IVar="2" Cut="8.0900384521484375e+02" cType="1" res="-5.0593968480825424e-03" rms="2.2686444222927094e-01" purity="2.4694609642028809e-01" nType="0">
          <Node pos="l" depth="2" NCoef="0" IVar="7" Cut="6.6906565427780151e-01" cType="1" res="-3.5436686594039202e-03" rms="2.2111287713050842e-01" purity="2.1316964924335480e-01" nType="0">
            <Node pos="l" depth="3" NCoef="0" IVar="-1" Cut="0.0000000000000000e+00" cType="1" res="-7.9835177166387439e-04" rms="2.2998881340026855e-01" purity="2.4347062408924103e-01" nType="-99"/>
            <Node pos="r" depth="3" NCoef="0" IVar="-1" Cut="0.0000000000000000e+00" cType="1" res="-2.1705161780118942e-02" rms="2.0036806166172028e-01" purity="1.4749878644943237e-01" nType="-99"/>
          </Node>
          <Node pos="r" depth="2" NCoef="0" IVar="-1" Cut="0.0000000000000000e+00" cType="1" res="-2.2429872304201126e-02" rms="2.7905565500259399e-01" purity="5.9662562608718872e-01" nType="-99"/>
        </Node>
        <Node pos="r" depth="1" NCoef="0" IVar="6" Cut="-8.9751958847045898e-01" cType="1" res="5.1222792826592922e-03" rms="2.4915705621242523e-01" purity="7.4588698148727417e-01" nType="0">
          <Node pos="l" depth="2" NCoef="0" IVar="-1" Cut="0.0000000000000000e+00" cType="1" res="3.5539779812097549e-02" rms="2.8687220811843872e-01" purity="6.4719051122665405e-01" nType="-99"/>
          <Node pos="r" depth="2" NCoef="0" IVar="0" Cut="1.8685744628906250e+03" cType="1" res="3.2756112050265074e-03" rms="2.4600172042846680e-01" purity="7.5327545404434204e-01" nType="0">
            <Node pos="l" depth="3" NCoef="0" IVar="-1" Cut="0.0000000000000000e+00" cType="1" res="1.2416127137839794e-02" rms="3.2374328374862671e-01" purity="1.8622198700904846e-01" nType="-99"/>
            <Node pos="r" depth="3" NCoef="0" IVar="-1" Cut="0.0000000000000000e+00" cType="1" res="8.0660934327170253e-04" rms="2.1749249100685120e-01" purity="9.2198127508163452e-01" nType="-99"/>
          </Node>
        </Node>
      </Node>
    </BinaryTree>
    <BinaryTree type="DecisionTree" boostWeight="1.0000000000000000e+00" itree="426">
      <Node pos="s" depth="0" NCoef="0" IVar="2" Cut="4.2920382690429688e+02" cType="1" res="-1.4731935516465455e-04" rms="2.4704170227050781e-01" purity="4.9309006333351135e-01" nType="0">
        <Node pos="l" depth="1" NCoef="0" IVar="5" Cut="1.1464833068847656e+02" cType="1" res="6.9888685829937458e-03" rms="2.6473584771156311e-01" purity="3.0271637439727783e-01" nType="0">
          <Node pos="l" depth="2" NCoef="0" IVar="2" Cut="3.6375292968750000e+02" cType="1" res="-4.0260241366922855e-03" rms="1.9510243833065033e-01" purity="5.5264048278331757e-02" nType="0">
            <Node pos="l" depth="3" NCoef="0" IVar="-1" Cut="0.0000000000000000e+00" cType="1" res="3.9676371961832047e-02" rms="2.1770411729812622e-01" purity="7.3837511241436005e-02" nType="-99"/>
            <Node pos="r" depth="3" NCoef="0" IVar="-1" Cut="0.0000000000000000e+00" cType="1" res="-6.5864428877830505e-02" rms="1.6560244560241699e-01" purity="3.5602450370788574e-02" nType="-99"/>
          </Node>
          <Node pos="r" depth="2" NCoef="0" IVar="9" Cut="-6.6452103853225708e-01" cType="1" res="1.0979164391756058e-02" rms="2.8570073843002319e-01" purity="3.9235934615135193e-01" nType="0">
            <Node pos="l" depth="3" NCoef="0" IVar="-1" Cut="0.0000000000000000e+00" cType="1" res="3.1396739184856415e-02" rms="3.0676546692848206e-01" purity="3.8803461194038391e-01" nType="-99"/>
            <Node pos="r" depth="3" NCoef="0" IVar="-1" Cut="0.0000000000000000e+00" cType="1" res="6.1342222616076469e-03" rms="2.7699267864227295e-01" purity="3.9401137828826904e-01" nType="-99"/>
          </Node>
        </Node>
        <Node pos="r" depth="1" NCoef="0" IVar="8" Cut="1.3335579633712769e-01" cType="1" res="-3.5297186113893986e-03" rms="2.3812167346477509e-01" purity="5.8332306146621704e-01" nType="0">
          <Node pos="l" depth="2" NCoef="0" IVar="0" Cut="2.6367902832031250e+03" cType="1" res="-8.4286928176879883e-03" rms="2.4053823947906494e-01" purity="5.9478467702865601e-01" nType="0">
            <Node pos="l" depth="3" NCoef="0" IVar="-1" Cut="0.0000000000000000e+00" cType="1" res="-1.8243281170725822e-02" rms="2.7500236034393311e-01" purity="3.7989875674247742e-01" nType="-99"/>
            <Node pos="r" depth="3" NCoef="0" IVar="-1" Cut="0.0000000000000000e+00" cType="1" res="1.2577908346429467e-03" rms="1.6671590507030487e-01" purity="9.5690286159515381e-01" nType="-99"/>
          </Node>
          <Node pos="r" depth="2" NCoef="0" IVar="6" Cut="2.3539088666439056e-01" cType="1" res="2.3746192455291748e-03" rms="2.3504053056240082e-01" purity="5.6950932741165161e-01" nType="0">
            <Node pos="l" depth="3" NCoef="0" IVar="-1" Cut="0.0000000000000000e+00" cType="1" res="1.2750190682709217e-02" rms="2.3721924424171448e-01" purity="6.1487090587615967e-01" nType="-99"/>
            <Node pos="r" depth="3" NCoef="0" IVar="-1" Cut="0.0000000000000000e+00" cType="1" res="-9.4194021075963974e-03" rms="2.3136474192142487e-01" purity="4.9846538901329041e-01" nType="-99"/>
          </Node>
        </Node>
      </Node>
    </BinaryTree>
    <BinaryTree type="DecisionTree" boostWeight="1.0000000000000000e+00" itree="427">
      <Node pos="s" depth="0" NCoef="0" IVar="0" Cut="2.0684064941406250e+03" cType="1" res="-3.7082580383867025e-03" rms="2.3745097219944000e-01" purity="4.9229693412780762e-01" nType="0">
        <Node pos="l" depth="1" NCoef="0" IVar="1" Cut="9.5061518251895905e-02" cType="1" res="-7.6916799880564213e-03" rms="2.4742040038108826e-01" purity="1.2577274441719055e-01" nType="0">
          <Node pos="l" depth="2" NCoef="0" IVar="1" Cut="7.2448581457138062e-02" cType="1" res="-4.2017675004899502e-03" rms="2.1846079826354980e-01" purity="7.7630490064620972e-02" nType="0">
            <Node pos="l" depth="3" NCoef="0" IVar="-1" Cut="0.0000000000000000e+00" cType="1" res="-1.5118601731956005e-02" rms="2.0044961571693420e-01" purity="5.8498915284872055e-02" nType="-99"/>
            <Node pos="r" depth="3" NCoef="0" IVar="-1" Cut="0.0000000000000000e+00" cType="1" res="1.3290607370436192e-02" rms="3.2245549559593201e-01" purity="2.2121623158454895e-01" nType="-99"/>
          </Node>
          <Node pos="r" depth="2" NCoef="0" IVar="6" Cut="-9.1305800015106797e-04" cType="1" res="-2.2022526711225510e-02" rms="3.4112083911895752e-01" purity="3.2346233725547791e-01" nType="0">
            <Node pos="l" depth="3" NCoef="0" IVar="-1" Cut="0.0000000000000000e+00" cType="1" res="-2.8198387473821640e-02" rms="3.4182050824165344e-01" purity="3.3836874365806580e-01" nType="-99"/>
            <Node pos="r" depth="3" NCoef="0" IVar="-1" Cut="0.0000000000000000e+00" cType="1" res="-4.0312106721103191e-03" rms="3.3958879113197327e-01" purity="3.0896690487861633e-01" nType="-99"/>
          </Node>
        </Node>
        <Node pos="r" depth="1" NCoef="0" IVar="7" Cut="1.3343593478202820e-01" cType="1" res="5.2123313071206212e-04" rms="2.2630894184112549e-01" purity="8.8146257400512695e-01" nType="0">
          <Node pos="l" depth="2" NCoef="0" IVar="0" Cut="2.2593933105468750e+03" cType="1" res="-3.8866386748850346e-03" rms="2.2138510644435883e-01" purity="8.8124275207519531e-01" nType="0">
            <Node pos="l" depth="3" NCoef="0" IVar="-1" Cut="0.0000000000000000e+00" cType="1" res="-2.1460948511958122e-02" rms="3.3632346987724304e-01" purity="6.5367811918258667e-01" nType="-99"/>
            <Node pos="r" depth="3" NCoef="0" IVar="-1" Cut="0.0000000000000000e+00" cType="1" res="1.1475801875349134e-04" rms="1.9165714085102081e-01" purity="9.2448925971984863e-01" nType="-99"/>
          </Node>
          <Node pos="r" depth="2" NCoef="0" IVar="0" Cut="2.2553596191406250e+03" cType="1" res="6.4104874618351460e-03" rms="2.3259471356868744e-01" purity="8.8175630569458008e-01" nType="0">
            <Node pos="l" depth="3" NCoef="0" IVar="-1" Cut="0.0000000000000000e+00" cType="1" res="2.4138780310750008e-02" rms="3.4191277623176575e-01" purity="7.0254832506179810e-01" nType="-99"/>
            <Node pos="r" depth="3" NCoef="0" IVar="-1" Cut="0.0000000000000000e+00" cType="1" res="4.4913985766470432e-03" rms="2.0568835735321045e-01" purity="9.1506302356719971e-01" nType="-99"/>
          </Node>
        </Node>
      </Node>
    </BinaryTree>
    <BinaryTree type="DecisionTree" boostWeight="1.0000000000000000e+00" itree="428">
      <Node pos="s" depth="0" NCoef="0" IVar="8" Cut="-1.7320473194122314e+00" cType="1" res="1.8528776708990335e-03" rms="2.4373771250247955e-01" purity="4.9804738163948059e-01" nType="0">
        <Node pos="l" depth="1" NCoef="0" IVar="-1" Cut="0.0000000000000000e+00" cType="1" res="3.6948580294847488e-02" rms="2.4408140778541565e-01" purity="1.5407186746597290e-01" nType="-99"/>
        <Node pos="r" depth="1" NCoef="0" IVar="3" Cut="1.9204463195800781e+02" cType="1" res="1.0295136598870158e-03" rms="2.4369126558303833e-01" purity="5.1517033576965332e-01" nType="0">
          <Node pos="l" depth="2" NCoef="0" IVar="5" Cut="1.1683841705322266e+02" cType="1" res="-1.0648135095834732e-02" rms="1.8012517690658569e-01" purity="6.1667039990425110e-02" nType="0">
            <Node pos="l" depth="3" NCoef="0" IVar="-1" Cut="0.0000000000000000e+00" cType="1" res="-9.6955668414011598e-04" rms="1.5857735276222229e-01" purity="2.9088541865348816e-02" nType="-99"/>
            <Node pos="r" depth="3" NCoef="0" IVar="-1" Cut="0.0000000000000000e+00" cType="1" res="-4.4140834361314774e-02" rms="2.1510042250156403e-01" purity="1.2623693048954010e-01" nType="-99"/>
          </Node>
          <Node pos="r" depth="2" NCoef="0" IVar="8" Cut="-1.0844919681549072e+00" cType="1" res="2.1063648164272308e-03" rms="2.4870865046977997e-01" purity="5.5699002742767334e-01" nType="0">
            <Node pos="l" depth="3" NCoef="0" IVar="-1" Cut="0.0000000000000000e+00" cType="1" res="-9.0988455340266228e-03" rms="2.6220399141311646e-01" purity="3.9442911744117737e-01" nType="-99"/>
            <Node pos="r" depth="3" NCoef="0" IVar="-1" Cut="0.0000000000000000e+00" cType="1" res="5.0140833482146263e-03" rms="2.4706515669822693e-01" purity="5.7594943046569824e-01" nType="-99"/>
          </Node>
        </Node>
      </Node>
    </BinaryTree>
    <BinaryTree type="DecisionTree" boostWeight="1.0000000000000000e+00" itree="429">
      <Node pos="s" depth="0" NCoef="0" IVar="9" Cut="-9.2956191301345825e-01" cType="1" res="9.4547990011051297e-04" rms="2.4578736722469330e-01" purity="5.0138056278228760e-01" nType="0">
        <Node pos="l" depth="1" NCoef="0" IVar="8" Cut="-1.2004599571228027e+00" cType="1" res="8.0151110887527466e-03" rms="2.6690790057182312e-01" purity="4.2682859301567078e-01" nType="0">
          <Node pos="l" depth="2" NCoef="0" IVar="-1" Cut="0.0000000000000000e+00" cType="1" res="-3.2001607120037079e-02" rms="2.4828627705574036e-01" purity="2.1347077190876007e-01" nType="-99"/>
          <Node pos="r" depth="2" NCoef="0" IVar="4" Cut="1.9009504699707031e+02" cType="1" res="1.3598494231700897e-02" rms="2.6993516087532043e-01" purity="4.6731752157211304e-01" nType="0">
            <Node pos="l" depth="3" NCoef="0" IVar="-1" Cut="0.0000000000000000e+00" cType="1" res="3.2902960665524006e-03" rms="2.4038550257682800e-01" purity="1.5736365318298340e-01" nType="-99"/>
            <Node pos="r" depth="3" NCoef="0" IVar="-1" Cut="0.0000000000000000e+00" cType="1" res="2.7741767466068268e-02" rms="2.8935030102729797e-01" purity="6.9405651092529297e-01" nType="-99"/>
          </Node>
        </Node>
        <Node pos="r" depth="1" NCoef="0" IVar="8" Cut="1.4661195278167725e+00" cType="1" res="-9.4831292517483234e-04" rms="2.3977859318256378e-01" purity="5.2135127782821655e-01" nType="0">
          <Node pos="l" depth="2" NCoef="0" IVar="8" Cut="-3.6197972297668457e-01" cType="1" res="-2.0822596270591021e-03" rms="2.3861730098724365e-01" purity="5.4347342252731323e-01" nType="0">
            <Node pos="l" depth="3" NCoef="0" IVar="-1" Cut="0.0000000000000000e+00" cType="1" res="5.9581496752798557e-03" rms="2.4787017703056335e-01" purity="4.9098360538482666e-01" nType="-99"/>
            <Node pos="r" depth="3" NCoef="0" IVar="-1" Cut="0.0000000000000000e+00" cType="1" res="-9.7151659429073334e-03" rms="2.3264883458614349e-01" purity="5.7588994503021240e-01" nType="-99"/>
          </Node>
          <Node pos="r" depth="2" NCoef="0" IVar="5" Cut="1.3081170654296875e+02" cType="1" res="1.2580594979226589e-02" rms="2.5283125042915344e-01" purity="2.5741654634475708e-01" nType="0">
            <Node pos="l" depth="3" NCoef="0" IVar="-1" Cut="0.0000000000000000e+00" cType="1" res="-5.6949555873870850e-03" rms="1.8948598206043243e-01" purity="7.1191497147083282e-02" nType="-99"/>
            <Node pos="r" depth="3" NCoef="0" IVar="-1" Cut="0.0000000000000000e+00" cType="1" res="3.0079975724220276e-02" rms="3.0031883716583252e-01" purity="4.3473297357559204e-01" nType="-99"/>
          </Node>
        </Node>
      </Node>
    </BinaryTree>
    <BinaryTree type="DecisionTree" boostWeight="1.0000000000000000e+00" itree="430">
      <Node pos="s" depth="0" NCoef="0" IVar="8" Cut="6.6658711433410645e-01" cType="1" res="8.3899352466687560e-04" rms="2.4322868883609772e-01" purity="4.9824500083923340e-01" nType="0">
        <Node pos="l" depth="1" NCoef="0" IVar="2" Cut="3.1254953002929688e+02" cType="1" res="-1.3576806522905827e-03" rms="2.3707994818687439e-01" purity="5.1959961652755737e-01" nType="0">
          <Node pos="l" depth="2" NCoef="0" IVar="9" Cut="-1.2073160707950592e-01" cType="1" res="-1.7968872562050819e-02" rms="2.5035265088081360e-01" purity="1.6868536174297333e-01" nType="0">
            <Node pos="l" depth="3" NCoef="0" IVar="-1" Cut="0.0000000000000000e+00" cType="1" res="-4.4673170894384384e-02" rms="2.4476629495620728e-01" purity="1.5784785151481628e-01" nType="-99"/>
            <Node pos="r" depth="3" NCoef="0" IVar="-1" Cut="0.0000000000000000e+00" cType="1" res="-6.3610835932195187e-03" rms="2.5420945882797241e-01" purity="1.7780791223049164e-01" nType="-99"/>
          </Node>
          <Node pos="r" depth="2" NCoef="0" IVar="2" Cut="8.4613037109375000e+02" cType="1" res="1.9176027853973210e-04" rms="2.3574414849281311e-01" purity="5.5233180522918701e-01" nType="0">
            <Node pos="l" depth="3" NCoef="0" IVar="-1" Cut="0.0000000000000000e+00" cType="1" res="2.2982503287494183e-03" rms="2.3411065340042114e-01" purity="5.3427743911743164e-01" nType="-99"/>
            <Node pos="r" depth="3" NCoef="0" IVar="-1" Cut="0.0000000000000000e+00" cType="1" res="-2.0756265148520470e-02" rms="2.5538256764411926e-01" purity="7.8444987535476685e-01" nType="-99"/>
          </Node>
        </Node>
        <Node pos="r" depth="1" NCoef="0" IVar="7" Cut="4.0605792403221130e-01" cType="1" res="7.4548330157995224e-03" rms="2.6076132059097290e-01" purity="4.3393036723136902e-01" nType="0">
          <Node pos="l" depth="2" NCoef="0" IVar="3" Cut="2.6485034179687500e+02" cType="1" res="1.3533640652894974e-02" rms="2.6429000496864319e-01" purity="4.7300082445144653e-01" nType="0">
            <Node pos="l" depth="3" NCoef="0" IVar="-1" Cut="0.0000000000000000e+00" cType="1" res="4.6479422599077225e-02" rms="2.6317980885505676e-01" purity="2.0879927277565002e-01" nType="-99"/>
            <Node pos="r" depth="3" NCoef="0" IVar="-1" Cut="0.0000000000000000e+00" cType="1" res="8.2814842462539673e-03" rms="2.6451462507247925e-01" purity="6.0346180200576782e-01" nType="-99"/>
          </Node>
          <Node pos="r" depth="2" NCoef="0" IVar="7" Cut="7.4779343605041504e-01" cType="1" res="-3.0747018754482269e-03" rms="2.5418952107429504e-01" purity="3.6625364422798157e-01" nType="0">
            <Node pos="l" depth="3" NCoef="0" IVar="-1" Cut="0.0000000000000000e+00" cType="1" res="-2.9457820579409599e-02" rms="2.5356888771057129e-01" purity="4.8754006624221802e-01" nType="-99"/>
            <Node pos="r" depth="3" NCoef="0" IVar="-1" Cut="0.0000000000000000e+00" cType="1" res="8.9787049219012260e-03" rms="2.5402057170867920e-01" purity="3.1013280153274536e-01" nType="-99"/>
          </Node>
        </Node>
      </Node>
    </BinaryTree>
    <BinaryTree type="DecisionTree" boostWeight="1.0000000000000000e+00" itree="431">
      <Node pos="s" depth="0" NCoef="0" IVar="6" Cut="-3.5372510552406311e-01" cType="1" res="-1.3671106426045299e-03" rms="2.4190472066402435e-01" purity="4.9291932582855225e-01" nType="0">
        <Node pos="l" depth="1" NCoef="0" IVar="7" Cut="-1.1908416748046875e+00" cType="1" res="-7.6169483363628387e-03" rms="2.4741460382938385e-01" purity="4.2460697889328003e-01" nType="0">
          <Node pos="l" depth="2" NCoef="0" IVar="-1" Cut="0.0000000000000000e+00" cType="1" res="1.8302833661437035e-02" rms="2.5879800319671631e-01" purity="2.7461758255958557e-01" nType="-99"/>
          <Node pos="r" depth="2" NCoef="0" IVar="6" Cut="-1.7042214870452881e+00" cType="1" res="-9.9497931078076363e-03" rms="2.4587589502334595e-01" purity="4.4307133555412292e-01" nType="0">
            <Node pos="l" depth="3" NCoef="0" IVar="-1" Cut="0.0000000000000000e+00" cType="1" res="3.8035321980714798e-02" rms="1.5384519100189209e-01" purity="4.3109852820634842e-02" nType="-99"/>
            <Node pos="r" depth="3" NCoef="0" IVar="-1" Cut="0.0000000000000000e+00" cType="1" res="-1.8108867108821869e-02" rms="2.5445702672004700e-01" purity="4.9016860127449036e-01" nType="-99"/>
          </Node>
        </Node>
        <Node pos="r" depth="1" NCoef="0" IVar="8" Cut="-9.3092751502990723e-01" cType="1" res="1.7355389427393675e-03" rms="2.3906157910823822e-01" purity="5.2683204412460327e-01" nType="0">
          <Node pos="l" depth="2" NCoef="0" IVar="6" Cut="3.9658415317535400e-01" cType="1" res="1.1458403430879116e-02" rms="2.4314200878143311e-01" purity="3.5480710864067078e-01" nType="0">
            <Node pos="l" depth="3" NCoef="0" IVar="-1" Cut="0.0000000000000000e+00" cType="1" res="3.5471878945827484e-02" rms="2.7766093611717224e-01" purity="4.9380034208297729e-01" nType="-99"/>
            <Node pos="r" depth="3" NCoef="0" IVar="-1" Cut="0.0000000000000000e+00" cType="1" res="-7.0643419167026877e-04" rms="2.0829097926616669e-01" purity="2.3550298810005188e-01" nType="-99"/>
          </Node>
          <Node pos="r" depth="2" NCoef="0" IVar="8" Cut="-7.5329875946044922e-01" cType="1" res="-3.9133391692303121e-04" rms="2.3810675740242004e-01" purity="5.6446242332458496e-01" nType="0">
            <Node pos="l" depth="3" NCoef="0" IVar="-1" Cut="0.0000000000000000e+00" cType="1" res="-3.5888798534870148e-02" rms="2.2390677034854889e-01" purity="5.2661234140396118e-01" nType="-99"/>
            <Node pos="r" depth="3" NCoef="0" IVar="-1" Cut="0.0000000000000000e+00" cType="1" res="1.5312979230657220e-03" rms="2.3892578482627869e-01" purity="5.6687915325164795e-01" nType="-99"/>
          </Node>
        </Node>
      </Node>
    </BinaryTree>
    <BinaryTree type="DecisionTree" boostWeight="1.0000000000000000e+00" itree="432">
      <Node pos="s" depth="0" NCoef="0" IVar="6" Cut="4.9802443385124207e-01" cType="1" res="2.6253792457282543e-03" rms="2.4339561164379120e-01" purity="4.9969637393951416e-01" nType="0">
        <Node pos="l" depth="1" NCoef="0" IVar="8" Cut="-1.1991877555847168e+00" cType="1" res="5.4213744588196278e-03" rms="2.4639844894409180e-01" purity="5.4874593019485474e-01" nType="0">
          <Node pos="l" depth="2" NCoef="0" IVar="2" Cut="3.8992108154296875e+02" cType="1" res="1.6875049099326134e-02" rms="2.6803225278854370e-01" purity="3.5180988907814026e-01" nType="0">
            <Node pos="l" depth="3" NCoef="0" IVar="-1" Cut="0.0000000000000000e+00" cType="1" res="-5.6315166875720024e-03" rms="2.4632132053375244e-01" purity="1.7803564667701721e-01" nType="-99"/>
            <Node pos="r" depth="3" NCoef="0" IVar="-1" Cut="0.0000000000000000e+00" cType="1" res="3.7331413477659225e-02" rms="2.7681773900985718e-01" purity="4.3068617582321167e-01" nType="-99"/>
          </Node>
          <Node pos="r" depth="2" NCoef="0" IVar="3" Cut="2.0838641357421875e+02" cType="1" res="3.9440863765776157e-03" rms="2.4342897534370422e-01" purity="5.7414662837982178e-01" nType="0">
            <Node pos="l" depth="3" NCoef="0" IVar="-1" Cut="0.0000000000000000e+00" cType="1" res="-2.3449862375855446e-02" rms="2.1446293592453003e-01" purity="1.0196211189031601e-01" nType="-99"/>
            <Node pos="r" depth="3" NCoef="0" IVar="-1" Cut="0.0000000000000000e+00" cType="1" res="9.7519820556044579e-03" rms="2.4666543304920197e-01" purity="6.3202840089797974e-01" nType="-99"/>
          </Node>
        </Node>
        <Node pos="r" depth="1" NCoef="0" IVar="9" Cut="6.6621565818786621e-01" cType="1" res="-4.6867118217051029e-03" rms="2.3520451784133911e-01" purity="3.7142196297645569e-01" nType="0">
          <Node pos="l" depth="2" NCoef="0" IVar="8" Cut="1.2069723755121231e-01" cType="1" res="1.8082018941640854e-03" rms="2.4183261394500732e-01" purity="4.1099971532821655e-01" nType="0">
            <Node pos="l" depth="3" NCoef="0" IVar="-1" Cut="0.0000000000000000e+00" cType="1" res="-1.1229169555008411e-02" rms="2.4298481643199921e-01" purity="3.8663578033447266e-01" nType="-99"/>
            <Node pos="r" depth="3" NCoef="0" IVar="-1" Cut="0.0000000000000000e+00" cType="1" res="1.9035516306757927e-02" rms="2.4009755253791809e-01" purity="4.4007775187492371e-01" nType="-99"/>
          </Node>
          <Node pos="r" depth="2" NCoef="0" IVar="4" Cut="1.6997627258300781e+02" cType="1" res="-1.8345581367611885e-02" rms="2.1999198198318481e-01" purity="2.8818958997726440e-01" nType="0">
            <Node pos="l" depth="3" NCoef="0" IVar="-1" Cut="0.0000000000000000e+00" cType="1" res="-8.2141542807221413e-03" rms="1.6097795963287354e-01" purity="7.2099015116691589e-02" nType="-99"/>
            <Node pos="r" depth="3" NCoef="0" IVar="-1" Cut="0.0000000000000000e+00" cType="1" res="-3.9916321635246277e-02" rms="2.5074979662895203e-01" purity="4.2989340424537659e-01" nType="-99"/>
          </Node>
        </Node>
      </Node>
    </BinaryTree>
    <BinaryTree type="DecisionTree" boostWeight="1.0000000000000000e+00" itree="433">
      <Node pos="s" depth="0" NCoef="0" IVar="9" Cut="-1.1994092464447021e+00" cType="1" res="-3.8397500757128000e-03" rms="2.3928172886371613e-01" purity="4.9819192290306091e-01" nType="0">
        <Node pos="l" depth="1" NCoef="0" IVar="1" Cut="5.9115182608366013e-02" cType="1" res="-1.8769098445773125e-02" rms="2.5433465838432312e-01" purity="3.5919994115829468e-01" nType="0">
          <Node pos="l" depth="2" NCoef="0" IVar="9" Cut="-1.7326599359512329e+00" cType="1" res="-5.4005985148251057e-03" rms="2.0619662106037140e-01" purity="1.6570588946342468e-01" nType="0">
            <Node pos="l" depth="3" NCoef="0" IVar="-1" Cut="0.0000000000000000e+00" cType="1" res="-3.4323364496231079e-02" rms="1.9973266124725342e-01" purity="9.3575038015842438e-02" nType="-99"/>
            <Node pos="r" depth="3" NCoef="0" IVar="-1" Cut="0.0000000000000000e+00" cType="1" res="3.9503951556980610e-03" rms="2.1011614799499512e-01" purity="2.1461991965770721e-01" nType="-99"/>
          </Node>
          <Node pos="r" depth="2" NCoef="0" IVar="4" Cut="2.1759567260742188e+02" cType="1" res="-3.5013597458600998e-02" rms="3.0189973115921021e-01" purity="5.9432083368301392e-01" nType="0">
            <Node pos="l" depth="3" NCoef="0" IVar="-1" Cut="0.0000000000000000e+00" cType="1" res="-4.2540851980447769e-02" rms="3.3746263384819031e-01" purity="3.8114827871322632e-01" nType="-99"/>
            <Node pos="r" depth="3" NCoef="0" IVar="-1" Cut="0.0000000000000000e+00" cType="1" res="-3.0133295804262161e-02" rms="2.7045026421546936e-01" purity="7.5999116897583008e-01" nType="-99"/>
          </Node>
        </Node>
        <Node pos="r" depth="1" NCoef="0" IVar="6" Cut="1.2596615552902222e+00" cType="1" res="-1.2727690627798438e-03" rms="2.3650209605693817e-01" purity="5.2209043502807617e-01" nType="0">
          <Node pos="l" depth="2" NCoef="0" IVar="5" Cut="1.2120568847656250e+02" cType="1" res="-6.6175969550386071e-05" rms="2.3924873769283295e-01" purity="5.5248582363128662e-01" nType="0">
            <Node pos="l" depth="3" NCoef="0" IVar="-1" Cut="0.0000000000000000e+00" cType="1" res="-1.6551209613680840e-02" rms="2.1826861798763275e-01" purity="1.1211024969816208e-01" nType="-99"/>
            <Node pos="r" depth="3" NCoef="0" IVar="-1" Cut="0.0000000000000000e+00" cType="1" res="4.7021447680890560e-03" rms="2.4607403576374054e-01" purity="7.0605051517486572e-01" nType="-99"/>
          </Node>
          <Node pos="r" depth="2" NCoef="0" IVar="4" Cut="1.9957478332519531e+02" cType="1" res="-1.6566103324294090e-02" rms="1.9778393208980560e-01" purity="1.3683590292930603e-01" nType="0">
            <Node pos="l" depth="3" NCoef="0" IVar="-1" Cut="0.0000000000000000e+00" cType="1" res="1.7486975993961096e-03" rms="1.5455083549022675e-01" purity="3.5551823675632477e-02" nType="-99"/>
            <Node pos="r" depth="3" NCoef="0" IVar="-1" Cut="0.0000000000000000e+00" cType="1" res="-5.2280396223068237e-02" rms="2.4633458256721497e-01" purity="2.8723526000976562e-01" nType="-99"/>
          </Node>
        </Node>
      </Node>
    </BinaryTree>
    <BinaryTree type="DecisionTree" boostWeight="1.0000000000000000e+00" itree="434">
      <Node pos="s" depth="0" NCoef="0" IVar="9" Cut="-1.9991436004638672e+00" cType="1" res="1.2400251580402255e-03" rms="2.4243313074111938e-01" purity="5.0054776668548584e-01" nType="0">
        <Node pos="l" depth="1" NCoef="0" IVar="-1" Cut="0.0000000000000000e+00" cType="1" res="3.0733088031411171e-02" rms="2.6689073443412781e-01" purity="2.3175707459449768e-01" nType="-99"/>
        <Node pos="r" depth="1" NCoef="0" IVar="6" Cut="2.1419546008110046e-01" cType="1" res="5.7304033543914557e-04" rms="2.4145752191543579e-01" purity="5.1046448945999146e-01" nType="0">
          <Node pos="l" depth="2" NCoef="0" IVar="9" Cut="5.1441884040832520e-01" cType="1" res="-2.1414721850305796e-03" rms="2.4601325392723083e-01" purity="5.3905481100082397e-01" nType="0">
            <Node pos="l" depth="3" NCoef="0" IVar="-1" Cut="0.0000000000000000e+00" cType="1" res="-9.3543408438563347e-03" rms="2.4031327664852142e-01" purity="5.5437421798706055e-01" nType="-99"/>
            <Node pos="r" depth="3" NCoef="0" IVar="-1" Cut="0.0000000000000000e+00" cType="1" res="7.3016900569200516e-03" rms="2.5756007432937622e-01" purity="5.0652652978897095e-01" nType="-99"/>
          </Node>
          <Node pos="r" depth="2" NCoef="0" IVar="7" Cut="1.3344968855381012e-01" cType="1" res="4.6809627674520016e-03" rms="2.3433513939380646e-01" purity="4.6719828248023987e-01" nType="0">
            <Node pos="l" depth="3" NCoef="0" IVar="-1" Cut="0.0000000000000000e+00" cType="1" res="1.8785748630762100e-02" rms="2.3510982096195221e-01" purity="4.7335973381996155e-01" nType="-99"/>
            <Node pos="r" depth="3" NCoef="0" IVar="-1" Cut="0.0000000000000000e+00" cType="1" res="-3.8141643162816763e-03" rms="2.3325742781162262e-01" purity="4.6018701791763306e-01" nType="-99"/>
          </Node>
        </Node>
      </Node>
    </BinaryTree>
    <BinaryTree type="DecisionTree" boostWeight="1.0000000000000000e+00" itree="435">
      <Node pos="s" depth="0" NCoef="0" IVar="2" Cut="3.2217401123046875e+02" cType="1" res="-1.6498964978381991e-03" rms="2.4201989173889160e-01" purity="5.0015115737915039e-01" nType="0">
        <Node pos="l" depth="1" NCoef="0" IVar="8" Cut="-4.0019652247428894e-01" cType="1" res="1.0352860204875469e-02" rms="2.7961555123329163e-01" purity="2.1924932301044464e-01" nType="0">
          <Node pos="l" depth="2" NCoef="0" IVar="-1" Cut="0.0000000000000000e+00" cType="1" res="4.1454184800386429e-02" rms="2.8355816006660461e-01" purity="2.1122509241104126e-01" nType="-99"/>
          <Node pos="r" depth="2" NCoef="0" IVar="6" Cut="-3.5660549998283386e-02" cType="1" res="-7.3596462607383728e-04" rms="2.7655634284019470e-01" purity="2.2423925995826721e-01" nType="0">
            <Node pos="l" depth="3" NCoef="0" IVar="-1" Cut="0.0000000000000000e+00" cType="1" res="1.9555296748876572e-02" rms="3.0199292302131653e-01" purity="2.6192292571067810e-01" nType="-99"/>
            <Node pos="r" depth="3" NCoef="0" IVar="-1" Cut="0.0000000000000000e+00" cType="1" res="-1.8712937831878662e-02" rms="2.5151643157005310e-01" purity="1.9151169061660767e-01" nType="-99"/>
          </Node>
        </Node>
        <Node pos="r" depth="1" NCoef="0" IVar="8" Cut="1.2008072137832642e+00" cType="1" res="-2.9252478852868080e-03" rms="2.3764029145240784e-01" purity="5.2999836206436157e-01" nType="0">
          <Node pos="l" depth="2" NCoef="0" IVar="7" Cut="-9.3298560380935669e-01" cType="1" res="-1.3699175324290991e-03" rms="2.3752208054065704e-01" purity="5.5882245302200317e-01" nType="0">
            <Node pos="l" depth="3" NCoef="0" IVar="-1" Cut="0.0000000000000000e+00" cType="1" res="-1.6267426311969757e-02" rms="2.4751184880733490e-01" purity="3.4208193421363831e-01" nType="-99"/>
            <Node pos="r" depth="3" NCoef="0" IVar="-1" Cut="0.0000000000000000e+00" cType="1" res="6.1457860283553600e-04" rms="2.3562791943550110e-01" purity="5.9804379940032959e-01" nType="-99"/>
          </Node>
          <Node pos="r" depth="2" NCoef="0" IVar="2" Cut="5.5418450927734375e+02" cType="1" res="-1.4823765493929386e-02" rms="2.3820695281028748e-01" purity="3.0948916077613831e-01" nType="0">
            <Node pos="l" depth="3" NCoef="0" IVar="-1" Cut="0.0000000000000000e+00" cType="1" res="-3.4272618591785431e-02" rms="2.3014132678508759e-01" purity="2.5329148769378662e-01" nType="-99"/>
            <Node pos="r" depth="3" NCoef="0" IVar="-1" Cut="0.0000000000000000e+00" cType="1" res="-1.7584010493010283e-03" rms="2.5256165862083435e-01" purity="4.1849699616432190e-01" nType="-99"/>
          </Node>
        </Node>
      </Node>
    </BinaryTree>
    <BinaryTree type="DecisionTree" boostWeight="1.0000000000000000e+00" itree="436">
      <Node pos="s" depth="0" NCoef="0" IVar="7" Cut="-6.6709387302398682e-01" cType="1" res="1.1976639507338405e-03" rms="2.4242593348026276e-01" purity="5.0667595863342285e-01" nType="0">
        <Node pos="l" depth="1" NCoef="0" IVar="5" Cut="1.3136999511718750e+02" cType="1" res="-4.0599149651825428e-03" rms="2.3836360871791840e-01" purity="3.7021815776824951e-01" nType="0">
          <Node pos="l" depth="2" NCoef="0" IVar="7" Cut="-1.0720586776733398e+00" cType="1" res="4.1847960092127323e-03" rms="2.1035356819629669e-01" purity="8.9742086827754974e-02" nType="0">
            <Node pos="l" depth="3" NCoef="0" IVar="-1" Cut="0.0000000000000000e+00" cType="1" res="-3.5863583907485008e-03" rms="1.7387609183788300e-01" purity="5.7927910238504410e-02" nType="-99"/>
            <Node pos="r" depth="3" NCoef="0" IVar="-1" Cut="0.0000000000000000e+00" cType="1" res="2.4388475343585014e-02" rms="2.7044168114662170e-01" purity="1.5573431551456451e-01" nType="-99"/>
          </Node>
          <Node pos="r" depth="2" NCoef="0" IVar="2" Cut="6.1771466064453125e+02" cType="1" res="-1.0022532194852829e-02" rms="2.5655829906463623e-01" purity="5.7305991649627686e-01" nType="0">
            <Node pos="l" depth="3" NCoef="0" IVar="-1" Cut="0.0000000000000000e+00" cType="1" res="-4.0947338566184044e-03" rms="2.5853353738784790e-01" purity="5.2262318134307861e-01" nType="-99"/>
            <Node pos="r" depth="3" NCoef="0" IVar="-1" Cut="0.0000000000000000e+00" cType="1" res="-4.9322050064802170e-02" rms="2.4899844825267792e-01" purity="7.3167020082473755e-01" nType="-99"/>
          </Node>
        </Node>
        <Node pos="r" depth="1" NCoef="0" IVar="6" Cut="1.2596615552902222e+00" cType="1" res="2.9289354570209980e-03" rms="2.4372398853302002e-01" purity="5.5161023139953613e-01" nType="0">
          <Node pos="l" depth="2" NCoef="0" IVar="9" Cut="9.3338847160339355e-01" cType="1" res="1.9219395471736789e-03" rms="2.4680346250534058e-01" purity="5.7877874374389648e-01" nType="0">
            <Node pos="l" depth="3" NCoef="0" IVar="-1" Cut="0.0000000000000000e+00" cType="1" res="3.7125151720829308e-04" rms="2.4228608608245850e-01" purity="5.9639954566955566e-01" nType="-99"/>
            <Node pos="r" depth="3" NCoef="0" IVar="-1" Cut="0.0000000000000000e+00" cType="1" res="1.2013330124318600e-02" rms="2.6362779736518860e-01" purity="5.0984621047973633e-01" nType="-99"/>
          </Node>
          <Node pos="r" depth="2" NCoef="0" IVar="-1" Cut="0.0000000000000000e+00" cType="1" res="3.5957880318164825e-02" rms="1.9545653462409973e-01" purity="1.7412194609642029e-01" nType="-99"/>
        </Node>
      </Node>
    </BinaryTree>
    <BinaryTree type="DecisionTree" boostWeight="1.0000000000000000e+00" itree="437">
      <Node pos="s" depth="0" NCoef="0" IVar="3" Cut="3.2899578857421875e+02" cType="1" res="-1.2087215436622500e-03" rms="2.4951219558715820e-01" purity="5.0124102830886841e-01" nType="0">
        <Node pos="l" depth="1" NCoef="0" IVar="9" Cut="-1.3298839330673218e-01" cType="1" res="2.8010765090584755e-03" rms="2.5750067830085754e-01" purity="2.7773180603981018e-01" nType="0">
          <Node pos="l" depth="2" NCoef="0" IVar="8" Cut="6.6258370876312256e-01" cType="1" res="9.2800566926598549e-03" rms="2.6213347911834717e-01" purity="2.8253558278083801e-01" nType="0">
            <Node pos="l" depth="3" NCoef="0" IVar="-1" Cut="0.0000000000000000e+00" cType="1" res="6.5281474962830544e-03" rms="2.5715500116348267e-01" purity="2.7642282843589783e-01" nType="-99"/>
            <Node pos="r" depth="3" NCoef="0" IVar="-1" Cut="0.0000000000000000e+00" cType="1" res="3.3576253801584244e-02" rms="2.7580669522285461e-01" purity="3.0064141750335693e-01" nType="-99"/>
          </Node>
          <Node pos="r" depth="2" NCoef="0" IVar="7" Cut="6.6466236114501953e-01" cType="1" res="-2.7009542100131512e-03" rms="2.5336995720863342e-01" purity="2.7365240454673767e-01" nType="0">
            <Node pos="l" depth="3" NCoef="0" IVar="-1" Cut="0.0000000000000000e+00" cType="1" res="-1.1706857010722160e-02" rms="2.6082897186279297e-01" purity="2.9985567927360535e-01" nType="-99"/>
            <Node pos="r" depth="3" NCoef="0" IVar="-1" Cut="0.0000000000000000e+00" cType="1" res="1.4905270189046860e-02" rms="2.3696963489055634e-01" purity="2.1990309655666351e-01" nType="-99"/>
          </Node>
        </Node>
        <Node pos="r" depth="1" NCoef="0" IVar="9" Cut="-1.1995482444763184e+00" cType="1" res="-5.5605149827897549e-03" rms="2.4046669900417328e-01" purity="7.4381333589553833e-01" nType="0">
          <Node pos="l" depth="2" NCoef="0" IVar="8" Cut="-1.1848188936710358e-01" cType="1" res="-2.9020033776760101e-02" rms="2.6893714070320129e-01" purity="5.8403861522674561e-01" nType="0">
            <Node pos="l" depth="3" NCoef="0" IVar="-1" Cut="0.0000000000000000e+00" cType="1" res="-9.1538857668638229e-03" rms="2.6296103000640869e-01" purity="5.8974349498748779e-01" nType="-99"/>
            <Node pos="r" depth="3" NCoef="0" IVar="-1" Cut="0.0000000000000000e+00" cType="1" res="-5.0833433866500854e-02" rms="2.7279675006866455e-01" purity="5.7883208990097046e-01" nType="-99"/>
          </Node>
          <Node pos="r" depth="2" NCoef="0" IVar="8" Cut="-1.2995716929435730e-01" cType="1" res="-2.2415616549551487e-03" rms="2.3597361147403717e-01" purity="7.6641762256622314e-01" nType="0">
            <Node pos="l" depth="3" NCoef="0" IVar="-1" Cut="0.0000000000000000e+00" cType="1" res="-1.6378961503505707e-02" rms="2.3601993918418884e-01" purity="7.5393986701965332e-01" nType="-99"/>
            <Node pos="r" depth="3" NCoef="0" IVar="-1" Cut="0.0000000000000000e+00" cType="1" res="5.4383366368710995e-03" rms="2.3580205440521240e-01" purity="7.7639734745025635e-01" nType="-99"/>
          </Node>
        </Node>
      </Node>
    </BinaryTree>
    <BinaryTree type="DecisionTree" boostWeight="1.0000000000000000e+00" itree="438">
      <Node pos="s" depth="0" NCoef="0" IVar="4" Cut="1.8848402404785156e+02" cType="1" res="-1.0462789796292782e-03" rms="2.4145999550819397e-01" purity="4.9438944458961487e-01" nType="0">
        <Node pos="l" depth="1" NCoef="0" IVar="0" Cut="1.8087335205078125e+03" cType="1" res="4.8899245448410511e-03" rms="2.3562119901180267e-01" purity="1.4209827780723572e-01" nType="0">
          <Node pos="l" depth="2" NCoef="0" IVar="0" Cut="1.7308551025390625e+03" cType="1" res="-9.8949868697673082e-04" rms="1.8397216498851776e-01" purity="4.3981213122606277e-02" nType="0">
            <Node pos="l" depth="3" NCoef="0" IVar="-1" Cut="0.0000000000000000e+00" cType="1" res="3.5197888500988483e-03" rms="1.7201808094978333e-01" purity="3.7084288895130157e-02" nType="-99"/>
            <Node pos="r" depth="3" NCoef="0" IVar="-1" Cut="0.0000000000000000e+00" cType="1" res="-2.5029722601175308e-02" rms="2.6937064528465271e-01" purity="1.0736007243394852e-01" nType="-99"/>
          </Node>
          <Node pos="r" depth="2" NCoef="0" IVar="4" Cut="1.6933529663085938e+02" cType="1" res="2.1963730454444885e-02" rms="3.4359803795814514e-01" purity="4.2702963948249817e-01" nType="0">
            <Node pos="l" depth="3" NCoef="0" IVar="-1" Cut="0.0000000000000000e+00" cType="1" res="2.7232900261878967e-02" rms="3.4411969780921936e-01" purity="3.5850110650062561e-01" nType="-99"/>
            <Node pos="r" depth="3" NCoef="0" IVar="-1" Cut="0.0000000000000000e+00" cType="1" res="4.4413399882614613e-03" rms="3.4191498160362244e-01" purity="5.6600254774093628e-01" nType="-99"/>
          </Node>
        </Node>
        <Node pos="r" depth="1" NCoef="0" IVar="4" Cut="2.2677920532226562e+02" cType="1" res="-4.2622932232916355e-03" rms="2.4450483918190002e-01" purity="6.8524771928787231e-01" nType="0">
          <Node pos="l" depth="2" NCoef="0" IVar="1" Cut="4.0119472891092300e-02" cType="1" res="-1.5059997327625751e-02" rms="2.7361807227134705e-01" purity="3.6190927028656006e-01" nType="0">
            <Node pos="l" depth="3" NCoef="0" IVar="-1" Cut="0.0000000000000000e+00" cType="1" res="-3.4226218704134226e-03" rms="2.2607210278511047e-01" purity="1.5092134475708008e-01" nType="-99"/>
            <Node pos="r" depth="3" NCoef="0" IVar="-1" Cut="0.0000000000000000e+00" cType="1" res="-2.2427657619118690e-02" rms="2.9820874333381653e-01" purity="4.8824200034141541e-01" nType="-99"/>
          </Node>
          <Node pos="r" depth="2" NCoef="0" IVar="1" Cut="6.3537500798702240e-02" cType="1" res="-5.0321378512308002e-04" rms="2.3340204358100891e-01" purity="7.9781371355056763e-01" nType="0">
            <Node pos="l" depth="3" NCoef="0" IVar="-1" Cut="0.0000000000000000e+00" cType="1" res="-1.0122285224497318e-02" rms="2.8135690093040466e-01" purity="5.6164968013763428e-01" nType="-99"/>
            <Node pos="r" depth="3" NCoef="0" IVar="-1" Cut="0.0000000000000000e+00" cType="1" res="7.1377833373844624e-03" rms="2.0817945897579193e-01" purity="9.0394139289855957e-01" nType="-99"/>
          </Node>
        </Node>
      </Node>
    </BinaryTree>
    <BinaryTree type="DecisionTree" boostWeight="1.0000000000000000e+00" itree="439">
      <Node pos="s" depth="0" NCoef="0" IVar="9" Cut="-1.7323050498962402e+00" cType="1" res="2.2773549426347017e-03" rms="2.4529546499252319e-01" purity="5.0546902418136597e-01" nType="0">
        <Node pos="l" depth="1" NCoef="0" IVar="9" Cut="-2.0881114006042480e+00" cType="1" res="2.7100879698991776e-02" rms="2.8089970350265503e-01" purity="2.7796155214309692e-01" nType="0">
          <Node pos="l" depth="2" NCoef="0" IVar="-1" Cut="0.0000000000000000e+00" cType="1" res="1.0569565929472446e-02" rms="2.5476446747779846e-01" purity="2.0521974563598633e-01" nType="-99"/>
          <Node pos="r" depth="2" NCoef="0" IVar="-1" Cut="0.0000000000000000e+00" cType="1" res="6.2354017049074173e-02" rms="3.0223336815834045e-01" purity="3.4666731953620911e-01" nType="-99"/>
        </Node>
        <Node pos="r" depth="1" NCoef="0" IVar="5" Cut="1.8458999633789062e+02" cType="1" res="6.2053219880908728e-04" rms="2.4264286458492279e-01" purity="5.2065372467041016e-01" nType="0">
          <Node pos="l" depth="2" NCoef="0" IVar="0" Cut="1.8375169677734375e+03" cType="1" res="4.2755617760121822e-03" rms="2.5866284966468811e-01" purity="2.8121301531791687e-01" nType="0">
            <Node pos="l" depth="3" NCoef="0" IVar="-1" Cut="0.0000000000000000e+00" cType="1" res="1.1358748888596892e-03" rms="2.0853161811828613e-01" purity="5.9241767972707748e-02" nType="-99"/>
            <Node pos="r" depth="3" NCoef="0" IVar="-1" Cut="0.0000000000000000e+00" cType="1" res="9.5316749066114426e-03" rms="3.2173874974250793e-01" purity="6.2872129678726196e-01" nType="-99"/>
          </Node>
          <Node pos="r" depth="2" NCoef="0" IVar="0" Cut="2.3782961425781250e+03" cType="1" res="-4.8235142603516579e-03" rms="2.1648150682449341e-01" purity="8.7729299068450928e-01" nType="0">
            <Node pos="l" depth="3" NCoef="0" IVar="-1" Cut="0.0000000000000000e+00" cType="1" res="-1.6233462840318680e-02" rms="3.3774036169052124e-01" purity="6.3222169876098633e-01" nType="-99"/>
            <Node pos="r" depth="3" NCoef="0" IVar="-1" Cut="0.0000000000000000e+00" cType="1" res="1.2455432442948222e-03" rms="1.4413562417030334e-01" purity="9.7209125757217407e-01" nType="-99"/>
          </Node>
        </Node>
      </Node>
    </BinaryTree>
    <BinaryTree type="DecisionTree" boostWeight="1.0000000000000000e+00" itree="440">
      <Node pos="s" depth="0" NCoef="0" IVar="8" Cut="9.3293291330337524e-01" cType="1" res="-1.3389468658715487e-03" rms="2.3945616185665131e-01" purity="5.0109094381332397e-01" nType="0">
        <Node pos="l" depth="1" NCoef="0" IVar="9" Cut="-1.9991436004638672e+00" cType="1" res="1.0441889753565192e-03" rms="2.3923704028129578e-01" purity="5.3414952754974365e-01" nType="0">
          <Node pos="l" depth="2" NCoef="0" IVar="-1" Cut="0.0000000000000000e+00" cType="1" res="-3.3250022679567337e-02" rms="2.4782997369766235e-01" purity="1.9296474754810333e-01" nType="-99"/>
          <Node pos="r" depth="2" NCoef="0" IVar="9" Cut="-1.5420730113983154e+00" cType="1" res="1.7636372940614820e-03" rms="2.3890678584575653e-01" purity="5.4573738574981689e-01" nType="0">
            <Node pos="l" depth="3" NCoef="0" IVar="-1" Cut="0.0000000000000000e+00" cType="1" res="2.6837680488824844e-02" rms="2.8048545122146606e-01" purity="4.0505164861679077e-01" nType="-99"/>
            <Node pos="r" depth="3" NCoef="0" IVar="-1" Cut="0.0000000000000000e+00" cType="1" res="1.1228007497265935e-03" rms="2.3633784055709839e-01" purity="5.5353999137878418e-01" nType="-99"/>
          </Node>
        </Node>
        <Node pos="r" depth="1" NCoef="0" IVar="5" Cut="1.8430543518066406e+02" cType="1" res="-1.1788538657128811e-02" rms="2.4013558030128479e-01" purity="3.5613551735877991e-01" nType="0">
          <Node pos="l" depth="2" NCoef="0" IVar="5" Cut="1.1543915557861328e+02" cType="1" res="-1.8517350777983665e-02" rms="2.3546402156352997e-01" purity="2.0321878790855408e-01" nType="0">
            <Node pos="l" depth="3" NCoef="0" IVar="-1" Cut="0.0000000000000000e+00" cType="1" res="1.2418741360306740e-02" rms="2.0549711585044861e-01" purity="9.0531922876834869e-02" nType="-99"/>
            <Node pos="r" depth="3" NCoef="0" IVar="-1" Cut="0.0000000000000000e+00" cType="1" res="-4.0914691984653473e-02" rms="2.5093811750411987e-01" purity="2.7217271924018860e-01" nType="-99"/>
          </Node>
          <Node pos="r" depth="2" NCoef="0" IVar="-1" Cut="0.0000000000000000e+00" cType="1" res="1.2471028603613377e-02" rms="2.5249516963958740e-01" purity="8.1221061944961548e-01" nType="-99"/>
        </Node>
      </Node>
    </BinaryTree>
    <BinaryTree type="DecisionTree" boostWeight="1.0000000000000000e+00" itree="441">
      <Node pos="s" depth="0" NCoef="0" IVar="9" Cut="6.6671943664550781e-01" cType="1" res="-7.8456033952534199e-04" rms="2.4177874624729156e-01" purity="4.9665316939353943e-01" nType="0">
        <Node pos="l" depth="1" NCoef="0" IVar="7" Cut="-9.2926120758056641e-01" cType="1" res="1.5893382951617241e-03" rms="2.4142932891845703e-01" purity="5.2277147769927979e-01" nType="0">
          <Node pos="l" depth="2" NCoef="0" IVar="1" Cut="7.0423655211925507e-02" cType="1" res="-6.7672044970095158e-03" rms="2.4005462229251862e-01" purity="2.9624664783477783e-01" nType="0">
            <Node pos="l" depth="3" NCoef="0" IVar="-1" Cut="0.0000000000000000e+00" cType="1" res="5.5316011421382427e-03" rms="2.2454403340816498e-01" purity="1.7736260592937469e-01" nType="-99"/>
            <Node pos="r" depth="3" NCoef="0" IVar="-1" Cut="0.0000000000000000e+00" cType="1" res="-3.6279808729887009e-02" rms="2.6809334754943848e-01" purity="5.4095536470413208e-01" nType="-99"/>
          </Node>
          <Node pos="r" depth="2" NCoef="0" IVar="1" Cut="1.0584560781717300e-01" cType="1" res="3.4059607423841953e-03" rms="2.4168890714645386e-01" purity="5.7201552391052246e-01" nType="0">
            <Node pos="l" depth="3" NCoef="0" IVar="-1" Cut="0.0000000000000000e+00" cType="1" res="1.1726003140211105e-02" rms="2.5377556681632996e-01" purity="4.3267509341239929e-01" nType="-99"/>
            <Node pos="r" depth="3" NCoef="0" IVar="-1" Cut="0.0000000000000000e+00" cType="1" res="-8.4369499236345291e-03" rms="2.1824772655963898e-01" purity="8.2080715894699097e-01" nType="-99"/>
          </Node>
        </Node>
        <Node pos="r" depth="1" NCoef="0" IVar="7" Cut="-3.9694696664810181e-01" cType="1" res="-7.0290868170559406e-03" rms="2.4258458614349365e-01" purity="4.2794924974441528e-01" nType="0">
          <Node pos="l" depth="2" NCoef="0" IVar="3" Cut="2.6312118530273438e+02" cType="1" res="-1.7394641414284706e-02" rms="2.4426196515560150e-01" purity="3.7517374753952026e-01" nType="0">
            <Node pos="l" depth="3" NCoef="0" IVar="-1" Cut="0.0000000000000000e+00" cType="1" res="1.0543609037995338e-02" rms="2.3155970871448517e-01" purity="1.9235184788703918e-01" nType="-99"/>
            <Node pos="r" depth="3" NCoef="0" IVar="-1" Cut="0.0000000000000000e+00" cType="1" res="-4.7979645431041718e-02" rms="2.5065669417381287e-01" purity="4.8812744021415710e-01" nType="-99"/>
          </Node>
          <Node pos="r" depth="2" NCoef="0" IVar="9" Cut="9.7144454717636108e-01" cType="1" res="-2.7505499310791492e-03" rms="2.4175928533077240e-01" purity="4.4973313808441162e-01" nType="0">
            <Node pos="l" depth="3" NCoef="0" IVar="-1" Cut="0.0000000000000000e+00" cType="1" res="-2.7105972170829773e-02" rms="2.2209280729293823e-01" purity="5.3032249212265015e-01" nType="-99"/>
            <Node pos="r" depth="3" NCoef="0" IVar="-1" Cut="0.0000000000000000e+00" cType="1" res="3.1348406337201595e-03" rms="2.4844840168952942e-01" purity="4.2002359032630920e-01" nType="-99"/>
          </Node>
        </Node>
      </Node>
    </BinaryTree>
    <BinaryTree type="DecisionTree" boostWeight="1.0000000000000000e+00" itree="442">
      <Node pos="s" depth="0" NCoef="0" IVar="7" Cut="-9.3345445394515991e-01" cType="1" res="2.4897316470742226e-03" rms="2.4077178537845612e-01" purity="5.0229030847549438e-01" nType="0">
        <Node pos="l" depth="1" NCoef="0" IVar="3" Cut="4.0546289062500000e+02" cType="1" res="-7.1722324937582016e-03" rms="2.2624595463275909e-01" purity="2.7969798445701599e-01" nType="0">
          <Node pos="l" depth="2" NCoef="0" IVar="0" Cut="2.0754184570312500e+03" cType="1" res="-3.9230915717780590e-03" rms="2.2264285385608673e-01" purity="2.2260376811027527e-01" nType="0">
            <Node pos="l" depth="3" NCoef="0" IVar="-1" Cut="0.0000000000000000e+00" cType="1" res="-2.1215520799160004e-02" rms="2.0111706852912903e-01" purity="7.6031737029552460e-02" nType="-99"/>
            <Node pos="r" depth="3" NCoef="0" IVar="-1" Cut="0.0000000000000000e+00" cType="1" res="2.0936295390129089e-02" rms="2.8232911229133606e-01" purity="7.1702957153320312e-01" nType="-99"/>
          </Node>
          <Node pos="r" depth="2" NCoef="0" IVar="-1" Cut="0.0000000000000000e+00" cType="1" res="-3.4403406083583832e-02" rms="2.4516417086124420e-01" purity="6.0906571149826050e-01" nType="-99"/>
        </Node>
        <Node pos="r" depth="1" NCoef="0" IVar="6" Cut="-1.0789049863815308e+00" cType="1" res="4.4669308699667454e-03" rms="2.4359035491943359e-01" purity="5.4784101247787476e-01" nType="0">
          <Node pos="l" depth="2" NCoef="0" IVar="7" Cut="-4.3754238635301590e-02" cType="1" res="-6.6958614625036716e-03" rms="2.1226766705513000e-01" purity="1.8609724938869476e-01" nType="0">
            <Node pos="l" depth="3" NCoef="0" IVar="-1" Cut="0.0000000000000000e+00" cType="1" res="1.6657555475831032e-02" rms="2.4642020463943481e-01" purity="2.6558524370193481e-01" nType="-99"/>
            <Node pos="r" depth="3" NCoef="0" IVar="-1" Cut="0.0000000000000000e+00" cType="1" res="-3.1237937510013580e-02" rms="1.9141146540641785e-01" purity="1.4444996416568756e-01" nType="-99"/>
          </Node>
          <Node pos="r" depth="2" NCoef="0" IVar="0" Cut="2.4651035156250000e+03" cType="1" res="5.8082155883312225e-03" rms="2.4705296754837036e-01" purity="5.9130698442459106e-01" nType="0">
            <Node pos="l" depth="3" NCoef="0" IVar="-1" Cut="0.0000000000000000e+00" cType="1" res="1.0689013637602329e-02" rms="2.8665184974670410e-01" purity="3.5500505566596985e-01" nType="-99"/>
            <Node pos="r" depth="3" NCoef="0" IVar="-1" Cut="0.0000000000000000e+00" cType="1" res="3.0387474689632654e-03" rms="1.6826641559600830e-01" purity="9.5672434568405151e-01" nType="-99"/>
          </Node>
        </Node>
      </Node>
    </BinaryTree>
    <BinaryTree type="DecisionTree" boostWeight="1.0000000000000000e+00" itree="443">
      <Node pos="s" depth="0" NCoef="0" IVar="7" Cut="1.4646228551864624e+00" cType="1" res="-1.1144739110022783e-03" rms="2.4200697243213654e-01" purity="5.0313127040863037e-01" nType="0">
        <Node pos="l" depth="1" NCoef="0" IVar="9" Cut="-1.4658967256546021e+00" cType="1" res="-2.8581268270500004e-04" rms="2.4497576057910919e-01" purity="5.2963131666183472e-01" nType="0">
          <Node pos="l" depth="2" NCoef="0" IVar="1" Cut="5.7188361883163452e-02" cType="1" res="9.5500824972987175e-03" rms="2.8531008958816528e-01" purity="3.6734730005264282e-01" nType="0">
            <Node pos="l" depth="3" NCoef="0" IVar="-1" Cut="0.0000000000000000e+00" cType="1" res="-1.2151458300650120e-02" rms="2.2431263327598572e-01" purity="1.6576491296291351e-01" nType="-99"/>
            <Node pos="r" depth="3" NCoef="0" IVar="-1" Cut="0.0000000000000000e+00" cType="1" res="3.2456096261739731e-02" rms="3.4521844983100891e-01" purity="6.1773151159286499e-01" nType="-99"/>
          </Node>
          <Node pos="r" depth="2" NCoef="0" IVar="8" Cut="-1.4664348363876343e+00" cType="1" res="-1.2738418299704790e-03" rms="2.4052838981151581e-01" purity="5.4593306779861450e-01" nType="0">
            <Node pos="l" depth="3" NCoef="0" IVar="-1" Cut="0.0000000000000000e+00" cType="1" res="-2.0003350451588631e-02" rms="2.4355359375476837e-01" purity="2.3163022100925446e-01" nType="-99"/>
            <Node pos="r" depth="3" NCoef="0" IVar="-1" Cut="0.0000000000000000e+00" cType="1" res="-4.8972980584949255e-04" rms="2.4025821685791016e-01" purity="5.7100188732147217e-01" nType="-99"/>
          </Node>
        </Node>
        <Node pos="r" depth="1" NCoef="0" IVar="3" Cut="2.4692092895507812e+02" cType="1" res="-1.3223754242062569e-02" rms="1.9309020042419434e-01" purity="1.1588391661643982e-01" nType="0">
          <Node pos="l" depth="2" NCoef="0" IVar="-1" Cut="0.0000000000000000e+00" cType="1" res="8.0317603424191475e-03" rms="1.6742277145385742e-01" purity="7.0315405726432800e-02" nType="-99"/>
          <Node pos="r" depth="2" NCoef="0" IVar="-1" Cut="0.0000000000000000e+00" cType="1" res="-5.1360547542572021e-02" rms="2.1125657856464386e-01" purity="1.5396615862846375e-01" nType="-99"/>
        </Node>
      </Node>
    </BinaryTree>
    <BinaryTree type="DecisionTree" boostWeight="1.0000000000000000e+00" itree="444">
      <Node pos="s" depth="0" NCoef="0" IVar="2" Cut="9.8491717529296875e+02" cType="1" res="-9.3830557307228446e-04" rms="2.4293571710586548e-01" purity="5.0421786308288574e-01" nType="0">
        <Node pos="l" depth="1" NCoef="0" IVar="3" Cut="2.2922311401367188e+02" cType="1" res="-2.8888482484035194e-04" rms="2.4170897901058197e-01" purity="4.9724128842353821e-01" nType="0">
          <Node pos="l" depth="2" NCoef="0" IVar="1" Cut="9.0156584978103638e-02" cType="1" res="1.0668236762285233e-02" rms="2.4104493856430054e-01" purity="1.2360218912363052e-01" nType="0">
            <Node pos="l" depth="3" NCoef="0" IVar="-1" Cut="0.0000000000000000e+00" cType="1" res="3.5642713308334351e-02" rms="2.2517026960849762e-01" purity="9.7042925655841827e-02" nType="-99"/>
            <Node pos="r" depth="3" NCoef="0" IVar="-1" Cut="0.0000000000000000e+00" cType="1" res="-1.1765359900891781e-02" rms="3.0385249853134155e-01" purity="2.4850818514823914e-01" nType="-99"/>
          </Node>
          <Node pos="r" depth="2" NCoef="0" IVar="0" Cut="2.4003837890625000e+03" cType="1" res="-2.8506838716566563e-03" rms="2.4179236590862274e-01" purity="5.8459895849227905e-01" nType="0">
            <Node pos="l" depth="3" NCoef="0" IVar="-1" Cut="0.0000000000000000e+00" cType="1" res="-8.8712126016616821e-03" rms="2.8299951553344727e-01" purity="3.1846252083778381e-01" nType="-99"/>
            <Node pos="r" depth="3" NCoef="0" IVar="-1" Cut="0.0000000000000000e+00" cType="1" res="1.1525014415383339e-02" rms="1.6882532835006714e-01" purity="9.5243239402770996e-01" nType="-99"/>
          </Node>
        </Node>
        <Node pos="r" depth="1" NCoef="0" IVar="-1" Cut="0.0000000000000000e+00" cType="1" res="-3.2084092497825623e-02" rms="2.8527915477752686e-01" purity="7.7428525686264038e-01" nType="-99"/>
      </Node>
    </BinaryTree>
    <BinaryTree type="DecisionTree" boostWeight="1.0000000000000000e+00" itree="445">
      <Node pos="s" depth="0" NCoef="0" IVar="1" Cut="1.2402436882257462e-01" cType="1" res="-2.6452161837369204e-03" rms="2.4415327608585358e-01" purity="4.9483582377433777e-01" nType="0">
        <Node pos="l" depth="1" NCoef="0" IVar="1" Cut="6.4972691237926483e-02" cType="1" res="-4.3666344135999680e-03" rms="2.5170031189918518e-01" purity="3.8625636696815491e-01" nType="0">
          <Node pos="l" depth="2" NCoef="0" IVar="9" Cut="1.3350187242031097e-01" cType="1" res="1.1228776565985754e-04" rms="2.3897977173328400e-01" purity="2.5864332914352417e-01" nType="0">
            <Node pos="l" depth="3" NCoef="0" IVar="-1" Cut="0.0000000000000000e+00" cType="1" res="-1.0444903746247292e-02" rms="2.3814879357814789e-01" purity="2.7039507031440735e-01" nType="-99"/>
            <Node pos="r" depth="3" NCoef="0" IVar="-1" Cut="0.0000000000000000e+00" cType="1" res="1.3153847306966782e-02" rms="2.3973198235034943e-01" purity="2.4475368857383728e-01" nType="-99"/>
          </Node>
          <Node pos="r" depth="2" NCoef="0" IVar="9" Cut="-1.1937147378921509e+00" cType="1" res="-1.2915082275867462e-02" rms="2.7414339780807495e-01" purity="6.2981802225112915e-01" nType="0">
            <Node pos="l" depth="3" NCoef="0" IVar="-1" Cut="0.0000000000000000e+00" cType="1" res="7.3048667982220650e-03" rms="3.0907022953033447e-01" purity="5.5022317171096802e-01" nType="-99"/>
            <Node pos="r" depth="3" NCoef="0" IVar="-1" Cut="0.0000000000000000e+00" cType="1" res="-2.1839078515768051e-02" rms="2.6788628101348877e-01" purity="6.4277583360671997e-01" nType="-99"/>
          </Node>
        </Node>
        <Node pos="r" depth="1" NCoef="0" IVar="9" Cut="-9.3078565597534180e-01" cType="1" res="2.8006010688841343e-03" rms="2.1847884356975555e-01" purity="8.3833396434783936e-01" nType="0">
          <Node pos="l" depth="2" NCoef="0" IVar="-1" Cut="0.0000000000000000e+00" cType="1" res="3.4695461392402649e-02" rms="2.4960035085678101e-01" purity="7.9478484392166138e-01" nType="-99"/>
          <Node pos="r" depth="2" NCoef="0" IVar="9" Cut="3.0280098319053650e-01" cType="1" res="-1.5437289839610457e-03" rms="2.1057005226612091e-01" purity="8.4817188978195190e-01" nType="0">
            <Node pos="l" depth="3" NCoef="0" IVar="-1" Cut="0.0000000000000000e+00" cType="1" res="1.1761795729398727e-02" rms="2.0465889573097229e-01" purity="8.5690659284591675e-01" nType="-99"/>
            <Node pos="r" depth="3" NCoef="0" IVar="-1" Cut="0.0000000000000000e+00" cType="1" res="-2.0182779058814049e-02" rms="2.1728731691837311e-01" purity="8.3754009008407593e-01" nType="-99"/>
          </Node>
        </Node>
      </Node>
    </BinaryTree>
    <BinaryTree type="DecisionTree" boostWeight="1.0000000000000000e+00" itree="446">
      <Node pos="s" depth="0" NCoef="0" IVar="5" Cut="1.5199047851562500e+02" cType="1" res="3.1708905589766800e-04" rms="2.4244904518127441e-01" purity="5.0645101070404053e-01" nType="0">
        <Node pos="l" depth="1" NCoef="0" IVar="1" Cut="3.7414282560348511e-02" cType="1" res="-5.4129776544868946e-03" rms="2.4410875141620636e-01" purity="1.8539796769618988e-01" nType="0">
          <Node pos="l" depth="2" NCoef="0" IVar="0" Cut="2.0021259765625000e+03" cType="1" res="2.6210637297481298e-03" rms="1.9246889650821686e-01" purity="7.7680215239524841e-02" nType="0">
            <Node pos="l" depth="3" NCoef="0" IVar="-1" Cut="0.0000000000000000e+00" cType="1" res="-4.5808176510035992e-03" rms="1.3369749486446381e-01" purity="2.1649086847901344e-02" nType="-99"/>
            <Node pos="r" depth="3" NCoef="0" IVar="-1" Cut="0.0000000000000000e+00" cType="1" res="1.6438106074929237e-02" rms="3.6278435587882996e-01" purity="3.5515308380126953e-01" nType="-99"/>
          </Node>
          <Node pos="r" depth="2" NCoef="0" IVar="7" Cut="3.2361784577369690e-01" cType="1" res="-1.3096355833113194e-02" rms="2.8465613722801208e-01" purity="2.8841412067413330e-01" nType="0">
            <Node pos="l" depth="3" NCoef="0" IVar="-1" Cut="0.0000000000000000e+00" cType="1" res="-2.3630604147911072e-02" rms="2.8261908888816833e-01" purity="2.9214471578598022e-01" nType="-99"/>
            <Node pos="r" depth="3" NCoef="0" IVar="-1" Cut="0.0000000000000000e+00" cType="1" res="2.8798473067581654e-04" rms="2.8755688667297363e-01" purity="2.8213933110237122e-01" nType="-99"/>
          </Node>
        </Node>
        <Node pos="r" depth="1" NCoef="0" IVar="7" Cut="-1.2005902528762817e+00" cType="1" res="5.2307462319731712e-03" rms="2.4090816080570221e-01" purity="7.8176105022430420e-01" nType="0">
          <Node pos="l" depth="2" NCoef="0" IVar="-1" Cut="0.0000000000000000e+00" cType="1" res="3.1596455723047256e-02" rms="3.1584495306015015e-01" purity="4.6671772003173828e-01" nType="-99"/>
          <Node pos="r" depth="2" NCoef="0" IVar="2" Cut="3.1070974731445312e+02" cType="1" res="3.3750087022781372e-03" rms="2.3398415744304657e-01" purity="8.0622959136962891e-01" nType="0">
            <Node pos="l" depth="3" NCoef="0" IVar="-1" Cut="0.0000000000000000e+00" cType="1" res="-2.3750772699713707e-02" rms="2.6716035604476929e-01" purity="3.0151474475860596e-01" nType="-99"/>
            <Node pos="r" depth="3" NCoef="0" IVar="-1" Cut="0.0000000000000000e+00" cType="1" res="8.9839305728673935e-03" rms="2.3164685070514679e-01" purity="8.3788901567459106e-01" nType="-99"/>
          </Node>
        </Node>
      </Node>
    </BinaryTree>
    <BinaryTree type="DecisionTree" boostWeight="1.0000000000000000e+00" itree="447">
      <Node pos="s" depth="0" NCoef="0" IVar="9" Cut="-1.7325633764266968e+00" cType="1" res="2.4843807332217693e-03" rms="2.4791800975799561e-01" purity="5.0036251544952393e-01" nType="0">
        <Node pos="l" depth="1" NCoef="0" IVar="4" Cut="1.7996014404296875e+02" cType="1" res="-1.4425986446440220e-02" rms="2.6959234476089478e-01" purity="2.3694068193435669e-01" nType="0">
          <Node pos="l" depth="2" NCoef="0" IVar="-1" Cut="0.0000000000000000e+00" cType="1" res="7.6245875097811222e-03" rms="2.2264042496681213e-01" purity="9.4988621771335602e-02" nType="-99"/>
          <Node pos="r" depth="2" NCoef="0" IVar="-1" Cut="0.0000000000000000e+00" cType="1" res="-3.4934878349304199e-02" rms="3.0609008669853210e-01" purity="3.6964988708496094e-01" nType="-99"/>
        </Node>
        <Node pos="r" depth="1" NCoef="0" IVar="0" Cut="1.9325854492187500e+03" cType="1" res="3.5198349505662918e-03" rms="2.4649125337600708e-01" purity="5.1649236679077148e-01" nType="0">
          <Node pos="l" depth="2" NCoef="0" IVar="0" Cut="1.7043204345703125e+03" cType="1" res="7.3234811425209045e-03" rms="2.4409060180187225e-01" purity="1.0045069456100464e-01" nType="0">
            <Node pos="l" depth="3" NCoef="0" IVar="-1" Cut="0.0000000000000000e+00" cType="1" res="3.0634321738034487e-03" rms="1.8623891472816467e-01" purity="4.2739331722259521e-02" nType="-99"/>
            <Node pos="r" depth="3" NCoef="0" IVar="-1" Cut="0.0000000000000000e+00" cType="1" res="2.0176058635115623e-02" rms="3.4652811288833618e-01" purity="2.4146541953086853e-01" nType="-99"/>
          </Node>
          <Node pos="r" depth="2" NCoef="0" IVar="8" Cut="-1.2000361680984497e+00" cType="1" res="5.6167808361351490e-04" rms="2.4830193817615509e-01" purity="8.4005469083786011e-01" nType="0">
            <Node pos="l" depth="3" NCoef="0" IVar="-1" Cut="0.0000000000000000e+00" cType="1" res="2.4632260203361511e-02" rms="3.0496227741241455e-01" purity="7.1850752830505371e-01" nType="-99"/>
            <Node pos="r" depth="3" NCoef="0" IVar="-1" Cut="0.0000000000000000e+00" cType="1" res="-2.9253384564071894e-03" rms="2.4215295910835266e-01" purity="8.5151118040084839e-01" nType="-99"/>
          </Node>
        </Node>
      </Node>
    </BinaryTree>
    <BinaryTree type="DecisionTree" boostWeight="1.0000000000000000e+00" itree="448">
      <Node pos="s" depth="0" NCoef="0" IVar="9" Cut="4.0011501312255859e-01" cType="1" res="-1.3445368967950344e-03" rms="2.4442528188228607e-01" purity="5.0267928838729858e-01" nType="0">
        <Node pos="l" depth="1" NCoef="0" IVar="9" Cut="-1.8849041461944580e+00" cType="1" res="-4.1147973388433456e-03" rms="2.4257239699363708e-01" purity="5.1725387573242188e-01" nType="0">
          <Node pos="l" depth="2" NCoef="0" IVar="-1" Cut="0.0000000000000000e+00" cType="1" res="1.8957592546939850e-02" rms="2.7279266715049744e-01" purity="2.4635033309459686e-01" nType="-99"/>
          <Node pos="r" depth="2" NCoef="0" IVar="7" Cut="4.0209287405014038e-01" cType="1" res="-5.3694751113653183e-03" rms="2.4019216001033783e-01" purity="5.3683513402938843e-01" nType="0">
            <Node pos="l" depth="3" NCoef="0" IVar="-1" Cut="0.0000000000000000e+00" cType="1" res="-2.2800746373832226e-03" rms="2.4045453965663910e-01" purity="5.7157677412033081e-01" nType="-99"/>
            <Node pos="r" depth="3" NCoef="0" IVar="-1" Cut="0.0000000000000000e+00" cType="1" res="-2.2042764350771904e-02" rms="2.3940931260585785e-01" purity="4.6318611502647400e-01" nType="-99"/>
          </Node>
        </Node>
        <Node pos="r" depth="1" NCoef="0" IVar="5" Cut="1.1561698913574219e+02" cType="1" res="3.4942263737320900e-03" rms="2.4755407869815826e-01" purity="4.7722214460372925e-01" nType="0">
          <Node pos="l" depth="2" NCoef="0" IVar="8" Cut="-6.4916092157363892e-01" cType="1" res="-5.9734676033258438e-03" rms="2.1107551455497742e-01" purity="1.0523963719606400e-01" nType="0">
            <Node pos="l" depth="3" NCoef="0" IVar="-1" Cut="0.0000000000000000e+00" cType="1" res="3.7985116243362427e-02" rms="2.3543012142181396e-01" purity="1.2212026864290237e-01" nType="-99"/>
            <Node pos="r" depth="3" NCoef="0" IVar="-1" Cut="0.0000000000000000e+00" cType="1" res="-2.9154038056731224e-02" rms="2.0082731544971466e-01" purity="9.9092252552509308e-02" nType="-99"/>
          </Node>
          <Node pos="r" depth="2" NCoef="0" IVar="5" Cut="1.4383836364746094e+02" cType="1" res="6.8755648098886013e-03" rms="2.5925791263580322e-01" purity="6.1007374525070190e-01" nType="0">
            <Node pos="l" depth="3" NCoef="0" IVar="-1" Cut="0.0000000000000000e+00" cType="1" res="2.0500715821981430e-02" rms="2.9093304276466370e-01" purity="2.8820586204528809e-01" nType="-99"/>
            <Node pos="r" depth="3" NCoef="0" IVar="-1" Cut="0.0000000000000000e+00" cType="1" res="6.3337660394608974e-03" rms="2.4986742436885834e-01" purity="6.9766479730606079e-01" nType="-99"/>
          </Node>
        </Node>
      </Node>
    </BinaryTree>
    <BinaryTree type="DecisionTree" boostWeight="1.0000000000000000e+00" itree="449">
      <Node pos="s" depth="0" NCoef="0" IVar="9" Cut="-6.6601920127868652e-01" cType="1" res="2.8295530937612057e-03" rms="2.4389597773551941e-01" purity="5.1364719867706299e-01" nType="0">
        <Node pos="l" depth="1" NCoef="0" IVar="2" Cut="4.2523529052734375e+02" cType="1" res="1.0229701176285744e-02" rms="2.5456699728965759e-01" purity="4.8215967416763306e-01" nType="0">
          <Node pos="l" depth="2" NCoef="0" IVar="5" Cut="1.6390672302246094e+02" cType="1" res="-9.4662059564143419e-04" rms="2.6854833960533142e-01" purity="2.8213387727737427e-01" nType="0">
            <Node pos="l" depth="3" NCoef="0" IVar="-1" Cut="0.0000000000000000e+00" cType="1" res="-1.3336817733943462e-02" rms="2.4418209493160248e-01" purity="1.3284868001937866e-01" nType="-99"/>
            <Node pos="r" depth="3" NCoef="0" IVar="-1" Cut="0.0000000000000000e+00" cType="1" res="1.4355193823575974e-02" rms="3.1193238496780396e-01" purity="5.8696371316909790e-01" nType="-99"/>
          </Node>
          <Node pos="r" depth="2" NCoef="0" IVar="1" Cut="1.9786331802606583e-02" cType="1" res="1.5923626720905304e-02" rms="2.4694566428661346e-01" purity="5.8406543731689453e-01" nType="0">
            <Node pos="l" depth="3" NCoef="0" IVar="-1" Cut="0.0000000000000000e+00" cType="1" res="-4.4168918393552303e-03" rms="1.7751199007034302e-01" purity="1.0604123771190643e-01" nType="-99"/>
            <Node pos="r" depth="3" NCoef="0" IVar="-1" Cut="0.0000000000000000e+00" cType="1" res="2.8094723820686340e-02" rms="2.5956347584724426e-01" purity="6.8907362222671509e-01" nType="-99"/>
          </Node>
        </Node>
        <Node pos="r" depth="1" NCoef="0" IVar="6" Cut="-7.8699094057083130e-01" cType="1" res="-8.6322725110221654e-05" rms="2.3949797451496124e-01" purity="5.2605420351028442e-01" nType="0">
          <Node pos="l" depth="2" NCoef="0" IVar="8" Cut="-9.2599892616271973e-01" cType="1" res="-9.7433151677250862e-03" rms="2.3069711029529572e-01" purity="2.8799340128898621e-01" nType="0">
            <Node pos="l" depth="3" NCoef="0" IVar="-1" Cut="0.0000000000000000e+00" cType="1" res="-4.8200067132711411e-02" rms="2.1981853246688843e-01" purity="2.1479901671409607e-01" nType="-99"/>
            <Node pos="r" depth="3" NCoef="0" IVar="-1" Cut="0.0000000000000000e+00" cType="1" res="-7.0360582321882248e-03" rms="2.3342224955558777e-01" purity="3.0912008881568909e-01" nType="-99"/>
          </Node>
          <Node pos="r" depth="2" NCoef="0" IVar="8" Cut="3.9980486035346985e-01" cType="1" res="1.8564978381618857e-03" rms="2.4118305742740631e-01" purity="5.7394796609878540e-01" nType="0">
            <Node pos="l" depth="3" NCoef="0" IVar="-1" Cut="0.0000000000000000e+00" cType="1" res="-3.0895306263118982e-03" rms="2.3647975921630859e-01" purity="5.9330976009368896e-01" nType="-99"/>
            <Node pos="r" depth="3" NCoef="0" IVar="-1" Cut="0.0000000000000000e+00" cType="1" res="1.2898419983685017e-02" rms="2.4920830130577087e-01" purity="5.3948348760604858e-01" nType="-99"/>
          </Node>
        </Node>
      </Node>
    </BinaryTree>
    <BinaryTree type="DecisionTree" boostWeight="1.0000000000000000e+00" itree="450">
      <Node pos="s" depth="0" NCoef="0" IVar="6" Cut="-6.1666572093963623e-01" cType="1" res="2.0215467084199190e-03" rms="2.4231299757957458e-01" purity="4.9677601456642151e-01" nType="0">
        <Node pos="l" depth="1" NCoef="0" IVar="4" Cut="1.7045207214355469e+02" cType="1" res="1.0834250599145889e-02" rms="2.4506169557571411e-01" purity="3.4516540169715881e-01" nType="0">
          <Node pos="l" depth="2" NCoef="0" IVar="1" Cut="3.8399577140808105e-02" cType="1" res="-4.1400208137929440e-03" rms="1.7495490610599518e-01" purity="5.1368176937103271e-02" nType="0">
            <Node pos="l" depth="3" NCoef="0" IVar="-1" Cut="0.0000000000000000e+00" cType="1" res="3.1530883163213730e-02" rms="1.5339244902133942e-01" purity="3.4504171460866928e-02" nType="-99"/>
            <Node pos="r" depth="3" NCoef="0" IVar="-1" Cut="0.0000000000000000e+00" cType="1" res="-4.4812183827161789e-02" rms="2.1216666698455811e-01" purity="8.7437488138675690e-02" nType="-99"/>
          </Node>
          <Node pos="r" depth="2" NCoef="0" IVar="1" Cut="6.9600686430931091e-02" cType="1" res="1.9046405330300331e-02" rms="2.7570554614067078e-01" purity="5.0628894567489624e-01" nType="0">
            <Node pos="l" depth="3" NCoef="0" IVar="-1" Cut="0.0000000000000000e+00" cType="1" res="3.6674655973911285e-02" rms="2.7953156828880310e-01" purity="3.2574969530105591e-01" nType="-99"/>
            <Node pos="r" depth="3" NCoef="0" IVar="-1" Cut="0.0000000000000000e+00" cType="1" res="7.9185077920556068e-03" rms="2.6928156614303589e-01" purity="7.7912211418151855e-01" nType="-99"/>
          </Node>
        </Node>
        <Node pos="r" depth="1" NCoef="0" IVar="9" Cut="1.4667167663574219e+00" cType="1" res="-5.1868776790797710e-04" rms="2.4145516753196716e-01" purity="5.4047727584838867e-01" nType="0">
          <Node pos="l" depth="2" NCoef="0" IVar="6" Cut="8.4612870216369629e-01" cType="1" res="-2.3068252485245466e-03" rms="2.3770448565483093e-01" purity="5.5685442686080933e-01" nType="0">
            <Node pos="l" depth="3" NCoef="0" IVar="-1" Cut="0.0000000000000000e+00" cType="1" res="6.1279733199626207e-04" rms="2.3975265026092529e-01" purity="6.3457280397415161e-01" nType="-99"/>
            <Node pos="r" depth="3" NCoef="0" IVar="-1" Cut="0.0000000000000000e+00" cType="1" res="-2.2736921906471252e-02" rms="2.2911100089550018e-01" purity="2.4921479821205139e-01" nType="-99"/>
          </Node>
          <Node pos="r" depth="2" NCoef="0" IVar="1" Cut="3.9563216269016266e-02" cType="1" res="1.6994982957839966e-02" rms="2.7489045262336731e-01" purity="3.8007336854934692e-01" nType="0">
            <Node pos="l" depth="3" NCoef="0" IVar="-1" Cut="0.0000000000000000e+00" cType="1" res="-4.0066177025437355e-03" rms="2.1795946359634399e-01" purity="9.4499051570892334e-02" nType="-99"/>
            <Node pos="r" depth="3" NCoef="0" IVar="-1" Cut="0.0000000000000000e+00" cType="1" res="3.1960789114236832e-02" rms="3.0286127328872681e-01" purity="5.4786449670791626e-01" nType="-99"/>
          </Node>
        </Node>
      </Node>
    </BinaryTree>
    <BinaryTree type="DecisionTree" boostWeight="1.0000000000000000e+00" itree="451">
      <Node pos="s" depth="0" NCoef="0" IVar="1" Cut="4.2364150285720825e-02" cType="1" res="-7.2804396040737629e-04" rms="2.4698731303215027e-01" purity="4.9491050839424133e-01" nType="0">
        <Node pos="l" depth="1" NCoef="0" IVar="1" Cut="3.8336981087923050e-02" cType="1" res="-6.1139315366744995e-03" rms="2.2132946550846100e-01" purity="1.7663668096065521e-01" nType="0">
          <Node pos="l" depth="2" NCoef="0" IVar="7" Cut="-9.3200439214706421e-01" cType="1" res="-3.0835685320198536e-03" rms="2.1577143669128418e-01" purity="1.6639161109924316e-01" nType="0">
            <Node pos="l" depth="3" NCoef="0" IVar="-1" Cut="0.0000000000000000e+00" cType="1" res="-3.1026434153318405e-02" rms="1.8448755145072937e-01" purity="7.3084525763988495e-02" nType="-99"/>
            <Node pos="r" depth="3" NCoef="0" IVar="-1" Cut="0.0000000000000000e+00" cType="1" res="-6.0509564355015755e-04" rms="2.2544360160827637e-01" purity="1.9841518998146057e-01" nType="-99"/>
          </Node>
          <Node pos="r" depth="2" NCoef="0" IVar="-1" Cut="0.0000000000000000e+00" cType="1" res="-4.6668075025081635e-02" rms="2.7600526809692383e-01" purity="2.9711964726448059e-01" nType="-99"/>
        </Node>
        <Node pos="r" depth="1" NCoef="0" IVar="9" Cut="-1.7336854934692383e+00" cType="1" res="2.2943574003875256e-03" rms="2.6023134589195251e-01" purity="6.7351639270782471e-01" nType="0">
          <Node pos="l" depth="2" NCoef="0" IVar="-1" Cut="0.0000000000000000e+00" cType="1" res="3.2115962356328964e-02" rms="3.3847790956497192e-01" purity="4.6593946218490601e-01" nType="-99"/>
          <Node pos="r" depth="2" NCoef="0" IVar="0" Cut="1.6139324951171875e+03" cType="1" res="1.0303278686478734e-03" rms="2.5598949193954468e-01" purity="6.8305790424346924e-01" nType="0">
            <Node pos="l" depth="3" NCoef="0" IVar="-1" Cut="0.0000000000000000e+00" cType="1" res="2.6618074625730515e-02" rms="2.3400264978408813e-01" purity="6.7043520510196686e-02" nType="-99"/>
            <Node pos="r" depth="3" NCoef="0" IVar="-1" Cut="0.0000000000000000e+00" cType="1" res="-1.7079126555472612e-03" rms="2.5989794731140137e-01" purity="8.0008167028427124e-01" nType="-99"/>
          </Node>
        </Node>
      </Node>
    </BinaryTree>
    <BinaryTree type="DecisionTree" boostWeight="1.0000000000000000e+00" itree="452">
      <Node pos="s" depth="0" NCoef="0" IVar="9" Cut="-1.1989319324493408e+00" cType="1" res="-4.6959400060586631e-04" rms="2.4066205322742462e-01" purity="5.0512248277664185e-01" nType="0">
        <Node pos="l" depth="1" NCoef="0" IVar="6" Cut="4.2768865823745728e-01" cType="1" res="-1.2091415002942085e-02" rms="2.5216433405876160e-01" purity="3.6751806735992432e-01" nType="0">
          <Node pos="l" depth="2" NCoef="0" IVar="9" Cut="-1.7321718931198120e+00" cType="1" res="-2.4793783668428659e-03" rms="2.6682093739509583e-01" purity="4.4145068526268005e-01" nType="0">
            <Node pos="l" depth="3" NCoef="0" IVar="-1" Cut="0.0000000000000000e+00" cType="1" res="-1.9043335691094398e-02" rms="2.7360248565673828e-01" purity="3.0251479148864746e-01" nType="-99"/>
            <Node pos="r" depth="3" NCoef="0" IVar="-1" Cut="0.0000000000000000e+00" cType="1" res="7.0430822670459747e-03" rms="2.6182383298873901e-01" purity="5.3591954708099365e-01" nType="-99"/>
          </Node>
          <Node pos="r" depth="2" NCoef="0" IVar="-1" Cut="0.0000000000000000e+00" cType="1" res="-4.3926183134317398e-02" rms="2.1878933906555176e-01" purity="2.2010536491870880e-01" nType="-99"/>
        </Node>
        <Node pos="r" depth="1" NCoef="0" IVar="6" Cut="1.2468390464782715e+00" cType="1" res="1.5732330502942204e-03" rms="2.3852443695068359e-01" purity="5.2930986881256104e-01" nType="0">
          <Node pos="l" depth="2" NCoef="0" IVar="7" Cut="9.3281680345535278e-01" cType="1" res="2.9689124785363674e-03" rms="2.4345242977142334e-01" purity="5.6427544355392456e-01" nType="0">
            <Node pos="l" depth="3" NCoef="0" IVar="-1" Cut="0.0000000000000000e+00" cType="1" res="8.4841884672641754e-03" rms="2.4406199157238007e-01" purity="6.1447077989578247e-01" nType="-99"/>
            <Node pos="r" depth="3" NCoef="0" IVar="-1" Cut="0.0000000000000000e+00" cType="1" res="-1.2523608282208443e-02" rms="2.4001492559909821e-01" purity="3.0691054463386536e-01" nType="-99"/>
          </Node>
          <Node pos="r" depth="2" NCoef="0" IVar="5" Cut="1.3379231262207031e+02" cType="1" res="-1.5013373456895351e-02" rms="1.6842930018901825e-01" purity="1.1377028375864029e-01" nType="0">
            <Node pos="l" depth="3" NCoef="0" IVar="-1" Cut="0.0000000000000000e+00" cType="1" res="-1.2312588281929493e-02" rms="1.0356201231479645e-01" purity="2.1899126470088959e-02" nType="-99"/>
            <Node pos="r" depth="3" NCoef="0" IVar="-1" Cut="0.0000000000000000e+00" cType="1" res="-4.3172888457775116e-02" rms="2.1985153853893280e-01" purity="2.1990673243999481e-01" nType="-99"/>
          </Node>
        </Node>
      </Node>
    </BinaryTree>
    <BinaryTree type="DecisionTree" boostWeight="1.0000000000000000e+00" itree="453">
      <Node pos="s" depth="0" NCoef="0" IVar="8" Cut="1.4659277200698853e+00" cType="1" res="-1.7481777467764914e-04" rms="2.4552966654300690e-01" purity="5.0887221097946167e-01" nType="0">
        <Node pos="l" depth="1" NCoef="0" IVar="7" Cut="-4.0061423182487488e-01" cType="1" res="1.0948772542178631e-03" rms="2.4572902917861938e-01" purity="5.3319412469863892e-01" nType="0">
          <Node pos="l" depth="2" NCoef="0" IVar="9" Cut="-1.1999231576919556e+00" cType="1" res="7.6389531604945660e-03" rms="2.5223621726036072e-01" purity="4.7551214694976807e-01" nType="0">
            <Node pos="l" depth="3" NCoef="0" IVar="-1" Cut="0.0000000000000000e+00" cType="1" res="3.8727104663848877e-02" rms="2.6489874720573425e-01" purity="3.6607801914215088e-01" nType="-99"/>
            <Node pos="r" depth="3" NCoef="0" IVar="-1" Cut="0.0000000000000000e+00" cType="1" res="5.9839892201125622e-03" rms="2.4935512244701385e-01" purity="4.9819582700729370e-01" nType="-99"/>
          </Node>
          <Node pos="r" depth="2" NCoef="0" IVar="7" Cut="6.6569072008132935e-01" cType="1" res="-2.1986973006278276e-03" rms="2.4232110381126404e-01" purity="5.6222498416900635e-01" nType="0">
            <Node pos="l" depth="3" NCoef="0" IVar="-1" Cut="0.0000000000000000e+00" cType="1" res="-1.0883484967052937e-02" rms="2.3746404051780701e-01" purity="6.4096343517303467e-01" nType="-99"/>
            <Node pos="r" depth="3" NCoef="0" IVar="-1" Cut="0.0000000000000000e+00" cType="1" res="9.8604215309023857e-03" rms="2.5140228867530823e-01" purity="4.0723034739494324e-01" nType="-99"/>
          </Node>
        </Node>
        <Node pos="r" depth="1" NCoef="0" IVar="7" Cut="-1.2034071981906891e-01" cType="1" res="-1.5696592628955841e-02" rms="2.4254250526428223e-01" purity="2.1154192090034485e-01" nType="0">
          <Node pos="l" depth="2" NCoef="0" IVar="-1" Cut="0.0000000000000000e+00" cType="1" res="-5.0505235791206360e-02" rms="2.2635893523693085e-01" purity="1.8700833618640900e-01" nType="-99"/>
          <Node pos="r" depth="2" NCoef="0" IVar="-1" Cut="0.0000000000000000e+00" cType="1" res="-5.5523198097944260e-03" rms="2.5245413184165955e-01" purity="2.2859722375869751e-01" nType="-99"/>
        </Node>
      </Node>
    </BinaryTree>
    <BinaryTree type="DecisionTree" boostWeight="1.0000000000000000e+00" itree="454">
      <Node pos="s" depth="0" NCoef="0" IVar="5" Cut="1.2120568847656250e+02" cType="1" res="-3.1090545235201716e-04" rms="2.4526025354862213e-01" purity="5.0046390295028687e-01" nType="0">
        <Node pos="l" depth="1" NCoef="0" IVar="9" Cut="-1.1989319324493408e+00" cType="1" res="-6.9160494022071362e-03" rms="2.1839120984077454e-01" purity="1.0174178332090378e-01" nType="0">
          <Node pos="l" depth="2" NCoef="0" IVar="0" Cut="1.6232229003906250e+03" cType="1" res="-2.8770405799150467e-02" rms="2.0763936638832092e-01" purity="1.0589600354433060e-01" nType="0">
            <Node pos="l" depth="3" NCoef="0" IVar="-1" Cut="0.0000000000000000e+00" cType="1" res="-2.1558428183197975e-02" rms="1.2996010482311249e-01" purity="1.8728114664554596e-02" nType="-99"/>
            <Node pos="r" depth="3" NCoef="0" IVar="-1" Cut="0.0000000000000000e+00" cType="1" res="-5.8905489742755890e-02" rms="2.5982901453971863e-01" purity="1.9073168933391571e-01" nType="-99"/>
          </Node>
          <Node pos="r" depth="2" NCoef="0" IVar="1" Cut="8.8593244552612305e-02" cType="1" res="-2.1392339840531349e-03" rms="2.2038310766220093e-01" purity="1.0083377361297607e-01" nType="0">
            <Node pos="l" depth="3" NCoef="0" IVar="-1" Cut="0.0000000000000000e+00" cType="1" res="-1.2025349773466587e-02" rms="2.0267948508262634e-01" purity="7.4917130172252655e-02" nType="-99"/>
            <Node pos="r" depth="3" NCoef="0" IVar="-1" Cut="0.0000000000000000e+00" cType="1" res="1.8109651282429695e-02" rms="3.0001810193061829e-01" purity="2.4527947604656219e-01" nType="-99"/>
          </Node>
        </Node>
        <Node pos="r" depth="1" NCoef="0" IVar="4" Cut="3.4071304321289062e+02" cType="1" res="2.3777869064360857e-03" rms="2.5534039735794067e-01" purity="6.6276788711547852e-01" nType="0">
          <Node pos="l" depth="2" NCoef="0" IVar="3" Cut="2.9668789672851562e+02" cType="1" res="5.3858691826462746e-03" rms="2.7235403656959534e-01" purity="5.8324122428894043e-01" nType="0">
            <Node pos="l" depth="3" NCoef="0" IVar="-1" Cut="0.0000000000000000e+00" cType="1" res="1.3890450820326805e-02" rms="2.9234504699707031e-01" purity="3.6176326870918274e-01" nType="-99"/>
            <Node pos="r" depth="3" NCoef="0" IVar="-1" Cut="0.0000000000000000e+00" cType="1" res="1.4333827421069145e-03" rms="2.5698012113571167e-01" purity="7.4199771881103516e-01" nType="-99"/>
          </Node>
          <Node pos="r" depth="2" NCoef="0" IVar="6" Cut="-1.6494750976562500e-02" cType="1" res="-8.3396704867482185e-03" rms="1.8183502554893494e-01" purity="9.4611227512359619e-01" nType="0">
            <Node pos="l" depth="3" NCoef="0" IVar="-1" Cut="0.0000000000000000e+00" cType="1" res="-7.0277668535709381e-02" rms="1.9769820570945740e-01" purity="9.3148636817932129e-01" nType="-99"/>
            <Node pos="r" depth="3" NCoef="0" IVar="-1" Cut="0.0000000000000000e+00" cType="1" res="1.1205392889678478e-02" rms="1.6380406916141510e-01" purity="9.6060085296630859e-01" nType="-99"/>
          </Node>
        </Node>
      </Node>
    </BinaryTree>
    <BinaryTree type="DecisionTree" boostWeight="1.0000000000000000e+00" itree="455">
      <Node pos="s" depth="0" NCoef="0" IVar="2" Cut="9.3064190673828125e+02" cType="1" res="2.5815872941166162e-03" rms="2.4388244748115540e-01" purity="5.0033676624298096e-01" nType="0">
        <Node pos="l" depth="1" NCoef="0" IVar="4" Cut="1.9147557067871094e+02" cType="1" res="1.6228858148679137e-03" rms="2.4275808036327362e-01" purity="4.8967581987380981e-01" nType="0">
          <Node pos="l" depth="2" NCoef="0" IVar="7" Cut="-1.4649355411529541e+00" cType="1" res="7.1159154176712036e-03" rms="2.3654320836067200e-01" purity="1.4484302699565887e-01" nType="0">
            <Node pos="l" depth="3" NCoef="0" IVar="-1" Cut="0.0000000000000000e+00" cType="1" res="-5.3208295255899429e-02" rms="1.4996004104614258e-01" purity="2.6650764048099518e-02" nType="-99"/>
            <Node pos="r" depth="3" NCoef="0" IVar="-1" Cut="0.0000000000000000e+00" cType="1" res="1.8106078729033470e-02" rms="2.4650730192661285e-01" purity="1.6212138533592224e-01" nType="-99"/>
          </Node>
          <Node pos="r" depth="2" NCoef="0" IVar="3" Cut="3.5477087402343750e+02" cType="1" res="-1.6161415260285139e-03" rms="2.4629186093807220e-01" purity="6.9301038980484009e-01" nType="0">
            <Node pos="l" depth="3" NCoef="0" IVar="-1" Cut="0.0000000000000000e+00" cType="1" res="-9.1596320271492004e-03" rms="2.7459248900413513e-01" purity="4.9578145146369934e-01" nType="-99"/>
            <Node pos="r" depth="3" NCoef="0" IVar="-1" Cut="0.0000000000000000e+00" cType="1" res="7.1441931650042534e-03" rms="2.1679644286632538e-01" purity="8.7501686811447144e-01" nType="-99"/>
          </Node>
        </Node>
        <Node pos="r" depth="1" NCoef="0" IVar="-1" Cut="0.0000000000000000e+00" cType="1" res="3.2848186790943146e-02" rms="2.7167913317680359e-01" purity="7.9360270500183105e-01" nType="-99"/>
      </Node>
    </BinaryTree>
    <BinaryTree type="DecisionTree" boostWeight="1.0000000000000000e+00" itree="456">
      <Node pos="s" depth="0" NCoef="0" IVar="7" Cut="-1.4653415679931641e+00" cType="1" res="-2.0246892236173153e-03" rms="2.4133530259132385e-01" purity="5.0152617692947388e-01" nType="0">
        <Node pos="l" depth="1" NCoef="0" IVar="1" Cut="2.9823757708072662e-02" cType="1" res="1.4338376000523567e-02" rms="2.0712095499038696e-01" purity="1.5799565613269806e-01" nType="0">
          <Node pos="l" depth="2" NCoef="0" IVar="-1" Cut="0.0000000000000000e+00" cType="1" res="-2.0188320428133011e-02" rms="1.3084985315799713e-01" purity="3.4933850169181824e-02" nType="-99"/>
          <Node pos="r" depth="2" NCoef="0" IVar="-1" Cut="0.0000000000000000e+00" cType="1" res="5.4170548915863037e-02" rms="2.8018108010292053e-01" purity="3.3390095829963684e-01" nType="-99"/>
        </Node>
        <Node pos="r" depth="1" NCoef="0" IVar="4" Cut="1.9222485351562500e+02" cType="1" res="-3.2896669581532478e-03" rms="2.4373468756675720e-01" purity="5.2808350324630737e-01" nType="0">
          <Node pos="l" depth="2" NCoef="0" IVar="6" Cut="7.2384250164031982e-01" cType="1" res="-8.0613931640982628e-03" rms="2.3721593618392944e-01" purity="1.5397438406944275e-01" nType="0">
            <Node pos="l" depth="3" NCoef="0" IVar="-1" Cut="0.0000000000000000e+00" cType="1" res="-1.6250099986791611e-02" rms="2.5123769044876099e-01" purity="1.7916536331176758e-01" nType="-99"/>
            <Node pos="r" depth="3" NCoef="0" IVar="-1" Cut="0.0000000000000000e+00" cType="1" res="2.8324143495410681e-03" rms="1.8927775323390961e-01" purity="7.9183772206306458e-02" nType="-99"/>
          </Node>
          <Node pos="r" depth="2" NCoef="0" IVar="2" Cut="6.5418164062500000e+02" cType="1" res="-7.6894881203770638e-04" rms="2.4707169830799103e-01" purity="7.2571080923080444e-01" nType="0">
            <Node pos="l" depth="3" NCoef="0" IVar="-1" Cut="0.0000000000000000e+00" cType="1" res="3.0769917648285627e-03" rms="2.5391292572021484e-01" purity="6.7799115180969238e-01" nType="-99"/>
            <Node pos="r" depth="3" NCoef="0" IVar="-1" Cut="0.0000000000000000e+00" cType="1" res="-1.6881365329027176e-02" rms="2.2687864303588867e-01" purity="8.5778737068176270e-01" nType="-99"/>
          </Node>
        </Node>
      </Node>
    </BinaryTree>
    <BinaryTree type="DecisionTree" boostWeight="1.0000000000000000e+00" itree="457">
      <Node pos="s" depth="0" NCoef="0" IVar="9" Cut="-1.7323050498962402e+00" cType="1" res="-4.0326253511011600e-03" rms="2.4319255352020264e-01" purity="4.9481222033500671e-01" nType="0">
        <Node pos="l" depth="1" NCoef="0" IVar="6" Cut="-1.3962291181087494e-02" cType="1" res="-2.0906986668705940e-02" rms="2.6378184556961060e-01" purity="2.4741072952747345e-01" nType="0">
          <Node pos="l" depth="2" NCoef="0" IVar="-1" Cut="0.0000000000000000e+00" cType="1" res="-4.2165827006101608e-02" rms="2.5909802317619324e-01" purity="2.3316313326358795e-01" nType="-99"/>
          <Node pos="r" depth="2" NCoef="0" IVar="-1" Cut="0.0000000000000000e+00" cType="1" res="-1.1642690747976303e-02" rms="2.6912185549736023e-01" purity="2.6559376716613770e-01" nType="-99"/>
        </Node>
        <Node pos="r" depth="1" NCoef="0" IVar="0" Cut="2.1418649902343750e+03" cType="1" res="-2.9594697989523411e-03" rms="2.4178403615951538e-01" purity="5.1054614782333374e-01" nType="0">
          <Node pos="l" depth="2" NCoef="0" IVar="0" Cut="1.6472962646484375e+03" cType="1" res="-6.3675562851130962e-03" rms="2.6265668869018555e-01" purity="1.5810279548168182e-01" nType="0">
            <Node pos="l" depth="3" NCoef="0" IVar="-1" Cut="0.0000000000000000e+00" cType="1" res="3.4088629763573408e-03" rms="1.7803241312503815e-01" purity="3.7158381193876266e-02" nType="-99"/>
            <Node pos="r" depth="3" NCoef="0" IVar="-1" Cut="0.0000000000000000e+00" cType="1" res="-1.2287151999771595e-02" rms="3.2790741324424744e-01" purity="2.8345134854316711e-01" nType="-99"/>
          </Node>
          <Node pos="r" depth="2" NCoef="0" IVar="0" Cut="2.5658029785156250e+03" cType="1" res="8.9531368575990200e-04" rms="2.1569067239761353e-01" purity="9.0918415784835815e-01" nType="0">
            <Node pos="l" depth="3" NCoef="0" IVar="-1" Cut="0.0000000000000000e+00" cType="1" res="6.5626972354948521e-03" rms="2.7777457237243652e-01" purity="8.3251196146011353e-01" nType="-99"/>
            <Node pos="r" depth="3" NCoef="0" IVar="-1" Cut="0.0000000000000000e+00" cType="1" res="-5.6724031455814838e-03" rms="1.6907437145709991e-01" purity="9.5402961969375610e-01" nType="-99"/>
          </Node>
        </Node>
      </Node>
    </BinaryTree>
    <BinaryTree type="DecisionTree" boostWeight="1.0000000000000000e+00" itree="458">
      <Node pos="s" depth="0" NCoef="0" IVar="9" Cut="-9.3194788694381714e-01" cType="1" res="1.1002500832546502e-04" rms="2.4393352866172791e-01" purity="5.0140219926834106e-01" nType="0">
        <Node pos="l" depth="1" NCoef="0" IVar="0" Cut="1.8662014160156250e+03" cType="1" res="-8.1280218437314034e-03" rms="2.6017081737518311e-01" purity="3.9637431502342224e-01" nType="0">
          <Node pos="l" depth="2" NCoef="0" IVar="2" Cut="3.6150949096679688e+02" cType="1" res="3.0361293465830386e-04" rms="2.3237884044647217e-01" purity="8.0450847744941711e-02" nType="0">
            <Node pos="l" depth="3" NCoef="0" IVar="-1" Cut="0.0000000000000000e+00" cType="1" res="-2.7320619672536850e-02" rms="2.5115779042243958e-01" purity="9.3545198440551758e-02" nType="-99"/>
            <Node pos="r" depth="3" NCoef="0" IVar="-1" Cut="0.0000000000000000e+00" cType="1" res="2.2513916715979576e-02" rms="2.2149860858917236e-01" purity="7.3757871985435486e-02" nType="-99"/>
          </Node>
          <Node pos="r" depth="2" NCoef="0" IVar="0" Cut="2.2881462402343750e+03" cType="1" res="-1.6894685104489326e-02" rms="2.8595617413520813e-01" purity="7.2485083341598511e-01" nType="0">
            <Node pos="l" depth="3" NCoef="0" IVar="-1" Cut="0.0000000000000000e+00" cType="1" res="-2.9219562187790871e-02" rms="3.3780896663665771e-01" purity="4.7694855928421021e-01" nType="-99"/>
            <Node pos="r" depth="3" NCoef="0" IVar="-1" Cut="0.0000000000000000e+00" cType="1" res="-8.6777089163661003e-03" rms="2.4752624332904816e-01" purity="8.7915378808975220e-01" nType="-99"/>
          </Node>
        </Node>
        <Node pos="r" depth="1" NCoef="0" IVar="0" Cut="1.6472932128906250e+03" cType="1" res="2.3254952393472195e-03" rms="2.3933058977127075e-01" purity="5.2964752912521362e-01" nType="0">
          <Node pos="l" depth="2" NCoef="0" IVar="1" Cut="1.0324095189571381e-01" cType="1" res="-5.9276605024933815e-03" rms="1.5621864795684814e-01" purity="2.9808761551976204e-02" nType="0">
            <Node pos="l" depth="3" NCoef="0" IVar="-1" Cut="0.0000000000000000e+00" cType="1" res="-1.1777284555137157e-02" rms="1.4338009059429169e-01" purity="2.3791788145899773e-02" nType="-99"/>
            <Node pos="r" depth="3" NCoef="0" IVar="-1" Cut="0.0000000000000000e+00" cType="1" res="-3.5027135163545609e-02" rms="2.2272451221942902e-01" purity="7.0008754730224609e-02" nType="-99"/>
          </Node>
          <Node pos="r" depth="2" NCoef="0" IVar="8" Cut="1.1996176242828369e+00" cType="1" res="5.2835079841315746e-03" rms="2.6273301243782043e-01" purity="7.0879471302032471e-01" nType="0">
            <Node pos="l" depth="3" NCoef="0" IVar="-1" Cut="0.0000000000000000e+00" cType="1" res="4.6068090014159679e-03" rms="2.5755715370178223e-01" purity="7.2794723510742188e-01" nType="-99"/>
            <Node pos="r" depth="3" NCoef="0" IVar="-1" Cut="0.0000000000000000e+00" cType="1" res="2.7133146300911903e-02" rms="3.0604925751686096e-01" purity="5.3033238649368286e-01" nType="-99"/>
          </Node>
        </Node>
      </Node>
    </BinaryTree>
    <BinaryTree type="DecisionTree" boostWeight="1.0000000000000000e+00" itree="459">
      <Node pos="s" depth="0" NCoef="0" IVar="6" Cut="-2.7570435404777527e-01" cType="1" res="3.4017632715404034e-03" rms="2.4416813254356384e-01" purity="5.0286424160003662e-01" nType="0">
        <Node pos="l" depth="1" NCoef="0" IVar="2" Cut="7.7279144287109375e+02" cType="1" res="8.4607936441898346e-03" rms="2.4927525222301483e-01" purity="4.5913445949554443e-01" nType="0">
          <Node pos="l" depth="2" NCoef="0" IVar="0" Cut="1.6982042236328125e+03" cType="1" res="1.1202905327081680e-02" rms="2.4780848622322083e-01" purity="4.3817174434661865e-01" nType="0">
            <Node pos="l" depth="3" NCoef="0" IVar="-1" Cut="0.0000000000000000e+00" cType="1" res="-3.5871602594852448e-03" rms="1.7327108979225159e-01" purity="3.5126309841871262e-02" nType="-99"/>
            <Node pos="r" depth="3" NCoef="0" IVar="-1" Cut="0.0000000000000000e+00" cType="1" res="2.3882478475570679e-02" rms="2.8308436274528503e-01" purity="6.8053746223449707e-01" nType="-99"/>
          </Node>
          <Node pos="r" depth="2" NCoef="0" IVar="-1" Cut="0.0000000000000000e+00" cType="1" res="-3.1463429331779480e-02" rms="2.6248374581336975e-01" purity="6.7968249320983887e-01" nType="-99"/>
        </Node>
        <Node pos="r" depth="1" NCoef="0" IVar="3" Cut="2.3945591735839844e+02" cType="1" res="4.9485859926789999e-04" rms="2.4113665521144867e-01" purity="5.2799123525619507e-01" nType="0">
          <Node pos="l" depth="2" NCoef="0" IVar="0" Cut="1.5634876708984375e+03" cType="1" res="-7.2107999585568905e-03" rms="2.3087799549102783e-01" purity="1.3647300004959106e-01" nType="0">
            <Node pos="l" depth="3" NCoef="0" IVar="-1" Cut="0.0000000000000000e+00" cType="1" res="8.0957086756825447e-03" rms="1.7544689774513245e-01" purity="3.6803156137466431e-02" nType="-99"/>
            <Node pos="r" depth="3" NCoef="0" IVar="-1" Cut="0.0000000000000000e+00" cType="1" res="-1.9620813429355621e-02" rms="2.7522504329681396e-01" purity="2.3663046956062317e-01" nType="-99"/>
          </Node>
          <Node pos="r" depth="2" NCoef="0" IVar="3" Cut="4.0148385620117188e+02" cType="1" res="2.6982864364981651e-03" rms="2.4394607543945312e-01" purity="6.3994556665420532e-01" nType="0">
            <Node pos="l" depth="3" NCoef="0" IVar="-1" Cut="0.0000000000000000e+00" cType="1" res="1.0134741663932800e-02" rms="2.6054286956787109e-01" purity="5.0873619318008423e-01" nType="-99"/>
            <Node pos="r" depth="3" NCoef="0" IVar="-1" Cut="0.0000000000000000e+00" cType="1" res="-8.3004720509052277e-03" rms="2.1531996130943298e-01" purity="8.4483855962753296e-01" nType="-99"/>
          </Node>
        </Node>
      </Node>
    </BinaryTree>
    <BinaryTree type="DecisionTree" boostWeight="1.0000000000000000e+00" itree="460">
      <Node pos="s" depth="0" NCoef="0" IVar="9" Cut="-1.7323213815689087e+00" cType="1" res="-2.5697175879031420e-03" rms="2.4499009549617767e-01" purity="4.9615207314491272e-01" nType="0">
        <Node pos="l" depth="1" NCoef="0" IVar="5" Cut="1.2484895324707031e+02" cType="1" res="-2.1744206547737122e-02" rms="2.7102127671241760e-01" purity="2.4982592463493347e-01" nType="0">
          <Node pos="l" depth="2" NCoef="0" IVar="-1" Cut="0.0000000000000000e+00" cType="1" res="2.5981960818171501e-02" rms="2.2126387059688568e-01" purity="1.1456541717052460e-01" nType="-99"/>
          <Node pos="r" depth="2" NCoef="0" IVar="-1" Cut="0.0000000000000000e+00" cType="1" res="-5.5932082235813141e-02" rms="3.0832639336585999e-01" purity="3.8130170106887817e-01" nType="-99"/>
        </Node>
        <Node pos="r" depth="1" NCoef="0" IVar="2" Cut="3.2214724731445312e+02" cType="1" res="-1.3769502984359860e-03" rms="2.4322886765003204e-01" purity="5.1147502660751343e-01" nType="0">
          <Node pos="l" depth="2" NCoef="0" IVar="8" Cut="-1.3526538014411926e-01" cType="1" res="-1.7369208857417107e-02" rms="2.5160983204841614e-01" purity="1.7847204208374023e-01" nType="0">
            <Node pos="l" depth="3" NCoef="0" IVar="-1" Cut="0.0000000000000000e+00" cType="1" res="-6.2789425253868103e-02" rms="2.2946897149085999e-01" purity="1.3926336169242859e-01" nType="-99"/>
            <Node pos="r" depth="3" NCoef="0" IVar="-1" Cut="0.0000000000000000e+00" cType="1" res="1.0305981151759624e-02" rms="2.6764467358589172e-01" purity="2.1377044916152954e-01" nType="-99"/>
          </Node>
          <Node pos="r" depth="2" NCoef="0" IVar="8" Cut="-1.4656727313995361e+00" cType="1" res="4.2959250276908278e-04" rms="2.4219752848148346e-01" purity="5.4909223318099976e-01" nType="0">
            <Node pos="l" depth="3" NCoef="0" IVar="-1" Cut="0.0000000000000000e+00" cType="1" res="2.6030158624053001e-02" rms="2.6272368431091309e-01" purity="2.7480119466781616e-01" nType="-99"/>
            <Node pos="r" depth="3" NCoef="0" IVar="-1" Cut="0.0000000000000000e+00" cType="1" res="-1.5281618107110262e-03" rms="2.4032317101955414e-01" purity="5.7244038581848145e-01" nType="-99"/>
          </Node>
        </Node>
      </Node>
    </BinaryTree>
    <BinaryTree type="DecisionTree" boostWeight="1.0000000000000000e+00" itree="461">
      <Node pos="s" depth="0" NCoef="0" IVar="7" Cut="-3.9676669239997864e-01" cType="1" res="-1.6067695105448365e-03" rms="2.4385125935077667e-01" purity="5.0434482097625732e-01" nType="0">
        <Node pos="l" depth="1" NCoef="0" IVar="2" Cut="3.0817010498046875e+02" cType="1" res="-7.0738480426371098e-03" rms="2.4038746953010559e-01" purity="4.2653226852416992e-01" nType="0">
          <Node pos="l" depth="2" NCoef="0" IVar="-1" Cut="0.0000000000000000e+00" cType="1" res="3.3621754497289658e-02" rms="2.8115600347518921e-01" purity="1.7768214643001556e-01" nType="-99"/>
          <Node pos="r" depth="2" NCoef="0" IVar="1" Cut="7.7727459371089935e-02" cType="1" res="-1.0011258535087109e-02" rms="2.3582804203033447e-01" purity="4.5080795884132385e-01" nType="0">
            <Node pos="l" depth="3" NCoef="0" IVar="-1" Cut="0.0000000000000000e+00" cType="1" res="-2.6597611606121063e-02" rms="2.3389559984207153e-01" purity="2.6152056455612183e-01" nType="-99"/>
            <Node pos="r" depth="3" NCoef="0" IVar="-1" Cut="0.0000000000000000e+00" cType="1" res="2.1802550691063516e-05" rms="2.3856022953987122e-01" purity="7.5507855415344238e-01" nType="-99"/>
          </Node>
        </Node>
        <Node pos="r" depth="1" NCoef="0" IVar="1" Cut="2.1277295425534248e-02" cType="1" res="1.2426715111359954e-03" rms="2.4558897316455841e-01" purity="5.4490071535110474e-01" nType="0">
          <Node pos="l" depth="2" NCoef="0" IVar="0" Cut="2.0650065917968750e+03" cType="1" res="-7.4417209252715111e-03" rms="1.9201107323169708e-01" purity="1.2126077711582184e-01" nType="0">
            <Node pos="l" depth="3" NCoef="0" IVar="-1" Cut="0.0000000000000000e+00" cType="1" res="7.8757423907518387e-03" rms="1.3067188858985901e-01" purity="2.2737268358469009e-02" nType="-99"/>
            <Node pos="r" depth="3" NCoef="0" IVar="-1" Cut="0.0000000000000000e+00" cType="1" res="-3.3632613718509674e-02" rms="3.2304602861404419e-01" purity="4.6317169070243835e-01" nType="-99"/>
          </Node>
          <Node pos="r" depth="2" NCoef="0" IVar="1" Cut="1.2188255786895752e-01" cType="1" res="3.0379469972103834e-03" rms="2.5522917509078979e-01" purity="6.3247746229171753e-01" nType="0">
            <Node pos="l" depth="3" NCoef="0" IVar="-1" Cut="0.0000000000000000e+00" cType="1" res="8.0551132559776306e-03" rms="2.6810079813003540e-01" purity="5.2302062511444092e-01" nType="-99"/>
            <Node pos="r" depth="3" NCoef="0" IVar="-1" Cut="0.0000000000000000e+00" cType="1" res="-5.9816585853695869e-03" rms="2.2674842178821564e-01" purity="8.5469919443130493e-01" nType="-99"/>
          </Node>
        </Node>
      </Node>
    </BinaryTree>
    <BinaryTree type="DecisionTree" boostWeight="1.0000000000000000e+00" itree="462">
      <Node pos="s" depth="0" NCoef="0" IVar="8" Cut="-1.3314791023731232e-01" cType="1" res="2.1499628201127052e-03" rms="2.4432450532913208e-01" purity="5.0220400094985962e-01" nType="0">
        <Node pos="l" depth="1" NCoef="0" IVar="2" Cut="7.7279144287109375e+02" cType="1" res="6.4143524505198002e-03" rms="2.4640417098999023e-01" purity="4.8146116733551025e-01" nType="0">
          <Node pos="l" depth="2" NCoef="0" IVar="2" Cut="6.0917907714843750e+02" cType="1" res="4.5042536221444607e-03" rms="2.4301403760910034e-01" purity="4.5132204890251160e-01" nType="0">
            <Node pos="l" depth="3" NCoef="0" IVar="-1" Cut="0.0000000000000000e+00" cType="1" res="1.2245483696460724e-02" rms="2.4494887888431549e-01" purity="4.1016310453414917e-01" nType="-99"/>
            <Node pos="r" depth="3" NCoef="0" IVar="-1" Cut="0.0000000000000000e+00" cType="1" res="-1.3780945912003517e-02" rms="2.3462852835655212e-01" purity="6.1765241622924805e-01" nType="-99"/>
          </Node>
          <Node pos="r" depth="2" NCoef="0" IVar="-1" Cut="0.0000000000000000e+00" cType="1" res="3.0577793717384338e-02" rms="2.7406865358352661e-01" purity="7.4881380796432495e-01" nType="-99"/>
        </Node>
        <Node pos="r" depth="1" NCoef="0" IVar="6" Cut="1.2205611467361450e+00" cType="1" res="-1.5833172947168350e-03" rms="2.4242764711380005e-01" purity="5.2036345005035400e-01" nType="0">
          <Node pos="l" depth="2" NCoef="0" IVar="9" Cut="1.7333266735076904e+00" cType="1" res="-3.3815519418567419e-03" rms="2.4463739991188049e-01" purity="5.5321192741394043e-01" nType="0">
            <Node pos="l" depth="3" NCoef="0" IVar="-1" Cut="0.0000000000000000e+00" cType="1" res="-3.4846349153667688e-03" rms="2.4314253032207489e-01" purity="5.7066375017166138e-01" nType="-99"/>
            <Node pos="r" depth="3" NCoef="0" IVar="-1" Cut="0.0000000000000000e+00" cType="1" res="-3.2473307102918625e-02" rms="2.6797434687614441e-01" purity="2.5604307651519775e-01" nType="-99"/>
          </Node>
          <Node pos="r" depth="2" NCoef="0" IVar="-1" Cut="0.0000000000000000e+00" cType="1" res="4.4679544866085052e-02" rms="2.1631708741188049e-01" purity="1.6725669801235199e-01" nType="-99"/>
        </Node>
      </Node>
    </BinaryTree>
    <BinaryTree type="DecisionTree" boostWeight="1.0000000000000000e+00" itree="463">
      <Node pos="s" depth="0" NCoef="0" IVar="9" Cut="9.3340963125228882e-01" cType="1" res="1.8669576384127140e-03" rms="2.4330635368824005e-01" purity="4.9826553463935852e-01" nType="0">
        <Node pos="l" depth="1" NCoef="0" IVar="1" Cut="7.7754244208335876e-02" cType="1" res="1.2433664778654929e-05" rms="2.3885601758956909e-01" purity="5.1660871505737305e-01" nType="0">
          <Node pos="l" depth="2" NCoef="0" IVar="0" Cut="1.9325543212890625e+03" cType="1" res="-3.1795233953744173e-03" rms="2.3985122144222260e-01" purity="3.0166941881179810e-01" nType="0">
            <Node pos="l" depth="3" NCoef="0" IVar="-1" Cut="0.0000000000000000e+00" cType="1" res="3.2419029157608747e-03" rms="1.9173185527324677e-01" purity="4.8773854970932007e-02" nType="-99"/>
            <Node pos="r" depth="3" NCoef="0" IVar="-1" Cut="0.0000000000000000e+00" cType="1" res="-1.0599788278341293e-02" rms="2.9927632212638855e-01" purity="6.9272118806838989e-01" nType="-99"/>
          </Node>
          <Node pos="r" depth="2" NCoef="0" IVar="4" Cut="2.5418739318847656e+02" cType="1" res="3.9507704786956310e-03" rms="2.3756326735019684e-01" purity="7.8180754184722900e-01" nType="0">
            <Node pos="l" depth="3" NCoef="0" IVar="-1" Cut="0.0000000000000000e+00" cType="1" res="1.4084947295486927e-02" rms="2.9763549566268921e-01" purity="5.6639009714126587e-01" nType="-99"/>
            <Node pos="r" depth="3" NCoef="0" IVar="-1" Cut="0.0000000000000000e+00" cType="1" res="-6.8586911074817181e-03" rms="1.8299514055252075e-01" purity="9.3494808673858643e-01" nType="-99"/>
          </Node>
        </Node>
        <Node pos="r" depth="1" NCoef="0" IVar="5" Cut="9.7362182617187500e+01" cType="1" res="8.9378887787461281e-03" rms="2.5945386290550232e-01" purity="4.2832684516906738e-01" nType="0">
          <Node pos="l" depth="2" NCoef="0" IVar="-1" Cut="0.0000000000000000e+00" cType="1" res="6.7569486796855927e-02" rms="2.2776567935943604e-01" purity="1.0345005244016647e-01" nType="-99"/>
          <Node pos="r" depth="2" NCoef="0" IVar="7" Cut="9.2923527956008911e-01" cType="1" res="5.5276229977607727e-03" rms="2.6540669798851013e-01" purity="4.9550023674964905e-01" nType="0">
            <Node pos="l" depth="3" NCoef="0" IVar="-1" Cut="0.0000000000000000e+00" cType="1" res="1.4272712171077728e-02" rms="2.6437753438949585e-01" purity="5.5066263675689697e-01" nType="-99"/>
            <Node pos="r" depth="3" NCoef="0" IVar="-1" Cut="0.0000000000000000e+00" cType="1" res="-1.7449554055929184e-02" rms="2.6846796274185181e-01" purity="2.8637623786926270e-01" nType="-99"/>
          </Node>
        </Node>
      </Node>
    </BinaryTree>
    <BinaryTree type="DecisionTree" boostWeight="1.0000000000000000e+00" itree="464">
      <Node pos="s" depth="0" NCoef="0" IVar="8" Cut="-4.0027663111686707e-01" cType="1" res="-3.8227974437177181e-03" rms="2.3942545056343079e-01" purity="4.9183431267738342e-01" nType="0">
        <Node pos="l" depth="1" NCoef="0" IVar="4" Cut="2.8293933105468750e+02" cType="1" res="-1.0906227864325047e-02" rms="2.3988446593284607e-01" purity="4.3850108981132507e-01" nType="0">
          <Node pos="l" depth="2" NCoef="0" IVar="8" Cut="-1.4286886453628540e+00" cType="1" res="-1.5623456798493862e-02" rms="2.4894525110721588e-01" purity="2.8706616163253784e-01" nType="0">
            <Node pos="l" depth="3" NCoef="0" IVar="-1" Cut="0.0000000000000000e+00" cType="1" res="8.9603749802336097e-04" rms="2.4458059668540955e-01" purity="1.8635235726833344e-01" nType="-99"/>
            <Node pos="r" depth="3" NCoef="0" IVar="-1" Cut="0.0000000000000000e+00" cType="1" res="-3.3244658261537552e-02" rms="2.5041368603706360e-01" purity="3.2842481136322021e-01" nType="-99"/>
          </Node>
          <Node pos="r" depth="2" NCoef="0" IVar="3" Cut="4.3278112792968750e+02" cType="1" res="2.7431289199739695e-03" rms="2.1089799702167511e-01" purity="8.7667977809906006e-01" nType="0">
            <Node pos="l" depth="3" NCoef="0" IVar="-1" Cut="0.0000000000000000e+00" cType="1" res="1.6013234853744507e-02" rms="2.3755107820034027e-01" purity="8.3600836992263794e-01" nType="-99"/>
            <Node pos="r" depth="3" NCoef="0" IVar="-1" Cut="0.0000000000000000e+00" cType="1" res="-1.0223278775811195e-02" rms="1.8232263624668121e-01" purity="9.1461098194122314e-01" nType="-99"/>
          </Node>
        </Node>
        <Node pos="r" depth="1" NCoef="0" IVar="9" Cut="1.3354830443859100e-01" cType="1" res="4.7392484702868387e-05" rms="2.3908564448356628e-01" purity="5.2097415924072266e-01" nType="0">
          <Node pos="l" depth="2" NCoef="0" IVar="8" Cut="1.2744176387786865e+00" cType="1" res="6.4187226817011833e-03" rms="2.4152252078056335e-01" purity="5.4513436555862427e-01" nType="0">
            <Node pos="l" depth="3" NCoef="0" IVar="-1" Cut="0.0000000000000000e+00" cType="1" res="6.1728679575026035e-03" rms="2.3439134657382965e-01" purity="5.9217482805252075e-01" nType="-99"/>
            <Node pos="r" depth="3" NCoef="0" IVar="-1" Cut="0.0000000000000000e+00" cType="1" res="3.5292170941829681e-02" rms="2.7735540270805359e-01" purity="2.8356730937957764e-01" nType="-99"/>
          </Node>
          <Node pos="r" depth="2" NCoef="0" IVar="6" Cut="2.1372100710868835e-01" cType="1" res="-7.0771281607449055e-03" rms="2.3612743616104126e-01" purity="4.9395775794982910e-01" nType="0">
            <Node pos="l" depth="3" NCoef="0" IVar="-1" Cut="0.0000000000000000e+00" cType="1" res="-1.2364977737888694e-03" rms="2.4019259214401245e-01" purity="5.2692985534667969e-01" nType="-99"/>
            <Node pos="r" depth="3" NCoef="0" IVar="-1" Cut="0.0000000000000000e+00" cType="1" res="-2.7837082743644714e-02" rms="2.3005205392837524e-01" purity="4.4798672199249268e-01" nType="-99"/>
          </Node>
        </Node>
      </Node>
    </BinaryTree>
    <BinaryTree type="DecisionTree" boostWeight="1.0000000000000000e+00" itree="465">
      <Node pos="s" depth="0" NCoef="0" IVar="8" Cut="1.4661341905593872e+00" cType="1" res="-2.7638263418339193e-04" rms="2.4145720899105072e-01" purity="4.9587836861610413e-01" nType="0">
        <Node pos="l" depth="1" NCoef="0" IVar="8" Cut="1.2629700899124146e+00" cType="1" res="7.7801523730158806e-04" rms="2.4226404726505280e-01" purity="5.1890128850936890e-01" nType="0">
          <Node pos="l" depth="2" NCoef="0" IVar="4" Cut="2.6297152709960938e+02" cType="1" res="8.3193233876954764e-05" rms="2.4095784127712250e-01" purity="5.2242237329483032e-01" nType="0">
            <Node pos="l" depth="3" NCoef="0" IVar="-1" Cut="0.0000000000000000e+00" cType="1" res="-4.5021846890449524e-03" rms="2.5861075520515442e-01" purity="3.0558237433433533e-01" nType="-99"/>
            <Node pos="r" depth="3" NCoef="0" IVar="-1" Cut="0.0000000000000000e+00" cType="1" res="1.1480494402348995e-02" rms="2.0812800526618958e-01" purity="8.8384842872619629e-01" nType="-99"/>
          </Node>
          <Node pos="r" depth="2" NCoef="0" IVar="-1" Cut="0.0000000000000000e+00" cType="1" res="2.7501719072461128e-02" rms="2.7496325969696045e-01" purity="4.2245787382125854e-01" nType="-99"/>
        </Node>
        <Node pos="r" depth="1" NCoef="0" IVar="9" Cut="1.4085480570793152e-01" cType="1" res="-1.3569388538599014e-02" rms="2.3063054680824280e-01" purity="2.0562395453453064e-01" nType="0">
          <Node pos="l" depth="2" NCoef="0" IVar="-1" Cut="0.0000000000000000e+00" cType="1" res="-2.7909472119063139e-03" rms="2.5410574674606323e-01" purity="2.3907908797264099e-01" nType="-99"/>
          <Node pos="r" depth="2" NCoef="0" IVar="-1" Cut="0.0000000000000000e+00" cType="1" res="-5.0828181207180023e-02" rms="2.0199334621429443e-01" purity="1.7009267210960388e-01" nType="-99"/>
        </Node>
      </Node>
    </BinaryTree>
    <BinaryTree type="DecisionTree" boostWeight="1.0000000000000000e+00" itree="466">
      <Node pos="s" depth="0" NCoef="0" IVar="1" Cut="1.6536529362201691e-01" cType="1" res="1.8216267926618457e-04" rms="2.4244666099548340e-01" purity="4.9858292937278748e-01" nType="0">
        <Node pos="l" depth="1" NCoef="0" IVar="7" Cut="6.6675919294357300e-01" cType="1" res="1.7421816010028124e-03" rms="2.4847601354122162e-01" purity="4.4039121270179749e-01" nType="0">
          <Node pos="l" depth="2" NCoef="0" IVar="3" Cut="5.1192538452148438e+02" cType="1" res="-4.1507894638925791e-04" rms="2.4712413549423218e-01" purity="4.7953742742538452e-01" nType="0">
            <Node pos="l" depth="3" NCoef="0" IVar="-1" Cut="0.0000000000000000e+00" cType="1" res="-3.1155010219663382e-03" rms="2.5133842229843140e-01" purity="4.2416939139366150e-01" nType="-99"/>
            <Node pos="r" depth="3" NCoef="0" IVar="-1" Cut="0.0000000000000000e+00" cType="1" res="2.3675583302974701e-02" rms="2.1305333077907562e-01" purity="8.8839805126190186e-01" nType="-99"/>
          </Node>
          <Node pos="r" depth="2" NCoef="0" IVar="0" Cut="2.4692832031250000e+03" cType="1" res="7.9704420641064644e-03" rms="2.5223487615585327e-01" purity="3.2737156748771667e-01" nType="0">
            <Node pos="l" depth="3" NCoef="0" IVar="-1" Cut="0.0000000000000000e+00" cType="1" res="2.1345030516386032e-02" rms="2.5503432750701904e-01" purity="1.9874224066734314e-01" nType="-99"/>
            <Node pos="r" depth="3" NCoef="0" IVar="-1" Cut="0.0000000000000000e+00" cType="1" res="-3.2761584967374802e-02" rms="2.3813639581203461e-01" purity="8.8681238889694214e-01" nType="-99"/>
          </Node>
        </Node>
        <Node pos="r" depth="1" NCoef="0" IVar="5" Cut="1.9369096374511719e+02" cType="1" res="-9.4883367419242859e-03" rms="2.0080636441707611e-01" purity="8.5931116342544556e-01" nType="0">
          <Node pos="l" depth="2" NCoef="0" IVar="-1" Cut="0.0000000000000000e+00" cType="1" res="-3.0766557902097702e-02" rms="2.7833825349807739e-01" purity="6.6609215736389160e-01" nType="-99"/>
          <Node pos="r" depth="2" NCoef="0" IVar="-1" Cut="0.0000000000000000e+00" cType="1" res="2.4621319607831538e-04" rms="1.3498885929584503e-01" purity="9.7298717498779297e-01" nType="-99"/>
        </Node>
      </Node>
    </BinaryTree>
    <BinaryTree type="DecisionTree" boostWeight="1.0000000000000000e+00" itree="467">
      <Node pos="s" depth="0" NCoef="0" IVar="7" Cut="6.6675919294357300e-01" cType="1" res="-1.1110813356935978e-03" rms="2.4487245082855225e-01" purity="4.9893864989280701e-01" nType="0">
        <Node pos="l" depth="1" NCoef="0" IVar="7" Cut="-4.8878809809684753e-01" cType="1" res="-3.2155318185687065e-03" rms="2.4424518644809723e-01" purity="5.3939545154571533e-01" nType="0">
          <Node pos="l" depth="2" NCoef="0" IVar="7" Cut="-1.2591346502304077e+00" cType="1" res="-8.0062188208103180e-03" rms="2.4036665260791779e-01" purity="4.0502387285232544e-01" nType="0">
            <Node pos="l" depth="3" NCoef="0" IVar="-1" Cut="0.0000000000000000e+00" cType="1" res="1.7816994339227676e-02" rms="2.3595350980758667e-01" purity="2.0116041600704193e-01" nType="-99"/>
            <Node pos="r" depth="3" NCoef="0" IVar="-1" Cut="0.0000000000000000e+00" cType="1" res="-2.3666717112064362e-02" rms="2.4192625284194946e-01" purity="4.9538230895996094e-01" nType="-99"/>
          </Node>
          <Node pos="r" depth="2" NCoef="0" IVar="7" Cut="-3.2369503378868103e-01" cType="1" res="1.4000176452100277e-04" rms="2.4687017500400543e-01" purity="6.3351309299468994e-01" nType="0">
            <Node pos="l" depth="3" NCoef="0" IVar="-1" Cut="0.0000000000000000e+00" cType="1" res="3.1705636531114578e-02" rms="2.6152682304382324e-01" purity="6.4092242717742920e-01" nType="-99"/>
            <Node pos="r" depth="3" NCoef="0" IVar="-1" Cut="0.0000000000000000e+00" cType="1" res="-4.4878926128149033e-03" rms="2.4444688856601715e-01" purity="6.3239300251007080e-01" nType="-99"/>
          </Node>
        </Node>
        <Node pos="r" depth="1" NCoef="0" IVar="1" Cut="7.0543766021728516e-02" cType="1" res="5.3250780329108238e-03" rms="2.4666956067085266e-01" purity="3.7520739436149597e-01" nType="0">
          <Node pos="l" depth="2" NCoef="0" IVar="1" Cut="4.3666005134582520e-02" cType="1" res="1.0496018454432487e-02" rms="2.3465490341186523e-01" purity="2.1899761259555817e-01" nType="0">
            <Node pos="l" depth="3" NCoef="0" IVar="-1" Cut="0.0000000000000000e+00" cType="1" res="6.4139687456190586e-03" rms="2.0540040731430054e-01" purity="1.3422971963882446e-01" nType="-99"/>
            <Node pos="r" depth="3" NCoef="0" IVar="-1" Cut="0.0000000000000000e+00" cType="1" res="3.6399181932210922e-02" rms="2.9775127768516541e-01" purity="4.4389832019805908e-01" nType="-99"/>
          </Node>
          <Node pos="r" depth="2" NCoef="0" IVar="1" Cut="9.9097006022930145e-02" cType="1" res="-4.7752787359058857e-03" rms="2.6830467581748962e-01" purity="6.8033069372177124e-01" nType="0">
            <Node pos="l" depth="3" NCoef="0" IVar="-1" Cut="0.0000000000000000e+00" cType="1" res="-1.7269583418965340e-02" rms="2.8280052542686462e-01" purity="5.5073213577270508e-01" nType="-99"/>
            <Node pos="r" depth="3" NCoef="0" IVar="-1" Cut="0.0000000000000000e+00" cType="1" res="7.7434140257537365e-04" rms="2.5997808575630188e-01" purity="7.5039499998092651e-01" nType="-99"/>
          </Node>
        </Node>
      </Node>
    </BinaryTree>
    <BinaryTree type="DecisionTree" boostWeight="1.0000000000000000e+00" itree="468">
      <Node pos="s" depth="0" NCoef="0" IVar="9" Cut="1.7330832481384277e+00" cType="1" res="-1.4566243626177311e-03" rms="2.4519093334674835e-01" purity="4.9677878618240356e-01" nType="0">
        <Node pos="l" depth="1" NCoef="0" IVar="8" Cut="-1.1996270418167114e+00" cType="1" res="-3.6603331682272255e-04" rms="2.4500943720340729e-01" purity="5.1435434818267822e-01" nType="0">
          <Node pos="l" depth="2" NCoef="0" IVar="4" Cut="1.8681095886230469e+02" cType="1" res="6.7891422659158707e-03" rms="2.6283070445060730e-01" purity="3.1802976131439209e-01" nType="0">
            <Node pos="l" depth="3" NCoef="0" IVar="-1" Cut="0.0000000000000000e+00" cType="1" res="-7.2656767442822456e-03" rms="2.2564986348152161e-01" purity="1.2915799021720886e-01" nType="-99"/>
            <Node pos="r" depth="3" NCoef="0" IVar="-1" Cut="0.0000000000000000e+00" cType="1" res="2.1362204104661942e-02" rms="2.9346308112144470e-01" purity="4.9741280078887939e-01" nType="-99"/>
          </Node>
          <Node pos="r" depth="2" NCoef="0" IVar="7" Cut="-6.6611748933792114e-01" cType="1" res="-1.3624548446387053e-03" rms="2.4240700900554657e-01" purity="5.4169428348541260e-01" nType="0">
            <Node pos="l" depth="3" NCoef="0" IVar="-1" Cut="0.0000000000000000e+00" cType="1" res="-1.0770719498395920e-02" rms="2.4290212988853455e-01" purity="4.0188696980476379e-01" nType="-99"/>
            <Node pos="r" depth="3" NCoef="0" IVar="-1" Cut="0.0000000000000000e+00" cType="1" res="4.3714849743992090e-04" rms="2.4223540723323822e-01" purity="5.8344405889511108e-01" nType="-99"/>
          </Node>
        </Node>
        <Node pos="r" depth="1" NCoef="0" IVar="7" Cut="1.3110749423503876e-01" cType="1" res="-1.8556997179985046e-02" rms="2.4739159643650055e-01" purity="2.2119534015655518e-01" nType="0">
          <Node pos="l" depth="2" NCoef="0" IVar="-1" Cut="0.0000000000000000e+00" cType="1" res="4.4797169975936413e-03" rms="2.5144347548484802e-01" purity="2.5850000977516174e-01" nType="-99"/>
          <Node pos="r" depth="2" NCoef="0" IVar="-1" Cut="0.0000000000000000e+00" cType="1" res="-5.7145833969116211e-02" rms="2.4229010939598083e-01" purity="1.8878869712352753e-01" nType="-99"/>
        </Node>
      </Node>
    </BinaryTree>
    <BinaryTree type="DecisionTree" boostWeight="1.0000000000000000e+00" itree="469">
      <Node pos="s" depth="0" NCoef="0" IVar="9" Cut="1.4641505479812622e+00" cType="1" res="-1.9501210190355778e-03" rms="2.4302165210247040e-01" purity="4.9735715985298157e-01" nType="0">
        <Node pos="l" depth="1" NCoef="0" IVar="5" Cut="8.6238708496093750e+01" cType="1" res="-3.4416383132338524e-03" rms="2.4044021964073181e-01" purity="5.1515614986419678e-01" nType="0">
          <Node pos="l" depth="2" NCoef="0" IVar="0" Cut="1.6225821533203125e+03" cType="1" res="1.2027811259031296e-02" rms="1.8269537389278412e-01" purity="5.8882318437099457e-02" nType="0">
            <Node pos="l" depth="3" NCoef="0" IVar="-1" Cut="0.0000000000000000e+00" cType="1" res="-4.2082812637090683e-02" rms="6.3922367990016937e-02" purity="4.5049828477203846e-03" nType="-99"/>
            <Node pos="r" depth="3" NCoef="0" IVar="-1" Cut="0.0000000000000000e+00" cType="1" res="5.6626215577125549e-02" rms="2.6092293858528137e-01" purity="1.2443456053733826e-01" nType="-99"/>
          </Node>
          <Node pos="r" depth="2" NCoef="0" IVar="1" Cut="1.0625936090946198e-01" cType="1" res="-4.7366362996399403e-03" rms="2.4461239576339722e-01" purity="5.5335235595703125e-01" nType="0">
            <Node pos="l" depth="3" NCoef="0" IVar="-1" Cut="0.0000000000000000e+00" cType="1" res="-1.1060856282711029e-02" rms="2.5555077195167542e-01" purity="4.0586608648300171e-01" nType="-99"/>
            <Node pos="r" depth="3" NCoef="0" IVar="-1" Cut="0.0000000000000000e+00" cType="1" res="1.5768555458635092e-03" rms="2.2211238741874695e-01" purity="8.3520102500915527e-01" nType="-99"/>
          </Node>
        </Node>
        <Node pos="r" depth="1" NCoef="0" IVar="1" Cut="5.1215931773185730e-02" cType="1" res="1.2850268743932247e-02" rms="2.6683813333511353e-01" purity="3.2073673605918884e-01" nType="0">
          <Node pos="l" depth="2" NCoef="0" IVar="-1" Cut="0.0000000000000000e+00" cType="1" res="2.4231839925050735e-03" rms="2.1751102805137634e-01" purity="1.1773835867643356e-01" nType="-99"/>
          <Node pos="r" depth="2" NCoef="0" IVar="-1" Cut="0.0000000000000000e+00" cType="1" res="3.0347453430294991e-02" rms="3.1531390547752380e-01" purity="5.6359916925430298e-01" nType="-99"/>
        </Node>
      </Node>
    </BinaryTree>
    <BinaryTree type="DecisionTree" boostWeight="1.0000000000000000e+00" itree="470">
      <Node pos="s" depth="0" NCoef="0" IVar="8" Cut="-1.7333443164825439e+00" cType="1" res="1.7600355204194784e-03" rms="2.4096046388149261e-01" purity="5.0216591358184814e-01" nType="0">
        <Node pos="l" depth="1" NCoef="0" IVar="5" Cut="1.1836373901367188e+02" cType="1" res="-2.2716907784342766e-02" rms="2.0916861295700073e-01" purity="1.0981664061546326e-01" nType="0">
          <Node pos="l" depth="2" NCoef="0" IVar="-1" Cut="0.0000000000000000e+00" cType="1" res="-4.2079005390405655e-02" rms="1.5069693326950073e-01" purity="2.6661448180675507e-02" nType="-99"/>
          <Node pos="r" depth="2" NCoef="0" IVar="-1" Cut="0.0000000000000000e+00" cType="1" res="-4.9829971045255661e-02" rms="2.5317838788032532e-01" purity="1.9132621586322784e-01" nType="-99"/>
        </Node>
        <Node pos="r" depth="1" NCoef="0" IVar="9" Cut="-1.9991558790206909e+00" cType="1" res="3.1973589211702347e-03" rms="2.4262115359306335e-01" purity="5.2520525455474854e-01" nType="0">
          <Node pos="l" depth="2" NCoef="0" IVar="-1" Cut="0.0000000000000000e+00" cType="1" res="-4.0877714753150940e-02" rms="2.5724717974662781e-01" purity="1.9511193037033081e-01" nType="-99"/>
          <Node pos="r" depth="2" NCoef="0" IVar="1" Cut="1.4866581559181213e-01" cType="1" res="4.4351778924465179e-03" rms="2.4199110269546509e-01" purity="5.3698271512985229e-01" nType="0">
            <Node pos="l" depth="3" NCoef="0" IVar="-1" Cut="0.0000000000000000e+00" cType="1" res="1.0244522243738174e-02" rms="2.5010180473327637e-01" purity="4.6065950393676758e-01" nType="-99"/>
            <Node pos="r" depth="3" NCoef="0" IVar="-1" Cut="0.0000000000000000e+00" cType="1" res="-1.1868820525705814e-02" rms="2.0230130851268768e-01" purity="8.7210887670516968e-01" nType="-99"/>
          </Node>
        </Node>
      </Node>
    </BinaryTree>
    <BinaryTree type="DecisionTree" boostWeight="1.0000000000000000e+00" itree="471">
      <Node pos="s" depth="0" NCoef="0" IVar="9" Cut="1.1998972892761230e+00" cType="1" res="8.3380512660369277e-04" rms="2.4135319888591766e-01" purity="5.0527834892272949e-01" nType="0">
        <Node pos="l" depth="1" NCoef="0" IVar="9" Cut="6.2862068414688110e-01" cType="1" res="2.7734229806810617e-03" rms="2.3896220326423645e-01" purity="5.3247022628784180e-01" nType="0">
          <Node pos="l" depth="2" NCoef="0" IVar="9" Cut="-1.6563549041748047e+00" cType="1" res="7.9832924529910088e-04" rms="2.3666857182979584e-01" purity="5.2616876363754272e-01" nType="0">
            <Node pos="l" depth="3" NCoef="0" IVar="-1" Cut="0.0000000000000000e+00" cType="1" res="2.0334927365183830e-02" rms="2.5031265616416931e-01" purity="2.6375803351402283e-01" nType="-99"/>
            <Node pos="r" depth="3" NCoef="0" IVar="-1" Cut="0.0000000000000000e+00" cType="1" res="-9.0067862765863538e-04" rms="2.3503886163234711e-01" purity="5.5585467815399170e-01" nType="-99"/>
          </Node>
          <Node pos="r" depth="2" NCoef="0" IVar="7" Cut="-4.0375232696533203e-01" cType="1" res="1.2492070905864239e-02" rms="2.4971437454223633e-01" purity="5.6347703933715820e-01" nType="0">
            <Node pos="l" depth="3" NCoef="0" IVar="-1" Cut="0.0000000000000000e+00" cType="1" res="5.0319466739892960e-02" rms="2.6918038725852966e-01" purity="5.3607082366943359e-01" nType="-99"/>
            <Node pos="r" depth="3" NCoef="0" IVar="-1" Cut="0.0000000000000000e+00" cType="1" res="7.7451178804039955e-03" rms="2.4161849915981293e-01" purity="5.7362049818038940e-01" nType="-99"/>
          </Node>
        </Node>
        <Node pos="r" depth="1" NCoef="0" IVar="2" Cut="3.9575628662109375e+02" cType="1" res="-1.0451124981045723e-02" rms="2.5452676415443420e-01" purity="3.4707289934158325e-01" nType="0">
          <Node pos="l" depth="2" NCoef="0" IVar="-1" Cut="0.0000000000000000e+00" cType="1" res="-3.9679583162069321e-02" rms="2.3431518673896790e-01" purity="1.4343729615211487e-01" nType="-99"/>
          <Node pos="r" depth="2" NCoef="0" IVar="4" Cut="1.9349165344238281e+02" cType="1" res="-3.3173479605466127e-03" rms="2.6242971420288086e-01" purity="4.3476042151451111e-01" nType="0">
            <Node pos="l" depth="3" NCoef="0" IVar="-1" Cut="0.0000000000000000e+00" cType="1" res="1.5482356771826744e-02" rms="2.2830328345298767e-01" purity="1.5691706538200378e-01" nType="-99"/>
            <Node pos="r" depth="3" NCoef="0" IVar="-1" Cut="0.0000000000000000e+00" cType="1" res="-1.6695180907845497e-02" rms="2.8781256079673767e-01" purity="6.6984397172927856e-01" nType="-99"/>
          </Node>
        </Node>
      </Node>
    </BinaryTree>
    <BinaryTree type="DecisionTree" boostWeight="1.0000000000000000e+00" itree="472">
      <Node pos="s" depth="0" NCoef="0" IVar="7" Cut="-6.6440695524215698e-01" cType="1" res="2.6848382549360394e-04" rms="2.4713979661464691e-01" purity="5.0398969650268555e-01" nType="0">
        <Node pos="l" depth="1" NCoef="0" IVar="7" Cut="-9.6870762109756470e-01" cType="1" res="8.2506174221634865e-03" rms="2.5243064761161804e-01" purity="3.7218829989433289e-01" nType="0">
          <Node pos="l" depth="2" NCoef="0" IVar="5" Cut="1.5250668334960938e+02" cType="1" res="1.3609102461487055e-03" rms="2.4225530028343201e-01" purity="2.7375718951225281e-01" nType="0">
            <Node pos="l" depth="3" NCoef="0" IVar="-1" Cut="0.0000000000000000e+00" cType="1" res="-1.7699943855404854e-02" rms="2.0112518966197968e-01" purity="7.9186983406543732e-02" nType="-99"/>
            <Node pos="r" depth="3" NCoef="0" IVar="-1" Cut="0.0000000000000000e+00" cType="1" res="1.6735652461647987e-02" rms="2.8829842805862427e-01" purity="5.3704249858856201e-01" nType="-99"/>
          </Node>
          <Node pos="r" depth="2" NCoef="0" IVar="1" Cut="6.6819667816162109e-02" cType="1" res="2.0481010898947716e-02" rms="2.6911500096321106e-01" purity="5.4692006111145020e-01" nType="0">
            <Node pos="l" depth="3" NCoef="0" IVar="-1" Cut="0.0000000000000000e+00" cType="1" res="5.2816163748502731e-02" rms="2.7539274096488953e-01" purity="3.4080925583839417e-01" nType="-99"/>
            <Node pos="r" depth="3" NCoef="0" IVar="-1" Cut="0.0000000000000000e+00" cType="1" res="1.1180344037711620e-02" rms="2.6224204897880554e-01" purity="7.4658387899398804e-01" nType="-99"/>
          </Node>
        </Node>
        <Node pos="r" depth="1" NCoef="0" IVar="8" Cut="-1.1994613409042358e+00" cType="1" res="-2.2968340199440718e-03" rms="2.4536004662513733e-01" purity="5.4634839296340942e-01" nType="0">
          <Node pos="l" depth="2" NCoef="0" IVar="1" Cut="6.8790979683399200e-02" cType="1" res="-1.5631960704922676e-02" rms="2.6261746883392334e-01" purity="3.1663107872009277e-01" nType="0">
            <Node pos="l" depth="3" NCoef="0" IVar="-1" Cut="0.0000000000000000e+00" cType="1" res="-1.1678885668516159e-02" rms="2.2809313237667084e-01" purity="1.6660064458847046e-01" nType="-99"/>
            <Node pos="r" depth="3" NCoef="0" IVar="-1" Cut="0.0000000000000000e+00" cType="1" res="-3.3761214464902878e-02" rms="3.1263825297355652e-01" purity="5.7483971118927002e-01" nType="-99"/>
          </Node>
          <Node pos="r" depth="2" NCoef="0" IVar="9" Cut="4.0017491579055786e-01" cType="1" res="-6.3098355894908309e-04" rms="2.4306677281856537e-01" purity="5.7504510879516602e-01" nType="0">
            <Node pos="l" depth="3" NCoef="0" IVar="-1" Cut="0.0000000000000000e+00" cType="1" res="-7.1680690161883831e-03" rms="2.4086070060729980e-01" purity="5.8996427059173584e-01" nType="-99"/>
            <Node pos="r" depth="3" NCoef="0" IVar="-1" Cut="0.0000000000000000e+00" cType="1" res="8.3397040143609047e-03" rms="2.4646224081516266e-01" purity="5.5106103420257568e-01" nType="-99"/>
          </Node>
        </Node>
      </Node>
    </BinaryTree>
    <BinaryTree type="DecisionTree" boostWeight="1.0000000000000000e+00" itree="473">
      <Node pos="s" depth="0" NCoef="0" IVar="9" Cut="-1.7320399284362793e+00" cType="1" res="-4.4619021355174482e-04" rms="2.4267797172069550e-01" purity="4.9477699398994446e-01" nType="0">
        <Node pos="l" depth="1" NCoef="0" IVar="0" Cut="1.7903056640625000e+03" cType="1" res="2.0665990188717842e-02" rms="2.5995045900344849e-01" purity="2.8293582797050476e-01" nType="0">
          <Node pos="l" depth="2" NCoef="0" IVar="-1" Cut="0.0000000000000000e+00" cType="1" res="1.1165886186063290e-02" rms="1.8584845960140228e-01" purity="4.4391728937625885e-02" nType="-99"/>
          <Node pos="r" depth="2" NCoef="0" IVar="-1" Cut="0.0000000000000000e+00" cType="1" res="3.9599385112524033e-02" rms="3.3348378539085388e-01" purity="6.0463792085647583e-01" nType="-99"/>
        </Node>
        <Node pos="r" depth="1" NCoef="0" IVar="1" Cut="4.0298178791999817e-02" cType="1" res="-1.8019407289102674e-03" rms="2.4146352708339691e-01" purity="5.0838071107864380e-01" nType="0">
          <Node pos="l" depth="2" NCoef="0" IVar="1" Cut="2.4954136461019516e-02" cType="1" res="5.0246636383235455e-03" rms="2.1765170991420746e-01" purity="1.8190453946590424e-01" nType="0">
            <Node pos="l" depth="3" NCoef="0" IVar="-1" Cut="0.0000000000000000e+00" cType="1" res="-3.5783095518127084e-04" rms="1.9118092954158783e-01" purity="1.1722028255462646e-01" nType="-99"/>
            <Node pos="r" depth="3" NCoef="0" IVar="-1" Cut="0.0000000000000000e+00" cType="1" res="2.1275613456964493e-02" rms="2.5695565342903137e-01" purity="2.9415601491928101e-01" nType="-99"/>
          </Node>
          <Node pos="r" depth="2" NCoef="0" IVar="0" Cut="2.3775827636718750e+03" cType="1" res="-5.2114753052592278e-03" rms="2.5244778394699097e-01" purity="6.7143857479095459e-01" nType="0">
            <Node pos="l" depth="3" NCoef="0" IVar="-1" Cut="0.0000000000000000e+00" cType="1" res="-1.1243288405239582e-02" rms="3.1799897551536560e-01" purity="3.8896051049232483e-01" nType="-99"/>
            <Node pos="r" depth="3" NCoef="0" IVar="-1" Cut="0.0000000000000000e+00" cType="1" res="6.8233781494200230e-03" rms="1.5461120009422302e-01" purity="9.7158694267272949e-01" nType="-99"/>
          </Node>
        </Node>
      </Node>
    </BinaryTree>
    <BinaryTree type="DecisionTree" boostWeight="1.0000000000000000e+00" itree="474">
      <Node pos="s" depth="0" NCoef="0" IVar="9" Cut="-1.1993937492370605e+00" cType="1" res="3.6833077319897711e-04" rms="2.4101284146308899e-01" purity="5.0277054309844971e-01" nType="0">
        <Node pos="l" depth="1" NCoef="0" IVar="8" Cut="6.6593676805496216e-01" cType="1" res="-8.5259350016713142e-03" rms="2.5744599103927612e-01" purity="3.6558493971824646e-01" nType="0">
          <Node pos="l" depth="2" NCoef="0" IVar="8" Cut="-6.5160274505615234e-01" cType="1" res="-2.6702492032200098e-03" rms="2.6103889942169189e-01" purity="3.8307163119316101e-01" nType="0">
            <Node pos="l" depth="3" NCoef="0" IVar="-1" Cut="0.0000000000000000e+00" cType="1" res="-2.6671892032027245e-02" rms="2.4085247516632080e-01" purity="2.7198264002799988e-01" nType="-99"/>
            <Node pos="r" depth="3" NCoef="0" IVar="-1" Cut="0.0000000000000000e+00" cType="1" res="1.4684270136058331e-02" rms="2.7740365266799927e-01" purity="4.8397049307823181e-01" nType="-99"/>
          </Node>
          <Node pos="r" depth="2" NCoef="0" IVar="-1" Cut="0.0000000000000000e+00" cType="1" res="-3.2382316887378693e-02" rms="2.4476276338100433e-01" purity="3.1006067991256714e-01" nType="-99"/>
        </Node>
        <Node pos="r" depth="1" NCoef="0" IVar="7" Cut="-6.6626107692718506e-01" cType="1" res="1.8827607855200768e-03" rms="2.3806869983673096e-01" purity="5.2612918615341187e-01" nType="0">
          <Node pos="l" depth="2" NCoef="0" IVar="9" Cut="8.9499908685684204e-01" cType="1" res="-3.6225032526999712e-03" rms="2.4004769325256348e-01" purity="3.8196349143981934e-01" nType="0">
            <Node pos="l" depth="3" NCoef="0" IVar="-1" Cut="0.0000000000000000e+00" cType="1" res="-1.5035650692880154e-02" rms="2.3876084387302399e-01" purity="4.1029778122901917e-01" nType="-99"/>
            <Node pos="r" depth="3" NCoef="0" IVar="-1" Cut="0.0000000000000000e+00" cType="1" res="2.0852930843830109e-02" rms="2.4343980848789215e-01" purity="2.8972578048706055e-01" nType="-99"/>
          </Node>
          <Node pos="r" depth="2" NCoef="0" IVar="8" Cut="-9.3269562721252441e-01" cType="1" res="3.5631754435598850e-03" rms="2.3743592202663422e-01" purity="5.7013398408889771e-01" nType="0">
            <Node pos="l" depth="3" NCoef="0" IVar="-1" Cut="0.0000000000000000e+00" cType="1" res="1.9211828708648682e-02" rms="2.6460322737693787e-01" purity="4.3849876523017883e-01" nType="-99"/>
            <Node pos="r" depth="3" NCoef="0" IVar="-1" Cut="0.0000000000000000e+00" cType="1" res="3.1213569454848766e-03" rms="2.3168094456195831e-01" purity="5.9599685668945312e-01" nType="-99"/>
          </Node>
        </Node>
      </Node>
    </BinaryTree>
    <BinaryTree type="DecisionTree" boostWeight="1.0000000000000000e+00" itree="475">
      <Node pos="s" depth="0" NCoef="0" IVar="8" Cut="-4.0062928199768066e-01" cType="1" res="-1.5003599692136049e-03" rms="2.3848176002502441e-01" purity="4.9835780262947083e-01" nType="0">
        <Node pos="l" depth="1" NCoef="0" IVar="8" Cut="-6.2912511825561523e-01" cType="1" res="3.8090671878308058e-03" rms="2.4700088798999786e-01" purity="4.5800161361694336e-01" nType="0">
          <Node pos="l" depth="2" NCoef="0" IVar="9" Cut="-9.3114250898361206e-01" cType="1" res="-1.3245944865047932e-03" rms="2.4497768282890320e-01" purity="4.1363444924354553e-01" nType="0">
            <Node pos="l" depth="3" NCoef="0" IVar="-1" Cut="0.0000000000000000e+00" cType="1" res="1.9654907286167145e-02" rms="2.6182761788368225e-01" purity="3.4862685203552246e-01" nType="-99"/>
            <Node pos="r" depth="3" NCoef="0" IVar="-1" Cut="0.0000000000000000e+00" cType="1" res="-9.9758002907037735e-03" rms="2.3873175680637360e-01" purity="4.3591895699501038e-01" nType="-99"/>
          </Node>
          <Node pos="r" depth="2" NCoef="0" IVar="0" Cut="2.1784516601562500e+03" cType="1" res="2.1195856854319572e-02" rms="2.5296050310134888e-01" purity="6.0826539993286133e-01" nType="0">
            <Node pos="l" depth="3" NCoef="0" IVar="-1" Cut="0.0000000000000000e+00" cType="1" res="5.4177504032850266e-02" rms="3.0409279465675354e-01" purity="2.6578637957572937e-01" nType="-99"/>
            <Node pos="r" depth="3" NCoef="0" IVar="-1" Cut="0.0000000000000000e+00" cType="1" res="-8.3244661800563335e-04" rms="1.8976730108261108e-01" purity="9.3323200941085815e-01" nType="-99"/>
          </Node>
        </Node>
        <Node pos="r" depth="1" NCoef="0" IVar="1" Cut="1.6014158725738525e-01" cType="1" res="-4.4205901212990284e-03" rms="2.3361237347126007e-01" purity="5.2055394649505615e-01" nType="0">
          <Node pos="l" depth="2" NCoef="0" IVar="5" Cut="8.6891304016113281e+01" cType="1" res="-6.6827344708144665e-03" rms="2.4031166732311249e-01" purity="4.5303973555564880e-01" nType="0">
            <Node pos="l" depth="3" NCoef="0" IVar="-1" Cut="0.0000000000000000e+00" cType="1" res="4.1814550757408142e-02" rms="1.8601211905479431e-01" purity="5.2842821925878525e-02" nType="-99"/>
            <Node pos="r" depth="3" NCoef="0" IVar="-1" Cut="0.0000000000000000e+00" cType="1" res="-1.2805539183318615e-02" rms="2.4513037502765656e-01" purity="4.9408432841300964e-01" nType="-99"/>
          </Node>
          <Node pos="r" depth="2" NCoef="0" IVar="0" Cut="2.3531662597656250e+03" cType="1" res="7.6044597662985325e-03" rms="1.9371517002582550e-01" purity="8.7944447994232178e-01" nType="0">
            <Node pos="l" depth="3" NCoef="0" IVar="-1" Cut="0.0000000000000000e+00" cType="1" res="1.8673118203878403e-02" rms="3.0350607633590698e-01" purity="6.7098504304885864e-01" nType="-99"/>
            <Node pos="r" depth="3" NCoef="0" IVar="-1" Cut="0.0000000000000000e+00" cType="1" res="1.7007207497954369e-02" rms="8.9287742972373962e-02" purity="9.9190050363540649e-01" nType="-99"/>
          </Node>
        </Node>
      </Node>
    </BinaryTree>
    <BinaryTree type="DecisionTree" boostWeight="1.0000000000000000e+00" itree="476">
      <Node pos="s" depth="0" NCoef="0" IVar="2" Cut="8.8714929199218750e+02" cType="1" res="1.9718245603144169e-03" rms="2.4324902892112732e-01" purity="5.0303047895431519e-01" nType="0">
        <Node pos="l" depth="1" NCoef="0" IVar="5" Cut="1.9159318542480469e+02" cType="1" res="7.9911999637261033e-04" rms="2.4167160689830780e-01" purity="4.8928958177566528e-01" nType="0">
          <Node pos="l" depth="2" NCoef="0" IVar="6" Cut="-8.7891626358032227e-01" cType="1" res="3.7553722504526377e-03" rms="2.5854954123497009e-01" purity="2.9000288248062134e-01" nType="0">
            <Node pos="l" depth="3" NCoef="0" IVar="-1" Cut="0.0000000000000000e+00" cType="1" res="-1.2622249312698841e-02" rms="2.0846149325370789e-01" purity="1.2133173644542694e-01" nType="-99"/>
            <Node pos="r" depth="3" NCoef="0" IVar="-1" Cut="0.0000000000000000e+00" cType="1" res="8.3064110949635506e-03" rms="2.6853069663047791e-01" purity="3.2812955975532532e-01" nType="-99"/>
          </Node>
          <Node pos="r" depth="2" NCoef="0" IVar="0" Cut="2.2131005859375000e+03" cType="1" res="-4.8195207491517067e-03" rms="2.0569598674774170e-01" purity="8.6805301904678345e-01" nType="0">
            <Node pos="l" depth="3" NCoef="0" IVar="-1" Cut="0.0000000000000000e+00" cType="1" res="-2.0292565226554871e-02" rms="3.3715164661407471e-01" purity="4.8105821013450623e-01" nType="-99"/>
            <Node pos="r" depth="3" NCoef="0" IVar="-1" Cut="0.0000000000000000e+00" cType="1" res="6.2222802080214024e-04" rms="1.5759094059467316e-01" purity="9.6213746070861816e-01" nType="-99"/>
          </Node>
        </Node>
        <Node pos="r" depth="1" NCoef="0" IVar="-1" Cut="0.0000000000000000e+00" cType="1" res="3.0769562348723412e-02" rms="2.7248418331146240e-01" purity="7.8477287292480469e-01" nType="-99"/>
      </Node>
    </BinaryTree>
    <BinaryTree type="DecisionTree" boostWeight="1.0000000000000000e+00" itree="477">
      <Node pos="s" depth="0" NCoef="0" IVar="6" Cut="-9.1987699270248413e-02" cType="1" res="-9.6944143297150731e-04" rms="2.4393922090530396e-01" purity="5.0644892454147339e-01" nType="0">
        <Node pos="l" depth="1" NCoef="0" IVar="1" Cut="1.1763343960046768e-01" cType="1" res="-5.8108032681047916e-03" rms="2.4245670437812805e-01" purity="4.8543617129325867e-01" nType="0">
          <Node pos="l" depth="2" NCoef="0" IVar="0" Cut="2.4651035156250000e+03" cType="1" res="-8.9076748117804527e-03" rms="2.4954523146152496e-01" purity="3.6098986864089966e-01" nType="0">
            <Node pos="l" depth="3" NCoef="0" IVar="-1" Cut="0.0000000000000000e+00" cType="1" res="-1.7974440008401871e-02" rms="2.5983297824859619e-01" purity="1.7992645502090454e-01" nType="-99"/>
            <Node pos="r" depth="3" NCoef="0" IVar="-1" Cut="0.0000000000000000e+00" cType="1" res="3.5825732629746199e-03" rms="2.1573732793331146e-01" purity="8.9902019500732422e-01" nType="-99"/>
          </Node>
          <Node pos="r" depth="2" NCoef="0" IVar="3" Cut="3.6549288940429688e+02" cType="1" res="3.3051199279725552e-03" rms="2.2001807391643524e-01" purity="8.5175520181655884e-01" nType="0">
            <Node pos="l" depth="3" NCoef="0" IVar="-1" Cut="0.0000000000000000e+00" cType="1" res="1.7284121364355087e-02" rms="2.6875275373458862e-01" purity="7.2906392812728882e-01" nType="-99"/>
            <Node pos="r" depth="3" NCoef="0" IVar="-1" Cut="0.0000000000000000e+00" cType="1" res="-2.4333311244845390e-02" rms="1.6765604913234711e-01" purity="9.5545589923858643e-01" nType="-99"/>
          </Node>
        </Node>
        <Node pos="r" depth="1" NCoef="0" IVar="9" Cut="9.3161344528198242e-01" cType="1" res="2.9778419993817806e-03" rms="2.4507056176662445e-01" purity="5.2358114719390869e-01" nType="0">
          <Node pos="l" depth="2" NCoef="0" IVar="4" Cut="2.5183406066894531e+02" cType="1" res="5.6023867800831795e-03" rms="2.4358911812305450e-01" purity="5.5636614561080933e-01" nType="0">
            <Node pos="l" depth="3" NCoef="0" IVar="-1" Cut="0.0000000000000000e+00" cType="1" res="1.6527922824025154e-02" rms="2.6495733857154846e-01" purity="3.1971034407615662e-01" nType="-99"/>
            <Node pos="r" depth="3" NCoef="0" IVar="-1" Cut="0.0000000000000000e+00" cType="1" res="-3.7949273828417063e-03" rms="2.1276862919330597e-01" purity="8.6057400703430176e-01" nType="-99"/>
          </Node>
          <Node pos="r" depth="2" NCoef="0" IVar="7" Cut="9.2143917083740234e-01" cType="1" res="-6.2679941765964031e-03" rms="2.5000011920928955e-01" purity="4.0808498859405518e-01" nType="0">
            <Node pos="l" depth="3" NCoef="0" IVar="-1" Cut="0.0000000000000000e+00" cType="1" res="-2.0059071481227875e-02" rms="2.4144789576530457e-01" purity="4.4405499100685120e-01" nType="-99"/>
            <Node pos="r" depth="3" NCoef="0" IVar="-1" Cut="0.0000000000000000e+00" cType="1" res="2.5042960420250893e-02" rms="2.7770304679870605e-01" purity="2.7722069621086121e-01" nType="-99"/>
          </Node>
        </Node>
      </Node>
    </BinaryTree>
    <BinaryTree type="DecisionTree" boostWeight="1.0000000000000000e+00" itree="478">
      <Node pos="s" depth="0" NCoef="0" IVar="7" Cut="-1.1991530656814575e+00" cType="1" res="-1.6089300625026226e-03" rms="2.4208064377307892e-01" purity="4.9521297216415405e-01" nType="0">
        <Node pos="l" depth="1" NCoef="0" IVar="1" Cut="4.1849847882986069e-02" cType="1" res="1.1771956458687782e-02" rms="2.3221108317375183e-01" purity="2.2575679421424866e-01" nType="0">
          <Node pos="l" depth="2" NCoef="0" IVar="2" Cut="4.5641683959960938e+02" cType="1" res="1.3711504871025681e-03" rms="1.8268585205078125e-01" purity="6.7158214747905731e-02" nType="0">
            <Node pos="l" depth="3" NCoef="0" IVar="-1" Cut="0.0000000000000000e+00" cType="1" res="6.4348757266998291e-02" rms="1.6503594815731049e-01" purity="4.2495906352996826e-02" nType="-99"/>
            <Node pos="r" depth="3" NCoef="0" IVar="-1" Cut="0.0000000000000000e+00" cType="1" res="-2.2485023364424706e-02" rms="1.9763763248920441e-01" purity="9.0968765318393707e-02" nType="-99"/>
          </Node>
          <Node pos="r" depth="2" NCoef="0" IVar="-1" Cut="0.0000000000000000e+00" cType="1" res="3.5964358597993851e-02" rms="3.0313372611999512e-01" purity="5.2331870794296265e-01" nType="-99"/>
        </Node>
        <Node pos="r" depth="1" NCoef="0" IVar="7" Cut="-2.4726307392120361e-01" cType="1" res="-3.1908566597849131e-03" rms="2.4317231774330139e-01" purity="5.2706885337829590e-01" nType="0">
          <Node pos="l" depth="2" NCoef="0" IVar="9" Cut="-1.3642182946205139e-01" cType="1" res="-1.2386888265609741e-02" rms="2.5019669532775879e-01" purity="5.3437697887420654e-01" nType="0">
            <Node pos="l" depth="3" NCoef="0" IVar="-1" Cut="0.0000000000000000e+00" cType="1" res="-3.5373724997043610e-02" rms="2.6481443643569946e-01" purity="5.1234734058380127e-01" nType="-99"/>
            <Node pos="r" depth="3" NCoef="0" IVar="-1" Cut="0.0000000000000000e+00" cType="1" res="-1.4454051852226257e-03" rms="2.3393851518630981e-01" purity="5.5663454532623291e-01" nType="-99"/>
          </Node>
          <Node pos="r" depth="2" NCoef="0" IVar="3" Cut="1.9817474365234375e+02" cType="1" res="1.2061904417350888e-03" rms="2.3961623013019562e-01" purity="5.2357447147369385e-01" nType="0">
            <Node pos="l" depth="3" NCoef="0" IVar="-1" Cut="0.0000000000000000e+00" cType="1" res="-3.1867492944002151e-02" rms="1.8940527737140656e-01" purity="5.7929951697587967e-02" nType="-99"/>
            <Node pos="r" depth="3" NCoef="0" IVar="-1" Cut="0.0000000000000000e+00" cType="1" res="4.4989227317273617e-03" rms="2.4441842734813690e-01" purity="5.7438808679580688e-01" nType="-99"/>
          </Node>
        </Node>
      </Node>
    </BinaryTree>
    <BinaryTree type="DecisionTree" boostWeight="1.0000000000000000e+00" itree="479">
      <Node pos="s" depth="0" NCoef="0" IVar="9" Cut="-1.4660350084304810e+00" cType="1" res="-6.9699942832812667e-04" rms="2.3701967298984528e-01" purity="4.9329572916030884e-01" nType="0">
        <Node pos="l" depth="1" NCoef="0" IVar="0" Cut="1.8446721191406250e+03" cType="1" res="1.0945623740553856e-02" rms="2.4569410085678101e-01" purity="3.3837082982063293e-01" nType="0">
          <Node pos="l" depth="2" NCoef="0" IVar="1" Cut="3.2746072858572006e-02" cType="1" res="-1.5804348513484001e-03" rms="2.0555038750171661e-01" purity="6.4885698258876801e-02" nType="0">
            <Node pos="l" depth="3" NCoef="0" IVar="-1" Cut="0.0000000000000000e+00" cType="1" res="-3.0559550970792770e-02" rms="9.5849946141242981e-02" purity="1.2384267523884773e-02" nType="-99"/>
            <Node pos="r" depth="3" NCoef="0" IVar="-1" Cut="0.0000000000000000e+00" cType="1" res="2.1567859221249819e-03" rms="2.7807119488716125e-01" purity="1.2060995399951935e-01" nType="-99"/>
          </Node>
          <Node pos="r" depth="2" NCoef="0" IVar="-1" Cut="0.0000000000000000e+00" cType="1" res="2.7334151789546013e-02" rms="2.8484103083610535e-01" purity="6.5792977809906006e-01" nType="-99"/>
        </Node>
        <Node pos="r" depth="1" NCoef="0" IVar="7" Cut="-9.3068331480026245e-01" cType="1" res="-1.9136783666908741e-03" rms="2.3606164753437042e-01" purity="5.0948572158813477e-01" nType="0">
          <Node pos="l" depth="2" NCoef="0" IVar="8" Cut="1.3830593228340149e-01" cType="1" res="5.5548348464071751e-03" rms="2.3929989337921143e-01" purity="2.9399019479751587e-01" nType="0">
            <Node pos="l" depth="3" NCoef="0" IVar="-1" Cut="0.0000000000000000e+00" cType="1" res="-5.2579375915229321e-03" rms="2.3511755466461182e-01" purity="3.0379062891006470e-01" nType="-99"/>
            <Node pos="r" depth="3" NCoef="0" IVar="-1" Cut="0.0000000000000000e+00" cType="1" res="2.7992941439151764e-02" rms="2.4395759403705597e-01" purity="2.8188985586166382e-01" nType="-99"/>
          </Node>
          <Node pos="r" depth="2" NCoef="0" IVar="8" Cut="1.1989690065383911e+00" cType="1" res="-3.3786038402467966e-03" rms="2.3539344966411591e-01" purity="5.5175447463989258e-01" nType="0">
            <Node pos="l" depth="3" NCoef="0" IVar="-1" Cut="0.0000000000000000e+00" cType="1" res="-3.0764208640903234e-03" rms="2.3276209831237793e-01" purity="5.8150619268417358e-01" nType="-99"/>
            <Node pos="r" depth="3" NCoef="0" IVar="-1" Cut="0.0000000000000000e+00" cType="1" res="-2.3374900221824646e-02" rms="2.5377056002616882e-01" purity="3.3070999383926392e-01" nType="-99"/>
          </Node>
        </Node>
      </Node>
    </BinaryTree>
    <BinaryTree type="DecisionTree" boostWeight="1.0000000000000000e+00" itree="480">
      <Node pos="s" depth="0" NCoef="0" IVar="7" Cut="6.6732788085937500e-01" cType="1" res="2.3521638941019773e-03" rms="2.4269251525402069e-01" purity="5.0677633285522461e-01" nType="0">
        <Node pos="l" depth="1" NCoef="0" IVar="0" Cut="2.1418708496093750e+03" cType="1" res="5.4874853231012821e-03" rms="2.4452361464500427e-01" purity="5.5117201805114746e-01" nType="0">
          <Node pos="l" depth="2" NCoef="0" IVar="0" Cut="2.0358848876953125e+03" cType="1" res="1.1131871491670609e-02" rms="2.7720290422439575e-01" purity="1.8903721868991852e-01" nType="0">
            <Node pos="l" depth="3" NCoef="0" IVar="-1" Cut="0.0000000000000000e+00" cType="1" res="1.1222011409699917e-02" rms="2.6897314190864563e-01" purity="1.4470353722572327e-01" nType="-99"/>
            <Node pos="r" depth="3" NCoef="0" IVar="-1" Cut="0.0000000000000000e+00" cType="1" res="2.9143685474991798e-02" rms="3.3892098069190979e-01" purity="5.7318419218063354e-01" nType="-99"/>
          </Node>
          <Node pos="r" depth="2" NCoef="0" IVar="5" Cut="1.3611503601074219e+02" cType="1" res="-6.5015781729016453e-05" rms="2.0726199448108673e-01" purity="9.0741151571273804e-01" nType="0">
            <Node pos="l" depth="3" NCoef="0" IVar="-1" Cut="0.0000000000000000e+00" cType="1" res="-1.5792626887559891e-02" rms="3.5430657863616943e-01" purity="6.1313873529434204e-01" nType="-99"/>
            <Node pos="r" depth="3" NCoef="0" IVar="-1" Cut="0.0000000000000000e+00" cType="1" res="5.4930052720010281e-03" rms="1.8398447334766388e-01" purity="9.3971216678619385e-01" nType="-99"/>
          </Node>
        </Node>
        <Node pos="r" depth="1" NCoef="0" IVar="1" Cut="7.1723997592926025e-02" cType="1" res="-7.5756497681140900e-03" rms="2.3652707040309906e-01" purity="3.6620008945465088e-01" nType="0">
          <Node pos="l" depth="2" NCoef="0" IVar="5" Cut="1.2014246368408203e+02" cType="1" res="-1.4732853509485722e-02" rms="2.1796678006649017e-01" purity="1.8858818709850311e-01" nType="0">
            <Node pos="l" depth="3" NCoef="0" IVar="-1" Cut="0.0000000000000000e+00" cType="1" res="-2.0932454615831375e-02" rms="1.6520610451698303e-01" purity="4.6230070292949677e-02" nType="-99"/>
            <Node pos="r" depth="3" NCoef="0" IVar="-1" Cut="0.0000000000000000e+00" cType="1" res="-2.8195463120937347e-02" rms="2.5055488944053650e-01" purity="2.9676860570907593e-01" nType="-99"/>
          </Node>
          <Node pos="r" depth="2" NCoef="0" IVar="4" Cut="2.3648062133789062e+02" cType="1" res="6.4681731164455414e-03" rms="2.6869958639144897e-01" purity="7.1470904350280762e-01" nType="0">
            <Node pos="l" depth="3" NCoef="0" IVar="-1" Cut="0.0000000000000000e+00" cType="1" res="2.0735323429107666e-02" rms="3.1253558397293091e-01" purity="5.0090080499649048e-01" nType="-99"/>
            <Node pos="r" depth="3" NCoef="0" IVar="-1" Cut="0.0000000000000000e+00" cType="1" res="-7.9953344538807869e-03" rms="2.2996178269386292e-01" purity="8.7451833486557007e-01" nType="-99"/>
          </Node>
        </Node>
      </Node>
    </BinaryTree>
    <BinaryTree type="DecisionTree" boostWeight="1.0000000000000000e+00" itree="481">
      <Node pos="s" depth="0" NCoef="0" IVar="1" Cut="6.1329782009124756e-02" cType="1" res="-2.1240483038127422e-03" rms="2.4177636206150055e-01" purity="5.0309932231903076e-01" nType="0">
        <Node pos="l" depth="1" NCoef="0" IVar="0" Cut="1.8876690673828125e+03" cType="1" res="2.0379670895636082e-03" rms="2.3414154350757599e-01" purity="2.5167745351791382e-01" nType="0">
          <Node pos="l" depth="2" NCoef="0" IVar="9" Cut="-6.6448837518692017e-01" cType="1" res="-4.4734776020050049e-03" rms="1.5420584380626678e-01" purity="2.9228508472442627e-02" nType="0">
            <Node pos="l" depth="3" NCoef="0" IVar="-1" Cut="0.0000000000000000e+00" cType="1" res="-5.0210233777761459e-02" rms="1.2657837569713593e-01" purity="1.8797110766172409e-02" nType="-99"/>
            <Node pos="r" depth="3" NCoef="0" IVar="-1" Cut="0.0000000000000000e+00" cType="1" res="7.1969327109400183e-05" rms="1.6559457778930664e-01" purity="3.4210141748189926e-02" nType="-99"/>
          </Node>
          <Node pos="r" depth="2" NCoef="0" IVar="6" Cut="-7.8447961807250977e-01" cType="1" res="1.2250241823494434e-02" rms="3.2146185636520386e-01" purity="6.0055691003799438e-01" nType="0">
            <Node pos="l" depth="3" NCoef="0" IVar="-1" Cut="0.0000000000000000e+00" cType="1" res="3.6841224879026413e-02" rms="3.3517405390739441e-01" purity="4.6015506982803345e-01" nType="-99"/>
            <Node pos="r" depth="3" NCoef="0" IVar="-1" Cut="0.0000000000000000e+00" cType="1" res="4.8770233988761902e-03" rms="3.1734567880630493e-01" purity="6.3767850399017334e-01" nType="-99"/>
          </Node>
        </Node>
        <Node pos="r" depth="1" NCoef="0" IVar="9" Cut="-1.4598611593246460e+00" cType="1" res="-5.8715562336146832e-03" rms="2.4839049577713013e-01" purity="7.2948139905929565e-01" nType="0">
          <Node pos="l" depth="2" NCoef="0" IVar="-1" Cut="0.0000000000000000e+00" cType="1" res="-3.1806699931621552e-02" rms="3.2183057069778442e-01" purity="5.6815505027770996e-01" nType="-99"/>
          <Node pos="r" depth="2" NCoef="0" IVar="1" Cut="1.6643190383911133e-01" cType="1" res="-3.7852281238883734e-03" rms="2.4154710769653320e-01" purity="7.4216777086257935e-01" nType="0">
            <Node pos="l" depth="3" NCoef="0" IVar="-1" Cut="0.0000000000000000e+00" cType="1" res="-1.1251351796090603e-02" rms="2.5305548310279846e-01" purity="6.8840569257736206e-01" nType="-99"/>
            <Node pos="r" depth="3" NCoef="0" IVar="-1" Cut="0.0000000000000000e+00" cType="1" res="1.7195623368024826e-02" rms="2.0560285449028015e-01" purity="8.9259088039398193e-01" nType="-99"/>
          </Node>
        </Node>
      </Node>
    </BinaryTree>
    <BinaryTree type="DecisionTree" boostWeight="1.0000000000000000e+00" itree="482">
      <Node pos="s" depth="0" NCoef="0" IVar="8" Cut="-1.4667308330535889e+00" cType="1" res="1.2885110918432474e-03" rms="2.4231524765491486e-01" purity="4.9815988540649414e-01" nType="0">
        <Node pos="l" depth="1" NCoef="0" IVar="6" Cut="-2.1381128579378128e-02" cType="1" res="-1.1946932412683964e-02" rms="2.3094838857650757e-01" purity="1.8603144586086273e-01" nType="0">
          <Node pos="l" depth="2" NCoef="0" IVar="-1" Cut="0.0000000000000000e+00" cType="1" res="5.6974082253873348e-03" rms="2.4300321936607361e-01" purity="2.1919599175453186e-01" nType="-99"/>
          <Node pos="r" depth="2" NCoef="0" IVar="-1" Cut="0.0000000000000000e+00" cType="1" res="-4.8223931342363358e-02" rms="2.1629199385643005e-01" purity="1.5091855823993683e-01" nType="-99"/>
        </Node>
        <Node pos="r" depth="1" NCoef="0" IVar="2" Cut="9.3051434326171875e+02" cType="1" res="2.3798663169145584e-03" rms="2.4319668114185333e-01" purity="5.2389705181121826e-01" nType="0">
          <Node pos="l" depth="2" NCoef="0" IVar="7" Cut="4.0083369612693787e-01" cType="1" res="1.7440275987610221e-03" rms="2.4177062511444092e-01" purity="5.1314443349838257e-01" nType="0">
            <Node pos="l" depth="3" NCoef="0" IVar="-1" Cut="0.0000000000000000e+00" cType="1" res="-1.7015048069879413e-03" rms="2.4004893004894257e-01" purity="5.4068374633789062e-01" nType="-99"/>
            <Node pos="r" depth="3" NCoef="0" IVar="-1" Cut="0.0000000000000000e+00" cType="1" res="1.1601308360695839e-02" rms="2.4498151242733002e-01" purity="4.5981749892234802e-01" nType="-99"/>
          </Node>
          <Node pos="r" depth="2" NCoef="0" IVar="-1" Cut="0.0000000000000000e+00" cType="1" res="2.3682892322540283e-02" rms="2.7766889333724976e-01" purity="8.0760341882705688e-01" nType="-99"/>
        </Node>
      </Node>
    </BinaryTree>
    <BinaryTree type="DecisionTree" boostWeight="1.0000000000000000e+00" itree="483">
      <Node pos="s" depth="0" NCoef="0" IVar="2" Cut="9.8468066406250000e+02" cType="1" res="-1.6441571060568094e-03" rms="2.4179035425186157e-01" purity="4.9772438406944275e-01" nType="0">
        <Node pos="l" depth="1" NCoef="0" IVar="7" Cut="-1.2973611056804657e-01" cType="1" res="-8.6883775657042861e-04" rms="2.3995330929756165e-01" purity="4.9116557836532593e-01" nType="0">
          <Node pos="l" depth="2" NCoef="0" IVar="4" Cut="2.2574594116210938e+02" cType="1" res="3.8189920596778393e-03" rms="2.4029594659805298e-01" purity="4.8058354854583740e-01" nType="0">
            <Node pos="l" depth="3" NCoef="0" IVar="-1" Cut="0.0000000000000000e+00" cType="1" res="1.5624977648258209e-02" rms="2.4566848576068878e-01" purity="2.1064367890357971e-01" nType="-99"/>
            <Node pos="r" depth="3" NCoef="0" IVar="-1" Cut="0.0000000000000000e+00" cType="1" res="-4.2380252853035927e-03" rms="2.3399694263935089e-01" purity="7.8182214498519897e-01" nType="-99"/>
          </Node>
          <Node pos="r" depth="2" NCoef="0" IVar="0" Cut="2.1045588378906250e+03" cType="1" res="-4.7267596237361431e-03" rms="2.3960216343402863e-01" purity="4.9987420439720154e-01" nType="0">
            <Node pos="l" depth="3" NCoef="0" IVar="-1" Cut="0.0000000000000000e+00" cType="1" res="-1.4836416579782963e-02" rms="2.5534257292747498e-01" purity="1.4242218434810638e-01" nType="-99"/>
            <Node pos="r" depth="3" NCoef="0" IVar="-1" Cut="0.0000000000000000e+00" cType="1" res="3.3130145166069269e-03" rms="2.2058610618114471e-01" purity="8.9788717031478882e-01" nType="-99"/>
          </Node>
        </Node>
        <Node pos="r" depth="1" NCoef="0" IVar="-1" Cut="0.0000000000000000e+00" cType="1" res="-3.8235332816839218e-02" rms="3.0274283885955811e-01" purity="7.5049597024917603e-01" nType="-99"/>
      </Node>
    </BinaryTree>
    <BinaryTree type="DecisionTree" boostWeight="1.0000000000000000e+00" itree="484">
      <Node pos="s" depth="0" NCoef="0" IVar="4" Cut="1.8062356567382812e+02" cType="1" res="1.8977856962010264e-03" rms="2.4091617763042450e-01" purity="4.9921447038650513e-01" nType="0">
        <Node pos="l" depth="1" NCoef="0" IVar="8" Cut="9.3228048086166382e-01" cType="1" res="-3.2084172125905752e-03" rms="2.2148020565509796e-01" purity="1.1699388921260834e-01" nType="0">
          <Node pos="l" depth="2" NCoef="0" IVar="0" Cut="1.6438894042968750e+03" cType="1" res="-8.2487715408205986e-03" rms="2.1586476266384125e-01" purity="1.0771972686052322e-01" nType="0">
            <Node pos="l" depth="3" NCoef="0" IVar="-1" Cut="0.0000000000000000e+00" cType="1" res="-3.6576967686414719e-03" rms="1.4308263361454010e-01" purity="2.3790057748556137e-02" nType="-99"/>
            <Node pos="r" depth="3" NCoef="0" IVar="-1" Cut="0.0000000000000000e+00" cType="1" res="-2.2052889689803123e-02" rms="2.8975963592529297e-01" purity="2.2837656736373901e-01" nType="-99"/>
          </Node>
          <Node pos="r" depth="2" NCoef="0" IVar="8" Cut="1.2876405715942383e+00" cType="1" res="1.4432861469686031e-02" rms="2.3926755785942078e-01" purity="1.4945352077484131e-01" nType="0">
            <Node pos="l" depth="3" NCoef="0" IVar="-1" Cut="0.0000000000000000e+00" cType="1" res="5.3437013179063797e-02" rms="2.5283294916152954e-01" purity="2.0372441411018372e-01" nType="-99"/>
            <Node pos="r" depth="3" NCoef="0" IVar="-1" Cut="0.0000000000000000e+00" cType="1" res="8.8639911264181137e-03" rms="2.3056958615779877e-01" purity="1.1850849539041519e-01" nType="-99"/>
          </Node>
        </Node>
        <Node pos="r" depth="1" NCoef="0" IVar="5" Cut="1.4052047729492188e+02" cType="1" res="4.2206905782222748e-03" rms="2.4922230839729309e-01" purity="6.7309367656707764e-01" nType="0">
          <Node pos="l" depth="2" NCoef="0" IVar="5" Cut="1.2391626739501953e+02" cType="1" res="1.3531915843486786e-02" rms="2.8610676527023315e-01" purity="2.9571172595024109e-01" nType="0">
            <Node pos="l" depth="3" NCoef="0" IVar="-1" Cut="0.0000000000000000e+00" cType="1" res="4.4040097855031490e-03" rms="2.7425000071525574e-01" purity="2.3075100779533386e-01" nType="-99"/>
            <Node pos="r" depth="3" NCoef="0" IVar="-1" Cut="0.0000000000000000e+00" cType="1" res="3.4203894436359406e-02" rms="3.0557942390441895e-01" purity="4.1360989212989807e-01" nType="-99"/>
          </Node>
          <Node pos="r" depth="2" NCoef="0" IVar="9" Cut="1.4659662246704102e+00" cType="1" res="1.9652883056551218e-03" rms="2.3938019573688507e-01" purity="7.6450455188751221e-01" nType="0">
            <Node pos="l" depth="3" NCoef="0" IVar="-1" Cut="0.0000000000000000e+00" cType="1" res="7.1580271469429135e-04" rms="2.3645289242267609e-01" purity="7.8038471937179565e-01" nType="-99"/>
            <Node pos="r" depth="3" NCoef="0" IVar="-1" Cut="0.0000000000000000e+00" cType="1" res="2.7966903522610664e-02" rms="2.7379012107849121e-01" purity="5.5819272994995117e-01" nType="-99"/>
          </Node>
        </Node>
      </Node>
    </BinaryTree>
    <BinaryTree type="DecisionTree" boostWeight="1.0000000000000000e+00" itree="485">
      <Node pos="s" depth="0" NCoef="0" IVar="8" Cut="-1.2001512050628662e+00" cType="1" res="2.2038996685296297e-03" rms="2.4595031142234802e-01" purity="5.0015968084335327e-01" nType="0">
        <Node pos="l" depth="1" NCoef="0" IVar="6" Cut="-5.4515922069549561e-01" cType="1" res="1.3071163557469845e-02" rms="2.5022196769714355e-01" purity="2.8468400239944458e-01" nType="0">
          <Node pos="l" depth="2" NCoef="0" IVar="-1" Cut="0.0000000000000000e+00" cType="1" res="-8.8569219224154949e-04" rms="2.2672066092491150e-01" purity="2.1152709424495697e-01" nType="-99"/>
          <Node pos="r" depth="2" NCoef="0" IVar="1" Cut="5.1246214658021927e-02" cType="1" res="2.0084945484995842e-02" rms="2.6127195358276367e-01" purity="3.2251513004302979e-01" nType="0">
            <Node pos="l" depth="3" NCoef="0" IVar="-1" Cut="0.0000000000000000e+00" cType="1" res="1.8531322479248047e-02" rms="2.1975277364253998e-01" purity="1.1546403914690018e-01" nType="-99"/>
            <Node pos="r" depth="3" NCoef="0" IVar="-1" Cut="0.0000000000000000e+00" cType="1" res="4.1890334337949753e-02" rms="3.0456614494323730e-01" purity="5.8099991083145142e-01" nType="-99"/>
          </Node>
        </Node>
        <Node pos="r" depth="1" NCoef="0" IVar="1" Cut="6.3701950013637543e-02" cType="1" res="5.8299413649365306e-04" rms="2.4526552855968475e-01" purity="5.3229898214340210e-01" nType="0">
          <Node pos="l" depth="2" NCoef="0" IVar="7" Cut="1.7325330972671509e+00" cType="1" res="-2.5261063128709793e-03" rms="2.4531787633895874e-01" purity="2.7562469244003296e-01" nType="0">
            <Node pos="l" depth="3" NCoef="0" IVar="-1" Cut="0.0000000000000000e+00" cType="1" res="-2.2411455865949392e-03" rms="2.5315198302268982e-01" purity="2.9623854160308838e-01" nType="-99"/>
            <Node pos="r" depth="3" NCoef="0" IVar="-1" Cut="0.0000000000000000e+00" cType="1" res="-5.7822909206151962e-02" rms="1.2194242328405380e-01" purity="3.7326700985431671e-02" nType="-99"/>
          </Node>
          <Node pos="r" depth="2" NCoef="0" IVar="4" Cut="1.4378924560546875e+02" cType="1" res="3.2580846454948187e-03" rms="2.4518893659114838e-01" purity="7.5314319133758545e-01" nType="0">
            <Node pos="l" depth="3" NCoef="0" IVar="-1" Cut="0.0000000000000000e+00" cType="1" res="5.3230967372655869e-02" rms="3.2059946656227112e-01" purity="1.8161985278129578e-01" nType="-99"/>
            <Node pos="r" depth="3" NCoef="0" IVar="-1" Cut="0.0000000000000000e+00" cType="1" res="1.8803493585437536e-03" rms="2.4005067348480225e-01" purity="7.8539931774139404e-01" nType="-99"/>
          </Node>
        </Node>
      </Node>
    </BinaryTree>
    <BinaryTree type="DecisionTree" boostWeight="1.0000000000000000e+00" itree="486">
      <Node pos="s" depth="0" NCoef="0" IVar="7" Cut="1.2000687122344971e+00" cType="1" res="3.1688937451690435e-04" rms="2.4403341114521027e-01" purity="4.9786776304244995e-01" nType="0">
        <Node pos="l" depth="1" NCoef="0" IVar="6" Cut="7.3343455791473389e-01" cType="1" res="-1.2621751520782709e-03" rms="2.4550527334213257e-01" purity="5.3415060043334961e-01" nType="0">
          <Node pos="l" depth="2" NCoef="0" IVar="9" Cut="-1.7326663732528687e+00" cType="1" res="-2.9527081642299891e-03" rms="2.4636334180831909e-01" purity="5.7903873920440674e-01" nType="0">
            <Node pos="l" depth="3" NCoef="0" IVar="-1" Cut="0.0000000000000000e+00" cType="1" res="-2.7420356869697571e-02" rms="2.5594267249107361e-01" purity="2.6087567210197449e-01" nType="-99"/>
            <Node pos="r" depth="3" NCoef="0" IVar="-1" Cut="0.0000000000000000e+00" cType="1" res="-2.9910029843449593e-03" rms="2.4569141864776611e-01" purity="5.9961503744125366e-01" nType="-99"/>
          </Node>
          <Node pos="r" depth="2" NCoef="0" IVar="7" Cut="5.6924376636743546e-02" cType="1" res="6.3977334648370743e-03" rms="2.4143084883689880e-01" purity="3.3075991272926331e-01" nType="0">
            <Node pos="l" depth="3" NCoef="0" IVar="-1" Cut="0.0000000000000000e+00" cType="1" res="-4.2642322368919849e-03" rms="2.3442304134368896e-01" purity="2.6338312029838562e-01" nType="-99"/>
            <Node pos="r" depth="3" NCoef="0" IVar="-1" Cut="0.0000000000000000e+00" cType="1" res="2.9718529433012009e-02" rms="2.5079247355461121e-01" purity="4.2936697602272034e-01" nType="-99"/>
          </Node>
        </Node>
        <Node pos="r" depth="1" NCoef="0" IVar="5" Cut="1.6331024169921875e+02" cType="1" res="1.2857191264629364e-02" rms="2.3163136839866638e-01" purity="2.0972394943237305e-01" nType="0">
          <Node pos="l" depth="2" NCoef="0" IVar="8" Cut="6.6690713167190552e-01" cType="1" res="2.5300916749984026e-03" rms="1.9178311526775360e-01" purity="7.6705701649188995e-02" nType="0">
            <Node pos="l" depth="3" NCoef="0" IVar="-1" Cut="0.0000000000000000e+00" cType="1" res="1.9934119656682014e-02" rms="1.9189035892486572e-01" purity="8.5536286234855652e-02" nType="-99"/>
            <Node pos="r" depth="3" NCoef="0" IVar="-1" Cut="0.0000000000000000e+00" cType="1" res="-2.1259730681777000e-02" rms="1.9107520580291748e-01" purity="5.7241525501012802e-02" nType="-99"/>
          </Node>
          <Node pos="r" depth="2" NCoef="0" IVar="-1" Cut="0.0000000000000000e+00" cType="1" res="4.3828979134559631e-02" rms="3.1256276369094849e-01" purity="5.6519740819931030e-01" nType="-99"/>
        </Node>
      </Node>
    </BinaryTree>
    <BinaryTree type="DecisionTree" boostWeight="1.0000000000000000e+00" itree="487">
      <Node pos="s" depth="0" NCoef="0" IVar="9" Cut="-9.3237787485122681e-01" cType="1" res="3.6035589873790741e-03" rms="2.4072279036045074e-01" purity="4.9803882837295532e-01" nType="0">
        <Node pos="l" depth="1" NCoef="0" IVar="0" Cut="1.6330816650390625e+03" cType="1" res="1.1292806826531887e-02" rms="2.5362324714660645e-01" purity="4.1517210006713867e-01" nType="0">
          <Node pos="l" depth="2" NCoef="0" IVar="7" Cut="-3.9985984563827515e-01" cType="1" res="-3.2574408687651157e-03" rms="1.5035906434059143e-01" purity="2.7504306286573410e-02" nType="0">
            <Node pos="l" depth="3" NCoef="0" IVar="-1" Cut="0.0000000000000000e+00" cType="1" res="3.2373636960983276e-02" rms="1.7589527368545532e-01" purity="4.1798632591962814e-02" nType="-99"/>
            <Node pos="r" depth="3" NCoef="0" IVar="-1" Cut="0.0000000000000000e+00" cType="1" res="-6.1034835875034332e-02" rms="1.1898009479045868e-01" purity="1.3506520539522171e-02" nType="-99"/>
          </Node>
          <Node pos="r" depth="2" NCoef="0" IVar="7" Cut="-6.5926551818847656e-01" cType="1" res="1.8520820885896683e-02" rms="2.9136013984680176e-01" purity="6.0775077342987061e-01" nType="0">
            <Node pos="l" depth="3" NCoef="0" IVar="-1" Cut="0.0000000000000000e+00" cType="1" res="-4.3871295638382435e-03" rms="2.9783910512924194e-01" purity="4.6084037423133850e-01" nType="-99"/>
            <Node pos="r" depth="3" NCoef="0" IVar="-1" Cut="0.0000000000000000e+00" cType="1" res="3.1979501247406006e-02" rms="2.8867995738983154e-01" purity="6.5848612785339355e-01" nType="-99"/>
          </Node>
        </Node>
        <Node pos="r" depth="1" NCoef="0" IVar="7" Cut="-1.4565868377685547e+00" cType="1" res="1.5743008116260171e-03" rms="2.3715968430042267e-01" purity="5.1990807056427002e-01" nType="0">
          <Node pos="l" depth="2" NCoef="0" IVar="-1" Cut="0.0000000000000000e+00" cType="1" res="-3.0145583674311638e-02" rms="2.0670600235462189e-01" purity="1.3494493067264557e-01" nType="-99"/>
          <Node pos="r" depth="2" NCoef="0" IVar="7" Cut="1.1774685382843018e+00" cType="1" res="2.5415446143597364e-03" rms="2.3898489773273468e-01" purity="5.4509222507476807e-01" nType="0">
            <Node pos="l" depth="3" NCoef="0" IVar="-1" Cut="0.0000000000000000e+00" cType="1" res="6.2068724073469639e-03" rms="2.4177695810794830e-01" purity="5.9575515985488892e-01" nType="-99"/>
            <Node pos="r" depth="3" NCoef="0" IVar="-1" Cut="0.0000000000000000e+00" cType="1" res="-1.1042391881346703e-02" rms="2.1843999624252319e-01" purity="1.9334307312965393e-01" nType="-99"/>
          </Node>
        </Node>
      </Node>
    </BinaryTree>
    <BinaryTree type="DecisionTree" boostWeight="1.0000000000000000e+00" itree="488">
      <Node pos="s" depth="0" NCoef="0" IVar="4" Cut="2.3853907775878906e+02" cType="1" res="-1.6982180532068014e-03" rms="2.4194543063640594e-01" purity="4.9404859542846680e-01" nType="0">
        <Node pos="l" depth="1" NCoef="0" IVar="3" Cut="3.9371231079101562e+02" cType="1" res="2.4270543362945318e-03" rms="2.5315433740615845e-01" purity="2.3962847888469696e-01" nType="0">
          <Node pos="l" depth="2" NCoef="0" IVar="6" Cut="2.4253581464290619e-01" cType="1" res="4.4786930084228516e-03" rms="2.4878340959548950e-01" purity="2.0980268716812134e-01" nType="0">
            <Node pos="l" depth="3" NCoef="0" IVar="-1" Cut="0.0000000000000000e+00" cType="1" res="1.6468014568090439e-02" rms="2.6236242055892944e-01" purity="2.3888327181339264e-01" nType="-99"/>
            <Node pos="r" depth="3" NCoef="0" IVar="-1" Cut="0.0000000000000000e+00" cType="1" res="-7.2600152343511581e-03" rms="2.2857597470283508e-01" purity="1.6990697383880615e-01" nType="-99"/>
          </Node>
          <Node pos="r" depth="2" NCoef="0" IVar="4" Cut="1.9565614318847656e+02" cType="1" res="-1.4078501611948013e-02" rms="2.8536134958267212e-01" purity="4.7957882285118103e-01" nType="0">
            <Node pos="l" depth="3" NCoef="0" IVar="-1" Cut="0.0000000000000000e+00" cType="1" res="-3.7558555603027344e-02" rms="2.8625068068504333e-01" purity="2.9148736596107483e-01" nType="-99"/>
            <Node pos="r" depth="3" NCoef="0" IVar="-1" Cut="0.0000000000000000e+00" cType="1" res="1.5467403456568718e-02" rms="2.8185173869132996e-01" purity="7.4612039327621460e-01" nType="-99"/>
          </Node>
        </Node>
        <Node pos="r" depth="1" NCoef="0" IVar="0" Cut="2.3657666015625000e+03" cType="1" res="-6.9460007362067699e-03" rms="2.2677926719188690e-01" purity="8.1769788265228271e-01" nType="0">
          <Node pos="l" depth="2" NCoef="0" IVar="8" Cut="-1.3787469267845154e-01" cType="1" res="-2.2777019068598747e-02" rms="3.2285866141319275e-01" purity="5.1189273595809937e-01" nType="0">
            <Node pos="l" depth="3" NCoef="0" IVar="-1" Cut="0.0000000000000000e+00" cType="1" res="-3.9292782545089722e-02" rms="3.2951161265373230e-01" purity="4.8208159208297729e-01" nType="-99"/>
            <Node pos="r" depth="3" NCoef="0" IVar="-1" Cut="0.0000000000000000e+00" cType="1" res="-5.6236060336232185e-03" rms="3.1634530425071716e-01" purity="5.3617393970489502e-01" nType="-99"/>
          </Node>
          <Node pos="r" depth="2" NCoef="0" IVar="6" Cut="-7.0413851737976074e-01" cType="1" res="1.6531317669432610e-04" rms="1.6596345603466034e-01" purity="9.5506590604782104e-01" nType="0">
            <Node pos="l" depth="3" NCoef="0" IVar="-1" Cut="0.0000000000000000e+00" cType="1" res="-3.3357158303260803e-02" rms="2.3561009764671326e-01" purity="8.8070011138916016e-01" nType="-99"/>
            <Node pos="r" depth="3" NCoef="0" IVar="-1" Cut="0.0000000000000000e+00" cType="1" res="9.6517745405435562e-03" rms="1.5430831909179688e-01" purity="9.6485936641693115e-01" nType="-99"/>
          </Node>
        </Node>
      </Node>
    </BinaryTree>
    <BinaryTree type="DecisionTree" boostWeight="1.0000000000000000e+00" itree="489">
      <Node pos="s" depth="0" NCoef="0" IVar="3" Cut="2.7050549316406250e+02" cType="1" res="-1.1512293713167310e-03" rms="2.4204914271831512e-01" purity="4.9984523653984070e-01" nType="0">
        <Node pos="l" depth="1" NCoef="0" IVar="8" Cut="1.4671585559844971e+00" cType="1" res="-5.9537356719374657e-03" rms="2.4316339194774628e-01" purity="1.8073204159736633e-01" nType="0">
          <Node pos="l" depth="2" NCoef="0" IVar="8" Cut="1.0611702203750610e+00" cType="1" res="-8.6630797013640404e-03" rms="2.4295547604560852e-01" purity="1.8746545910835266e-01" nType="0">
            <Node pos="l" depth="3" NCoef="0" IVar="-1" Cut="0.0000000000000000e+00" cType="1" res="-8.0395294353365898e-03" rms="2.4454222619533539e-01" purity="1.9178766012191772e-01" nType="-99"/>
            <Node pos="r" depth="3" NCoef="0" IVar="-1" Cut="0.0000000000000000e+00" cType="1" res="-5.9493400156497955e-02" rms="2.2717347741127014e-01" purity="1.5186367928981781e-01" nType="-99"/>
          </Node>
          <Node pos="r" depth="2" NCoef="0" IVar="-1" Cut="0.0000000000000000e+00" cType="1" res="3.4045808017253876e-02" rms="2.4371299147605896e-01" purity="1.2377440184354782e-01" nType="-99"/>
        </Node>
        <Node pos="r" depth="1" NCoef="0" IVar="8" Cut="1.3479058444499969e-01" cType="1" res="1.2275332119315863e-03" rms="2.4145996570587158e-01" purity="6.5790742635726929e-01" nType="0">
          <Node pos="l" depth="2" NCoef="0" IVar="9" Cut="1.3027031719684601e-01" cType="1" res="4.9249185249209404e-03" rms="2.3673155903816223e-01" purity="6.7511910200119019e-01" nType="0">
            <Node pos="l" depth="3" NCoef="0" IVar="-1" Cut="0.0000000000000000e+00" cType="1" res="1.6672620549798012e-02" rms="2.3817284405231476e-01" purity="6.8140649795532227e-01" nType="-99"/>
            <Node pos="r" depth="3" NCoef="0" IVar="-1" Cut="0.0000000000000000e+00" cType="1" res="-3.5213988739997149e-03" rms="2.3461639881134033e-01" purity="6.6673475503921509e-01" nType="-99"/>
          </Node>
          <Node pos="r" depth="2" NCoef="0" IVar="3" Cut="4.9619033813476562e+02" cType="1" res="-3.3540986478328705e-03" rms="2.4711699783802032e-01" purity="6.3657951354980469e-01" nType="0">
            <Node pos="l" depth="3" NCoef="0" IVar="-1" Cut="0.0000000000000000e+00" cType="1" res="-3.7005709600634873e-04" rms="2.5259119272232056e-01" purity="5.9497219324111938e-01" nType="-99"/>
            <Node pos="r" depth="3" NCoef="0" IVar="-1" Cut="0.0000000000000000e+00" cType="1" res="-3.5651430487632751e-02" rms="2.1881800889968872e-01" purity="8.3312773704528809e-01" nType="-99"/>
          </Node>
        </Node>
      </Node>
    </BinaryTree>
    <BinaryTree type="DecisionTree" boostWeight="1.0000000000000000e+00" itree="490">
      <Node pos="s" depth="0" NCoef="0" IVar="2" Cut="9.3064190673828125e+02" cType="1" res="-1.3321909354999661e-03" rms="2.4256789684295654e-01" purity="5.0346302986145020e-01" nType="0">
        <Node pos="l" depth="1" NCoef="0" IVar="6" Cut="-1.0453615188598633e+00" cType="1" res="-5.2530423272401094e-04" rms="2.4112814664840698e-01" purity="4.9503254890441895e-01" nType="0">
          <Node pos="l" depth="2" NCoef="0" IVar="0" Cut="1.9762187500000000e+03" cType="1" res="1.0623549111187458e-02" rms="2.2361326217651367e-01" purity="1.9731977581977844e-01" nType="0">
            <Node pos="l" depth="3" NCoef="0" IVar="-1" Cut="0.0000000000000000e+00" cType="1" res="7.4766483157873154e-03" rms="1.8074336647987366e-01" purity="4.8056870698928833e-02" nType="-99"/>
            <Node pos="r" depth="3" NCoef="0" IVar="-1" Cut="0.0000000000000000e+00" cType="1" res="3.4173026680946350e-02" rms="3.2199063897132874e-01" purity="6.6714143753051758e-01" nType="-99"/>
          </Node>
          <Node pos="r" depth="2" NCoef="0" IVar="8" Cut="1.7327969074249268e+00" cType="1" res="-1.9982683006674051e-03" rms="2.4330972135066986e-01" purity="5.3436571359634399e-01" nType="0">
            <Node pos="l" depth="3" NCoef="0" IVar="-1" Cut="0.0000000000000000e+00" cType="1" res="-1.6997039783746004e-03" rms="2.4369746446609497e-01" purity="5.5015289783477783e-01" nType="-99"/>
            <Node pos="r" depth="3" NCoef="0" IVar="-1" Cut="0.0000000000000000e+00" cType="1" res="-3.8942746818065643e-02" rms="2.3308359086513519e-01" purity="1.6969680786132812e-01" nType="-99"/>
          </Node>
        </Node>
        <Node pos="r" depth="1" NCoef="0" IVar="-1" Cut="0.0000000000000000e+00" cType="1" res="-2.7926199138164520e-02" rms="2.7724540233612061e-01" purity="7.2745257616043091e-01" nType="-99"/>
      </Node>
    </BinaryTree>
    <BinaryTree type="DecisionTree" boostWeight="1.0000000000000000e+00" itree="491">
      <Node pos="s" depth="0" NCoef="0" IVar="4" Cut="4.2588934326171875e+02" cType="1" res="8.5897755343466997e-04" rms="2.4537003040313721e-01" purity="5.0005656480789185e-01" nType="0">
        <Node pos="l" depth="1" NCoef="0" IVar="5" Cut="1.0390605163574219e+02" cType="1" res="1.7115371301770210e-03" rms="2.4815055727958679e-01" purity="4.7299921512603760e-01" nType="0">
          <Node pos="l" depth="2" NCoef="0" IVar="1" Cut="5.6774910539388657e-02" cType="1" res="-7.0624016225337982e-03" rms="1.8841755390167236e-01" purity="6.4341597259044647e-02" nType="0">
            <Node pos="l" depth="3" NCoef="0" IVar="-1" Cut="0.0000000000000000e+00" cType="1" res="-8.2042990252375603e-03" rms="1.5897849202156067e-01" purity="3.7356354296207428e-02" nType="-99"/>
            <Node pos="r" depth="3" NCoef="0" IVar="-1" Cut="0.0000000000000000e+00" cType="1" res="-2.9281610623002052e-02" rms="2.5297740101814270e-01" purity="1.4023184776306152e-01" nType="-99"/>
          </Node>
          <Node pos="r" depth="2" NCoef="0" IVar="5" Cut="1.4914273071289062e+02" cType="1" res="3.7528350949287415e-03" rms="2.6004552841186523e-01" purity="5.6807535886764526e-01" nType="0">
            <Node pos="l" depth="3" NCoef="0" IVar="-1" Cut="0.0000000000000000e+00" cType="1" res="1.4365594834089279e-02" rms="2.7849999070167542e-01" purity="2.4802352488040924e-01" nType="-99"/>
            <Node pos="r" depth="3" NCoef="0" IVar="-1" Cut="0.0000000000000000e+00" cType="1" res="2.3456891358364373e-04" rms="2.5009742379188538e-01" purity="7.3026305437088013e-01" nType="-99"/>
          </Node>
        </Node>
        <Node pos="r" depth="1" NCoef="0" IVar="-1" Cut="0.0000000000000000e+00" cType="1" res="-4.4790696352720261e-02" rms="1.9352053105831146e-01" purity="9.4465100765228271e-01" nType="-99"/>
      </Node>
    </BinaryTree>
    <BinaryTree type="DecisionTree" boostWeight="1.0000000000000000e+00" itree="492">
      <Node pos="s" depth="0" NCoef="0" IVar="0" Cut="2.1418708496093750e+03" cType="1" res="-2.2421609901357442e-04" rms="2.4225321412086487e-01" purity="5.0029420852661133e-01" nType="0">
        <Node pos="l" depth="1" NCoef="0" IVar="0" Cut="2.0711840820312500e+03" cType="1" res="2.4800999090075493e-03" rms="2.6196965575218201e-01" purity="1.6524413228034973e-01" nType="0">
          <Node pos="l" depth="2" NCoef="0" IVar="5" Cut="1.3784123229980469e+02" cType="1" res="-4.3490834650583565e-04" rms="2.5503659248352051e-01" purity="1.3493964076042175e-01" nType="0">
            <Node pos="l" depth="3" NCoef="0" IVar="-1" Cut="0.0000000000000000e+00" cType="1" res="7.4000107124447823e-03" rms="2.1007630228996277e-01" purity="6.9905012845993042e-02" nType="-99"/>
            <Node pos="r" depth="3" NCoef="0" IVar="-1" Cut="0.0000000000000000e+00" cType="1" res="-6.0392008163034916e-03" rms="3.1490102410316467e-01" purity="2.4122671782970428e-01" nType="-99"/>
          </Node>
          <Node pos="r" depth="2" NCoef="0" IVar="-1" Cut="0.0000000000000000e+00" cType="1" res="3.9992142468690872e-02" rms="3.5653367638587952e-01" purity="6.8183201551437378e-01" nType="-99"/>
        </Node>
        <Node pos="r" depth="1" NCoef="0" IVar="0" Cut="2.5658029785156250e+03" cType="1" res="-3.4288209863007069e-03" rms="2.1653421223163605e-01" purity="8.9732736349105835e-01" nType="0">
          <Node pos="l" depth="2" NCoef="0" IVar="1" Cut="1.0355265438556671e-01" cType="1" res="-1.2618820182979107e-02" rms="2.8729394078254700e-01" purity="7.9185241460800171e-01" nType="0">
            <Node pos="l" depth="3" NCoef="0" IVar="-1" Cut="0.0000000000000000e+00" cType="1" res="-1.9284226000308990e-02" rms="3.4230387210845947e-01" purity="6.6116249561309814e-01" nType="-99"/>
            <Node pos="r" depth="3" NCoef="0" IVar="-1" Cut="0.0000000000000000e+00" cType="1" res="-2.0428618881851435e-03" rms="1.9802178442478180e-01" purity="9.5438319444656372e-01" nType="-99"/>
          </Node>
          <Node pos="r" depth="2" NCoef="0" IVar="2" Cut="8.1623559570312500e+02" cType="1" res="1.8471719231456518e-03" rms="1.6230711340904236e-01" purity="9.5788067579269409e-01" nType="0">
            <Node pos="l" depth="3" NCoef="0" IVar="-1" Cut="0.0000000000000000e+00" cType="1" res="-4.0646861307322979e-03" rms="1.3176427781581879e-01" purity="9.7647672891616821e-01" nType="-99"/>
            <Node pos="r" depth="3" NCoef="0" IVar="-1" Cut="0.0000000000000000e+00" cType="1" res="1.7567690461874008e-02" rms="2.4255748093128204e-01" purity="8.9037537574768066e-01" nType="-99"/>
          </Node>
        </Node>
      </Node>
    </BinaryTree>
    <BinaryTree type="DecisionTree" boostWeight="1.0000000000000000e+00" itree="493">
      <Node pos="s" depth="0" NCoef="0" IVar="9" Cut="-1.1989228725433350e+00" cType="1" res="9.8935712594538927e-04" rms="2.4968715012073517e-01" purity="5.1346999406814575e-01" nType="0">
        <Node pos="l" depth="1" NCoef="0" IVar="0" Cut="2.3370146484375000e+03" cType="1" res="1.1916105635464191e-02" rms="2.7829232811927795e-01" purity="4.0596178174018860e-01" nType="0">
          <Node pos="l" depth="2" NCoef="0" IVar="9" Cut="-1.6555631160736084e+00" cType="1" res="1.9805815070867538e-02" rms="2.8586995601654053e-01" purity="2.5559148192405701e-01" nType="0">
            <Node pos="l" depth="3" NCoef="0" IVar="-1" Cut="0.0000000000000000e+00" cType="1" res="4.3456580489873886e-02" rms="2.8106939792633057e-01" purity="2.1600614488124847e-01" nType="-99"/>
            <Node pos="r" depth="3" NCoef="0" IVar="-1" Cut="0.0000000000000000e+00" cType="1" res="9.7907576709985733e-03" rms="2.9044213891029358e-01" purity="2.9756975173950195e-01" nType="-99"/>
          </Node>
          <Node pos="r" depth="2" NCoef="0" IVar="-1" Cut="0.0000000000000000e+00" cType="1" res="-2.0178388804197311e-02" rms="2.5211775302886963e-01" purity="8.6700028181076050e-01" nType="-99"/>
        </Node>
        <Node pos="r" depth="1" NCoef="0" IVar="7" Cut="-9.3096834421157837e-01" cType="1" res="-8.6803029989823699e-04" rms="2.4444353580474854e-01" purity="5.3174483776092529e-01" nType="0">
          <Node pos="l" depth="2" NCoef="0" IVar="0" Cut="1.8506722412109375e+03" cType="1" res="-1.1543233878910542e-02" rms="2.4976657330989838e-01" purity="3.0337968468666077e-01" nType="0">
            <Node pos="l" depth="3" NCoef="0" IVar="-1" Cut="0.0000000000000000e+00" cType="1" res="1.5365884639322758e-02" rms="1.9783464074134827e-01" purity="6.1580218374729156e-02" nType="-99"/>
            <Node pos="r" depth="3" NCoef="0" IVar="-1" Cut="0.0000000000000000e+00" cType="1" res="-3.6209862679243088e-02" rms="3.0129995942115784e-01" purity="6.0781669616699219e-01" nType="-99"/>
          </Node>
          <Node pos="r" depth="2" NCoef="0" IVar="6" Cut="-5.3130650520324707e-01" cType="1" res="1.0746658081188798e-03" rms="2.4341198801994324e-01" purity="5.7330316305160522e-01" nType="0">
            <Node pos="l" depth="3" NCoef="0" IVar="-1" Cut="0.0000000000000000e+00" cType="1" res="9.8878070712089539e-03" rms="2.5022211670875549e-01" purity="4.4688424468040466e-01" nType="-99"/>
            <Node pos="r" depth="3" NCoef="0" IVar="-1" Cut="0.0000000000000000e+00" cType="1" res="-1.0156783973798156e-03" rms="2.4114745855331421e-01" purity="6.1414068937301636e-01" nType="-99"/>
          </Node>
        </Node>
      </Node>
    </BinaryTree>
    <BinaryTree type="DecisionTree" boostWeight="1.0000000000000000e+00" itree="494">
      <Node pos="s" depth="0" NCoef="0" IVar="9" Cut="-1.4646526575088501e+00" cType="1" res="7.7762192813679576e-04" rms="2.4118171632289886e-01" purity="4.9855601787567139e-01" nType="0">
        <Node pos="l" depth="1" NCoef="0" IVar="4" Cut="1.8753518676757812e+02" cType="1" res="-1.9737824797630310e-02" rms="2.6267099380493164e-01" purity="2.9784983396530151e-01" nType="0">
          <Node pos="l" depth="2" NCoef="0" IVar="-1" Cut="0.0000000000000000e+00" cType="1" res="1.9482313655316830e-04" rms="2.2399339079856873e-01" purity="1.1459086835384369e-01" nType="-99"/>
          <Node pos="r" depth="2" NCoef="0" IVar="-1" Cut="0.0000000000000000e+00" cType="1" res="-4.4382080435752869e-02" rms="2.9282552003860474e-01" purity="4.6778124570846558e-01" nType="-99"/>
        </Node>
        <Node pos="r" depth="1" NCoef="0" IVar="7" Cut="1.3633273541927338e-01" cType="1" res="2.9647236224263906e-03" rms="2.3867274820804596e-01" purity="5.1995283365249634e-01" nType="0">
          <Node pos="l" depth="2" NCoef="0" IVar="1" Cut="8.2768797874450684e-02" cType="1" res="7.1855224668979645e-03" rms="2.4247860908508301e-01" purity="5.4371380805969238e-01" nType="0">
            <Node pos="l" depth="3" NCoef="0" IVar="-1" Cut="0.0000000000000000e+00" cType="1" res="3.2891919836401939e-03" rms="2.4861826002597809e-01" purity="3.3607292175292969e-01" nType="-99"/>
            <Node pos="r" depth="3" NCoef="0" IVar="-1" Cut="0.0000000000000000e+00" cType="1" res="2.5443909689784050e-02" rms="2.3411804437637329e-01" purity="8.1265681982040405e-01" nType="-99"/>
          </Node>
          <Node pos="r" depth="2" NCoef="0" IVar="9" Cut="-8.5501694679260254e-01" cType="1" res="-2.1568089723587036e-03" rms="2.3386931419372559e-01" purity="4.9112117290496826e-01" nType="0">
            <Node pos="l" depth="3" NCoef="0" IVar="-1" Cut="0.0000000000000000e+00" cType="1" res="2.9673818498849869e-02" rms="2.4532254040241241e-01" purity="5.2080756425857544e-01" nType="-99"/>
            <Node pos="r" depth="3" NCoef="0" IVar="-1" Cut="0.0000000000000000e+00" cType="1" res="-8.7547590956091881e-03" rms="2.3191393911838531e-01" purity="4.8659467697143555e-01" nType="-99"/>
          </Node>
        </Node>
      </Node>
    </BinaryTree>
    <BinaryTree type="DecisionTree" boostWeight="1.0000000000000000e+00" itree="495">
      <Node pos="s" depth="0" NCoef="0" IVar="1" Cut="1.4860948920249939e-01" cType="1" res="2.4525509215891361e-03" rms="2.4282930791378021e-01" purity="5.1192897558212280e-01" nType="0">
        <Node pos="l" depth="1" NCoef="0" IVar="7" Cut="-1.3386379182338715e-01" cType="1" res="3.9901365526020527e-03" rms="2.5291207432746887e-01" purity="4.3521112203598022e-01" nType="0">
          <Node pos="l" depth="2" NCoef="0" IVar="1" Cut="2.8366958722472191e-02" cType="1" res="9.0215690433979034e-03" rms="2.5131040811538696e-01" purity="4.2729344964027405e-01" nType="0">
            <Node pos="l" depth="3" NCoef="0" IVar="-1" Cut="0.0000000000000000e+00" cType="1" res="-1.1439277790486813e-02" rms="1.9661685824394226e-01" purity="1.2748901546001434e-01" nType="-99"/>
            <Node pos="r" depth="3" NCoef="0" IVar="-1" Cut="0.0000000000000000e+00" cType="1" res="2.0821597427129745e-02" rms="2.7311497926712036e-01" purity="5.6879848241806030e-01" nType="-99"/>
          </Node>
          <Node pos="r" depth="2" NCoef="0" IVar="7" Cut="5.8154747821390629e-03" cType="1" res="-1.1246923531871289e-04" rms="2.5413689017295837e-01" purity="4.4166716933250427e-01" nType="0">
            <Node pos="l" depth="3" NCoef="0" IVar="-1" Cut="0.0000000000000000e+00" cType="1" res="-3.6346875131130219e-02" rms="2.3145462572574615e-01" purity="5.0381505489349365e-01" nType="-99"/>
            <Node pos="r" depth="3" NCoef="0" IVar="-1" Cut="0.0000000000000000e+00" cType="1" res="3.3361883834004402e-03" rms="2.5636863708496094e-01" purity="4.3493735790252686e-01" nType="-99"/>
          </Node>
        </Node>
        <Node pos="r" depth="1" NCoef="0" IVar="0" Cut="1.9718894042968750e+03" cType="1" res="-4.4527002610266209e-03" rms="1.9094471633434296e-01" purity="8.5646682977676392e-01" nType="0">
          <Node pos="l" depth="2" NCoef="0" IVar="-1" Cut="0.0000000000000000e+00" cType="1" res="-2.5956379249691963e-02" rms="3.3148950338363647e-01" purity="3.3025747537612915e-01" nType="-99"/>
          <Node pos="r" depth="2" NCoef="0" IVar="3" Cut="3.8415902709960938e+02" cType="1" res="2.8687177691608667e-03" rms="1.3859327137470245e-01" purity="9.7805655002593994e-01" nType="0">
            <Node pos="l" depth="3" NCoef="0" IVar="-1" Cut="0.0000000000000000e+00" cType="1" res="2.5243740528821945e-02" rms="1.5300980210304260e-01" purity="9.7449743747711182e-01" nType="-99"/>
            <Node pos="r" depth="3" NCoef="0" IVar="-1" Cut="0.0000000000000000e+00" cType="1" res="-7.1528868284076452e-04" rms="1.2666977941989899e-01" purity="9.8071664571762085e-01" nType="-99"/>
          </Node>
        </Node>
      </Node>
    </BinaryTree>
    <BinaryTree type="DecisionTree" boostWeight="1.0000000000000000e+00" itree="496">
      <Node pos="s" depth="0" NCoef="0" IVar="7" Cut="6.6622978448867798e-01" cType="1" res="-7.2389678098261356e-04" rms="2.4351620674133301e-01" purity="4.9748027324676514e-01" nType="0">
        <Node pos="l" depth="1" NCoef="0" IVar="4" Cut="1.0150309753417969e+02" cType="1" res="-2.6086238212883472e-03" rms="2.4384668469429016e-01" purity="5.3671640157699585e-01" nType="0">
          <Node pos="l" depth="2" NCoef="0" IVar="-1" Cut="0.0000000000000000e+00" cType="1" res="6.6682048141956329e-02" rms="2.0379884541034698e-01" purity="6.2069885432720184e-02" nType="-99"/>
          <Node pos="r" depth="2" NCoef="0" IVar="7" Cut="5.0108796358108521e-01" cType="1" res="-3.4397165291011333e-03" rms="2.4517670273780823e-01" purity="5.5444478988647461e-01" nType="0">
            <Node pos="l" depth="3" NCoef="0" IVar="-1" Cut="0.0000000000000000e+00" cType="1" res="-3.2998728565871716e-03" rms="2.4294467270374298e-01" purity="5.5132275819778442e-01" nType="-99"/>
            <Node pos="r" depth="3" NCoef="0" IVar="-1" Cut="0.0000000000000000e+00" cType="1" res="-3.0755802989006042e-02" rms="2.7023649215698242e-01" purity="5.9234166145324707e-01" nType="-99"/>
          </Node>
        </Node>
        <Node pos="r" depth="1" NCoef="0" IVar="6" Cut="9.9778032302856445e-01" cType="1" res="5.1698032766580582e-03" rms="2.4238528311252594e-01" purity="3.7478560209274292e-01" nType="0">
          <Node pos="l" depth="2" NCoef="0" IVar="3" Cut="2.6272735595703125e+02" cType="1" res="2.3281062021851540e-03" rms="2.4352842569351196e-01" purity="4.0352508425712585e-01" nType="0">
            <Node pos="l" depth="3" NCoef="0" IVar="-1" Cut="0.0000000000000000e+00" cType="1" res="2.4670382961630821e-02" rms="2.4641339480876923e-01" purity="1.7587864398956299e-01" nType="-99"/>
            <Node pos="r" depth="3" NCoef="0" IVar="-1" Cut="0.0000000000000000e+00" cType="1" res="-5.7046064175665379e-03" rms="2.4161830544471741e-01" purity="5.3584325313568115e-01" nType="-99"/>
          </Node>
          <Node pos="r" depth="2" NCoef="0" IVar="-1" Cut="0.0000000000000000e+00" cType="1" res="4.4499058276414871e-02" rms="2.3479145765304565e-01" purity="2.0445577800273895e-01" nType="-99"/>
        </Node>
      </Node>
    </BinaryTree>
    <BinaryTree type="DecisionTree" boostWeight="1.0000000000000000e+00" itree="497">
      <Node pos="s" depth="0" NCoef="0" IVar="9" Cut="-6.6622418165206909e-01" cType="1" res="-3.4854938276112080e-03" rms="2.4197834730148315e-01" purity="4.8980101943016052e-01" nType="0">
        <Node pos="l" depth="1" NCoef="0" IVar="9" Cut="-1.3771849870681763e+00" cType="1" res="-1.2789523229002953e-02" rms="2.4672490358352661e-01" purity="4.2296898365020752e-01" nType="0">
          <Node pos="l" depth="2" NCoef="0" IVar="9" Cut="-1.8512359857559204e+00" cType="1" res="-6.6912855254486203e-04" rms="2.6078987121582031e-01" purity="3.4795305132865906e-01" nType="0">
            <Node pos="l" depth="3" NCoef="0" IVar="-1" Cut="0.0000000000000000e+00" cType="1" res="-2.6997700333595276e-02" rms="2.4399176239967346e-01" purity="1.8765664100646973e-01" nType="-99"/>
            <Node pos="r" depth="3" NCoef="0" IVar="-1" Cut="0.0000000000000000e+00" cType="1" res="1.3585579581558704e-02" rms="2.7190864086151123e-01" purity="4.6588215231895447e-01" nType="-99"/>
          </Node>
          <Node pos="r" depth="2" NCoef="0" IVar="0" Cut="2.4798271484375000e+03" cType="1" res="-1.9930090755224228e-02" rms="2.3776097595691681e-01" purity="4.6716359257698059e-01" nType="0">
            <Node pos="l" depth="3" NCoef="0" IVar="-1" Cut="0.0000000000000000e+00" cType="1" res="-3.5591341555118561e-02" rms="2.5406163930892944e-01" purity="2.6284068822860718e-01" nType="-99"/>
            <Node pos="r" depth="3" NCoef="0" IVar="-1" Cut="0.0000000000000000e+00" cType="1" res="-1.7659630626440048e-02" rms="1.9353155791759491e-01" purity="9.4556975364685059e-01" nType="-99"/>
          </Node>
        </Node>
        <Node pos="r" depth="1" NCoef="0" IVar="1" Cut="1.4871205389499664e-01" cType="1" res="3.3093767706304789e-04" rms="2.3989985883235931e-01" purity="5.1721489429473877e-01" nType="0">
          <Node pos="l" depth="2" NCoef="0" IVar="9" Cut="1.3141568899154663e+00" cType="1" res="2.4097154382616282e-03" rms="2.4711848795413971e-01" purity="4.4039589166641235e-01" nType="0">
            <Node pos="l" depth="3" NCoef="0" IVar="-1" Cut="0.0000000000000000e+00" cType="1" res="-3.0118474387563765e-04" rms="2.4253208935260773e-01" purity="4.7116750478744507e-01" nType="-99"/>
            <Node pos="r" depth="3" NCoef="0" IVar="-1" Cut="0.0000000000000000e+00" cType="1" res="2.0140409469604492e-02" rms="2.6618036627769470e-01" purity="3.0411475896835327e-01" nType="-99"/>
          </Node>
          <Node pos="r" depth="2" NCoef="0" IVar="0" Cut="2.3653203125000000e+03" cType="1" res="-8.8691348209977150e-03" rms="2.0466834306716919e-01" purity="8.5719394683837891e-01" nType="0">
            <Node pos="l" depth="3" NCoef="0" IVar="-1" Cut="0.0000000000000000e+00" cType="1" res="-2.3645041510462761e-02" rms="3.1249365210533142e-01" purity="6.2590712308883667e-01" nType="-99"/>
            <Node pos="r" depth="3" NCoef="0" IVar="-1" Cut="0.0000000000000000e+00" cType="1" res="-4.3438468128442764e-03" rms="9.8799698054790497e-02" purity="9.8963332176208496e-01" nType="-99"/>
          </Node>
        </Node>
      </Node>
    </BinaryTree>
    <BinaryTree type="DecisionTree" boostWeight="1.0000000000000000e+00" itree="498">
      <Node pos="s" depth="0" NCoef="0" IVar="8" Cut="-1.4667003154754639e+00" cType="1" res="-1.3157309731468558e-03" rms="2.4123080074787140e-01" purity="5.0258636474609375e-01" nType="0">
        <Node pos="l" depth="1" NCoef="0" IVar="6" Cut="-2.2124719619750977e-01" cType="1" res="1.4646167866885662e-02" rms="2.4867817759513855e-01" purity="2.2856441140174866e-01" nType="0">
          <Node pos="l" depth="2" NCoef="0" IVar="-1" Cut="0.0000000000000000e+00" cType="1" res="5.8283634483814240e-02" rms="2.8432050347328186e-01" purity="2.8068453073501587e-01" nType="-99"/>
          <Node pos="r" depth="2" NCoef="0" IVar="-1" Cut="0.0000000000000000e+00" cType="1" res="-2.8966246172785759e-03" rms="2.2034876048564911e-01" purity="1.9389893114566803e-01" nType="-99"/>
        </Node>
        <Node pos="r" depth="1" NCoef="0" IVar="4" Cut="1.3898852539062500e+02" cType="1" res="-2.7311814483255148e-03" rms="2.4050813913345337e-01" purity="5.2688580751419067e-01" nType="0">
          <Node pos="l" depth="2" NCoef="0" IVar="0" Cut="1.6438341064453125e+03" cType="1" res="-1.4825706370174885e-02" rms="1.6836407780647278e-01" purity="4.1423011571168900e-02" nType="0">
            <Node pos="l" depth="3" NCoef="0" IVar="-1" Cut="0.0000000000000000e+00" cType="1" res="-3.3261690288782120e-02" rms="1.0723360627889633e-01" purity="1.2426127679646015e-02" nType="-99"/>
            <Node pos="r" depth="3" NCoef="0" IVar="-1" Cut="0.0000000000000000e+00" cType="1" res="-4.8457827419042587e-02" rms="2.4108801782131195e-01" purity="9.3418352305889130e-02" nType="-99"/>
          </Node>
          <Node pos="r" depth="2" NCoef="0" IVar="9" Cut="-1.4659709930419922e+00" cType="1" res="-8.6435675621032715e-04" rms="2.4974218010902405e-01" purity="6.0181838274002075e-01" nType="0">
            <Node pos="l" depth="3" NCoef="0" IVar="-1" Cut="0.0000000000000000e+00" cType="1" res="-2.0576626062393188e-02" rms="2.8488233685493469e-01" purity="4.2568817734718323e-01" nType="-99"/>
            <Node pos="r" depth="3" NCoef="0" IVar="-1" Cut="0.0000000000000000e+00" cType="1" res="1.1801786022260785e-03" rms="2.4611967802047729e-01" purity="6.1838048696517944e-01" nType="-99"/>
          </Node>
        </Node>
      </Node>
    </BinaryTree>
    <BinaryTree type="DecisionTree" boostWeight="1.0000000000000000e+00" itree="499">
      <Node pos="s" depth="0" NCoef="0" IVar="7" Cut="6.6623818874359131e-01" cType="1" res="4.1965630953200161e-04" rms="2.4363149702548981e-01" purity="5.0154304504394531e-01" nType="0">
        <Node pos="l" depth="1" NCoef="0" IVar="3" Cut="4.5899078369140625e+02" cType="1" res="-1.6689953627064824e-03" rms="2.3998101055622101e-01" purity="5.3749793767929077e-01" nType="0">
          <Node pos="l" depth="2" NCoef="0" IVar="4" Cut="1.3172895812988281e+02" cType="1" res="-4.3890280649065971e-03" rms="2.4894244968891144e-01" purity="4.4973316788673401e-01" nType="0">
            <Node pos="l" depth="3" NCoef="0" IVar="-1" Cut="0.0000000000000000e+00" cType="1" res="3.5677913576364517e-02" rms="1.9853268563747406e-01" purity="6.1203457415103912e-02" nType="-99"/>
            <Node pos="r" depth="3" NCoef="0" IVar="-1" Cut="0.0000000000000000e+00" cType="1" res="-9.6476180478930473e-03" rms="2.5544157624244690e-01" purity="5.0693434476852417e-01" nType="-99"/>
          </Node>
          <Node pos="r" depth="2" NCoef="0" IVar="7" Cut="-1.5396428108215332e-01" cType="1" res="9.2446636408567429e-03" rms="1.9965533912181854e-01" purity="8.8963896036148071e-01" nType="0">
            <Node pos="l" depth="3" NCoef="0" IVar="-1" Cut="0.0000000000000000e+00" cType="1" res="3.3732119947671890e-02" rms="2.0649810135364532e-01" purity="8.6988061666488647e-01" nType="-99"/>
            <Node pos="r" depth="3" NCoef="0" IVar="-1" Cut="0.0000000000000000e+00" cType="1" res="2.5259051471948624e-03" rms="1.9227991998195648e-01" purity="9.0922206640243530e-01" nType="-99"/>
          </Node>
        </Node>
        <Node pos="r" depth="1" NCoef="0" IVar="7" Cut="9.7094780206680298e-01" cType="1" res="7.2097340598702431e-03" rms="2.5502017140388489e-01" purity="3.8465559482574463e-01" nType="0">
          <Node pos="l" depth="2" NCoef="0" IVar="9" Cut="-3.9238196611404419e-01" cType="1" res="1.9724275916814804e-02" rms="2.5832089781761169e-01" purity="5.3686398267745972e-01" nType="0">
            <Node pos="l" depth="3" NCoef="0" IVar="-1" Cut="0.0000000000000000e+00" cType="1" res="5.4441981017589569e-02" rms="2.7648070454597473e-01" purity="4.7836220264434814e-01" nType="-99"/>
            <Node pos="r" depth="3" NCoef="0" IVar="-1" Cut="0.0000000000000000e+00" cType="1" res="1.4734831638634205e-02" rms="2.4647706747055054e-01" purity="5.7124745845794678e-01" nType="-99"/>
          </Node>
          <Node pos="r" depth="2" NCoef="0" IVar="8" Cut="6.6753041744232178e-01" cType="1" res="-1.5907075066934340e-05" rms="2.5281286239624023e-01" purity="2.9677358269691467e-01" nType="0">
            <Node pos="l" depth="3" NCoef="0" IVar="-1" Cut="0.0000000000000000e+00" cType="1" res="-9.5203155651688576e-03" rms="2.5704351067543030e-01" purity="3.2037711143493652e-01" nType="-99"/>
            <Node pos="r" depth="3" NCoef="0" IVar="-1" Cut="0.0000000000000000e+00" cType="1" res="2.3027932271361351e-02" rms="2.4281665682792664e-01" purity="2.4536766111850739e-01" nType="-99"/>
          </Node>
        </Node>
      </Node>
    </BinaryTree>
    <BinaryTree type="DecisionTree" boostWeight="1.0000000000000000e+00" itree="500">
      <Node pos="s" depth="0" NCoef="0" IVar="9" Cut="6.6666632890701294e-01" cType="1" res="5.7849835138767958e-04" rms="2.3957866430282593e-01" purity="4.9790409207344055e-01" nType="0">
        <Node pos="l" depth="1" NCoef="0" IVar="4" Cut="1.4370759582519531e+02" cType="1" res="3.8601441774517298e-03" rms="2.3545068502426147e-01" purity="5.2576440572738647e-01" nType="0">
          <Node pos="l" depth="2" NCoef="0" IVar="8" Cut="1.3365119695663452e-01" cType="1" res="-5.9278197586536407e-03" rms="1.7037492990493774e-01" purity="5.7410817593336105e-02" nType="0">
            <Node pos="l" depth="3" NCoef="0" IVar="-1" Cut="0.0000000000000000e+00" cType="1" res="-3.9635170251131058e-02" rms="1.5716695785522461e-01" purity="4.2195081710815430e-02" nType="-99"/>
            <Node pos="r" depth="3" NCoef="0" IVar="-1" Cut="0.0000000000000000e+00" cType="1" res="7.9828640446066856e-03" rms="1.8669581413269043e-01" purity="7.8386694192886353e-02" nType="-99"/>
          </Node>
          <Node pos="r" depth="2" NCoef="0" IVar="7" Cut="-1.3361231982707977e-01" cType="1" res="5.6313797831535339e-03" rms="2.4534794688224792e-01" purity="6.1051791906356812e-01" nType="0">
            <Node pos="l" depth="3" NCoef="0" IVar="-1" Cut="0.0000000000000000e+00" cType="1" res="1.2487304629758000e-03" rms="2.4327675998210907e-01" purity="5.8806896209716797e-01" nType="-99"/>
            <Node pos="r" depth="3" NCoef="0" IVar="-1" Cut="0.0000000000000000e+00" cType="1" res="1.5265018679201603e-02" rms="2.4698835611343384e-01" purity="6.2922555208206177e-01" nType="-99"/>
          </Node>
        </Node>
        <Node pos="r" depth="1" NCoef="0" IVar="2" Cut="3.9762231445312500e+02" cType="1" res="-7.9498048871755600e-03" rms="2.4978630244731903e-01" purity="4.2550104856491089e-01" nType="0">
          <Node pos="l" depth="2" NCoef="0" IVar="0" Cut="1.5607189941406250e+03" cType="1" res="-2.3955127224326134e-02" rms="2.5130620598793030e-01" purity="2.0800743997097015e-01" nType="0">
            <Node pos="l" depth="3" NCoef="0" IVar="-1" Cut="0.0000000000000000e+00" cType="1" res="-1.0462824255228043e-02" rms="1.8833999335765839e-01" purity="3.9859257638454437e-02" nType="-99"/>
            <Node pos="r" depth="3" NCoef="0" IVar="-1" Cut="0.0000000000000000e+00" cType="1" res="-4.0508270263671875e-02" rms="2.8985059261322021e-01" purity="3.3799654245376587e-01" nType="-99"/>
          </Node>
          <Node pos="r" depth="2" NCoef="0" IVar="9" Cut="1.9847869873046875e+00" cType="1" res="-1.4922037953510880e-03" rms="2.4887920916080475e-01" purity="5.1325225830078125e-01" nType="0">
            <Node pos="l" depth="3" NCoef="0" IVar="-1" Cut="0.0000000000000000e+00" cType="1" res="2.5891282130032778e-03" rms="2.4932682514190674e-01" purity="5.6060135364532471e-01" nType="-99"/>
            <Node pos="r" depth="3" NCoef="0" IVar="-1" Cut="0.0000000000000000e+00" cType="1" res="-3.4807424992322922e-02" rms="2.4472117424011230e-01" purity="1.8753159046173096e-01" nType="-99"/>
          </Node>
        </Node>
      </Node>
    </BinaryTree>
    <BinaryTree type="DecisionTree" boostWeight="1.0000000000000000e+00" itree="501">
      <Node pos="s" depth="0" NCoef="0" IVar="1" Cut="2.1301018074154854e-02" cType="1" res="1.4698168961331248e-03" rms="2.4379760026931763e-01" purity="4.9966257810592651e-01" nType="0">
        <Node pos="l" depth="1" NCoef="0" IVar="3" Cut="4.1357519531250000e+02" cType="1" res="1.1851771734654903e-02" rms="1.9608664512634277e-01" purity="1.1662670224905014e-01" nType="0">
          <Node pos="l" depth="2" NCoef="0" IVar="5" Cut="1.5586648559570312e+02" cType="1" res="4.3472815304994583e-03" rms="1.7268683016300201e-01" purity="6.2491089105606079e-02" nType="0">
            <Node pos="l" depth="3" NCoef="0" IVar="-1" Cut="0.0000000000000000e+00" cType="1" res="-1.7621871083974838e-02" rms="1.2664555013179779e-01" purity="2.4380804970860481e-02" nType="-99"/>
            <Node pos="r" depth="3" NCoef="0" IVar="-1" Cut="0.0000000000000000e+00" cType="1" res="5.7328652590513229e-02" rms="3.1178697943687439e-01" purity="2.5352084636688232e-01" nType="-99"/>
          </Node>
          <Node pos="r" depth="2" NCoef="0" IVar="-1" Cut="0.0000000000000000e+00" cType="1" res="6.3373059034347534e-02" rms="2.9259338974952698e-01" purity="4.2605358362197876e-01" nType="-99"/>
        </Node>
        <Node pos="r" depth="1" NCoef="0" IVar="9" Cut="-1.3384874165058136e-01" cType="1" res="-8.9034257689490914e-04" rms="2.5333434343338013e-01" purity="5.8673924207687378e-01" nType="0">
          <Node pos="l" depth="2" NCoef="0" IVar="6" Cut="-5.3429353237152100e-01" cType="1" res="4.2446102015674114e-03" rms="2.5841173529624939e-01" purity="5.9046471118927002e-01" nType="0">
            <Node pos="l" depth="3" NCoef="0" IVar="-1" Cut="0.0000000000000000e+00" cType="1" res="-1.4036233536899090e-02" rms="2.6312032341957092e-01" purity="4.7656980156898499e-01" nType="-99"/>
            <Node pos="r" depth="3" NCoef="0" IVar="-1" Cut="0.0000000000000000e+00" cType="1" res="1.3439399190247059e-02" rms="2.5665071606636047e-01" purity="6.2844276428222656e-01" nType="-99"/>
          </Node>
          <Node pos="r" depth="2" NCoef="0" IVar="4" Cut="3.3048352050781250e+02" cType="1" res="-5.1012518815696239e-03" rms="2.4901442229747772e-01" purity="5.8368414640426636e-01" nType="0">
            <Node pos="l" depth="3" NCoef="0" IVar="-1" Cut="0.0000000000000000e+00" cType="1" res="-1.0482371784746647e-02" rms="2.6739934086799622e-01" purity="4.8198243975639343e-01" nType="-99"/>
            <Node pos="r" depth="3" NCoef="0" IVar="-1" Cut="0.0000000000000000e+00" cType="1" res="1.5770802274346352e-02" rms="1.6466836631298065e-01" purity="9.5611476898193359e-01" nType="-99"/>
          </Node>
        </Node>
      </Node>
    </BinaryTree>
    <BinaryTree type="DecisionTree" boostWeight="1.0000000000000000e+00" itree="502">
      <Node pos="s" depth="0" NCoef="0" IVar="6" Cut="-3.0283802747726440e-01" cType="1" res="2.0413026213645935e-03" rms="2.4017642438411713e-01" purity="5.0176572799682617e-01" nType="0">
        <Node pos="l" depth="1" NCoef="0" IVar="9" Cut="-1.1956603527069092e+00" cType="1" res="8.0568939447402954e-03" rms="2.4528372287750244e-01" purity="4.6210411190986633e-01" nType="0">
          <Node pos="l" depth="2" NCoef="0" IVar="7" Cut="-9.3965403735637665e-02" cType="1" res="-6.3774934969842434e-03" rms="2.4688251316547394e-01" purity="3.5622349381446838e-01" nType="0">
            <Node pos="l" depth="3" NCoef="0" IVar="-1" Cut="0.0000000000000000e+00" cType="1" res="-3.2159831374883652e-02" rms="2.2011382877826691e-01" purity="3.3552908897399902e-01" nType="-99"/>
            <Node pos="r" depth="3" NCoef="0" IVar="-1" Cut="0.0000000000000000e+00" cType="1" res="1.7699109390377998e-02" rms="2.7132758498191833e-01" purity="3.7826111912727356e-01" nType="-99"/>
          </Node>
          <Node pos="r" depth="2" NCoef="0" IVar="0" Cut="1.6663165283203125e+03" cType="1" res="1.0870481841266155e-02" rms="2.4487179517745972e-01" purity="4.8274263739585876e-01" nType="0">
            <Node pos="l" depth="3" NCoef="0" IVar="-1" Cut="0.0000000000000000e+00" cType="1" res="2.6087642181664705e-03" rms="1.5693905949592590e-01" purity="2.9169382527470589e-02" nType="-99"/>
            <Node pos="r" depth="3" NCoef="0" IVar="-1" Cut="0.0000000000000000e+00" cType="1" res="2.0395642146468163e-02" rms="2.7451586723327637e-01" purity="6.8123960494995117e-01" nType="-99"/>
          </Node>
        </Node>
        <Node pos="r" depth="1" NCoef="0" IVar="1" Cut="1.1658340692520142e-01" cType="1" res="-1.2134172720834613e-03" rms="2.3730376362800598e-01" purity="5.2322447299957275e-01" nType="0">
          <Node pos="l" depth="2" NCoef="0" IVar="7" Cut="4.0025550127029419e-01" cType="1" res="-3.9769583381712437e-03" rms="2.4349482357501984e-01" purity="3.9373117685317993e-01" nType="0">
            <Node pos="l" depth="3" NCoef="0" IVar="-1" Cut="0.0000000000000000e+00" cType="1" res="-1.2858595699071884e-02" rms="2.3945204913616180e-01" purity="3.9770117402076721e-01" nType="-99"/>
            <Node pos="r" depth="3" NCoef="0" IVar="-1" Cut="0.0000000000000000e+00" cType="1" res="5.4625631310045719e-03" rms="2.5054484605789185e-01" purity="3.8647052645683289e-01" nType="-99"/>
          </Node>
          <Node pos="r" depth="2" NCoef="0" IVar="0" Cut="2.1760280761718750e+03" cType="1" res="5.5075874552130699e-03" rms="2.2138209640979767e-01" purity="8.3815568685531616e-01" nType="0">
            <Node pos="l" depth="3" NCoef="0" IVar="-1" Cut="0.0000000000000000e+00" cType="1" res="1.8833186477422714e-02" rms="3.4844601154327393e-01" purity="5.0773715972900391e-01" nType="-99"/>
            <Node pos="r" depth="3" NCoef="0" IVar="-1" Cut="0.0000000000000000e+00" cType="1" res="-1.2956505641341209e-02" rms="1.3403536379337311e-01" purity="9.7892493009567261e-01" nType="-99"/>
          </Node>
        </Node>
      </Node>
    </BinaryTree>
    <BinaryTree type="DecisionTree" boostWeight="1.0000000000000000e+00" itree="503">
      <Node pos="s" depth="0" NCoef="0" IVar="6" Cut="-4.4558502733707428e-02" cType="1" res="-2.2464764770120382e-03" rms="2.3968636989593506e-01" purity="4.9964302778244019e-01" nType="0">
        <Node pos="l" depth="1" NCoef="0" IVar="2" Cut="3.2210559082031250e+02" cType="1" res="2.4386951699852943e-03" rms="2.4571251869201660e-01" purity="5.0383150577545166e-01" nType="0">
          <Node pos="l" depth="2" NCoef="0" IVar="-1" Cut="0.0000000000000000e+00" cType="1" res="3.1396195292472839e-02" rms="2.8228822350502014e-01" purity="2.2068838775157928e-01" nType="-99"/>
          <Node pos="r" depth="2" NCoef="0" IVar="6" Cut="-6.5959322452545166e-01" cType="1" res="2.8963616932742298e-04" rms="2.4141049385070801e-01" purity="5.3385001420974731e-01" nType="0">
            <Node pos="l" depth="3" NCoef="0" IVar="-1" Cut="0.0000000000000000e+00" cType="1" res="-1.1756799183785915e-02" rms="2.4131223559379578e-01" purity="3.3899620175361633e-01" nType="-99"/>
            <Node pos="r" depth="3" NCoef="0" IVar="-1" Cut="0.0000000000000000e+00" cType="1" res="9.3635180965065956e-03" rms="2.4134667217731476e-01" purity="6.7623615264892578e-01" nType="-99"/>
          </Node>
        </Node>
        <Node pos="r" depth="1" NCoef="0" IVar="7" Cut="6.6732788085937500e-01" cType="1" res="-6.5804962068796158e-03" rms="2.3389017581939697e-01" purity="4.9576842784881592e-01" nType="0">
          <Node pos="l" depth="2" NCoef="0" IVar="1" Cut="7.7827617526054382e-02" cType="1" res="-4.2887232266366482e-03" rms="2.3430749773979187e-01" purity="5.2893292903900146e-01" nType="0">
            <Node pos="l" depth="3" NCoef="0" IVar="-1" Cut="0.0000000000000000e+00" cType="1" res="-1.6563808545470238e-02" rms="2.3459193110466003e-01" purity="3.0767217278480530e-01" nType="-99"/>
            <Node pos="r" depth="3" NCoef="0" IVar="-1" Cut="0.0000000000000000e+00" cType="1" res="3.1388215720653534e-03" rms="2.3384827375411987e-01" purity="7.6643782854080200e-01" nType="-99"/>
          </Node>
          <Node pos="r" depth="2" NCoef="0" IVar="0" Cut="2.0565339355468750e+03" cType="1" res="-1.3452294282615185e-02" rms="2.3249897360801697e-01" purity="3.9632588624954224e-01" nType="0">
            <Node pos="l" depth="3" NCoef="0" IVar="-1" Cut="0.0000000000000000e+00" cType="1" res="-3.7274479866027832e-02" rms="2.2230747342109680e-01" purity="9.4456098973751068e-02" nType="-99"/>
            <Node pos="r" depth="3" NCoef="0" IVar="-1" Cut="0.0000000000000000e+00" cType="1" res="1.2112394906580448e-03" rms="2.4690227210521698e-01" purity="8.6754995584487915e-01" nType="-99"/>
          </Node>
        </Node>
      </Node>
    </BinaryTree>
    <BinaryTree type="DecisionTree" boostWeight="1.0000000000000000e+00" itree="504">
      <Node pos="s" depth="0" NCoef="0" IVar="7" Cut="1.1998522281646729e+00" cType="1" res="4.4726505875587463e-03" rms="2.4362511932849884e-01" purity="5.0527071952819824e-01" nType="0">
        <Node pos="l" depth="1" NCoef="0" IVar="3" Cut="2.7587606811523438e+02" cType="1" res="2.4677829351276159e-03" rms="2.4362397193908691e-01" purity="5.4029238224029541e-01" nType="0">
          <Node pos="l" depth="2" NCoef="0" IVar="3" Cut="1.9646740722656250e+02" cType="1" res="-2.9939480591565371e-03" rms="2.5405079126358032e-01" purity="2.0543612539768219e-01" nType="0">
            <Node pos="l" depth="3" NCoef="0" IVar="-1" Cut="0.0000000000000000e+00" cType="1" res="2.3705791682004929e-02" rms="2.1172052621841431e-01" purity="8.7266266345977783e-02" nType="-99"/>
            <Node pos="r" depth="3" NCoef="0" IVar="-1" Cut="0.0000000000000000e+00" cType="1" res="-1.1095124296844006e-02" rms="2.6876950263977051e-01" purity="2.5211849808692932e-01" nType="-99"/>
          </Node>
          <Node pos="r" depth="2" NCoef="0" IVar="0" Cut="2.4654157714843750e+03" cType="1" res="5.1113106310367584e-03" rms="2.3836864531040192e-01" purity="7.0236587524414062e-01" nType="0">
            <Node pos="l" depth="3" NCoef="0" IVar="-1" Cut="0.0000000000000000e+00" cType="1" res="1.2966062873601913e-02" rms="2.9375907778739929e-01" purity="4.4637548923492432e-01" nType="-99"/>
            <Node pos="r" depth="3" NCoef="0" IVar="-1" Cut="0.0000000000000000e+00" cType="1" res="-4.9470579251646996e-03" rms="1.6789574921131134e-01" purity="9.5026981830596924e-01" nType="-99"/>
          </Node>
        </Node>
        <Node pos="r" depth="1" NCoef="0" IVar="7" Cut="1.4281613826751709e+00" cType="1" res="2.0588096231222153e-02" rms="2.4303431808948517e-01" purity="2.2376100718975067e-01" nType="0">
          <Node pos="l" depth="2" NCoef="0" IVar="-1" Cut="0.0000000000000000e+00" cType="1" res="6.0294080525636673e-02" rms="3.0428311228752136e-01" purity="3.9010143280029297e-01" nType="-99"/>
          <Node pos="r" depth="2" NCoef="0" IVar="9" Cut="-1.3408114016056061e-01" cType="1" res="7.0537114515900612e-03" rms="2.0391969382762909e-01" purity="1.3972033560276031e-01" nType="0">
            <Node pos="l" depth="3" NCoef="0" IVar="-1" Cut="0.0000000000000000e+00" cType="1" res="-1.3641961850225925e-02" rms="1.7292791604995728e-01" purity="1.4422838389873505e-01" nType="-99"/>
            <Node pos="r" depth="3" NCoef="0" IVar="-1" Cut="0.0000000000000000e+00" cType="1" res="3.8804002106189728e-02" rms="2.2223751246929169e-01" purity="1.3662725687026978e-01" nType="-99"/>
          </Node>
        </Node>
      </Node>
    </BinaryTree>
    <BinaryTree type="DecisionTree" boostWeight="1.0000000000000000e+00" itree="505">
      <Node pos="s" depth="0" NCoef="0" IVar="8" Cut="1.4662246704101562e+00" cType="1" res="-2.6968494057655334e-03" rms="2.4032989144325256e-01" purity="5.0144523382186890e-01" nType="0">
        <Node pos="l" depth="1" NCoef="0" IVar="8" Cut="-1.9865570068359375e+00" cType="1" res="-4.0339697152376175e-03" rms="2.3823569715023041e-01" purity="5.2194666862487793e-01" nType="0">
          <Node pos="l" depth="2" NCoef="0" IVar="-1" Cut="0.0000000000000000e+00" cType="1" res="-6.2276449054479599e-02" rms="2.0168694853782654e-01" purity="9.1327309608459473e-02" nType="-99"/>
          <Node pos="r" depth="2" NCoef="0" IVar="9" Cut="9.3362253904342651e-01" cType="1" res="-3.3359795343130827e-03" rms="2.3929604887962341e-01" purity="5.3592288494110107e-01" nType="0">
            <Node pos="l" depth="3" NCoef="0" IVar="-1" Cut="0.0000000000000000e+00" cType="1" res="-8.8966879993677139e-03" rms="2.3595684766769409e-01" purity="5.5700302124023438e-01" nType="-99"/>
            <Node pos="r" depth="3" NCoef="0" IVar="-1" Cut="0.0000000000000000e+00" cType="1" res="6.5211718901991844e-03" rms="2.5183928012847900e-01" purity="4.5309981703758240e-01" nType="-99"/>
          </Node>
        </Node>
        <Node pos="r" depth="1" NCoef="0" IVar="9" Cut="-1.3291712105274200e-01" cType="1" res="1.3204085640609264e-02" rms="2.6344373822212219e-01" purity="2.5764372944831848e-01" nType="0">
          <Node pos="l" depth="2" NCoef="0" IVar="-1" Cut="0.0000000000000000e+00" cType="1" res="-8.7445778772234917e-03" rms="2.4689352512359619e-01" purity="2.2976097464561462e-01" nType="-99"/>
          <Node pos="r" depth="2" NCoef="0" IVar="-1" Cut="0.0000000000000000e+00" cType="1" res="4.3239116668701172e-02" rms="2.7470541000366211e-01" purity="2.7932459115982056e-01" nType="-99"/>
        </Node>
      </Node>
    </BinaryTree>
    <BinaryTree type="DecisionTree" boostWeight="1.0000000000000000e+00" itree="506">
      <Node pos="s" depth="0" NCoef="0" IVar="1" Cut="8.4928832948207855e-02" cType="1" res="1.0734101524576545e-03" rms="2.3848009109497070e-01" purity="5.0569802522659302e-01" nType="0">
        <Node pos="l" depth="1" NCoef="0" IVar="5" Cut="1.9069682312011719e+02" cType="1" res="-2.2789097856730223e-03" rms="2.3948530852794647e-01" purity="3.1425568461418152e-01" nType="0">
          <Node pos="l" depth="2" NCoef="0" IVar="7" Cut="-9.3316936492919922e-01" cType="1" res="-6.4501524902880192e-03" rms="2.3466821014881134e-01" purity="1.7625437676906586e-01" nType="0">
            <Node pos="l" depth="3" NCoef="0" IVar="-1" Cut="0.0000000000000000e+00" cType="1" res="7.1091386489570141e-03" rms="2.1031618118286133e-01" purity="1.0996387153863907e-01" nType="-99"/>
            <Node pos="r" depth="3" NCoef="0" IVar="-1" Cut="0.0000000000000000e+00" cType="1" res="-1.5080237761139870e-02" rms="2.4135906994342804e-01" purity="1.9596035778522491e-01" nType="-99"/>
          </Node>
          <Node pos="r" depth="2" NCoef="0" IVar="4" Cut="2.9755526733398438e+02" cType="1" res="1.2333646416664124e-02" rms="2.5510802865028381e-01" purity="7.9769724607467651e-01" nType="0">
            <Node pos="l" depth="3" NCoef="0" IVar="-1" Cut="0.0000000000000000e+00" cType="1" res="2.2532649338245392e-02" rms="3.0104157328605652e-01" purity="6.6712713241577148e-01" nType="-99"/>
            <Node pos="r" depth="3" NCoef="0" IVar="-1" Cut="0.0000000000000000e+00" cType="1" res="8.1653874367475510e-03" rms="2.0596069097518921e-01" purity="9.1281735897064209e-01" nType="-99"/>
          </Node>
        </Node>
        <Node pos="r" depth="1" NCoef="0" IVar="5" Cut="1.9442480468750000e+02" cType="1" res="6.0206921771168709e-03" rms="2.3690217733383179e-01" purity="7.8822445869445801e-01" nType="0">
          <Node pos="l" depth="2" NCoef="0" IVar="6" Cut="-5.6592196226119995e-02" cType="1" res="1.3576474040746689e-02" rms="2.9532840847969055e-01" purity="6.0035407543182373e-01" nType="0">
            <Node pos="l" depth="3" NCoef="0" IVar="-1" Cut="0.0000000000000000e+00" cType="1" res="2.7250237762928009e-03" rms="3.0225211381912231e-01" purity="5.8212846517562866e-01" nType="-99"/>
            <Node pos="r" depth="3" NCoef="0" IVar="-1" Cut="0.0000000000000000e+00" cType="1" res="2.5870697572827339e-02" rms="2.8894561529159546e-01" purity="6.1592775583267212e-01" nType="-99"/>
          </Node>
          <Node pos="r" depth="2" NCoef="0" IVar="7" Cut="-4.5723173022270203e-01" cType="1" res="-4.1421962669119239e-04" rms="1.7189933359622955e-01" purity="9.4822502136230469e-01" nType="0">
            <Node pos="l" depth="3" NCoef="0" IVar="-1" Cut="0.0000000000000000e+00" cType="1" res="-2.4266121909022331e-02" rms="1.8108989298343658e-01" purity="9.2901021242141724e-01" nType="-99"/>
            <Node pos="r" depth="3" NCoef="0" IVar="-1" Cut="0.0000000000000000e+00" cType="1" res="6.4836107194423676e-03" rms="1.6885375976562500e-01" purity="9.5424705743789673e-01" nType="-99"/>
          </Node>
        </Node>
      </Node>
    </BinaryTree>
    <BinaryTree type="DecisionTree" boostWeight="1.0000000000000000e+00" itree="507">
      <Node pos="s" depth="0" NCoef="0" IVar="7" Cut="-9.2963999509811401e-01" cType="1" res="-9.5902883913367987e-04" rms="2.4301417171955109e-01" purity="5.0836038589477539e-01" nType="0">
        <Node pos="l" depth="1" NCoef="0" IVar="0" Cut="1.6158161621093750e+03" cType="1" res="9.4057880342006683e-03" rms="2.4408473074436188e-01" purity="3.0803132057189941e-01" nType="0">
          <Node pos="l" depth="2" NCoef="0" IVar="0" Cut="1.4925732421875000e+03" cType="1" res="-5.4579484276473522e-03" rms="1.2802542746067047e-01" purity="1.9760189577937126e-02" nType="0">
            <Node pos="l" depth="3" NCoef="0" IVar="-1" Cut="0.0000000000000000e+00" cType="1" res="-7.7250286936759949e-02" rms="7.0888943970203400e-02" purity="4.8304637894034386e-03" nType="-99"/>
            <Node pos="r" depth="3" NCoef="0" IVar="-1" Cut="0.0000000000000000e+00" cType="1" res="5.6877876631915569e-03" rms="1.6721266508102417e-01" purity="3.5088818520307541e-02" nType="-99"/>
          </Node>
          <Node pos="r" depth="2" NCoef="0" IVar="0" Cut="2.0263889160156250e+03" cType="1" res="1.7851196229457855e-02" rms="2.8968736529350281e-01" purity="4.7182369232177734e-01" nType="0">
            <Node pos="l" depth="3" NCoef="0" IVar="-1" Cut="0.0000000000000000e+00" cType="1" res="4.5940604060888290e-02" rms="2.9339289665222168e-01" purity="1.8953350186347961e-01" nType="-99"/>
            <Node pos="r" depth="3" NCoef="0" IVar="-1" Cut="0.0000000000000000e+00" cType="1" res="-6.6912872716784477e-04" rms="2.8494605422019958e-01" purity="7.3625391721725464e-01" nType="-99"/>
          </Node>
        </Node>
        <Node pos="r" depth="1" NCoef="0" IVar="4" Cut="1.4955502319335938e+02" cType="1" res="-2.9496490024030209e-03" rms="2.4275738000869751e-01" purity="5.4683470726013184e-01" nType="0">
          <Node pos="l" depth="2" NCoef="0" IVar="4" Cut="1.1374437713623047e+02" cType="1" res="6.7042438313364983e-03" rms="2.1171392500400543e-01" purity="8.2745201885700226e-02" nType="0">
            <Node pos="l" depth="3" NCoef="0" IVar="-1" Cut="0.0000000000000000e+00" cType="1" res="-3.8493685424327850e-02" rms="1.4108480513095856e-01" purity="2.9860921204090118e-02" nType="-99"/>
            <Node pos="r" depth="3" NCoef="0" IVar="-1" Cut="0.0000000000000000e+00" cType="1" res="3.2975565642118454e-02" rms="2.4138353765010834e-01" purity="1.1177045851945877e-01" nType="-99"/>
          </Node>
          <Node pos="r" depth="2" NCoef="0" IVar="4" Cut="2.3460684204101562e+02" cType="1" res="-4.8578721471130848e-03" rms="2.4839039146900177e-01" purity="6.3856828212738037e-01" nType="0">
            <Node pos="l" depth="3" NCoef="0" IVar="-1" Cut="0.0000000000000000e+00" cType="1" res="-1.4762894250452518e-02" rms="2.8172510862350464e-01" purity="3.3922693133354187e-01" nType="-99"/>
            <Node pos="r" depth="3" NCoef="0" IVar="-1" Cut="0.0000000000000000e+00" cType="1" res="2.2041956253815442e-04" rms="2.2217330336570740e-01" purity="8.4652560949325562e-01" nType="-99"/>
          </Node>
        </Node>
      </Node>
    </BinaryTree>
    <BinaryTree type="DecisionTree" boostWeight="1.0000000000000000e+00" itree="508">
      <Node pos="s" depth="0" NCoef="0" IVar="8" Cut="-1.4667590856552124e+00" cType="1" res="-1.2031542428303510e-04" rms="2.3875071108341217e-01" purity="5.0212138891220093e-01" nType="0">
        <Node pos="l" depth="1" NCoef="0" IVar="7" Cut="-3.9179107546806335e-01" cType="1" res="-1.3538435101509094e-02" rms="2.2735461592674255e-01" purity="2.0919257402420044e-01" nType="0">
          <Node pos="l" depth="2" NCoef="0" IVar="-1" Cut="0.0000000000000000e+00" cType="1" res="-6.4853951334953308e-02" rms="1.8978895246982574e-01" purity="1.4955691993236542e-01" nType="-99"/>
          <Node pos="r" depth="2" NCoef="0" IVar="-1" Cut="0.0000000000000000e+00" cType="1" res="2.3742297198623419e-03" rms="2.5145387649536133e-01" purity="2.5507947802543640e-01" nType="-99"/>
        </Node>
        <Node pos="r" depth="1" NCoef="0" IVar="8" Cut="1.3770737648010254e+00" cType="1" res="1.0897548636421561e-03" rms="2.3971489071846008e-01" purity="5.2853828668594360e-01" nType="0">
          <Node pos="l" depth="2" NCoef="0" IVar="6" Cut="4.7200053930282593e-01" cType="1" res="2.8315146919339895e-03" rms="2.3945961892604828e-01" purity="5.5958533287048340e-01" nType="0">
            <Node pos="l" depth="3" NCoef="0" IVar="-1" Cut="0.0000000000000000e+00" cType="1" res="9.8115066066384315e-04" rms="2.3829467594623566e-01" purity="6.0361611843109131e-01" nType="-99"/>
            <Node pos="r" depth="3" NCoef="0" IVar="-1" Cut="0.0000000000000000e+00" cType="1" res="1.4594323933124542e-02" rms="2.4240511655807495e-01" purity="4.4342425465583801e-01" nType="-99"/>
          </Node>
          <Node pos="r" depth="2" NCoef="0" IVar="7" Cut="6.6723847389221191e-01" cType="1" res="-1.5658652409911156e-02" rms="2.4151554703712463e-01" purity="2.2999621927738190e-01" nType="0">
            <Node pos="l" depth="3" NCoef="0" IVar="-1" Cut="0.0000000000000000e+00" cType="1" res="-5.1410002633929253e-03" rms="2.5594174861907959e-01" purity="2.7517065405845642e-01" nType="-99"/>
            <Node pos="r" depth="3" NCoef="0" IVar="-1" Cut="0.0000000000000000e+00" cType="1" res="-8.3448983728885651e-02" rms="2.0431564748287201e-01" purity="1.3196937739849091e-01" nType="-99"/>
          </Node>
        </Node>
      </Node>
    </BinaryTree>
    <BinaryTree type="DecisionTree" boostWeight="1.0000000000000000e+00" itree="509">
      <Node pos="s" depth="0" NCoef="0" IVar="5" Cut="1.1808435058593750e+02" cType="1" res="-5.0915341125801206e-04" rms="2.4060428142547607e-01" purity="4.9062502384185791e-01" nType="0">
        <Node pos="l" depth="1" NCoef="0" IVar="6" Cut="2.0499961078166962e-01" cType="1" res="6.4945127815008163e-03" rms="2.1964080631732941e-01" purity="1.0798884928226471e-01" nType="0">
          <Node pos="l" depth="2" NCoef="0" IVar="5" Cut="1.0220029449462891e+02" cType="1" res="-1.6383650654461235e-04" rms="2.2472779452800751e-01" purity="1.1115685105323792e-01" nType="0">
            <Node pos="l" depth="3" NCoef="0" IVar="-1" Cut="0.0000000000000000e+00" cType="1" res="2.4127544835209846e-02" rms="2.1927399933338165e-01" purity="1.0019198060035706e-01" nType="-99"/>
            <Node pos="r" depth="3" NCoef="0" IVar="-1" Cut="0.0000000000000000e+00" cType="1" res="-2.8158077970147133e-02" rms="2.3192408680915833e-01" purity="1.2797950208187103e-01" nType="-99"/>
          </Node>
          <Node pos="r" depth="2" NCoef="0" IVar="1" Cut="1.6172029078006744e-02" cType="1" res="1.4972636476159096e-02" rms="2.1268627047538757e-01" purity="1.0395500063896179e-01" nType="0">
            <Node pos="l" depth="3" NCoef="0" IVar="-1" Cut="0.0000000000000000e+00" cType="1" res="4.9171717837452888e-03" rms="9.8602786660194397e-02" purity="1.7967753112316132e-02" nType="-99"/>
            <Node pos="r" depth="3" NCoef="0" IVar="-1" Cut="0.0000000000000000e+00" cType="1" res="4.2584255337715149e-02" rms="2.5637179613113403e-01" purity="1.5403190255165100e-01" nType="-99"/>
          </Node>
        </Node>
        <Node pos="r" depth="1" NCoef="0" IVar="5" Cut="1.4837861633300781e+02" cType="1" res="-3.0922887381166220e-03" rms="2.4783909320831299e-01" purity="6.3175129890441895e-01" nType="0">
          <Node pos="l" depth="2" NCoef="0" IVar="1" Cut="3.6350600421428680e-02" cType="1" res="-1.5041697770357132e-02" rms="2.7029484510421753e-01" purity="2.5696429610252380e-01" nType="0">
            <Node pos="l" depth="3" NCoef="0" IVar="-1" Cut="0.0000000000000000e+00" cType="1" res="-6.9158244878053665e-04" rms="2.1869696676731110e-01" purity="1.2114785611629486e-01" nType="-99"/>
            <Node pos="r" depth="3" NCoef="0" IVar="-1" Cut="0.0000000000000000e+00" cType="1" res="-2.3960547521710396e-02" rms="2.9661700129508972e-01" purity="3.3840718865394592e-01" nType="-99"/>
          </Node>
          <Node pos="r" depth="2" NCoef="0" IVar="8" Cut="9.2705059051513672e-01" cType="1" res="5.7522708084434271e-04" rms="2.4040776491165161e-01" purity="7.4678099155426025e-01" nType="0">
            <Node pos="l" depth="3" NCoef="0" IVar="-1" Cut="0.0000000000000000e+00" cType="1" res="-2.7120923623442650e-03" rms="2.3364281654357910e-01" purity="7.6120674610137939e-01" nType="-99"/>
            <Node pos="r" depth="3" NCoef="0" IVar="-1" Cut="0.0000000000000000e+00" cType="1" res="1.7322551459074020e-02" rms="2.7762576937675476e-01" purity="6.5917056798934937e-01" nType="-99"/>
          </Node>
        </Node>
      </Node>
    </BinaryTree>
    <BinaryTree type="DecisionTree" boostWeight="1.0000000000000000e+00" itree="510">
      <Node pos="s" depth="0" NCoef="0" IVar="8" Cut="-1.4657031297683716e+00" cType="1" res="4.3403936433605850e-04" rms="2.4276416003704071e-01" purity="5.0080943107604980e-01" nType="0">
        <Node pos="l" depth="1" NCoef="0" IVar="0" Cut="1.5987558593750000e+03" cType="1" res="1.9986674189567566e-02" rms="2.5991752743721008e-01" purity="2.2755987942218781e-01" nType="0">
          <Node pos="l" depth="2" NCoef="0" IVar="-1" Cut="0.0000000000000000e+00" cType="1" res="2.4516344070434570e-02" rms="1.4482180774211884e-01" purity="2.3728709667921066e-02" nType="-99"/>
          <Node pos="r" depth="2" NCoef="0" IVar="-1" Cut="0.0000000000000000e+00" cType="1" res="3.4466225653886795e-02" rms="3.1902429461479187e-01" purity="3.7868174910545349e-01" nType="-99"/>
        </Node>
        <Node pos="r" depth="1" NCoef="0" IVar="8" Cut="1.7837213277816772e+00" cType="1" res="-1.2945862254127860e-03" rms="2.4111269414424896e-01" purity="5.2496713399887085e-01" nType="0">
          <Node pos="l" depth="2" NCoef="0" IVar="9" Cut="-1.7304185628890991e+00" cType="1" res="-2.3404858075082302e-03" rms="2.4105219542980194e-01" purity="5.4354214668273926e-01" nType="0">
            <Node pos="l" depth="3" NCoef="0" IVar="-1" Cut="0.0000000000000000e+00" cType="1" res="-2.7884380891919136e-02" rms="2.4654750525951385e-01" purity="2.5446331501007080e-01" nType="-99"/>
            <Node pos="r" depth="3" NCoef="0" IVar="-1" Cut="0.0000000000000000e+00" cType="1" res="-2.1746093407273293e-03" rms="2.4068470299243927e-01" purity="5.6059402227401733e-01" nType="-99"/>
          </Node>
          <Node pos="r" depth="2" NCoef="0" IVar="-1" Cut="0.0000000000000000e+00" cType="1" res="3.4396562725305557e-02" rms="2.4139057099819183e-01" purity="1.6609270870685577e-01" nType="-99"/>
        </Node>
      </Node>
    </BinaryTree>
    <BinaryTree type="DecisionTree" boostWeight="1.0000000000000000e+00" itree="511">
      <Node pos="s" depth="0" NCoef="0" IVar="9" Cut="-1.3270078599452972e-01" cType="1" res="-6.2147475546225905e-04" rms="2.3931418359279633e-01" purity="4.9861779808998108e-01" nType="0">
        <Node pos="l" depth="1" NCoef="0" IVar="8" Cut="3.9887708425521851e-01" cType="1" res="4.5510525815188885e-03" rms="2.4897286295890808e-01" purity="5.0063717365264893e-01" nType="0">
          <Node pos="l" depth="2" NCoef="0" IVar="4" Cut="1.8838990783691406e+02" cType="1" res="9.9860643967986107e-03" rms="2.4421335756778717e-01" purity="5.2790540456771851e-01" nType="0">
            <Node pos="l" depth="3" NCoef="0" IVar="-1" Cut="0.0000000000000000e+00" cType="1" res="-1.5310731250792742e-03" rms="2.2336427867412567e-01" purity="1.4177556335926056e-01" nType="-99"/>
            <Node pos="r" depth="3" NCoef="0" IVar="-1" Cut="0.0000000000000000e+00" cType="1" res="2.4215541779994965e-02" rms="2.5438451766967773e-01" purity="7.3251736164093018e-01" nType="-99"/>
          </Node>
          <Node pos="r" depth="2" NCoef="0" IVar="2" Cut="5.3941931152343750e+02" cType="1" res="-6.8060145713388920e-03" rms="2.5826686620712280e-01" purity="4.4365710020065308e-01" nType="0">
            <Node pos="l" depth="3" NCoef="0" IVar="-1" Cut="0.0000000000000000e+00" cType="1" res="-2.4906834587454796e-02" rms="2.6008102297782898e-01" purity="3.2179176807403564e-01" nType="-99"/>
            <Node pos="r" depth="3" NCoef="0" IVar="-1" Cut="0.0000000000000000e+00" cType="1" res="1.3201196677982807e-02" rms="2.5475659966468811e-01" purity="6.2546360492706299e-01" nType="-99"/>
          </Node>
        </Node>
        <Node pos="r" depth="1" NCoef="0" IVar="1" Cut="6.0436621308326721e-02" cType="1" res="-4.9573485739529133e-03" rms="2.3081743717193604e-01" purity="4.9692502617835999e-01" nType="0">
          <Node pos="l" depth="2" NCoef="0" IVar="1" Cut="4.3171983212232590e-02" cType="1" res="-1.0058301500976086e-02" rms="2.2277961671352386e-01" purity="2.2242619097232819e-01" nType="0">
            <Node pos="l" depth="3" NCoef="0" IVar="-1" Cut="0.0000000000000000e+00" cType="1" res="-1.1675444431602955e-02" rms="2.0903868973255157e-01" purity="1.6936908662319183e-01" nType="-99"/>
            <Node pos="r" depth="3" NCoef="0" IVar="-1" Cut="0.0000000000000000e+00" cType="1" res="-3.3685635775327682e-02" rms="2.6412877440452576e-01" purity="4.0518608689308167e-01" nType="-99"/>
          </Node>
          <Node pos="r" depth="2" NCoef="0" IVar="7" Cut="2.4771854281425476e-01" cType="1" res="-2.9228674247860909e-04" rms="2.3783503472805023e-01" purity="7.4796718358993530e-01" nType="0">
            <Node pos="l" depth="3" NCoef="0" IVar="-1" Cut="0.0000000000000000e+00" cType="1" res="6.7309061996638775e-03" rms="2.3532870411872864e-01" purity="7.6073646545410156e-01" nType="-99"/>
            <Node pos="r" depth="3" NCoef="0" IVar="-1" Cut="0.0000000000000000e+00" cType="1" res="-1.0758399032056332e-02" rms="2.4158579111099243e-01" purity="7.2784996032714844e-01" nType="-99"/>
          </Node>
        </Node>
      </Node>
    </BinaryTree>
    <BinaryTree type="DecisionTree" boostWeight="1.0000000000000000e+00" itree="512">
      <Node pos="s" depth="0" NCoef="0" IVar="0" Cut="1.8824879150390625e+03" cType="1" res="-8.0587097909301519e-04" rms="2.4182677268981934e-01" purity="5.0110948085784912e-01" nType="0">
        <Node pos="l" depth="1" NCoef="0" IVar="0" Cut="1.6067573242187500e+03" cType="1" res="5.0724735483527184e-03" rms="2.2380347549915314e-01" purity="8.1862300634384155e-02" nType="0">
          <Node pos="l" depth="2" NCoef="0" IVar="2" Cut="2.8145901489257812e+02" cType="1" res="-1.9156107446178794e-03" rms="1.4970265328884125e-01" purity="2.6242464780807495e-02" nType="0">
            <Node pos="l" depth="3" NCoef="0" IVar="-1" Cut="0.0000000000000000e+00" cType="1" res="-3.7827730178833008e-02" rms="1.9548749923706055e-01" purity="4.3909203261137009e-02" nType="-99"/>
            <Node pos="r" depth="3" NCoef="0" IVar="-1" Cut="0.0000000000000000e+00" cType="1" res="3.5142707638442516e-03" rms="1.4195373654365540e-01" purity="2.3780286312103271e-02" nType="-99"/>
          </Node>
          <Node pos="r" depth="2" NCoef="0" IVar="8" Cut="-3.9858907461166382e-01" cType="1" res="1.4132632873952389e-02" rms="2.9296141862869263e-01" purity="1.5397424995899200e-01" nType="0">
            <Node pos="l" depth="3" NCoef="0" IVar="-1" Cut="0.0000000000000000e+00" cType="1" res="3.8245778530836105e-02" rms="2.9626607894897461e-01" purity="1.7176133394241333e-01" nType="-99"/>
            <Node pos="r" depth="3" NCoef="0" IVar="-1" Cut="0.0000000000000000e+00" cType="1" res="3.5551630426198244e-03" rms="2.9028812050819397e-01" purity="1.4262536168098450e-01" nType="-99"/>
          </Node>
        </Node>
        <Node pos="r" depth="1" NCoef="0" IVar="1" Cut="2.0627567544579506e-02" cType="1" res="-5.2039381116628647e-03" rms="2.5438922643661499e-01" purity="8.1478232145309448e-01" nType="0">
          <Node pos="l" depth="2" NCoef="0" IVar="6" Cut="-5.7248309254646301e-02" cType="1" res="1.0911902412772179e-02" rms="3.1124708056449890e-01" purity="3.3946469426155090e-01" nType="0">
            <Node pos="l" depth="3" NCoef="0" IVar="-1" Cut="0.0000000000000000e+00" cType="1" res="-6.6977599635720253e-04" rms="2.9787516593933105e-01" purity="3.0226355791091919e-01" nType="-99"/>
            <Node pos="r" depth="3" NCoef="0" IVar="-1" Cut="0.0000000000000000e+00" cType="1" res="2.2718116641044617e-02" rms="3.2324913144111633e-01" purity="3.7539789080619812e-01" nType="-99"/>
          </Node>
          <Node pos="r" depth="2" NCoef="0" IVar="5" Cut="1.2142406463623047e+02" cType="1" res="-6.7837140522897243e-03" rms="2.4805907905101776e-01" purity="8.6137592792510986e-01" nType="0">
            <Node pos="l" depth="3" NCoef="0" IVar="-1" Cut="0.0000000000000000e+00" cType="1" res="-1.8424205482006073e-02" rms="3.8012757897377014e-01" purity="5.1377242803573608e-01" nType="-99"/>
            <Node pos="r" depth="3" NCoef="0" IVar="-1" Cut="0.0000000000000000e+00" cType="1" res="-9.5196338370442390e-03" rms="2.3447979986667633e-01" purity="8.8868957757949829e-01" nType="-99"/>
          </Node>
        </Node>
      </Node>
    </BinaryTree>
    <BinaryTree type="DecisionTree" boostWeight="1.0000000000000000e+00" itree="513">
      <Node pos="s" depth="0" NCoef="0" IVar="3" Cut="5.1192538452148438e+02" cType="1" res="-1.0132561437785625e-03" rms="2.3878660798072815e-01" purity="4.9732241034507751e-01" nType="0">
        <Node pos="l" depth="1" NCoef="0" IVar="4" Cut="2.2666578674316406e+02" cType="1" res="-2.6728126686066389e-03" rms="2.4237881600856781e-01" purity="4.4838556647300720e-01" nType="0">
          <Node pos="l" depth="2" NCoef="0" IVar="2" Cut="6.5837127685546875e+02" cType="1" res="-6.1286729760468006e-03" rms="2.3916889727115631e-01" purity="1.9740046560764313e-01" nType="0">
            <Node pos="l" depth="3" NCoef="0" IVar="-1" Cut="0.0000000000000000e+00" cType="1" res="-1.3839610852301121e-02" rms="2.3164416849613190e-01" purity="1.7497913539409637e-01" nType="-99"/>
            <Node pos="r" depth="3" NCoef="0" IVar="-1" Cut="0.0000000000000000e+00" cType="1" res="1.1050520464777946e-02" rms="2.8770175576210022e-01" purity="3.6086621880531311e-01" nType="-99"/>
          </Node>
          <Node pos="r" depth="2" NCoef="0" IVar="3" Cut="3.0913989257812500e+02" cType="1" res="1.7079456010833383e-03" rms="2.4631801247596741e-01" purity="7.6654231548309326e-01" nType="0">
            <Node pos="l" depth="3" NCoef="0" IVar="-1" Cut="0.0000000000000000e+00" cType="1" res="2.1219287067651749e-02" rms="2.8928187489509583e-01" purity="5.7333517074584961e-01" nType="-99"/>
            <Node pos="r" depth="3" NCoef="0" IVar="-1" Cut="0.0000000000000000e+00" cType="1" res="-5.3063197992742062e-03" rms="2.3183652758598328e-01" purity="8.2387292385101318e-01" nType="-99"/>
          </Node>
        </Node>
        <Node pos="r" depth="1" NCoef="0" IVar="1" Cut="5.8209668844938278e-02" cType="1" res="1.2545528821647167e-02" rms="2.0661824941635132e-01" purity="8.9714235067367554e-01" nType="0">
          <Node pos="l" depth="2" NCoef="0" IVar="-1" Cut="0.0000000000000000e+00" cType="1" res="4.2471427470445633e-02" rms="2.7729913592338562e-01" purity="7.5944876670837402e-01" nType="-99"/>
          <Node pos="r" depth="2" NCoef="0" IVar="-1" Cut="0.0000000000000000e+00" cType="1" res="2.2397392895072699e-03" rms="1.6017305850982666e-01" purity="9.6396881341934204e-01" nType="-99"/>
        </Node>
      </Node>
    </BinaryTree>
    <BinaryTree type="DecisionTree" boostWeight="1.0000000000000000e+00" itree="514">
      <Node pos="s" depth="0" NCoef="0" IVar="6" Cut="-3.5449746251106262e-01" cType="1" res="2.3786129895597696e-03" rms="2.3920065164566040e-01" purity="5.0260472297668457e-01" nType="0">
        <Node pos="l" depth="1" NCoef="0" IVar="7" Cut="4.0386995673179626e-01" cType="1" res="-6.3870698213577271e-03" rms="2.3372542858123779e-01" purity="4.0888962149620056e-01" nType="0">
          <Node pos="l" depth="2" NCoef="0" IVar="1" Cut="1.2272024154663086e-01" cType="1" res="-1.9225545693188906e-03" rms="2.4107088148593903e-01" purity="4.8094365000724792e-01" nType="0">
            <Node pos="l" depth="3" NCoef="0" IVar="-1" Cut="0.0000000000000000e+00" cType="1" res="4.1267615742981434e-03" rms="2.4728684127330780e-01" purity="3.7992715835571289e-01" nType="-99"/>
            <Node pos="r" depth="3" NCoef="0" IVar="-1" Cut="0.0000000000000000e+00" cType="1" res="-4.0495220571756363e-02" rms="2.1670602262020111e-01" purity="8.4083968400955200e-01" nType="-99"/>
          </Node>
          <Node pos="r" depth="2" NCoef="0" IVar="9" Cut="1.3860619068145752e-01" cType="1" res="-1.4831085689365864e-02" rms="2.1891155838966370e-01" purity="2.7260929346084595e-01" nType="0">
            <Node pos="l" depth="3" NCoef="0" IVar="-1" Cut="0.0000000000000000e+00" cType="1" res="-6.1484832316637039e-02" rms="1.9823470711708069e-01" purity="2.5728955864906311e-01" nType="-99"/>
            <Node pos="r" depth="3" NCoef="0" IVar="-1" Cut="0.0000000000000000e+00" cType="1" res="1.1348221451044083e-02" rms="2.4021644890308380e-01" purity="2.9143920540809631e-01" nType="-99"/>
          </Node>
        </Node>
        <Node pos="r" depth="1" NCoef="0" IVar="9" Cut="-1.7329072952270508e+00" cType="1" res="6.9327200762927532e-03" rms="2.4187098443508148e-01" purity="5.5129331350326538e-01" nType="0">
          <Node pos="l" depth="2" NCoef="0" IVar="-1" Cut="0.0000000000000000e+00" cType="1" res="5.7522479444742203e-02" rms="2.8611093759536743e-01" purity="3.2702526450157166e-01" nType="-99"/>
          <Node pos="r" depth="2" NCoef="0" IVar="8" Cut="1.4660181999206543e+00" cType="1" res="5.0009097903966904e-03" rms="2.3906707763671875e-01" purity="5.6354928016662598e-01" nType="0">
            <Node pos="l" depth="3" NCoef="0" IVar="-1" Cut="0.0000000000000000e+00" cType="1" res="6.5463995561003685e-03" rms="2.3544092476367950e-01" purity="5.8120840787887573e-01" nType="-99"/>
            <Node pos="r" depth="3" NCoef="0" IVar="-1" Cut="0.0000000000000000e+00" cType="1" res="2.7592180296778679e-02" rms="2.8221821784973145e-01" purity="3.2969787716865540e-01" nType="-99"/>
          </Node>
        </Node>
      </Node>
    </BinaryTree>
    <BinaryTree type="DecisionTree" boostWeight="1.0000000000000000e+00" itree="515">
      <Node pos="s" depth="0" NCoef="0" IVar="8" Cut="6.6617751121520996e-01" cType="1" res="-3.3372707548551261e-04" rms="2.4094077944755554e-01" purity="5.0796687602996826e-01" nType="0">
        <Node pos="l" depth="1" NCoef="0" IVar="3" Cut="2.4666403198242188e+02" cType="1" res="-3.3525440376251936e-03" rms="2.3662471771240234e-01" purity="5.3263926506042480e-01" nType="0">
          <Node pos="l" depth="2" NCoef="0" IVar="8" Cut="-6.5431898832321167e-01" cType="1" res="3.6925212480127811e-03" rms="2.4078868329524994e-01" purity="1.5345127880573273e-01" nType="0">
            <Node pos="l" depth="3" NCoef="0" IVar="-1" Cut="0.0000000000000000e+00" cType="1" res="2.8266206383705139e-02" rms="2.4213409423828125e-01" purity="1.3976255059242249e-01" nType="-99"/>
            <Node pos="r" depth="3" NCoef="0" IVar="-1" Cut="0.0000000000000000e+00" cType="1" res="-7.4279443360865116e-03" rms="2.3946051299571991e-01" purity="1.6382172703742981e-01" nType="-99"/>
          </Node>
          <Node pos="r" depth="2" NCoef="0" IVar="8" Cut="-8.1887131929397583e-01" cType="1" res="-5.4351417347788811e-03" rms="2.3533931374549866e-01" purity="6.4473140239715576e-01" nType="0">
            <Node pos="l" depth="3" NCoef="0" IVar="-1" Cut="0.0000000000000000e+00" cType="1" res="-1.8969269469380379e-02" rms="2.5666248798370361e-01" purity="4.9155041575431824e-01" nType="-99"/>
            <Node pos="r" depth="3" NCoef="0" IVar="-1" Cut="0.0000000000000000e+00" cType="1" res="-4.9681295640766621e-03" rms="2.2742564976215363e-01" purity="6.9777536392211914e-01" nType="-99"/>
          </Node>
        </Node>
        <Node pos="r" depth="1" NCoef="0" IVar="0" Cut="1.6289455566406250e+03" cType="1" res="8.2995351403951645e-03" rms="2.5267869234085083e-01" purity="4.3740832805633545e-01" nType="0">
          <Node pos="l" depth="2" NCoef="0" IVar="9" Cut="6.6242545843124390e-01" cType="1" res="-5.2676252089440823e-03" rms="1.5371191501617432e-01" purity="2.7819637209177017e-02" nType="0">
            <Node pos="l" depth="3" NCoef="0" IVar="-1" Cut="0.0000000000000000e+00" cType="1" res="-3.7751786410808563e-02" rms="1.3617722690105438e-01" purity="2.2357055917382240e-02" nType="-99"/>
            <Node pos="r" depth="3" NCoef="0" IVar="-1" Cut="0.0000000000000000e+00" cType="1" res="1.9591709598898888e-02" rms="1.8292155861854553e-01" purity="3.8583822548389435e-02" nType="-99"/>
          </Node>
          <Node pos="r" depth="2" NCoef="0" IVar="4" Cut="2.1600372314453125e+02" cType="1" res="1.4483868144452572e-02" rms="2.8645685315132141e-01" purity="6.2411153316497803e-01" nType="0">
            <Node pos="l" depth="3" NCoef="0" IVar="-1" Cut="0.0000000000000000e+00" cType="1" res="3.4126866608858109e-02" rms="3.2223889231681824e-01" purity="3.9477491378784180e-01" nType="-99"/>
            <Node pos="r" depth="3" NCoef="0" IVar="-1" Cut="0.0000000000000000e+00" cType="1" res="2.7169100940227509e-03" rms="2.6118522882461548e-01" purity="7.6550132036209106e-01" nType="-99"/>
          </Node>
        </Node>
      </Node>
    </BinaryTree>
    <BinaryTree type="DecisionTree" boostWeight="1.0000000000000000e+00" itree="516">
      <Node pos="s" depth="0" NCoef="0" IVar="6" Cut="-7.8977674245834351e-01" cType="1" res="4.3344931327737868e-04" rms="2.4435873329639435e-01" purity="5.1106470823287964e-01" nType="0">
        <Node pos="l" depth="1" NCoef="0" IVar="6" Cut="-1.2166420221328735e+00" cType="1" res="-1.0037351399660110e-02" rms="2.3203335702419281e-01" purity="2.8209695219993591e-01" nType="0">
          <Node pos="l" depth="2" NCoef="0" IVar="1" Cut="2.1456211805343628e-02" cType="1" res="-1.9260375993326306e-03" rms="1.9734497368335724e-01" purity="1.4852088689804077e-01" nType="0">
            <Node pos="l" depth="3" NCoef="0" IVar="-1" Cut="0.0000000000000000e+00" cType="1" res="-8.3160124719142914e-02" rms="1.0713126510381699e-01" purity="9.7366748377680779e-03" nType="-99"/>
            <Node pos="r" depth="3" NCoef="0" IVar="-1" Cut="0.0000000000000000e+00" cType="1" res="1.5511705540120602e-02" rms="2.5699248909950256e-01" purity="2.8711915016174316e-01" nType="-99"/>
          </Node>
          <Node pos="r" depth="2" NCoef="0" IVar="9" Cut="-6.6149151325225830e-01" cType="1" res="-1.7133206129074097e-02" rms="2.5838220119476318e-01" purity="3.9895054697990417e-01" nType="0">
            <Node pos="l" depth="3" NCoef="0" IVar="-1" Cut="0.0000000000000000e+00" cType="1" res="1.5839090337976813e-03" rms="2.6386970281600952e-01" purity="3.7337955832481384e-01" nType="-99"/>
            <Node pos="r" depth="3" NCoef="0" IVar="-1" Cut="0.0000000000000000e+00" cType="1" res="-3.4405592828989029e-02" rms="2.5558876991271973e-01" purity="4.0993353724479675e-01" nType="-99"/>
          </Node>
        </Node>
        <Node pos="r" depth="1" NCoef="0" IVar="8" Cut="-1.2000806331634521e+00" cType="1" res="2.6730915997177362e-03" rms="2.4685755372047424e-01" purity="5.6003952026367188e-01" nType="0">
          <Node pos="l" depth="2" NCoef="0" IVar="0" Cut="1.5987061767578125e+03" cType="1" res="-9.3932887539267540e-03" rms="2.4296803772449493e-01" purity="3.4040358662605286e-01" nType="0">
            <Node pos="l" depth="3" NCoef="0" IVar="-1" Cut="0.0000000000000000e+00" cType="1" res="3.0946675688028336e-02" rms="1.6270291805267334e-01" purity="3.0502872541546822e-02" nType="-99"/>
            <Node pos="r" depth="3" NCoef="0" IVar="-1" Cut="0.0000000000000000e+00" cType="1" res="-1.9463868811726570e-02" rms="2.7080655097961426e-01" purity="4.7810047864913940e-01" nType="-99"/>
          </Node>
          <Node pos="r" depth="2" NCoef="0" IVar="7" Cut="1.1992379426956177e+00" cType="1" res="4.3618758209049702e-03" rms="2.4735009670257568e-01" purity="5.9077924489974976e-01" nType="0">
            <Node pos="l" depth="3" NCoef="0" IVar="-1" Cut="0.0000000000000000e+00" cType="1" res="4.8783146776258945e-03" rms="2.4462194740772247e-01" purity="6.1748802661895752e-01" nType="-99"/>
            <Node pos="r" depth="3" NCoef="0" IVar="-1" Cut="0.0000000000000000e+00" cType="1" res="2.8010914102196693e-02" rms="2.7393591403961182e-01" purity="3.1020396947860718e-01" nType="-99"/>
          </Node>
        </Node>
      </Node>
    </BinaryTree>
    <BinaryTree type="DecisionTree" boostWeight="1.0000000000000000e+00" itree="517">
      <Node pos="s" depth="0" NCoef="0" IVar="8" Cut="1.1988474130630493e+00" cType="1" res="-4.4325288035906851e-04" rms="2.4378205835819244e-01" purity="4.9611464142799377e-01" nType="0">
        <Node pos="l" depth="1" NCoef="0" IVar="7" Cut="-1.3242316246032715e-01" cType="1" res="-1.9449680112302303e-03" rms="2.4154238402843475e-01" purity="5.2062582969665527e-01" nType="0">
          <Node pos="l" depth="2" NCoef="0" IVar="2" Cut="5.0245925903320312e+02" cType="1" res="2.2105537354946136e-03" rms="2.4486993253231049e-01" purity="5.1247799396514893e-01" nType="0">
            <Node pos="l" depth="3" NCoef="0" IVar="-1" Cut="0.0000000000000000e+00" cType="1" res="1.2253345921635628e-02" rms="2.5992736220359802e-01" purity="3.6798158288002014e-01" nType="-99"/>
            <Node pos="r" depth="3" NCoef="0" IVar="-1" Cut="0.0000000000000000e+00" cType="1" res="-6.5097035840153694e-03" rms="2.2889913618564606e-01" purity="6.5508663654327393e-01" nType="-99"/>
          </Node>
          <Node pos="r" depth="2" NCoef="0" IVar="9" Cut="-9.3334585428237915e-01" cType="1" res="-5.2699572406709194e-03" rms="2.3879443109035492e-01" purity="5.2714526653289795e-01" nType="0">
            <Node pos="l" depth="3" NCoef="0" IVar="-1" Cut="0.0000000000000000e+00" cType="1" res="-2.4123826995491982e-02" rms="2.6658344268798828e-01" purity="4.3781548738479614e-01" nType="-99"/>
            <Node pos="r" depth="3" NCoef="0" IVar="-1" Cut="0.0000000000000000e+00" cType="1" res="-4.9101281911134720e-03" rms="2.3193216323852539e-01" purity="5.4746639728546143e-01" nType="-99"/>
          </Node>
        </Node>
        <Node pos="r" depth="1" NCoef="0" IVar="7" Cut="1.3397677242755890e-01" cType="1" res="1.0429776273667812e-02" rms="2.5916257500648499e-01" purity="3.1864342093467712e-01" nType="0">
          <Node pos="l" depth="2" NCoef="0" IVar="6" Cut="-2.1429425105452538e-02" cType="1" res="-6.0579064302146435e-03" rms="2.5367677211761475e-01" purity="3.0066093802452087e-01" nType="0">
            <Node pos="l" depth="3" NCoef="0" IVar="-1" Cut="0.0000000000000000e+00" cType="1" res="1.0479437187314034e-02" rms="2.7886638045310974e-01" purity="3.2479268312454224e-01" nType="-99"/>
            <Node pos="r" depth="3" NCoef="0" IVar="-1" Cut="0.0000000000000000e+00" cType="1" res="-2.9824227094650269e-02" rms="2.2659315168857574e-01" purity="2.7790325880050659e-01" nType="-99"/>
          </Node>
          <Node pos="r" depth="2" NCoef="0" IVar="9" Cut="3.9555874466896057e-01" cType="1" res="2.8456706553697586e-02" rms="2.6385420560836792e-01" purity="3.3830475807189941e-01" nType="0">
            <Node pos="l" depth="3" NCoef="0" IVar="-1" Cut="0.0000000000000000e+00" cType="1" res="6.4287848770618439e-02" rms="2.9349875450134277e-01" purity="3.7934416532516479e-01" nType="-99"/>
            <Node pos="r" depth="3" NCoef="0" IVar="-1" Cut="0.0000000000000000e+00" cType="1" res="2.2209517657756805e-02" rms="2.2495225071907043e-01" purity="2.9210868477821350e-01" nType="-99"/>
          </Node>
        </Node>
      </Node>
    </BinaryTree>
    <BinaryTree type="DecisionTree" boostWeight="1.0000000000000000e+00" itree="518">
      <Node pos="s" depth="0" NCoef="0" IVar="9" Cut="-1.7324947118759155e+00" cType="1" res="1.2745122658088803e-03" rms="2.3981431126594543e-01" purity="5.0302666425704956e-01" nType="0">
        <Node pos="l" depth="1" NCoef="0" IVar="6" Cut="-1.0601171106100082e-01" cType="1" res="1.5097838826477528e-02" rms="2.6151520013809204e-01" purity="2.6194059848785400e-01" nType="0">
          <Node pos="l" depth="2" NCoef="0" IVar="-1" Cut="0.0000000000000000e+00" cType="1" res="4.5095045119524002e-02" rms="2.6362952589988708e-01" purity="2.4173869192600250e-01" nType="-99"/>
          <Node pos="r" depth="2" NCoef="0" IVar="-1" Cut="0.0000000000000000e+00" cType="1" res="1.9841408357024193e-03" rms="2.5845783948898315e-01" purity="2.8428533673286438e-01" nType="-99"/>
        </Node>
        <Node pos="r" depth="1" NCoef="0" IVar="4" Cut="2.8970440673828125e+02" cType="1" res="3.6983555764891207e-04" rms="2.3829725384712219e-01" purity="5.1880466938018799e-01" nType="0">
          <Node pos="l" depth="2" NCoef="0" IVar="6" Cut="2.1419546008110046e-01" cType="1" res="-2.0305612124502659e-03" rms="2.5561407208442688e-01" purity="3.5584667325019836e-01" nType="0">
            <Node pos="l" depth="3" NCoef="0" IVar="-1" Cut="0.0000000000000000e+00" cType="1" res="-8.4486855193972588e-03" rms="2.6284843683242798e-01" purity="3.8613697886466980e-01" nType="-99"/>
            <Node pos="r" depth="3" NCoef="0" IVar="-1" Cut="0.0000000000000000e+00" cType="1" res="5.4647773504257202e-03" rms="2.4541494250297546e-01" purity="3.1499871611595154e-01" nType="-99"/>
          </Node>
          <Node pos="r" depth="2" NCoef="0" IVar="5" Cut="1.9377516174316406e+02" cType="1" res="6.2353401444852352e-03" rms="1.8930776417255402e-01" purity="9.1700172424316406e-01" nType="0">
            <Node pos="l" depth="3" NCoef="0" IVar="-1" Cut="0.0000000000000000e+00" cType="1" res="2.4868404492735863e-02" rms="2.8508761525154114e-01" purity="7.7572089433670044e-01" nType="-99"/>
            <Node pos="r" depth="3" NCoef="0" IVar="-1" Cut="0.0000000000000000e+00" cType="1" res="8.2026487216353416e-03" rms="1.5113338828086853e-01" purity="9.5718216896057129e-01" nType="-99"/>
          </Node>
        </Node>
      </Node>
    </BinaryTree>
    <BinaryTree type="DecisionTree" boostWeight="1.0000000000000000e+00" itree="519">
      <Node pos="s" depth="0" NCoef="0" IVar="9" Cut="9.3333822488784790e-01" cType="1" res="-8.7760033784434199e-04" rms="2.4124161899089813e-01" purity="5.0076276063919067e-01" nType="0">
        <Node pos="l" depth="1" NCoef="0" IVar="8" Cut="-1.2002464532852173e+00" cType="1" res="2.1853502839803696e-03" rms="2.3671917617321014e-01" purity="5.2862322330474854e-01" nType="0">
          <Node pos="l" depth="2" NCoef="0" IVar="8" Cut="-1.4288179874420166e+00" cType="1" res="-9.4205699861049652e-03" rms="2.3945485055446625e-01" purity="2.9946684837341309e-01" nType="0">
            <Node pos="l" depth="3" NCoef="0" IVar="-1" Cut="0.0000000000000000e+00" cType="1" res="-1.6985785914584994e-03" rms="2.2675812244415283e-01" purity="2.3431476950645447e-01" nType="-99"/>
            <Node pos="r" depth="3" NCoef="0" IVar="-1" Cut="0.0000000000000000e+00" cType="1" res="-3.7549447268247604e-02" rms="2.6414981484413147e-01" purity="4.4182717800140381e-01" nType="-99"/>
          </Node>
          <Node pos="r" depth="2" NCoef="0" IVar="1" Cut="1.2424107640981674e-01" cType="1" res="3.8029039278626442e-03" rms="2.3629012703895569e-01" purity="5.6056147813796997e-01" nType="0">
            <Node pos="l" depth="3" NCoef="0" IVar="-1" Cut="0.0000000000000000e+00" cType="1" res="1.0733262635767460e-02" rms="2.4745562672615051e-01" purity="4.4773814082145691e-01" nType="-99"/>
            <Node pos="r" depth="3" NCoef="0" IVar="-1" Cut="0.0000000000000000e+00" cType="1" res="-8.4452228620648384e-03" rms="2.0379967987537384e-01" purity="8.5766321420669556e-01" nType="-99"/>
          </Node>
        </Node>
        <Node pos="r" depth="1" NCoef="0" IVar="9" Cut="2.0885295867919922e+00" cType="1" res="-1.2860682792961597e-02" rms="2.5782507658004761e-01" purity="3.9176508784294128e-01" nType="0">
          <Node pos="l" depth="2" NCoef="0" IVar="0" Cut="1.5945302734375000e+03" cType="1" res="-1.6897993162274361e-02" rms="2.5628778338432312e-01" purity="4.3032279610633850e-01" nType="0">
            <Node pos="l" depth="3" NCoef="0" IVar="-1" Cut="0.0000000000000000e+00" cType="1" res="-3.2792631536722183e-03" rms="1.8687649071216583e-01" purity="4.0044460445642471e-02" nType="-99"/>
            <Node pos="r" depth="3" NCoef="0" IVar="-1" Cut="0.0000000000000000e+00" cType="1" res="-2.6875384151935577e-02" rms="2.7571490406990051e-01" purity="5.6287771463394165e-01" nType="-99"/>
          </Node>
          <Node pos="r" depth="2" NCoef="0" IVar="-1" Cut="0.0000000000000000e+00" cType="1" res="1.4337752014398575e-02" rms="2.6499503850936890e-01" purity="1.8070396780967712e-01" nType="-99"/>
        </Node>
      </Node>
    </BinaryTree>
    <BinaryTree type="DecisionTree" boostWeight="1.0000000000000000e+00" itree="520">
      <Node pos="s" depth="0" NCoef="0" IVar="6" Cut="-3.5372510552406311e-01" cType="1" res="-4.5446422882378101e-03" rms="2.4480718374252319e-01" purity="4.9519670009613037e-01" nType="0">
        <Node pos="l" depth="1" NCoef="0" IVar="9" Cut="1.3375973701477051e-01" cType="1" res="1.6655502840876579e-03" rms="2.5006020069122314e-01" purity="4.2569896578788757e-01" nType="0">
          <Node pos="l" depth="2" NCoef="0" IVar="4" Cut="2.9615222167968750e+02" cType="1" res="7.6685003004968166e-03" rms="2.5026977062225342e-01" purity="4.4708532094955444e-01" nType="0">
            <Node pos="l" depth="3" NCoef="0" IVar="-1" Cut="0.0000000000000000e+00" cType="1" res="1.7303064465522766e-02" rms="2.5507891178131104e-01" purity="3.1760132312774658e-01" nType="-99"/>
            <Node pos="r" depth="3" NCoef="0" IVar="-1" Cut="0.0000000000000000e+00" cType="1" res="-7.2947950102388859e-03" rms="2.3302792012691498e-01" purity="8.8234406709671021e-01" nType="-99"/>
          </Node>
          <Node pos="r" depth="2" NCoef="0" IVar="0" Cut="1.9326014404296875e+03" cType="1" res="-6.1302441172301769e-03" rms="2.4957238137722015e-01" purity="3.9792537689208984e-01" nType="0">
            <Node pos="l" depth="3" NCoef="0" IVar="-1" Cut="0.0000000000000000e+00" cType="1" res="1.2795594520866871e-02" rms="2.1990801393985748e-01" purity="8.5537873208522797e-02" nType="-99"/>
            <Node pos="r" depth="3" NCoef="0" IVar="-1" Cut="0.0000000000000000e+00" cType="1" res="-2.6255240663886070e-02" rms="2.7762117981910706e-01" purity="7.3745423555374146e-01" nType="-99"/>
          </Node>
        </Node>
        <Node pos="r" depth="1" NCoef="0" IVar="1" Cut="1.9117352366447449e-01" cType="1" res="-7.5146523304283619e-03" rms="2.4219839274883270e-01" purity="5.2843385934829712e-01" nType="0">
          <Node pos="l" depth="2" NCoef="0" IVar="4" Cut="2.3418882751464844e+02" cType="1" res="-9.0265506878495216e-03" rms="2.4610610306262970e-01" purity="4.8581257462501526e-01" nType="0">
            <Node pos="l" depth="3" NCoef="0" IVar="-1" Cut="0.0000000000000000e+00" cType="1" res="-2.0195739343762398e-02" rms="2.5279587507247925e-01" purity="2.2778011858463287e-01" nType="-99"/>
            <Node pos="r" depth="3" NCoef="0" IVar="-1" Cut="0.0000000000000000e+00" cType="1" res="-5.4957205429673195e-03" rms="2.3737838864326477e-01" purity="8.0722409486770630e-01" nType="-99"/>
          </Node>
          <Node pos="r" depth="2" NCoef="0" IVar="-1" Cut="0.0000000000000000e+00" cType="1" res="1.3051187619566917e-02" rms="2.0537178218364716e-01" purity="8.9243406057357788e-01" nType="-99"/>
        </Node>
      </Node>
    </BinaryTree>
    <BinaryTree type="DecisionTree" boostWeight="1.0000000000000000e+00" itree="521">
      <Node pos="s" depth="0" NCoef="0" IVar="5" Cut="1.6427148437500000e+02" cType="1" res="-2.2980610374361277e-03" rms="2.3971851170063019e-01" purity="4.9550294876098633e-01" nType="0">
        <Node pos="l" depth="1" NCoef="0" IVar="1" Cut="9.4727873802185059e-02" cType="1" res="-5.2724871784448624e-03" rms="2.4617984890937805e-01" purity="2.0621477067470551e-01" nType="0">
          <Node pos="l" depth="2" NCoef="0" IVar="5" Cut="1.4813900756835938e+02" cType="1" res="-2.6736163999885321e-03" rms="2.2753781080245972e-01" purity="1.4045277237892151e-01" nType="0">
            <Node pos="l" depth="3" NCoef="0" IVar="-1" Cut="0.0000000000000000e+00" cType="1" res="-9.7102848812937737e-03" rms="2.1559216082096100e-01" purity="1.1228477209806442e-01" nType="-99"/>
            <Node pos="r" depth="3" NCoef="0" IVar="-1" Cut="0.0000000000000000e+00" cType="1" res="1.4557485468685627e-02" rms="2.9632401466369629e-01" purity="3.3350002765655518e-01" nType="-99"/>
          </Node>
          <Node pos="r" depth="2" NCoef="0" IVar="2" Cut="5.0519937133789062e+02" cType="1" res="-1.6049085184931755e-02" rms="3.1157606840133667e-01" purity="4.7890651226043701e-01" nType="0">
            <Node pos="l" depth="3" NCoef="0" IVar="-1" Cut="0.0000000000000000e+00" cType="1" res="-4.8738806508481503e-03" rms="3.2309147715568542e-01" purity="3.5856962203979492e-01" nType="-99"/>
            <Node pos="r" depth="3" NCoef="0" IVar="-1" Cut="0.0000000000000000e+00" cType="1" res="-4.3989371508359909e-02" rms="2.8723961114883423e-01" purity="7.0805841684341431e-01" nType="-99"/>
          </Node>
        </Node>
        <Node pos="r" depth="1" NCoef="0" IVar="1" Cut="2.1466076374053955e-02" cType="1" res="9.1051869094371796e-04" rms="2.3250468075275421e-01" purity="8.0756455659866333e-01" nType="0">
          <Node pos="l" depth="2" NCoef="0" IVar="-1" Cut="0.0000000000000000e+00" cType="1" res="-3.6374818533658981e-02" rms="2.4526722729206085e-01" purity="3.7325617671012878e-01" nType="-99"/>
          <Node pos="r" depth="2" NCoef="0" IVar="0" Cut="2.3058608398437500e+03" cType="1" res="2.8953484725207090e-03" rms="2.3146821558475494e-01" purity="8.3745968341827393e-01" nType="0">
            <Node pos="l" depth="3" NCoef="0" IVar="-1" Cut="0.0000000000000000e+00" cType="1" res="1.1572492308914661e-02" rms="3.4242433309555054e-01" purity="5.5125689506530762e-01" nType="-99"/>
            <Node pos="r" depth="3" NCoef="0" IVar="-1" Cut="0.0000000000000000e+00" cType="1" res="-8.0725485458970070e-03" rms="1.5789093077182770e-01" purity="9.6586471796035767e-01" nType="-99"/>
          </Node>
        </Node>
      </Node>
    </BinaryTree>
    <BinaryTree type="DecisionTree" boostWeight="1.0000000000000000e+00" itree="522">
      <Node pos="s" depth="0" NCoef="0" IVar="9" Cut="1.3478827476501465e-01" cType="1" res="-2.6182872243225574e-03" rms="2.3811575770378113e-01" purity="4.9003505706787109e-01" nType="0">
        <Node pos="l" depth="1" NCoef="0" IVar="2" Cut="3.1478073120117188e+02" cType="1" res="-7.7007557265460491e-03" rms="2.3651206493377686e-01" purity="4.9167299270629883e-01" nType="0">
          <Node pos="l" depth="2" NCoef="0" IVar="-1" Cut="0.0000000000000000e+00" cType="1" res="1.2891659513115883e-02" rms="2.6643097400665283e-01" purity="1.9290439784526825e-01" nType="-99"/>
          <Node pos="r" depth="2" NCoef="0" IVar="8" Cut="1.1985369920730591e+00" cType="1" res="-9.2126559466123581e-03" rms="2.3350614309310913e-01" purity="5.1918667554855347e-01" nType="0">
            <Node pos="l" depth="3" NCoef="0" IVar="-1" Cut="0.0000000000000000e+00" cType="1" res="-1.2039491906762123e-02" rms="2.3284776508808136e-01" purity="5.4482811689376831e-01" nType="-99"/>
            <Node pos="r" depth="3" NCoef="0" IVar="-1" Cut="0.0000000000000000e+00" cType="1" res="-4.5134667307138443e-02" rms="2.3813384771347046e-01" purity="3.0126368999481201e-01" nType="-99"/>
          </Node>
        </Node>
        <Node pos="r" depth="1" NCoef="0" IVar="7" Cut="4.0190872550010681e-01" cType="1" res="3.6268061958253384e-03" rms="2.3992425203323364e-01" purity="4.8802238702774048e-01" nType="0">
          <Node pos="l" depth="2" NCoef="0" IVar="8" Cut="-1.3349670171737671e-01" cType="1" res="-1.7062934348359704e-03" rms="2.3853148519992828e-01" purity="5.3290814161300659e-01" nType="0">
            <Node pos="l" depth="3" NCoef="0" IVar="-1" Cut="0.0000000000000000e+00" cType="1" res="1.5553739853203297e-02" rms="2.4086618423461914e-01" purity="5.5378997325897217e-01" nType="-99"/>
            <Node pos="r" depth="3" NCoef="0" IVar="-1" Cut="0.0000000000000000e+00" cType="1" res="-1.6260510310530663e-02" rms="2.3649664223194122e-01" purity="5.1772189140319824e-01" nType="-99"/>
          </Node>
          <Node pos="r" depth="2" NCoef="0" IVar="9" Cut="3.8874483108520508e-01" cType="1" res="1.2991395778954029e-02" rms="2.4206638336181641e-01" purity="4.0920576453208923e-01" nType="0">
            <Node pos="l" depth="3" NCoef="0" IVar="-1" Cut="0.0000000000000000e+00" cType="1" res="4.9188069999217987e-02" rms="2.2816209495067596e-01" purity="4.8576426506042480e-01" nType="-99"/>
            <Node pos="r" depth="3" NCoef="0" IVar="-1" Cut="0.0000000000000000e+00" cType="1" res="1.5548697672784328e-02" rms="2.4508763849735260e-01" purity="3.9115342497825623e-01" nType="-99"/>
          </Node>
        </Node>
      </Node>
    </BinaryTree>
    <BinaryTree type="DecisionTree" boostWeight="1.0000000000000000e+00" itree="523">
      <Node pos="s" depth="0" NCoef="0" IVar="7" Cut="1.4667235612869263e+00" cType="1" res="-5.2138606406515464e-05" rms="2.4198402464389801e-01" purity="5.0315755605697632e-01" nType="0">
        <Node pos="l" depth="1" NCoef="0" IVar="4" Cut="2.1956358337402344e+02" cType="1" res="-1.1676999274641275e-03" rms="2.4323029816150665e-01" purity="5.2815121412277222e-01" nType="0">
          <Node pos="l" depth="2" NCoef="0" IVar="9" Cut="-1.1972281932830811e+00" cType="1" res="3.2078127842396498e-03" rms="2.5727581977844238e-01" purity="2.2675944864749908e-01" nType="0">
            <Node pos="l" depth="3" NCoef="0" IVar="-1" Cut="0.0000000000000000e+00" cType="1" res="2.8203736990690231e-02" rms="2.7306473255157471e-01" purity="2.3275317251682281e-01" nType="-99"/>
            <Node pos="r" depth="3" NCoef="0" IVar="-1" Cut="0.0000000000000000e+00" cType="1" res="-5.8772478951141238e-04" rms="2.5346142053604126e-01" purity="2.2541548311710358e-01" nType="-99"/>
          </Node>
          <Node pos="r" depth="2" NCoef="0" IVar="0" Cut="2.1419890136718750e+03" cType="1" res="-4.9763633869588375e-03" rms="2.3024046421051025e-01" purity="7.9049742221832275e-01" nType="0">
            <Node pos="l" depth="3" NCoef="0" IVar="-1" Cut="0.0000000000000000e+00" cType="1" res="-1.8102599307894707e-02" rms="3.2044175267219543e-01" purity="3.1648147106170654e-01" nType="-99"/>
            <Node pos="r" depth="3" NCoef="0" IVar="-1" Cut="0.0000000000000000e+00" cType="1" res="-5.8844196610152721e-04" rms="1.9452984631061554e-01" purity="9.3432748317718506e-01" nType="-99"/>
          </Node>
        </Node>
        <Node pos="r" depth="1" NCoef="0" IVar="2" Cut="4.4757351684570312e+02" cType="1" res="1.5993807464838028e-02" rms="2.2267204523086548e-01" purity="1.4365580677986145e-01" nType="0">
          <Node pos="l" depth="2" NCoef="0" IVar="-1" Cut="0.0000000000000000e+00" cType="1" res="6.7242555320262909e-02" rms="2.4993637204170227e-01" purity="1.3722819089889526e-01" nType="-99"/>
          <Node pos="r" depth="2" NCoef="0" IVar="-1" Cut="0.0000000000000000e+00" cType="1" res="8.6523611098527908e-03" rms="1.9172579050064087e-01" purity="1.4989006519317627e-01" nType="-99"/>
        </Node>
      </Node>
    </BinaryTree>
    <BinaryTree type="DecisionTree" boostWeight="1.0000000000000000e+00" itree="524">
      <Node pos="s" depth="0" NCoef="0" IVar="2" Cut="4.4381143188476562e+02" cType="1" res="3.2125385478138924e-03" rms="2.4033492803573608e-01" purity="4.9924129247665405e-01" nType="0">
        <Node pos="l" depth="1" NCoef="0" IVar="0" Cut="1.7110753173828125e+03" cType="1" res="-2.6396038010716438e-03" rms="2.5785309076309204e-01" purity="3.0462273955345154e-01" nType="0">
          <Node pos="l" depth="2" NCoef="0" IVar="6" Cut="7.3695653676986694e-01" cType="1" res="3.3559224102646112e-03" rms="2.0530721545219421e-01" purity="5.6471724063158035e-02" nType="0">
            <Node pos="l" depth="3" NCoef="0" IVar="-1" Cut="0.0000000000000000e+00" cType="1" res="1.6649128869175911e-02" rms="2.2665208578109741e-01" purity="7.0054374635219574e-02" nType="-99"/>
            <Node pos="r" depth="3" NCoef="0" IVar="-1" Cut="0.0000000000000000e+00" cType="1" res="-3.2369900494813919e-02" rms="1.3868047297000885e-01" purity="2.3011608049273491e-02" nType="-99"/>
          </Node>
          <Node pos="r" depth="2" NCoef="0" IVar="5" Cut="1.7264648437500000e+02" cType="1" res="-1.1668326333165169e-02" rms="3.2093945145606995e-01" purity="6.7831581830978394e-01" nType="0">
            <Node pos="l" depth="3" NCoef="0" IVar="-1" Cut="0.0000000000000000e+00" cType="1" res="-2.6377363130450249e-02" rms="3.5762029886245728e-01" purity="4.8153525590896606e-01" nType="-99"/>
            <Node pos="r" depth="3" NCoef="0" IVar="-1" Cut="0.0000000000000000e+00" cType="1" res="3.3327045384794474e-03" rms="2.9534617066383362e-01" purity="7.9865658283233643e-01" nType="-99"/>
          </Node>
        </Node>
        <Node pos="r" depth="1" NCoef="0" IVar="1" Cut="8.4554105997085571e-02" cType="1" res="6.4422609284520149e-03" rms="2.3003271222114563e-01" purity="6.0664880275726318e-01" nType="0">
          <Node pos="l" depth="2" NCoef="0" IVar="3" Cut="1.9876237487792969e+02" cType="1" res="1.0800745338201523e-02" rms="2.5027993321418762e-01" purity="4.1313239932060242e-01" nType="0">
            <Node pos="l" depth="3" NCoef="0" IVar="-1" Cut="0.0000000000000000e+00" cType="1" res="-3.4732352942228317e-02" rms="1.6304284334182739e-01" purity="4.6632882207632065e-02" nType="-99"/>
            <Node pos="r" depth="3" NCoef="0" IVar="-1" Cut="0.0000000000000000e+00" cType="1" res="2.0387183874845505e-02" rms="2.6177281141281128e-01" purity="4.7391438484191895e-01" nType="-99"/>
          </Node>
          <Node pos="r" depth="2" NCoef="0" IVar="2" Cut="5.1964843750000000e+02" cType="1" res="2.3668947687838227e-04" rms="1.9749206304550171e-01" purity="8.8217580318450928e-01" nType="0">
            <Node pos="l" depth="3" NCoef="0" IVar="-1" Cut="0.0000000000000000e+00" cType="1" res="1.7142985016107559e-02" rms="2.3642344772815704e-01" purity="8.0816352367401123e-01" nType="-99"/>
            <Node pos="r" depth="3" NCoef="0" IVar="-1" Cut="0.0000000000000000e+00" cType="1" res="-1.0004745796322823e-02" rms="1.8061381578445435e-01" purity="9.0990835428237915e-01" nType="-99"/>
          </Node>
        </Node>
      </Node>
    </BinaryTree>
    <BinaryTree type="DecisionTree" boostWeight="1.0000000000000000e+00" itree="525">
      <Node pos="s" depth="0" NCoef="0" IVar="7" Cut="6.6753089427947998e-01" cType="1" res="5.6292553199455142e-04" rms="2.3986415565013885e-01" purity="4.9405559897422791e-01" nType="0">
        <Node pos="l" depth="1" NCoef="0" IVar="7" Cut="-1.3126292228698730e+00" cType="1" res="4.0447833016514778e-03" rms="2.4314217269420624e-01" purity="5.4450041055679321e-01" nType="0">
          <Node pos="l" depth="2" NCoef="0" IVar="7" Cut="-1.6664071083068848e+00" cType="1" res="-8.4778973832726479e-03" rms="2.0976080000400543e-01" purity="1.7342896759510040e-01" nType="0">
            <Node pos="l" depth="3" NCoef="0" IVar="-1" Cut="0.0000000000000000e+00" cType="1" res="6.9811707362532616e-03" rms="1.9509759545326233e-01" purity="9.5229275524616241e-02" nType="-99"/>
            <Node pos="r" depth="3" NCoef="0" IVar="-1" Cut="0.0000000000000000e+00" cType="1" res="-3.3414609730243683e-02" rms="2.2530817985534668e-01" purity="2.6659876108169556e-01" nType="-99"/>
          </Node>
          <Node pos="r" depth="2" NCoef="0" IVar="8" Cut="4.0078738331794739e-01" cType="1" res="5.8285742998123169e-03" rms="2.4747960269451141e-01" purity="5.9735763072967529e-01" nType="0">
            <Node pos="l" depth="3" NCoef="0" IVar="-1" Cut="0.0000000000000000e+00" cType="1" res="4.1286023333668709e-03" rms="2.4239084124565125e-01" purity="6.1129969358444214e-01" nType="-99"/>
            <Node pos="r" depth="3" NCoef="0" IVar="-1" Cut="0.0000000000000000e+00" cType="1" res="1.9728951156139374e-02" rms="2.5783517956733704e-01" purity="5.6765198707580566e-01" nType="-99"/>
          </Node>
        </Node>
        <Node pos="r" depth="1" NCoef="0" IVar="1" Cut="9.8796375095844269e-02" cType="1" res="-9.9636297672986984e-03" rms="2.2934824228286743e-01" purity="3.4154781699180603e-01" nType="0">
          <Node pos="l" depth="2" NCoef="0" IVar="8" Cut="9.3149322271347046e-01" cType="1" res="-5.9151062741875648e-03" rms="2.2672745585441589e-01" purity="2.3605073988437653e-01" nType="0">
            <Node pos="l" depth="3" NCoef="0" IVar="-1" Cut="0.0000000000000000e+00" cType="1" res="-1.0841611074283719e-03" rms="2.3216250538825989e-01" purity="2.5637099146842957e-01" nType="-99"/>
            <Node pos="r" depth="3" NCoef="0" IVar="-1" Cut="0.0000000000000000e+00" cType="1" res="-4.3184943497180939e-02" rms="2.0630435645580292e-01" purity="1.6737535595893860e-01" nType="-99"/>
          </Node>
          <Node pos="r" depth="2" NCoef="0" IVar="-1" Cut="0.0000000000000000e+00" cType="1" res="-3.4324035048484802e-02" rms="2.3715519905090332e-01" purity="6.8281149864196777e-01" nType="-99"/>
        </Node>
      </Node>
    </BinaryTree>
    <BinaryTree type="DecisionTree" boostWeight="1.0000000000000000e+00" itree="526">
      <Node pos="s" depth="0" NCoef="0" IVar="8" Cut="-9.3346101045608521e-01" cType="1" res="4.1450140997767448e-04" rms="2.4079525470733643e-01" purity="4.9427333474159241e-01" nType="0">
        <Node pos="l" depth="1" NCoef="0" IVar="7" Cut="-6.5510779619216919e-01" cType="1" res="1.0784640908241272e-02" rms="2.5837299227714539e-01" purity="3.7673026323318481e-01" nType="0">
          <Node pos="l" depth="2" NCoef="0" IVar="7" Cut="-1.1614419221878052e+00" cType="1" res="2.6160551235079765e-02" rms="2.5319066643714905e-01" purity="2.7478918433189392e-01" nType="0">
            <Node pos="l" depth="3" NCoef="0" IVar="-1" Cut="0.0000000000000000e+00" cType="1" res="4.3897375464439392e-02" rms="2.1396929025650024e-01" purity="1.5526719391345978e-01" nType="-99"/>
            <Node pos="r" depth="3" NCoef="0" IVar="-1" Cut="0.0000000000000000e+00" cType="1" res="4.4466685503721237e-02" rms="2.9020494222640991e-01" purity="4.0669146180152893e-01" nType="-99"/>
          </Node>
          <Node pos="r" depth="2" NCoef="0" IVar="6" Cut="4.5533183217048645e-01" cType="1" res="4.0955967269837856e-03" rms="2.6031196117401123e-01" purity="4.2107814550399780e-01" nType="0">
            <Node pos="l" depth="3" NCoef="0" IVar="-1" Cut="0.0000000000000000e+00" cType="1" res="1.4305945485830307e-02" rms="2.6651152968406677e-01" purity="4.7323733568191528e-01" nType="-99"/>
            <Node pos="r" depth="3" NCoef="0" IVar="-1" Cut="0.0000000000000000e+00" cType="1" res="-2.2609217092394829e-02" rms="2.4178244173526764e-01" purity="2.7954900264739990e-01" nType="-99"/>
          </Node>
        </Node>
        <Node pos="r" depth="1" NCoef="0" IVar="9" Cut="-3.9944770932197571e-01" cType="1" res="-1.8127696821466088e-03" rms="2.3679061233997345e-01" purity="5.1951885223388672e-01" nType="0">
          <Node pos="l" depth="2" NCoef="0" IVar="1" Cut="1.4478796720504761e-01" cType="1" res="-8.8386926800012589e-03" rms="2.4326080083847046e-01" purity="4.9338841438293457e-01" nType="0">
            <Node pos="l" depth="3" NCoef="0" IVar="-1" Cut="0.0000000000000000e+00" cType="1" res="-1.8308417871594429e-02" rms="2.5042653083801270e-01" purity="4.0200233459472656e-01" nType="-99"/>
            <Node pos="r" depth="3" NCoef="0" IVar="-1" Cut="0.0000000000000000e+00" cType="1" res="9.0002762153744698e-03" rms="2.1126808226108551e-01" purity="8.6332529783248901e-01" nType="-99"/>
          </Node>
          <Node pos="r" depth="2" NCoef="0" IVar="9" Cut="-2.4704787135124207e-01" cType="1" res="2.1029324270784855e-03" rms="2.3301477730274200e-01" purity="5.3408199548721313e-01" nType="0">
            <Node pos="l" depth="3" NCoef="0" IVar="-1" Cut="0.0000000000000000e+00" cType="1" res="-2.4806020781397820e-02" rms="2.1960192918777466e-01" purity="5.4537898302078247e-01" nType="-99"/>
            <Node pos="r" depth="3" NCoef="0" IVar="-1" Cut="0.0000000000000000e+00" cType="1" res="5.9443670324981213e-03" rms="2.3406665027141571e-01" purity="5.3312593698501587e-01" nType="-99"/>
          </Node>
        </Node>
      </Node>
    </BinaryTree>
    <BinaryTree type="DecisionTree" boostWeight="1.0000000000000000e+00" itree="527">
      <Node pos="s" depth="0" NCoef="0" IVar="1" Cut="8.5033215582370758e-02" cType="1" res="-2.4992472026497126e-03" rms="2.4090079963207245e-01" purity="4.9338889122009277e-01" nType="0">
        <Node pos="l" depth="1" NCoef="0" IVar="9" Cut="-9.3282699584960938e-01" cType="1" res="2.1328185684978962e-03" rms="2.4388356506824493e-01" purity="3.1627473235130310e-01" nType="0">
          <Node pos="l" depth="2" NCoef="0" IVar="0" Cut="1.8318493652343750e+03" cType="1" res="1.6741095110774040e-02" rms="2.5602701306343079e-01" purity="2.6058885455131531e-01" nType="0">
            <Node pos="l" depth="3" NCoef="0" IVar="-1" Cut="0.0000000000000000e+00" cType="1" res="2.5016816332936287e-02" rms="1.8308642506599426e-01" purity="4.4242318719625473e-02" nType="-99"/>
            <Node pos="r" depth="3" NCoef="0" IVar="-1" Cut="0.0000000000000000e+00" cType="1" res="2.6830324903130531e-02" rms="3.3870044350624084e-01" purity="5.9497696161270142e-01" nType="-99"/>
          </Node>
          <Node pos="r" depth="2" NCoef="0" IVar="8" Cut="-1.1991539001464844e+00" cType="1" res="-2.1009927149862051e-03" rms="2.4008335173130035e-01" purity="3.3241376280784607e-01" nType="0">
            <Node pos="l" depth="3" NCoef="0" IVar="-1" Cut="0.0000000000000000e+00" cType="1" res="2.3181432858109474e-02" rms="2.4527546763420105e-01" purity="2.2334051132202148e-01" nType="-99"/>
            <Node pos="r" depth="3" NCoef="0" IVar="-1" Cut="0.0000000000000000e+00" cType="1" res="-7.8626396134495735e-03" rms="2.3908168077468872e-01" purity="3.5103785991668701e-01" nType="-99"/>
          </Node>
        </Node>
        <Node pos="r" depth="1" NCoef="0" IVar="0" Cut="2.1941367187500000e+03" cType="1" res="-9.3997539952397346e-03" rms="2.3621912300586700e-01" purity="7.5724029541015625e-01" nType="0">
          <Node pos="l" depth="2" NCoef="0" IVar="7" Cut="-2.5874632596969604e-01" cType="1" res="-2.0690923556685448e-02" rms="3.3458602428436279e-01" purity="3.7620911002159119e-01" nType="0">
            <Node pos="l" depth="3" NCoef="0" IVar="-1" Cut="0.0000000000000000e+00" cType="1" res="-3.8174886256456375e-02" rms="3.1422179937362671e-01" purity="3.3175402879714966e-01" nType="-99"/>
            <Node pos="r" depth="3" NCoef="0" IVar="-1" Cut="0.0000000000000000e+00" cType="1" res="-4.1298489086329937e-03" rms="3.4634259343147278e-01" purity="4.0520748496055603e-01" nType="-99"/>
          </Node>
          <Node pos="r" depth="2" NCoef="0" IVar="4" Cut="3.7357769775390625e+02" cType="1" res="-3.0519752763211727e-03" rms="1.5531095862388611e-01" purity="9.7145211696624756e-01" nType="0">
            <Node pos="l" depth="3" NCoef="0" IVar="-1" Cut="0.0000000000000000e+00" cType="1" res="4.1813895222730935e-04" rms="1.5406773984432220e-01" purity="9.7159981727600098e-01" nType="-99"/>
            <Node pos="r" depth="3" NCoef="0" IVar="-1" Cut="0.0000000000000000e+00" cType="1" res="-7.6495997607707977e-02" rms="1.5839754045009613e-01" purity="9.7103989124298096e-01" nType="-99"/>
          </Node>
        </Node>
      </Node>
    </BinaryTree>
    <BinaryTree type="DecisionTree" boostWeight="1.0000000000000000e+00" itree="528">
      <Node pos="s" depth="0" NCoef="0" IVar="1" Cut="1.9106325507164001e-01" cType="1" res="-6.5419753082096577e-04" rms="2.4196818470954895e-01" purity="4.9512714147567749e-01" nType="0">
        <Node pos="l" depth="1" NCoef="0" IVar="3" Cut="2.7656365966796875e+02" cType="1" res="4.2681643390096724e-04" rms="2.4639688432216644e-01" purity="4.5774346590042114e-01" nType="0">
          <Node pos="l" depth="2" NCoef="0" IVar="0" Cut="1.9226496582031250e+03" cType="1" res="4.6162600629031658e-03" rms="2.4504582583904266e-01" purity="1.7599736154079437e-01" nType="0">
            <Node pos="l" depth="3" NCoef="0" IVar="-1" Cut="0.0000000000000000e+00" cType="1" res="1.8062740564346313e-03" rms="2.2087696194648743e-01" purity="7.6835066080093384e-02" nType="-99"/>
            <Node pos="r" depth="3" NCoef="0" IVar="-1" Cut="0.0000000000000000e+00" cType="1" res="2.0451994612812996e-02" rms="3.3451226353645325e-01" purity="6.3577085733413696e-01" nType="-99"/>
          </Node>
          <Node pos="r" depth="2" NCoef="0" IVar="3" Cut="3.3631671142578125e+02" cType="1" res="-2.0743806380778551e-03" rms="2.4716614186763763e-01" purity="6.2595260143280029e-01" nType="0">
            <Node pos="l" depth="3" NCoef="0" IVar="-1" Cut="0.0000000000000000e+00" cType="1" res="-1.4204597100615501e-02" rms="2.5420972704887390e-01" purity="3.9613571763038635e-01" nType="-99"/>
            <Node pos="r" depth="3" NCoef="0" IVar="-1" Cut="0.0000000000000000e+00" cType="1" res="2.5623941328376532e-03" rms="2.4382378160953522e-01" purity="7.2994524240493774e-01" nType="-99"/>
          </Node>
        </Node>
        <Node pos="r" depth="1" NCoef="0" IVar="-1" Cut="0.0000000000000000e+00" cType="1" res="-2.6903394609689713e-02" rms="1.9362562894821167e-01" purity="8.5701423883438110e-01" nType="-99"/>
      </Node>
    </BinaryTree>
    <BinaryTree type="DecisionTree" boostWeight="1.0000000000000000e+00" itree="529">
      <Node pos="s" depth="0" NCoef="0" IVar="8" Cut="-6.6657793521881104e-01" cType="1" res="1.0621304390951991e-03" rms="2.3840367794036865e-01" purity="4.9651569128036499e-01" nType="0">
        <Node pos="l" depth="1" NCoef="0" IVar="3" Cut="2.0359207153320312e+02" cType="1" res="-3.8306820206344128e-03" rms="2.4193836748600006e-01" purity="3.9911490678787231e-01" nType="0">
          <Node pos="l" depth="2" NCoef="0" IVar="-1" Cut="0.0000000000000000e+00" cType="1" res="4.2128745466470718e-02" rms="2.2403195500373840e-01" purity="8.7553620338439941e-02" nType="-99"/>
          <Node pos="r" depth="2" NCoef="0" IVar="0" Cut="2.0563151855468750e+03" cType="1" res="-7.4783954769372940e-03" rms="2.4477747082710266e-01" purity="4.5402866601943970e-01" nType="0">
            <Node pos="l" depth="3" NCoef="0" IVar="-1" Cut="0.0000000000000000e+00" cType="1" res="-2.5541804730892181e-02" rms="2.3466622829437256e-01" purity="1.1390037834644318e-01" nType="-99"/>
            <Node pos="r" depth="3" NCoef="0" IVar="-1" Cut="0.0000000000000000e+00" cType="1" res="6.4325630664825439e-03" rms="2.5540325045585632e-01" purity="8.4539192914962769e-01" nType="-99"/>
          </Node>
        </Node>
        <Node pos="r" depth="1" NCoef="0" IVar="8" Cut="1.5864455699920654e-01" cType="1" res="2.7547513600438833e-03" rms="2.3714511096477509e-01" purity="5.3021055459976196e-01" nType="0">
          <Node pos="l" depth="2" NCoef="0" IVar="1" Cut="4.2475063353776932e-02" cType="1" res="6.8687754683196545e-03" rms="2.3079180717468262e-01" purity="6.0628759860992432e-01" nType="0">
            <Node pos="l" depth="3" NCoef="0" IVar="-1" Cut="0.0000000000000000e+00" cType="1" res="2.9923047870397568e-02" rms="2.2353939712047577e-01" purity="2.4747809767723083e-01" nType="-99"/>
            <Node pos="r" depth="3" NCoef="0" IVar="-1" Cut="0.0000000000000000e+00" cType="1" res="5.9987963177263737e-03" rms="2.3362818360328674e-01" purity="7.5402861833572388e-01" nType="-99"/>
          </Node>
          <Node pos="r" depth="2" NCoef="0" IVar="7" Cut="-9.2963999509811401e-01" cType="1" res="-9.3058850325178355e-05" rms="2.4140404164791107e-01" purity="4.7754848003387451e-01" nType="0">
            <Node pos="l" depth="3" NCoef="0" IVar="-1" Cut="0.0000000000000000e+00" cType="1" res="-1.4242133125662804e-02" rms="2.2874435782432556e-01" purity="2.3871414363384247e-01" nType="-99"/>
            <Node pos="r" depth="3" NCoef="0" IVar="-1" Cut="0.0000000000000000e+00" cType="1" res="2.5813158135861158e-03" rms="2.4382975697517395e-01" purity="5.2542304992675781e-01" nType="-99"/>
          </Node>
        </Node>
      </Node>
    </BinaryTree>
    <BinaryTree type="DecisionTree" boostWeight="1.0000000000000000e+00" itree="530">
      <Node pos="s" depth="0" NCoef="0" IVar="9" Cut="-1.9988887310028076e+00" cType="1" res="-1.2723637046292424e-03" rms="2.4107210338115692e-01" purity="5.0317817926406860e-01" nType="0">
        <Node pos="l" depth="1" NCoef="0" IVar="-1" Cut="0.0000000000000000e+00" cType="1" res="3.3196251839399338e-02" rms="2.6029577851295471e-01" purity="2.3284938931465149e-01" nType="-99"/>
        <Node pos="r" depth="1" NCoef="0" IVar="8" Cut="1.7322655916213989e+00" cType="1" res="-2.0401058718562126e-03" rms="2.4031323194503784e-01" purity="5.1295036077499390e-01" nType="0">
          <Node pos="l" depth="2" NCoef="0" IVar="6" Cut="-1.0779069662094116e+00" cType="1" res="-2.7931721415370703e-03" rms="2.3950386047363281e-01" purity="5.2829051017761230e-01" nType="0">
            <Node pos="l" depth="3" NCoef="0" IVar="-1" Cut="0.0000000000000000e+00" cType="1" res="-2.4221146479249001e-02" rms="2.1466265618801117e-01" purity="1.7764376103878021e-01" nType="-99"/>
            <Node pos="r" depth="3" NCoef="0" IVar="-1" Cut="0.0000000000000000e+00" cType="1" res="-2.8319803532212973e-03" rms="2.4201962351799011e-01" purity="5.6630855798721313e-01" nType="-99"/>
          </Node>
          <Node pos="r" depth="2" NCoef="0" IVar="-1" Cut="0.0000000000000000e+00" cType="1" res="2.2885674610733986e-02" rms="2.5632649660110474e-01" purity="1.8830549716949463e-01" nType="-99"/>
        </Node>
      </Node>
    </BinaryTree>
    <BinaryTree type="DecisionTree" boostWeight="1.0000000000000000e+00" itree="531">
      <Node pos="s" depth="0" NCoef="0" IVar="9" Cut="-1.7323050498962402e+00" cType="1" res="1.4090618351474404e-03" rms="2.4451921880245209e-01" purity="5.0249803066253662e-01" nType="0">
        <Node pos="l" depth="1" NCoef="0" IVar="5" Cut="1.3557304382324219e+02" cType="1" res="-2.1302599459886551e-02" rms="2.5277340412139893e-01" purity="2.3555822670459747e-01" nType="0">
          <Node pos="l" depth="2" NCoef="0" IVar="-1" Cut="0.0000000000000000e+00" cType="1" res="-7.5590428896248341e-03" rms="2.1372269093990326e-01" purity="1.1613368242979050e-01" nType="-99"/>
          <Node pos="r" depth="2" NCoef="0" IVar="-1" Cut="0.0000000000000000e+00" cType="1" res="-4.3637719005346298e-02" rms="2.9183143377304077e-01" purity="3.8019794225692749e-01" nType="-99"/>
        </Node>
        <Node pos="r" depth="1" NCoef="0" IVar="3" Cut="2.3945591735839844e+02" cType="1" res="2.8731992933899164e-03" rms="2.4390497803688049e-01" purity="5.1970672607421875e-01" nType="0">
          <Node pos="l" depth="2" NCoef="0" IVar="4" Cut="1.1591569519042969e+02" cType="1" res="1.0313652455806732e-02" rms="2.4350124597549438e-01" purity="1.4764431118965149e-01" nType="0">
            <Node pos="l" depth="3" NCoef="0" IVar="-1" Cut="0.0000000000000000e+00" cType="1" res="-6.5426200628280640e-02" rms="1.0268106311559677e-01" purity="1.1623693630099297e-02" nType="-99"/>
            <Node pos="r" depth="3" NCoef="0" IVar="-1" Cut="0.0000000000000000e+00" cType="1" res="2.4209013208746910e-02" rms="2.6188671588897705e-01" purity="1.7396724224090576e-01" nType="-99"/>
          </Node>
          <Node pos="r" depth="2" NCoef="0" IVar="7" Cut="1.2000480890274048e+00" cType="1" res="7.7744649024680257e-04" rms="2.4397762119770050e-01" purity="6.2450546026229858e-01" nType="0">
            <Node pos="l" depth="3" NCoef="0" IVar="-1" Cut="0.0000000000000000e+00" cType="1" res="4.3281735852360725e-03" rms="2.4509294331073761e-01" purity="6.5825635194778442e-01" nType="-99"/>
            <Node pos="r" depth="3" NCoef="0" IVar="-1" Cut="0.0000000000000000e+00" cType="1" res="-3.0549552291631699e-02" rms="2.3115907609462738e-01" purity="2.7371343970298767e-01" nType="-99"/>
          </Node>
        </Node>
      </Node>
    </BinaryTree>
    <BinaryTree type="DecisionTree" boostWeight="1.0000000000000000e+00" itree="532">
      <Node pos="s" depth="0" NCoef="0" IVar="2" Cut="3.2214724731445312e+02" cType="1" res="3.4671493340283632e-03" rms="2.4226789176464081e-01" purity="5.0274127721786499e-01" nType="0">
        <Node pos="l" depth="1" NCoef="0" IVar="7" Cut="-3.9521172642707825e-01" cType="1" res="1.7623435705900192e-02" rms="2.8323778510093689e-01" purity="2.1162226796150208e-01" nType="0">
          <Node pos="l" depth="2" NCoef="0" IVar="-1" Cut="0.0000000000000000e+00" cType="1" res="-5.1378918578848243e-04" rms="2.5293064117431641e-01" purity="1.6621556878089905e-01" nType="-99"/>
          <Node pos="r" depth="2" NCoef="0" IVar="1" Cut="5.6186378002166748e-02" cType="1" res="2.7710536494851112e-02" rms="2.9843398928642273e-01" purity="2.3711249232292175e-01" nType="0">
            <Node pos="l" depth="3" NCoef="0" IVar="-1" Cut="0.0000000000000000e+00" cType="1" res="1.9662750884890556e-02" rms="2.0694731175899506e-01" purity="7.3674440383911133e-02" nType="-99"/>
            <Node pos="r" depth="3" NCoef="0" IVar="-1" Cut="0.0000000000000000e+00" cType="1" res="4.2844496667385101e-02" rms="3.4656250476837158e-01" purity="3.4842914342880249e-01" nType="-99"/>
          </Node>
        </Node>
        <Node pos="r" depth="1" NCoef="0" IVar="2" Cut="6.6988958740234375e+02" cType="1" res="1.8608230166137218e-03" rms="2.3711892962455750e-01" purity="5.3577488660812378e-01" nType="0">
          <Node pos="l" depth="2" NCoef="0" IVar="9" Cut="-4.0041327476501465e-01" cType="1" res="-6.6456425702199340e-04" rms="2.3742498457431793e-01" purity="4.7760128974914551e-01" nType="0">
            <Node pos="l" depth="3" NCoef="0" IVar="-1" Cut="0.0000000000000000e+00" cType="1" res="8.8463462889194489e-03" rms="2.4476155638694763e-01" purity="4.6717548370361328e-01" nType="-99"/>
            <Node pos="r" depth="3" NCoef="0" IVar="-1" Cut="0.0000000000000000e+00" cType="1" res="-7.6249153353273869e-03" rms="2.3287951946258545e-01" purity="4.8379567265510559e-01" nType="-99"/>
          </Node>
          <Node pos="r" depth="2" NCoef="0" IVar="0" Cut="2.8410874023437500e+03" cType="1" res="1.0652471333742142e-02" rms="2.3583953082561493e-01" purity="7.3829483985900879e-01" nType="0">
            <Node pos="l" depth="3" NCoef="0" IVar="-1" Cut="0.0000000000000000e+00" cType="1" res="2.4443849921226501e-02" rms="2.8681889176368713e-01" purity="5.0368338823318481e-01" nType="-99"/>
            <Node pos="r" depth="3" NCoef="0" IVar="-1" Cut="0.0000000000000000e+00" cType="1" res="2.0400991197675467e-03" rms="1.7639447748661041e-01" purity="9.5223546028137207e-01" nType="-99"/>
          </Node>
        </Node>
      </Node>
    </BinaryTree>
    <BinaryTree type="DecisionTree" boostWeight="1.0000000000000000e+00" itree="533">
      <Node pos="s" depth="0" NCoef="0" IVar="2" Cut="7.6047949218750000e+02" cType="1" res="-3.2638695556670427e-03" rms="2.3578244447708130e-01" purity="4.9115008115768433e-01" nType="0">
        <Node pos="l" depth="1" NCoef="0" IVar="4" Cut="3.3414126586914062e+02" cType="1" res="-1.8953856779262424e-03" rms="2.3404099047183990e-01" purity="4.5933008193969727e-01" nType="0">
          <Node pos="l" depth="2" NCoef="0" IVar="7" Cut="1.2011877298355103e+00" cType="1" res="-3.5354164429008961e-03" rms="2.4373334646224976e-01" purity="3.7500554323196411e-01" nType="0">
            <Node pos="l" depth="3" NCoef="0" IVar="-1" Cut="0.0000000000000000e+00" cType="1" res="-2.8532268479466438e-03" rms="2.5052410364151001e-01" purity="4.0891483426094055e-01" nType="-99"/>
            <Node pos="r" depth="3" NCoef="0" IVar="-1" Cut="0.0000000000000000e+00" cType="1" res="-3.0112851411104202e-02" rms="1.9177301228046417e-01" purity="1.4782154560089111e-01" nType="-99"/>
          </Node>
          <Node pos="r" depth="2" NCoef="0" IVar="2" Cut="5.6148730468750000e+02" cType="1" res="7.6098120771348476e-03" rms="1.6682489216327667e-01" purity="9.4805341958999634e-01" nType="0">
            <Node pos="l" depth="3" NCoef="0" IVar="-1" Cut="0.0000000000000000e+00" cType="1" res="4.0383975952863693e-02" rms="1.7712172865867615e-01" purity="9.4457811117172241e-01" nType="-99"/>
            <Node pos="r" depth="3" NCoef="0" IVar="-1" Cut="0.0000000000000000e+00" cType="1" res="4.3192668817937374e-03" rms="1.5736174583435059e-01" purity="9.5097625255584717e-01" nType="-99"/>
          </Node>
        </Node>
        <Node pos="r" depth="1" NCoef="0" IVar="4" Cut="3.2982241821289062e+02" cType="1" res="-1.4319827780127525e-02" rms="2.4913054704666138e-01" purity="7.4822366237640381e-01" nType="0">
          <Node pos="l" depth="2" NCoef="0" IVar="7" Cut="-1.3587692379951477e-01" cType="1" res="-2.0593198016285896e-02" rms="2.8215119242668152e-01" purity="6.2868636846542358e-01" nType="0">
            <Node pos="l" depth="3" NCoef="0" IVar="-1" Cut="0.0000000000000000e+00" cType="1" res="-6.4707351848483086e-03" rms="2.8039544820785522e-01" purity="6.1242717504501343e-01" nType="-99"/>
            <Node pos="r" depth="3" NCoef="0" IVar="-1" Cut="0.0000000000000000e+00" cType="1" res="-4.1495066136121750e-02" rms="2.8299111127853394e-01" purity="6.4228373765945435e-01" nType="-99"/>
          </Node>
          <Node pos="r" depth="2" NCoef="0" IVar="-1" Cut="0.0000000000000000e+00" cType="1" res="-1.1511920951306820e-02" rms="1.8289026618003845e-01" purity="9.4207698106765747e-01" nType="-99"/>
        </Node>
      </Node>
    </BinaryTree>
    <BinaryTree type="DecisionTree" boostWeight="1.0000000000000000e+00" itree="534">
      <Node pos="s" depth="0" NCoef="0" IVar="1" Cut="1.9106325507164001e-01" cType="1" res="2.2424883209168911e-03" rms="2.4338090419769287e-01" purity="5.0319105386734009e-01" nType="0">
        <Node pos="l" depth="1" NCoef="0" IVar="3" Cut="6.0266387939453125e+02" cType="1" res="3.3768120920285583e-04" rms="2.4851255118846893e-01" purity="4.6000862121582031e-01" nType="0">
          <Node pos="l" depth="2" NCoef="0" IVar="3" Cut="2.4581724548339844e+02" cType="1" res="1.3287601759657264e-03" rms="2.4901854991912842e-01" purity="4.4305902719497681e-01" nType="0">
            <Node pos="l" depth="3" NCoef="0" IVar="-1" Cut="0.0000000000000000e+00" cType="1" res="-1.0410598479211330e-02" rms="2.3676599562168121e-01" purity="1.3038575649261475e-01" nType="-99"/>
            <Node pos="r" depth="3" NCoef="0" IVar="-1" Cut="0.0000000000000000e+00" cType="1" res="6.0651302337646484e-03" rms="2.5338608026504517e-01" purity="5.5968713760375977e-01" nType="-99"/>
          </Node>
          <Node pos="r" depth="2" NCoef="0" IVar="-1" Cut="0.0000000000000000e+00" cType="1" res="-3.9398133754730225e-02" rms="2.3532164096832275e-01" purity="8.5267651081085205e-01" nType="-99"/>
        </Node>
        <Node pos="r" depth="1" NCoef="0" IVar="2" Cut="4.7529629516601562e+02" cType="1" res="2.0153161138296127e-02" rms="1.8746843934059143e-01" purity="9.0923053026199341e-01" nType="0">
          <Node pos="l" depth="2" NCoef="0" IVar="-1" Cut="0.0000000000000000e+00" cType="1" res="4.8760134726762772e-02" rms="2.3923927545547485e-01" purity="8.1583315134048462e-01" nType="-99"/>
          <Node pos="r" depth="2" NCoef="0" IVar="-1" Cut="0.0000000000000000e+00" cType="1" res="5.5446766316890717e-02" rms="1.3822264969348907e-01" purity="9.7630316019058228e-01" nType="-99"/>
        </Node>
      </Node>
    </BinaryTree>
    <BinaryTree type="DecisionTree" boostWeight="1.0000000000000000e+00" itree="535">
      <Node pos="s" depth="0" NCoef="0" IVar="3" Cut="3.2899578857421875e+02" cType="1" res="2.3566867457702756e-04" rms="2.4174474179744720e-01" purity="4.9860531091690063e-01" nType="0">
        <Node pos="l" depth="1" NCoef="0" IVar="0" Cut="1.5811481933593750e+03" cType="1" res="4.8289448022842407e-03" rms="2.5029462575912476e-01" purity="2.7321016788482666e-01" nType="0">
          <Node pos="l" depth="2" NCoef="0" IVar="1" Cut="6.9514170289039612e-02" cType="1" res="-4.8915799707174301e-03" rms="1.4802391827106476e-01" purity="2.4138374254107475e-02" nType="0">
            <Node pos="l" depth="3" NCoef="0" IVar="-1" Cut="0.0000000000000000e+00" cType="1" res="8.8484594598412514e-03" rms="1.2431121617555618e-01" purity="1.7600033432245255e-02" nType="-99"/>
            <Node pos="r" depth="3" NCoef="0" IVar="-1" Cut="0.0000000000000000e+00" cType="1" res="-3.8294173777103424e-02" rms="1.9549390673637390e-01" purity="4.1010752320289612e-02" nType="-99"/>
          </Node>
          <Node pos="r" depth="2" NCoef="0" IVar="7" Cut="-4.0085220336914062e-01" cType="1" res="1.0956435464322567e-02" rms="2.9703381657600403e-01" purity="4.3021661043167114e-01" nType="0">
            <Node pos="l" depth="3" NCoef="0" IVar="-1" Cut="0.0000000000000000e+00" cType="1" res="1.3939066557213664e-03" rms="2.8496134281158447e-01" purity="3.7104743719100952e-01" nType="-99"/>
            <Node pos="r" depth="3" NCoef="0" IVar="-1" Cut="0.0000000000000000e+00" cType="1" res="1.8997432664036751e-02" rms="3.0362698435783386e-01" purity="4.6430009603500366e-01" nType="-99"/>
          </Node>
        </Node>
        <Node pos="r" depth="1" NCoef="0" IVar="0" Cut="2.1995654296875000e+03" cType="1" res="-4.7889812849462032e-03" rms="2.3192721605300903e-01" purity="7.4516826868057251e-01" nType="0">
          <Node pos="l" depth="2" NCoef="0" IVar="1" Cut="7.6166503131389618e-02" cType="1" res="-1.6354221850633621e-02" rms="2.9804250597953796e-01" purity="2.5395128130912781e-01" nType="0">
            <Node pos="l" depth="3" NCoef="0" IVar="-1" Cut="0.0000000000000000e+00" cType="1" res="-8.8343909010291100e-03" rms="2.6681855320930481e-01" purity="1.4399194717407227e-01" nType="-99"/>
            <Node pos="r" depth="3" NCoef="0" IVar="-1" Cut="0.0000000000000000e+00" cType="1" res="-2.4076646193861961e-02" rms="3.5089442133903503e-01" purity="4.7112292051315308e-01" nType="-99"/>
          </Node>
          <Node pos="r" depth="2" NCoef="0" IVar="4" Cut="2.7951110839843750e+02" cType="1" res="-6.9029442965984344e-04" rms="2.0324438810348511e-01" purity="9.1925412416458130e-01" nType="0">
            <Node pos="l" depth="3" NCoef="0" IVar="-1" Cut="0.0000000000000000e+00" cType="1" res="1.2582770548760891e-02" rms="2.5174182653427124e-01" purity="8.5754376649856567e-01" nType="-99"/>
            <Node pos="r" depth="3" NCoef="0" IVar="-1" Cut="0.0000000000000000e+00" cType="1" res="-1.3877887278795242e-02" rms="1.8054725229740143e-01" purity="9.4348019361495972e-01" nType="-99"/>
          </Node>
        </Node>
      </Node>
    </BinaryTree>
    <BinaryTree type="DecisionTree" boostWeight="1.0000000000000000e+00" itree="536">
      <Node pos="s" depth="0" NCoef="0" IVar="2" Cut="8.8726977539062500e+02" cType="1" res="-1.3156480854377151e-03" rms="2.3769760131835938e-01" purity="4.9882277846336365e-01" nType="0">
        <Node pos="l" depth="1" NCoef="0" IVar="4" Cut="1.6016542053222656e+02" cType="1" res="-2.5477041490375996e-03" rms="2.3686389625072479e-01" purity="4.8403716087341309e-01" nType="0">
          <Node pos="l" depth="2" NCoef="0" IVar="0" Cut="1.6201905517578125e+03" cType="1" res="-9.4073042273521423e-03" rms="1.8272466957569122e-01" purity="6.3933327794075012e-02" nType="0">
            <Node pos="l" depth="3" NCoef="0" IVar="-1" Cut="0.0000000000000000e+00" cType="1" res="-2.1810816600918770e-02" rms="1.1955140531063080e-01" purity="1.6549324616789818e-02" nType="-99"/>
            <Node pos="r" depth="3" NCoef="0" IVar="-1" Cut="0.0000000000000000e+00" cType="1" res="-2.4258404970169067e-02" rms="2.4891798198223114e-01" purity="1.3509178161621094e-01" nType="-99"/>
          </Node>
          <Node pos="r" depth="2" NCoef="0" IVar="1" Cut="1.7777423560619354e-01" cType="1" res="-4.7070489381439984e-04" rms="2.5092652440071106e-01" purity="6.1123925447463989e-01" nType="0">
            <Node pos="l" depth="3" NCoef="0" IVar="-1" Cut="0.0000000000000000e+00" cType="1" res="1.9493551226332784e-03" rms="2.5791567564010620e-01" purity="5.6486558914184570e-01" nType="-99"/>
            <Node pos="r" depth="3" NCoef="0" IVar="-1" Cut="0.0000000000000000e+00" cType="1" res="-2.6546426117420197e-02" rms="2.0658071339130402e-01" purity="8.7417507171630859e-01" nType="-99"/>
          </Node>
        </Node>
        <Node pos="r" depth="1" NCoef="0" IVar="-1" Cut="0.0000000000000000e+00" cType="1" res="2.9494905844330788e-02" rms="2.5245636701583862e-01" purity="7.9270881414413452e-01" nType="-99"/>
      </Node>
    </BinaryTree>
    <BinaryTree type="DecisionTree" boostWeight="1.0000000000000000e+00" itree="537">
      <Node pos="s" depth="0" NCoef="0" IVar="0" Cut="1.9325506591796875e+03" cType="1" res="-1.2669175630435348e-03" rms="2.4411565065383911e-01" purity="5.0369620323181152e-01" nType="0">
        <Node pos="l" depth="1" NCoef="0" IVar="0" Cut="1.8057357177734375e+03" cType="1" res="3.6895265802741051e-03" rms="2.3525573313236237e-01" purity="9.5550023019313812e-02" nType="0">
          <Node pos="l" depth="2" NCoef="0" IVar="1" Cut="1.2910467386245728e-01" cType="1" res="-1.4192453818395734e-03" rms="2.0335328578948975e-01" purity="5.8409824967384338e-02" nType="0">
            <Node pos="l" depth="3" NCoef="0" IVar="-1" Cut="0.0000000000000000e+00" cType="1" res="2.5474671274423599e-03" rms="1.8855722248554230e-01" purity="4.8096869140863419e-02" nType="-99"/>
            <Node pos="r" depth="3" NCoef="0" IVar="-1" Cut="0.0000000000000000e+00" cType="1" res="-2.3376626893877983e-02" rms="3.2019966840744019e-01" purity="1.6844981908798218e-01" nType="-99"/>
          </Node>
          <Node pos="r" depth="2" NCoef="0" IVar="7" Cut="-1.1548553407192230e-01" cType="1" res="3.3546801656484604e-02" rms="3.6888894438743591e-01" purity="3.1260904669761658e-01" nType="0">
            <Node pos="l" depth="3" NCoef="0" IVar="-1" Cut="0.0000000000000000e+00" cType="1" res="1.2823591940104961e-02" rms="3.5545003414154053e-01" purity="2.7742266654968262e-01" nType="-99"/>
            <Node pos="r" depth="3" NCoef="0" IVar="-1" Cut="0.0000000000000000e+00" cType="1" res="3.8156993687152863e-02" rms="3.7937402725219727e-01" purity="3.4283620119094849e-01" nType="-99"/>
          </Node>
        </Node>
        <Node pos="r" depth="1" NCoef="0" IVar="5" Cut="1.0967250061035156e+02" cType="1" res="-5.1904721185564995e-03" rms="2.5083801150321960e-01" purity="8.2678747177124023e-01" nType="0">
          <Node pos="l" depth="2" NCoef="0" IVar="-1" Cut="0.0000000000000000e+00" cType="1" res="1.5346864238381386e-02" rms="3.5960537195205688e-01" purity="3.9976403117179871e-01" nType="-99"/>
          <Node pos="r" depth="2" NCoef="0" IVar="1" Cut="4.2563121765851974e-02" cType="1" res="-7.0464052259922028e-03" rms="2.4043199419975281e-01" purity="8.5935342311859131e-01" nType="0">
            <Node pos="l" depth="3" NCoef="0" IVar="-1" Cut="0.0000000000000000e+00" cType="1" res="-2.2679679095745087e-02" rms="3.1752419471740723e-01" purity="5.9052729606628418e-01" nType="-99"/>
            <Node pos="r" depth="3" NCoef="0" IVar="-1" Cut="0.0000000000000000e+00" cType="1" res="-6.6354661248624325e-03" rms="2.2047708928585052e-01" purity="9.1631871461868286e-01" nType="-99"/>
          </Node>
        </Node>
      </Node>
    </BinaryTree>
    <BinaryTree type="DecisionTree" boostWeight="1.0000000000000000e+00" itree="538">
      <Node pos="s" depth="0" NCoef="0" IVar="0" Cut="2.1988249511718750e+03" cType="1" res="6.4502991735935211e-03" rms="2.4540816247463226e-01" purity="5.0621914863586426e-01" nType="0">
        <Node pos="l" depth="1" NCoef="0" IVar="3" Cut="3.0602944946289062e+02" cType="1" res="1.0823417454957962e-02" rms="2.7140992879867554e-01" purity="1.9529584050178528e-01" nType="0">
          <Node pos="l" depth="2" NCoef="0" IVar="9" Cut="1.7315129041671753e+00" cType="1" res="5.8066281490027905e-03" rms="2.5247788429260254e-01" purity="1.5292736887931824e-01" nType="0">
            <Node pos="l" depth="3" NCoef="0" IVar="-1" Cut="0.0000000000000000e+00" cType="1" res="1.2997558340430260e-02" rms="2.5640061497688293e-01" purity="1.5959995985031128e-01" nType="-99"/>
            <Node pos="r" depth="3" NCoef="0" IVar="-1" Cut="0.0000000000000000e+00" cType="1" res="-3.3627595752477646e-02" rms="2.0184335112571716e-01" purity="7.8279122710227966e-02" nType="-99"/>
          </Node>
          <Node pos="r" depth="2" NCoef="0" IVar="0" Cut="1.8565206298828125e+03" cType="1" res="2.3516869172453880e-02" rms="3.1390070915222168e-01" purity="3.0249628424644470e-01" nType="0">
            <Node pos="l" depth="3" NCoef="0" IVar="-1" Cut="0.0000000000000000e+00" cType="1" res="1.0899662971496582e-02" rms="2.3110158741474152e-01" purity="8.1242099404335022e-02" nType="-99"/>
            <Node pos="r" depth="3" NCoef="0" IVar="-1" Cut="0.0000000000000000e+00" cType="1" res="2.7802657335996628e-02" rms="3.7568333745002747e-01" purity="5.1431554555892944e-01" nType="-99"/>
          </Node>
        </Node>
        <Node pos="r" depth="1" NCoef="0" IVar="7" Cut="-6.5933519601821899e-01" cType="1" res="7.9375383211299777e-04" rms="2.0684874057769775e-01" purity="9.0839254856109619e-01" nType="0">
          <Node pos="l" depth="2" NCoef="0" IVar="1" Cut="5.8501966297626495e-02" cType="1" res="9.3926200643181801e-03" rms="2.3545432090759277e-01" purity="8.5357218980789185e-01" nType="0">
            <Node pos="l" depth="3" NCoef="0" IVar="-1" Cut="0.0000000000000000e+00" cType="1" res="2.7916487306356430e-02" rms="3.1402602791786194e-01" purity="6.5942132472991943e-01" nType="-99"/>
            <Node pos="r" depth="3" NCoef="0" IVar="-1" Cut="0.0000000000000000e+00" cType="1" res="-3.1153305899351835e-03" rms="1.8298783898353577e-01" purity="9.5079082250595093e-01" nType="-99"/>
          </Node>
          <Node pos="r" depth="2" NCoef="0" IVar="9" Cut="1.2002339363098145e+00" cType="1" res="-1.1548713082447648e-03" rms="1.9974645972251892e-01" purity="9.2081558704376221e-01" nType="0">
            <Node pos="l" depth="3" NCoef="0" IVar="-1" Cut="0.0000000000000000e+00" cType="1" res="9.0404966613277793e-04" rms="1.9388070702552795e-01" purity="9.2802387475967407e-01" nType="-99"/>
            <Node pos="r" depth="3" NCoef="0" IVar="-1" Cut="0.0000000000000000e+00" cType="1" res="-2.4709295481443405e-02" rms="2.4850507080554962e-01" purity="8.5186344385147095e-01" nType="-99"/>
          </Node>
        </Node>
      </Node>
    </BinaryTree>
    <BinaryTree type="DecisionTree" boostWeight="1.0000000000000000e+00" itree="539">
      <Node pos="s" depth="0" NCoef="0" IVar="8" Cut="-1.3360211253166199e-01" cType="1" res="-5.0182291306555271e-04" rms="2.4310263991355896e-01" purity="5.0762009620666504e-01" nType="0">
        <Node pos="l" depth="1" NCoef="0" IVar="9" Cut="-9.3201905488967896e-01" cType="1" res="-4.2017819359898567e-03" rms="2.4227410554885864e-01" purity="4.7823879122734070e-01" nType="0">
          <Node pos="l" depth="2" NCoef="0" IVar="7" Cut="-1.4410397410392761e-01" cType="1" res="-1.1849909089505672e-02" rms="2.4576131999492645e-01" purity="3.8367366790771484e-01" nType="0">
            <Node pos="l" depth="3" NCoef="0" IVar="-1" Cut="0.0000000000000000e+00" cType="1" res="-3.7343338131904602e-02" rms="2.2112399339675903e-01" purity="3.4404119849205017e-01" nType="-99"/>
            <Node pos="r" depth="3" NCoef="0" IVar="-1" Cut="0.0000000000000000e+00" cType="1" res="2.0278543233871460e-03" rms="2.7036637067794800e-01" purity="4.2855811119079590e-01" nType="-99"/>
          </Node>
          <Node pos="r" depth="2" NCoef="0" IVar="7" Cut="9.2490428686141968e-01" cType="1" res="-1.9358901772648096e-03" rms="2.4118471145629883e-01" purity="5.0625538825988770e-01" nType="0">
            <Node pos="l" depth="3" NCoef="0" IVar="-1" Cut="0.0000000000000000e+00" cType="1" res="1.2439155252650380e-03" rms="2.4193187057971954e-01" purity="5.5218285322189331e-01" nType="-99"/>
            <Node pos="r" depth="3" NCoef="0" IVar="-1" Cut="0.0000000000000000e+00" cType="1" res="-2.4265207350254059e-02" rms="2.3682364821434021e-01" purity="2.6920685172080994e-01" nType="-99"/>
          </Node>
        </Node>
        <Node pos="r" depth="1" NCoef="0" IVar="2" Cut="5.3897460937500000e+02" cType="1" res="2.6405670214444399e-03" rms="2.4376000463962555e-01" purity="5.3257375955581665e-01" nType="0">
          <Node pos="l" depth="2" NCoef="0" IVar="7" Cut="-3.9529091119766235e-01" cType="1" res="6.4729843288660049e-03" rms="2.5531411170959473e-01" purity="4.1677007079124451e-01" nType="0">
            <Node pos="l" depth="3" NCoef="0" IVar="-1" Cut="0.0000000000000000e+00" cType="1" res="2.4745879694819450e-02" rms="2.5852021574974060e-01" purity="3.8097053766250610e-01" nType="-99"/>
            <Node pos="r" depth="3" NCoef="0" IVar="-1" Cut="0.0000000000000000e+00" cType="1" res="2.0963218994438648e-03" rms="2.5345519185066223e-01" purity="4.3569669127464294e-01" nType="-99"/>
          </Node>
          <Node pos="r" depth="2" NCoef="0" IVar="5" Cut="1.0851480102539062e+02" cType="1" res="-2.5613696780055761e-03" rms="2.2703517973423004e-01" purity="6.8976002931594849e-01" nType="0">
            <Node pos="l" depth="3" NCoef="0" IVar="-1" Cut="0.0000000000000000e+00" cType="1" res="-2.6291193440556526e-02" rms="2.2411070764064789e-01" purity="1.2730003893375397e-01" nType="-99"/>
            <Node pos="r" depth="3" NCoef="0" IVar="-1" Cut="0.0000000000000000e+00" cType="1" res="-3.3344293478876352e-04" rms="2.2752727568149567e-01" purity="7.9992216825485229e-01" nType="-99"/>
          </Node>
        </Node>
      </Node>
    </BinaryTree>
    <BinaryTree type="DecisionTree" boostWeight="1.0000000000000000e+00" itree="540">
      <Node pos="s" depth="0" NCoef="0" IVar="6" Cut="-5.5483525991439819e-01" cType="1" res="1.7410477157682180e-03" rms="2.4156613647937775e-01" purity="4.9447146058082581e-01" nType="0">
        <Node pos="l" depth="1" NCoef="0" IVar="7" Cut="6.6914916038513184e-01" cType="1" res="8.3347223699092865e-03" rms="2.4563905596733093e-01" purity="3.6302644014358521e-01" nType="0">
          <Node pos="l" depth="2" NCoef="0" IVar="2" Cut="5.1520831298828125e+02" cType="1" res="2.5266059674322605e-03" rms="2.4687519669532776e-01" purity="4.1065439581871033e-01" nType="0">
            <Node pos="l" depth="3" NCoef="0" IVar="-1" Cut="0.0000000000000000e+00" cType="1" res="-1.2485237792134285e-02" rms="2.4392013251781464e-01" purity="2.9258382320404053e-01" nType="-99"/>
            <Node pos="r" depth="3" NCoef="0" IVar="-1" Cut="0.0000000000000000e+00" cType="1" res="2.7645803987979889e-02" rms="2.5013962388038635e-01" purity="5.7315731048583984e-01" nType="-99"/>
          </Node>
          <Node pos="r" depth="2" NCoef="0" IVar="1" Cut="2.9217399656772614e-02" cType="1" res="2.4375420063734055e-02" rms="2.4146772921085358e-01" purity="2.3148877918720245e-01" nType="0">
            <Node pos="l" depth="3" NCoef="0" IVar="-1" Cut="0.0000000000000000e+00" cType="1" res="1.3983007520437241e-02" rms="1.4381164312362671e-01" purity="4.9988053739070892e-02" nType="-99"/>
            <Node pos="r" depth="3" NCoef="0" IVar="-1" Cut="0.0000000000000000e+00" cType="1" res="5.4814890027046204e-02" rms="3.1364187598228455e-01" purity="4.2970031499862671e-01" nType="-99"/>
          </Node>
        </Node>
        <Node pos="r" depth="1" NCoef="0" IVar="9" Cut="-1.2002727985382080e+00" cType="1" res="-4.9582158681005239e-04" rms="2.4012760818004608e-01" purity="5.3906345367431641e-01" nType="0">
          <Node pos="l" depth="2" NCoef="0" IVar="3" Cut="3.1173742675781250e+02" cType="1" res="-9.8616788163781166e-03" rms="2.3384462296962738e-01" purity="3.9627021551132202e-01" nType="0">
            <Node pos="l" depth="3" NCoef="0" IVar="-1" Cut="0.0000000000000000e+00" cType="1" res="-3.8149125874042511e-02" rms="2.3039051890373230e-01" purity="1.9815902411937714e-01" nType="-99"/>
            <Node pos="r" depth="3" NCoef="0" IVar="-1" Cut="0.0000000000000000e+00" cType="1" res="9.7185159102082253e-03" rms="2.3636117577552795e-01" purity="6.1270886659622192e-01" nType="-99"/>
          </Node>
          <Node pos="r" depth="2" NCoef="0" IVar="9" Cut="-1.0095152854919434e+00" cType="1" res="9.0732652461156249e-04" rms="2.4102345108985901e-01" purity="5.6045609712600708e-01" nType="0">
            <Node pos="l" depth="3" NCoef="0" IVar="-1" Cut="0.0000000000000000e+00" cType="1" res="3.4870389848947525e-02" rms="2.3558832705020905e-01" purity="5.4995900392532349e-01" nType="-99"/>
            <Node pos="r" depth="3" NCoef="0" IVar="-1" Cut="0.0000000000000000e+00" cType="1" res="-3.4950496046803892e-04" rms="2.4127340316772461e-01" purity="5.6103974580764771e-01" nType="-99"/>
          </Node>
        </Node>
      </Node>
    </BinaryTree>
    <BinaryTree type="DecisionTree" boostWeight="1.0000000000000000e+00" itree="541">
      <Node pos="s" depth="0" NCoef="0" IVar="5" Cut="1.3353376770019531e+02" cType="1" res="-1.5640676429029554e-04" rms="2.4357961118221283e-01" purity="4.9805396795272827e-01" nType="0">
        <Node pos="l" depth="1" NCoef="0" IVar="9" Cut="1.7330390214920044e+00" cType="1" res="3.3530760556459427e-03" rms="2.3699735105037689e-01" purity="1.4562349021434784e-01" nType="0">
          <Node pos="l" depth="2" NCoef="0" IVar="0" Cut="2.3753088378906250e+03" cType="1" res="1.2148608220741153e-03" rms="2.3423236608505249e-01" purity="1.4390218257904053e-01" nType="0">
            <Node pos="l" depth="3" NCoef="0" IVar="-1" Cut="0.0000000000000000e+00" cType="1" res="-2.4201897904276848e-03" rms="2.2208663821220398e-01" purity="9.5310509204864502e-02" nType="-99"/>
            <Node pos="r" depth="3" NCoef="0" IVar="-1" Cut="0.0000000000000000e+00" cType="1" res="2.4736648425459862e-02" rms="3.4393456578254700e-01" purity="7.0747911930084229e-01" nType="-99"/>
          </Node>
          <Node pos="r" depth="2" NCoef="0" IVar="-1" Cut="0.0000000000000000e+00" cType="1" res="4.4334672391414642e-02" rms="2.6304581761360168e-01" purity="1.6354900598526001e-01" nType="-99"/>
        </Node>
        <Node pos="r" depth="1" NCoef="0" IVar="1" Cut="4.2591724544763565e-02" cType="1" res="-2.1526210475713015e-03" rms="2.4722322821617126e-01" purity="6.9851845502853394e-01" nType="0">
          <Node pos="l" depth="2" NCoef="0" IVar="7" Cut="-1.3197584450244904e-01" cType="1" res="-9.8484782502055168e-03" rms="2.6676365733146667e-01" purity="3.5573157668113708e-01" nType="0">
            <Node pos="l" depth="3" NCoef="0" IVar="-1" Cut="0.0000000000000000e+00" cType="1" res="-3.6505784839391708e-02" rms="2.5742757320404053e-01" purity="3.1012788414955139e-01" nType="-99"/>
            <Node pos="r" depth="3" NCoef="0" IVar="-1" Cut="0.0000000000000000e+00" cType="1" res="5.9985839761793613e-03" rms="2.7315205335617065e-01" purity="3.9224326610565186e-01" nType="-99"/>
          </Node>
          <Node pos="r" depth="2" NCoef="0" IVar="9" Cut="-1.4663896560668945e+00" cType="1" res="2.0153369405306876e-04" rms="2.4088038504123688e-01" purity="8.0337661504745483e-01" nType="0">
            <Node pos="l" depth="3" NCoef="0" IVar="-1" Cut="0.0000000000000000e+00" cType="1" res="1.8517818301916122e-02" rms="3.0472168326377869e-01" purity="6.6261136531829834e-01" nType="-99"/>
            <Node pos="r" depth="3" NCoef="0" IVar="-1" Cut="0.0000000000000000e+00" cType="1" res="-1.8134176498278975e-03" rms="2.3557755351066589e-01" purity="8.1349313259124756e-01" nType="-99"/>
          </Node>
        </Node>
      </Node>
    </BinaryTree>
    <BinaryTree type="DecisionTree" boostWeight="1.0000000000000000e+00" itree="542">
      <Node pos="s" depth="0" NCoef="0" IVar="7" Cut="1.4655649662017822e+00" cType="1" res="6.1340577667579055e-04" rms="2.4252524971961975e-01" purity="5.0645262002944946e-01" nType="0">
        <Node pos="l" depth="1" NCoef="0" IVar="7" Cut="8.5621780157089233e-01" cType="1" res="-3.3094556420110166e-04" rms="2.4458588659763336e-01" purity="5.3145956993103027e-01" nType="0">
          <Node pos="l" depth="2" NCoef="0" IVar="7" Cut="-1.5811001062393188e+00" cType="1" res="9.1002165572717786e-04" rms="2.4233140051364899e-01" purity="5.4615181684494019e-01" nType="0">
            <Node pos="l" depth="3" NCoef="0" IVar="-1" Cut="0.0000000000000000e+00" cType="1" res="-2.9637340456247330e-02" rms="1.9188542664051056e-01" purity="1.0042046010494232e-01" nType="-99"/>
            <Node pos="r" depth="3" NCoef="0" IVar="-1" Cut="0.0000000000000000e+00" cType="1" res="3.0348310247063637e-03" rms="2.4570453166961670e-01" purity="5.7993048429489136e-01" nType="-99"/>
          </Node>
          <Node pos="r" depth="2" NCoef="0" IVar="3" Cut="3.0434191894531250e+02" cType="1" res="-9.2143677175045013e-03" rms="2.5998175144195557e-01" purity="4.2628562450408936e-01" nType="0">
            <Node pos="l" depth="3" NCoef="0" IVar="-1" Cut="0.0000000000000000e+00" cType="1" res="-3.2653875648975372e-02" rms="2.4112114310264587e-01" purity="2.1486042439937592e-01" nType="-99"/>
            <Node pos="r" depth="3" NCoef="0" IVar="-1" Cut="0.0000000000000000e+00" cType="1" res="5.9672999195754528e-03" rms="2.7843183279037476e-01" purity="6.5634399652481079e-01" nType="-99"/>
          </Node>
        </Node>
        <Node pos="r" depth="1" NCoef="0" IVar="1" Cut="2.9292009770870209e-02" cType="1" res="1.4083476737141609e-02" rms="2.1049205958843231e-01" purity="1.4975838363170624e-01" nType="0">
          <Node pos="l" depth="2" NCoef="0" IVar="-1" Cut="0.0000000000000000e+00" cType="1" res="2.1927847992628813e-03" rms="1.4827324450016022e-01" purity="4.8159465193748474e-02" nType="-99"/>
          <Node pos="r" depth="2" NCoef="0" IVar="-1" Cut="0.0000000000000000e+00" cType="1" res="4.7548595815896988e-02" rms="2.8046122193336487e-01" purity="3.0949580669403076e-01" nType="-99"/>
        </Node>
      </Node>
    </BinaryTree>
    <BinaryTree type="DecisionTree" boostWeight="1.0000000000000000e+00" itree="543">
      <Node pos="s" depth="0" NCoef="0" IVar="9" Cut="1.9996377229690552e+00" cType="1" res="-5.8718759100884199e-04" rms="2.4358642101287842e-01" purity="5.0416344404220581e-01" nType="0">
        <Node pos="l" depth="1" NCoef="0" IVar="6" Cut="-7.9348534345626831e-01" cType="1" res="1.9127481209579855e-04" rms="2.4322608113288879e-01" purity="5.1689291000366211e-01" nType="0">
          <Node pos="l" depth="2" NCoef="0" IVar="1" Cut="6.9836109876632690e-02" cType="1" res="8.6866570636630058e-03" rms="2.4444477260112762e-01" purity="2.9848507046699524e-01" nType="0">
            <Node pos="l" depth="3" NCoef="0" IVar="-1" Cut="0.0000000000000000e+00" cType="1" res="5.2188136614859104e-03" rms="2.2446627914905548e-01" purity="1.6779080033302307e-01" nType="-99"/>
            <Node pos="r" depth="3" NCoef="0" IVar="-1" Cut="0.0000000000000000e+00" cType="1" res="3.2745853066444397e-02" rms="2.9712435603141785e-01" purity="7.0284593105316162e-01" nType="-99"/>
          </Node>
          <Node pos="r" depth="2" NCoef="0" IVar="9" Cut="-1.6563782691955566e+00" cType="1" res="-1.5220240456983447e-03" rms="2.4294357001781464e-01" purity="5.6094014644622803e-01" nType="0">
            <Node pos="l" depth="3" NCoef="0" IVar="-1" Cut="0.0000000000000000e+00" cType="1" res="-1.8309000879526138e-02" rms="2.7542021870613098e-01" purity="3.2105290889739990e-01" nType="-99"/>
            <Node pos="r" depth="3" NCoef="0" IVar="-1" Cut="0.0000000000000000e+00" cType="1" res="-9.7940827254205942e-04" rms="2.4038845300674438e-01" purity="5.7835179567337036e-01" nType="-99"/>
          </Node>
        </Node>
        <Node pos="r" depth="1" NCoef="0" IVar="-1" Cut="0.0000000000000000e+00" cType="1" res="-3.4591376781463623e-02" rms="2.5233379006385803e-01" purity="1.5509963035583496e-01" nType="-99"/>
      </Node>
    </BinaryTree>
    <BinaryTree type="DecisionTree" boostWeight="1.0000000000000000e+00" itree="544">
      <Node pos="s" depth="0" NCoef="0" IVar="9" Cut="9.3331712484359741e-01" cType="1" res="-2.6899974909611046e-04" rms="2.4531531333923340e-01" purity="4.9497428536415100e-01" nType="0">
        <Node pos="l" depth="1" NCoef="0" IVar="7" Cut="1.4665541648864746e+00" cType="1" res="1.6255291411653161e-03" rms="2.4326811730861664e-01" purity="5.2076101303100586e-01" nType="0">
          <Node pos="l" depth="2" NCoef="0" IVar="3" Cut="2.6667944335937500e+02" cType="1" res="2.5529973208904266e-03" rms="2.4564506113529205e-01" purity="5.4418367147445679e-01" nType="0">
            <Node pos="l" depth="3" NCoef="0" IVar="-1" Cut="0.0000000000000000e+00" cType="1" res="1.4759433455765247e-02" rms="2.5925156474113464e-01" purity="1.9798906147480011e-01" nType="-99"/>
            <Node pos="r" depth="3" NCoef="0" IVar="-1" Cut="0.0000000000000000e+00" cType="1" res="-5.6819902965798974e-05" rms="2.3961533606052399e-01" purity="6.9049781560897827e-01" nType="-99"/>
          </Node>
          <Node pos="r" depth="2" NCoef="0" IVar="-1" Cut="0.0000000000000000e+00" cType="1" res="-3.3880122005939484e-02" rms="1.9910383224487305e-01" purity="1.3205216825008392e-01" nType="-99"/>
        </Node>
        <Node pos="r" depth="1" NCoef="0" IVar="1" Cut="5.4528333246707916e-02" cType="1" res="-7.6981992460787296e-03" rms="2.5304663181304932e-01" purity="3.9385387301445007e-01" nType="0">
          <Node pos="l" depth="2" NCoef="0" IVar="8" Cut="-3.9801359176635742e-01" cType="1" res="9.3060691142454743e-04" rms="2.2364121675491333e-01" purity="1.7285841703414917e-01" nType="0">
            <Node pos="l" depth="3" NCoef="0" IVar="-1" Cut="0.0000000000000000e+00" cType="1" res="2.3445924744009972e-02" rms="2.1482335031032562e-01" purity="1.5846413373947144e-01" nType="-99"/>
            <Node pos="r" depth="3" NCoef="0" IVar="-1" Cut="0.0000000000000000e+00" cType="1" res="-8.6914030835032463e-03" rms="2.2816900908946991e-01" purity="1.8083602190017700e-01" nType="-99"/>
          </Node>
          <Node pos="r" depth="2" NCoef="0" IVar="7" Cut="3.3343294262886047e-01" cType="1" res="-1.6240637749433517e-02" rms="2.7885985374450684e-01" purity="6.1263740062713623e-01" nType="0">
            <Node pos="l" depth="3" NCoef="0" IVar="-1" Cut="0.0000000000000000e+00" cType="1" res="-3.0891790520399809e-03" rms="2.7692168951034546e-01" purity="6.6926580667495728e-01" nType="-99"/>
            <Node pos="r" depth="3" NCoef="0" IVar="-1" Cut="0.0000000000000000e+00" cType="1" res="-4.7337189316749573e-02" rms="2.8050953149795532e-01" purity="5.2195024490356445e-01" nType="-99"/>
          </Node>
        </Node>
      </Node>
    </BinaryTree>
    <BinaryTree type="DecisionTree" boostWeight="1.0000000000000000e+00" itree="545">
      <Node pos="s" depth="0" NCoef="0" IVar="2" Cut="5.6537268066406250e+02" cType="1" res="1.2003910960629582e-03" rms="2.4245983362197876e-01" purity="5.0072896480560303e-01" nType="0">
        <Node pos="l" depth="1" NCoef="0" IVar="0" Cut="1.6551341552734375e+03" cType="1" res="-1.6396669670939445e-03" rms="2.4816098809242249e-01" purity="4.0188860893249512e-01" nType="0">
          <Node pos="l" depth="2" NCoef="0" IVar="1" Cut="8.8128097355365753e-02" cType="1" res="4.7716060653328896e-03" rms="1.8260115385055542e-01" purity="4.1220653802156448e-02" nType="0">
            <Node pos="l" depth="3" NCoef="0" IVar="-1" Cut="0.0000000000000000e+00" cType="1" res="1.5912526287138462e-03" rms="1.4773978292942047e-01" purity="2.5254482403397560e-02" nType="-99"/>
            <Node pos="r" depth="3" NCoef="0" IVar="-1" Cut="0.0000000000000000e+00" cType="1" res="3.3950962126255035e-02" rms="2.8424701094627380e-01" purity="1.0758905112743378e-01" nType="-99"/>
          </Node>
          <Node pos="r" depth="2" NCoef="0" IVar="3" Cut="2.5575892639160156e+02" cType="1" res="-6.0494593344628811e-03" rms="2.8453582525253296e-01" purity="6.4996272325515747e-01" nType="0">
            <Node pos="l" depth="3" NCoef="0" IVar="-1" Cut="0.0000000000000000e+00" cType="1" res="-2.3906571790575981e-02" rms="3.3707767724990845e-01" purity="3.9044633507728577e-01" nType="-99"/>
            <Node pos="r" depth="3" NCoef="0" IVar="-1" Cut="0.0000000000000000e+00" cType="1" res="-2.0784381777048111e-03" rms="2.7255165576934814e-01" purity="7.0206803083419800e-01" nType="-99"/>
          </Node>
        </Node>
        <Node pos="r" depth="1" NCoef="0" IVar="0" Cut="2.4654160156250000e+03" cType="1" res="6.0139610432088375e-03" rms="2.3239868879318237e-01" purity="6.6825187206268311e-01" nType="0">
          <Node pos="l" depth="2" NCoef="0" IVar="0" Cut="1.9075104980468750e+03" cType="1" res="1.7063427716493607e-02" rms="2.7427583932876587e-01" purity="2.7600368857383728e-01" nType="0">
            <Node pos="l" depth="3" NCoef="0" IVar="-1" Cut="0.0000000000000000e+00" cType="1" res="-1.4114201068878174e-02" rms="1.2954169511795044e-01" purity="2.0637296140193939e-02" nType="-99"/>
            <Node pos="r" depth="3" NCoef="0" IVar="-1" Cut="0.0000000000000000e+00" cType="1" res="2.7884168550372124e-02" rms="3.4991022944450378e-01" purity="4.8486012220382690e-01" nType="-99"/>
          </Node>
          <Node pos="r" depth="2" NCoef="0" IVar="6" Cut="-5.3325110673904419e-01" cType="1" res="-1.3278954429551959e-03" rms="1.9943843781948090e-01" purity="9.2888247966766357e-01" nType="0">
            <Node pos="l" depth="3" NCoef="0" IVar="-1" Cut="0.0000000000000000e+00" cType="1" res="-2.8775529935956001e-02" rms="2.5659248232841492e-01" purity="8.6828333139419556e-01" nType="-99"/>
            <Node pos="r" depth="3" NCoef="0" IVar="-1" Cut="0.0000000000000000e+00" cType="1" res="4.6185739338397980e-03" rms="1.8598280847072601e-01" purity="9.4080674648284912e-01" nType="-99"/>
          </Node>
        </Node>
      </Node>
    </BinaryTree>
    <BinaryTree type="DecisionTree" boostWeight="1.0000000000000000e+00" itree="546">
      <Node pos="s" depth="0" NCoef="0" IVar="6" Cut="1.0041229724884033e+00" cType="1" res="-1.3217175146564841e-03" rms="2.3846958577632904e-01" purity="5.0010097026824951e-01" nType="0">
        <Node pos="l" depth="1" NCoef="0" IVar="8" Cut="9.3360662460327148e-01" cType="1" res="2.7709192363545299e-04" rms="2.4252814054489136e-01" purity="5.4396754503250122e-01" nType="0">
          <Node pos="l" depth="2" NCoef="0" IVar="7" Cut="-1.3320507109165192e-01" cType="1" res="1.9804821349680424e-03" rms="2.3967571556568146e-01" purity="5.7495373487472534e-01" nType="0">
            <Node pos="l" depth="3" NCoef="0" IVar="-1" Cut="0.0000000000000000e+00" cType="1" res="1.1762186884880066e-02" rms="2.3914624750614166e-01" purity="5.6814092397689819e-01" nType="-99"/>
            <Node pos="r" depth="3" NCoef="0" IVar="-1" Cut="0.0000000000000000e+00" cType="1" res="-3.5423475783318281e-03" rms="2.4003870785236359e-01" purity="5.8063054084777832e-01" nType="-99"/>
          </Node>
          <Node pos="r" depth="2" NCoef="0" IVar="3" Cut="3.3029727172851562e+02" cType="1" res="-7.8930743038654327e-03" rms="2.5560995936393738e-01" purity="3.9534473419189453e-01" nType="0">
            <Node pos="l" depth="3" NCoef="0" IVar="-1" Cut="0.0000000000000000e+00" cType="1" res="-2.6598913595080376e-02" rms="2.3933243751525879e-01" purity="2.2442816197872162e-01" nType="-99"/>
            <Node pos="r" depth="3" NCoef="0" IVar="-1" Cut="0.0000000000000000e+00" cType="1" res="1.1424686759710312e-02" rms="2.7890816330909729e-01" purity="6.6849446296691895e-01" nType="-99"/>
          </Node>
        </Node>
        <Node pos="r" depth="1" NCoef="0" IVar="5" Cut="1.5662593078613281e+02" cType="1" res="-1.2742625549435616e-02" rms="2.0681889355182648e-01" purity="1.8674568831920624e-01" nType="0">
          <Node pos="l" depth="2" NCoef="0" IVar="3" Cut="2.8921774291992188e+02" cType="1" res="-2.1082768216729164e-03" rms="1.7661845684051514e-01" purity="6.1750277876853943e-02" nType="0">
            <Node pos="l" depth="3" NCoef="0" IVar="-1" Cut="0.0000000000000000e+00" cType="1" res="-3.8598030805587769e-02" rms="1.3629253208637238e-01" purity="2.9929507523775101e-02" nType="-99"/>
            <Node pos="r" depth="3" NCoef="0" IVar="-1" Cut="0.0000000000000000e+00" cType="1" res="2.0225660875439644e-02" rms="2.3175744712352753e-01" purity="1.1902596801519394e-01" nType="-99"/>
          </Node>
          <Node pos="r" depth="2" NCoef="0" IVar="-1" Cut="0.0000000000000000e+00" cType="1" res="-4.4048313051462173e-02" rms="2.5434017181396484e-01" purity="4.3031063675880432e-01" nType="-99"/>
        </Node>
      </Node>
    </BinaryTree>
    <BinaryTree type="DecisionTree" boostWeight="1.0000000000000000e+00" itree="547">
      <Node pos="s" depth="0" NCoef="0" IVar="5" Cut="1.1815167236328125e+02" cType="1" res="-1.0422490304335952e-03" rms="2.3764763772487640e-01" purity="4.9309149384498596e-01" nType="0">
        <Node pos="l" depth="1" NCoef="0" IVar="1" Cut="9.5104582607746124e-02" cType="1" res="-1.1033369228243828e-02" rms="2.0495353639125824e-01" purity="9.0680681169033051e-02" nType="0">
          <Node pos="l" depth="2" NCoef="0" IVar="1" Cut="4.5377887785434723e-02" cType="1" res="-6.4377146773040295e-03" rms="1.8627649545669556e-01" purity="7.0583313703536987e-02" nType="0">
            <Node pos="l" depth="3" NCoef="0" IVar="-1" Cut="0.0000000000000000e+00" cType="1" res="-5.8940825983881950e-03" rms="1.5857101976871490e-01" purity="5.3072545677423477e-02" nType="-99"/>
            <Node pos="r" depth="3" NCoef="0" IVar="-1" Cut="0.0000000000000000e+00" cType="1" res="-2.8739767149090767e-02" rms="2.4460615217685699e-01" purity="1.1704589426517487e-01" nType="-99"/>
          </Node>
          <Node pos="r" depth="2" NCoef="0" IVar="-1" Cut="0.0000000000000000e+00" cType="1" res="-4.5493941754102707e-02" rms="3.0565488338470459e-01" purity="2.3554110527038574e-01" nType="-99"/>
        </Node>
        <Node pos="r" depth="1" NCoef="0" IVar="8" Cut="1.4660181999206543e+00" cType="1" res="2.4956411216408014e-03" rms="2.4809789657592773e-01" purity="6.3558650016784668e-01" nType="0">
          <Node pos="l" depth="2" NCoef="0" IVar="8" Cut="1.0596482753753662e+00" cType="1" res="4.0496666915714741e-03" rms="2.4559822678565979e-01" purity="6.5471571683883667e-01" nType="0">
            <Node pos="l" depth="3" NCoef="0" IVar="-1" Cut="0.0000000000000000e+00" cType="1" res="3.7929548416286707e-03" rms="2.4368298053741455e-01" purity="6.5841448307037354e-01" nType="-99"/>
            <Node pos="r" depth="3" NCoef="0" IVar="-1" Cut="0.0000000000000000e+00" cType="1" res="3.1462870538234711e-02" rms="2.6624831557273865e-01" purity="6.1131697893142700e-01" nType="-99"/>
          </Node>
          <Node pos="r" depth="2" NCoef="0" IVar="-1" Cut="0.0000000000000000e+00" cType="1" res="-2.6637434959411621e-02" rms="2.8402870893478394e-01" purity="3.2900059223175049e-01" nType="-99"/>
        </Node>
      </Node>
    </BinaryTree>
    <BinaryTree type="DecisionTree" boostWeight="1.0000000000000000e+00" itree="548">
      <Node pos="s" depth="0" NCoef="0" IVar="9" Cut="-1.7324141263961792e+00" cType="1" res="1.0562766110524535e-03" rms="2.3990975320339203e-01" purity="5.0028836727142334e-01" nType="0">
        <Node pos="l" depth="1" NCoef="0" IVar="9" Cut="-2.0370965003967285e+00" cType="1" res="-1.2944950722157955e-02" rms="2.3712310194969177e-01" purity="2.2932073473930359e-01" nType="0">
          <Node pos="l" depth="2" NCoef="0" IVar="-1" Cut="0.0000000000000000e+00" cType="1" res="-1.0086610913276672e-02" rms="2.1097910404205322e-01" purity="1.8749332427978516e-01" nType="-99"/>
          <Node pos="r" depth="2" NCoef="0" IVar="-1" Cut="0.0000000000000000e+00" cType="1" res="-2.8898397460579872e-02" rms="2.6676356792449951e-01" purity="2.8316205739974976e-01" nType="-99"/>
        </Node>
        <Node pos="r" depth="1" NCoef="0" IVar="9" Cut="-1.3006737232208252e+00" cType="1" res="1.9348515197634697e-03" rms="2.4005630612373352e-01" purity="5.1729154586791992e-01" nType="0">
          <Node pos="l" depth="2" NCoef="0" IVar="7" Cut="-1.3283002376556396e-01" cType="1" res="1.2451711110770702e-02" rms="2.6934939622879028e-01" purity="4.9542212486267090e-01" nType="0">
            <Node pos="l" depth="3" NCoef="0" IVar="-1" Cut="0.0000000000000000e+00" cType="1" res="4.1327338665723801e-02" rms="2.8245636820793152e-01" purity="4.8764890432357788e-01" nType="-99"/>
            <Node pos="r" depth="3" NCoef="0" IVar="-1" Cut="0.0000000000000000e+00" cType="1" res="-1.2074698694050312e-02" rms="2.5308096408843994e-01" purity="5.0357019901275635e-01" nType="-99"/>
          </Node>
          <Node pos="r" depth="2" NCoef="0" IVar="2" Cut="3.2210559082031250e+02" cType="1" res="1.1522012064233422e-03" rms="2.3771350085735321e-01" purity="5.1891905069351196e-01" nType="0">
            <Node pos="l" depth="3" NCoef="0" IVar="-1" Cut="0.0000000000000000e+00" cType="1" res="-1.2682460248470306e-02" rms="2.4265849590301514e-01" purity="1.8862125277519226e-01" nType="-99"/>
            <Node pos="r" depth="3" NCoef="0" IVar="-1" Cut="0.0000000000000000e+00" cType="1" res="3.9378376677632332e-03" rms="2.3712743818759918e-01" purity="5.5592674016952515e-01" nType="-99"/>
          </Node>
        </Node>
      </Node>
    </BinaryTree>
    <BinaryTree type="DecisionTree" boostWeight="1.0000000000000000e+00" itree="549">
      <Node pos="s" depth="0" NCoef="0" IVar="5" Cut="1.6413632202148438e+02" cType="1" res="-8.2075491081923246e-04" rms="2.4187381565570831e-01" purity="4.9748265743255615e-01" nType="0">
        <Node pos="l" depth="1" NCoef="0" IVar="1" Cut="1.1406254768371582e-01" cType="1" res="3.6471181083470583e-03" rms="2.4982158839702606e-01" purity="2.1761240065097809e-01" nType="0">
          <Node pos="l" depth="2" NCoef="0" IVar="7" Cut="4.0097257494926453e-01" cType="1" res="1.3351285597309470e-03" rms="2.3878009617328644e-01" purity="1.6618131101131439e-01" nType="0">
            <Node pos="l" depth="3" NCoef="0" IVar="-1" Cut="0.0000000000000000e+00" cType="1" res="-4.7667799517512321e-03" rms="2.4094276130199432e-01" purity="1.7563374340534210e-01" nType="-99"/>
            <Node pos="r" depth="3" NCoef="0" IVar="-1" Cut="0.0000000000000000e+00" cType="1" res="1.5755936503410339e-02" rms="2.3493972420692444e-01" purity="1.5033687651157379e-01" nType="-99"/>
          </Node>
          <Node pos="r" depth="2" NCoef="0" IVar="3" Cut="3.0464132690429688e+02" cType="1" res="1.7656262964010239e-02" rms="3.0801248550415039e-01" purity="5.2925115823745728e-01" nType="0">
            <Node pos="l" depth="3" NCoef="0" IVar="-1" Cut="0.0000000000000000e+00" cType="1" res="3.5042248666286469e-02" rms="3.2588735222816467e-01" purity="3.6323517560958862e-01" nType="-99"/>
            <Node pos="r" depth="3" NCoef="0" IVar="-1" Cut="0.0000000000000000e+00" cType="1" res="-1.2423354201018810e-03" rms="2.8587797284126282e-01" purity="7.1205043792724609e-01" nType="-99"/>
          </Node>
        </Node>
        <Node pos="r" depth="1" NCoef="0" IVar="0" Cut="2.1992333984375000e+03" cType="1" res="-5.7267015799880028e-03" rms="2.3273570835590363e-01" purity="8.0479413270950317e-01" nType="0">
          <Node pos="l" depth="2" NCoef="0" IVar="4" Cut="2.3644926452636719e+02" cType="1" res="-1.5693277120590210e-02" rms="3.4287804365158081e-01" purity="4.1205534338951111e-01" nType="0">
            <Node pos="l" depth="3" NCoef="0" IVar="-1" Cut="0.0000000000000000e+00" cType="1" res="-1.4092812780290842e-03" rms="3.2143718004226685e-01" purity="3.4830835461616516e-01" nType="-99"/>
            <Node pos="r" depth="3" NCoef="0" IVar="-1" Cut="0.0000000000000000e+00" cType="1" res="-2.6366688311100006e-02" rms="3.7126854062080383e-01" purity="5.0608879327774048e-01" nType="-99"/>
          </Node>
          <Node pos="r" depth="2" NCoef="0" IVar="7" Cut="3.8524207472801208e-01" cType="1" res="-2.0283043850213289e-03" rms="1.7489741742610931e-01" purity="9.5053166151046753e-01" nType="0">
            <Node pos="l" depth="3" NCoef="0" IVar="-1" Cut="0.0000000000000000e+00" cType="1" res="2.5442962069064379e-03" rms="1.6296528279781342e-01" purity="9.5911896228790283e-01" nType="-99"/>
            <Node pos="r" depth="3" NCoef="0" IVar="-1" Cut="0.0000000000000000e+00" cType="1" res="-2.2324925288558006e-02" rms="2.0110574364662170e-01" purity="9.2940199375152588e-01" nType="-99"/>
          </Node>
        </Node>
      </Node>
    </BinaryTree>
    <BinaryTree type="DecisionTree" boostWeight="1.0000000000000000e+00" itree="550">
      <Node pos="s" depth="0" NCoef="0" IVar="4" Cut="1.9560375976562500e+02" cType="1" res="-3.8265082985162735e-03" rms="2.4285791814327240e-01" purity="4.9340033531188965e-01" nType="0">
        <Node pos="l" depth="1" NCoef="0" IVar="0" Cut="2.0648715820312500e+03" cType="1" res="4.4162132439851121e-07" rms="2.3514465987682343e-01" purity="1.5001410245895386e-01" nType="0">
          <Node pos="l" depth="2" NCoef="0" IVar="6" Cut="1.0035191774368286e+00" cType="1" res="2.2795244585722685e-03" rms="2.1425524353981018e-01" purity="7.8638345003128052e-02" nType="0">
            <Node pos="l" depth="3" NCoef="0" IVar="-1" Cut="0.0000000000000000e+00" cType="1" res="1.0090711526572704e-02" rms="2.2882817685604095e-01" purity="9.1886490583419800e-02" nType="-99"/>
            <Node pos="r" depth="3" NCoef="0" IVar="-1" Cut="0.0000000000000000e+00" cType="1" res="-4.2545963078737259e-02" rms="1.3918428122997284e-01" purity="2.4566646665334702e-02" nType="-99"/>
          </Node>
          <Node pos="r" depth="2" NCoef="0" IVar="1" Cut="5.1210194826126099e-02" cType="1" res="-1.3898256234824657e-02" rms="3.3513858914375305e-01" purity="5.8529013395309448e-01" nType="0">
            <Node pos="l" depth="3" NCoef="0" IVar="-1" Cut="0.0000000000000000e+00" cType="1" res="-2.1178415045142174e-02" rms="3.5133537650108337e-01" purity="3.5319608449935913e-01" nType="-99"/>
            <Node pos="r" depth="3" NCoef="0" IVar="-1" Cut="0.0000000000000000e+00" cType="1" res="1.5737996436655521e-03" rms="3.1594750285148621e-01" purity="8.3647024631500244e-01" nType="-99"/>
          </Node>
        </Node>
        <Node pos="r" depth="1" NCoef="0" IVar="3" Cut="3.6251364135742188e+02" cType="1" res="-6.1851553618907928e-03" rms="2.4746261537075043e-01" purity="7.0503801107406616e-01" nType="0">
          <Node pos="l" depth="2" NCoef="0" IVar="1" Cut="1.2699259817600250e-01" cType="1" res="-1.1138140223920345e-02" rms="2.7400648593902588e-01" purity="5.2300828695297241e-01" nType="0">
            <Node pos="l" depth="3" NCoef="0" IVar="-1" Cut="0.0000000000000000e+00" cType="1" res="-2.1217476576566696e-02" rms="2.8430771827697754e-01" purity="4.0177497267723083e-01" nType="-99"/>
            <Node pos="r" depth="3" NCoef="0" IVar="-1" Cut="0.0000000000000000e+00" cType="1" res="8.7404698133468628e-03" rms="2.4501587450504303e-01" purity="8.3203649520874023e-01" nType="-99"/>
          </Node>
          <Node pos="r" depth="2" NCoef="0" IVar="2" Cut="5.7165264892578125e+02" cType="1" res="-1.5715644694864750e-03" rms="2.1977323293685913e-01" purity="8.7459462881088257e-01" nType="0">
            <Node pos="l" depth="3" NCoef="0" IVar="-1" Cut="0.0000000000000000e+00" cType="1" res="1.0957620106637478e-02" rms="2.3457925021648407e-01" purity="8.3983284235000610e-01" nType="-99"/>
            <Node pos="r" depth="3" NCoef="0" IVar="-1" Cut="0.0000000000000000e+00" cType="1" res="-1.5394452027976513e-02" rms="2.0881865918636322e-01" purity="8.9851599931716919e-01" nType="-99"/>
          </Node>
        </Node>
      </Node>
    </BinaryTree>
    <BinaryTree type="DecisionTree" boostWeight="1.0000000000000000e+00" itree="551">
      <Node pos="s" depth="0" NCoef="0" IVar="2" Cut="3.1228076171875000e+02" cType="1" res="1.0799018200486898e-03" rms="2.4252474308013916e-01" purity="5.0149166584014893e-01" nType="0">
        <Node pos="l" depth="1" NCoef="0" IVar="3" Cut="2.3317626953125000e+02" cType="1" res="-8.5716415196657181e-03" rms="2.5910925865173340e-01" purity="1.8120434880256653e-01" nType="0">
          <Node pos="l" depth="2" NCoef="0" IVar="-1" Cut="0.0000000000000000e+00" cType="1" res="-2.3612983524799347e-02" rms="2.5147917866706848e-01" purity="1.3292576372623444e-01" nType="-99"/>
          <Node pos="r" depth="2" NCoef="0" IVar="-1" Cut="0.0000000000000000e+00" cType="1" res="2.7739696670323610e-03" rms="2.6607218384742737e-01" purity="2.2922269999980927e-01" nType="-99"/>
        </Node>
        <Node pos="r" depth="1" NCoef="0" IVar="2" Cut="5.2572656250000000e+02" cType="1" res="1.9766730256378651e-03" rms="2.4090620875358582e-01" purity="5.3125107288360596e-01" nType="0">
          <Node pos="l" depth="2" NCoef="0" IVar="6" Cut="-1.3002892732620239e+00" cType="1" res="5.8049312792718410e-03" rms="2.5226211547851562e-01" purity="4.1349300742149353e-01" nType="0">
            <Node pos="l" depth="3" NCoef="0" IVar="-1" Cut="0.0000000000000000e+00" cType="1" res="-2.7638804167509079e-02" rms="1.5137104690074921e-01" purity="7.9396463930606842e-02" nType="-99"/>
            <Node pos="r" depth="3" NCoef="0" IVar="-1" Cut="0.0000000000000000e+00" cType="1" res="1.1165577918291092e-02" rms="2.6093909144401550e-01" purity="4.5024690032005310e-01" nType="-99"/>
          </Node>
          <Node pos="r" depth="2" NCoef="0" IVar="9" Cut="-1.7324783802032471e+00" cType="1" res="-2.0142011344432831e-03" rms="2.2839948534965515e-01" purity="6.5401124954223633e-01" nType="0">
            <Node pos="l" depth="3" NCoef="0" IVar="-1" Cut="0.0000000000000000e+00" cType="1" res="-3.9885800331830978e-02" rms="2.7603456377983093e-01" purity="2.7617278695106506e-01" nType="-99"/>
            <Node pos="r" depth="3" NCoef="0" IVar="-1" Cut="0.0000000000000000e+00" cType="1" res="-2.0440589287318289e-04" rms="2.2479644417762756e-01" purity="6.7876160144805908e-01" nType="-99"/>
          </Node>
        </Node>
      </Node>
    </BinaryTree>
    <BinaryTree type="DecisionTree" boostWeight="1.0000000000000000e+00" itree="552">
      <Node pos="s" depth="0" NCoef="0" IVar="2" Cut="9.3068609619140625e+02" cType="1" res="1.0349586373195052e-03" rms="2.3877573013305664e-01" purity="4.9521252512931824e-01" nType="0">
        <Node pos="l" depth="1" NCoef="0" IVar="9" Cut="1.1995722055435181e+00" cType="1" res="1.8843270372599363e-03" rms="2.3696261644363403e-01" purity="4.8542159795761108e-01" nType="0">
          <Node pos="l" depth="2" NCoef="0" IVar="7" Cut="-9.3096834421157837e-01" cType="1" res="6.7060679430142045e-04" rms="2.3455417156219482e-01" purity="5.0819367170333862e-01" nType="0">
            <Node pos="l" depth="3" NCoef="0" IVar="-1" Cut="0.0000000000000000e+00" cType="1" res="1.6678968444466591e-02" rms="2.3170866072177887e-01" purity="3.1293079257011414e-01" nType="-99"/>
            <Node pos="r" depth="3" NCoef="0" IVar="-1" Cut="0.0000000000000000e+00" cType="1" res="-1.9457545131444931e-03" rms="2.3507158458232880e-01" purity="5.4683971405029297e-01" nType="-99"/>
          </Node>
          <Node pos="r" depth="2" NCoef="0" IVar="8" Cut="-3.9887502789497375e-01" cType="1" res="9.1069750487804413e-03" rms="2.5069555640220642e-01" purity="3.4990847110748291e-01" nType="0">
            <Node pos="l" depth="3" NCoef="0" IVar="-1" Cut="0.0000000000000000e+00" cType="1" res="-1.1494778096675873e-02" rms="2.4418836832046509e-01" purity="2.9716086387634277e-01" nType="-99"/>
            <Node pos="r" depth="3" NCoef="0" IVar="-1" Cut="0.0000000000000000e+00" cType="1" res="2.7420153841376305e-02" rms="2.5337967276573181e-01" purity="3.7528529763221741e-01" nType="-99"/>
          </Node>
        </Node>
        <Node pos="r" depth="1" NCoef="0" IVar="-1" Cut="0.0000000000000000e+00" cType="1" res="-2.6837097480893135e-02" rms="2.8250351548194885e-01" purity="7.6016771793365479e-01" nType="-99"/>
      </Node>
    </BinaryTree>
    <BinaryTree type="DecisionTree" boostWeight="1.0000000000000000e+00" itree="553">
      <Node pos="s" depth="0" NCoef="0" IVar="2" Cut="4.2435952758789062e+02" cType="1" res="2.6977933011949062e-03" rms="2.4811013042926788e-01" purity="5.0746142864227295e-01" nType="0">
        <Node pos="l" depth="1" NCoef="0" IVar="2" Cut="2.8561209106445312e+02" cType="1" res="1.3930498622357845e-02" rms="2.7613365650177002e-01" purity="3.1510439515113831e-01" nType="0">
          <Node pos="l" depth="2" NCoef="0" IVar="-1" Cut="0.0000000000000000e+00" cType="1" res="-6.2476038001477718e-03" rms="2.5528568029403687e-01" purity="1.6011710464954376e-01" nType="-99"/>
          <Node pos="r" depth="2" NCoef="0" IVar="2" Cut="3.6489727783203125e+02" cType="1" res="1.7582148313522339e-02" rms="2.7993401885032654e-01" purity="3.4579575061798096e-01" nType="0">
            <Node pos="l" depth="3" NCoef="0" IVar="-1" Cut="0.0000000000000000e+00" cType="1" res="4.6116162091493607e-02" rms="2.8534367680549622e-01" purity="3.1263723969459534e-01" nType="-99"/>
            <Node pos="r" depth="3" NCoef="0" IVar="-1" Cut="0.0000000000000000e+00" cType="1" res="5.8068521320819855e-03" rms="2.7392438054084778e-01" purity="3.7788584828376770e-01" nType="-99"/>
          </Node>
        </Node>
        <Node pos="r" depth="1" NCoef="0" IVar="6" Cut="-2.7337613701820374e-01" cType="1" res="-2.3052431643009186e-03" rms="2.3437997698783875e-01" purity="5.9313714504241943e-01" nType="0">
          <Node pos="l" depth="2" NCoef="0" IVar="9" Cut="9.3125993013381958e-01" cType="1" res="5.0632981583476067e-03" rms="2.4004650115966797e-01" purity="5.5185574293136597e-01" nType="0">
            <Node pos="l" depth="3" NCoef="0" IVar="-1" Cut="0.0000000000000000e+00" cType="1" res="3.4348606131970882e-03" rms="2.3353813588619232e-01" purity="5.7447946071624756e-01" nType="-99"/>
            <Node pos="r" depth="3" NCoef="0" IVar="-1" Cut="0.0000000000000000e+00" cType="1" res="2.8912877663969994e-02" rms="2.6620566844940186e-01" purity="4.5293641090393066e-01" nType="-99"/>
          </Node>
          <Node pos="r" depth="2" NCoef="0" IVar="9" Cut="-1.4662765264511108e+00" cType="1" res="-6.4390692859888077e-03" rms="2.3103730380535126e-01" purity="6.1629641056060791e-01" nType="0">
            <Node pos="l" depth="3" NCoef="0" IVar="-1" Cut="0.0000000000000000e+00" cType="1" res="1.6837593168020248e-02" rms="2.7968651056289673e-01" purity="4.2846909165382385e-01" nType="-99"/>
            <Node pos="r" depth="3" NCoef="0" IVar="-1" Cut="0.0000000000000000e+00" cType="1" res="-1.5580032952129841e-02" rms="2.2591406106948853e-01" purity="6.3368403911590576e-01" nType="-99"/>
          </Node>
        </Node>
      </Node>
    </BinaryTree>
    <BinaryTree type="DecisionTree" boostWeight="1.0000000000000000e+00" itree="554">
      <Node pos="s" depth="0" NCoef="0" IVar="7" Cut="-6.6704159975051880e-01" cType="1" res="-2.0282782497815788e-04" rms="2.4606287479400635e-01" purity="5.0239443778991699e-01" nType="0">
        <Node pos="l" depth="1" NCoef="0" IVar="1" Cut="1.9664168357849121e-02" cType="1" res="-7.5234570540487766e-03" rms="2.4218145012855530e-01" purity="3.7002465128898621e-01" nType="0">
          <Node pos="l" depth="2" NCoef="0" IVar="3" Cut="2.7680743408203125e+02" cType="1" res="6.4249802380800247e-03" rms="1.8345735967159271e-01" purity="7.1015909314155579e-02" nType="0">
            <Node pos="l" depth="3" NCoef="0" IVar="-1" Cut="0.0000000000000000e+00" cType="1" res="9.4644218683242798e-02" rms="1.8079458177089691e-01" purity="5.0501499325037003e-02" nType="-99"/>
            <Node pos="r" depth="3" NCoef="0" IVar="-1" Cut="0.0000000000000000e+00" cType="1" res="-1.3542362488806248e-02" rms="1.8520307540893555e-01" purity="9.0189896523952484e-02" nType="-99"/>
          </Node>
          <Node pos="r" depth="2" NCoef="0" IVar="7" Cut="-1.3751895427703857e+00" cType="1" res="-1.2238930910825729e-02" rms="2.5887033343315125e-01" purity="4.7110894322395325e-01" nType="0">
            <Node pos="l" depth="3" NCoef="0" IVar="-1" Cut="0.0000000000000000e+00" cType="1" res="-3.9666626602411270e-02" rms="2.3883126676082611e-01" purity="2.4472221732139587e-01" nType="-99"/>
            <Node pos="r" depth="3" NCoef="0" IVar="-1" Cut="0.0000000000000000e+00" cType="1" res="-9.1295959427952766e-03" rms="2.6475933194160461e-01" purity="5.4362541437149048e-01" nType="-99"/>
          </Node>
        </Node>
        <Node pos="r" depth="1" NCoef="0" IVar="0" Cut="1.6473271484375000e+03" cType="1" res="2.0602943841367960e-03" rms="2.4720659852027893e-01" purity="5.4331564903259277e-01" nType="0">
          <Node pos="l" depth="2" NCoef="0" IVar="4" Cut="1.7153205871582031e+02" cType="1" res="8.8966405019164085e-03" rms="1.9464576244354248e-01" purity="4.6789966523647308e-02" nType="0">
            <Node pos="l" depth="3" NCoef="0" IVar="-1" Cut="0.0000000000000000e+00" cType="1" res="2.1109909284859896e-03" rms="1.5600717067718506e-01" purity="2.7309644967317581e-02" nType="-99"/>
            <Node pos="r" depth="3" NCoef="0" IVar="-1" Cut="0.0000000000000000e+00" cType="1" res="4.7503765672445297e-02" rms="2.3991426825523376e-01" purity="7.5442306697368622e-02" nType="-99"/>
          </Node>
          <Node pos="r" depth="2" NCoef="0" IVar="4" Cut="1.4380694580078125e+02" cType="1" res="-2.5293917860835791e-04" rms="2.6258015632629395e-01" purity="7.1132642030715942e-01" nType="0">
            <Node pos="l" depth="3" NCoef="0" IVar="-1" Cut="0.0000000000000000e+00" cType="1" res="-3.2818209379911423e-02" rms="2.4170020222663879e-01" purity="1.2452670186758041e-01" nType="-99"/>
            <Node pos="r" depth="3" NCoef="0" IVar="-1" Cut="0.0000000000000000e+00" cType="1" res="2.3754497524350882e-03" rms="2.6414820551872253e-01" purity="7.5998276472091675e-01" nType="-99"/>
          </Node>
        </Node>
      </Node>
    </BinaryTree>
    <BinaryTree type="DecisionTree" boostWeight="1.0000000000000000e+00" itree="555">
      <Node pos="s" depth="0" NCoef="0" IVar="9" Cut="-1.1987149715423584e+00" cType="1" res="-6.4174615545198321e-04" rms="2.4656222760677338e-01" purity="5.0561416149139404e-01" nType="0">
        <Node pos="l" depth="1" NCoef="0" IVar="7" Cut="-4.0953570604324341e-01" cType="1" res="7.1345572359859943e-03" rms="2.7576526999473572e-01" purity="4.0071412920951843e-01" nType="0">
          <Node pos="l" depth="2" NCoef="0" IVar="0" Cut="1.8463635253906250e+03" cType="1" res="1.9176039844751358e-02" rms="2.7628666162490845e-01" purity="3.6456882953643799e-01" nType="0">
            <Node pos="l" depth="3" NCoef="0" IVar="-1" Cut="0.0000000000000000e+00" cType="1" res="6.2111437320709229e-02" rms="2.5036424398422241e-01" purity="9.6695400774478912e-02" nType="-99"/>
            <Node pos="r" depth="3" NCoef="0" IVar="-1" Cut="0.0000000000000000e+00" cType="1" res="7.1535408496856689e-03" rms="3.0468919873237610e-01" purity="6.9316470623016357e-01" nType="-99"/>
          </Node>
          <Node pos="r" depth="2" NCoef="0" IVar="4" Cut="1.8353239440917969e+02" cType="1" res="-1.1571547947824001e-03" rms="2.7509942650794983e-01" purity="4.2560368776321411e-01" nType="0">
            <Node pos="l" depth="3" NCoef="0" IVar="-1" Cut="0.0000000000000000e+00" cType="1" res="-2.9978839680552483e-02" rms="2.2360977530479431e-01" purity="1.2904465198516846e-01" nType="-99"/>
            <Node pos="r" depth="3" NCoef="0" IVar="-1" Cut="0.0000000000000000e+00" cType="1" res="1.0095440782606602e-02" rms="3.0323186516761780e-01" purity="6.1656105518341064e-01" nType="-99"/>
          </Node>
        </Node>
        <Node pos="r" depth="1" NCoef="0" IVar="6" Cut="-1.0705671310424805e+00" cType="1" res="-1.9063453655689955e-03" rms="2.4145585298538208e-01" purity="5.2267324924468994e-01" nType="0">
          <Node pos="l" depth="2" NCoef="0" IVar="4" Cut="2.0725105285644531e+02" cType="1" res="8.2436194643378258e-03" rms="2.2552719712257385e-01" purity="2.1905675530433655e-01" nType="0">
            <Node pos="l" depth="3" NCoef="0" IVar="-1" Cut="0.0000000000000000e+00" cType="1" res="-9.0512614697217941e-03" rms="1.7250238358974457e-01" purity="4.6714913100004196e-02" nType="-99"/>
            <Node pos="r" depth="3" NCoef="0" IVar="-1" Cut="0.0000000000000000e+00" cType="1" res="3.1554266810417175e-02" rms="2.8858545422554016e-01" purity="4.8787164688110352e-01" nType="-99"/>
          </Node>
          <Node pos="r" depth="2" NCoef="0" IVar="9" Cut="1.0860198736190796e+00" cType="1" res="-3.0599045567214489e-03" rms="2.4317334592342377e-01" purity="5.5717968940734863e-01" nType="0">
            <Node pos="l" depth="3" NCoef="0" IVar="-1" Cut="0.0000000000000000e+00" cType="1" res="-8.4500098600983620e-03" rms="2.3773871362209320e-01" purity="5.8916723728179932e-01" nType="-99"/>
            <Node pos="r" depth="3" NCoef="0" IVar="-1" Cut="0.0000000000000000e+00" cType="1" res="6.3567836768925190e-03" rms="2.6447653770446777e-01" purity="4.2396157979965210e-01" nType="-99"/>
          </Node>
        </Node>
      </Node>
    </BinaryTree>
    <BinaryTree type="DecisionTree" boostWeight="1.0000000000000000e+00" itree="556">
      <Node pos="s" depth="0" NCoef="0" IVar="8" Cut="1.1993198394775391e+00" cType="1" res="-1.4649117365479469e-03" rms="2.4241267144680023e-01" purity="4.9963724613189697e-01" nType="0">
        <Node pos="l" depth="1" NCoef="0" IVar="7" Cut="-1.3361231982707977e-01" cType="1" res="-2.1673929586540908e-04" rms="2.4175117909908295e-01" purity="5.2866441011428833e-01" nType="0">
          <Node pos="l" depth="2" NCoef="0" IVar="8" Cut="6.2796008586883545e-01" cType="1" res="-4.4527421705424786e-03" rms="2.4143593013286591e-01" purity="4.9581915140151978e-01" nType="0">
            <Node pos="l" depth="3" NCoef="0" IVar="-1" Cut="0.0000000000000000e+00" cType="1" res="-3.2703888136893511e-03" rms="2.3769773542881012e-01" purity="4.9380439519882202e-01" nType="-99"/>
            <Node pos="r" depth="3" NCoef="0" IVar="-1" Cut="0.0000000000000000e+00" cType="1" res="-2.7176765725016594e-02" rms="2.6070615649223328e-01" purity="5.0696104764938354e-01" nType="-99"/>
          </Node>
          <Node pos="r" depth="2" NCoef="0" IVar="9" Cut="-1.4647731781005859e+00" cType="1" res="3.1963835936039686e-03" rms="2.4195092916488647e-01" purity="5.5512928962707520e-01" nType="0">
            <Node pos="l" depth="3" NCoef="0" IVar="-1" Cut="0.0000000000000000e+00" cType="1" res="-2.2138630971312523e-02" rms="2.8102892637252808e-01" purity="3.5447120666503906e-01" nType="-99"/>
            <Node pos="r" depth="3" NCoef="0" IVar="-1" Cut="0.0000000000000000e+00" cType="1" res="8.5766883566975594e-03" rms="2.3783622682094574e-01" purity="5.7411098480224609e-01" nType="-99"/>
          </Node>
        </Node>
        <Node pos="r" depth="1" NCoef="0" IVar="1" Cut="1.7656557261943817e-02" cType="1" res="-1.0505758225917816e-02" rms="2.4696299433708191e-01" purity="2.8938534855842590e-01" nType="0">
          <Node pos="l" depth="2" NCoef="0" IVar="-1" Cut="0.0000000000000000e+00" cType="1" res="1.6539596021175385e-02" rms="1.6982829570770264e-01" purity="5.9287589043378830e-02" nType="-99"/>
          <Node pos="r" depth="2" NCoef="0" IVar="0" Cut="1.6257019042968750e+03" cType="1" res="-1.5627596527338028e-02" rms="2.6810857653617859e-01" purity="3.6807486414909363e-01" nType="0">
            <Node pos="l" depth="3" NCoef="0" IVar="-1" Cut="0.0000000000000000e+00" cType="1" res="-3.6523102317005396e-03" rms="1.7035867273807526e-01" purity="3.9795901626348495e-02" nType="-99"/>
            <Node pos="r" depth="3" NCoef="0" IVar="-1" Cut="0.0000000000000000e+00" cType="1" res="-2.2911386564373970e-02" rms="3.0632135272026062e-01" purity="5.3743773698806763e-01" nType="-99"/>
          </Node>
        </Node>
      </Node>
    </BinaryTree>
    <BinaryTree type="DecisionTree" boostWeight="1.0000000000000000e+00" itree="557">
      <Node pos="s" depth="0" NCoef="0" IVar="0" Cut="2.1988378906250000e+03" cType="1" res="-2.5294756051152945e-03" rms="2.3456974327564240e-01" purity="5.0121825933456421e-01" nType="0">
        <Node pos="l" depth="1" NCoef="0" IVar="1" Cut="1.3827261328697205e-01" cType="1" res="-8.0123078078031540e-03" rms="2.5601848959922791e-01" purity="1.7162798345088959e-01" nType="0">
          <Node pos="l" depth="2" NCoef="0" IVar="4" Cut="2.6669808959960938e+02" cType="1" res="-4.6203113161027431e-03" rms="2.4137753248214722e-01" purity="1.3299711048603058e-01" nType="0">
            <Node pos="l" depth="3" NCoef="0" IVar="-1" Cut="0.0000000000000000e+00" cType="1" res="-1.2652697041630745e-02" rms="2.3077103495597839e-01" purity="1.1037347465753555e-01" nType="-99"/>
            <Node pos="r" depth="3" NCoef="0" IVar="-1" Cut="0.0000000000000000e+00" cType="1" res="2.0882368087768555e-02" rms="3.4183490276336670e-01" purity="4.0286070108413696e-01" nType="-99"/>
          </Node>
          <Node pos="r" depth="2" NCoef="0" IVar="-1" Cut="0.0000000000000000e+00" cType="1" res="-2.9823001474142075e-02" rms="3.5778057575225830e-01" purity="5.0813186168670654e-01" nType="-99"/>
        </Node>
        <Node pos="r" depth="1" NCoef="0" IVar="9" Cut="1.4666804075241089e+00" cType="1" res="4.3830438517034054e-03" rms="2.0413467288017273e-01" purity="9.1675156354904175e-01" nType="0">
          <Node pos="l" depth="2" NCoef="0" IVar="7" Cut="-9.3114441633224487e-01" cType="1" res="3.1420835293829441e-03" rms="1.9827052950859070e-01" purity="9.2239195108413696e-01" nType="0">
            <Node pos="l" depth="3" NCoef="0" IVar="-1" Cut="0.0000000000000000e+00" cType="1" res="2.8127718716859818e-02" rms="2.4653472006320953e-01" purity="8.4846311807632446e-01" nType="-99"/>
            <Node pos="r" depth="3" NCoef="0" IVar="-1" Cut="0.0000000000000000e+00" cType="1" res="3.5477939527481794e-03" rms="1.9295316934585571e-01" purity="9.2943829298019409e-01" nType="-99"/>
          </Node>
          <Node pos="r" depth="2" NCoef="0" IVar="-1" Cut="0.0000000000000000e+00" cType="1" res="3.0550815165042877e-02" rms="2.8148183226585388e-01" purity="8.2595890760421753e-01" nType="-99"/>
        </Node>
      </Node>
    </BinaryTree>
    <BinaryTree type="DecisionTree" boostWeight="1.0000000000000000e+00" itree="558">
      <Node pos="s" depth="0" NCoef="0" IVar="5" Cut="1.6407609558105469e+02" cType="1" res="-8.3795707905665040e-04" rms="2.4026766419410706e-01" purity="4.9090212583541870e-01" nType="0">
        <Node pos="l" depth="1" NCoef="0" IVar="3" Cut="2.0685711669921875e+02" cType="1" res="3.2592713832855225e-03" rms="2.4698556959629059e-01" purity="2.2248280048370361e-01" nType="0">
          <Node pos="l" depth="2" NCoef="0" IVar="7" Cut="1.3461567461490631e-01" cType="1" res="-8.0274185165762901e-03" rms="1.7435181140899658e-01" purity="6.3260443508625031e-02" nType="0">
            <Node pos="l" depth="3" NCoef="0" IVar="-1" Cut="0.0000000000000000e+00" cType="1" res="-3.7668611854314804e-02" rms="1.6786080598831177e-01" purity="6.0861565172672272e-02" nType="-99"/>
            <Node pos="r" depth="3" NCoef="0" IVar="-1" Cut="0.0000000000000000e+00" cType="1" res="3.6422726698219776e-03" rms="1.8225985765457153e-01" purity="6.6472001373767853e-02" nType="-99"/>
          </Node>
          <Node pos="r" depth="2" NCoef="0" IVar="8" Cut="1.4660290479660034e+00" cType="1" res="6.6705802455544472e-03" rms="2.6495534181594849e-01" purity="2.7060645818710327e-01" nType="0">
            <Node pos="l" depth="3" NCoef="0" IVar="-1" Cut="0.0000000000000000e+00" cType="1" res="6.7516104318201542e-03" rms="2.6497033238410950e-01" purity="2.8215426206588745e-01" nType="-99"/>
            <Node pos="r" depth="3" NCoef="0" IVar="-1" Cut="0.0000000000000000e+00" cType="1" res="4.3740391731262207e-02" rms="2.6413002610206604e-01" purity="1.5991565585136414e-01" nType="-99"/>
          </Node>
        </Node>
        <Node pos="r" depth="1" NCoef="0" IVar="1" Cut="1.0105781257152557e-01" cType="1" res="-5.3697121329605579e-03" rms="2.3252737522125244e-01" purity="7.8778839111328125e-01" nType="0">
          <Node pos="l" depth="2" NCoef="0" IVar="6" Cut="-2.9945138096809387e-01" cType="1" res="-1.2625901028513908e-02" rms="2.6887476444244385e-01" purity="6.5630060434341431e-01" nType="0">
            <Node pos="l" depth="3" NCoef="0" IVar="-1" Cut="0.0000000000000000e+00" cType="1" res="-3.0040197074413300e-02" rms="2.7580758929252625e-01" purity="5.9028768539428711e-01" nType="-99"/>
            <Node pos="r" depth="3" NCoef="0" IVar="-1" Cut="0.0000000000000000e+00" cType="1" res="-8.2956571131944656e-03" rms="2.6452985405921936e-01" purity="6.9475674629211426e-01" nType="-99"/>
          </Node>
          <Node pos="r" depth="2" NCoef="0" IVar="8" Cut="-4.9461099505424500e-01" cType="1" res="2.2677236702293158e-03" rms="1.8647527694702148e-01" purity="9.2618465423583984e-01" nType="0">
            <Node pos="l" depth="3" NCoef="0" IVar="-1" Cut="0.0000000000000000e+00" cType="1" res="-1.5071138739585876e-02" rms="2.0957718789577484e-01" purity="9.0391546487808228e-01" nType="-99"/>
            <Node pos="r" depth="3" NCoef="0" IVar="-1" Cut="0.0000000000000000e+00" cType="1" res="1.5290752053260803e-02" rms="1.7723490297794342e-01" purity="9.3426716327667236e-01" nType="-99"/>
          </Node>
        </Node>
      </Node>
    </BinaryTree>
    <BinaryTree type="DecisionTree" boostWeight="1.0000000000000000e+00" itree="559">
      <Node pos="s" depth="0" NCoef="0" IVar="8" Cut="-6.6693538427352905e-01" cType="1" res="1.3048903783783317e-03" rms="2.4206070601940155e-01" purity="5.0317585468292236e-01" nType="0">
        <Node pos="l" depth="1" NCoef="0" IVar="2" Cut="6.1405700683593750e+02" cType="1" res="7.8417146578431129e-03" rms="2.5040480494499207e-01" purity="3.9941793680191040e-01" nType="0">
          <Node pos="l" depth="2" NCoef="0" IVar="5" Cut="1.6573869323730469e+02" cType="1" res="1.2495405972003937e-02" rms="2.4971993267536163e-01" purity="3.4332731366157532e-01" nType="0">
            <Node pos="l" depth="3" NCoef="0" IVar="-1" Cut="0.0000000000000000e+00" cType="1" res="1.0079109109938145e-02" rms="2.3711140453815460e-01" purity="1.4833252131938934e-01" nType="-99"/>
            <Node pos="r" depth="3" NCoef="0" IVar="-1" Cut="0.0000000000000000e+00" cType="1" res="3.4522652626037598e-02" rms="2.7269303798675537e-01" purity="7.3390573263168335e-01" nType="-99"/>
          </Node>
          <Node pos="r" depth="2" NCoef="0" IVar="6" Cut="-3.7619352340698242e-02" cType="1" res="-7.2592617943882942e-03" rms="2.5202327966690063e-01" purity="5.8142906427383423e-01" nType="0">
            <Node pos="l" depth="3" NCoef="0" IVar="-1" Cut="0.0000000000000000e+00" cType="1" res="1.7212221398949623e-02" rms="2.5241756439208984e-01" purity="6.2933236360549927e-01" nType="-99"/>
            <Node pos="r" depth="3" NCoef="0" IVar="-1" Cut="0.0000000000000000e+00" cType="1" res="-4.6423789113759995e-02" rms="2.4981908500194550e-01" purity="5.2542847394943237e-01" nType="-99"/>
          </Node>
        </Node>
        <Node pos="r" depth="1" NCoef="0" IVar="8" Cut="-1.7179004848003387e-01" cType="1" res="-1.0375306010246277e-03" rms="2.3895625770092010e-01" purity="5.4035675525665283e-01" nType="0">
          <Node pos="l" depth="2" NCoef="0" IVar="7" Cut="6.5934401750564575e-01" cType="1" res="-1.0341878980398178e-02" rms="2.3989531397819519e-01" purity="5.8086168766021729e-01" nType="0">
            <Node pos="l" depth="3" NCoef="0" IVar="-1" Cut="0.0000000000000000e+00" cType="1" res="-3.1015065032988787e-03" rms="2.3375767469406128e-01" purity="6.3629329204559326e-01" nType="-99"/>
            <Node pos="r" depth="3" NCoef="0" IVar="-1" Cut="0.0000000000000000e+00" cType="1" res="-6.0740724205970764e-02" rms="2.5781551003456116e-01" purity="3.8886418938636780e-01" nType="-99"/>
          </Node>
          <Node pos="r" depth="2" NCoef="0" IVar="9" Cut="-1.7324783802032471e+00" cType="1" res="2.0090101752430201e-03" rms="2.3856912553310394e-01" purity="5.2709412574768066e-01" nType="0">
            <Node pos="l" depth="3" NCoef="0" IVar="-1" Cut="0.0000000000000000e+00" cType="1" res="3.9182279258966446e-02" rms="2.8654280304908752e-01" purity="3.1858521699905396e-01" nType="-99"/>
            <Node pos="r" depth="3" NCoef="0" IVar="-1" Cut="0.0000000000000000e+00" cType="1" res="7.9115160042420030e-04" rms="2.3564662039279938e-01" purity="5.3817182779312134e-01" nType="-99"/>
          </Node>
        </Node>
      </Node>
    </BinaryTree>
    <BinaryTree type="DecisionTree" boostWeight="1.0000000000000000e+00" itree="560">
      <Node pos="s" depth="0" NCoef="0" IVar="7" Cut="1.1994578838348389e+00" cType="1" res="2.0335784938652068e-04" rms="2.4302209913730621e-01" purity="5.0667393207550049e-01" nType="0">
        <Node pos="l" depth="1" NCoef="0" IVar="8" Cut="1.7329005002975464e+00" cType="1" res="-8.9308060705661774e-04" rms="2.4343810975551605e-01" purity="5.3929042816162109e-01" nType="0">
          <Node pos="l" depth="2" NCoef="0" IVar="4" Cut="1.4548004150390625e+02" cType="1" res="-2.2394298866856843e-05" rms="2.4320866167545319e-01" purity="5.5663633346557617e-01" nType="0">
            <Node pos="l" depth="3" NCoef="0" IVar="-1" Cut="0.0000000000000000e+00" cType="1" res="-2.0996019244194031e-02" rms="1.9550658762454987e-01" purity="6.5349757671356201e-02" nType="-99"/>
            <Node pos="r" depth="3" NCoef="0" IVar="-1" Cut="0.0000000000000000e+00" cType="1" res="2.2002672776579857e-03" rms="2.5031504034996033e-01" purity="6.3930481672286987e-01" nType="-99"/>
          </Node>
          <Node pos="r" depth="2" NCoef="0" IVar="-1" Cut="0.0000000000000000e+00" cType="1" res="-2.9994491487741470e-02" rms="2.4759538471698761e-01" purity="1.6470266878604889e-01" nType="-99"/>
        </Node>
        <Node pos="r" depth="1" NCoef="0" IVar="7" Cut="1.3518744707107544e+00" cType="1" res="9.5094908028841019e-03" rms="2.3925979435443878e-01" purity="2.2983835637569427e-01" nType="0">
          <Node pos="l" depth="2" NCoef="0" IVar="-1" Cut="0.0000000000000000e+00" cType="1" res="4.2967006564140320e-02" rms="2.7816066145896912e-01" purity="4.0901517868041992e-01" nType="-99"/>
          <Node pos="r" depth="2" NCoef="0" IVar="7" Cut="1.6964763402938843e+00" cType="1" res="1.9896426238119602e-03" rms="2.2510671615600586e-01" purity="1.7343617975711823e-01" nType="0">
            <Node pos="l" depth="3" NCoef="0" IVar="-1" Cut="0.0000000000000000e+00" cType="1" res="-1.3945248909294605e-02" rms="2.4735978245735168e-01" purity="2.6096916198730469e-01" nType="-99"/>
            <Node pos="r" depth="3" NCoef="0" IVar="-1" Cut="0.0000000000000000e+00" cType="1" res="3.5576354712247849e-02" rms="2.0265075564384460e-01" purity="9.5348149538040161e-02" nType="-99"/>
          </Node>
        </Node>
      </Node>
    </BinaryTree>
    <BinaryTree type="DecisionTree" boostWeight="1.0000000000000000e+00" itree="561">
      <Node pos="s" depth="0" NCoef="0" IVar="9" Cut="1.1999199390411377e+00" cType="1" res="-1.4954230282455683e-03" rms="2.4356062710285187e-01" purity="4.9893105030059814e-01" nType="0">
        <Node pos="l" depth="1" NCoef="0" IVar="9" Cut="8.1905585527420044e-01" cType="1" res="-3.5324960481375456e-03" rms="2.4012303352355957e-01" purity="5.2249145507812500e-01" nType="0">
          <Node pos="l" depth="2" NCoef="0" IVar="9" Cut="-5.5926352739334106e-01" cType="1" res="-1.9293585792183876e-03" rms="2.4079550802707672e-01" purity="5.2437734603881836e-01" nType="0">
            <Node pos="l" depth="3" NCoef="0" IVar="-1" Cut="0.0000000000000000e+00" cType="1" res="-1.2034184299409389e-02" rms="2.5792494416236877e-01" purity="4.5618867874145508e-01" nType="-99"/>
            <Node pos="r" depth="3" NCoef="0" IVar="-1" Cut="0.0000000000000000e+00" cType="1" res="4.3388502672314644e-03" rms="2.2777885198593140e-01" purity="5.7271510362625122e-01" nType="-99"/>
          </Node>
          <Node pos="r" depth="2" NCoef="0" IVar="0" Cut="2.4655764160156250e+03" cType="1" res="-1.7683766782283783e-02" rms="2.3362654447555542e-01" purity="5.0584405660629272e-01" nType="0">
            <Node pos="l" depth="3" NCoef="0" IVar="-1" Cut="0.0000000000000000e+00" cType="1" res="-3.6424893885850906e-02" rms="2.5920522212982178e-01" purity="2.8569704294204712e-01" nType="-99"/>
            <Node pos="r" depth="3" NCoef="0" IVar="-1" Cut="0.0000000000000000e+00" cType="1" res="9.4273379072546959e-03" rms="1.6853794455528259e-01" purity="9.5172792673110962e-01" nType="-99"/>
          </Node>
        </Node>
        <Node pos="r" depth="1" NCoef="0" IVar="3" Cut="2.8464739990234375e+02" cType="1" res="1.0579559020698071e-02" rms="2.6269227266311646e-01" purity="3.5927411913871765e-01" nType="0">
          <Node pos="l" depth="2" NCoef="0" IVar="1" Cut="2.9939247295260429e-02" cType="1" res="2.4053383618593216e-02" rms="2.6510843634605408e-01" purity="1.9794520735740662e-01" nType="0">
            <Node pos="l" depth="3" NCoef="0" IVar="-1" Cut="0.0000000000000000e+00" cType="1" res="5.9085423126816750e-03" rms="1.3580252230167389e-01" purity="3.4399129450321198e-02" nType="-99"/>
            <Node pos="r" depth="3" NCoef="0" IVar="-1" Cut="0.0000000000000000e+00" cType="1" res="4.2690098285675049e-02" rms="3.2593098282814026e-01" purity="3.1331351399421692e-01" nType="-99"/>
          </Node>
          <Node pos="r" depth="2" NCoef="0" IVar="6" Cut="-2.6572638750076294e-01" cType="1" res="-2.0171890500932932e-03" rms="2.5978180766105652e-01" purity="5.1010143756866455e-01" nType="0">
            <Node pos="l" depth="3" NCoef="0" IVar="-1" Cut="0.0000000000000000e+00" cType="1" res="-2.7381664142012596e-02" rms="2.5540536642074585e-01" purity="4.1473653912544250e-01" nType="-99"/>
            <Node pos="r" depth="3" NCoef="0" IVar="-1" Cut="0.0000000000000000e+00" cType="1" res="1.1098117567598820e-02" rms="2.6180696487426758e-01" purity="5.6667077541351318e-01" nType="-99"/>
          </Node>
        </Node>
      </Node>
    </BinaryTree>
    <BinaryTree type="DecisionTree" boostWeight="1.0000000000000000e+00" itree="562">
      <Node pos="s" depth="0" NCoef="0" IVar="3" Cut="3.3180303955078125e+02" cType="1" res="-9.3007227405905724e-04" rms="2.3932391405105591e-01" purity="5.0671505928039551e-01" nType="0">
        <Node pos="l" depth="1" NCoef="0" IVar="3" Cut="2.9402029418945312e+02" cType="1" res="-4.4025932438671589e-03" rms="2.4638617038726807e-01" purity="2.7319493889808655e-01" nType="0">
          <Node pos="l" depth="2" NCoef="0" IVar="3" Cut="2.7242584228515625e+02" cType="1" res="-1.2921328889206052e-03" rms="2.4013334512710571e-01" purity="2.1907590329647064e-01" nType="0">
            <Node pos="l" depth="3" NCoef="0" IVar="-1" Cut="0.0000000000000000e+00" cType="1" res="-8.2157496362924576e-03" rms="2.3363111913204193e-01" purity="1.8060863018035889e-01" nType="-99"/>
            <Node pos="r" depth="3" NCoef="0" IVar="-1" Cut="0.0000000000000000e+00" cType="1" res="2.2394504398107529e-02" rms="2.6722797751426697e-01" purity="3.9479631185531616e-01" nType="-99"/>
          </Node>
          <Node pos="r" depth="2" NCoef="0" IVar="3" Cut="3.1739797973632812e+02" cType="1" res="-1.4805387705564499e-02" rms="2.6596951484680176e-01" purity="4.5419359207153320e-01" nType="0">
            <Node pos="l" depth="3" NCoef="0" IVar="-1" Cut="0.0000000000000000e+00" cType="1" res="-7.1664662100374699e-03" rms="2.7319076657295227e-01" purity="4.4510483741760254e-01" nType="-99"/>
            <Node pos="r" depth="3" NCoef="0" IVar="-1" Cut="0.0000000000000000e+00" cType="1" res="-4.1496537625789642e-02" rms="2.5402882695198059e-01" purity="4.6785065531730652e-01" nType="-99"/>
          </Node>
        </Node>
        <Node pos="r" depth="1" NCoef="0" IVar="2" Cut="4.4978463745117188e+02" cType="1" res="3.0254742596298456e-03" rms="2.3095281422138214e-01" purity="7.7271765470504761e-01" nType="0">
          <Node pos="l" depth="2" NCoef="0" IVar="1" Cut="7.8975029289722443e-02" cType="1" res="1.7174348235130310e-02" rms="2.7294102311134338e-01" purity="6.2757796049118042e-01" nType="0">
            <Node pos="l" depth="3" NCoef="0" IVar="-1" Cut="0.0000000000000000e+00" cType="1" res="3.3892333507537842e-02" rms="3.0129903554916382e-01" purity="3.5831755399703979e-01" nType="-99"/>
            <Node pos="r" depth="3" NCoef="0" IVar="-1" Cut="0.0000000000000000e+00" cType="1" res="1.3184253126382828e-02" rms="2.5029152631759644e-01" purity="8.2082885503768921e-01" nType="-99"/>
          </Node>
          <Node pos="r" depth="2" NCoef="0" IVar="3" Cut="5.9931329345703125e+02" cType="1" res="3.6631897091865540e-04" rms="2.2207684814929962e-01" purity="7.9999536275863647e-01" nType="0">
            <Node pos="l" depth="3" NCoef="0" IVar="-1" Cut="0.0000000000000000e+00" cType="1" res="-2.6518802624195814e-03" rms="2.2393535077571869e-01" purity="7.8567004203796387e-01" nType="-99"/>
            <Node pos="r" depth="3" NCoef="0" IVar="-1" Cut="0.0000000000000000e+00" cType="1" res="2.3134084418416023e-02" rms="2.0838813483715057e-01" purity="8.9889454841613770e-01" nType="-99"/>
          </Node>
        </Node>
      </Node>
    </BinaryTree>
    <BinaryTree type="DecisionTree" boostWeight="1.0000000000000000e+00" itree="563">
      <Node pos="s" depth="0" NCoef="0" IVar="0" Cut="2.3891486816406250e+03" cType="1" res="2.9917503707110882e-03" rms="2.4495688080787659e-01" purity="5.0528675317764282e-01" nType="0">
        <Node pos="l" depth="1" NCoef="0" IVar="4" Cut="2.7925616455078125e+02" cType="1" res="6.1287949793040752e-03" rms="2.7235350012779236e-01" purity="2.6236277818679810e-01" nType="0">
          <Node pos="l" depth="2" NCoef="0" IVar="1" Cut="6.2097717076539993e-02" cType="1" res="8.3216391503810883e-03" rms="2.6510009169578552e-01" purity="2.2648561000823975e-01" nType="0">
            <Node pos="l" depth="3" NCoef="0" IVar="-1" Cut="0.0000000000000000e+00" cType="1" res="4.9654003232717514e-03" rms="2.1688194572925568e-01" purity="9.5113240182399750e-02" nType="-99"/>
            <Node pos="r" depth="3" NCoef="0" IVar="-1" Cut="0.0000000000000000e+00" cType="1" res="1.7318094149231911e-02" rms="3.3479723334312439e-01" purity="4.6387258172035217e-01" nType="-99"/>
          </Node>
          <Node pos="r" depth="2" NCoef="0" IVar="6" Cut="1.0708071291446686e-02" cType="1" res="-1.4684685505926609e-02" rms="3.3271485567092896e-01" purity="6.0289227962493896e-01" nType="0">
            <Node pos="l" depth="3" NCoef="0" IVar="-1" Cut="0.0000000000000000e+00" cType="1" res="-7.1782246232032776e-03" rms="3.4192526340484619e-01" purity="6.1722350120544434e-01" nType="-99"/>
            <Node pos="r" depth="3" NCoef="0" IVar="-1" Cut="0.0000000000000000e+00" cType="1" res="-1.9462201744318008e-02" rms="3.2214817404747009e-01" purity="5.8717030286788940e-01" nType="-99"/>
          </Node>
        </Node>
        <Node pos="r" depth="1" NCoef="0" IVar="7" Cut="9.3328261375427246e-01" cType="1" res="-2.5200357194989920e-03" rms="1.8722985684871674e-01" purity="9.3210399150848389e-01" nType="0">
          <Node pos="l" depth="2" NCoef="0" IVar="1" Cut="3.9545658975839615e-02" cType="1" res="-7.1487209061160684e-04" rms="1.7904049158096313e-01" purity="9.4080346822738647e-01" nType="0">
            <Node pos="l" depth="3" NCoef="0" IVar="-1" Cut="0.0000000000000000e+00" cType="1" res="-1.0026553645730019e-02" rms="2.8952389955520630e-01" purity="7.6038205623626709e-01" nType="-99"/>
            <Node pos="r" depth="3" NCoef="0" IVar="-1" Cut="0.0000000000000000e+00" cType="1" res="2.4637479800730944e-03" rms="1.5406273305416107e-01" purity="9.6975618600845337e-01" nType="-99"/>
          </Node>
          <Node pos="r" depth="2" NCoef="0" IVar="-1" Cut="0.0000000000000000e+00" cType="1" res="-3.4746009856462479e-02" rms="2.5801238417625427e-01" purity="8.3952933549880981e-01" nType="-99"/>
        </Node>
      </Node>
    </BinaryTree>
    <BinaryTree type="DecisionTree" boostWeight="1.0000000000000000e+00" itree="564">
      <Node pos="s" depth="0" NCoef="0" IVar="6" Cut="1.0083978176116943e+00" cType="1" res="1.6270853811874986e-03" rms="2.4420668184757233e-01" purity="5.0591284036636353e-01" nType="0">
        <Node pos="l" depth="1" NCoef="0" IVar="8" Cut="-1.4657031297683716e+00" cType="1" res="4.2836769716814160e-04" rms="2.4689610302448273e-01" purity="5.4737585783004761e-01" nType="0">
          <Node pos="l" depth="2" NCoef="0" IVar="4" Cut="1.6803083801269531e+02" cType="1" res="-1.4219272881746292e-02" rms="2.5804951786994934e-01" purity="2.4046191573143005e-01" nType="0">
            <Node pos="l" depth="3" NCoef="0" IVar="-1" Cut="0.0000000000000000e+00" cType="1" res="1.5195581130683422e-02" rms="2.2593061625957489e-01" purity="9.5609404146671295e-02" nType="-99"/>
            <Node pos="r" depth="3" NCoef="0" IVar="-1" Cut="0.0000000000000000e+00" cType="1" res="-3.6244317889213562e-02" rms="2.7739340066909790e-01" purity="3.4222593903541565e-01" nType="-99"/>
          </Node>
          <Node pos="r" depth="2" NCoef="0" IVar="6" Cut="-3.5403224825859070e-01" cType="1" res="1.6496324678882957e-03" rms="2.4590392410755157e-01" purity="5.7296514511108398e-01" nType="0">
            <Node pos="l" depth="3" NCoef="0" IVar="-1" Cut="0.0000000000000000e+00" cType="1" res="1.2389359995722771e-02" rms="2.4502395093441010e-01" purity="4.5974078774452209e-01" nType="-99"/>
            <Node pos="r" depth="3" NCoef="0" IVar="-1" Cut="0.0000000000000000e+00" cType="1" res="-2.8252594638615847e-03" rms="2.4635730683803558e-01" purity="6.3964563608169556e-01" nType="-99"/>
          </Node>
        </Node>
        <Node pos="r" depth="1" NCoef="0" IVar="5" Cut="1.3118894958496094e+02" cType="1" res="1.0245296172797680e-02" rms="2.2373311221599579e-01" purity="2.0781387388706207e-01" nType="0">
          <Node pos="l" depth="2" NCoef="0" IVar="5" Cut="1.0471151733398438e+02" cType="1" res="-9.5168600091710687e-04" rms="1.4675940573215485e-01" purity="4.1745517402887344e-02" nType="0">
            <Node pos="l" depth="3" NCoef="0" IVar="-1" Cut="0.0000000000000000e+00" cType="1" res="4.2044445872306824e-02" rms="1.2687399983406067e-01" purity="2.7864431962370872e-02" nType="-99"/>
            <Node pos="r" depth="3" NCoef="0" IVar="-1" Cut="0.0000000000000000e+00" cType="1" res="-3.3107593655586243e-02" rms="1.6786926984786987e-01" purity="5.9056390076875687e-02" nType="-99"/>
          </Node>
          <Node pos="r" depth="2" NCoef="0" IVar="1" Cut="2.9171446338295937e-02" cType="1" res="2.1095531061291695e-02" rms="2.7830258011817932e-01" purity="3.6873942613601685e-01" nType="0">
            <Node pos="l" depth="3" NCoef="0" IVar="-1" Cut="0.0000000000000000e+00" cType="1" res="2.1813845261931419e-02" rms="2.4339798092842102e-01" purity="1.1722146719694138e-01" nType="-99"/>
            <Node pos="r" depth="3" NCoef="0" IVar="-1" Cut="0.0000000000000000e+00" cType="1" res="3.0775601044297218e-02" rms="2.9959505796432495e-01" purity="5.4055565595626831e-01" nType="-99"/>
          </Node>
        </Node>
      </Node>
    </BinaryTree>
    <BinaryTree type="DecisionTree" boostWeight="1.0000000000000000e+00" itree="565">
      <Node pos="s" depth="0" NCoef="0" IVar="2" Cut="4.4410678100585938e+02" cType="1" res="1.7292327538598329e-04" rms="2.4138388037681580e-01" purity="5.0349998474121094e-01" nType="0">
        <Node pos="l" depth="1" NCoef="0" IVar="9" Cut="1.7329951524734497e+00" cType="1" res="-4.1960342787206173e-03" rms="2.5862216949462891e-01" purity="3.0572062730789185e-01" nType="0">
          <Node pos="l" depth="2" NCoef="0" IVar="9" Cut="8.6919581890106201e-01" cType="1" res="-1.9710897468030453e-03" rms="2.6042529940605164e-01" purity="3.2305586338043213e-01" nType="0">
            <Node pos="l" depth="3" NCoef="0" IVar="-1" Cut="0.0000000000000000e+00" cType="1" res="-7.7986111864447594e-03" rms="2.5798302888870239e-01" purity="3.2551670074462891e-01" nType="-99"/>
            <Node pos="r" depth="3" NCoef="0" IVar="-1" Cut="0.0000000000000000e+00" cType="1" res="1.5821155160665512e-02" rms="2.7065110206604004e-01" purity="3.1200611591339111e-01" nType="-99"/>
          </Node>
          <Node pos="r" depth="2" NCoef="0" IVar="-1" Cut="0.0000000000000000e+00" cType="1" res="-4.8699095845222473e-02" rms="2.3618406057357788e-01" purity="1.1249089986085892e-01" nType="-99"/>
        </Node>
        <Node pos="r" depth="1" NCoef="0" IVar="8" Cut="-4.0054750442504883e-01" cType="1" res="2.5887105148285627e-03" rms="2.3126570880413055e-01" purity="6.1286079883575439e-01" nType="0">
          <Node pos="l" depth="2" NCoef="0" IVar="0" Cut="1.8686119384765625e+03" cType="1" res="9.1489655897021294e-03" rms="2.3465761542320251e-01" purity="5.6324857473373413e-01" nType="0">
            <Node pos="l" depth="3" NCoef="0" IVar="-1" Cut="0.0000000000000000e+00" cType="1" res="-2.7567729353904724e-02" rms="1.5408006310462952e-01" purity="2.9260067269206047e-02" nType="-99"/>
            <Node pos="r" depth="3" NCoef="0" IVar="-1" Cut="0.0000000000000000e+00" cType="1" res="2.3664247244596481e-02" rms="2.6178544759750366e-01" purity="7.9604744911193848e-01" nType="-99"/>
          </Node>
          <Node pos="r" depth="2" NCoef="0" IVar="8" Cut="-2.4812106788158417e-01" cType="1" res="-8.7200198322534561e-04" rms="2.2938060760498047e-01" purity="6.3903266191482544e-01" nType="0">
            <Node pos="l" depth="3" NCoef="0" IVar="-1" Cut="0.0000000000000000e+00" cType="1" res="-5.4201085120439529e-02" rms="2.5211790204048157e-01" purity="6.6752129793167114e-01" nType="-99"/>
            <Node pos="r" depth="3" NCoef="0" IVar="-1" Cut="0.0000000000000000e+00" cType="1" res="4.0607852861285210e-03" rms="2.2677338123321533e-01" purity="6.3620954751968384e-01" nType="-99"/>
          </Node>
        </Node>
      </Node>
    </BinaryTree>
    <BinaryTree type="DecisionTree" boostWeight="1.0000000000000000e+00" itree="566">
      <Node pos="s" depth="0" NCoef="0" IVar="1" Cut="1.2411646544933319e-01" cType="1" res="-6.1990652466192842e-04" rms="2.4322813749313354e-01" purity="5.0340664386749268e-01" nType="0">
        <Node pos="l" depth="1" NCoef="0" IVar="6" Cut="2.1876253187656403e-01" cType="1" res="2.2800196893513203e-03" rms="2.5163778662681580e-01" purity="3.9758265018463135e-01" nType="0">
          <Node pos="l" depth="2" NCoef="0" IVar="9" Cut="9.3328100442886353e-01" cType="1" res="-2.5538185145705938e-03" rms="2.5529351830482483e-01" purity="4.2319867014884949e-01" nType="0">
            <Node pos="l" depth="3" NCoef="0" IVar="-1" Cut="0.0000000000000000e+00" cType="1" res="4.6331743942573667e-04" rms="2.5318178534507751e-01" purity="4.5127394795417786e-01" nType="-99"/>
            <Node pos="r" depth="3" NCoef="0" IVar="-1" Cut="0.0000000000000000e+00" cType="1" res="-1.8914826214313507e-02" rms="2.6284217834472656e-01" purity="3.1705710291862488e-01" nType="-99"/>
          </Node>
          <Node pos="r" depth="2" NCoef="0" IVar="6" Cut="1.6922852993011475e+00" cType="1" res="9.0021071955561638e-03" rms="2.4630630016326904e-01" purity="3.6196017265319824e-01" nType="0">
            <Node pos="l" depth="3" NCoef="0" IVar="-1" Cut="0.0000000000000000e+00" cType="1" res="1.6678739339113235e-02" rms="2.5816500186920166e-01" purity="4.0150657296180725e-01" nType="-99"/>
            <Node pos="r" depth="3" NCoef="0" IVar="-1" Cut="0.0000000000000000e+00" cType="1" res="-5.3008280694484711e-02" rms="9.2423789203166962e-02" purity="1.9758075475692749e-02" nType="-99"/>
          </Node>
        </Node>
        <Node pos="r" depth="1" NCoef="0" IVar="0" Cut="1.9716522216796875e+03" cType="1" res="-9.5767471939325333e-03" rms="2.1494154632091522e-01" purity="8.3025926351547241e-01" nType="0">
          <Node pos="l" depth="2" NCoef="0" IVar="-1" Cut="0.0000000000000000e+00" cType="1" res="-2.7893071994185448e-02" rms="3.4587323665618896e-01" purity="2.9062384366989136e-01" nType="-99"/>
          <Node pos="r" depth="2" NCoef="0" IVar="5" Cut="2.0289524841308594e+02" cType="1" res="-2.7906561736017466e-03" rms="1.6741293668746948e-01" purity="9.6208965778350830e-01" nType="0">
            <Node pos="l" depth="3" NCoef="0" IVar="-1" Cut="0.0000000000000000e+00" cType="1" res="-2.6594663038849831e-02" rms="2.3639217019081116e-01" purity="9.1642045974731445e-01" nType="-99"/>
            <Node pos="r" depth="3" NCoef="0" IVar="-1" Cut="0.0000000000000000e+00" cType="1" res="1.8835730850696564e-02" rms="1.1530797928571701e-01" purity="9.8609191179275513e-01" nType="-99"/>
          </Node>
        </Node>
      </Node>
    </BinaryTree>
    <BinaryTree type="DecisionTree" boostWeight="1.0000000000000000e+00" itree="567">
      <Node pos="s" depth="0" NCoef="0" IVar="6" Cut="-3.9918683469295502e-02" cType="1" res="5.2654836326837540e-04" rms="2.4237027764320374e-01" purity="4.9999505281448364e-01" nType="0">
        <Node pos="l" depth="1" NCoef="0" IVar="2" Cut="5.4374713134765625e+02" cType="1" res="-3.4293725620955229e-03" rms="2.4289757013320923e-01" purity="4.9535119533538818e-01" nType="0">
          <Node pos="l" depth="2" NCoef="0" IVar="8" Cut="-4.0241998434066772e-01" cType="1" res="-8.1946169957518578e-03" rms="2.4938619136810303e-01" purity="3.7736001610755920e-01" nType="0">
            <Node pos="l" depth="3" NCoef="0" IVar="-1" Cut="0.0000000000000000e+00" cType="1" res="-2.7728693559765816e-02" rms="2.4831603467464447e-01" purity="3.2926625013351440e-01" nType="-99"/>
            <Node pos="r" depth="3" NCoef="0" IVar="-1" Cut="0.0000000000000000e+00" cType="1" res="-2.6631965301930904e-03" rms="2.4985371530056000e-01" purity="4.0812781453132629e-01" nType="-99"/>
          </Node>
          <Node pos="r" depth="2" NCoef="0" IVar="0" Cut="1.8886553955078125e+03" cType="1" res="3.0173189006745815e-03" rms="2.3367841541767120e-01" purity="6.5497630834579468e-01" nType="0">
            <Node pos="l" depth="3" NCoef="0" IVar="-1" Cut="0.0000000000000000e+00" cType="1" res="-4.1372183710336685e-02" rms="1.3165572285652161e-01" purity="2.4054294452071190e-02" nType="-99"/>
            <Node pos="r" depth="3" NCoef="0" IVar="-1" Cut="0.0000000000000000e+00" cType="1" res="9.8668280988931656e-03" rms="2.4936884641647339e-01" purity="7.8433436155319214e-01" nType="-99"/>
          </Node>
        </Node>
        <Node pos="r" depth="1" NCoef="0" IVar="8" Cut="-3.9997857809066772e-01" cType="1" res="4.1924230754375458e-03" rms="2.4182283878326416e-01" purity="5.0429844856262207e-01" nType="0">
          <Node pos="l" depth="2" NCoef="0" IVar="2" Cut="3.7453161621093750e+02" cType="1" res="1.0408019647002220e-02" rms="2.5601756572723389e-01" purity="4.6786394715309143e-01" nType="0">
            <Node pos="l" depth="3" NCoef="0" IVar="-1" Cut="0.0000000000000000e+00" cType="1" res="5.0440438091754913e-02" rms="2.9244855046272278e-01" purity="2.5700381398200989e-01" nType="-99"/>
            <Node pos="r" depth="3" NCoef="0" IVar="-1" Cut="0.0000000000000000e+00" cType="1" res="6.8228906020522118e-03" rms="2.4447537958621979e-01" purity="5.2686715126037598e-01" nType="-99"/>
          </Node>
          <Node pos="r" depth="2" NCoef="0" IVar="2" Cut="6.5175878906250000e+02" cType="1" res="9.2597928596660495e-04" rms="2.3395211994647980e-01" purity="5.2344566583633423e-01" nType="0">
            <Node pos="l" depth="3" NCoef="0" IVar="-1" Cut="0.0000000000000000e+00" cType="1" res="-3.5545781720429659e-03" rms="2.3475982248783112e-01" purity="4.5320734381675720e-01" nType="-99"/>
            <Node pos="r" depth="3" NCoef="0" IVar="-1" Cut="0.0000000000000000e+00" cType="1" res="1.9667129963636398e-02" rms="2.3089671134948730e-01" purity="7.6114493608474731e-01" nType="-99"/>
          </Node>
        </Node>
      </Node>
    </BinaryTree>
    <BinaryTree type="DecisionTree" boostWeight="1.0000000000000000e+00" itree="568">
      <Node pos="s" depth="0" NCoef="0" IVar="1" Cut="8.0109931528568268e-02" cType="1" res="2.9216120310593396e-05" rms="2.4021534621715546e-01" purity="5.0795543193817139e-01" nType="0">
        <Node pos="l" depth="1" NCoef="0" IVar="6" Cut="-3.5620713233947754e-01" cType="1" res="3.6002539563924074e-03" rms="2.4286007881164551e-01" purity="3.1087589263916016e-01" nType="0">
          <Node pos="l" depth="2" NCoef="0" IVar="5" Cut="1.8540170288085938e+02" cType="1" res="-2.3550656624138355e-03" rms="2.4288035929203033e-01" purity="2.5434249639511108e-01" nType="0">
            <Node pos="l" depth="3" NCoef="0" IVar="-1" Cut="0.0000000000000000e+00" cType="1" res="6.9206040352582932e-03" rms="2.3104164004325867e-01" purity="1.4079181849956512e-01" nType="-99"/>
            <Node pos="r" depth="3" NCoef="0" IVar="-1" Cut="0.0000000000000000e+00" cType="1" res="-2.9227849096059799e-02" rms="2.8047430515289307e-01" purity="6.6463345289230347e-01" nType="-99"/>
          </Node>
          <Node pos="r" depth="2" NCoef="0" IVar="6" Cut="5.4318732023239136e-01" cType="1" res="7.2050350718200207e-03" rms="2.4277684092521667e-01" purity="3.4509578347206116e-01" nType="0">
            <Node pos="l" depth="3" NCoef="0" IVar="-1" Cut="0.0000000000000000e+00" cType="1" res="2.4488233029842377e-02" rms="2.6690384745597839e-01" purity="4.6920865774154663e-01" nType="-99"/>
            <Node pos="r" depth="3" NCoef="0" IVar="-1" Cut="0.0000000000000000e+00" cType="1" res="-5.5158627219498158e-03" rms="2.1665602922439575e-01" purity="2.2603279352188110e-01" nType="-99"/>
          </Node>
        </Node>
        <Node pos="r" depth="1" NCoef="0" IVar="9" Cut="-1.2010533809661865e+00" cType="1" res="-4.6006892807781696e-03" rms="2.3666223883628845e-01" purity="7.6347213983535767e-01" nType="0">
          <Node pos="l" depth="2" NCoef="0" IVar="-1" Cut="0.0000000000000000e+00" cType="1" res="-2.2973282262682915e-02" rms="2.7926349639892578e-01" purity="6.4824074506759644e-01" nType="-99"/>
          <Node pos="r" depth="2" NCoef="0" IVar="6" Cut="3.4896880388259888e-01" cType="1" res="-2.4934294633567333e-03" rms="2.3029570281505585e-01" purity="7.7886080741882324e-01" nType="0">
            <Node pos="l" depth="3" NCoef="0" IVar="-1" Cut="0.0000000000000000e+00" cType="1" res="1.3514740858227015e-03" rms="2.2818982601165771e-01" purity="7.9587560892105103e-01" nType="-99"/>
            <Node pos="r" depth="3" NCoef="0" IVar="-1" Cut="0.0000000000000000e+00" cType="1" res="-1.7779979854822159e-02" rms="2.3535056412220001e-01" purity="7.3572635650634766e-01" nType="-99"/>
          </Node>
        </Node>
      </Node>
    </BinaryTree>
    <BinaryTree type="DecisionTree" boostWeight="1.0000000000000000e+00" itree="569">
      <Node pos="s" depth="0" NCoef="0" IVar="5" Cut="1.6433625793457031e+02" cType="1" res="-8.3758105756714940e-04" rms="2.3852437734603882e-01" purity="4.9107220768928528e-01" nType="0">
        <Node pos="l" depth="1" NCoef="0" IVar="7" Cut="-1.4622280597686768e+00" cType="1" res="-4.9609420821070671e-03" rms="2.4520015716552734e-01" purity="2.0689117908477783e-01" nType="0">
          <Node pos="l" depth="2" NCoef="0" IVar="4" Cut="1.5436936950683594e+02" cType="1" res="1.2620237655937672e-02" rms="1.9735953211784363e-01" purity="6.7065343260765076e-02" nType="0">
            <Node pos="l" depth="3" NCoef="0" IVar="-1" Cut="0.0000000000000000e+00" cType="1" res="4.3107613921165466e-02" rms="1.4848311245441437e-01" purity="3.1734745949506760e-02" nType="-99"/>
            <Node pos="r" depth="3" NCoef="0" IVar="-1" Cut="0.0000000000000000e+00" cType="1" res="3.9388369768857956e-02" rms="2.3580977320671082e-01" purity="1.0197580605745316e-01" nType="-99"/>
          </Node>
          <Node pos="r" depth="2" NCoef="0" IVar="2" Cut="3.1323751831054688e+02" cType="1" res="-6.8429745733737946e-03" rms="2.4970573186874390e-01" purity="2.2185927629470825e-01" nType="0">
            <Node pos="l" depth="3" NCoef="0" IVar="-1" Cut="0.0000000000000000e+00" cType="1" res="-4.6120181679725647e-02" rms="2.1965220570564270e-01" purity="8.4253057837486267e-02" nType="-99"/>
            <Node pos="r" depth="3" NCoef="0" IVar="-1" Cut="0.0000000000000000e+00" cType="1" res="-6.2841558828949928e-03" rms="2.5280395150184631e-01" purity="2.3774878680706024e-01" nType="-99"/>
          </Node>
        </Node>
        <Node pos="r" depth="1" NCoef="0" IVar="0" Cut="2.3323142089843750e+03" cType="1" res="3.7714990321546793e-03" rms="2.3074658215045929e-01" purity="8.0872893333435059e-01" nType="0">
          <Node pos="l" depth="2" NCoef="0" IVar="7" Cut="-1.3039875030517578e-01" cType="1" res="1.1803967878222466e-02" rms="3.2641649246215820e-01" purity="5.0805044174194336e-01" nType="0">
            <Node pos="l" depth="3" NCoef="0" IVar="-1" Cut="0.0000000000000000e+00" cType="1" res="2.2775921970605850e-02" rms="3.2321980595588684e-01" purity="5.0045806169509888e-01" nType="-99"/>
            <Node pos="r" depth="3" NCoef="0" IVar="-1" Cut="0.0000000000000000e+00" cType="1" res="1.0977215424645692e-04" rms="3.2872501015663147e-01" purity="5.1465338468551636e-01" nType="-99"/>
          </Node>
          <Node pos="r" depth="2" NCoef="0" IVar="4" Cut="3.4931307983398438e+02" cType="1" res="-3.1871048850007355e-04" rms="1.6140517592430115e-01" purity="9.6183723211288452e-01" nType="0">
            <Node pos="l" depth="3" NCoef="0" IVar="-1" Cut="0.0000000000000000e+00" cType="1" res="-1.0836283676326275e-02" rms="1.8110303580760956e-01" purity="9.5219892263412476e-01" nType="-99"/>
            <Node pos="r" depth="3" NCoef="0" IVar="-1" Cut="0.0000000000000000e+00" cType="1" res="1.8544094637036324e-02" rms="1.2820617854595184e-01" purity="9.7552669048309326e-01" nType="-99"/>
          </Node>
        </Node>
      </Node>
    </BinaryTree>
    <BinaryTree type="DecisionTree" boostWeight="1.0000000000000000e+00" itree="570">
      <Node pos="s" depth="0" NCoef="0" IVar="9" Cut="-1.4659709930419922e+00" cType="1" res="-1.8845329759642482e-03" rms="2.4271313846111298e-01" purity="4.9614498019218445e-01" nType="0">
        <Node pos="l" depth="1" NCoef="0" IVar="0" Cut="1.8375257568359375e+03" cType="1" res="1.3248700648546219e-02" rms="2.6722341775894165e-01" purity="3.3896180987358093e-01" nType="0">
          <Node pos="l" depth="2" NCoef="0" IVar="3" Cut="2.5181230163574219e+02" cType="1" res="2.3534288629889488e-03" rms="2.2162897884845734e-01" purity="7.0339433848857880e-02" nType="0">
            <Node pos="l" depth="3" NCoef="0" IVar="-1" Cut="0.0000000000000000e+00" cType="1" res="2.1554935723543167e-02" rms="2.2602741420269012e-01" purity="7.8167244791984558e-02" nType="-99"/>
            <Node pos="r" depth="3" NCoef="0" IVar="-1" Cut="0.0000000000000000e+00" cType="1" res="-1.1718883179128170e-02" rms="2.1663254499435425e-01" purity="6.2148820608854294e-02" nType="-99"/>
          </Node>
          <Node pos="r" depth="2" NCoef="0" IVar="-1" Cut="0.0000000000000000e+00" cType="1" res="2.5529043748974800e-02" rms="3.1538742780685425e-01" purity="6.8129312992095947e-01" nType="-99"/>
        </Node>
        <Node pos="r" depth="1" NCoef="0" IVar="1" Cut="6.3785374164581299e-02" cType="1" res="-3.4217045176774263e-03" rms="2.4003015458583832e-01" purity="5.1211100816726685e-01" nType="0">
          <Node pos="l" depth="2" NCoef="0" IVar="8" Cut="1.4663392305374146e+00" cType="1" res="1.2574654538184404e-03" rms="2.3957735300064087e-01" purity="2.7219203114509583e-01" nType="0">
            <Node pos="l" depth="3" NCoef="0" IVar="-1" Cut="0.0000000000000000e+00" cType="1" res="5.1917592063546181e-03" rms="2.4408158659934998e-01" purity="2.9090890288352966e-01" nType="-99"/>
            <Node pos="r" depth="3" NCoef="0" IVar="-1" Cut="0.0000000000000000e+00" cType="1" res="-2.4728022515773773e-02" rms="2.0110590755939484e-01" purity="1.2848185002803802e-01" nType="-99"/>
          </Node>
          <Node pos="r" depth="2" NCoef="0" IVar="1" Cut="1.1835731565952301e-01" cType="1" res="-7.5365235097706318e-03" rms="2.4035239219665527e-01" purity="7.2309350967407227e-01" nType="0">
            <Node pos="l" depth="3" NCoef="0" IVar="-1" Cut="0.0000000000000000e+00" cType="1" res="-2.1577304229140282e-02" rms="2.6345199346542358e-01" purity="6.0709971189498901e-01" nType="-99"/>
            <Node pos="r" depth="3" NCoef="0" IVar="-1" Cut="0.0000000000000000e+00" cType="1" res="3.6006185109727085e-04" rms="2.1797204017639160e-01" purity="8.2405781745910645e-01" nType="-99"/>
          </Node>
        </Node>
      </Node>
    </BinaryTree>
    <BinaryTree type="DecisionTree" boostWeight="1.0000000000000000e+00" itree="571">
      <Node pos="s" depth="0" NCoef="0" IVar="5" Cut="1.1815167236328125e+02" cType="1" res="-3.6381427198648453e-03" rms="2.4198345839977264e-01" purity="5.0555443763732910e-01" nType="0">
        <Node pos="l" depth="1" NCoef="0" IVar="6" Cut="-5.2458226680755615e-01" cType="1" res="1.9955777097493410e-03" rms="2.1541237831115723e-01" purity="1.0421984642744064e-01" nType="0">
          <Node pos="l" depth="2" NCoef="0" IVar="6" Cut="-9.1401541233062744e-01" cType="1" res="1.1244200170040131e-02" rms="2.0652388036251068e-01" purity="7.8989237546920776e-02" nType="0">
            <Node pos="l" depth="3" NCoef="0" IVar="-1" Cut="0.0000000000000000e+00" cType="1" res="-1.9869519397616386e-02" rms="1.4356799423694611e-01" purity="3.1730495393276215e-02" nType="-99"/>
            <Node pos="r" depth="3" NCoef="0" IVar="-1" Cut="0.0000000000000000e+00" cType="1" res="7.1235872805118561e-02" rms="2.8808286786079407e-01" purity="1.6856437921524048e-01" nType="-99"/>
          </Node>
          <Node pos="r" depth="2" NCoef="0" IVar="4" Cut="2.2840724182128906e+02" cType="1" res="-2.0965132862329483e-03" rms="2.1910561621189117e-01" purity="1.1538323014974594e-01" nType="0">
            <Node pos="l" depth="3" NCoef="0" IVar="-1" Cut="0.0000000000000000e+00" cType="1" res="5.7951011694967747e-04" rms="2.0559671521186829e-01" purity="8.2157224416732788e-02" nType="-99"/>
            <Node pos="r" depth="3" NCoef="0" IVar="-1" Cut="0.0000000000000000e+00" cType="1" res="-1.9348129630088806e-02" rms="2.8947904706001282e-01" purity="3.2411640882492065e-01" nType="-99"/>
          </Node>
        </Node>
        <Node pos="r" depth="1" NCoef="0" IVar="7" Cut="1.4664273262023926e+00" cType="1" res="-5.6643849238753319e-03" rms="2.5082191824913025e-01" purity="6.4989978075027466e-01" nType="0">
          <Node pos="l" depth="2" NCoef="0" IVar="7" Cut="1.0598788261413574e+00" cType="1" res="-6.7778904922306538e-03" rms="2.5042861700057983e-01" purity="6.7010438442230225e-01" nType="0">
            <Node pos="l" depth="3" NCoef="0" IVar="-1" Cut="0.0000000000000000e+00" cType="1" res="-8.0206179991364479e-03" rms="2.4862597882747650e-01" purity="6.8253999948501587e-01" nType="-99"/>
            <Node pos="r" depth="3" NCoef="0" IVar="-1" Cut="0.0000000000000000e+00" cType="1" res="-3.3746056258678436e-02" rms="2.7407103776931763e-01" purity="4.9133875966072083e-01" nType="-99"/>
          </Node>
          <Node pos="r" depth="2" NCoef="0" IVar="-1" Cut="0.0000000000000000e+00" cType="1" res="2.3042820394039154e-02" rms="2.5760921835899353e-01" purity="2.4184660613536835e-01" nType="-99"/>
        </Node>
      </Node>
    </BinaryTree>
    <BinaryTree type="DecisionTree" boostWeight="1.0000000000000000e+00" itree="572">
      <Node pos="s" depth="0" NCoef="0" IVar="8" Cut="1.7324873208999634e+00" cType="1" res="-9.6899061463773251e-04" rms="2.4002206325531006e-01" purity="4.9088910222053528e-01" nType="0">
        <Node pos="l" depth="1" NCoef="0" IVar="7" Cut="-9.3345445394515991e-01" cType="1" res="-1.7211994854733348e-03" rms="2.3987707495689392e-01" purity="5.0439751148223877e-01" nType="0">
          <Node pos="l" depth="2" NCoef="0" IVar="0" Cut="1.8144909667968750e+03" cType="1" res="-8.9946631342172623e-03" rms="2.3401503264904022e-01" purity="2.8513336181640625e-01" nType="0">
            <Node pos="l" depth="3" NCoef="0" IVar="-1" Cut="0.0000000000000000e+00" cType="1" res="5.1045725122094154e-03" rms="1.8154229223728180e-01" purity="4.8119686543941498e-02" nType="-99"/>
            <Node pos="r" depth="3" NCoef="0" IVar="-1" Cut="0.0000000000000000e+00" cType="1" res="-2.5352491065859795e-02" rms="2.8926450014114380e-01" purity="6.0330861806869507e-01" nType="-99"/>
          </Node>
          <Node pos="r" depth="2" NCoef="0" IVar="8" Cut="1.3005096912384033e+00" cType="1" res="-2.9759336030110717e-04" rms="2.4098205566406250e-01" purity="5.4731321334838867e-01" nType="0">
            <Node pos="l" depth="3" NCoef="0" IVar="-1" Cut="0.0000000000000000e+00" cType="1" res="-2.2975704632699490e-03" rms="2.3731364309787750e-01" purity="5.5543696880340576e-01" nType="-99"/>
            <Node pos="r" depth="3" NCoef="0" IVar="-1" Cut="0.0000000000000000e+00" cType="1" res="2.2376963868737221e-02" rms="2.9447343945503235e-01" purity="4.1317903995513916e-01" nType="-99"/>
          </Node>
        </Node>
        <Node pos="r" depth="1" NCoef="0" IVar="-1" Cut="0.0000000000000000e+00" cType="1" res="2.7329141274094582e-02" rms="2.4261458218097687e-01" purity="1.9164171814918518e-01" nType="-99"/>
      </Node>
    </BinaryTree>
    <BinaryTree type="DecisionTree" boostWeight="1.0000000000000000e+00" itree="573">
      <Node pos="s" depth="0" NCoef="0" IVar="5" Cut="1.7628858947753906e+02" cType="1" res="-8.6516543524339795e-04" rms="2.3728308081626892e-01" purity="5.0375151634216309e-01" nType="0">
        <Node pos="l" depth="1" NCoef="0" IVar="5" Cut="1.5244514465332031e+02" cType="1" res="-5.4784743115305901e-03" rms="2.5189098715782166e-01" purity="2.4716651439666748e-01" nType="0">
          <Node pos="l" depth="2" NCoef="0" IVar="0" Cut="1.8876912841796875e+03" cType="1" res="-2.8362337034195662e-03" rms="2.4161371588706970e-01" purity="1.8432483077049255e-01" nType="0">
            <Node pos="l" depth="3" NCoef="0" IVar="-1" Cut="0.0000000000000000e+00" cType="1" res="5.1947650499641895e-03" rms="1.9260415434837341e-01" purity="5.3697217255830765e-02" nType="-99"/>
            <Node pos="r" depth="3" NCoef="0" IVar="-1" Cut="0.0000000000000000e+00" cType="1" res="-1.2506107799708843e-02" rms="3.3380302786827087e-01" purity="5.1120263338088989e-01" nType="-99"/>
          </Node>
          <Node pos="r" depth="2" NCoef="0" IVar="0" Cut="1.8946756591796875e+03" cType="1" res="-1.5544283203780651e-02" rms="2.8747665882110596e-01" purity="4.8656648397445679e-01" nType="0">
            <Node pos="l" depth="3" NCoef="0" IVar="-1" Cut="0.0000000000000000e+00" cType="1" res="-3.6260165274143219e-02" rms="2.7357688546180725e-01" purity="1.1483814567327499e-01" nType="-99"/>
            <Node pos="r" depth="3" NCoef="0" IVar="-1" Cut="0.0000000000000000e+00" cType="1" res="-1.5430825296789408e-03" rms="2.9764589667320251e-01" purity="7.9134589433670044e-01" nType="-99"/>
          </Node>
        </Node>
        <Node pos="r" depth="1" NCoef="0" IVar="1" Cut="2.1672854200005531e-02" cType="1" res="5.4639992304146290e-03" rms="2.1547719836235046e-01" purity="8.5576987266540527e-01" nType="0">
          <Node pos="l" depth="2" NCoef="0" IVar="-1" Cut="0.0000000000000000e+00" cType="1" res="4.3435875326395035e-02" rms="2.6813548803329468e-01" purity="4.6202102303504944e-01" nType="-99"/>
          <Node pos="r" depth="2" NCoef="0" IVar="0" Cut="2.0289935302734375e+03" cType="1" res="3.2728272490203381e-03" rms="2.1119815111160278e-01" purity="8.8284528255462646e-01" nType="0">
            <Node pos="l" depth="3" NCoef="0" IVar="-1" Cut="0.0000000000000000e+00" cType="1" res="-5.6006875820457935e-03" rms="3.7713131308555603e-01" purity="3.6747005581855774e-01" nType="-99"/>
            <Node pos="r" depth="3" NCoef="0" IVar="-1" Cut="0.0000000000000000e+00" cType="1" res="1.3917381875216961e-02" rms="1.7600549757480621e-01" purity="9.5467728376388550e-01" nType="-99"/>
          </Node>
        </Node>
      </Node>
    </BinaryTree>
    <BinaryTree type="DecisionTree" boostWeight="1.0000000000000000e+00" itree="574">
      <Node pos="s" depth="0" NCoef="0" IVar="8" Cut="1.1994045972824097e+00" cType="1" res="5.3910445421934128e-04" rms="2.3947696387767792e-01" purity="5.0089561939239502e-01" nType="0">
        <Node pos="l" depth="1" NCoef="0" IVar="0" Cut="2.1314838867187500e+03" cType="1" res="2.0720183383673429e-03" rms="2.4013885855674744e-01" purity="5.3137141466140747e-01" nType="0">
          <Node pos="l" depth="2" NCoef="0" IVar="1" Cut="3.7166461348533630e-02" cType="1" res="6.2277452088892460e-03" rms="2.6530444622039795e-01" purity="1.6895501315593719e-01" nType="0">
            <Node pos="l" depth="3" NCoef="0" IVar="-1" Cut="0.0000000000000000e+00" cType="1" res="-7.6018027029931545e-03" rms="1.6656060516834259e-01" purity="4.1879512369632721e-02" nType="-99"/>
            <Node pos="r" depth="3" NCoef="0" IVar="-1" Cut="0.0000000000000000e+00" cType="1" res="1.2730846181511879e-02" rms="3.2592183351516724e-01" purity="2.7608212828636169e-01" nType="-99"/>
          </Node>
          <Node pos="r" depth="2" NCoef="0" IVar="0" Cut="2.3405068359375000e+03" cType="1" res="-2.1848634351044893e-03" rms="2.1119058132171631e-01" purity="9.0260934829711914e-01" nType="0">
            <Node pos="l" depth="3" NCoef="0" IVar="-1" Cut="0.0000000000000000e+00" cType="1" res="-2.0058739930391312e-02" rms="3.1865233182907104e-01" purity="7.2407865524291992e-01" nType="-99"/>
            <Node pos="r" depth="3" NCoef="0" IVar="-1" Cut="0.0000000000000000e+00" cType="1" res="3.8873457815498114e-03" rms="1.8196013569831848e-01" purity="9.3839955329895020e-01" nType="-99"/>
          </Node>
        </Node>
        <Node pos="r" depth="1" NCoef="0" IVar="0" Cut="1.8891418457031250e+03" cType="1" res="-1.0460735298693180e-02" rms="2.3437874019145966e-01" purity="2.8220817446708679e-01" nType="0">
          <Node pos="l" depth="2" NCoef="0" IVar="5" Cut="1.3384085083007812e+02" cType="1" res="-5.3320266306400299e-03" rms="1.7965696752071381e-01" purity="5.7092655450105667e-02" nType="0">
            <Node pos="l" depth="3" NCoef="0" IVar="-1" Cut="0.0000000000000000e+00" cType="1" res="-3.7054922431707382e-02" rms="1.3781076669692993e-01" purity="2.7416614815592766e-02" nType="-99"/>
            <Node pos="r" depth="3" NCoef="0" IVar="-1" Cut="0.0000000000000000e+00" cType="1" res="8.8974647223949432e-03" rms="2.3773089051246643e-01" purity="1.1166073381900787e-01" nType="-99"/>
          </Node>
          <Node pos="r" depth="2" NCoef="0" IVar="-1" Cut="0.0000000000000000e+00" cType="1" res="-2.0352127030491829e-02" rms="3.0537161231040955e-01" purity="6.6413217782974243e-01" nType="-99"/>
        </Node>
      </Node>
    </BinaryTree>
    <BinaryTree type="DecisionTree" boostWeight="1.0000000000000000e+00" itree="575">
      <Node pos="s" depth="0" NCoef="0" IVar="7" Cut="1.3272510468959808e-01" cType="1" res="7.5273058610036969e-04" rms="2.3710350692272186e-01" purity="4.9881973862648010e-01" nType="0">
        <Node pos="l" depth="1" NCoef="0" IVar="0" Cut="2.3775517578125000e+03" cType="1" res="3.7162129301577806e-03" rms="2.4177007377147675e-01" purity="5.1123708486557007e-01" nType="0">
          <Node pos="l" depth="2" NCoef="0" IVar="9" Cut="-1.1957733631134033e+00" cType="1" res="7.6785045675933361e-03" rms="2.7008178830146790e-01" purity="2.5595650076866150e-01" nType="0">
            <Node pos="l" depth="3" NCoef="0" IVar="-1" Cut="0.0000000000000000e+00" cType="1" res="-1.6079850494861603e-02" rms="2.5618100166320801e-01" purity="2.0360319316387177e-01" nType="-99"/>
            <Node pos="r" depth="3" NCoef="0" IVar="-1" Cut="0.0000000000000000e+00" cType="1" res="1.7156850546598434e-02" rms="2.7311760187149048e-01" purity="2.6864027976989746e-01" nType="-99"/>
          </Node>
          <Node pos="r" depth="2" NCoef="0" IVar="1" Cut="4.0551569312810898e-02" cType="1" res="-2.8657622169703245e-03" rms="1.8523205816745758e-01" purity="9.3529736995697021e-01" nType="0">
            <Node pos="l" depth="3" NCoef="0" IVar="-1" Cut="0.0000000000000000e+00" cType="1" res="1.4114977791905403e-02" rms="2.7443525195121765e-01" purity="7.6404374837875366e-01" nType="-99"/>
            <Node pos="r" depth="3" NCoef="0" IVar="-1" Cut="0.0000000000000000e+00" cType="1" res="-2.3613909259438515e-02" rms="1.6478814184665680e-01" purity="9.6496838331222534e-01" nType="-99"/>
          </Node>
        </Node>
        <Node pos="r" depth="1" NCoef="0" IVar="0" Cut="2.1027822265625000e+03" cType="1" res="-2.9049997683614492e-03" rms="2.3116150498390198e-01" purity="4.8349344730377197e-01" nType="0">
          <Node pos="l" depth="2" NCoef="0" IVar="9" Cut="-3.9890360832214355e-01" cType="1" res="-1.0235198773443699e-02" rms="2.3810099065303802e-01" purity="1.3148960471153259e-01" nType="0">
            <Node pos="l" depth="3" NCoef="0" IVar="-1" Cut="0.0000000000000000e+00" cType="1" res="-3.2083280384540558e-02" rms="2.2882294654846191e-01" purity="1.3182479143142700e-01" nType="-99"/>
            <Node pos="r" depth="3" NCoef="0" IVar="-1" Cut="0.0000000000000000e+00" cType="1" res="-5.5239913053810596e-03" rms="2.4283313751220703e-01" purity="1.3130383193492889e-01" nType="-99"/>
          </Node>
          <Node pos="r" depth="2" NCoef="0" IVar="8" Cut="-6.6635239124298096e-01" cType="1" res="5.5693723261356354e-03" rms="2.2256903350353241e-01" purity="8.9044171571731567e-01" nType="0">
            <Node pos="l" depth="3" NCoef="0" IVar="-1" Cut="0.0000000000000000e+00" cType="1" res="2.9846301302313805e-02" rms="2.5704944133758545e-01" purity="8.6458563804626465e-01" nType="-99"/>
            <Node pos="r" depth="3" NCoef="0" IVar="-1" Cut="0.0000000000000000e+00" cType="1" res="4.4204178266227245e-03" rms="2.1370778977870941e-01" purity="8.9639431238174438e-01" nType="-99"/>
          </Node>
        </Node>
      </Node>
    </BinaryTree>
    <BinaryTree type="DecisionTree" boostWeight="1.0000000000000000e+00" itree="576">
      <Node pos="s" depth="0" NCoef="0" IVar="9" Cut="-9.3108052015304565e-01" cType="1" res="1.4819814823567867e-03" rms="2.4434398114681244e-01" purity="4.9704727530479431e-01" nType="0">
        <Node pos="l" depth="1" NCoef="0" IVar="8" Cut="-1.3480772078037262e-01" cType="1" res="1.3071448542177677e-02" rms="2.5651642680168152e-01" purity="4.0903502702713013e-01" nType="0">
          <Node pos="l" depth="2" NCoef="0" IVar="0" Cut="1.6267541503906250e+03" cType="1" res="2.3332105949521065e-02" rms="2.5445184111595154e-01" purity="3.8725897669792175e-01" nType="0">
            <Node pos="l" depth="3" NCoef="0" IVar="-1" Cut="0.0000000000000000e+00" cType="1" res="6.9655710831284523e-04" rms="1.4982327818870544e-01" purity="2.7626832947134972e-02" nType="-99"/>
            <Node pos="r" depth="3" NCoef="0" IVar="-1" Cut="0.0000000000000000e+00" cType="1" res="4.2046483606100082e-02" rms="2.9500341415405273e-01" purity="5.8046674728393555e-01" nType="-99"/>
          </Node>
          <Node pos="r" depth="2" NCoef="0" IVar="7" Cut="-4.0070262551307678e-01" cType="1" res="2.2772108204662800e-03" rms="2.5823092460632324e-01" purity="4.3194347620010376e-01" nType="0">
            <Node pos="l" depth="3" NCoef="0" IVar="-1" Cut="0.0000000000000000e+00" cType="1" res="1.8923085182905197e-02" rms="2.5848218798637390e-01" purity="3.8216692209243774e-01" nType="-99"/>
            <Node pos="r" depth="3" NCoef="0" IVar="-1" Cut="0.0000000000000000e+00" cType="1" res="-6.2518268823623657e-03" rms="2.5784924626350403e-01" purity="4.6298667788505554e-01" nType="-99"/>
          </Node>
        </Node>
        <Node pos="r" depth="1" NCoef="0" IVar="8" Cut="9.3360662460327148e-01" cType="1" res="-1.6214832430705428e-03" rms="2.4088542163372040e-01" purity="5.2061545848846436e-01" nType="0">
          <Node pos="l" depth="2" NCoef="0" IVar="4" Cut="1.8257174682617188e+02" cType="1" res="-3.6132654640823603e-03" rms="2.3582312464714050e-01" purity="5.5261796712875366e-01" nType="0">
            <Node pos="l" depth="3" NCoef="0" IVar="-1" Cut="0.0000000000000000e+00" cType="1" res="1.0877568274736404e-02" rms="2.3491127789020538e-01" purity="1.2753430008888245e-01" nType="-99"/>
            <Node pos="r" depth="3" NCoef="0" IVar="-1" Cut="0.0000000000000000e+00" cType="1" res="-1.2285725213587284e-02" rms="2.3607836663722992e-01" purity="7.1581733226776123e-01" nType="-99"/>
          </Node>
          <Node pos="r" depth="2" NCoef="0" IVar="7" Cut="-6.7355567216873169e-01" cType="1" res="6.8495422601699829e-03" rms="2.6115250587463379e-01" purity="3.8450923562049866e-01" nType="0">
            <Node pos="l" depth="3" NCoef="0" IVar="-1" Cut="0.0000000000000000e+00" cType="1" res="-2.6175417006015778e-02" rms="2.3593631386756897e-01" purity="2.4471208453178406e-01" nType="-99"/>
            <Node pos="r" depth="3" NCoef="0" IVar="-1" Cut="0.0000000000000000e+00" cType="1" res="2.0229853689670563e-02" rms="2.6755219697952271e-01" purity="4.2452555894851685e-01" nType="-99"/>
          </Node>
        </Node>
      </Node>
    </BinaryTree>
    <BinaryTree type="DecisionTree" boostWeight="1.0000000000000000e+00" itree="577">
      <Node pos="s" depth="0" NCoef="0" IVar="9" Cut="1.4664783477783203e+00" cType="1" res="4.6543413191102445e-04" rms="2.4187025427818298e-01" purity="4.9424967169761658e-01" nType="0">
        <Node pos="l" depth="1" NCoef="0" IVar="1" Cut="6.0134842991828918e-02" cType="1" res="1.8313707550987601e-03" rms="2.4119934439659119e-01" purity="5.1784175634384155e-01" nType="0">
          <Node pos="l" depth="2" NCoef="0" IVar="1" Cut="5.4417636245489120e-02" cType="1" res="-2.4744449183344841e-03" rms="2.3489333689212799e-01" purity="2.5462290644645691e-01" nType="0">
            <Node pos="l" depth="3" NCoef="0" IVar="-1" Cut="0.0000000000000000e+00" cType="1" res="-7.1020267205312848e-04" rms="2.3063531517982483e-01" purity="2.3505592346191406e-01" nType="-99"/>
            <Node pos="r" depth="3" NCoef="0" IVar="-1" Cut="0.0000000000000000e+00" cType="1" res="-3.6769900470972061e-02" rms="2.8207781910896301e-01" purity="5.0282496213912964e-01" nType="-99"/>
          </Node>
          <Node pos="r" depth="2" NCoef="0" IVar="5" Cut="1.6783848571777344e+02" cType="1" res="5.4756854660809040e-03" rms="2.4635170400142670e-01" purity="7.4062240123748779e-01" nType="0">
            <Node pos="l" depth="3" NCoef="0" IVar="-1" Cut="0.0000000000000000e+00" cType="1" res="1.3969765976071358e-02" rms="3.1059315800666809e-01" purity="4.3038639426231384e-01" nType="-99"/>
            <Node pos="r" depth="3" NCoef="0" IVar="-1" Cut="0.0000000000000000e+00" cType="1" res="2.7120690792798996e-03" rms="2.0269438624382019e-01" purity="9.1015219688415527e-01" nType="-99"/>
          </Node>
        </Node>
        <Node pos="r" depth="1" NCoef="0" IVar="1" Cut="5.9063743799924850e-02" cType="1" res="-1.2379707768559456e-02" rms="2.4772246181964874e-01" purity="2.7239167690277100e-01" nType="0">
          <Node pos="l" depth="2" NCoef="0" IVar="9" Cut="1.9743163585662842e+00" cType="1" res="-4.1629923507571220e-03" rms="2.0097884535789490e-01" purity="1.3609299063682556e-01" nType="0">
            <Node pos="l" depth="3" NCoef="0" IVar="-1" Cut="0.0000000000000000e+00" cType="1" res="-2.3683020845055580e-02" rms="2.0481450855731964e-01" purity="1.6967925429344177e-01" nType="-99"/>
            <Node pos="r" depth="3" NCoef="0" IVar="-1" Cut="0.0000000000000000e+00" cType="1" res="1.3611947186291218e-02" rms="1.9624958932399750e-01" purity="9.9120900034904480e-02" nType="-99"/>
          </Node>
          <Node pos="r" depth="2" NCoef="0" IVar="-1" Cut="0.0000000000000000e+00" cType="1" res="-2.7544325217604637e-02" rms="3.0636930465698242e-01" purity="4.8532089591026306e-01" nType="-99"/>
        </Node>
      </Node>
    </BinaryTree>
    <BinaryTree type="DecisionTree" boostWeight="1.0000000000000000e+00" itree="578">
      <Node pos="s" depth="0" NCoef="0" IVar="3" Cut="3.4627020263671875e+02" cType="1" res="1.3870627153664827e-03" rms="2.4282795190811157e-01" purity="5.0475293397903442e-01" nType="0">
        <Node pos="l" depth="1" NCoef="0" IVar="7" Cut="-3.9691236615180969e-01" cType="1" res="-2.0558077376335859e-03" rms="2.4959668517112732e-01" purity="2.9354807734489441e-01" nType="0">
          <Node pos="l" depth="2" NCoef="0" IVar="9" Cut="-1.4664196968078613e+00" cType="1" res="-9.8079955205321312e-03" rms="2.3610001802444458e-01" purity="2.5119712948799133e-01" nType="0">
            <Node pos="l" depth="3" NCoef="0" IVar="-1" Cut="0.0000000000000000e+00" cType="1" res="1.8941339105367661e-02" rms="2.4758143723011017e-01" purity="1.8058511614799500e-01" nType="-99"/>
            <Node pos="r" depth="3" NCoef="0" IVar="-1" Cut="0.0000000000000000e+00" cType="1" res="-2.1209981292486191e-02" rms="2.3400779068470001e-01" purity="2.6261216402053833e-01" nType="-99"/>
          </Node>
          <Node pos="r" depth="2" NCoef="0" IVar="1" Cut="1.4809222519397736e-01" cType="1" res="2.5535281747579575e-03" rms="2.5717541575431824e-01" purity="3.1872934103012085e-01" nType="0">
            <Node pos="l" depth="3" NCoef="0" IVar="-1" Cut="0.0000000000000000e+00" cType="1" res="-2.8587894048541784e-03" rms="2.5377434492111206e-01" purity="2.4704912304878235e-01" nType="-99"/>
            <Node pos="r" depth="3" NCoef="0" IVar="-1" Cut="0.0000000000000000e+00" cType="1" res="3.7652835249900818e-02" rms="2.7511560916900635e-01" purity="7.4558347463607788e-01" nType="-99"/>
          </Node>
        </Node>
        <Node pos="r" depth="1" NCoef="0" IVar="1" Cut="2.0877888426184654e-02" cType="1" res="6.0908324085175991e-03" rms="2.3318085074424744e-01" purity="7.9330819845199585e-01" nType="0">
          <Node pos="l" depth="2" NCoef="0" IVar="-1" Cut="0.0000000000000000e+00" cType="1" res="3.3158283680677414e-02" rms="2.6492238044738770e-01" purity="3.0331137776374817e-01" nType="-99"/>
          <Node pos="r" depth="2" NCoef="0" IVar="3" Cut="3.9849334716796875e+02" cType="1" res="3.9010648615658283e-03" rms="2.2876869142055511e-01" purity="8.5514926910400391e-01" nType="0">
            <Node pos="l" depth="3" NCoef="0" IVar="-1" Cut="0.0000000000000000e+00" cType="1" res="2.1151373162865639e-02" rms="2.6444795727729797e-01" purity="7.7191668748855591e-01" nType="-99"/>
            <Node pos="r" depth="3" NCoef="0" IVar="-1" Cut="0.0000000000000000e+00" cType="1" res="-1.5376453520730138e-03" rms="2.1210472285747528e-01" purity="8.8955092430114746e-01" nType="-99"/>
          </Node>
        </Node>
      </Node>
    </BinaryTree>
    <BinaryTree type="DecisionTree" boostWeight="1.0000000000000000e+00" itree="579">
      <Node pos="s" depth="0" NCoef="0" IVar="8" Cut="-9.3365448713302612e-01" cType="1" res="-7.8117544762790203e-04" rms="2.3957042396068573e-01" purity="5.0494790077209473e-01" nType="0">
        <Node pos="l" depth="1" NCoef="0" IVar="8" Cut="-1.2892532348632812e+00" cType="1" res="-7.4486718513071537e-03" rms="2.4106599390506744e-01" purity="3.4393733739852905e-01" nType="0">
          <Node pos="l" depth="2" NCoef="0" IVar="8" Cut="-1.9367336034774780e+00" cType="1" res="6.4245716203004122e-05" rms="2.3828676342964172e-01" purity="2.7314391732215881e-01" nType="0">
            <Node pos="l" depth="3" NCoef="0" IVar="-1" Cut="0.0000000000000000e+00" cType="1" res="-3.6432404071092606e-02" rms="2.0243787765502930e-01" purity="9.9959090352058411e-02" nType="-99"/>
            <Node pos="r" depth="3" NCoef="0" IVar="-1" Cut="0.0000000000000000e+00" cType="1" res="1.0461457073688507e-02" rms="2.5110116600990295e-01" purity="3.4383064508438110e-01" nType="-99"/>
          </Node>
          <Node pos="r" depth="2" NCoef="0" IVar="3" Cut="3.3545965576171875e+02" cType="1" res="-1.8117588013410568e-02" rms="2.4456226825714111e-01" purity="4.4446933269500732e-01" nType="0">
            <Node pos="l" depth="3" NCoef="0" IVar="-1" Cut="0.0000000000000000e+00" cType="1" res="-3.9703156799077988e-02" rms="2.4058724939823151e-01" purity="2.4967417120933533e-01" nType="-99"/>
            <Node pos="r" depth="3" NCoef="0" IVar="-1" Cut="0.0000000000000000e+00" cType="1" res="-1.0387483052909374e-02" rms="2.4999023973941803e-01" purity="7.3790377378463745e-01" nType="-99"/>
          </Node>
        </Node>
        <Node pos="r" depth="1" NCoef="0" IVar="8" Cut="4.8817238211631775e-01" cType="1" res="7.6456915121525526e-04" rms="2.3919582366943359e-01" purity="5.4227542877197266e-01" nType="0">
          <Node pos="l" depth="2" NCoef="0" IVar="2" Cut="8.7326763916015625e+02" cType="1" res="4.3556317687034607e-03" rms="2.3598636686801910e-01" purity="6.0948210954666138e-01" nType="0">
            <Node pos="l" depth="3" NCoef="0" IVar="-1" Cut="0.0000000000000000e+00" cType="1" res="1.0072615928947926e-02" rms="2.3267330229282379e-01" purity="5.9587442874908447e-01" nType="-99"/>
            <Node pos="r" depth="3" NCoef="0" IVar="-1" Cut="0.0000000000000000e+00" cType="1" res="-2.0874118432402611e-02" rms="2.8108534216880798e-01" purity="8.1725829839706421e-01" nType="-99"/>
          </Node>
          <Node pos="r" depth="2" NCoef="0" IVar="9" Cut="1.3343286514282227e-01" cType="1" res="-4.7153718769550323e-03" rms="2.4391022324562073e-01" purity="4.3971830606460571e-01" nType="0">
            <Node pos="l" depth="3" NCoef="0" IVar="-1" Cut="0.0000000000000000e+00" cType="1" res="3.8902685046195984e-03" rms="2.4644799530506134e-01" purity="4.6372401714324951e-01" nType="-99"/>
            <Node pos="r" depth="3" NCoef="0" IVar="-1" Cut="0.0000000000000000e+00" cType="1" res="-1.9340423867106438e-02" rms="2.4098943173885345e-01" purity="4.1452911496162415e-01" nType="-99"/>
          </Node>
        </Node>
      </Node>
    </BinaryTree>
    <BinaryTree type="DecisionTree" boostWeight="1.0000000000000000e+00" itree="580">
      <Node pos="s" depth="0" NCoef="0" IVar="1" Cut="6.3504330813884735e-02" cType="1" res="2.6632894296199083e-03" rms="2.4412588775157928e-01" purity="5.0092172622680664e-01" nType="0">
        <Node pos="l" depth="1" NCoef="0" IVar="1" Cut="1.2191406451165676e-02" cType="1" res="6.2803248874843121e-03" rms="2.4226649105548859e-01" purity="2.5704365968704224e-01" nType="0">
          <Node pos="l" depth="2" NCoef="0" IVar="3" Cut="3.1199240112304688e+02" cType="1" res="-4.2666429653763771e-03" rms="1.4965134859085083e-01" purity="5.2530188113451004e-02" nType="0">
            <Node pos="l" depth="3" NCoef="0" IVar="-1" Cut="0.0000000000000000e+00" cType="1" res="1.7073756083846092e-02" rms="1.2164740264415741e-01" purity="2.2387854754924774e-02" nType="-99"/>
            <Node pos="r" depth="3" NCoef="0" IVar="-1" Cut="0.0000000000000000e+00" cType="1" res="-4.0877129882574081e-02" rms="1.9507132470607758e-01" purity="1.1572863906621933e-01" nType="-99"/>
          </Node>
          <Node pos="r" depth="2" NCoef="0" IVar="0" Cut="3.1310263671875000e+03" cType="1" res="9.2526022344827652e-03" rms="2.6245382428169250e-01" purity="3.1467834115028381e-01" nType="0">
            <Node pos="l" depth="3" NCoef="0" IVar="-1" Cut="0.0000000000000000e+00" cType="1" res="1.5681542456150055e-02" rms="2.6460346579551697e-01" purity="2.7111974358558655e-01" nType="-99"/>
            <Node pos="r" depth="3" NCoef="0" IVar="-1" Cut="0.0000000000000000e+00" cType="1" res="-1.5857467427849770e-02" rms="2.2950950264930725e-01" purity="9.2570114135742188e-01" nType="-99"/>
          </Node>
        </Node>
        <Node pos="r" depth="1" NCoef="0" IVar="8" Cut="-1.3036778569221497e-01" cType="1" res="-8.1379979383200407e-04" rms="2.4584993720054626e-01" purity="7.3536401987075806e-01" nType="0">
          <Node pos="l" depth="2" NCoef="0" IVar="4" Cut="1.7358845520019531e+02" cType="1" res="4.8886323347687721e-03" rms="2.5145325064659119e-01" purity="7.3965209722518921e-01" nType="0">
            <Node pos="l" depth="3" NCoef="0" IVar="-1" Cut="0.0000000000000000e+00" cType="1" res="3.3150788396596909e-02" rms="3.0466526746749878e-01" purity="2.5333040952682495e-01" nType="-99"/>
            <Node pos="r" depth="3" NCoef="0" IVar="-1" Cut="0.0000000000000000e+00" cType="1" res="1.5695472247898579e-03" rms="2.4138747155666351e-01" purity="8.1935000419616699e-01" nType="-99"/>
          </Node>
          <Node pos="r" depth="2" NCoef="0" IVar="1" Cut="9.9727697670459747e-02" cType="1" res="-5.4248520173132420e-03" rms="2.4112527072429657e-01" purity="7.3189663887023926e-01" nType="0">
            <Node pos="l" depth="3" NCoef="0" IVar="-1" Cut="0.0000000000000000e+00" cType="1" res="-2.5329517200589180e-02" rms="2.7497714757919312e-01" purity="5.7705616950988770e-01" nType="-99"/>
            <Node pos="r" depth="3" NCoef="0" IVar="-1" Cut="0.0000000000000000e+00" cType="1" res="3.8284822367131710e-03" rms="2.2211009263992310e-01" purity="8.0849456787109375e-01" nType="-99"/>
          </Node>
        </Node>
      </Node>
    </BinaryTree>
    <BinaryTree type="DecisionTree" boostWeight="1.0000000000000000e+00" itree="581">
      <Node pos="s" depth="0" NCoef="0" IVar="9" Cut="9.3338847160339355e-01" cType="1" res="1.3263100991025567e-03" rms="2.4461935460567474e-01" purity="5.0006061792373657e-01" nType="0">
        <Node pos="l" depth="1" NCoef="0" IVar="8" Cut="-1.7333669662475586e+00" cType="1" res="-9.4678136520087719e-04" rms="2.4040177464485168e-01" purity="5.2118134498596191e-01" nType="0">
          <Node pos="l" depth="2" NCoef="0" IVar="-1" Cut="0.0000000000000000e+00" cType="1" res="3.5458337515592575e-02" rms="2.4517869949340820e-01" purity="1.4937916398048401e-01" nType="-99"/>
          <Node pos="r" depth="2" NCoef="0" IVar="8" Cut="4.2489373683929443e-01" cType="1" res="-1.8871149513870478e-03" rms="2.4011129140853882e-01" purity="5.4071563482284546e-01" nType="0">
            <Node pos="l" depth="3" NCoef="0" IVar="-1" Cut="0.0000000000000000e+00" cType="1" res="-7.9750958830118179e-03" rms="2.3564110696315765e-01" purity="5.7059824466705322e-01" nType="-99"/>
            <Node pos="r" depth="3" NCoef="0" IVar="-1" Cut="0.0000000000000000e+00" cType="1" res="5.6421519257128239e-03" rms="2.4848881363868713e-01" purity="4.8258140683174133e-01" nType="-99"/>
          </Node>
        </Node>
        <Node pos="r" depth="1" NCoef="0" IVar="7" Cut="6.6664290428161621e-01" cType="1" res="1.0232375003397465e-02" rms="2.6029574871063232e-01" purity="4.1730880737304688e-01" nType="0">
          <Node pos="l" depth="2" NCoef="0" IVar="2" Cut="4.9342126464843750e+02" cType="1" res="1.3596807839348912e-03" rms="2.5700443983078003e-01" purity="4.5064902305603027e-01" nType="0">
            <Node pos="l" depth="3" NCoef="0" IVar="-1" Cut="0.0000000000000000e+00" cType="1" res="-1.9611332565546036e-02" rms="2.5045734643936157e-01" purity="3.0171987414360046e-01" nType="-99"/>
            <Node pos="r" depth="3" NCoef="0" IVar="-1" Cut="0.0000000000000000e+00" cType="1" res="2.4041183292865753e-02" rms="2.6235884428024292e-01" purity="5.9464085102081299e-01" nType="-99"/>
          </Node>
          <Node pos="r" depth="2" NCoef="0" IVar="1" Cut="3.5793080925941467e-02" cType="1" res="3.1434576958417892e-02" rms="2.6680469512939453e-01" purity="3.3763900399208069e-01" nType="0">
            <Node pos="l" depth="3" NCoef="0" IVar="-1" Cut="0.0000000000000000e+00" cType="1" res="2.6195028796792030e-02" rms="2.1556152403354645e-01" purity="1.2263917922973633e-01" nType="-99"/>
            <Node pos="r" depth="3" NCoef="0" IVar="-1" Cut="0.0000000000000000e+00" cType="1" res="5.8670885860919952e-02" rms="3.0470612645149231e-01" purity="5.3228700160980225e-01" nType="-99"/>
          </Node>
        </Node>
      </Node>
    </BinaryTree>
    <BinaryTree type="DecisionTree" boostWeight="1.0000000000000000e+00" itree="582">
      <Node pos="s" depth="0" NCoef="0" IVar="7" Cut="-9.3345445394515991e-01" cType="1" res="3.2813433790579438e-04" rms="2.4030122160911560e-01" purity="4.9710038304328918e-01" nType="0">
        <Node pos="l" depth="1" NCoef="0" IVar="5" Cut="1.8518670654296875e+02" cType="1" res="9.4849551096558571e-03" rms="2.4040724337100983e-01" purity="2.9690438508987427e-01" nType="0">
          <Node pos="l" depth="2" NCoef="0" IVar="6" Cut="-7.7872580289840698e-01" cType="1" res="4.2754239402711391e-03" rms="2.2724373638629913e-01" purity="1.4920531213283539e-01" nType="0">
            <Node pos="l" depth="3" NCoef="0" IVar="-1" Cut="0.0000000000000000e+00" cType="1" res="-2.8741281479597092e-02" rms="1.8023243546485901e-01" purity="7.1900419890880585e-02" nType="-99"/>
            <Node pos="r" depth="3" NCoef="0" IVar="-1" Cut="0.0000000000000000e+00" cType="1" res="1.5930591151118279e-02" rms="2.3989586532115936e-01" purity="1.7345428466796875e-01" nType="-99"/>
          </Node>
          <Node pos="r" depth="2" NCoef="0" IVar="-1" Cut="0.0000000000000000e+00" cType="1" res="3.0249545350670815e-02" rms="2.7429050207138062e-01" purity="7.2261971235275269e-01" nType="-99"/>
        </Node>
        <Node pos="r" depth="1" NCoef="0" IVar="7" Cut="-7.5569647550582886e-01" cType="1" res="-1.4761560596525669e-03" rms="2.4023917317390442e-01" purity="5.3654766082763672e-01" nType="0">
          <Node pos="l" depth="2" NCoef="0" IVar="-1" Cut="0.0000000000000000e+00" cType="1" res="2.0174179226160049e-02" rms="2.6868900656700134e-01" purity="5.3884714841842651e-01" nType="-99"/>
          <Node pos="r" depth="2" NCoef="0" IVar="7" Cut="1.9527562856674194e+00" cType="1" res="-2.4720609653741121e-03" rms="2.3829133808612823e-01" purity="5.3640228509902954e-01" nType="0">
            <Node pos="l" depth="3" NCoef="0" IVar="-1" Cut="0.0000000000000000e+00" cType="1" res="-3.1068068929016590e-03" rms="2.4110533297061920e-01" purity="5.5329650640487671e-01" nType="-99"/>
            <Node pos="r" depth="3" NCoef="0" IVar="-1" Cut="0.0000000000000000e+00" cType="1" res="-7.4326246976852417e-02" rms="1.2918949127197266e-01" purity="3.8393478840589523e-02" nType="-99"/>
          </Node>
        </Node>
      </Node>
    </BinaryTree>
    <BinaryTree type="DecisionTree" boostWeight="1.0000000000000000e+00" itree="583">
      <Node pos="s" depth="0" NCoef="0" IVar="1" Cut="4.1357293725013733e-02" cType="1" res="1.9444262143224478e-03" rms="2.4084585905075073e-01" purity="5.0644302368164062e-01" nType="0">
        <Node pos="l" depth="1" NCoef="0" IVar="2" Cut="5.6579705810546875e+02" cType="1" res="-3.9490396156907082e-03" rms="2.1614560484886169e-01" purity="1.8234555423259735e-01" nType="0">
          <Node pos="l" depth="2" NCoef="0" IVar="5" Cut="1.8695466613769531e+02" cType="1" res="1.4589433558285236e-03" rms="1.9504009187221527e-01" purity="1.1285746097564697e-01" nType="0">
            <Node pos="l" depth="3" NCoef="0" IVar="-1" Cut="0.0000000000000000e+00" cType="1" res="-7.4686855077743530e-03" rms="1.7717966437339783e-01" purity="5.7848885655403137e-02" nType="-99"/>
            <Node pos="r" depth="3" NCoef="0" IVar="-1" Cut="0.0000000000000000e+00" cType="1" res="2.9418664053082466e-02" rms="2.8798577189445496e-01" purity="4.9096259474754333e-01" nType="-99"/>
          </Node>
          <Node pos="r" depth="2" NCoef="0" IVar="1" Cut="2.7576087042689323e-02" cType="1" res="-1.2933203019201756e-02" rms="2.4699527025222778e-01" purity="2.9778459668159485e-01" nType="0">
            <Node pos="l" depth="3" NCoef="0" IVar="-1" Cut="0.0000000000000000e+00" cType="1" res="-8.3306254819035530e-03" rms="2.2536858916282654e-01" purity="2.2075158357620239e-01" nType="-99"/>
            <Node pos="r" depth="3" NCoef="0" IVar="-1" Cut="0.0000000000000000e+00" cType="1" res="-3.4781921654939651e-02" rms="2.8760722279548645e-01" purity="4.6515396237373352e-01" nType="-99"/>
          </Node>
        </Node>
        <Node pos="r" depth="1" NCoef="0" IVar="8" Cut="1.4670195579528809e+00" cType="1" res="5.0813197158277035e-03" rms="2.5295558571815491e-01" purity="6.7894917726516724e-01" nType="0">
          <Node pos="l" depth="2" NCoef="0" IVar="9" Cut="-1.4668689966201782e+00" cType="1" res="3.6429918836802244e-03" rms="2.4886481463909149e-01" purity="6.9111222028732300e-01" nType="0">
            <Node pos="l" depth="3" NCoef="0" IVar="-1" Cut="0.0000000000000000e+00" cType="1" res="-1.7024004831910133e-02" rms="2.9450806975364685e-01" purity="4.8301956057548523e-01" nType="-99"/>
            <Node pos="r" depth="3" NCoef="0" IVar="-1" Cut="0.0000000000000000e+00" cType="1" res="8.4304306656122208e-03" rms="2.4479724466800690e-01" purity="7.0768201351165771e-01" nType="-99"/>
          </Node>
          <Node pos="r" depth="2" NCoef="0" IVar="-1" Cut="0.0000000000000000e+00" cType="1" res="3.3949192613363266e-02" rms="3.1883287429809570e-01" purity="4.5124071836471558e-01" nType="-99"/>
        </Node>
      </Node>
    </BinaryTree>
    <BinaryTree type="DecisionTree" boostWeight="1.0000000000000000e+00" itree="584">
      <Node pos="s" depth="0" NCoef="0" IVar="8" Cut="-1.9999395608901978e+00" cType="1" res="-4.5819600927643478e-04" rms="2.4267901480197906e-01" purity="5.0064164400100708e-01" nType="0">
        <Node pos="l" depth="1" NCoef="0" IVar="-1" Cut="0.0000000000000000e+00" cType="1" res="6.3990868628025055e-02" rms="2.5799214839935303e-01" purity="1.3759629428386688e-01" nType="-99"/>
        <Node pos="r" depth="1" NCoef="0" IVar="9" Cut="-1.4660094976425171e+00" cType="1" res="-1.2845447054132819e-03" rms="2.4215528368949890e-01" purity="5.1155775785446167e-01" nType="0">
          <Node pos="l" depth="2" NCoef="0" IVar="6" Cut="-9.1944783926010132e-02" cType="1" res="-1.5284861437976360e-02" rms="2.7150967717170715e-01" purity="3.2365658879280090e-01" nType="0">
            <Node pos="l" depth="3" NCoef="0" IVar="-1" Cut="0.0000000000000000e+00" cType="1" res="-3.9628945291042328e-02" rms="2.6707464456558228e-01" purity="3.0224326252937317e-01" nType="-99"/>
            <Node pos="r" depth="3" NCoef="0" IVar="-1" Cut="0.0000000000000000e+00" cType="1" res="2.2368093486875296e-03" rms="2.7530801296234131e-01" purity="3.4721481800079346e-01" nType="-99"/>
          </Node>
          <Node pos="r" depth="2" NCoef="0" IVar="2" Cut="3.1333108520507812e+02" cType="1" res="1.9725594029296190e-04" rms="2.3878931999206543e-01" purity="5.3144526481628418e-01" nType="0">
            <Node pos="l" depth="3" NCoef="0" IVar="-1" Cut="0.0000000000000000e+00" cType="1" res="2.7047077193856239e-02" rms="2.7916193008422852e-01" purity="2.1744899451732635e-01" nType="-99"/>
            <Node pos="r" depth="3" NCoef="0" IVar="-1" Cut="0.0000000000000000e+00" cType="1" res="-2.7025258168578148e-03" rms="2.3486122488975525e-01" purity="5.5881714820861816e-01" nType="-99"/>
          </Node>
        </Node>
      </Node>
    </BinaryTree>
    <BinaryTree type="DecisionTree" boostWeight="1.0000000000000000e+00" itree="585">
      <Node pos="s" depth="0" NCoef="0" IVar="7" Cut="9.3408918380737305e-01" cType="1" res="-1.1692789848893881e-03" rms="2.4083086848258972e-01" purity="4.9699240922927856e-01" nType="0">
        <Node pos="l" depth="1" NCoef="0" IVar="7" Cut="-3.0991759896278381e-01" cType="1" res="-2.4823632556945086e-03" rms="2.4076157808303833e-01" purity="5.3326833248138428e-01" nType="0">
          <Node pos="l" depth="2" NCoef="0" IVar="8" Cut="6.6616725921630859e-01" cType="1" res="2.4267304688692093e-03" rms="2.4465459585189819e-01" purity="4.5051994919776917e-01" nType="0">
            <Node pos="l" depth="3" NCoef="0" IVar="-1" Cut="0.0000000000000000e+00" cType="1" res="-1.7510723555460572e-03" rms="2.4436566233634949e-01" purity="4.6965843439102173e-01" nType="-99"/>
            <Node pos="r" depth="3" NCoef="0" IVar="-1" Cut="0.0000000000000000e+00" cType="1" res="2.0794210955500603e-02" rms="2.4524684250354767e-01" purity="3.8910341262817383e-01" nType="-99"/>
          </Node>
          <Node pos="r" depth="2" NCoef="0" IVar="0" Cut="2.7313776855468750e+03" cType="1" res="-6.4588920213282108e-03" rms="2.3748695850372314e-01" purity="6.0029721260070801e-01" nType="0">
            <Node pos="l" depth="3" NCoef="0" IVar="-1" Cut="0.0000000000000000e+00" cType="1" res="-1.3607325963675976e-02" rms="2.6923742890357971e-01" purity="4.4825276732444763e-01" nType="-99"/>
            <Node pos="r" depth="3" NCoef="0" IVar="-1" Cut="0.0000000000000000e+00" cType="1" res="1.3752505183219910e-02" rms="1.2812954187393188e-01" purity="9.7703999280929565e-01" nType="-99"/>
          </Node>
        </Node>
        <Node pos="r" depth="1" NCoef="0" IVar="3" Cut="2.4231896972656250e+02" cType="1" res="5.5309124290943146e-03" rms="2.4107277393341064e-01" purity="3.1188973784446716e-01" nType="0">
          <Node pos="l" depth="2" NCoef="0" IVar="2" Cut="4.2713073730468750e+02" cType="1" res="1.8056364730000496e-02" rms="2.2860690951347351e-01" purity="1.2832152843475342e-01" nType="0">
            <Node pos="l" depth="3" NCoef="0" IVar="-1" Cut="0.0000000000000000e+00" cType="1" res="6.4785510301589966e-02" rms="2.6886442303657532e-01" purity="1.5254540741443634e-01" nType="-99"/>
            <Node pos="r" depth="3" NCoef="0" IVar="-1" Cut="0.0000000000000000e+00" cType="1" res="5.1997574046254158e-03" rms="1.8431486189365387e-01" purity="1.0686417669057846e-01" nType="-99"/>
          </Node>
          <Node pos="r" depth="2" NCoef="0" IVar="1" Cut="3.4117057919502258e-02" cType="1" res="-1.4993463410064578e-03" rms="2.4751740694046021e-01" purity="4.1492253541946411e-01" nType="0">
            <Node pos="l" depth="3" NCoef="0" IVar="-1" Cut="0.0000000000000000e+00" cType="1" res="1.9592249765992165e-02" rms="2.2698923945426941e-01" purity="1.6880637407302856e-01" nType="-99"/>
            <Node pos="r" depth="3" NCoef="0" IVar="-1" Cut="0.0000000000000000e+00" cType="1" res="-1.2910170480608940e-02" rms="2.6113933324813843e-01" purity="5.9435385465621948e-01" nType="-99"/>
          </Node>
        </Node>
      </Node>
    </BinaryTree>
    <BinaryTree type="DecisionTree" boostWeight="1.0000000000000000e+00" itree="586">
      <Node pos="s" depth="0" NCoef="0" IVar="8" Cut="-9.3390864133834839e-01" cType="1" res="8.9935411233454943e-04" rms="2.4370919167995453e-01" purity="5.0387591123580933e-01" nType="0">
        <Node pos="l" depth="1" NCoef="0" IVar="9" Cut="3.9891523122787476e-01" cType="1" res="-5.2491030655801296e-03" rms="2.5324359536170959e-01" purity="3.5571911931037903e-01" nType="0">
          <Node pos="l" depth="2" NCoef="0" IVar="1" Cut="5.2292939275503159e-02" cType="1" res="-1.3293193653225899e-02" rms="2.4672530591487885e-01" purity="3.5296678543090820e-01" nType="0">
            <Node pos="l" depth="3" NCoef="0" IVar="-1" Cut="0.0000000000000000e+00" cType="1" res="3.2752489205449820e-03" rms="2.2079309821128845e-01" purity="1.6230493783950806e-01" nType="-99"/>
            <Node pos="r" depth="3" NCoef="0" IVar="-1" Cut="0.0000000000000000e+00" cType="1" res="-3.2940004020929337e-02" rms="2.6929014921188354e-01" purity="5.4306524991989136e-01" nType="-99"/>
          </Node>
          <Node pos="r" depth="2" NCoef="0" IVar="9" Cut="9.6944171190261841e-01" cType="1" res="1.2159492820501328e-02" rms="2.6597374677658081e-01" purity="3.6167541146278381e-01" nType="0">
            <Node pos="l" depth="3" NCoef="0" IVar="-1" Cut="0.0000000000000000e+00" cType="1" res="3.2805737107992172e-02" rms="2.9130780696868896e-01" purity="4.4039347767829895e-01" nType="-99"/>
            <Node pos="r" depth="3" NCoef="0" IVar="-1" Cut="0.0000000000000000e+00" cType="1" res="2.6117328088730574e-03" rms="2.4341981112957001e-01" purity="2.9901039600372314e-01" nType="-99"/>
          </Node>
        </Node>
        <Node pos="r" depth="1" NCoef="0" IVar="0" Cut="2.1988310546875000e+03" cType="1" res="2.3106376174837351e-03" rms="2.4144549667835236e-01" purity="5.3788304328918457e-01" nType="0">
          <Node pos="l" depth="2" NCoef="0" IVar="4" Cut="2.1228961181640625e+02" cType="1" res="5.8153085410594940e-03" rms="2.6911768317222595e-01" purity="2.0395056903362274e-01" nType="0">
            <Node pos="l" depth="3" NCoef="0" IVar="-1" Cut="0.0000000000000000e+00" cType="1" res="-4.4150496250949800e-05" rms="2.3142760992050171e-01" purity="1.1515365540981293e-01" nType="-99"/>
            <Node pos="r" depth="3" NCoef="0" IVar="-1" Cut="0.0000000000000000e+00" cType="1" res="1.6746468842029572e-02" rms="3.4159091114997864e-01" purity="4.1354787349700928e-01" nType="-99"/>
          </Node>
          <Node pos="r" depth="2" NCoef="0" IVar="2" Cut="7.8470825195312500e+02" cType="1" res="-1.6748394118621945e-03" rms="2.0542494952678680e-01" purity="9.1762781143188477e-01" nType="0">
            <Node pos="l" depth="3" NCoef="0" IVar="-1" Cut="0.0000000000000000e+00" cType="1" res="-1.2206186540424824e-02" rms="1.9088722765445709e-01" purity="9.3446689844131470e-01" nType="-99"/>
            <Node pos="r" depth="3" NCoef="0" IVar="-1" Cut="0.0000000000000000e+00" cType="1" res="1.4817385934293270e-02" rms="2.5601956248283386e-01" purity="8.4889417886734009e-01" nType="-99"/>
          </Node>
        </Node>
      </Node>
    </BinaryTree>
    <BinaryTree type="DecisionTree" boostWeight="1.0000000000000000e+00" itree="587">
      <Node pos="s" depth="0" NCoef="0" IVar="6" Cut="-7.8699094057083130e-01" cType="1" res="3.0935279210098088e-04" rms="2.4116191267967224e-01" purity="5.0004875659942627e-01" nType="0">
        <Node pos="l" depth="1" NCoef="0" IVar="0" Cut="1.6289597167968750e+03" cType="1" res="9.4802333042025566e-03" rms="2.4426548182964325e-01" purity="2.9442411661148071e-01" nType="0">
          <Node pos="l" depth="2" NCoef="0" IVar="9" Cut="-3.9959698915481567e-01" cType="1" res="-8.1990141188725829e-04" rms="1.2834426760673523e-01" purity="1.8987135961651802e-02" nType="0">
            <Node pos="l" depth="3" NCoef="0" IVar="-1" Cut="0.0000000000000000e+00" cType="1" res="2.7071218937635422e-02" rms="1.3219505548477173e-01" purity="2.1390752866864204e-02" nType="-99"/>
            <Node pos="r" depth="3" NCoef="0" IVar="-1" Cut="0.0000000000000000e+00" cType="1" res="-2.8929488733410835e-02" rms="1.2418440729379654e-01" purity="1.6590589657425880e-02" nType="-99"/>
          </Node>
          <Node pos="r" depth="2" NCoef="0" IVar="4" Cut="2.5224453735351562e+02" cType="1" res="1.5822743996977806e-02" rms="2.9352554678916931e-01" purity="4.6402987837791443e-01" nType="0">
            <Node pos="l" depth="3" NCoef="0" IVar="-1" Cut="0.0000000000000000e+00" cType="1" res="3.3113904297351837e-02" rms="3.0270245671272278e-01" purity="2.7765712141990662e-01" nType="-99"/>
            <Node pos="r" depth="3" NCoef="0" IVar="-1" Cut="0.0000000000000000e+00" cType="1" res="-5.5240205256268382e-04" rms="2.7956056594848633e-01" purity="7.2103983163833618e-01" nType="-99"/>
          </Node>
        </Node>
        <Node pos="r" depth="1" NCoef="0" IVar="9" Cut="-9.3237787485122681e-01" cType="1" res="-1.6582120442762971e-03" rms="2.4044527113437653e-01" purity="5.4416453838348389e-01" nType="0">
          <Node pos="l" depth="2" NCoef="0" IVar="2" Cut="4.9580685424804688e+02" cType="1" res="-1.1731156148016453e-02" rms="2.5621259212493896e-01" purity="4.6961596608161926e-01" nType="0">
            <Node pos="l" depth="3" NCoef="0" IVar="-1" Cut="0.0000000000000000e+00" cType="1" res="-3.3516548573970795e-02" rms="2.6051330566406250e-01" purity="3.2113903760910034e-01" nType="-99"/>
            <Node pos="r" depth="3" NCoef="0" IVar="-1" Cut="0.0000000000000000e+00" cType="1" res="4.3055503629148006e-03" rms="2.5081321597099304e-01" purity="6.2460309267044067e-01" nType="-99"/>
          </Node>
          <Node pos="r" depth="2" NCoef="0" IVar="1" Cut="6.3908353447914124e-02" cType="1" res="9.6879393095150590e-04" rms="2.3608952760696411e-01" purity="5.6360656023025513e-01" nType="0">
            <Node pos="l" depth="3" NCoef="0" IVar="-1" Cut="0.0000000000000000e+00" cType="1" res="-7.0313527248799801e-03" rms="2.3875646293163300e-01" purity="3.0093467235565186e-01" nType="-99"/>
            <Node pos="r" depth="3" NCoef="0" IVar="-1" Cut="0.0000000000000000e+00" cType="1" res="8.2063199952244759e-03" rms="2.3400747776031494e-01" purity="7.5931173563003540e-01" nType="-99"/>
          </Node>
        </Node>
      </Node>
    </BinaryTree>
    <BinaryTree type="DecisionTree" boostWeight="1.0000000000000000e+00" itree="588">
      <Node pos="s" depth="0" NCoef="0" IVar="8" Cut="-1.9994633197784424e+00" cType="1" res="-2.8975799796171486e-04" rms="2.3665259778499603e-01" purity="5.0886583328247070e-01" nType="0">
        <Node pos="l" depth="1" NCoef="0" IVar="-1" Cut="0.0000000000000000e+00" cType="1" res="-4.9381595104932785e-02" rms="1.9830134510993958e-01" purity="9.6531994640827179e-02" nType="-99"/>
        <Node pos="r" depth="1" NCoef="0" IVar="8" Cut="-1.5419443845748901e+00" cType="1" res="2.5247409939765930e-04" rms="2.3757502436637878e-01" purity="5.1995623111724854e-01" nType="0">
          <Node pos="l" depth="2" NCoef="0" IVar="-1" Cut="0.0000000000000000e+00" cType="1" res="-2.9055874794721603e-02" rms="2.3850384354591370e-01" purity="2.4713820219039917e-01" nType="-99"/>
          <Node pos="r" depth="2" NCoef="0" IVar="8" Cut="-1.3352067470550537e+00" cType="1" res="1.2122079497203231e-03" rms="2.3748806118965149e-01" purity="5.3285914659500122e-01" nType="0">
            <Node pos="l" depth="3" NCoef="0" IVar="-1" Cut="0.0000000000000000e+00" cType="1" res="4.5402962714433670e-02" rms="2.7838462591171265e-01" purity="4.2041149735450745e-01" nType="-99"/>
            <Node pos="r" depth="3" NCoef="0" IVar="-1" Cut="0.0000000000000000e+00" cType="1" res="2.7805581339634955e-04" rms="2.3594357073307037e-01" purity="5.3657460212707520e-01" nType="-99"/>
          </Node>
        </Node>
      </Node>
    </BinaryTree>
    <BinaryTree type="DecisionTree" boostWeight="1.0000000000000000e+00" itree="589">
      <Node pos="s" depth="0" NCoef="0" IVar="9" Cut="1.3369521498680115e-01" cType="1" res="5.0016731256619096e-04" rms="2.4324651062488556e-01" purity="5.0228232145309448e-01" nType="0">
        <Node pos="l" depth="1" NCoef="0" IVar="7" Cut="1.1973607540130615e+00" cType="1" res="4.0137069299817085e-03" rms="2.4622185528278351e-01" purity="5.0988471508026123e-01" nType="0">
          <Node pos="l" depth="2" NCoef="0" IVar="7" Cut="-1.0855668783187866e+00" cType="1" res="1.8063948955386877e-03" rms="2.4498358368873596e-01" purity="5.3823512792587280e-01" nType="0">
            <Node pos="l" depth="3" NCoef="0" IVar="-1" Cut="0.0000000000000000e+00" cType="1" res="-2.0521603524684906e-02" rms="2.1574862301349640e-01" purity="2.1489141881465912e-01" nType="-99"/>
            <Node pos="r" depth="3" NCoef="0" IVar="-1" Cut="0.0000000000000000e+00" cType="1" res="6.8960669450461864e-03" rms="2.5015506148338318e-01" purity="6.0064673423767090e-01" nType="-99"/>
          </Node>
          <Node pos="r" depth="2" NCoef="0" IVar="0" Cut="1.7062043457031250e+03" cType="1" res="2.4171769618988037e-02" rms="2.5637692213058472e-01" purity="2.5097712874412537e-01" nType="0">
            <Node pos="l" depth="3" NCoef="0" IVar="-1" Cut="0.0000000000000000e+00" cType="1" res="2.5943476706743240e-02" rms="1.6621887683868408e-01" purity="3.2270871102809906e-02" nType="-99"/>
            <Node pos="r" depth="3" NCoef="0" IVar="-1" Cut="0.0000000000000000e+00" cType="1" res="4.5445606112480164e-02" rms="3.2707148790359497e-01" purity="4.9222153425216675e-01" nType="-99"/>
          </Node>
        </Node>
        <Node pos="r" depth="1" NCoef="0" IVar="7" Cut="-1.4621953964233398e+00" cType="1" res="-3.7851415108889341e-03" rms="2.3949784040451050e-01" purity="4.9301001429557800e-01" nType="0">
          <Node pos="l" depth="2" NCoef="0" IVar="-1" Cut="0.0000000000000000e+00" cType="1" res="5.3513076156377792e-02" rms="2.2261781990528107e-01" purity="1.4354225993156433e-01" nType="-99"/>
          <Node pos="r" depth="2" NCoef="0" IVar="0" Cut="2.1419096679687500e+03" cType="1" res="-5.6815012358129025e-03" rms="2.4054551124572754e-01" purity="5.1795923709869385e-01" nType="0">
            <Node pos="l" depth="3" NCoef="0" IVar="-1" Cut="0.0000000000000000e+00" cType="1" res="-1.5836896374821663e-02" rms="2.6415929198265076e-01" purity="1.6057452559471130e-01" nType="-99"/>
            <Node pos="r" depth="3" NCoef="0" IVar="-1" Cut="0.0000000000000000e+00" cType="1" res="2.3475897032767534e-03" rms="2.1142078936100006e-01" purity="9.1003769636154175e-01" nType="-99"/>
          </Node>
        </Node>
      </Node>
    </BinaryTree>
    <BinaryTree type="DecisionTree" boostWeight="1.0000000000000000e+00" itree="590">
      <Node pos="s" depth="0" NCoef="0" IVar="9" Cut="-1.4664196968078613e+00" cType="1" res="2.4371835752390325e-04" rms="2.4120031297206879e-01" purity="5.0906252861022949e-01" nType="0">
        <Node pos="l" depth="1" NCoef="0" IVar="7" Cut="-4.0100893378257751e-01" cType="1" res="1.2592762708663940e-02" rms="2.5959280133247375e-01" purity="3.1931903958320618e-01" nType="0">
          <Node pos="l" depth="2" NCoef="0" IVar="-1" Cut="0.0000000000000000e+00" cType="1" res="-1.3611135364044458e-04" rms="2.3713529109954834e-01" purity="2.4571137130260468e-01" nType="-99"/>
          <Node pos="r" depth="2" NCoef="0" IVar="6" Cut="-9.6440337598323822e-02" cType="1" res="2.3453637957572937e-02" rms="2.7691987156867981e-01" purity="3.8234683871269226e-01" nType="0">
            <Node pos="l" depth="3" NCoef="0" IVar="-1" Cut="0.0000000000000000e+00" cType="1" res="5.5296376347541809e-02" rms="2.8101897239685059e-01" purity="3.8938125967979431e-01" nType="-99"/>
            <Node pos="r" depth="3" NCoef="0" IVar="-1" Cut="0.0000000000000000e+00" cType="1" res="6.5274201333522797e-03" rms="2.7125695347785950e-01" purity="3.7486222386360168e-01" nType="-99"/>
          </Node>
        </Node>
        <Node pos="r" depth="1" NCoef="0" IVar="9" Cut="-4.5117837190628052e-01" cType="1" res="-1.1489815078675747e-03" rms="2.3899722099304199e-01" purity="5.3046149015426636e-01" nType="0">
          <Node pos="l" depth="2" NCoef="0" IVar="3" Cut="2.5958590698242188e+02" cType="1" res="-7.9325130209326744e-03" rms="2.4083936214447021e-01" purity="5.2340215444564819e-01" nType="0">
            <Node pos="l" depth="3" NCoef="0" IVar="-1" Cut="0.0000000000000000e+00" cType="1" res="8.9782578870654106e-03" rms="2.4289241433143616e-01" purity="1.7235453426837921e-01" nType="-99"/>
            <Node pos="r" depth="3" NCoef="0" IVar="-1" Cut="0.0000000000000000e+00" cType="1" res="-2.1830013021826744e-02" rms="2.3973096907138824e-01" purity="6.7557084560394287e-01" nType="-99"/>
          </Node>
          <Node pos="r" depth="2" NCoef="0" IVar="6" Cut="-1.0776765346527100e+00" cType="1" res="1.5380028635263443e-03" rms="2.3821020126342773e-01" purity="5.3325766324996948e-01" nType="0">
            <Node pos="l" depth="3" NCoef="0" IVar="-1" Cut="0.0000000000000000e+00" cType="1" res="2.4133089929819107e-02" rms="2.2063790261745453e-01" purity="2.1708209812641144e-01" nType="-99"/>
            <Node pos="r" depth="3" NCoef="0" IVar="-1" Cut="0.0000000000000000e+00" cType="1" res="7.6424848521128297e-04" rms="2.3997925221920013e-01" purity="5.6690710783004761e-01" nType="-99"/>
          </Node>
        </Node>
      </Node>
    </BinaryTree>
    <BinaryTree type="DecisionTree" boostWeight="1.0000000000000000e+00" itree="591">
      <Node pos="s" depth="0" NCoef="0" IVar="8" Cut="1.4654138088226318e+00" cType="1" res="-4.6416127588599920e-05" rms="2.3835964500904083e-01" purity="4.9826997518539429e-01" nType="0">
        <Node pos="l" depth="1" NCoef="0" IVar="8" Cut="-1.5802236795425415e+00" cType="1" res="8.7505613919347525e-04" rms="2.3900493979454041e-01" purity="5.2147507667541504e-01" nType="0">
          <Node pos="l" depth="2" NCoef="0" IVar="4" Cut="1.7042903137207031e+02" cType="1" res="-1.3275247067213058e-02" rms="2.1400709450244904e-01" purity="1.9139681756496429e-01" nType="0">
            <Node pos="l" depth="3" NCoef="0" IVar="-1" Cut="0.0000000000000000e+00" cType="1" res="1.0289995931088924e-02" rms="1.9478787481784821e-01" purity="9.3442261219024658e-02" nType="-99"/>
            <Node pos="r" depth="3" NCoef="0" IVar="-1" Cut="0.0000000000000000e+00" cType="1" res="-4.3286629021167755e-02" rms="2.2822681069374084e-01" purity="2.7596545219421387e-01" nType="-99"/>
          </Node>
          <Node pos="r" depth="2" NCoef="0" IVar="6" Cut="-1.6700817346572876e+00" cType="1" res="1.9451201660558581e-03" rms="2.4075597524642944e-01" purity="5.4643607139587402e-01" nType="0">
            <Node pos="l" depth="3" NCoef="0" IVar="-1" Cut="0.0000000000000000e+00" cType="1" res="-6.0265496373176575e-02" rms="1.2922455370426178e-01" purity="4.0680404752492905e-02" nType="-99"/>
            <Node pos="r" depth="3" NCoef="0" IVar="-1" Cut="0.0000000000000000e+00" cType="1" res="4.1403397917747498e-03" rms="2.4340710043907166e-01" purity="5.6230491399765015e-01" nType="-99"/>
          </Node>
        </Node>
        <Node pos="r" depth="1" NCoef="0" IVar="7" Cut="4.0895757079124451e-01" cType="1" res="-1.1398719623684883e-02" rms="2.2995856404304504e-01" purity="2.1238858997821808e-01" nType="0">
          <Node pos="l" depth="2" NCoef="0" IVar="-1" Cut="0.0000000000000000e+00" cType="1" res="-4.9914219416677952e-03" rms="2.4596565961837769e-01" purity="2.3431879281997681e-01" nType="-99"/>
          <Node pos="r" depth="2" NCoef="0" IVar="-1" Cut="0.0000000000000000e+00" cType="1" res="-4.3555364012718201e-02" rms="2.0594607293605804e-01" purity="1.8286243081092834e-01" nType="-99"/>
        </Node>
      </Node>
    </BinaryTree>
    <BinaryTree type="DecisionTree" boostWeight="1.0000000000000000e+00" itree="592">
      <Node pos="s" depth="0" NCoef="0" IVar="9" Cut="-6.6582387685775757e-01" cType="1" res="-2.9848814010620117e-03" rms="2.4042239785194397e-01" purity="5.0224763154983521e-01" nType="0">
        <Node pos="l" depth="1" NCoef="0" IVar="4" Cut="2.4757295227050781e+02" cType="1" res="2.1802184637635946e-03" rms="2.5170847773551941e-01" purity="4.5812380313873291e-01" nType="0">
          <Node pos="l" depth="2" NCoef="0" IVar="3" Cut="3.5393386840820312e+02" cType="1" res="-2.8609822038561106e-03" rms="2.5594639778137207e-01" purity="2.5445035099983215e-01" nType="0">
            <Node pos="l" depth="3" NCoef="0" IVar="-1" Cut="0.0000000000000000e+00" cType="1" res="5.0685298629105091e-03" rms="2.4721349775791168e-01" purity="2.1908450126647949e-01" nType="-99"/>
            <Node pos="r" depth="3" NCoef="0" IVar="-1" Cut="0.0000000000000000e+00" cType="1" res="-2.9610499739646912e-02" rms="2.8977635502815247e-01" purity="4.0984496474266052e-01" nType="-99"/>
          </Node>
          <Node pos="r" depth="2" NCoef="0" IVar="5" Cut="1.7434831237792969e+02" cType="1" res="1.1376036331057549e-02" rms="2.4351963400840759e-01" purity="8.2965117692947388e-01" nType="0">
            <Node pos="l" depth="3" NCoef="0" IVar="-1" Cut="0.0000000000000000e+00" cType="1" res="3.4707576036453247e-02" rms="3.1567919254302979e-01" purity="6.3420307636260986e-01" nType="-99"/>
            <Node pos="r" depth="3" NCoef="0" IVar="-1" Cut="0.0000000000000000e+00" cType="1" res="7.7060335315763950e-03" rms="2.0964355766773224e-01" purity="9.0297931432723999e-01" nType="-99"/>
          </Node>
        </Node>
        <Node pos="r" depth="1" NCoef="0" IVar="9" Cut="-5.0076466798782349e-01" cType="1" res="-4.9902391619980335e-03" rms="2.3586459457874298e-01" purity="5.1937872171401978e-01" nType="0">
          <Node pos="l" depth="2" NCoef="0" IVar="-1" Cut="0.0000000000000000e+00" cType="1" res="-4.0909543633460999e-02" rms="2.2806563973426819e-01" purity="5.5184680223464966e-01" nType="-99"/>
          <Node pos="r" depth="2" NCoef="0" IVar="2" Cut="3.0845632934570312e+02" cType="1" res="-3.4337555989623070e-03" rms="2.3639018833637238e-01" purity="5.1685041189193726e-01" nType="0">
            <Node pos="l" depth="3" NCoef="0" IVar="-1" Cut="0.0000000000000000e+00" cType="1" res="-3.0332155525684357e-02" rms="2.3387315869331360e-01" purity="1.6283291578292847e-01" nType="-99"/>
            <Node pos="r" depth="3" NCoef="0" IVar="-1" Cut="0.0000000000000000e+00" cType="1" res="-2.9043878894299269e-03" rms="2.3654644191265106e-01" purity="5.5000960826873779e-01" nType="-99"/>
          </Node>
        </Node>
      </Node>
    </BinaryTree>
    <BinaryTree type="DecisionTree" boostWeight="1.0000000000000000e+00" itree="593">
      <Node pos="s" depth="0" NCoef="0" IVar="6" Cut="1.0122991800308228e+00" cType="1" res="-1.0236205998808146e-03" rms="2.3821809887886047e-01" purity="5.0317984819412231e-01" nType="0">
        <Node pos="l" depth="1" NCoef="0" IVar="4" Cut="2.8293933105468750e+02" cType="1" res="-2.3682925384491682e-03" rms="2.4121648073196411e-01" purity="5.4554629325866699e-01" nType="0">
          <Node pos="l" depth="2" NCoef="0" IVar="8" Cut="-1.7320473194122314e+00" cType="1" res="-5.6757605634629726e-03" rms="2.5942540168762207e-01" purity="3.7052002549171448e-01" nType="0">
            <Node pos="l" depth="3" NCoef="0" IVar="-1" Cut="0.0000000000000000e+00" cType="1" res="2.2074533626437187e-02" rms="2.5012883543968201e-01" purity="1.7465621232986450e-01" nType="-99"/>
            <Node pos="r" depth="3" NCoef="0" IVar="-1" Cut="0.0000000000000000e+00" cType="1" res="-9.5691103488206863e-03" rms="2.5994873046875000e-01" purity="3.8269567489624023e-01" nType="-99"/>
          </Node>
          <Node pos="r" depth="2" NCoef="0" IVar="0" Cut="2.4385595703125000e+03" cType="1" res="4.5953048393130302e-03" rms="1.9728301465511322e-01" purity="9.1404950618743896e-01" nType="0">
            <Node pos="l" depth="3" NCoef="0" IVar="-1" Cut="0.0000000000000000e+00" cType="1" res="2.0680284127593040e-02" rms="3.1638547778129578e-01" purity="7.1006548404693604e-01" nType="-99"/>
            <Node pos="r" depth="3" NCoef="0" IVar="-1" Cut="0.0000000000000000e+00" cType="1" res="5.7521957205608487e-04" rms="1.5259449183940887e-01" purity="9.6585541963577271e-01" nType="-99"/>
          </Node>
        </Node>
        <Node pos="r" depth="1" NCoef="0" IVar="1" Cut="3.7642259150743484e-02" cType="1" res="8.5309753194451332e-03" rms="2.1547463536262512e-01" purity="2.0214405655860901e-01" nType="0">
          <Node pos="l" depth="2" NCoef="0" IVar="7" Cut="-6.6591632366180420e-01" cType="1" res="8.2485552411526442e-04" rms="1.5696875751018524e-01" purity="7.1867927908897400e-02" nType="0">
            <Node pos="l" depth="3" NCoef="0" IVar="-1" Cut="0.0000000000000000e+00" cType="1" res="7.8230753540992737e-02" rms="1.7765839397907257e-01" purity="4.5791860669851303e-02" nType="-99"/>
            <Node pos="r" depth="3" NCoef="0" IVar="-1" Cut="0.0000000000000000e+00" cType="1" res="-1.7873883247375488e-02" rms="1.4498306810855865e-01" purity="8.5004851222038269e-02" nType="-99"/>
          </Node>
          <Node pos="r" depth="2" NCoef="0" IVar="-1" Cut="0.0000000000000000e+00" cType="1" res="2.8784055262804031e-02" rms="2.8977730870246887e-01" purity="4.2827895283699036e-01" nType="-99"/>
        </Node>
      </Node>
    </BinaryTree>
    <BinaryTree type="DecisionTree" boostWeight="1.0000000000000000e+00" itree="594">
      <Node pos="s" depth="0" NCoef="0" IVar="0" Cut="1.8945874023437500e+03" cType="1" res="-4.7209477634169161e-04" rms="2.3772928118705750e-01" purity="4.9095362424850464e-01" nType="0">
        <Node pos="l" depth="1" NCoef="0" IVar="0" Cut="1.6590198974609375e+03" cType="1" res="-4.4072861783206463e-03" rms="2.2181271016597748e-01" purity="7.5587771832942963e-02" nType="0">
          <Node pos="l" depth="2" NCoef="0" IVar="8" Cut="-1.3379569351673126e-01" cType="1" res="9.9906756076961756e-04" rms="1.6966752707958221e-01" purity="3.6049727350473404e-02" nType="0">
            <Node pos="l" depth="3" NCoef="0" IVar="-1" Cut="0.0000000000000000e+00" cType="1" res="-3.2190471887588501e-02" rms="1.3951788842678070e-01" purity="2.3037577047944069e-02" nType="-99"/>
            <Node pos="r" depth="3" NCoef="0" IVar="-1" Cut="0.0000000000000000e+00" cType="1" res="3.2614152878522873e-02" rms="1.9369161128997803e-01" purity="4.8487298190593719e-02" nType="-99"/>
          </Node>
          <Node pos="r" depth="2" NCoef="0" IVar="0" Cut="1.7038692626953125e+03" cType="1" res="-1.4707966707646847e-02" rms="2.9653555154800415e-01" purity="1.5091927349567413e-01" nType="0">
            <Node pos="l" depth="3" NCoef="0" IVar="-1" Cut="0.0000000000000000e+00" cType="1" res="-5.5998913943767548e-02" rms="2.1430042386054993e-01" purity="5.8846510946750641e-02" nType="-99"/>
            <Node pos="r" depth="3" NCoef="0" IVar="-1" Cut="0.0000000000000000e+00" cType="1" res="-5.6845578365027905e-03" rms="3.1719437241554260e-01" purity="1.7944499850273132e-01" nType="-99"/>
          </Node>
        </Node>
        <Node pos="r" depth="1" NCoef="0" IVar="0" Cut="2.1183210449218750e+03" cType="1" res="2.6138173416256905e-03" rms="2.4945807456970215e-01" purity="8.1667661666870117e-01" nType="0">
          <Node pos="l" depth="2" NCoef="0" IVar="2" Cut="4.8620315551757812e+02" cType="1" res="1.4144172891974449e-02" rms="3.5017278790473938e-01" purity="4.6236330270767212e-01" nType="0">
            <Node pos="l" depth="3" NCoef="0" IVar="-1" Cut="0.0000000000000000e+00" cType="1" res="2.3363605141639709e-02" rms="3.7050536274909973e-01" purity="6.9658207893371582e-01" nType="-99"/>
            <Node pos="r" depth="3" NCoef="0" IVar="-1" Cut="0.0000000000000000e+00" cType="1" res="-3.8449109997600317e-03" rms="3.3025205135345459e-01" purity="2.5771608948707581e-01" nType="-99"/>
          </Node>
          <Node pos="r" depth="2" NCoef="0" IVar="8" Cut="1.2021344900131226e+00" cType="1" res="8.6592990555800498e-06" rms="2.2033534944057465e-01" purity="8.9672988653182983e-01" nType="0">
            <Node pos="l" depth="3" NCoef="0" IVar="-1" Cut="0.0000000000000000e+00" cType="1" res="2.4886347819119692e-03" rms="2.1455068886280060e-01" purity="9.0519624948501587e-01" nType="-99"/>
            <Node pos="r" depth="3" NCoef="0" IVar="-1" Cut="0.0000000000000000e+00" cType="1" res="-2.0804440602660179e-02" rms="2.8733032941818237e-01" purity="7.8130739927291870e-01" nType="-99"/>
          </Node>
        </Node>
      </Node>
    </BinaryTree>
    <BinaryTree type="DecisionTree" boostWeight="1.0000000000000000e+00" itree="595">
      <Node pos="s" depth="0" NCoef="0" IVar="1" Cut="2.2742393612861633e-01" cType="1" res="-1.6160293016582727e-03" rms="2.3986503481864929e-01" purity="4.8989328742027283e-01" nType="0">
        <Node pos="l" depth="1" NCoef="0" IVar="0" Cut="2.1418613281250000e+03" cType="1" res="-2.3725773207843304e-03" rms="2.4220164120197296e-01" purity="4.6749240159988403e-01" nType="0">
          <Node pos="l" depth="2" NCoef="0" IVar="0" Cut="1.7532586669921875e+03" cType="1" res="-5.3752576932311058e-03" rms="2.5151395797729492e-01" purity="1.3841283321380615e-01" nType="0">
            <Node pos="l" depth="3" NCoef="0" IVar="-1" Cut="0.0000000000000000e+00" cType="1" res="1.5875253593549132e-03" rms="1.8961699306964874e-01" purity="4.8879481852054596e-02" nType="-99"/>
            <Node pos="r" depth="3" NCoef="0" IVar="-1" Cut="0.0000000000000000e+00" cType="1" res="-1.4236836694180965e-02" rms="3.4107387065887451e-01" purity="3.1311237812042236e-01" nType="-99"/>
          </Node>
          <Node pos="r" depth="2" NCoef="0" IVar="4" Cut="2.8962075805664062e+02" cType="1" res="1.5231553697958589e-03" rms="2.2949881851673126e-01" purity="8.9444625377655029e-01" nType="0">
            <Node pos="l" depth="3" NCoef="0" IVar="-1" Cut="0.0000000000000000e+00" cType="1" res="8.9412843808531761e-03" rms="2.7000987529754639e-01" purity="8.4415334463119507e-01" nType="-99"/>
            <Node pos="r" depth="3" NCoef="0" IVar="-1" Cut="0.0000000000000000e+00" cType="1" res="-7.0570744574069977e-03" rms="1.8914103507995605e-01" purity="9.3634480237960815e-01" nType="-99"/>
          </Node>
        </Node>
        <Node pos="r" depth="1" NCoef="0" IVar="-1" Cut="0.0000000000000000e+00" cType="1" res="3.5685606300830841e-02" rms="1.8890047073364258e-01" purity="9.2004692554473877e-01" nType="-99"/>
      </Node>
    </BinaryTree>
    <BinaryTree type="DecisionTree" boostWeight="1.0000000000000000e+00" itree="596">
      <Node pos="s" depth="0" NCoef="0" IVar="1" Cut="8.2693293690681458e-02" cType="1" res="-1.1414773762226105e-03" rms="2.3925477266311646e-01" purity="4.9548581242561340e-01" nType="0">
        <Node pos="l" depth="1" NCoef="0" IVar="9" Cut="6.6671943664550781e-01" cType="1" res="-4.7118510119616985e-03" rms="2.4213373661041260e-01" purity="2.9719623923301697e-01" nType="0">
          <Node pos="l" depth="2" NCoef="0" IVar="9" Cut="1.7158624529838562e-01" cType="1" res="-7.8136706724762917e-03" rms="2.3885641992092133e-01" purity="3.1572684645652771e-01" nType="0">
            <Node pos="l" depth="3" NCoef="0" IVar="-1" Cut="0.0000000000000000e+00" cType="1" res="-7.8186877071857452e-03" rms="2.3897382616996765e-01" purity="3.0493375658988953e-01" nType="-99"/>
            <Node pos="r" depth="3" NCoef="0" IVar="-1" Cut="0.0000000000000000e+00" cType="1" res="-3.2209407538175583e-02" rms="2.3805625736713409e-01" purity="3.5615915060043335e-01" nType="-99"/>
          </Node>
          <Node pos="r" depth="2" NCoef="0" IVar="6" Cut="-1.0020391782745719e-03" cType="1" res="2.8954339213669300e-03" rms="2.4982661008834839e-01" purity="2.5174960494041443e-01" nType="0">
            <Node pos="l" depth="3" NCoef="0" IVar="-1" Cut="0.0000000000000000e+00" cType="1" res="1.7248449847102165e-02" rms="2.6172891259193420e-01" purity="2.5576677918434143e-01" nType="-99"/>
            <Node pos="r" depth="3" NCoef="0" IVar="-1" Cut="0.0000000000000000e+00" cType="1" res="-7.6469108462333679e-03" rms="2.3816156387329102e-01" purity="2.4806949496269226e-01" nType="-99"/>
          </Node>
        </Node>
        <Node pos="r" depth="1" NCoef="0" IVar="4" Cut="2.1566148376464844e+02" cType="1" res="4.0454175323247910e-03" rms="2.3491282761096954e-01" purity="7.8355294466018677e-01" nType="0">
          <Node pos="l" depth="2" NCoef="0" IVar="3" Cut="2.3749357604980469e+02" cType="1" res="-6.9360565394163132e-03" rms="3.0932956933975220e-01" purity="4.1709890961647034e-01" nType="0">
            <Node pos="l" depth="3" NCoef="0" IVar="-1" Cut="0.0000000000000000e+00" cType="1" res="-3.5616338253021240e-02" rms="2.8923380374908447e-01" purity="2.3934715986251831e-01" nType="-99"/>
            <Node pos="r" depth="3" NCoef="0" IVar="-1" Cut="0.0000000000000000e+00" cType="1" res="1.1347232386469841e-02" rms="3.1978461146354675e-01" purity="5.2720123529434204e-01" nType="-99"/>
          </Node>
          <Node pos="r" depth="2" NCoef="0" IVar="0" Cut="2.3061149902343750e+03" cType="1" res="8.0048581585288048e-03" rms="2.0130096375942230e-01" purity="9.1568034887313843e-01" nType="0">
            <Node pos="l" depth="3" NCoef="0" IVar="-1" Cut="0.0000000000000000e+00" cType="1" res="2.4160716682672501e-02" rms="3.3400022983551025e-01" purity="7.1742838621139526e-01" nType="-99"/>
            <Node pos="r" depth="3" NCoef="0" IVar="-1" Cut="0.0000000000000000e+00" cType="1" res="7.4881594628095627e-03" rms="1.2812836468219757e-01" purity="9.8245459794998169e-01" nType="-99"/>
          </Node>
        </Node>
      </Node>
    </BinaryTree>
    <BinaryTree type="DecisionTree" boostWeight="1.0000000000000000e+00" itree="597">
      <Node pos="s" depth="0" NCoef="0" IVar="3" Cut="6.0198400878906250e+02" cType="1" res="-3.9420911343768239e-04" rms="2.4050189554691315e-01" purity="5.0241398811340332e-01" nType="0">
        <Node pos="l" depth="1" NCoef="0" IVar="9" Cut="-1.1989473104476929e+00" cType="1" res="2.1827867021784186e-04" rms="2.4058435857295990e-01" purity="4.8509198427200317e-01" nType="0">
          <Node pos="l" depth="2" NCoef="0" IVar="6" Cut="4.9769407510757446e-01" cType="1" res="7.7942796051502228e-03" rms="2.5887814164161682e-01" purity="3.9134517312049866e-01" nType="0">
            <Node pos="l" depth="3" NCoef="0" IVar="-1" Cut="0.0000000000000000e+00" cType="1" res="1.8168602138757706e-02" rms="2.6729229092597961e-01" purity="4.5442429184913635e-01" nType="-99"/>
            <Node pos="r" depth="3" NCoef="0" IVar="-1" Cut="0.0000000000000000e+00" cType="1" res="-1.2089332565665245e-02" rms="2.3350319266319275e-01" purity="2.1753580868244171e-01" nType="-99"/>
          </Node>
          <Node pos="r" depth="2" NCoef="0" IVar="3" Cut="4.9996719360351562e+02" cType="1" res="-1.0933922603726387e-03" rms="2.3724929988384247e-01" purity="5.0132286548614502e-01" nType="0">
            <Node pos="l" depth="3" NCoef="0" IVar="-1" Cut="0.0000000000000000e+00" cType="1" res="-3.4120485652238131e-03" rms="2.4053043127059937e-01" purity="4.6393078565597534e-01" nType="-99"/>
            <Node pos="r" depth="3" NCoef="0" IVar="-1" Cut="0.0000000000000000e+00" cType="1" res="2.1689774468541145e-02" rms="1.9853937625885010e-01" purity="9.0101957321166992e-01" nType="-99"/>
          </Node>
        </Node>
        <Node pos="r" depth="1" NCoef="0" IVar="-1" Cut="0.0000000000000000e+00" cType="1" res="-2.5131344795227051e-02" rms="2.3841533064842224e-01" purity="8.6394959688186646e-01" nType="-99"/>
      </Node>
    </BinaryTree>
    <BinaryTree type="DecisionTree" boostWeight="1.0000000000000000e+00" itree="598">
      <Node pos="s" depth="0" NCoef="0" IVar="9" Cut="1.3367860019207001e-01" cType="1" res="1.3478267937898636e-03" rms="2.4063467979431152e-01" purity="4.9911993741989136e-01" nType="0">
        <Node pos="l" depth="1" NCoef="0" IVar="9" Cut="-1.1230646371841431e+00" cType="1" res="5.1147690974175930e-03" rms="2.4181100726127625e-01" purity="5.1055586338043213e-01" nType="0">
          <Node pos="l" depth="2" NCoef="0" IVar="2" Cut="6.4883062744140625e+02" cType="1" res="-5.1405658014118671e-03" rms="2.4024870991706848e-01" purity="3.8847613334655762e-01" nType="0">
            <Node pos="l" depth="3" NCoef="0" IVar="-1" Cut="0.0000000000000000e+00" cType="1" res="-1.3557730708271265e-03" rms="2.3829443752765656e-01" purity="3.4876534342765808e-01" nType="-99"/>
            <Node pos="r" depth="3" NCoef="0" IVar="-1" Cut="0.0000000000000000e+00" cType="1" res="-3.2595340162515640e-02" rms="2.4764619767665863e-01" purity="5.5981761217117310e-01" nType="-99"/>
          </Node>
          <Node pos="r" depth="2" NCoef="0" IVar="0" Cut="2.0648986816406250e+03" cType="1" res="9.5922751352190971e-03" rms="2.4235388636589050e-01" purity="5.6385618448257446e-01" nType="0">
            <Node pos="l" depth="3" NCoef="0" IVar="-1" Cut="0.0000000000000000e+00" cType="1" res="2.5846548378467560e-02" rms="2.6813808083534241e-01" purity="1.5835469961166382e-01" nType="-99"/>
            <Node pos="r" depth="3" NCoef="0" IVar="-1" Cut="0.0000000000000000e+00" cType="1" res="6.6013387404382229e-03" rms="2.1784962713718414e-01" purity="9.0841960906982422e-01" nType="-99"/>
          </Node>
        </Node>
        <Node pos="r" depth="1" NCoef="0" IVar="8" Cut="-1.1991173028945923e+00" cType="1" res="-3.3571983221918344e-03" rms="2.3907394707202911e-01" purity="4.8483610153198242e-01" nType="0">
          <Node pos="l" depth="2" NCoef="0" IVar="1" Cut="3.8080543279647827e-02" cType="1" res="-1.9671048969030380e-02" rms="2.2925092279911041e-01" purity="2.5277557969093323e-01" nType="0">
            <Node pos="l" depth="3" NCoef="0" IVar="-1" Cut="0.0000000000000000e+00" cType="1" res="-6.0451757162809372e-02" rms="1.8270361423492432e-01" purity="6.3593074679374695e-02" nType="-99"/>
            <Node pos="r" depth="3" NCoef="0" IVar="-1" Cut="0.0000000000000000e+00" cType="1" res="-2.1383857354521751e-02" rms="2.6799458265304565e-01" purity="4.4309031963348389e-01" nType="-99"/>
          </Node>
          <Node pos="r" depth="2" NCoef="0" IVar="6" Cut="1.2468390464782715e+00" cType="1" res="-1.1945292353630066e-03" rms="2.4026288092136383e-01" purity="5.1559960842132568e-01" nType="0">
            <Node pos="l" depth="3" NCoef="0" IVar="-1" Cut="0.0000000000000000e+00" cType="1" res="-5.1548443734645844e-03" rms="2.4675501883029938e-01" purity="5.5093801021575928e-01" nType="-99"/>
            <Node pos="r" depth="3" NCoef="0" IVar="-1" Cut="0.0000000000000000e+00" cType="1" res="5.5172920227050781e-02" rms="1.5574039518833160e-01" purity="1.4665386080741882e-01" nType="-99"/>
          </Node>
        </Node>
      </Node>
    </BinaryTree>
    <BinaryTree type="DecisionTree" boostWeight="1.0000000000000000e+00" itree="599">
      <Node pos="s" depth="0" NCoef="0" IVar="8" Cut="9.3305498361587524e-01" cType="1" res="-5.6826474610716105e-04" rms="2.4256530404090881e-01" purity="4.9475416541099548e-01" nType="0">
        <Node pos="l" depth="1" NCoef="0" IVar="2" Cut="3.1471743774414062e+02" cType="1" res="-2.9462126549333334e-03" rms="2.4047988653182983e-01" purity="5.2050495147705078e-01" nType="0">
          <Node pos="l" depth="2" NCoef="0" IVar="6" Cut="-2.1015098318457603e-02" cType="1" res="1.2546642683446407e-02" rms="2.6790255308151245e-01" purity="2.1607561409473419e-01" nType="0">
            <Node pos="l" depth="3" NCoef="0" IVar="-1" Cut="0.0000000000000000e+00" cType="1" res="4.0739811956882477e-02" rms="2.8971186280250549e-01" purity="2.5124663114547729e-01" nType="-99"/>
            <Node pos="r" depth="3" NCoef="0" IVar="-1" Cut="0.0000000000000000e+00" cType="1" res="-5.5733751505613327e-03" rms="2.4712294340133667e-01" purity="1.8679943680763245e-01" nType="-99"/>
          </Node>
          <Node pos="r" depth="2" NCoef="0" IVar="8" Cut="-1.9099977016448975e+00" cType="1" res="-4.3920250609517097e-03" rms="2.3770795762538910e-01" purity="5.4891467094421387e-01" nType="0">
            <Node pos="l" depth="3" NCoef="0" IVar="-1" Cut="0.0000000000000000e+00" cType="1" res="-6.3478186726570129e-02" rms="2.0685100555419922e-01" purity="8.7592124938964844e-02" nType="-99"/>
            <Node pos="r" depth="3" NCoef="0" IVar="-1" Cut="0.0000000000000000e+00" cType="1" res="-5.8915033005177975e-03" rms="2.3885029554367065e-01" purity="5.6804645061492920e-01" nType="-99"/>
          </Node>
        </Node>
        <Node pos="r" depth="1" NCoef="0" IVar="4" Cut="2.5554270935058594e+02" cType="1" res="1.0331305675208569e-02" rms="2.5161579251289368e-01" purity="3.7672287225723267e-01" nType="0">
          <Node pos="l" depth="2" NCoef="0" IVar="5" Cut="1.2821438598632812e+02" cType="1" res="1.5787446871399879e-02" rms="2.5107455253601074e-01" purity="2.4138641357421875e-01" nType="0">
            <Node pos="l" depth="3" NCoef="0" IVar="-1" Cut="0.0000000000000000e+00" cType="1" res="1.1035495437681675e-02" rms="1.9943179190158844e-01" purity="9.1077417135238647e-02" nType="-99"/>
            <Node pos="r" depth="3" NCoef="0" IVar="-1" Cut="0.0000000000000000e+00" cType="1" res="3.3294126391410828e-02" rms="2.9377985000610352e-01" purity="3.9332932233810425e-01" nType="-99"/>
          </Node>
          <Node pos="r" depth="2" NCoef="0" IVar="-1" Cut="0.0000000000000000e+00" cType="1" res="-9.3361893668770790e-03" rms="2.5253120064735413e-01" purity="7.8817814588546753e-01" nType="-99"/>
        </Node>
      </Node>
    </BinaryTree>
    <BinaryTree type="DecisionTree" boostWeight="1.0000000000000000e+00" itree="600">
      <Node pos="s" depth="0" NCoef="0" IVar="3" Cut="5.9761535644531250e+02" cType="1" res="3.5873206797987223e-03" rms="2.4240218102931976e-01" purity="5.0896650552749634e-01" nType="0">
        <Node pos="l" depth="1" NCoef="0" IVar="3" Cut="3.4175805664062500e+02" cType="1" res="2.6837459299713373e-03" rms="2.4384799599647522e-01" purity="4.8837563395500183e-01" nType="0">
          <Node pos="l" depth="2" NCoef="0" IVar="0" Cut="1.5987023925781250e+03" cType="1" res="6.0727461241185665e-03" rms="2.5054356455802917e-01" purity="2.9784017801284790e-01" nType="0">
            <Node pos="l" depth="3" NCoef="0" IVar="-1" Cut="0.0000000000000000e+00" cType="1" res="-4.6602748334407806e-03" rms="1.5781366825103760e-01" purity="2.8314776718616486e-02" nType="-99"/>
            <Node pos="r" depth="3" NCoef="0" IVar="-1" Cut="0.0000000000000000e+00" cType="1" res="1.2454338371753693e-02" rms="2.9517415165901184e-01" purity="4.7160056233406067e-01" nType="-99"/>
          </Node>
          <Node pos="r" depth="2" NCoef="0" IVar="9" Cut="9.2996335029602051e-01" cType="1" res="-2.1915698889642954e-03" rms="2.3379381000995636e-01" purity="7.6247429847717285e-01" nType="0">
            <Node pos="l" depth="3" NCoef="0" IVar="-1" Cut="0.0000000000000000e+00" cType="1" res="8.1318704178556800e-04" rms="2.3065245151519775e-01" purity="7.8229182958602905e-01" nType="-99"/>
            <Node pos="r" depth="3" NCoef="0" IVar="-1" Cut="0.0000000000000000e+00" cType="1" res="-2.3298628628253937e-02" rms="2.4764539301395416e-01" purity="6.6935062408447266e-01" nType="-99"/>
          </Node>
        </Node>
        <Node pos="r" depth="1" NCoef="0" IVar="-1" Cut="0.0000000000000000e+00" cType="1" res="4.0145799517631531e-02" rms="2.1059754490852356e-01" purity="9.2089831829071045e-01" nType="-99"/>
      </Node>
    </BinaryTree>
    <BinaryTree type="DecisionTree" boostWeight="1.0000000000000000e+00" itree="601">
      <Node pos="s" depth="0" NCoef="0" IVar="9" Cut="1.3354682922363281e-01" cType="1" res="7.0045085158199072e-04" rms="2.4237258732318878e-01" purity="5.0275492668151855e-01" nType="0">
        <Node pos="l" depth="1" NCoef="0" IVar="9" Cut="-1.6817924976348877e+00" cType="1" res="-2.1857542451471090e-03" rms="2.4144469201564789e-01" purity="5.1350480318069458e-01" nType="0">
          <Node pos="l" depth="2" NCoef="0" IVar="7" Cut="1.3204522430896759e-01" cType="1" res="1.0564780794084072e-02" rms="2.6433807611465454e-01" purity="2.7724206447601318e-01" nType="0">
            <Node pos="l" depth="3" NCoef="0" IVar="-1" Cut="0.0000000000000000e+00" cType="1" res="2.7909601107239723e-02" rms="2.7067467570304871e-01" purity="3.0037423968315125e-01" nType="-99"/>
            <Node pos="r" depth="3" NCoef="0" IVar="-1" Cut="0.0000000000000000e+00" cType="1" res="-3.3155514393001795e-03" rms="2.5444859266281128e-01" purity="2.4407501518726349e-01" nType="-99"/>
          </Node>
          <Node pos="r" depth="2" NCoef="0" IVar="2" Cut="8.0880041503906250e+02" cType="1" res="-3.9074309170246124e-03" rms="2.3813258111476898e-01" purity="5.4540687799453735e-01" nType="0">
            <Node pos="l" depth="3" NCoef="0" IVar="-1" Cut="0.0000000000000000e+00" cType="1" res="-3.7375974934548140e-03" rms="2.3646640777587891e-01" purity="5.2580708265304565e-01" nType="-99"/>
            <Node pos="r" depth="3" NCoef="0" IVar="-1" Cut="0.0000000000000000e+00" cType="1" res="-3.5675615072250366e-02" rms="2.5512763857841492e-01" purity="7.6316893100738525e-01" nType="-99"/>
          </Node>
        </Node>
        <Node pos="r" depth="1" NCoef="0" IVar="0" Cut="1.6473486328125000e+03" cType="1" res="4.1954321786761284e-03" rms="2.4344567954540253e-01" purity="4.8973757028579712e-01" nType="0">
          <Node pos="l" depth="2" NCoef="0" IVar="1" Cut="7.0635199546813965e-02" cType="1" res="-5.0315503031015396e-03" rms="1.5787751972675323e-01" purity="2.9267499223351479e-02" nType="0">
            <Node pos="l" depth="3" NCoef="0" IVar="-1" Cut="0.0000000000000000e+00" cType="1" res="8.4797330200672150e-03" rms="1.3869392871856689e-01" purity="2.0897848531603813e-02" nType="-99"/>
            <Node pos="r" depth="3" NCoef="0" IVar="-1" Cut="0.0000000000000000e+00" cType="1" res="-3.9979860186576843e-02" rms="2.0650644600391388e-01" purity="5.6186344474554062e-02" nType="-99"/>
          </Node>
          <Node pos="r" depth="2" NCoef="0" IVar="0" Cut="2.1183771972656250e+03" cType="1" res="7.9633370041847229e-03" rms="2.7062892913818359e-01" purity="6.7777383327484131e-01" nType="0">
            <Node pos="l" depth="3" NCoef="0" IVar="-1" Cut="0.0000000000000000e+00" cType="1" res="1.9142787903547287e-02" rms="3.4389269351959229e-01" purity="3.0533209443092346e-01" nType="-99"/>
            <Node pos="r" depth="3" NCoef="0" IVar="-1" Cut="0.0000000000000000e+00" cType="1" res="9.3748455401510000e-04" rms="2.1977157890796661e-01" purity="8.8278955221176147e-01" nType="-99"/>
          </Node>
        </Node>
      </Node>
    </BinaryTree>
    <BinaryTree type="DecisionTree" boostWeight="1.0000000000000000e+00" itree="602">
      <Node pos="s" depth="0" NCoef="0" IVar="3" Cut="4.5047451782226562e+02" cType="1" res="-1.8283387180417776e-04" rms="2.3791363835334778e-01" purity="5.0046783685684204e-01" nType="0">
        <Node pos="l" depth="1" NCoef="0" IVar="8" Cut="-6.6630458831787109e-01" cType="1" res="-2.1259996574372053e-03" rms="2.4486659467220306e-01" purity="4.0853136777877808e-01" nType="0">
          <Node pos="l" depth="2" NCoef="0" IVar="3" Cut="2.0102619934082031e+02" cType="1" res="4.7347797080874443e-03" rms="2.4767571687698364e-01" purity="3.4027069807052612e-01" nType="0">
            <Node pos="l" depth="3" NCoef="0" IVar="-1" Cut="0.0000000000000000e+00" cType="1" res="5.9163231402635574e-02" rms="2.3103009164333344e-01" purity="1.0338390618562698e-01" nType="-99"/>
            <Node pos="r" depth="3" NCoef="0" IVar="-1" Cut="0.0000000000000000e+00" cType="1" res="1.4524671714752913e-03" rms="2.5043824315071106e-01" purity="3.8388356566429138e-01" nType="-99"/>
          </Node>
          <Node pos="r" depth="2" NCoef="0" IVar="9" Cut="-1.7325633764266968e+00" cType="1" res="-4.6844119206070900e-03" rms="2.4376136064529419e-01" purity="4.3398606777191162e-01" nType="0">
            <Node pos="l" depth="3" NCoef="0" IVar="-1" Cut="0.0000000000000000e+00" cType="1" res="-4.1369099169969559e-02" rms="2.4784393608570099e-01" purity="2.1836043894290924e-01" nType="-99"/>
            <Node pos="r" depth="3" NCoef="0" IVar="-1" Cut="0.0000000000000000e+00" cType="1" res="-4.9445466138422489e-03" rms="2.4340656399726868e-01" purity="4.4821166992187500e-01" nType="-99"/>
          </Node>
        </Node>
        <Node pos="r" depth="1" NCoef="0" IVar="5" Cut="1.5285995483398438e+02" cType="1" res="7.8514758497476578e-03" rms="2.0650367438793182e-01" purity="8.8059288263320923e-01" nType="0">
          <Node pos="l" depth="2" NCoef="0" IVar="-1" Cut="0.0000000000000000e+00" cType="1" res="2.3395692929625511e-02" rms="3.1971696019172668e-01" purity="5.8826011419296265e-01" nType="-99"/>
          <Node pos="r" depth="2" NCoef="0" IVar="6" Cut="1.5517510473728180e-01" cType="1" res="3.5142467822879553e-03" rms="1.6596786677837372e-01" purity="9.5422136783599854e-01" nType="0">
            <Node pos="l" depth="3" NCoef="0" IVar="-1" Cut="0.0000000000000000e+00" cType="1" res="2.9695469886064529e-02" rms="1.5450187027454376e-01" purity="9.6274483203887939e-01" nType="-99"/>
            <Node pos="r" depth="3" NCoef="0" IVar="-1" Cut="0.0000000000000000e+00" cType="1" res="-2.2285126149654388e-02" rms="1.8447886407375336e-01" purity="9.3873304128646851e-01" nType="-99"/>
          </Node>
        </Node>
      </Node>
    </BinaryTree>
    <BinaryTree type="DecisionTree" boostWeight="1.0000000000000000e+00" itree="603">
      <Node pos="s" depth="0" NCoef="0" IVar="2" Cut="8.8730102539062500e+02" cType="1" res="-2.1468398626893759e-03" rms="2.4245159327983856e-01" purity="5.0627273321151733e-01" nType="0">
        <Node pos="l" depth="1" NCoef="0" IVar="8" Cut="9.3274730443954468e-01" cType="1" res="-3.4523825161159039e-03" rms="2.4138903617858887e-01" purity="4.9048304557800293e-01" nType="0">
          <Node pos="l" depth="2" NCoef="0" IVar="5" Cut="1.3493386840820312e+02" cType="1" res="-5.4397354833781719e-03" rms="2.3711939156055450e-01" purity="5.1568150520324707e-01" nType="0">
            <Node pos="l" depth="3" NCoef="0" IVar="-1" Cut="0.0000000000000000e+00" cType="1" res="-2.0673889666795731e-02" rms="2.2215341031551361e-01" purity="1.2792333960533142e-01" nType="-99"/>
            <Node pos="r" depth="3" NCoef="0" IVar="-1" Cut="0.0000000000000000e+00" cType="1" res="-4.1265948675572872e-03" rms="2.4468210339546204e-01" purity="7.2261416912078857e-01" nType="-99"/>
          </Node>
          <Node pos="r" depth="2" NCoef="0" IVar="0" Cut="1.9649848632812500e+03" cType="1" res="5.5191256105899811e-03" rms="2.5960230827331543e-01" purity="3.7672948837280273e-01" nType="0">
            <Node pos="l" depth="3" NCoef="0" IVar="-1" Cut="0.0000000000000000e+00" cType="1" res="2.4596961215138435e-02" rms="2.4857383966445923e-01" purity="1.1685992777347565e-01" nType="-99"/>
            <Node pos="r" depth="3" NCoef="0" IVar="-1" Cut="0.0000000000000000e+00" cType="1" res="-1.0666953399777412e-02" rms="2.7519419789314270e-01" purity="7.7825808525085449e-01" nType="-99"/>
          </Node>
        </Node>
        <Node pos="r" depth="1" NCoef="0" IVar="-1" Cut="0.0000000000000000e+00" cType="1" res="2.8355166316032410e-02" rms="2.6061573624610901e-01" purity="8.0689203739166260e-01" nType="-99"/>
      </Node>
    </BinaryTree>
    <BinaryTree type="DecisionTree" boostWeight="1.0000000000000000e+00" itree="604">
      <Node pos="s" depth="0" NCoef="0" IVar="8" Cut="6.6641891002655029e-01" cType="1" res="2.7047020848840475e-03" rms="2.4154239892959595e-01" purity="5.0253587961196899e-01" nType="0">
        <Node pos="l" depth="1" NCoef="0" IVar="0" Cut="2.1419096679687500e+03" cType="1" res="5.1005026325583458e-03" rms="2.3956809937953949e-01" purity="5.2933651208877563e-01" nType="0">
          <Node pos="l" depth="2" NCoef="0" IVar="1" Cut="1.9094979390501976e-02" cType="1" res="9.2364614829421043e-03" rms="2.6570519804954529e-01" purity="1.7254358530044556e-01" nType="0">
            <Node pos="l" depth="3" NCoef="0" IVar="-1" Cut="0.0000000000000000e+00" cType="1" res="-2.7566026896238327e-02" rms="1.0663148760795593e-01" purity="1.6635864973068237e-02" nType="-99"/>
            <Node pos="r" depth="3" NCoef="0" IVar="-1" Cut="0.0000000000000000e+00" cType="1" res="1.5926778316497803e-02" rms="2.9998546838760376e-01" purity="2.2379092872142792e-01" nType="-99"/>
          </Node>
          <Node pos="r" depth="2" NCoef="0" IVar="7" Cut="-3.9333909749984741e-01" cType="1" res="7.3192722629755735e-04" rms="2.0834247767925262e-01" purity="9.0619641542434692e-01" nType="0">
            <Node pos="l" depth="3" NCoef="0" IVar="-1" Cut="0.0000000000000000e+00" cType="1" res="1.1625393293797970e-02" rms="2.1783261001110077e-01" purity="8.8787865638732910e-01" nType="-99"/>
            <Node pos="r" depth="3" NCoef="0" IVar="-1" Cut="0.0000000000000000e+00" cType="1" res="-3.9598457515239716e-03" rms="2.0385703444480896e-01" purity="9.1448324918746948e-01" nType="-99"/>
          </Node>
        </Node>
        <Node pos="r" depth="1" NCoef="0" IVar="5" Cut="8.6789794921875000e+01" cType="1" res="-4.3792338110506535e-03" rms="2.4715201556682587e-01" purity="4.2329135537147522e-01" nType="0">
          <Node pos="l" depth="2" NCoef="0" IVar="-1" Cut="0.0000000000000000e+00" cType="1" res="4.6179339289665222e-02" rms="1.7409023642539978e-01" purity="6.5765365958213806e-02" nType="-99"/>
          <Node pos="r" depth="2" NCoef="0" IVar="7" Cut="1.2645168602466583e-01" cType="1" res="-6.3592107035219669e-03" rms="2.5376683473587036e-01" purity="4.6224695444107056e-01" nType="0">
            <Node pos="l" depth="3" NCoef="0" IVar="-1" Cut="0.0000000000000000e+00" cType="1" res="-1.7963698133826256e-02" rms="2.5606513023376465e-01" purity="4.6216508746147156e-01" nType="-99"/>
            <Node pos="r" depth="3" NCoef="0" IVar="-1" Cut="0.0000000000000000e+00" cType="1" res="1.1938374955207109e-03" rms="2.5093880295753479e-01" purity="4.6233987808227539e-01" nType="-99"/>
          </Node>
        </Node>
      </Node>
    </BinaryTree>
    <BinaryTree type="DecisionTree" boostWeight="1.0000000000000000e+00" itree="605">
      <Node pos="s" depth="0" NCoef="0" IVar="8" Cut="-1.1997766494750977e+00" cType="1" res="8.2637672312557697e-04" rms="2.4200806021690369e-01" purity="5.0360178947448730e-01" nType="0">
        <Node pos="l" depth="1" NCoef="0" IVar="9" Cut="3.9591166377067566e-01" cType="1" res="1.1966280639171600e-02" rms="2.5629520416259766e-01" purity="3.1246319413185120e-01" nType="0">
          <Node pos="l" depth="2" NCoef="0" IVar="8" Cut="-1.5045635700225830e+00" cType="1" res="4.0308898314833641e-03" rms="2.4436171352863312e-01" purity="3.1663706898689270e-01" nType="0">
            <Node pos="l" depth="3" NCoef="0" IVar="-1" Cut="0.0000000000000000e+00" cType="1" res="2.8221294283866882e-02" rms="2.4271489679813385e-01" purity="2.4329590797424316e-01" nType="-99"/>
            <Node pos="r" depth="3" NCoef="0" IVar="-1" Cut="0.0000000000000000e+00" cType="1" res="-2.1681262180209160e-02" rms="2.4584184587001801e-01" purity="4.3213260173797607e-01" nType="-99"/>
          </Node>
          <Node pos="r" depth="2" NCoef="0" IVar="-1" Cut="0.0000000000000000e+00" cType="1" res="4.2241197079420090e-02" rms="2.7779746055603027e-01" purity="3.0417963862419128e-01" nType="-99"/>
        </Node>
        <Node pos="r" depth="1" NCoef="0" IVar="5" Cut="1.9168650817871094e+02" cType="1" res="-8.4034906467422843e-04" rms="2.3975275456905365e-01" purity="5.3219950199127197e-01" nType="0">
          <Node pos="l" depth="2" NCoef="0" IVar="3" Cut="3.4621600341796875e+02" cType="1" res="-3.0748045537620783e-03" rms="2.5850528478622437e-01" purity="3.1210073828697205e-01" nType="0">
            <Node pos="l" depth="3" NCoef="0" IVar="-1" Cut="0.0000000000000000e+00" cType="1" res="-7.4794859392568469e-04" rms="2.4788506329059601e-01" purity="2.0662370324134827e-01" nType="-99"/>
            <Node pos="r" depth="3" NCoef="0" IVar="-1" Cut="0.0000000000000000e+00" cType="1" res="-1.1688353493809700e-02" rms="2.8301125764846802e-01" purity="5.7351148128509521e-01" nType="-99"/>
          </Node>
          <Node pos="r" depth="2" NCoef="0" IVar="1" Cut="1.0610199719667435e-01" cType="1" res="2.9225647449493408e-03" rms="2.0426405966281891e-01" purity="9.0285468101501465e-01" nType="0">
            <Node pos="l" depth="3" NCoef="0" IVar="-1" Cut="0.0000000000000000e+00" cType="1" res="1.2682506814599037e-02" rms="2.4579541385173798e-01" purity="8.3921021223068237e-01" nType="-99"/>
            <Node pos="r" depth="3" NCoef="0" IVar="-1" Cut="0.0000000000000000e+00" cType="1" res="-7.1253329515457153e-03" rms="1.5817198157310486e-01" purity="9.5957988500595093e-01" nType="-99"/>
          </Node>
        </Node>
      </Node>
    </BinaryTree>
    <BinaryTree type="DecisionTree" boostWeight="1.0000000000000000e+00" itree="606">
      <Node pos="s" depth="0" NCoef="0" IVar="8" Cut="-9.3264412879943848e-01" cType="1" res="-1.0828584199771285e-03" rms="2.3864111304283142e-01" purity="4.9667233228683472e-01" nType="0">
        <Node pos="l" depth="1" NCoef="0" IVar="0" Cut="2.4692663574218750e+03" cType="1" res="7.5346799567341805e-03" rms="2.5230827927589417e-01" purity="3.5085636377334595e-01" nType="0">
          <Node pos="l" depth="2" NCoef="0" IVar="9" Cut="-9.3079537153244019e-01" cType="1" res="1.3152758590877056e-02" rms="2.5681516528129578e-01" purity="2.2542619705200195e-01" nType="0">
            <Node pos="l" depth="3" NCoef="0" IVar="-1" Cut="0.0000000000000000e+00" cType="1" res="-1.4671608805656433e-02" rms="2.2952860593795776e-01" purity="1.4843726158142090e-01" nType="-99"/>
            <Node pos="r" depth="3" NCoef="0" IVar="-1" Cut="0.0000000000000000e+00" cType="1" res="3.1116655096411705e-02" rms="2.6583641767501831e-01" purity="2.5420746207237244e-01" nType="-99"/>
          </Node>
          <Node pos="r" depth="2" NCoef="0" IVar="-1" Cut="0.0000000000000000e+00" cType="1" res="-3.8787852972745895e-02" rms="2.2978563606739044e-01" purity="9.0332788228988647e-01" nType="-99"/>
        </Node>
        <Node pos="r" depth="1" NCoef="0" IVar="4" Cut="2.3316110229492188e+02" cType="1" res="-3.1935260631144047e-03" rms="2.3512443900108337e-01" purity="5.3238660097122192e-01" nType="0">
          <Node pos="l" depth="2" NCoef="0" IVar="4" Cut="1.7358285522460938e+02" cType="1" res="-7.5787738896906376e-03" rms="2.4592943489551544e-01" purity="2.3467238247394562e-01" nType="0">
            <Node pos="l" depth="3" NCoef="0" IVar="-1" Cut="0.0000000000000000e+00" cType="1" res="-5.1964173326268792e-04" rms="2.0989584922790527e-01" purity="1.0394424200057983e-01" nType="-99"/>
            <Node pos="r" depth="3" NCoef="0" IVar="-1" Cut="0.0000000000000000e+00" cType="1" res="-1.8340438604354858e-02" rms="2.8021496534347534e-01" purity="3.7924540042877197e-01" nType="-99"/>
          </Node>
          <Node pos="r" depth="2" NCoef="0" IVar="0" Cut="1.8890819091796875e+03" cType="1" res="1.3275466626510024e-03" rms="2.2334830462932587e-01" purity="8.3932203054428101e-01" nType="0">
            <Node pos="l" depth="3" NCoef="0" IVar="-1" Cut="0.0000000000000000e+00" cType="1" res="2.4608308449387550e-02" rms="3.1292012333869934e-01" purity="2.1030378341674805e-01" nType="-99"/>
            <Node pos="r" depth="3" NCoef="0" IVar="-1" Cut="0.0000000000000000e+00" cType="1" res="-2.1852704230695963e-03" rms="2.1181468665599823e-01" purity="9.0426576137542725e-01" nType="-99"/>
          </Node>
        </Node>
      </Node>
    </BinaryTree>
    <BinaryTree type="DecisionTree" boostWeight="1.0000000000000000e+00" itree="607">
      <Node pos="s" depth="0" NCoef="0" IVar="3" Cut="2.5542535400390625e+02" cType="1" res="1.5765018761157990e-03" rms="2.4351474642753601e-01" purity="5.0118219852447510e-01" nType="0">
        <Node pos="l" depth="1" NCoef="0" IVar="7" Cut="1.3425676524639130e-01" cType="1" res="7.5000859797000885e-03" rms="2.4633380770683289e-01" purity="1.6831248998641968e-01" nType="0">
          <Node pos="l" depth="2" NCoef="0" IVar="0" Cut="1.5681629638671875e+03" cType="1" res="1.3722822070121765e-02" rms="2.5253015756607056e-01" purity="1.7415829002857208e-01" nType="0">
            <Node pos="l" depth="3" NCoef="0" IVar="-1" Cut="0.0000000000000000e+00" cType="1" res="1.0291196405887604e-02" rms="1.6012708842754364e-01" purity="2.8974320739507675e-02" nType="-99"/>
            <Node pos="r" depth="3" NCoef="0" IVar="-1" Cut="0.0000000000000000e+00" cType="1" res="2.7321131899952888e-02" rms="3.1771120429039001e-01" purity="3.1661704182624817e-01" nType="-99"/>
          </Node>
          <Node pos="r" depth="2" NCoef="0" IVar="7" Cut="5.1455634832382202e-01" cType="1" res="2.1145363280083984e-04" rms="2.3866555094718933e-01" purity="1.6146536171436310e-01" nType="0">
            <Node pos="l" depth="3" NCoef="0" IVar="-1" Cut="0.0000000000000000e+00" cType="1" res="-3.2655477523803711e-02" rms="2.3897625505924225e-01" purity="1.8167898058891296e-01" nType="-99"/>
            <Node pos="r" depth="3" NCoef="0" IVar="-1" Cut="0.0000000000000000e+00" cType="1" res="1.2391403317451477e-02" rms="2.3819857835769653e-01" purity="1.5557059645652771e-01" nType="-99"/>
          </Node>
        </Node>
        <Node pos="r" depth="1" NCoef="0" IVar="9" Cut="1.3339535892009735e-01" cType="1" res="-7.2375760646536946e-04" rms="2.4237218499183655e-01" purity="6.3044297695159912e-01" nType="0">
          <Node pos="l" depth="2" NCoef="0" IVar="3" Cut="4.7602883911132812e+02" cType="1" res="-4.3932222761213779e-03" rms="2.4184800684452057e-01" purity="6.3471043109893799e-01" nType="0">
            <Node pos="l" depth="3" NCoef="0" IVar="-1" Cut="0.0000000000000000e+00" cType="1" res="-2.2725025191903114e-03" rms="2.4810110032558441e-01" purity="5.6997781991958618e-01" nType="-99"/>
            <Node pos="r" depth="3" NCoef="0" IVar="-1" Cut="0.0000000000000000e+00" cType="1" res="-3.4273874014616013e-02" rms="2.1722654998302460e-01" purity="8.7063366174697876e-01" nType="-99"/>
          </Node>
          <Node pos="r" depth="2" NCoef="0" IVar="2" Cut="5.7283068847656250e+02" cType="1" res="3.8425507955253124e-03" rms="2.4294550716876984e-01" purity="6.2513244152069092e-01" nType="0">
            <Node pos="l" depth="3" NCoef="0" IVar="-1" Cut="0.0000000000000000e+00" cType="1" res="-5.4111466743052006e-03" rms="2.5241377949714661e-01" purity="5.2153003215789795e-01" nType="-99"/>
            <Node pos="r" depth="3" NCoef="0" IVar="-1" Cut="0.0000000000000000e+00" cType="1" res="2.4606630206108093e-02" rms="2.2839012742042542e-01" purity="7.7257364988327026e-01" nType="-99"/>
          </Node>
        </Node>
      </Node>
    </BinaryTree>
    <BinaryTree type="DecisionTree" boostWeight="1.0000000000000000e+00" itree="608">
      <Node pos="s" depth="0" NCoef="0" IVar="4" Cut="2.2352427673339844e+02" cType="1" res="-1.5533643309026957e-03" rms="2.4474866688251495e-01" purity="4.9848973751068115e-01" nType="0">
        <Node pos="l" depth="1" NCoef="0" IVar="9" Cut="-1.1993150711059570e+00" cType="1" res="2.8103922959417105e-03" rms="2.5224038958549500e-01" purity="2.1248418092727661e-01" nType="0">
          <Node pos="l" depth="2" NCoef="0" IVar="1" Cut="5.5480685085058212e-02" cType="1" res="2.2993942722678185e-02" rms="2.7590560913085938e-01" purity="2.1570830047130585e-01" nType="0">
            <Node pos="l" depth="3" NCoef="0" IVar="-1" Cut="0.0000000000000000e+00" cType="1" res="2.2324843332171440e-02" rms="2.2255551815032959e-01" purity="9.7242087125778198e-02" nType="-99"/>
            <Node pos="r" depth="3" NCoef="0" IVar="-1" Cut="0.0000000000000000e+00" cType="1" res="4.3486557900905609e-02" rms="3.5278409719467163e-01" purity="4.3520224094390869e-01" nType="-99"/>
          </Node>
          <Node pos="r" depth="2" NCoef="0" IVar="7" Cut="-3.9357188344001770e-01" cType="1" res="-1.2632200960069895e-03" rms="2.4698948860168457e-01" purity="2.1183346211910248e-01" nType="0">
            <Node pos="l" depth="3" NCoef="0" IVar="-1" Cut="0.0000000000000000e+00" cType="1" res="-2.0867861807346344e-02" rms="2.3281098902225494e-01" purity="1.7431512475013733e-01" nType="-99"/>
            <Node pos="r" depth="3" NCoef="0" IVar="-1" Cut="0.0000000000000000e+00" cType="1" res="7.5505538843572140e-03" rms="2.5442615151405334e-01" purity="2.3297174274921417e-01" nType="-99"/>
          </Node>
        </Node>
        <Node pos="r" depth="1" NCoef="0" IVar="4" Cut="2.5774462890625000e+02" cType="1" res="-6.0086841695010662e-03" rms="2.3677244782447815e-01" purity="7.9049640893936157e-01" nType="0">
          <Node pos="l" depth="2" NCoef="0" IVar="9" Cut="-9.2975276708602905e-01" cType="1" res="-2.0552281290292740e-02" rms="2.8815352916717529e-01" purity="5.7121425867080688e-01" nType="0">
            <Node pos="l" depth="3" NCoef="0" IVar="-1" Cut="0.0000000000000000e+00" cType="1" res="-5.2016988396644592e-02" rms="2.8432780504226685e-01" purity="5.0234365463256836e-01" nType="-99"/>
            <Node pos="r" depth="3" NCoef="0" IVar="-1" Cut="0.0000000000000000e+00" cType="1" res="-1.5868391841650009e-02" rms="2.8874781727790833e-01" purity="5.9105062484741211e-01" nType="-99"/>
          </Node>
          <Node pos="r" depth="2" NCoef="0" IVar="5" Cut="1.5888400268554688e+02" cType="1" res="-1.2457733973860741e-03" rms="2.1710911393165588e-01" purity="8.6230957508087158e-01" nType="0">
            <Node pos="l" depth="3" NCoef="0" IVar="-1" Cut="0.0000000000000000e+00" cType="1" res="-1.2433891184628010e-02" rms="3.0954262614250183e-01" purity="5.5603641271591187e-01" nType="-99"/>
            <Node pos="r" depth="3" NCoef="0" IVar="-1" Cut="0.0000000000000000e+00" cType="1" res="2.1671019494533539e-03" rms="1.9490846991539001e-01" purity="9.1968005895614624e-01" nType="-99"/>
          </Node>
        </Node>
      </Node>
    </BinaryTree>
    <BinaryTree type="DecisionTree" boostWeight="1.0000000000000000e+00" itree="609">
      <Node pos="s" depth="0" NCoef="0" IVar="9" Cut="-1.3145804405212402e-01" cType="1" res="5.9271835198160261e-05" rms="2.4315452575683594e-01" purity="5.1013427972793579e-01" nType="0">
        <Node pos="l" depth="1" NCoef="0" IVar="8" Cut="-1.3563461601734161e-01" cType="1" res="-4.3772212229669094e-03" rms="2.4361228942871094e-01" purity="5.0392019748687744e-01" nType="0">
          <Node pos="l" depth="2" NCoef="0" IVar="1" Cut="7.5597964227199554e-02" cType="1" res="1.4436738565564156e-03" rms="2.4337425827980042e-01" purity="4.7834566235542297e-01" nType="0">
            <Node pos="l" depth="3" NCoef="0" IVar="-1" Cut="0.0000000000000000e+00" cType="1" res="-9.1930506750941277e-03" rms="2.3279851675033569e-01" purity="2.6204937696456909e-01" nType="-99"/>
            <Node pos="r" depth="3" NCoef="0" IVar="-1" Cut="0.0000000000000000e+00" cType="1" res="1.5391611494123936e-02" rms="2.5654542446136475e-01" purity="7.6742422580718994e-01" nType="-99"/>
          </Node>
          <Node pos="r" depth="2" NCoef="0" IVar="9" Cut="-5.1204144954681396e-01" cType="1" res="-9.6739297732710838e-03" rms="2.4370788037776947e-01" purity="5.2719157934188843e-01" nType="0">
            <Node pos="l" depth="3" NCoef="0" IVar="-1" Cut="0.0000000000000000e+00" cType="1" res="-7.6336413621902466e-03" rms="2.4702356755733490e-01" purity="5.0520205497741699e-01" nType="-99"/>
            <Node pos="r" depth="3" NCoef="0" IVar="-1" Cut="0.0000000000000000e+00" cType="1" res="-3.7829138338565826e-02" rms="2.3503576219081879e-01" purity="5.8077841997146606e-01" nType="-99"/>
          </Node>
        </Node>
        <Node pos="r" depth="1" NCoef="0" IVar="7" Cut="-1.4626992940902710e+00" cType="1" res="3.8733438123017550e-03" rms="2.4269548058509827e-01" purity="5.1547664403915405e-01" nType="0">
          <Node pos="l" depth="2" NCoef="0" IVar="-1" Cut="0.0000000000000000e+00" cType="1" res="-3.9668206125497818e-02" rms="1.8957462906837463e-01" purity="1.2142883241176605e-01" nType="-99"/>
          <Node pos="r" depth="2" NCoef="0" IVar="8" Cut="1.4660290479660034e+00" cType="1" res="5.5100172758102417e-03" rms="2.4615502357482910e-01" purity="5.4515463113784790e-01" nType="0">
            <Node pos="l" depth="3" NCoef="0" IVar="-1" Cut="0.0000000000000000e+00" cType="1" res="6.3984366133809090e-03" rms="2.4423554539680481e-01" purity="5.6619518995285034e-01" nType="-99"/>
            <Node pos="r" depth="3" NCoef="0" IVar="-1" Cut="0.0000000000000000e+00" cType="1" res="3.4618362784385681e-02" rms="2.6594942808151245e-01" purity="3.0963826179504395e-01" nType="-99"/>
          </Node>
        </Node>
      </Node>
    </BinaryTree>
    <BinaryTree type="DecisionTree" boostWeight="1.0000000000000000e+00" itree="610">
      <Node pos="s" depth="0" NCoef="0" IVar="7" Cut="-1.1988801956176758e+00" cType="1" res="5.6666140153538436e-05" rms="2.3710796236991882e-01" purity="5.0765490531921387e-01" nType="0">
        <Node pos="l" depth="1" NCoef="0" IVar="5" Cut="1.1081188201904297e+02" cType="1" res="-1.4973591081798077e-02" rms="2.1547041833400726e-01" purity="1.8919412791728973e-01" nType="0">
          <Node pos="l" depth="2" NCoef="0" IVar="-1" Cut="0.0000000000000000e+00" cType="1" res="2.1509673446416855e-02" rms="1.7695382237434387e-01" purity="3.9993867278099060e-02" nType="-99"/>
          <Node pos="r" depth="2" NCoef="0" IVar="9" Cut="1.4344216883182526e-01" cType="1" res="-2.3737017065286636e-02" rms="2.2988349199295044e-01" purity="2.5503194332122803e-01" nType="0">
            <Node pos="l" depth="3" NCoef="0" IVar="-1" Cut="0.0000000000000000e+00" cType="1" res="-1.4966124668717384e-02" rms="2.3382869362831116e-01" purity="2.8594097495079041e-01" nType="-99"/>
            <Node pos="r" depth="3" NCoef="0" IVar="-1" Cut="0.0000000000000000e+00" cType="1" res="-6.5408185124397278e-02" rms="2.2262768447399139e-01" purity="2.1087445318698883e-01" nType="-99"/>
          </Node>
        </Node>
        <Node pos="r" depth="1" NCoef="0" IVar="0" Cut="1.6662930908203125e+03" cType="1" res="1.9829641096293926e-03" rms="2.3967178165912628e-01" purity="5.4846930503845215e-01" nType="0">
          <Node pos="l" depth="2" NCoef="0" IVar="5" Cut="1.3059446716308594e+02" cType="1" res="-4.7936220653355122e-03" rms="1.6637453436851501e-01" purity="3.4143287688493729e-02" nType="0">
            <Node pos="l" depth="3" NCoef="0" IVar="-1" Cut="0.0000000000000000e+00" cType="1" res="6.5444572828710079e-03" rms="1.4553329348564148e-01" purity="2.4898942559957504e-02" nType="-99"/>
            <Node pos="r" depth="3" NCoef="0" IVar="-1" Cut="0.0000000000000000e+00" cType="1" res="-3.0650211498141289e-02" rms="2.0047087967395782e-01" purity="5.2243459969758987e-02" nType="-99"/>
          </Node>
          <Node pos="r" depth="2" NCoef="0" IVar="6" Cut="-1.3298120498657227e+00" cType="1" res="4.4023981317877769e-03" rms="2.6085671782493591e-01" purity="7.3209828138351440e-01" nType="0">
            <Node pos="l" depth="3" NCoef="0" IVar="-1" Cut="0.0000000000000000e+00" cType="1" res="-1.8545633181929588e-02" rms="2.5558447837829590e-01" purity="2.2499135136604309e-01" nType="-99"/>
            <Node pos="r" depth="3" NCoef="0" IVar="-1" Cut="0.0000000000000000e+00" cType="1" res="7.3304697871208191e-03" rms="2.6104849576950073e-01" purity="7.5351804494857788e-01" nType="-99"/>
          </Node>
        </Node>
      </Node>
    </BinaryTree>
    <BinaryTree type="DecisionTree" boostWeight="1.0000000000000000e+00" itree="611">
      <Node pos="s" depth="0" NCoef="0" IVar="2" Cut="7.6055218505859375e+02" cType="1" res="-9.7968173213303089e-04" rms="2.3711542785167694e-01" purity="5.0306153297424316e-01" nType="0">
        <Node pos="l" depth="1" NCoef="0" IVar="2" Cut="7.0717340087890625e+02" cType="1" res="4.3700576497940347e-05" rms="2.3667727410793304e-01" purity="4.7366061806678772e-01" nType="0">
          <Node pos="l" depth="2" NCoef="0" IVar="2" Cut="6.1061077880859375e+02" cType="1" res="8.7743665790185332e-04" rms="2.3751786351203918e-01" purity="4.6131500601768494e-01" nType="0">
            <Node pos="l" depth="3" NCoef="0" IVar="-1" Cut="0.0000000000000000e+00" cType="1" res="-1.8971813842654228e-03" rms="2.4061655998229980e-01" purity="4.2240244150161743e-01" nType="-99"/>
            <Node pos="r" depth="3" NCoef="0" IVar="-1" Cut="0.0000000000000000e+00" cType="1" res="2.3954769596457481e-02" rms="2.1908375620841980e-01" purity="6.7846059799194336e-01" nType="-99"/>
          </Node>
          <Node pos="r" depth="2" NCoef="0" IVar="-1" Cut="0.0000000000000000e+00" cType="1" res="-3.0500197783112526e-02" rms="2.1988900005817413e-01" purity="7.0321518182754517e-01" nType="-99"/>
        </Node>
        <Node pos="r" depth="1" NCoef="0" IVar="0" Cut="2.9877355957031250e+03" cType="1" res="-8.7598422542214394e-03" rms="2.4027791619300842e-01" purity="7.2657883167266846e-01" nType="0">
          <Node pos="l" depth="2" NCoef="0" IVar="9" Cut="-1.3571783900260925e-01" cType="1" res="-2.1953538060188293e-02" rms="2.8888949751853943e-01" purity="4.7515648603439331e-01" nType="0">
            <Node pos="l" depth="3" NCoef="0" IVar="-1" Cut="0.0000000000000000e+00" cType="1" res="-3.3516153693199158e-02" rms="3.0077788233757019e-01" purity="4.2708879709243774e-01" nType="-99"/>
            <Node pos="r" depth="3" NCoef="0" IVar="-1" Cut="0.0000000000000000e+00" cType="1" res="-8.5294628515839577e-03" rms="2.7665790915489197e-01" purity="5.1988244056701660e-01" nType="-99"/>
          </Node>
          <Node pos="r" depth="2" NCoef="0" IVar="7" Cut="-1.2979288399219513e-01" cType="1" res="2.8414861299097538e-03" rms="1.8661937117576599e-01" purity="9.4765663146972656e-01" nType="0">
            <Node pos="l" depth="3" NCoef="0" IVar="-1" Cut="0.0000000000000000e+00" cType="1" res="-1.1989996768534184e-02" rms="1.9433701038360596e-01" purity="9.3864673376083374e-01" nType="-99"/>
            <Node pos="r" depth="3" NCoef="0" IVar="-1" Cut="0.0000000000000000e+00" cType="1" res="2.3764440789818764e-02" rms="1.7979869246482849e-01" purity="9.5506769418716431e-01" nType="-99"/>
          </Node>
        </Node>
      </Node>
    </BinaryTree>
    <BinaryTree type="DecisionTree" boostWeight="1.0000000000000000e+00" itree="612">
      <Node pos="s" depth="0" NCoef="0" IVar="7" Cut="-9.3268108367919922e-01" cType="1" res="-5.0365546485409141e-04" rms="2.3913881182670593e-01" purity="5.0953930616378784e-01" nType="0">
        <Node pos="l" depth="1" NCoef="0" IVar="3" Cut="3.3147570800781250e+02" cType="1" res="1.1437118984758854e-02" rms="2.3833791911602020e-01" purity="3.1567874550819397e-01" nType="0">
          <Node pos="l" depth="2" NCoef="0" IVar="3" Cut="2.4355895996093750e+02" cType="1" res="5.6777712889015675e-03" rms="2.2752881050109863e-01" purity="1.9164188206195831e-01" nType="0">
            <Node pos="l" depth="3" NCoef="0" IVar="-1" Cut="0.0000000000000000e+00" cType="1" res="4.0071301162242889e-02" rms="2.2545255720615387e-01" purity="1.3389132916927338e-01" nType="-99"/>
            <Node pos="r" depth="3" NCoef="0" IVar="-1" Cut="0.0000000000000000e+00" cType="1" res="-1.1887752451002598e-02" rms="2.2887314856052399e-01" purity="2.4980196356773376e-01" nType="-99"/>
          </Node>
          <Node pos="r" depth="2" NCoef="0" IVar="8" Cut="-1.3748107850551605e-01" cType="1" res="2.3586602881550789e-02" rms="2.5924915075302124e-01" purity="5.7733750343322754e-01" nType="0">
            <Node pos="l" depth="3" NCoef="0" IVar="-1" Cut="0.0000000000000000e+00" cType="1" res="3.8290996104478836e-02" rms="2.5006294250488281e-01" purity="5.8114302158355713e-01" nType="-99"/>
            <Node pos="r" depth="3" NCoef="0" IVar="-1" Cut="0.0000000000000000e+00" cType="1" res="2.4232132360339165e-02" rms="2.6748120784759521e-01" purity="5.7375437021255493e-01" nType="-99"/>
          </Node>
        </Node>
        <Node pos="r" depth="1" NCoef="0" IVar="6" Cut="-6.2056934833526611e-01" cType="1" res="-2.8246424626559019e-03" rms="2.3922498524188995e-01" purity="5.4722088575363159e-01" nType="0">
          <Node pos="l" depth="2" NCoef="0" IVar="9" Cut="4.0362241864204407e-01" cType="1" res="-1.1101187206804752e-02" rms="2.3421400785446167e-01" purity="3.6260032653808594e-01" nType="0">
            <Node pos="l" depth="3" NCoef="0" IVar="-1" Cut="0.0000000000000000e+00" cType="1" res="-8.7788179516792297e-03" rms="2.2829778492450714e-01" purity="3.8342416286468506e-01" nType="-99"/>
            <Node pos="r" depth="3" NCoef="0" IVar="-1" Cut="0.0000000000000000e+00" cType="1" res="-3.6140173673629761e-02" rms="2.4479421973228455e-01" purity="3.2248920202255249e-01" nType="-99"/>
          </Node>
          <Node pos="r" depth="2" NCoef="0" IVar="8" Cut="-3.9972624182701111e-01" cType="1" res="-5.0973694305866957e-04" rms="2.4055689573287964e-01" purity="5.9885829687118530e-01" nType="0">
            <Node pos="l" depth="3" NCoef="0" IVar="-1" Cut="0.0000000000000000e+00" cType="1" res="-1.3155885040760040e-02" rms="2.4992807209491730e-01" purity="5.4086786508560181e-01" nType="-99"/>
            <Node pos="r" depth="3" NCoef="0" IVar="-1" Cut="0.0000000000000000e+00" cType="1" res="5.6209969334304333e-03" rms="2.3569497466087341e-01" purity="6.2751716375350952e-01" nType="-99"/>
          </Node>
        </Node>
      </Node>
    </BinaryTree>
    <BinaryTree type="DecisionTree" boostWeight="1.0000000000000000e+00" itree="613">
      <Node pos="s" depth="0" NCoef="0" IVar="7" Cut="-1.1955695152282715e+00" cType="1" res="1.2626717798411846e-03" rms="2.3796857893466949e-01" purity="4.9414497613906860e-01" nType="0">
        <Node pos="l" depth="1" NCoef="0" IVar="9" Cut="4.0396139025688171e-01" cType="1" res="1.1802379973232746e-02" rms="2.3129701614379883e-01" purity="2.1761296689510345e-01" nType="0">
          <Node pos="l" depth="2" NCoef="0" IVar="0" Cut="1.6228071289062500e+03" cType="1" res="2.0821651443839073e-02" rms="2.4273106455802917e-01" purity="2.2976741194725037e-01" nType="0">
            <Node pos="l" depth="3" NCoef="0" IVar="-1" Cut="0.0000000000000000e+00" cType="1" res="4.2610287666320801e-02" rms="1.4718253910541534e-01" purity="2.7010511606931686e-02" nType="-99"/>
            <Node pos="r" depth="3" NCoef="0" IVar="-1" Cut="0.0000000000000000e+00" cType="1" res="3.9942909032106400e-02" rms="2.9008769989013672e-01" purity="3.6821052432060242e-01" nType="-99"/>
          </Node>
          <Node pos="r" depth="2" NCoef="0" IVar="-1" Cut="0.0000000000000000e+00" cType="1" res="-1.7997814342379570e-02" rms="2.0051604509353638e-01" purity="1.8922750651836395e-01" nType="-99"/>
        </Node>
        <Node pos="r" depth="1" NCoef="0" IVar="7" Cut="1.0871505737304688e+00" cType="1" res="-2.9138866011635400e-05" rms="2.3874144256114960e-01" purity="5.2803844213485718e-01" nType="0">
          <Node pos="l" depth="2" NCoef="0" IVar="6" Cut="4.8877745866775513e-01" cType="1" res="-1.4144878368824720e-03" rms="2.3995994031429291e-01" purity="5.7798641920089722e-01" nType="0">
            <Node pos="l" depth="3" NCoef="0" IVar="-1" Cut="0.0000000000000000e+00" cType="1" res="-6.9527984596788883e-03" rms="2.4058495461940765e-01" purity="6.1737602949142456e-01" nType="-99"/>
            <Node pos="r" depth="3" NCoef="0" IVar="-1" Cut="0.0000000000000000e+00" cType="1" res="1.0621116496622562e-02" rms="2.3802484571933746e-01" purity="4.6789699792861938e-01" nType="-99"/>
          </Node>
          <Node pos="r" depth="2" NCoef="0" IVar="6" Cut="2.3324429988861084e-01" cType="1" res="7.9431226477026939e-03" rms="2.3144370317459106e-01" purity="2.4060297012329102e-01" nType="0">
            <Node pos="l" depth="3" NCoef="0" IVar="-1" Cut="0.0000000000000000e+00" cType="1" res="2.8351148590445518e-02" rms="2.3719173669815063e-01" purity="2.3641334474086761e-01" nType="-99"/>
            <Node pos="r" depth="3" NCoef="0" IVar="-1" Cut="0.0000000000000000e+00" cType="1" res="-7.0623992942273617e-03" rms="2.2166299819946289e-01" purity="2.4713958799839020e-01" nType="-99"/>
          </Node>
        </Node>
      </Node>
    </BinaryTree>
    <BinaryTree type="DecisionTree" boostWeight="1.0000000000000000e+00" itree="614">
      <Node pos="s" depth="0" NCoef="0" IVar="8" Cut="1.3365976512432098e-01" cType="1" res="2.0922184921801090e-04" rms="2.4036282300949097e-01" purity="5.0290405750274658e-01" nType="0">
        <Node pos="l" depth="1" NCoef="0" IVar="8" Cut="-1.5418403148651123e+00" cType="1" res="3.4509850665926933e-03" rms="2.3690292239189148e-01" purity="5.1381695270538330e-01" nType="0">
          <Node pos="l" depth="2" NCoef="0" IVar="7" Cut="-1.2580870091915131e-01" cType="1" res="-9.9715283140540123e-03" rms="2.3259556293487549e-01" purity="1.8793836236000061e-01" nType="0">
            <Node pos="l" depth="3" NCoef="0" IVar="-1" Cut="0.0000000000000000e+00" cType="1" res="-4.6146079897880554e-02" rms="2.1082083880901337e-01" purity="1.5661603212356567e-01" nType="-99"/>
            <Node pos="r" depth="3" NCoef="0" IVar="-1" Cut="0.0000000000000000e+00" cType="1" res="5.7749818079173565e-03" rms="2.5219851732254028e-01" purity="2.1995422244071960e-01" nType="-99"/>
          </Node>
          <Node pos="r" depth="2" NCoef="0" IVar="8" Cut="5.3854480385780334e-02" cType="1" res="5.4933358915150166e-03" rms="2.3748497664928436e-01" purity="5.6340217590332031e-01" nType="0">
            <Node pos="l" depth="3" NCoef="0" IVar="-1" Cut="0.0000000000000000e+00" cType="1" res="1.2261653319001198e-02" rms="2.3715852200984955e-01" purity="5.6207948923110962e-01" nType="-99"/>
            <Node pos="r" depth="3" NCoef="0" IVar="-1" Cut="0.0000000000000000e+00" cType="1" res="-3.5430192947387695e-02" rms="2.4089285731315613e-01" purity="5.8330011367797852e-01" nType="-99"/>
          </Node>
        </Node>
        <Node pos="r" depth="1" NCoef="0" IVar="1" Cut="6.3598982989788055e-02" cType="1" res="-3.8848319090902805e-03" rms="2.4460110068321228e-01" purity="4.8912212252616882e-01" nType="0">
          <Node pos="l" depth="2" NCoef="0" IVar="5" Cut="1.8179823303222656e+02" cType="1" res="1.7882278189063072e-03" rms="2.4187177419662476e-01" purity="2.5652024149894714e-01" nType="0">
            <Node pos="l" depth="3" NCoef="0" IVar="-1" Cut="0.0000000000000000e+00" cType="1" res="1.3712984509766102e-02" rms="2.3267070949077606e-01" purity="1.4852969348430634e-01" nType="-99"/>
            <Node pos="r" depth="3" NCoef="0" IVar="-1" Cut="0.0000000000000000e+00" cType="1" res="-2.3255212232470512e-02" rms="2.7247017621994019e-01" purity="6.5861082077026367e-01" nType="-99"/>
          </Node>
          <Node pos="r" depth="2" NCoef="0" IVar="0" Cut="1.8888507080078125e+03" cType="1" res="-9.6621355041861534e-03" rms="2.4721586704254150e-01" purity="7.2599816322326660e-01" nType="0">
            <Node pos="l" depth="3" NCoef="0" IVar="-1" Cut="0.0000000000000000e+00" cType="1" res="-2.4188682436943054e-02" rms="3.0319097638130188e-01" purity="1.6436217725276947e-01" nType="-99"/>
            <Node pos="r" depth="3" NCoef="0" IVar="-1" Cut="0.0000000000000000e+00" cType="1" res="-8.4455255419015884e-03" rms="2.2515770792961121e-01" purity="9.1375857591629028e-01" nType="-99"/>
          </Node>
        </Node>
      </Node>
    </BinaryTree>
    <BinaryTree type="DecisionTree" boostWeight="1.0000000000000000e+00" itree="615">
      <Node pos="s" depth="0" NCoef="0" IVar="2" Cut="9.3070495605468750e+02" cType="1" res="2.1201267372816801e-03" rms="2.4019400775432587e-01" purity="5.0094085931777954e-01" nType="0">
        <Node pos="l" depth="1" NCoef="0" IVar="3" Cut="2.2579812622070312e+02" cType="1" res="1.5131137333810329e-03" rms="2.3897325992584229e-01" purity="4.8962730169296265e-01" nType="0">
          <Node pos="l" depth="2" NCoef="0" IVar="4" Cut="1.8445393371582031e+02" cType="1" res="-6.2442258931696415e-03" rms="2.1562811732292175e-01" purity="1.0032784193754196e-01" nType="0">
            <Node pos="l" depth="3" NCoef="0" IVar="-1" Cut="0.0000000000000000e+00" cType="1" res="1.0438308818265796e-03" rms="2.0689931511878967e-01" purity="7.4970506131649017e-02" nType="-99"/>
            <Node pos="r" depth="3" NCoef="0" IVar="-1" Cut="0.0000000000000000e+00" cType="1" res="-4.2592279613018036e-02" rms="2.4762247502803802e-01" purity="2.0921789109706879e-01" nType="-99"/>
          </Node>
          <Node pos="r" depth="2" NCoef="0" IVar="2" Cut="4.2999755859375000e+02" cType="1" res="3.2099250238388777e-03" rms="2.4374897778034210e-01" purity="5.7478117942810059e-01" nType="0">
            <Node pos="l" depth="3" NCoef="0" IVar="-1" Cut="0.0000000000000000e+00" cType="1" res="-1.8192002316936851e-03" rms="2.6108625531196594e-01" purity="3.5745057463645935e-01" nType="-99"/>
            <Node pos="r" depth="3" NCoef="0" IVar="-1" Cut="0.0000000000000000e+00" cType="1" res="8.8843498378992081e-03" rms="2.3592290282249451e-01" purity="6.6769182682037354e-01" nType="-99"/>
          </Node>
        </Node>
        <Node pos="r" depth="1" NCoef="0" IVar="-1" Cut="0.0000000000000000e+00" cType="1" res="2.2939888760447502e-02" rms="2.7056714892387390e-01" purity="8.0637687444686890e-01" nType="-99"/>
      </Node>
    </BinaryTree>
    <BinaryTree type="DecisionTree" boostWeight="1.0000000000000000e+00" itree="616">
      <Node pos="s" depth="0" NCoef="0" IVar="8" Cut="1.4661157131195068e+00" cType="1" res="2.0962222479283810e-03" rms="2.4159449338912964e-01" purity="4.9894627928733826e-01" nType="0">
        <Node pos="l" depth="1" NCoef="0" IVar="7" Cut="1.4667235612869263e+00" cType="1" res="3.0456380918622017e-03" rms="2.4157355725765228e-01" purity="5.2032589912414551e-01" nType="0">
          <Node pos="l" depth="2" NCoef="0" IVar="7" Cut="1.0603685379028320e+00" cType="1" res="4.1524488478899002e-03" rms="2.4570453166961670e-01" purity="5.4697120189666748e-01" nType="0">
            <Node pos="l" depth="3" NCoef="0" IVar="-1" Cut="0.0000000000000000e+00" cType="1" res="5.1255668513476849e-03" rms="2.4349638819694519e-01" purity="5.5567973852157593e-01" nType="-99"/>
            <Node pos="r" depth="3" NCoef="0" IVar="-1" Cut="0.0000000000000000e+00" cType="1" res="2.5751607492566109e-02" rms="2.7308616042137146e-01" purity="4.3050473928451538e-01" nType="-99"/>
          </Node>
          <Node pos="r" depth="2" NCoef="0" IVar="9" Cut="1.3355182111263275e-01" cType="1" res="-1.3220841065049171e-02" rms="1.6879510879516602e-01" purity="1.2872724235057831e-01" nType="0">
            <Node pos="l" depth="3" NCoef="0" IVar="-1" Cut="0.0000000000000000e+00" cType="1" res="-5.1861018873751163e-03" rms="1.5846580266952515e-01" purity="1.3155426084995270e-01" nType="-99"/>
            <Node pos="r" depth="3" NCoef="0" IVar="-1" Cut="0.0000000000000000e+00" cType="1" res="-4.9220535904169083e-02" rms="1.7852392792701721e-01" purity="1.2566724419593811e-01" nType="-99"/>
          </Node>
        </Node>
        <Node pos="r" depth="1" NCoef="0" IVar="6" Cut="2.4026444554328918e-01" cType="1" res="-1.0178738273680210e-02" rms="2.4152903258800507e-01" purity="2.2253067791461945e-01" nType="0">
          <Node pos="l" depth="2" NCoef="0" IVar="-1" Cut="0.0000000000000000e+00" cType="1" res="-3.3938437700271606e-02" rms="2.3883394896984100e-01" purity="1.9408878684043884e-01" nType="-99"/>
          <Node pos="r" depth="2" NCoef="0" IVar="-1" Cut="0.0000000000000000e+00" cType="1" res="1.0723392479121685e-02" rms="2.4484722316265106e-01" purity="2.6847594976425171e-01" nType="-99"/>
        </Node>
      </Node>
    </BinaryTree>
    <BinaryTree type="DecisionTree" boostWeight="1.0000000000000000e+00" itree="617">
      <Node pos="s" depth="0" NCoef="0" IVar="9" Cut="-1.3305456936359406e-01" cType="1" res="-2.4715017061680555e-03" rms="2.3870737850666046e-01" purity="5.0316691398620605e-01" nType="0">
        <Node pos="l" depth="1" NCoef="0" IVar="3" Cut="3.9667276000976562e+02" cType="1" res="1.8515137489885092e-03" rms="2.3840974271297455e-01" purity="5.0181132555007935e-01" nType="0">
          <Node pos="l" depth="2" NCoef="0" IVar="9" Cut="-5.1395106315612793e-01" cType="1" res="-2.0443391986191273e-03" rms="2.4632951617240906e-01" purity="3.5549941658973694e-01" nType="0">
            <Node pos="l" depth="3" NCoef="0" IVar="-1" Cut="0.0000000000000000e+00" cType="1" res="-8.4377201274037361e-03" rms="2.4965119361877441e-01" purity="3.2710382342338562e-01" nType="-99"/>
            <Node pos="r" depth="3" NCoef="0" IVar="-1" Cut="0.0000000000000000e+00" cType="1" res="1.4378378167748451e-02" rms="2.3608368635177612e-01" purity="4.3812289834022522e-01" nType="-99"/>
          </Node>
          <Node pos="r" depth="2" NCoef="0" IVar="3" Cut="4.9750332641601562e+02" cType="1" res="1.0718787088990211e-02" rms="2.1906188130378723e-01" purity="8.3482909202575684e-01" nType="0">
            <Node pos="l" depth="3" NCoef="0" IVar="-1" Cut="0.0000000000000000e+00" cType="1" res="4.4985197484493256e-02" rms="2.2224788367748260e-01" purity="8.0976206064224243e-01" nType="-99"/>
            <Node pos="r" depth="3" NCoef="0" IVar="-1" Cut="0.0000000000000000e+00" cType="1" res="-1.9966790452599525e-02" rms="2.1279451251029968e-01" purity="8.6993122100830078e-01" nType="-99"/>
          </Node>
        </Node>
        <Node pos="r" depth="1" NCoef="0" IVar="4" Cut="3.5108450317382812e+02" cType="1" res="-6.1491518281400204e-03" rms="2.3889869451522827e-01" purity="5.0432008504867554e-01" nType="0">
          <Node pos="l" depth="2" NCoef="0" IVar="0" Cut="1.8088305664062500e+03" cType="1" res="-8.1222262233495712e-03" rms="2.4972046911716461e-01" purity="4.2053431272506714e-01" nType="0">
            <Node pos="l" depth="3" NCoef="0" IVar="-1" Cut="0.0000000000000000e+00" cType="1" res="9.6585665596649051e-04" rms="2.0309591293334961e-01" purity="5.6892078369855881e-02" nType="-99"/>
            <Node pos="r" depth="3" NCoef="0" IVar="-1" Cut="0.0000000000000000e+00" cType="1" res="-1.9441373646259308e-02" rms="2.8285989165306091e-01" purity="7.2646945714950562e-01" nType="-99"/>
          </Node>
          <Node pos="r" depth="2" NCoef="0" IVar="-1" Cut="0.0000000000000000e+00" cType="1" res="1.4637849293649197e-02" rms="1.6842152178287506e-01" purity="9.5705407857894897e-01" nType="-99"/>
        </Node>
      </Node>
    </BinaryTree>
    <BinaryTree type="DecisionTree" boostWeight="1.0000000000000000e+00" itree="618">
      <Node pos="s" depth="0" NCoef="0" IVar="2" Cut="3.2194494628906250e+02" cType="1" res="-8.1427599070593715e-04" rms="2.4448730051517487e-01" purity="5.0253075361251831e-01" nType="0">
        <Node pos="l" depth="1" NCoef="0" IVar="6" Cut="4.8833364248275757e-01" cType="1" res="1.5905652195215225e-02" rms="2.8242120146751404e-01" purity="2.0483744144439697e-01" nType="0">
          <Node pos="l" depth="2" NCoef="0" IVar="4" Cut="1.9715116882324219e+02" cType="1" res="2.9844536911696196e-03" rms="2.8124457597732544e-01" purity="2.1935838460922241e-01" nType="0">
            <Node pos="l" depth="3" NCoef="0" IVar="-1" Cut="0.0000000000000000e+00" cType="1" res="-1.1807667091488838e-02" rms="2.4317389726638794e-01" purity="1.1889313161373138e-01" nType="-99"/>
            <Node pos="r" depth="3" NCoef="0" IVar="-1" Cut="0.0000000000000000e+00" cType="1" res="2.1529575809836388e-02" rms="3.2421913743019104e-01" purity="3.5222011804580688e-01" nType="-99"/>
          </Node>
          <Node pos="r" depth="2" NCoef="0" IVar="-1" Cut="0.0000000000000000e+00" cType="1" res="7.9763159155845642e-02" rms="2.8302884101867676e-01" purity="1.7761878669261932e-01" nType="-99"/>
        </Node>
        <Node pos="r" depth="1" NCoef="0" IVar="9" Cut="-1.9994776248931885e+00" cType="1" res="-2.6322114281356335e-03" rms="2.3993146419525146e-01" purity="5.3489857912063599e-01" nType="0">
          <Node pos="l" depth="2" NCoef="0" IVar="-1" Cut="0.0000000000000000e+00" cType="1" res="-3.4148368984460831e-02" rms="2.4063955247402191e-01" purity="1.7096985876560211e-01" nType="-99"/>
          <Node pos="r" depth="2" NCoef="0" IVar="6" Cut="-4.4558502733707428e-02" cType="1" res="-1.9094038289040327e-03" rms="2.3987472057342529e-01" purity="5.4844146966934204e-01" nType="0">
            <Node pos="l" depth="3" NCoef="0" IVar="-1" Cut="0.0000000000000000e+00" cType="1" res="-8.8325738906860352e-03" rms="2.4233029782772064e-01" purity="5.4494428634643555e-01" nType="-99"/>
            <Node pos="r" depth="3" NCoef="0" IVar="-1" Cut="0.0000000000000000e+00" cType="1" res="2.2034710273146629e-03" rms="2.3748859763145447e-01" purity="5.5174469947814941e-01" nType="-99"/>
          </Node>
        </Node>
      </Node>
    </BinaryTree>
    <BinaryTree type="DecisionTree" boostWeight="1.0000000000000000e+00" itree="619">
      <Node pos="s" depth="0" NCoef="0" IVar="7" Cut="4.0010446310043335e-01" cType="1" res="4.9078121082857251e-04" rms="2.4285595118999481e-01" purity="4.9821031093597412e-01" nType="0">
        <Node pos="l" depth="1" NCoef="0" IVar="9" Cut="9.3174695968627930e-01" cType="1" res="3.4957495518028736e-03" rms="2.4364958703517914e-01" purity="5.3822433948516846e-01" nType="0">
          <Node pos="l" depth="2" NCoef="0" IVar="6" Cut="2.4303071200847626e-01" cType="1" res="-7.4985681567341089e-04" rms="2.3825712502002716e-01" purity="5.4982912540435791e-01" nType="0">
            <Node pos="l" depth="3" NCoef="0" IVar="-1" Cut="0.0000000000000000e+00" cType="1" res="6.5476805903017521e-03" rms="2.4313013255596161e-01" purity="5.9439915418624878e-01" nType="-99"/>
            <Node pos="r" depth="3" NCoef="0" IVar="-1" Cut="0.0000000000000000e+00" cType="1" res="-1.5921393409371376e-02" rms="2.2943419218063354e-01" purity="4.7339519858360291e-01" nType="-99"/>
          </Node>
          <Node pos="r" depth="2" NCoef="0" IVar="8" Cut="1.3051059842109680e-01" cType="1" res="2.2245781496167183e-02" rms="2.6534980535507202e-01" purity="4.8697379231452942e-01" nType="0">
            <Node pos="l" depth="3" NCoef="0" IVar="-1" Cut="0.0000000000000000e+00" cType="1" res="1.0576232336461544e-02" rms="2.5346565246582031e-01" purity="4.8160049319267273e-01" nType="-99"/>
            <Node pos="r" depth="3" NCoef="0" IVar="-1" Cut="0.0000000000000000e+00" cType="1" res="5.4269026964902878e-02" rms="2.7698177099227905e-01" purity="4.9296236038208008e-01" nType="-99"/>
          </Node>
        </Node>
        <Node pos="r" depth="1" NCoef="0" IVar="9" Cut="9.3110346794128418e-01" cType="1" res="-5.4386290721595287e-03" rms="2.4117246270179749e-01" purity="4.1925448179244995e-01" nType="0">
          <Node pos="l" depth="2" NCoef="0" IVar="2" Cut="4.2962429809570312e+02" cType="1" res="-1.5467486809939146e-03" rms="2.4127064645290375e-01" purity="4.4860538840293884e-01" nType="0">
            <Node pos="l" depth="3" NCoef="0" IVar="-1" Cut="0.0000000000000000e+00" cType="1" res="-1.6784485429525375e-02" rms="2.4416442215442657e-01" purity="2.5115320086479187e-01" nType="-99"/>
            <Node pos="r" depth="3" NCoef="0" IVar="-1" Cut="0.0000000000000000e+00" cType="1" res="6.0799643397331238e-03" rms="2.3956222832202911e-01" purity="5.5402344465255737e-01" nType="-99"/>
          </Node>
          <Node pos="r" depth="2" NCoef="0" IVar="0" Cut="1.8175429687500000e+03" cType="1" res="-1.8531484529376030e-02" rms="2.4037976562976837e-01" purity="3.2051366567611694e-01" nType="0">
            <Node pos="l" depth="3" NCoef="0" IVar="-1" Cut="0.0000000000000000e+00" cType="1" res="-1.8601458519697189e-02" rms="1.8064203858375549e-01" purity="4.3642640113830566e-02" nType="-99"/>
            <Node pos="r" depth="3" NCoef="0" IVar="-1" Cut="0.0000000000000000e+00" cType="1" res="-3.6269295960664749e-02" rms="2.9525700211524963e-01" purity="6.4771473407745361e-01" nType="-99"/>
          </Node>
        </Node>
      </Node>
    </BinaryTree>
    <BinaryTree type="DecisionTree" boostWeight="1.0000000000000000e+00" itree="620">
      <Node pos="s" depth="0" NCoef="0" IVar="5" Cut="1.5156152343750000e+02" cType="1" res="-5.2364255680004135e-05" rms="2.4039144814014435e-01" purity="4.9574723839759827e-01" nType="0">
        <Node pos="l" depth="1" NCoef="0" IVar="3" Cut="2.0540832519531250e+02" cType="1" res="4.1312938556075096e-03" rms="2.4110074341297150e-01" purity="1.8789654970169067e-01" nType="0">
          <Node pos="l" depth="2" NCoef="0" IVar="5" Cut="1.1856735992431641e+02" cType="1" res="-6.5818293951451778e-03" rms="1.6778472065925598e-01" purity="5.1059912890195847e-02" nType="0">
            <Node pos="l" depth="3" NCoef="0" IVar="-1" Cut="0.0000000000000000e+00" cType="1" res="-8.0658886581659317e-03" rms="1.4428591728210449e-01" purity="3.0333312228322029e-02" nType="-99"/>
            <Node pos="r" depth="3" NCoef="0" IVar="-1" Cut="0.0000000000000000e+00" cType="1" res="-2.6919230818748474e-02" rms="2.0740418136119843e-01" purity="9.3449257314205170e-02" nType="-99"/>
          </Node>
          <Node pos="r" depth="2" NCoef="0" IVar="8" Cut="-3.9983201026916504e-01" cType="1" res="7.8451223671436310e-03" rms="2.6166421175003052e-01" purity="2.3533257842063904e-01" nType="0">
            <Node pos="l" depth="3" NCoef="0" IVar="-1" Cut="0.0000000000000000e+00" cType="1" res="2.7777219191193581e-02" rms="2.6742556691169739e-01" purity="2.2608685493469238e-01" nType="-99"/>
            <Node pos="r" depth="3" NCoef="0" IVar="-1" Cut="0.0000000000000000e+00" cType="1" res="2.0798447076231241e-03" rms="2.5793644785881042e-01" purity="2.4087490141391754e-01" nType="-99"/>
          </Node>
        </Node>
        <Node pos="r" depth="1" NCoef="0" IVar="6" Cut="9.5539188385009766e-01" cType="1" res="-3.6528909113258123e-03" rms="2.3972088098526001e-01" purity="7.6068866252899170e-01" nType="0">
          <Node pos="l" depth="2" NCoef="0" IVar="4" Cut="1.8953038024902344e+02" cType="1" res="-1.0146767599508166e-03" rms="2.3756544291973114e-01" purity="7.9926139116287231e-01" nType="0">
            <Node pos="l" depth="3" NCoef="0" IVar="-1" Cut="0.0000000000000000e+00" cType="1" res="-2.0289337262511253e-02" rms="2.8750938177108765e-01" purity="3.8601985573768616e-01" nType="-99"/>
            <Node pos="r" depth="3" NCoef="0" IVar="-1" Cut="0.0000000000000000e+00" cType="1" res="1.2118525337427855e-03" rms="2.3221285641193390e-01" purity="8.3838266134262085e-01" nType="-99"/>
          </Node>
          <Node pos="r" depth="2" NCoef="0" IVar="8" Cut="1.2389403581619263e-01" cType="1" res="-2.7491606771945953e-02" rms="2.5715896487236023e-01" purity="4.1214838624000549e-01" nType="0">
            <Node pos="l" depth="3" NCoef="0" IVar="-1" Cut="0.0000000000000000e+00" cType="1" res="-2.5462657213211060e-02" rms="2.5025022029876709e-01" purity="4.5101273059844971e-01" nType="-99"/>
            <Node pos="r" depth="3" NCoef="0" IVar="-1" Cut="0.0000000000000000e+00" cType="1" res="-4.7911718487739563e-02" rms="2.6403003931045532e-01" purity="3.7065786123275757e-01" nType="-99"/>
          </Node>
        </Node>
      </Node>
    </BinaryTree>
    <BinaryTree type="DecisionTree" boostWeight="1.0000000000000000e+00" itree="621">
      <Node pos="s" depth="0" NCoef="0" IVar="2" Cut="9.7313873291015625e+02" cType="1" res="-1.2637478066608310e-03" rms="2.4257181584835052e-01" purity="4.9673599004745483e-01" nType="0">
        <Node pos="l" depth="1" NCoef="0" IVar="7" Cut="-1.1983772516250610e+00" cType="1" res="-5.8642303338274360e-04" rms="2.4096788465976715e-01" purity="4.8935988545417786e-01" nType="0">
          <Node pos="l" depth="2" NCoef="0" IVar="5" Cut="1.4931564331054688e+02" cType="1" res="-1.0538186877965927e-02" rms="1.9509761035442352e-01" purity="1.7821966111660004e-01" nType="0">
            <Node pos="l" depth="3" NCoef="0" IVar="-1" Cut="0.0000000000000000e+00" cType="1" res="-4.2301900684833527e-03" rms="1.7191509902477264e-01" purity="5.7852622121572495e-02" nType="-99"/>
            <Node pos="r" depth="3" NCoef="0" IVar="-1" Cut="0.0000000000000000e+00" cType="1" res="-3.4488402307033539e-02" rms="2.2679089009761810e-01" purity="3.7237223982810974e-01" nType="-99"/>
          </Node>
          <Node pos="r" depth="2" NCoef="0" IVar="1" Cut="1.0615571588277817e-01" cType="1" res="6.8468676181510091e-04" rms="2.4618308246135712e-01" purity="5.2910089492797852e-01" nType="0">
            <Node pos="l" depth="3" NCoef="0" IVar="-1" Cut="0.0000000000000000e+00" cType="1" res="5.3247297182679176e-03" rms="2.5735262036323547e-01" purity="3.8556557893753052e-01" nType="-99"/>
            <Node pos="r" depth="3" NCoef="0" IVar="-1" Cut="0.0000000000000000e+00" cType="1" res="-8.7594529613852501e-03" rms="2.2368025779724121e-01" purity="7.9783225059509277e-01" nType="-99"/>
          </Node>
        </Node>
        <Node pos="r" depth="1" NCoef="0" IVar="-1" Cut="0.0000000000000000e+00" cType="1" res="-2.9308890923857689e-02" rms="2.9224273562431335e-01" purity="7.5487887859344482e-01" nType="-99"/>
      </Node>
    </BinaryTree>
    <BinaryTree type="DecisionTree" boostWeight="1.0000000000000000e+00" itree="622">
      <Node pos="s" depth="0" NCoef="0" IVar="9" Cut="1.9991602897644043e+00" cType="1" res="-1.3610532041639090e-03" rms="2.4011027812957764e-01" purity="4.9666249752044678e-01" nType="0">
        <Node pos="l" depth="1" NCoef="0" IVar="1" Cut="1.0220210999250412e-01" cType="1" res="-2.1153902634978294e-03" rms="2.4006153643131256e-01" purity="5.0802248716354370e-01" nType="0">
          <Node pos="l" depth="2" NCoef="0" IVar="9" Cut="8.5665774345397949e-01" cType="1" res="-4.9194064922630787e-03" rms="2.4882724881172180e-01" purity="3.5407167673110962e-01" nType="0">
            <Node pos="l" depth="3" NCoef="0" IVar="-1" Cut="0.0000000000000000e+00" cType="1" res="-4.5662326738238335e-03" rms="2.4677091836929321e-01" purity="3.6309146881103516e-01" nType="-99"/>
            <Node pos="r" depth="3" NCoef="0" IVar="-1" Cut="0.0000000000000000e+00" cType="1" res="-1.8665142357349396e-02" rms="2.5665432214736938e-01" purity="3.1830739974975586e-01" nType="-99"/>
          </Node>
          <Node pos="r" depth="2" NCoef="0" IVar="5" Cut="1.9455906677246094e+02" cType="1" res="3.5308892838656902e-03" rms="2.2125202417373657e-01" purity="8.1802409887313843e-01" nType="0">
            <Node pos="l" depth="3" NCoef="0" IVar="-1" Cut="0.0000000000000000e+00" cType="1" res="1.3328633271157742e-02" rms="2.8488400578498840e-01" purity="6.3715237379074097e-01" nType="-99"/>
            <Node pos="r" depth="3" NCoef="0" IVar="-1" Cut="0.0000000000000000e+00" cType="1" res="-1.0723320767283440e-02" rms="1.5339943766593933e-01" purity="9.6030378341674805e-01" nType="-99"/>
          </Node>
        </Node>
        <Node pos="r" depth="1" NCoef="0" IVar="-1" Cut="0.0000000000000000e+00" cType="1" res="2.8954787179827690e-02" rms="2.4054919183254242e-01" purity="2.0439030230045319e-01" nType="-99"/>
      </Node>
    </BinaryTree>
    <BinaryTree type="DecisionTree" boostWeight="1.0000000000000000e+00" itree="623">
      <Node pos="s" depth="0" NCoef="0" IVar="2" Cut="9.3063476562500000e+02" cType="1" res="3.4880891325883567e-04" rms="2.4175478518009186e-01" purity="5.0334018468856812e-01" nType="0">
        <Node pos="l" depth="1" NCoef="0" IVar="7" Cut="-3.9906886219978333e-01" cType="1" res="-6.7140627652406693e-04" rms="2.4147175252437592e-01" purity="4.9264487624168396e-01" nType="0">
          <Node pos="l" depth="2" NCoef="0" IVar="2" Cut="4.7882986450195312e+02" cType="1" res="-7.3058730922639370e-03" rms="2.4315182864665985e-01" purity="4.1746705770492554e-01" nType="0">
            <Node pos="l" depth="3" NCoef="0" IVar="-1" Cut="0.0000000000000000e+00" cType="1" res="4.2200167663395405e-03" rms="2.4579823017120361e-01" purity="2.9115408658981323e-01" nType="-99"/>
            <Node pos="r" depth="3" NCoef="0" IVar="-1" Cut="0.0000000000000000e+00" cType="1" res="-2.8842067345976830e-02" rms="2.4010644853115082e-01" purity="5.4237186908721924e-01" nType="-99"/>
          </Node>
          <Node pos="r" depth="2" NCoef="0" IVar="7" Cut="6.6702717542648315e-01" cType="1" res="2.8621600940823555e-03" rms="2.4049746990203857e-01" purity="5.3268510103225708e-01" nType="0">
            <Node pos="l" depth="3" NCoef="0" IVar="-1" Cut="0.0000000000000000e+00" cType="1" res="1.1807438917458057e-02" rms="2.4136544764041901e-01" purity="6.3201016187667847e-01" nType="-99"/>
            <Node pos="r" depth="3" NCoef="0" IVar="-1" Cut="0.0000000000000000e+00" cType="1" res="-6.3911238685250282e-03" rms="2.3883508145809174e-01" purity="3.6040323972702026e-01" nType="-99"/>
          </Node>
        </Node>
        <Node pos="r" depth="1" NCoef="0" IVar="-1" Cut="0.0000000000000000e+00" cType="1" res="3.4695781767368317e-02" rms="2.4780359864234924e-01" purity="7.9962760210037231e-01" nType="-99"/>
      </Node>
    </BinaryTree>
    <BinaryTree type="DecisionTree" boostWeight="1.0000000000000000e+00" itree="624">
      <Node pos="s" depth="0" NCoef="0" IVar="3" Cut="3.3423809814453125e+02" cType="1" res="-1.9787771452683955e-04" rms="2.3714289069175720e-01" purity="5.0456815958023071e-01" nType="0">
        <Node pos="l" depth="1" NCoef="0" IVar="7" Cut="1.7325427532196045e+00" cType="1" res="-4.5854444615542889e-03" rms="2.4659821391105652e-01" purity="2.7367809414863586e-01" nType="0">
          <Node pos="l" depth="2" NCoef="0" IVar="6" Cut="7.4793738126754761e-01" cType="1" res="-5.8589908294379711e-03" rms="2.4928119778633118e-01" purity="2.8476074337959290e-01" nType="0">
            <Node pos="l" depth="3" NCoef="0" IVar="-1" Cut="0.0000000000000000e+00" cType="1" res="-1.2638640590012074e-02" rms="2.5952339172363281e-01" purity="3.2617014646530151e-01" nType="-99"/>
            <Node pos="r" depth="3" NCoef="0" IVar="-1" Cut="0.0000000000000000e+00" cType="1" res="8.7402937933802605e-03" rms="2.1407110989093781e-01" purity="1.5613368153572083e-01" nType="-99"/>
          </Node>
          <Node pos="r" depth="2" NCoef="0" IVar="-1" Cut="0.0000000000000000e+00" cType="1" res="5.0133824348449707e-02" rms="1.9338092207908630e-01" purity="8.2870520651340485e-02" nType="-99"/>
        </Node>
        <Node pos="r" depth="1" NCoef="0" IVar="7" Cut="-9.3068331480026245e-01" cType="1" res="4.8618917353451252e-03" rms="2.2564187645912170e-01" purity="7.7083200216293335e-01" nType="0">
          <Node pos="l" depth="2" NCoef="0" IVar="-1" Cut="0.0000000000000000e+00" cType="1" res="2.8599468991160393e-02" rms="2.6001775264739990e-01" purity="5.7208168506622314e-01" nType="-99"/>
          <Node pos="r" depth="2" NCoef="0" IVar="6" Cut="-1.0117815732955933e+00" cType="1" res="2.9894784092903137e-03" rms="2.2126790881156921e-01" purity="7.9369866847991943e-01" nType="0">
            <Node pos="l" depth="3" NCoef="0" IVar="-1" Cut="0.0000000000000000e+00" cType="1" res="2.0489402115345001e-02" rms="2.8032788634300232e-01" purity="4.7565603256225586e-01" nType="-99"/>
            <Node pos="r" depth="3" NCoef="0" IVar="-1" Cut="0.0000000000000000e+00" cType="1" res="3.9594746194779873e-03" rms="2.1641567349433899e-01" purity="8.1634861230850220e-01" nType="-99"/>
          </Node>
        </Node>
      </Node>
    </BinaryTree>
    <BinaryTree type="DecisionTree" boostWeight="1.0000000000000000e+00" itree="625">
      <Node pos="s" depth="0" NCoef="0" IVar="9" Cut="1.9992526769638062e+00" cType="1" res="7.5326667865738273e-04" rms="2.3766025900840759e-01" purity="5.0017195940017700e-01" nType="0">
        <Node pos="l" depth="1" NCoef="0" IVar="3" Cut="3.2899578857421875e+02" cType="1" res="1.3319420395419002e-03" rms="2.3711709678173065e-01" purity="5.1113218069076538e-01" nType="0">
          <Node pos="l" depth="2" NCoef="0" IVar="5" Cut="1.5552461242675781e+02" cType="1" res="4.3773045763373375e-03" rms="2.4643127620220184e-01" purity="2.8324663639068604e-01" nType="0">
            <Node pos="l" depth="3" NCoef="0" IVar="-1" Cut="0.0000000000000000e+00" cType="1" res="-1.3861033366993070e-03" rms="2.1925374865531921e-01" purity="1.2585662305355072e-01" nType="-99"/>
            <Node pos="r" depth="3" NCoef="0" IVar="-1" Cut="0.0000000000000000e+00" cType="1" res="1.6543433070182800e-02" rms="2.8982323408126831e-01" purity="5.7431936264038086e-01" nType="-99"/>
          </Node>
          <Node pos="r" depth="2" NCoef="0" IVar="8" Cut="-1.1958274841308594e+00" cType="1" res="-1.9147167913615704e-03" rms="2.2672125697135925e-01" purity="7.5408083200454712e-01" nType="0">
            <Node pos="l" depth="3" NCoef="0" IVar="-1" Cut="0.0000000000000000e+00" cType="1" res="-2.1434787660837173e-02" rms="2.7418226003646851e-01" purity="5.6503003835678101e-01" nType="-99"/>
            <Node pos="r" depth="3" NCoef="0" IVar="-1" Cut="0.0000000000000000e+00" cType="1" res="-1.0950629366561770e-03" rms="2.2165726125240326e-01" purity="7.7197748422622681e-01" nType="-99"/>
          </Node>
        </Node>
        <Node pos="r" depth="1" NCoef="0" IVar="-1" Cut="0.0000000000000000e+00" cType="1" res="-2.4474423378705978e-02" rms="2.5242713093757629e-01" purity="1.8003268539905548e-01" nType="-99"/>
      </Node>
    </BinaryTree>
    <BinaryTree type="DecisionTree" boostWeight="1.0000000000000000e+00" itree="626">
      <Node pos="s" depth="0" NCoef="0" IVar="1" Cut="1.2738260626792908e-01" cType="1" res="-1.0232977801933885e-03" rms="2.3833404481410980e-01" purity="4.9190577864646912e-01" nType="0">
        <Node pos="l" depth="1" NCoef="0" IVar="8" Cut="-6.6610044240951538e-01" cType="1" res="6.7361723631620407e-04" rms="2.4606150388717651e-01" purity="3.8607800006866455e-01" nType="0">
          <Node pos="l" depth="2" NCoef="0" IVar="1" Cut="8.4927245974540710e-02" cType="1" res="-5.3713135421276093e-03" rms="2.3907354474067688e-01" purity="2.9079169034957886e-01" nType="0">
            <Node pos="l" depth="3" NCoef="0" IVar="-1" Cut="0.0000000000000000e+00" cType="1" res="-1.7884667031466961e-03" rms="2.3612529039382935e-01" purity="2.2589060664176941e-01" nType="-99"/>
            <Node pos="r" depth="3" NCoef="0" IVar="-1" Cut="0.0000000000000000e+00" cType="1" res="-3.0762813985347748e-02" rms="2.5043132901191711e-01" purity="5.6802266836166382e-01" nType="-99"/>
          </Node>
          <Node pos="r" depth="2" NCoef="0" IVar="1" Cut="2.4280199781060219e-02" cType="1" res="3.0880770646035671e-03" rms="2.4875672161579132e-01" purity="4.2413717508316040e-01" nType="0">
            <Node pos="l" depth="3" NCoef="0" IVar="-1" Cut="0.0000000000000000e+00" cType="1" res="-1.1416078545153141e-02" rms="1.8048928678035736e-01" purity="1.2117142230272293e-01" nType="-99"/>
            <Node pos="r" depth="3" NCoef="0" IVar="-1" Cut="0.0000000000000000e+00" cType="1" res="8.0656372010707855e-03" rms="2.7098318934440613e-01" purity="5.4386913776397705e-01" nType="-99"/>
          </Node>
        </Node>
        <Node pos="r" depth="1" NCoef="0" IVar="0" Cut="2.1621047363281250e+03" cType="1" res="-6.4650452695786953e-03" rms="2.1156693994998932e-01" purity="8.3127921819686890e-01" nType="0">
          <Node pos="l" depth="2" NCoef="0" IVar="5" Cut="1.4778274536132812e+02" cType="1" res="-1.8789347261190414e-02" rms="3.3984333276748657e-01" purity="4.5306652784347534e-01" nType="0">
            <Node pos="l" depth="3" NCoef="0" IVar="-1" Cut="0.0000000000000000e+00" cType="1" res="5.8332243934273720e-03" rms="3.4385168552398682e-01" purity="2.9443088173866272e-01" nType="-99"/>
            <Node pos="r" depth="3" NCoef="0" IVar="-1" Cut="0.0000000000000000e+00" cType="1" res="-3.0405486002564430e-02" rms="3.3521366119384766e-01" purity="5.8024072647094727e-01" nType="-99"/>
          </Node>
          <Node pos="r" depth="2" NCoef="0" IVar="3" Cut="4.5197637939453125e+02" cType="1" res="-1.6226236475631595e-03" rms="1.2994347512722015e-01" purity="9.7988516092300415e-01" nType="0">
            <Node pos="l" depth="3" NCoef="0" IVar="-1" Cut="0.0000000000000000e+00" cType="1" res="-2.2041641175746918e-02" rms="1.3542702794075012e-01" purity="9.7737240791320801e-01" nType="-99"/>
            <Node pos="r" depth="3" NCoef="0" IVar="-1" Cut="0.0000000000000000e+00" cType="1" res="1.4753951691091061e-02" rms="1.1874081194400787e-01" purity="9.8465490341186523e-01" nType="-99"/>
          </Node>
        </Node>
      </Node>
    </BinaryTree>
    <BinaryTree type="DecisionTree" boostWeight="1.0000000000000000e+00" itree="627">
      <Node pos="s" depth="0" NCoef="0" IVar="2" Cut="8.7257666015625000e+02" cType="1" res="3.9279650081880391e-04" rms="2.4450527131557465e-01" purity="4.9778032302856445e-01" nType="0">
        <Node pos="l" depth="1" NCoef="0" IVar="5" Cut="1.9699700927734375e+02" cType="1" res="1.4247345970943570e-03" rms="2.4223187565803528e-01" purity="4.8404040932655334e-01" nType="0">
          <Node pos="l" depth="2" NCoef="0" IVar="9" Cut="1.9996218681335449e+00" cType="1" res="4.3790424242615700e-03" rms="2.5821053981781006e-01" purity="3.0332148075103760e-01" nType="0">
            <Node pos="l" depth="3" NCoef="0" IVar="-1" Cut="0.0000000000000000e+00" cType="1" res="4.4888029806315899e-03" rms="2.5739312171936035e-01" purity="3.0985093116760254e-01" nType="-99"/>
            <Node pos="r" depth="3" NCoef="0" IVar="-1" Cut="0.0000000000000000e+00" cType="1" res="5.9039656072854996e-02" rms="2.7304336428642273e-01" purity="1.6759178042411804e-01" nType="-99"/>
          </Node>
          <Node pos="r" depth="2" NCoef="0" IVar="0" Cut="2.3558051757812500e+03" cType="1" res="-4.8173069953918457e-03" rms="2.0426347851753235e-01" purity="8.6587429046630859e-01" nType="0">
            <Node pos="l" depth="3" NCoef="0" IVar="-1" Cut="0.0000000000000000e+00" cType="1" res="-1.9182974472641945e-02" rms="3.1441915035247803e-01" purity="5.7542055845260620e-01" nType="-99"/>
            <Node pos="r" depth="3" NCoef="0" IVar="-1" Cut="0.0000000000000000e+00" cType="1" res="3.8328969385474920e-03" rms="1.4473704993724823e-01" purity="9.7086519002914429e-01" nType="-99"/>
          </Node>
        </Node>
        <Node pos="r" depth="1" NCoef="0" IVar="-1" Cut="0.0000000000000000e+00" cType="1" res="-2.4402767419815063e-02" rms="2.8291922807693481e-01" purity="7.5420498847961426e-01" nType="-99"/>
      </Node>
    </BinaryTree>
    <BinaryTree type="DecisionTree" boostWeight="1.0000000000000000e+00" itree="628">
      <Node pos="s" depth="0" NCoef="0" IVar="0" Cut="1.8887803955078125e+03" cType="1" res="-1.0835336288437247e-03" rms="2.3675602674484253e-01" purity="4.9684306979179382e-01" nType="0">
        <Node pos="l" depth="1" NCoef="0" IVar="0" Cut="1.7258554687500000e+03" cType="1" res="-4.8289713449776173e-03" rms="2.1673159301280975e-01" purity="7.3520012199878693e-02" nType="0">
          <Node pos="l" depth="2" NCoef="0" IVar="7" Cut="-9.2907935380935669e-01" cType="1" res="-2.0097447559237480e-03" rms="1.8417197465896606e-01" purity="4.3478123843669891e-02" nType="0">
            <Node pos="l" depth="3" NCoef="0" IVar="-1" Cut="0.0000000000000000e+00" cType="1" res="-3.5460278391838074e-02" rms="1.4041280746459961e-01" purity="2.4730574339628220e-02" nType="-99"/>
            <Node pos="r" depth="3" NCoef="0" IVar="-1" Cut="0.0000000000000000e+00" cType="1" res="1.9962508231401443e-03" rms="1.9674609601497650e-01" purity="4.9841120839118958e-02" nType="-99"/>
          </Node>
          <Node pos="r" depth="2" NCoef="0" IVar="9" Cut="-3.9803463220596313e-01" cType="1" res="-1.5218398533761501e-02" rms="3.0812224745750427e-01" purity="1.8423053622245789e-01" nType="0">
            <Node pos="l" depth="3" NCoef="0" IVar="-1" Cut="0.0000000000000000e+00" cType="1" res="-3.7123519927263260e-02" rms="3.0201616883277893e-01" purity="1.6887286305427551e-01" nType="-99"/>
            <Node pos="r" depth="3" NCoef="0" IVar="-1" Cut="0.0000000000000000e+00" cType="1" res="1.6361430753022432e-03" rms="3.1100094318389893e-01" purity="1.9451257586479187e-01" nType="-99"/>
          </Node>
        </Node>
        <Node pos="r" depth="1" NCoef="0" IVar="9" Cut="-1.1994786262512207e+00" cType="1" res="1.7481588292866945e-03" rms="2.5079920887947083e-01" purity="8.1689131259918213e-01" nType="0">
          <Node pos="l" depth="2" NCoef="0" IVar="6" Cut="1.9354559481143951e-02" cType="1" res="1.7759919166564941e-02" rms="2.7936163544654846e-01" purity="7.3278683423995972e-01" nType="0">
            <Node pos="l" depth="3" NCoef="0" IVar="-1" Cut="0.0000000000000000e+00" cType="1" res="7.7402121387422085e-03" rms="2.6896139979362488e-01" purity="7.2226625680923462e-01" nType="-99"/>
            <Node pos="r" depth="3" NCoef="0" IVar="-1" Cut="0.0000000000000000e+00" cType="1" res="3.4915100783109665e-02" rms="2.9187926650047302e-01" purity="7.4670195579528809e-01" nType="-99"/>
          </Node>
          <Node pos="r" depth="2" NCoef="0" IVar="9" Cut="-2.4705611169338226e-01" cType="1" res="-5.0410814583301544e-04" rms="2.4643272161483765e-01" purity="8.2872170209884644e-01" nType="0">
            <Node pos="l" depth="3" NCoef="0" IVar="-1" Cut="0.0000000000000000e+00" cType="1" res="-1.6844192519783974e-02" rms="2.5250822305679321e-01" purity="8.3488833904266357e-01" nType="-99"/>
            <Node pos="r" depth="3" NCoef="0" IVar="-1" Cut="0.0000000000000000e+00" cType="1" res="6.5823383629322052e-03" rms="2.4335819482803345e-01" purity="8.2579493522644043e-01" nType="-99"/>
          </Node>
        </Node>
      </Node>
    </BinaryTree>
    <BinaryTree type="DecisionTree" boostWeight="1.0000000000000000e+00" itree="629">
      <Node pos="s" depth="0" NCoef="0" IVar="7" Cut="1.3336399197578430e-01" cType="1" res="7.3985353810712695e-04" rms="2.4140430986881256e-01" purity="5.1538437604904175e-01" nType="0">
        <Node pos="l" depth="1" NCoef="0" IVar="1" Cut="9.7991190850734711e-02" cType="1" res="5.0046211108565331e-03" rms="2.4507042765617371e-01" purity="5.2849489450454712e-01" nType="0">
          <Node pos="l" depth="2" NCoef="0" IVar="3" Cut="3.2780355834960938e+02" cType="1" res="9.4057805836200714e-03" rms="2.5524109601974487e-01" purity="3.7537077069282532e-01" nType="0">
            <Node pos="l" depth="3" NCoef="0" IVar="-1" Cut="0.0000000000000000e+00" cType="1" res="2.9153237119317055e-02" rms="2.5520646572113037e-01" purity="1.8660253286361694e-01" nType="-99"/>
            <Node pos="r" depth="3" NCoef="0" IVar="-1" Cut="0.0000000000000000e+00" cType="1" res="6.8591552553698421e-04" rms="2.5501242280006409e-01" purity="6.2129414081573486e-01" nType="-99"/>
          </Node>
          <Node pos="r" depth="2" NCoef="0" IVar="7" Cut="-7.6624345779418945e-01" cType="1" res="-2.8468936216086149e-03" rms="2.2557839751243591e-01" purity="8.0166292190551758e-01" nType="0">
            <Node pos="l" depth="3" NCoef="0" IVar="-1" Cut="0.0000000000000000e+00" cType="1" res="1.8065255135297775e-02" rms="2.4821674823760986e-01" purity="7.5554013252258301e-01" nType="-99"/>
            <Node pos="r" depth="3" NCoef="0" IVar="-1" Cut="0.0000000000000000e+00" cType="1" res="-1.4671088196337223e-02" rms="2.1853323280811310e-01" purity="8.1476199626922607e-01" nType="-99"/>
          </Node>
        </Node>
        <Node pos="r" depth="1" NCoef="0" IVar="8" Cut="-1.4665639400482178e+00" cType="1" res="-4.7826906666159630e-03" rms="2.3645831644535065e-01" purity="4.9840736389160156e-01" nType="0">
          <Node pos="l" depth="2" NCoef="0" IVar="-1" Cut="0.0000000000000000e+00" cType="1" res="-3.6462772637605667e-02" rms="2.3942893743515015e-01" purity="1.9500143826007843e-01" nType="-99"/>
          <Node pos="r" depth="2" NCoef="0" IVar="0" Cut="2.0415736083984375e+03" cType="1" res="-3.5196540411561728e-03" rms="2.3619374632835388e-01" purity="5.2011758089065552e-01" nType="0">
            <Node pos="l" depth="3" NCoef="0" IVar="-1" Cut="0.0000000000000000e+00" cType="1" res="-1.3306674547493458e-02" rms="2.4228060245513916e-01" purity="1.2298657000064850e-01" nType="-99"/>
            <Node pos="r" depth="3" NCoef="0" IVar="-1" Cut="0.0000000000000000e+00" cType="1" res="2.1514159161597490e-03" rms="2.3051023483276367e-01" purity="8.7532114982604980e-01" nType="-99"/>
          </Node>
        </Node>
      </Node>
    </BinaryTree>
    <BinaryTree type="DecisionTree" boostWeight="1.0000000000000000e+00" itree="630">
      <Node pos="s" depth="0" NCoef="0" IVar="7" Cut="-3.9935404062271118e-01" cType="1" res="2.5108193513005972e-03" rms="2.3940162360668182e-01" purity="4.9989372491836548e-01" nType="0">
        <Node pos="l" depth="1" NCoef="0" IVar="1" Cut="8.0653853714466095e-02" cType="1" res="8.5374675691127777e-03" rms="2.4481666088104248e-01" purity="4.4107508659362793e-01" nType="0">
          <Node pos="l" depth="2" NCoef="0" IVar="1" Cut="5.7638544589281082e-02" cType="1" res="4.6965070068836212e-03" rms="2.4076609313488007e-01" purity="2.6244506239891052e-01" nType="0">
            <Node pos="l" depth="3" NCoef="0" IVar="-1" Cut="0.0000000000000000e+00" cType="1" res="1.8161145970225334e-02" rms="2.3144410550594330e-01" purity="2.0962134003639221e-01" nType="-99"/>
            <Node pos="r" depth="3" NCoef="0" IVar="-1" Cut="0.0000000000000000e+00" cType="1" res="-1.7770567908883095e-02" rms="2.7735435962677002e-01" purity="4.9597778916358948e-01" nType="-99"/>
          </Node>
          <Node pos="r" depth="2" NCoef="0" IVar="0" Cut="2.0813125000000000e+03" cType="1" res="1.5745187178254128e-02" rms="2.5208431482315063e-01" purity="7.7628177404403687e-01" nType="0">
            <Node pos="l" depth="3" NCoef="0" IVar="-1" Cut="0.0000000000000000e+00" cType="1" res="3.4146513789892197e-02" rms="3.6066311597824097e-01" purity="3.8549309968948364e-01" nType="-99"/>
            <Node pos="r" depth="3" NCoef="0" IVar="-1" Cut="0.0000000000000000e+00" cType="1" res="8.8760629296302795e-03" rms="1.7786489427089691e-01" purity="9.6071428060531616e-01" nType="-99"/>
          </Node>
        </Node>
        <Node pos="r" depth="1" NCoef="0" IVar="6" Cut="9.4881755113601685e-01" cType="1" res="-5.6532712187618017e-04" rms="2.3653072118759155e-01" purity="5.2991616725921631e-01" nType="0">
          <Node pos="l" depth="2" NCoef="0" IVar="8" Cut="-1.1994966268539429e+00" cType="1" res="1.2139116879552603e-03" rms="2.4115996062755585e-01" purity="5.7675927877426147e-01" nType="0">
            <Node pos="l" depth="3" NCoef="0" IVar="-1" Cut="0.0000000000000000e+00" cType="1" res="1.7475128173828125e-02" rms="2.8247728943824768e-01" purity="3.7264496088027954e-01" nType="-99"/>
            <Node pos="r" depth="3" NCoef="0" IVar="-1" Cut="0.0000000000000000e+00" cType="1" res="-3.3605238422751427e-04" rms="2.3585128784179688e-01" purity="6.0046947002410889e-01" nType="-99"/>
          </Node>
          <Node pos="r" depth="2" NCoef="0" IVar="9" Cut="-1.3161243498325348e-01" cType="1" res="-1.1946611106395721e-02" rms="2.0408736169338226e-01" purity="2.3027414083480835e-01" nType="0">
            <Node pos="l" depth="3" NCoef="0" IVar="-1" Cut="0.0000000000000000e+00" cType="1" res="-5.5758379399776459e-02" rms="2.0983690023422241e-01" purity="2.1463316679000854e-01" nType="-99"/>
            <Node pos="r" depth="3" NCoef="0" IVar="-1" Cut="0.0000000000000000e+00" cType="1" res="5.1041864790022373e-03" rms="1.9872589409351349e-01" purity="2.4097615480422974e-01" nType="-99"/>
          </Node>
        </Node>
      </Node>
    </BinaryTree>
    <BinaryTree type="DecisionTree" boostWeight="1.0000000000000000e+00" itree="631">
      <Node pos="s" depth="0" NCoef="0" IVar="1" Cut="1.6989661753177643e-01" cType="1" res="-3.1763000879436731e-03" rms="2.4113173782825470e-01" purity="4.8938575387001038e-01" nType="0">
        <Node pos="l" depth="1" NCoef="0" IVar="1" Cut="1.0521214455366135e-01" cType="1" res="-1.6458941390737891e-03" rms="2.4542878568172455e-01" purity="4.3610250949859619e-01" nType="0">
          <Node pos="l" depth="2" NCoef="0" IVar="2" Cut="9.3066601562500000e+02" cType="1" res="-3.9760777726769447e-03" rms="2.4698166549205780e-01" purity="3.4816735982894897e-01" nType="0">
            <Node pos="l" depth="3" NCoef="0" IVar="-1" Cut="0.0000000000000000e+00" cType="1" res="-4.9135247245430946e-03" rms="2.4321730434894562e-01" purity="3.3130404353141785e-01" nType="-99"/>
            <Node pos="r" depth="3" NCoef="0" IVar="-1" Cut="0.0000000000000000e+00" cType="1" res="-2.7278484776616096e-02" rms="3.1926977634429932e-01" purity="7.2606265544891357e-01" nType="-99"/>
          </Node>
          <Node pos="r" depth="2" NCoef="0" IVar="5" Cut="1.3345819091796875e+02" cType="1" res="6.9756591692566872e-03" rms="2.3939859867095947e-01" purity="7.6145786046981812e-01" nType="0">
            <Node pos="l" depth="3" NCoef="0" IVar="-1" Cut="0.0000000000000000e+00" cType="1" res="2.4637339636683464e-02" rms="3.2574313879013062e-01" purity="3.5585206747055054e-01" nType="-99"/>
            <Node pos="r" depth="3" NCoef="0" IVar="-1" Cut="0.0000000000000000e+00" cType="1" res="6.1130551621317863e-03" rms="2.1597623825073242e-01" purity="8.4944325685501099e-01" nType="-99"/>
          </Node>
        </Node>
        <Node pos="r" depth="1" NCoef="0" IVar="0" Cut="2.2383542480468750e+03" cType="1" res="-1.3847881928086281e-02" rms="2.0841133594512939e-01" purity="8.6093175411224365e-01" nType="0">
          <Node pos="l" depth="2" NCoef="0" IVar="-1" Cut="0.0000000000000000e+00" cType="1" res="-3.3717576414346695e-02" rms="3.3725115656852722e-01" purity="5.6058788299560547e-01" nType="-99"/>
          <Node pos="r" depth="2" NCoef="0" IVar="-1" Cut="0.0000000000000000e+00" cType="1" res="-3.0182883143424988e-02" rms="1.1823988705873489e-01" purity="9.8514062166213989e-01" nType="-99"/>
        </Node>
      </Node>
    </BinaryTree>
    <BinaryTree type="DecisionTree" boostWeight="1.0000000000000000e+00" itree="632">
      <Node pos="s" depth="0" NCoef="0" IVar="9" Cut="1.9980899095535278e+00" cType="1" res="1.0072418954223394e-03" rms="2.4333757162094116e-01" purity="5.0563842058181763e-01" nType="0">
        <Node pos="l" depth="1" NCoef="0" IVar="0" Cut="1.8888190917968750e+03" cType="1" res="1.8656451720744371e-03" rms="2.4384529888629913e-01" purity="5.2071714401245117e-01" nType="0">
          <Node pos="l" depth="2" NCoef="0" IVar="8" Cut="-6.6734713315963745e-01" cType="1" res="6.0280156321823597e-03" rms="2.3565798997879028e-01" purity="9.2587776482105255e-02" nType="0">
            <Node pos="l" depth="3" NCoef="0" IVar="-1" Cut="0.0000000000000000e+00" cType="1" res="-1.1889401823282242e-02" rms="2.1047522127628326e-01" purity="6.9341167807579041e-02" nType="-99"/>
            <Node pos="r" depth="3" NCoef="0" IVar="-1" Cut="0.0000000000000000e+00" cType="1" res="1.9858950749039650e-02" rms="2.4626734852790833e-01" purity="1.0336104780435562e-01" nType="-99"/>
          </Node>
          <Node pos="r" depth="2" NCoef="0" IVar="4" Cut="2.4256518554687500e+02" cType="1" res="-1.0853568091988564e-03" rms="2.4944506585597992e-01" purity="8.2424867153167725e-01" nType="0">
            <Node pos="l" depth="3" NCoef="0" IVar="-1" Cut="0.0000000000000000e+00" cType="1" res="-8.9797303080558777e-03" rms="3.0986657738685608e-01" purity="6.4651101827621460e-01" nType="-99"/>
            <Node pos="r" depth="3" NCoef="0" IVar="-1" Cut="0.0000000000000000e+00" cType="1" res="5.0124917179346085e-03" rms="2.1686920523643494e-01" purity="9.0392529964447021e-01" nType="-99"/>
          </Node>
        </Node>
        <Node pos="r" depth="1" NCoef="0" IVar="-1" Cut="0.0000000000000000e+00" cType="1" res="-3.2721828669309616e-02" rms="2.2967667877674103e-01" purity="1.3932687044143677e-01" nType="-99"/>
      </Node>
    </BinaryTree>
    <BinaryTree type="DecisionTree" boostWeight="1.0000000000000000e+00" itree="633">
      <Node pos="s" depth="0" NCoef="0" IVar="8" Cut="1.3309091329574585e-01" cType="1" res="-1.7208212520927191e-03" rms="2.4110959470272064e-01" purity="4.8931330442428589e-01" nType="0">
        <Node pos="l" depth="1" NCoef="0" IVar="2" Cut="7.1737194824218750e+02" cType="1" res="1.4810375869274139e-03" rms="2.3951698839664459e-01" purity="5.0392818450927734e-01" nType="0">
          <Node pos="l" depth="2" NCoef="0" IVar="4" Cut="2.1960252380371094e+02" cType="1" res="3.7578295450657606e-03" rms="2.3944908380508423e-01" purity="4.6392333507537842e-01" nType="0">
            <Node pos="l" depth="3" NCoef="0" IVar="-1" Cut="0.0000000000000000e+00" cType="1" res="-2.0947600714862347e-03" rms="2.3124155402183533e-01" purity="1.7899398505687714e-01" nType="-99"/>
            <Node pos="r" depth="3" NCoef="0" IVar="-1" Cut="0.0000000000000000e+00" cType="1" res="1.4801245182752609e-02" rms="2.4778893589973450e-01" purity="7.6760244369506836e-01" nType="-99"/>
          </Node>
          <Node pos="r" depth="2" NCoef="0" IVar="0" Cut="2.7775053710937500e+03" cType="1" res="-1.1623290367424488e-02" rms="2.3948694765567780e-01" purity="7.3418051004409790e-01" nType="0">
            <Node pos="l" depth="3" NCoef="0" IVar="-1" Cut="0.0000000000000000e+00" cType="1" res="-3.5811316221952438e-02" rms="3.0784538388252258e-01" purity="3.7133243680000305e-01" nType="-99"/>
            <Node pos="r" depth="3" NCoef="0" IVar="-1" Cut="0.0000000000000000e+00" cType="1" res="4.9266777932643890e-03" rms="1.8852081894874573e-01" purity="9.4075173139572144e-01" nType="-99"/>
          </Node>
        </Node>
        <Node pos="r" depth="1" NCoef="0" IVar="7" Cut="-6.6427642107009888e-01" cType="1" res="-5.6107412092387676e-03" rms="2.4297362565994263e-01" purity="4.7155779600143433e-01" nType="0">
          <Node pos="l" depth="2" NCoef="0" IVar="2" Cut="5.2368536376953125e+02" cType="1" res="4.9493322148919106e-03" rms="2.4644170701503754e-01" purity="3.5161685943603516e-01" nType="0">
            <Node pos="l" depth="3" NCoef="0" IVar="-1" Cut="0.0000000000000000e+00" cType="1" res="-3.3467591274529696e-03" rms="2.3507565259933472e-01" purity="2.4831777811050415e-01" nType="-99"/>
            <Node pos="r" depth="3" NCoef="0" IVar="-1" Cut="0.0000000000000000e+00" cType="1" res="2.5236396118998528e-02" rms="2.6395133137702942e-01" purity="5.2434235811233521e-01" nType="-99"/>
          </Node>
          <Node pos="r" depth="2" NCoef="0" IVar="8" Cut="1.2756345272064209e+00" cType="1" res="-8.8472906500101089e-03" rms="2.4180842936038971e-01" purity="5.0831836462020874e-01" nType="0">
            <Node pos="l" depth="3" NCoef="0" IVar="-1" Cut="0.0000000000000000e+00" cType="1" res="-2.1539054811000824e-02" rms="2.3940879106521606e-01" purity="5.6755506992340088e-01" nType="-99"/>
            <Node pos="r" depth="3" NCoef="0" IVar="-1" Cut="0.0000000000000000e+00" cType="1" res="5.7548512704670429e-03" rms="2.4905101954936981e-01" purity="3.1497865915298462e-01" nType="-99"/>
          </Node>
        </Node>
      </Node>
    </BinaryTree>
    <BinaryTree type="DecisionTree" boostWeight="1.0000000000000000e+00" itree="634">
      <Node pos="s" depth="0" NCoef="0" IVar="7" Cut="-6.6271674633026123e-01" cType="1" res="2.4422544520348310e-03" rms="2.4012820422649384e-01" purity="5.0366568565368652e-01" nType="0">
        <Node pos="l" depth="1" NCoef="0" IVar="1" Cut="7.1126386523246765e-02" cType="1" res="-4.8952312208712101e-03" rms="2.3908916115760803e-01" purity="3.6687353253364563e-01" nType="0">
          <Node pos="l" depth="2" NCoef="0" IVar="1" Cut="4.7497268766164780e-02" cType="1" res="-1.1339121498167515e-02" rms="2.1984924376010895e-01" purity="1.9349995255470276e-01" nType="0">
            <Node pos="l" depth="3" NCoef="0" IVar="-1" Cut="0.0000000000000000e+00" cType="1" res="-1.3548692688345909e-02" rms="2.0408566296100616e-01" purity="1.3600699603557587e-01" nType="-99"/>
            <Node pos="r" depth="3" NCoef="0" IVar="-1" Cut="0.0000000000000000e+00" cType="1" res="-3.2292775809764862e-02" rms="2.6808229088783264e-01" purity="3.9958992600440979e-01" nType="-99"/>
          </Node>
          <Node pos="r" depth="2" NCoef="0" IVar="9" Cut="-9.2262826859951019e-02" cType="1" res="7.5566181913018227e-03" rms="2.7201262116432190e-01" purity="7.0189195871353149e-01" nType="0">
            <Node pos="l" depth="3" NCoef="0" IVar="-1" Cut="0.0000000000000000e+00" cType="1" res="-1.5476012602448463e-02" rms="2.8648203611373901e-01" purity="6.4119666814804077e-01" nType="-99"/>
            <Node pos="r" depth="3" NCoef="0" IVar="-1" Cut="0.0000000000000000e+00" cType="1" res="3.9942588657140732e-02" rms="2.5449404120445251e-01" purity="7.6502180099487305e-01" nType="-99"/>
          </Node>
        </Node>
        <Node pos="r" depth="1" NCoef="0" IVar="2" Cut="8.0892895507812500e+02" cType="1" res="4.8966975882649422e-03" rms="2.4042478203773499e-01" purity="5.4942369461059570e-01" nType="0">
          <Node pos="l" depth="2" NCoef="0" IVar="3" Cut="1.7393922424316406e+02" cType="1" res="3.4038110170513391e-03" rms="2.4099515378475189e-01" purity="5.2574044466018677e-01" nType="0">
            <Node pos="l" depth="3" NCoef="0" IVar="-1" Cut="0.0000000000000000e+00" cType="1" res="-5.5954590439796448e-02" rms="1.5065786242485046e-01" purity="2.8012000024318695e-02" nType="-99"/>
            <Node pos="r" depth="3" NCoef="0" IVar="-1" Cut="0.0000000000000000e+00" cType="1" res="7.5740185566246510e-03" rms="2.4485732614994049e-01" purity="5.5249011516571045e-01" nType="-99"/>
          </Node>
          <Node pos="r" depth="2" NCoef="0" IVar="3" Cut="4.8316430664062500e+02" cType="1" res="2.0257184281945229e-02" rms="2.3392300307750702e-01" purity="7.9310327768325806e-01" nType="0">
            <Node pos="l" depth="3" NCoef="0" IVar="-1" Cut="0.0000000000000000e+00" cType="1" res="1.3954919762909412e-02" rms="2.5831806659698486e-01" purity="7.0088589191436768e-01" nType="-99"/>
            <Node pos="r" depth="3" NCoef="0" IVar="-1" Cut="0.0000000000000000e+00" cType="1" res="5.3133711218833923e-02" rms="2.0141264796257019e-01" purity="9.0006643533706665e-01" nType="-99"/>
          </Node>
        </Node>
      </Node>
    </BinaryTree>
    <BinaryTree type="DecisionTree" boostWeight="1.0000000000000000e+00" itree="635">
      <Node pos="s" depth="0" NCoef="0" IVar="9" Cut="1.7329336404800415e+00" cType="1" res="-8.2615128485485911e-04" rms="2.4310201406478882e-01" purity="5.0105339288711548e-01" nType="0">
        <Node pos="l" depth="1" NCoef="0" IVar="3" Cut="4.5437918090820312e+02" cType="1" res="1.5230919234454632e-04" rms="2.4150381982326508e-01" purity="5.1551443338394165e-01" nType="0">
          <Node pos="l" depth="2" NCoef="0" IVar="5" Cut="2.6143112182617188e+02" cType="1" res="1.9133277237415314e-03" rms="2.4889884889125824e-01" purity="4.3441268801689148e-01" nType="0">
            <Node pos="l" depth="3" NCoef="0" IVar="-1" Cut="0.0000000000000000e+00" cType="1" res="4.5583490282297134e-03" rms="2.5479382276535034e-01" purity="3.8604906201362610e-01" nType="-99"/>
            <Node pos="r" depth="3" NCoef="0" IVar="-1" Cut="0.0000000000000000e+00" cType="1" res="-3.7567455321550369e-02" rms="1.7426812648773193e-01" purity="9.4621402025222778e-01" nType="-99"/>
          </Node>
          <Node pos="r" depth="2" NCoef="0" IVar="1" Cut="5.9080857783555984e-02" cType="1" res="-7.4747935868799686e-03" rms="2.0626604557037354e-01" purity="8.6677205562591553e-01" nType="0">
            <Node pos="l" depth="3" NCoef="0" IVar="-1" Cut="0.0000000000000000e+00" cType="1" res="-2.9717488214373589e-02" rms="2.7652871608734131e-01" purity="6.6411489248275757e-01" nType="-99"/>
            <Node pos="r" depth="3" NCoef="0" IVar="-1" Cut="0.0000000000000000e+00" cType="1" res="3.4279145766049623e-03" rms="1.6250304877758026e-01" purity="9.6185368299484253e-01" nType="-99"/>
          </Node>
        </Node>
        <Node pos="r" depth="1" NCoef="0" IVar="6" Cut="-2.0866688340902328e-02" cType="1" res="-1.7169199883937836e-02" rms="2.6786506175994873e-01" purity="2.5951346755027771e-01" nType="0">
          <Node pos="l" depth="2" NCoef="0" IVar="-1" Cut="0.0000000000000000e+00" cType="1" res="-5.2572369575500488e-02" rms="2.5109604001045227e-01" purity="2.4801863729953766e-01" nType="-99"/>
          <Node pos="r" depth="2" NCoef="0" IVar="-1" Cut="0.0000000000000000e+00" cType="1" res="-4.4381031766533852e-03" rms="2.8007239103317261e-01" purity="2.6892104744911194e-01" nType="-99"/>
        </Node>
      </Node>
    </BinaryTree>
    <BinaryTree type="DecisionTree" boostWeight="1.0000000000000000e+00" itree="636">
      <Node pos="s" depth="0" NCoef="0" IVar="9" Cut="6.6671943664550781e-01" cType="1" res="-6.3742586644366384e-04" rms="2.4278056621551514e-01" purity="5.0681233406066895e-01" nType="0">
        <Node pos="l" depth="1" NCoef="0" IVar="8" Cut="9.3199139833450317e-01" cType="1" res="2.2480739280581474e-03" rms="2.4275882542133331e-01" purity="5.3236597776412964e-01" nType="0">
          <Node pos="l" depth="2" NCoef="0" IVar="7" Cut="-1.4668979644775391e+00" cType="1" res="4.1541843675076962e-03" rms="2.4099153280258179e-01" purity="5.6459861993789673e-01" nType="0">
            <Node pos="l" depth="3" NCoef="0" IVar="-1" Cut="0.0000000000000000e+00" cType="1" res="4.3566875159740448e-02" rms="2.1062108874320984e-01" purity="1.7319361865520477e-01" nType="-99"/>
            <Node pos="r" depth="3" NCoef="0" IVar="-1" Cut="0.0000000000000000e+00" cType="1" res="4.9136932939291000e-03" rms="2.4312740564346313e-01" purity="5.9476888179779053e-01" nType="-99"/>
          </Node>
          <Node pos="r" depth="2" NCoef="0" IVar="9" Cut="-1.5847021341323853e-01" cType="1" res="-6.7705898545682430e-03" rms="2.5075563788414001e-01" purity="3.7985888123512268e-01" nType="0">
            <Node pos="l" depth="3" NCoef="0" IVar="-1" Cut="0.0000000000000000e+00" cType="1" res="-2.0621370524168015e-02" rms="2.5413823127746582e-01" purity="3.4847924113273621e-01" nType="-99"/>
            <Node pos="r" depth="3" NCoef="0" IVar="-1" Cut="0.0000000000000000e+00" cType="1" res="6.1094434931874275e-03" rms="2.4509616196155548e-01" purity="4.2798054218292236e-01" nType="-99"/>
          </Node>
        </Node>
        <Node pos="r" depth="1" NCoef="0" IVar="2" Cut="5.9106231689453125e+02" cType="1" res="-8.1029012799263000e-03" rms="2.4267762899398804e-01" purity="4.4069892168045044e-01" nType="0">
          <Node pos="l" depth="2" NCoef="0" IVar="2" Cut="3.3067739868164062e+02" cType="1" res="-2.5861884932965040e-03" rms="2.4303242564201355e-01" purity="3.7473011016845703e-01" nType="0">
            <Node pos="l" depth="3" NCoef="0" IVar="-1" Cut="0.0000000000000000e+00" cType="1" res="-3.1859435141086578e-02" rms="2.5098627805709839e-01" purity="1.6748332977294922e-01" nType="-99"/>
            <Node pos="r" depth="3" NCoef="0" IVar="-1" Cut="0.0000000000000000e+00" cType="1" res="4.5606279745697975e-03" rms="2.4072217941284180e-01" purity="4.2605417966842651e-01" nType="-99"/>
          </Node>
          <Node pos="r" depth="2" NCoef="0" IVar="7" Cut="-1.4751073718070984e-01" cType="1" res="-2.0482826977968216e-02" rms="2.4142111837863922e-01" purity="5.8873814344406128e-01" nType="0">
            <Node pos="l" depth="3" NCoef="0" IVar="-1" Cut="0.0000000000000000e+00" cType="1" res="-6.8884730339050293e-02" rms="2.5308758020401001e-01" purity="5.4341965913772583e-01" nType="-99"/>
            <Node pos="r" depth="3" NCoef="0" IVar="-1" Cut="0.0000000000000000e+00" cType="1" res="-9.5747588202357292e-03" rms="2.3209685087203979e-01" purity="6.1931568384170532e-01" nType="-99"/>
          </Node>
        </Node>
      </Node>
    </BinaryTree>
    <BinaryTree type="DecisionTree" boostWeight="1.0000000000000000e+00" itree="637">
      <Node pos="s" depth="0" NCoef="0" IVar="2" Cut="3.1478073120117188e+02" cType="1" res="-2.8667068108916283e-03" rms="2.4103976786136627e-01" purity="4.9968785047531128e-01" nType="0">
        <Node pos="l" depth="1" NCoef="0" IVar="9" Cut="4.0590760111808777e-01" cType="1" res="1.2339534237980843e-02" rms="2.6711362600326538e-01" purity="2.1012093126773834e-01" nType="0">
          <Node pos="l" depth="2" NCoef="0" IVar="9" Cut="-6.5912479162216187e-01" cType="1" res="-1.1795622995123267e-03" rms="2.4222196638584137e-01" purity="2.0575302839279175e-01" nType="0">
            <Node pos="l" depth="3" NCoef="0" IVar="-1" Cut="0.0000000000000000e+00" cType="1" res="1.6543168574571609e-02" rms="2.6765310764312744e-01" purity="2.0464622974395752e-01" nType="-99"/>
            <Node pos="r" depth="3" NCoef="0" IVar="-1" Cut="0.0000000000000000e+00" cType="1" res="-1.8250374123454094e-02" rms="2.1587885916233063e-01" purity="2.0676052570343018e-01" nType="-99"/>
          </Node>
          <Node pos="r" depth="2" NCoef="0" IVar="-1" Cut="0.0000000000000000e+00" cType="1" res="4.1307967156171799e-02" rms="3.0071929097175598e-01" purity="2.1694743633270264e-01" nType="-99"/>
        </Node>
        <Node pos="r" depth="1" NCoef="0" IVar="2" Cut="6.4188171386718750e+02" cType="1" res="-4.2971675284206867e-03" rms="2.3839040100574493e-01" purity="5.2692759037017822e-01" nType="0">
          <Node pos="l" depth="2" NCoef="0" IVar="0" Cut="2.3487106933593750e+03" cType="1" res="-6.9754198193550110e-03" rms="2.3690859973430634e-01" purity="4.6176943182945251e-01" nType="0">
            <Node pos="l" depth="3" NCoef="0" IVar="-1" Cut="0.0000000000000000e+00" cType="1" res="-1.3598208315670490e-02" rms="2.6437905430793762e-01" purity="2.4630689620971680e-01" nType="-99"/>
            <Node pos="r" depth="3" NCoef="0" IVar="-1" Cut="0.0000000000000000e+00" cType="1" res="8.6359423585236073e-04" rms="1.5378853678703308e-01" purity="9.6873754262924194e-01" nType="-99"/>
          </Node>
          <Node pos="r" depth="2" NCoef="0" IVar="7" Cut="6.5818136930465698e-01" cType="1" res="3.4568905830383301e-03" rms="2.4246273934841156e-01" purity="7.1557295322418213e-01" nType="0">
            <Node pos="l" depth="3" NCoef="0" IVar="-1" Cut="0.0000000000000000e+00" cType="1" res="-6.9325341610237956e-04" rms="2.3867467045783997e-01" purity="7.3549246788024902e-01" nType="-99"/>
            <Node pos="r" depth="3" NCoef="0" IVar="-1" Cut="0.0000000000000000e+00" cType="1" res="2.6638142764568329e-02" rms="2.5661903619766235e-01" purity="6.3502597808837891e-01" nType="-99"/>
          </Node>
        </Node>
      </Node>
    </BinaryTree>
    <BinaryTree type="DecisionTree" boostWeight="1.0000000000000000e+00" itree="638">
      <Node pos="s" depth="0" NCoef="0" IVar="2" Cut="4.2598275756835938e+02" cType="1" res="-1.3499306514859200e-03" rms="2.4193678796291351e-01" purity="5.0146144628524780e-01" nType="0">
        <Node pos="l" depth="1" NCoef="0" IVar="6" Cut="-1.1431665420532227e+00" cType="1" res="-7.7734165824949741e-03" rms="2.5375187397003174e-01" purity="2.8734886646270752e-01" nType="0">
          <Node pos="l" depth="2" NCoef="0" IVar="-1" Cut="0.0000000000000000e+00" cType="1" res="2.1571343764662743e-02" rms="2.2217886149883270e-01" purity="1.5110142529010773e-01" nType="-99"/>
          <Node pos="r" depth="2" NCoef="0" IVar="1" Cut="1.4025437831878662e-01" cType="1" res="-1.0817717760801315e-02" rms="2.5838577747344971e-01" purity="3.0946865677833557e-01" nType="0">
            <Node pos="l" depth="3" NCoef="0" IVar="-1" Cut="0.0000000000000000e+00" cType="1" res="-2.2375117987394333e-02" rms="2.5257068872451782e-01" purity="2.1027059853076935e-01" nType="-99"/>
            <Node pos="r" depth="3" NCoef="0" IVar="-1" Cut="0.0000000000000000e+00" cType="1" res="8.4789507091045380e-03" rms="2.7861931920051575e-01" purity="6.8544232845306396e-01" nType="-99"/>
          </Node>
        </Node>
        <Node pos="r" depth="1" NCoef="0" IVar="9" Cut="-6.6562378406524658e-01" cType="1" res="1.6632891492918134e-03" rms="2.3613065481185913e-01" purity="6.0190039873123169e-01" nType="0">
          <Node pos="l" depth="2" NCoef="0" IVar="4" Cut="1.8838990783691406e+02" cType="1" res="1.0303470306098461e-02" rms="2.4738636612892151e-01" purity="5.5051863193511963e-01" nType="0">
            <Node pos="l" depth="3" NCoef="0" IVar="-1" Cut="0.0000000000000000e+00" cType="1" res="4.4311132282018661e-02" rms="2.6091605424880981e-01" purity="1.9077856838703156e-01" nType="-99"/>
            <Node pos="r" depth="3" NCoef="0" IVar="-1" Cut="0.0000000000000000e+00" cType="1" res="2.5227537844330072e-03" rms="2.3928101360797882e-01" purity="7.4574095010757446e-01" nType="-99"/>
          </Node>
          <Node pos="r" depth="2" NCoef="0" IVar="8" Cut="1.4666372537612915e+00" cType="1" res="-1.5825751470401883e-03" rms="2.3167774081230164e-01" purity="6.2120300531387329e-01" nType="0">
            <Node pos="l" depth="3" NCoef="0" IVar="-1" Cut="0.0000000000000000e+00" cType="1" res="6.5319938585162163e-04" rms="2.3087410628795624e-01" purity="6.4419865608215332e-01" nType="-99"/>
            <Node pos="r" depth="3" NCoef="0" IVar="-1" Cut="0.0000000000000000e+00" cType="1" res="-4.4611498713493347e-02" rms="2.4135909974575043e-01" purity="2.8568750619888306e-01" nType="-99"/>
          </Node>
        </Node>
      </Node>
    </BinaryTree>
    <BinaryTree type="DecisionTree" boostWeight="1.0000000000000000e+00" itree="639">
      <Node pos="s" depth="0" NCoef="0" IVar="8" Cut="3.9993563294410706e-01" cType="1" res="1.1205730261281133e-03" rms="2.3746778070926666e-01" purity="4.9650296568870544e-01" nType="0">
        <Node pos="l" depth="1" NCoef="0" IVar="9" Cut="6.6708147525787354e-01" cType="1" res="-1.3586098793894053e-03" rms="2.3355287313461304e-01" purity="5.1242649555206299e-01" nType="0">
          <Node pos="l" depth="2" NCoef="0" IVar="6" Cut="1.2608000040054321e+00" cType="1" res="1.2608923716470599e-03" rms="2.3179076611995697e-01" purity="5.3901124000549316e-01" nType="0">
            <Node pos="l" depth="3" NCoef="0" IVar="-1" Cut="0.0000000000000000e+00" cType="1" res="-4.7273864038288593e-04" rms="2.3253487050533295e-01" purity="5.6396496295928955e-01" nType="-99"/>
            <Node pos="r" depth="3" NCoef="0" IVar="-1" Cut="0.0000000000000000e+00" cType="1" res="5.7288762181997299e-02" rms="2.1928437054157257e-01" purity="1.7089401185512543e-01" nType="-99"/>
          </Node>
          <Node pos="r" depth="2" NCoef="0" IVar="2" Cut="3.7084246826171875e+02" cType="1" res="-8.8968658819794655e-03" rms="2.3839059472084045e-01" purity="4.3592244386672974e-01" nType="0">
            <Node pos="l" depth="3" NCoef="0" IVar="-1" Cut="0.0000000000000000e+00" cType="1" res="-4.7704942524433136e-02" rms="2.3016816377639771e-01" purity="1.8716411292552948e-01" nType="-99"/>
            <Node pos="r" depth="3" NCoef="0" IVar="-1" Cut="0.0000000000000000e+00" cType="1" res="-4.0624700486660004e-03" rms="2.4028052389621735e-01" purity="5.0669485330581665e-01" nType="-99"/>
          </Node>
        </Node>
        <Node pos="r" depth="1" NCoef="0" IVar="9" Cut="-1.4645625352859497e+00" cType="1" res="5.9127882122993469e-03" rms="2.4478666484355927e-01" purity="4.6572309732437134e-01" nType="0">
          <Node pos="l" depth="2" NCoef="0" IVar="-1" Cut="0.0000000000000000e+00" cType="1" res="3.1182339414954185e-02" rms="2.7335458993911743e-01" purity="3.3373436331748962e-01" nType="-99"/>
          <Node pos="r" depth="2" NCoef="0" IVar="1" Cut="3.9622232317924500e-02" cType="1" res="3.9272755384445190e-03" rms="2.4137699604034424e-01" purity="4.8014733195304871e-01" nType="0">
            <Node pos="l" depth="3" NCoef="0" IVar="-1" Cut="0.0000000000000000e+00" cType="1" res="-1.0632296092808247e-02" rms="2.0317152142524719e-01" purity="1.5542764961719513e-01" nType="-99"/>
            <Node pos="r" depth="3" NCoef="0" IVar="-1" Cut="0.0000000000000000e+00" cType="1" res="1.1969754472374916e-02" rms="2.5909054279327393e-01" purity="6.5082997083663940e-01" nType="-99"/>
          </Node>
        </Node>
      </Node>
    </BinaryTree>
    <BinaryTree type="DecisionTree" boostWeight="1.0000000000000000e+00" itree="640">
      <Node pos="s" depth="0" NCoef="0" IVar="5" Cut="1.2142406463623047e+02" cType="1" res="2.0112409256398678e-03" rms="2.4049265682697296e-01" purity="5.0317448377609253e-01" nType="0">
        <Node pos="l" depth="1" NCoef="0" IVar="5" Cut="9.4737045288085938e+01" cType="1" res="-4.0522995404899120e-03" rms="2.1171538531780243e-01" purity="1.1178578436374664e-01" nType="0">
          <Node pos="l" depth="2" NCoef="0" IVar="9" Cut="-9.3163824081420898e-01" cType="1" res="-1.0047112591564655e-02" rms="1.7222954332828522e-01" purity="5.3908564150333405e-02" nType="0">
            <Node pos="l" depth="3" NCoef="0" IVar="-1" Cut="0.0000000000000000e+00" cType="1" res="7.6370602473616600e-03" rms="1.8881712853908539e-01" purity="7.8607156872749329e-02" nType="-99"/>
            <Node pos="r" depth="3" NCoef="0" IVar="-1" Cut="0.0000000000000000e+00" cType="1" res="-4.4801276177167892e-02" rms="1.6534610092639923e-01" purity="4.4673357158899307e-02" nType="-99"/>
          </Node>
          <Node pos="r" depth="2" NCoef="0" IVar="1" Cut="7.5960114598274231e-02" cType="1" res="6.7340064560994506e-04" rms="2.3816725611686707e-01" purity="1.5741029381752014e-01" nType="0">
            <Node pos="l" depth="3" NCoef="0" IVar="-1" Cut="0.0000000000000000e+00" cType="1" res="-1.1631431989371777e-02" rms="2.0911681652069092e-01" purity="9.1979973018169403e-02" nType="-99"/>
            <Node pos="r" depth="3" NCoef="0" IVar="-1" Cut="0.0000000000000000e+00" cType="1" res="2.0962510257959366e-02" rms="3.1633535027503967e-01" purity="3.7847986817359924e-01" nType="-99"/>
          </Node>
        </Node>
        <Node pos="r" depth="1" NCoef="0" IVar="9" Cut="-4.0103355050086975e-01" cType="1" res="4.3505397625267506e-03" rms="2.5067421793937683e-01" purity="6.5417122840881348e-01" nType="0">
          <Node pos="l" depth="2" NCoef="0" IVar="8" Cut="6.6048300266265869e-01" cType="1" res="1.0099746286869049e-02" rms="2.6228401064872742e-01" purity="6.5103262662887573e-01" nType="0">
            <Node pos="l" depth="3" NCoef="0" IVar="-1" Cut="0.0000000000000000e+00" cType="1" res="3.8373803254216909e-03" rms="2.5379574298858643e-01" purity="6.5887355804443359e-01" nType="-99"/>
            <Node pos="r" depth="3" NCoef="0" IVar="-1" Cut="0.0000000000000000e+00" cType="1" res="4.7036785632371902e-02" rms="2.8967270255088806e-01" purity="6.2225008010864258e-01" nType="-99"/>
          </Node>
          <Node pos="r" depth="2" NCoef="0" IVar="9" Cut="9.6901863813400269e-01" cType="1" res="1.2469831854104996e-03" rms="2.4412138760089874e-01" purity="6.5586555004119873e-01" nType="0">
            <Node pos="l" depth="3" NCoef="0" IVar="-1" Cut="0.0000000000000000e+00" cType="1" res="-2.8736104723066092e-03" rms="2.3783411085605621e-01" purity="6.9536310434341431e-01" nType="-99"/>
            <Node pos="r" depth="3" NCoef="0" IVar="-1" Cut="0.0000000000000000e+00" cType="1" res="1.2802436947822571e-02" rms="2.5989836454391479e-01" purity="5.5109065771102905e-01" nType="-99"/>
          </Node>
        </Node>
      </Node>
    </BinaryTree>
    <BinaryTree type="DecisionTree" boostWeight="1.0000000000000000e+00" itree="641">
      <Node pos="s" depth="0" NCoef="0" IVar="7" Cut="-1.3242316246032715e-01" cType="1" res="-1.4627443160861731e-03" rms="2.4168905615806580e-01" purity="5.0050538778305054e-01" nType="0">
        <Node pos="l" depth="1" NCoef="0" IVar="0" Cut="2.3322294921875000e+03" cType="1" res="-6.1736581847071648e-03" rms="2.3934736847877502e-01" purity="4.8548966646194458e-01" nType="0">
          <Node pos="l" depth="2" NCoef="0" IVar="1" Cut="3.9046213030815125e-02" cType="1" res="-1.1623874306678772e-02" rms="2.6125240325927734e-01" purity="2.1693320572376251e-01" nType="0">
            <Node pos="l" depth="3" NCoef="0" IVar="-1" Cut="0.0000000000000000e+00" cType="1" res="-1.1546678142622113e-03" rms="1.8688927590847015e-01" purity="6.0395646840333939e-02" nType="-99"/>
            <Node pos="r" depth="3" NCoef="0" IVar="-1" Cut="0.0000000000000000e+00" cType="1" res="-2.0813534036278725e-02" rms="3.1099101901054382e-01" purity="3.5157480835914612e-01" nType="-99"/>
          </Node>
          <Node pos="r" depth="2" NCoef="0" IVar="2" Cut="7.0007720947265625e+02" cType="1" res="2.7729140128940344e-03" rms="1.9788418710231781e-01" purity="9.2632710933685303e-01" nType="0">
            <Node pos="l" depth="3" NCoef="0" IVar="-1" Cut="0.0000000000000000e+00" cType="1" res="-1.1684897355735302e-02" rms="1.6627345979213715e-01" purity="9.5212554931640625e-01" nType="-99"/>
            <Node pos="r" depth="3" NCoef="0" IVar="-1" Cut="0.0000000000000000e+00" cType="1" res="2.2868983447551727e-02" rms="2.4434053897857666e-01" purity="8.7983667850494385e-01" nType="-99"/>
          </Node>
        </Node>
        <Node pos="r" depth="1" NCoef="0" IVar="4" Cut="2.7775451660156250e+02" cType="1" res="2.4127098731696606e-03" rms="2.4353028833866119e-01" purity="5.1285821199417114e-01" nType="0">
          <Node pos="l" depth="2" NCoef="0" IVar="5" Cut="1.2556171417236328e+02" cType="1" res="6.8630250170826912e-03" rms="2.5777274370193481e-01" purity="3.4486535191535950e-01" nType="0">
            <Node pos="l" depth="3" NCoef="0" IVar="-1" Cut="0.0000000000000000e+00" cType="1" res="-1.0220578406006098e-03" rms="2.1599999070167542e-01" purity="9.5514878630638123e-02" nType="-99"/>
            <Node pos="r" depth="3" NCoef="0" IVar="-1" Cut="0.0000000000000000e+00" cType="1" res="1.4976021833717823e-02" rms="2.8338783979415894e-01" purity="5.2032577991485596e-01" nType="-99"/>
          </Node>
          <Node pos="r" depth="2" NCoef="0" IVar="5" Cut="2.2906948852539062e+02" cType="1" res="-7.1534989401698112e-03" rms="2.0934544503688812e-01" purity="8.7396842241287231e-01" nType="0">
            <Node pos="l" depth="3" NCoef="0" IVar="-1" Cut="0.0000000000000000e+00" cType="1" res="-2.7051888406276703e-02" rms="2.5679925084114075e-01" purity="7.6455950736999512e-01" nType="-99"/>
            <Node pos="r" depth="3" NCoef="0" IVar="-1" Cut="0.0000000000000000e+00" cType="1" res="6.2332465313374996e-03" rms="1.6331337392330170e-01" purity="9.5791321992874146e-01" nType="-99"/>
          </Node>
        </Node>
      </Node>
    </BinaryTree>
    <BinaryTree type="DecisionTree" boostWeight="1.0000000000000000e+00" itree="642">
      <Node pos="s" depth="0" NCoef="0" IVar="9" Cut="-6.6615170240402222e-01" cType="1" res="-3.4571829019114375e-04" rms="2.4103847146034241e-01" purity="4.9637261033058167e-01" nType="0">
        <Node pos="l" depth="1" NCoef="0" IVar="7" Cut="-9.2898160219192505e-01" cType="1" res="-7.3874322697520256e-03" rms="2.4170050024986267e-01" purity="4.4274610280990601e-01" nType="0">
          <Node pos="l" depth="2" NCoef="0" IVar="4" Cut="1.9543128967285156e+02" cType="1" res="-2.2688843309879303e-02" rms="2.4084270000457764e-01" purity="2.5078645348548889e-01" nType="0">
            <Node pos="l" depth="3" NCoef="0" IVar="-1" Cut="0.0000000000000000e+00" cType="1" res="-1.6039013862609863e-02" rms="2.0287595689296722e-01" purity="9.7187690436840057e-02" nType="-99"/>
            <Node pos="r" depth="3" NCoef="0" IVar="-1" Cut="0.0000000000000000e+00" cType="1" res="-5.2628088742494583e-02" rms="2.8111043572425842e-01" purity="4.4886147975921631e-01" nType="-99"/>
          </Node>
          <Node pos="r" depth="2" NCoef="0" IVar="9" Cut="-1.9863985776901245e+00" cType="1" res="-3.6135474219918251e-03" rms="2.4176277220249176e-01" purity="4.9009031057357788e-01" nType="0">
            <Node pos="l" depth="3" NCoef="0" IVar="-1" Cut="0.0000000000000000e+00" cType="1" res="-2.8349062427878380e-02" rms="2.4351654946804047e-01" purity="2.2681769728660583e-01" nType="-99"/>
            <Node pos="r" depth="3" NCoef="0" IVar="-1" Cut="0.0000000000000000e+00" cType="1" res="-2.3610258940607309e-03" rms="2.4144180119037628e-01" purity="5.2620726823806763e-01" nType="-99"/>
          </Node>
        </Node>
        <Node pos="r" depth="1" NCoef="0" IVar="9" Cut="6.5407061576843262e-01" cType="1" res="2.5016239378601313e-03" rms="2.4071179330348969e-01" purity="5.1805669069290161e-01" nType="0">
          <Node pos="l" depth="2" NCoef="0" IVar="4" Cut="2.6770605468750000e+02" cType="1" res="5.3527341224253178e-03" rms="2.3799407482147217e-01" purity="5.7356595993041992e-01" nType="0">
            <Node pos="l" depth="3" NCoef="0" IVar="-1" Cut="0.0000000000000000e+00" cType="1" res="1.7290374264121056e-02" rms="2.6534473896026611e-01" purity="3.4913712739944458e-01" nType="-99"/>
            <Node pos="r" depth="3" NCoef="0" IVar="-1" Cut="0.0000000000000000e+00" cType="1" res="-8.2903793081641197e-03" rms="1.9180904328823090e-01" purity="8.9510792493820190e-01" nType="-99"/>
          </Node>
          <Node pos="r" depth="2" NCoef="0" IVar="6" Cut="-1.0755831003189087e+00" cType="1" res="-1.9489567494019866e-03" rms="2.4482749402523041e-01" purity="4.3140664696693420e-01" nType="0">
            <Node pos="l" depth="3" NCoef="0" IVar="-1" Cut="0.0000000000000000e+00" cType="1" res="-5.3258106112480164e-02" rms="1.8004424870014191e-01" purity="1.2582233548164368e-01" nType="-99"/>
            <Node pos="r" depth="3" NCoef="0" IVar="-1" Cut="0.0000000000000000e+00" cType="1" res="1.1036864016205072e-03" rms="2.5161191821098328e-01" purity="4.6950599551200867e-01" nType="-99"/>
          </Node>
        </Node>
      </Node>
    </BinaryTree>
    <BinaryTree type="DecisionTree" boostWeight="1.0000000000000000e+00" itree="643">
      <Node pos="s" depth="0" NCoef="0" IVar="8" Cut="-3.9978113770484924e-01" cType="1" res="2.2476715967059135e-03" rms="2.3838292062282562e-01" purity="5.0104457139968872e-01" nType="0">
        <Node pos="l" depth="1" NCoef="0" IVar="4" Cut="2.2095500183105469e+02" cType="1" res="6.2629180029034615e-03" rms="2.4675001204013824e-01" purity="4.7255912423133850e-01" nType="0">
          <Node pos="l" depth="2" NCoef="0" IVar="1" Cut="7.2222426533699036e-02" cType="1" res="1.2566193938255310e-02" rms="2.5234711170196533e-01" purity="2.1665368974208832e-01" nType="0">
            <Node pos="l" depth="3" NCoef="0" IVar="-1" Cut="0.0000000000000000e+00" cType="1" res="1.2282515875995159e-02" rms="2.1184240281581879e-01" purity="1.2127661705017090e-01" nType="-99"/>
            <Node pos="r" depth="3" NCoef="0" IVar="-1" Cut="0.0000000000000000e+00" cType="1" res="3.1707305461168289e-02" rms="3.4132277965545654e-01" purity="4.8739355802536011e-01" nType="-99"/>
          </Node>
          <Node pos="r" depth="2" NCoef="0" IVar="5" Cut="1.6814125061035156e+02" cType="1" res="-9.4648613594472408e-04" rms="2.3998555541038513e-01" purity="7.6525223255157471e-01" nType="0">
            <Node pos="l" depth="3" NCoef="0" IVar="-1" Cut="0.0000000000000000e+00" cType="1" res="2.2164968773722649e-02" rms="3.0220115184783936e-01" purity="4.6277463436126709e-01" nType="-99"/>
            <Node pos="r" depth="3" NCoef="0" IVar="-1" Cut="0.0000000000000000e+00" cType="1" res="-1.4565208926796913e-02" rms="2.1683427691459656e-01" purity="8.5854262113571167e-01" nType="-99"/>
          </Node>
        </Node>
        <Node pos="r" depth="1" NCoef="0" IVar="9" Cut="-1.7324141263961792e+00" cType="1" res="1.1854810145450756e-04" rms="2.3379676043987274e-01" purity="5.1614934206008911e-01" nType="0">
          <Node pos="l" depth="2" NCoef="0" IVar="-1" Cut="0.0000000000000000e+00" cType="1" res="-2.5961775332689285e-02" rms="2.5863561034202576e-01" purity="2.7474564313888550e-01" nType="-99"/>
          <Node pos="r" depth="2" NCoef="0" IVar="9" Cut="-1.3006737232208252e+00" cType="1" res="1.1751622660085559e-03" rms="2.3232963681221008e-01" purity="5.2921724319458008e-01" nType="0">
            <Node pos="l" depth="3" NCoef="0" IVar="-1" Cut="0.0000000000000000e+00" cType="1" res="2.6816954836249352e-02" rms="2.6235446333885193e-01" purity="5.3748804330825806e-01" nType="-99"/>
            <Node pos="r" depth="3" NCoef="0" IVar="-1" Cut="0.0000000000000000e+00" cType="1" res="-1.3252877397462726e-04" rms="2.3016768693923950e-01" purity="5.2867454290390015e-01" nType="-99"/>
          </Node>
        </Node>
      </Node>
    </BinaryTree>
    <BinaryTree type="DecisionTree" boostWeight="1.0000000000000000e+00" itree="644">
      <Node pos="s" depth="0" NCoef="0" IVar="6" Cut="6.9609653949737549e-01" cType="1" res="1.6826338833197951e-03" rms="2.3723688721656799e-01" purity="5.0447249412536621e-01" nType="0">
        <Node pos="l" depth="1" NCoef="0" IVar="5" Cut="1.6783848571777344e+02" cType="1" res="3.6375026684254408e-03" rms="2.4095174670219421e-01" purity="5.5666929483413696e-01" nType="0">
          <Node pos="l" depth="2" NCoef="0" IVar="9" Cut="1.1998972892761230e+00" cType="1" res="7.4129025451838970e-03" rms="2.6615935564041138e-01" purity="2.7649727463722229e-01" nType="0">
            <Node pos="l" depth="3" NCoef="0" IVar="-1" Cut="0.0000000000000000e+00" cType="1" res="5.9275920502841473e-03" rms="2.6274743676185608e-01" purity="2.7441668510437012e-01" nType="-99"/>
            <Node pos="r" depth="3" NCoef="0" IVar="-1" Cut="0.0000000000000000e+00" cType="1" res="3.1909495592117310e-02" rms="2.8182256221771240e-01" purity="2.8674185276031494e-01" nType="-99"/>
          </Node>
          <Node pos="r" depth="2" NCoef="0" IVar="9" Cut="1.1983109712600708e+00" cType="1" res="-3.4076764131896198e-04" rms="2.1108515560626984e-01" purity="8.5189640522003174e-01" nType="0">
            <Node pos="l" depth="3" NCoef="0" IVar="-1" Cut="0.0000000000000000e+00" cType="1" res="3.0051304493099451e-03" rms="2.0821887254714966e-01" purity="8.6962181329727173e-01" nType="-99"/>
            <Node pos="r" depth="3" NCoef="0" IVar="-1" Cut="0.0000000000000000e+00" cType="1" res="-2.6534231379628181e-02" rms="2.3596926033496857e-01" purity="6.8327921628952026e-01" nType="-99"/>
          </Node>
        </Node>
        <Node pos="r" depth="1" NCoef="0" IVar="8" Cut="1.3272707164287567e-01" cType="1" res="-6.0427305288612843e-03" rms="2.2178021073341370e-01" purity="2.9819801449775696e-01" nType="0">
          <Node pos="l" depth="2" NCoef="0" IVar="9" Cut="-6.7024755477905273e-01" cType="1" res="4.5554670505225658e-03" rms="2.3354357481002808e-01" purity="3.1681177020072937e-01" nType="0">
            <Node pos="l" depth="3" NCoef="0" IVar="-1" Cut="0.0000000000000000e+00" cType="1" res="3.2716937363147736e-02" rms="2.4296729266643524e-01" purity="2.3826983571052551e-01" nType="-99"/>
            <Node pos="r" depth="3" NCoef="0" IVar="-1" Cut="0.0000000000000000e+00" cType="1" res="-9.3957246281206608e-04" rms="2.2914335131645203e-01" purity="3.5094231367111206e-01" nType="-99"/>
          </Node>
          <Node pos="r" depth="2" NCoef="0" IVar="4" Cut="2.2559910583496094e+02" cType="1" res="-1.6899166628718376e-02" rms="2.0848713815212250e-01" purity="2.7913072705268860e-01" nType="0">
            <Node pos="l" depth="3" NCoef="0" IVar="-1" Cut="0.0000000000000000e+00" cType="1" res="-6.2582753598690033e-02" rms="1.7461408674716949e-01" purity="8.3485975861549377e-02" nType="-99"/>
            <Node pos="r" depth="3" NCoef="0" IVar="-1" Cut="0.0000000000000000e+00" cType="1" res="1.3121115043759346e-03" rms="2.6092976331710815e-01" purity="6.5762394666671753e-01" nType="-99"/>
          </Node>
        </Node>
      </Node>
    </BinaryTree>
    <BinaryTree type="DecisionTree" boostWeight="1.0000000000000000e+00" itree="645">
      <Node pos="s" depth="0" NCoef="0" IVar="8" Cut="-3.9972624182701111e-01" cType="1" res="1.6069633420556784e-03" rms="2.3912529647350311e-01" purity="5.0202018022537231e-01" nType="0">
        <Node pos="l" depth="1" NCoef="0" IVar="9" Cut="-1.4658036231994629e+00" cType="1" res="-3.6538054700940847e-03" rms="2.4203272163867950e-01" purity="4.5353457331657410e-01" nType="0">
          <Node pos="l" depth="2" NCoef="0" IVar="-1" Cut="0.0000000000000000e+00" cType="1" res="-3.2218933105468750e-02" rms="2.2859704494476318e-01" purity="2.3682551085948944e-01" nType="-99"/>
          <Node pos="r" depth="2" NCoef="0" IVar="6" Cut="4.8769640922546387e-01" cType="1" res="-1.3395344140008092e-03" rms="2.4376502633094788e-01" purity="4.8387092351913452e-01" nType="0">
            <Node pos="l" depth="3" NCoef="0" IVar="-1" Cut="0.0000000000000000e+00" cType="1" res="-7.6755895279347897e-03" rms="2.4003909528255463e-01" purity="5.2702295780181885e-01" nType="-99"/>
            <Node pos="r" depth="3" NCoef="0" IVar="-1" Cut="0.0000000000000000e+00" cType="1" res="1.3239923864603043e-02" rms="2.5323069095611572e-01" purity="3.6860367655754089e-01" nType="-99"/>
          </Node>
        </Node>
        <Node pos="r" depth="1" NCoef="0" IVar="7" Cut="9.3373483419418335e-01" cType="1" res="4.4034947641193867e-03" rms="2.3751783370971680e-01" purity="5.2779418230056763e-01" nType="0">
          <Node pos="l" depth="2" NCoef="0" IVar="4" Cut="2.2015853881835938e+02" cType="1" res="6.7059299908578396e-03" rms="2.3903676867485046e-01" purity="5.7159036397933960e-01" nType="0">
            <Node pos="l" depth="3" NCoef="0" IVar="-1" Cut="0.0000000000000000e+00" cType="1" res="1.7127439379692078e-02" rms="2.6263612508773804e-01" purity="2.5321206450462341e-01" nType="-99"/>
            <Node pos="r" depth="3" NCoef="0" IVar="-1" Cut="0.0000000000000000e+00" cType="1" res="5.4372767917811871e-03" rms="2.1931189298629761e-01" purity="8.1384009122848511e-01" nType="-99"/>
          </Node>
          <Node pos="r" depth="2" NCoef="0" IVar="1" Cut="3.5788763314485550e-02" cType="1" res="-6.5728947520256042e-03" rms="2.2982200980186462e-01" purity="3.1900504231452942e-01" nType="0">
            <Node pos="l" depth="3" NCoef="0" IVar="-1" Cut="0.0000000000000000e+00" cType="1" res="1.5637887641787529e-02" rms="1.8944250047206879e-01" purity="1.0916022211313248e-01" nType="-99"/>
            <Node pos="r" depth="3" NCoef="0" IVar="-1" Cut="0.0000000000000000e+00" cType="1" res="-2.4192592129111290e-02" rms="2.6188054680824280e-01" purity="5.1804995536804199e-01" nType="-99"/>
          </Node>
        </Node>
      </Node>
    </BinaryTree>
    <BinaryTree type="DecisionTree" boostWeight="1.0000000000000000e+00" itree="646">
      <Node pos="s" depth="0" NCoef="0" IVar="1" Cut="8.4928832948207855e-02" cType="1" res="-8.3009316585958004e-04" rms="2.4267636239528656e-01" purity="5.0670409202575684e-01" nType="0">
        <Node pos="l" depth="1" NCoef="0" IVar="7" Cut="-1.4664789438247681e+00" cType="1" res="3.8646834436804056e-03" rms="2.4878500401973724e-01" purity="3.2235291600227356e-01" nType="0">
          <Node pos="l" depth="2" NCoef="0" IVar="8" Cut="-1.2636910378932953e-01" cType="1" res="-1.1013112962245941e-02" rms="1.8175388872623444e-01" purity="8.0022536218166351e-02" nType="0">
            <Node pos="l" depth="3" NCoef="0" IVar="-1" Cut="0.0000000000000000e+00" cType="1" res="1.2371133081614971e-02" rms="1.8946298956871033e-01" purity="1.0207637399435043e-01" nType="-99"/>
            <Node pos="r" depth="3" NCoef="0" IVar="-1" Cut="0.0000000000000000e+00" cType="1" res="-5.5997446179389954e-02" rms="1.7441076040267944e-01" purity="6.2509149312973022e-02" nType="-99"/>
          </Node>
          <Node pos="r" depth="2" NCoef="0" IVar="7" Cut="3.6219850182533264e-01" cType="1" res="5.7794051244854927e-03" rms="2.5607800483703613e-01" purity="3.5354000329971313e-01" nType="0">
            <Node pos="l" depth="3" NCoef="0" IVar="-1" Cut="0.0000000000000000e+00" cType="1" res="1.4892424456775188e-02" rms="2.6720350980758667e-01" purity="4.1056248545646667e-01" nType="-99"/>
            <Node pos="r" depth="3" NCoef="0" IVar="-1" Cut="0.0000000000000000e+00" cType="1" res="-1.7859398212749511e-05" rms="2.4107629060745239e-01" purity="2.8107631206512451e-01" nType="-99"/>
          </Node>
        </Node>
        <Node pos="r" depth="1" NCoef="0" IVar="0" Cut="2.1941367187500000e+03" cType="1" res="-7.6322942040860653e-03" rms="2.3337484896183014e-01" purity="7.7380806207656860e-01" nType="0">
          <Node pos="l" depth="2" NCoef="0" IVar="8" Cut="-7.0068800449371338e-01" cType="1" res="-1.8503008410334587e-02" rms="3.3946409821510315e-01" purity="4.0508356690406799e-01" nType="0">
            <Node pos="l" depth="3" NCoef="0" IVar="-1" Cut="0.0000000000000000e+00" cType="1" res="-3.2144416123628616e-02" rms="3.3483928442001343e-01" purity="3.2961907982826233e-01" nType="-99"/>
            <Node pos="r" depth="3" NCoef="0" IVar="-1" Cut="0.0000000000000000e+00" cType="1" res="-8.1016421318054199e-03" rms="3.4081932902336121e-01" purity="4.3380436301231384e-01" nType="-99"/>
          </Node>
          <Node pos="r" depth="2" NCoef="0" IVar="0" Cut="2.6764291992187500e+03" cType="1" res="-1.7148294718936086e-03" rms="1.4588780701160431e-01" purity="9.7452294826507568e-01" nType="0">
            <Node pos="l" depth="3" NCoef="0" IVar="-1" Cut="0.0000000000000000e+00" cType="1" res="-1.8730992451310158e-02" rms="1.9705252349376678e-01" purity="9.5200061798095703e-01" nType="-99"/>
            <Node pos="r" depth="3" NCoef="0" IVar="-1" Cut="0.0000000000000000e+00" cType="1" res="1.6227643936872482e-02" rms="9.4180889427661896e-02" purity="9.9041956663131714e-01" nType="-99"/>
          </Node>
        </Node>
      </Node>
    </BinaryTree>
    <BinaryTree type="DecisionTree" boostWeight="1.0000000000000000e+00" itree="647">
      <Node pos="s" depth="0" NCoef="0" IVar="9" Cut="9.3338847160339355e-01" cType="1" res="-1.9540197681635618e-03" rms="2.4046288430690765e-01" purity="5.0193089246749878e-01" nType="0">
        <Node pos="l" depth="1" NCoef="0" IVar="8" Cut="-1.1991877555847168e+00" cType="1" res="-3.9683436043560505e-03" rms="2.3601533472537994e-01" purity="5.2131652832031250e-01" nType="0">
          <Node pos="l" depth="2" NCoef="0" IVar="3" Cut="2.4273831176757812e+02" cType="1" res="5.1128561608493328e-03" rms="2.4589815735816956e-01" purity="3.0801543593406677e-01" nType="0">
            <Node pos="l" depth="3" NCoef="0" IVar="-1" Cut="0.0000000000000000e+00" cType="1" res="-2.6745053008198738e-02" rms="1.9570487737655640e-01" purity="8.0671049654483795e-02" nType="-99"/>
            <Node pos="r" depth="3" NCoef="0" IVar="-1" Cut="0.0000000000000000e+00" cType="1" res="1.9721612334251404e-02" rms="2.6817554235458374e-01" purity="4.2777034640312195e-01" nType="-99"/>
          </Node>
          <Node pos="r" depth="2" NCoef="0" IVar="0" Cut="2.4650922851562500e+03" cType="1" res="-5.2630384452641010e-03" rms="2.3454381525516510e-01" purity="5.5172657966613770e-01" nType="0">
            <Node pos="l" depth="3" NCoef="0" IVar="-1" Cut="0.0000000000000000e+00" cType="1" res="-1.1400230228900909e-02" rms="2.6796010136604309e-01" purity="3.0939528346061707e-01" nType="-99"/>
            <Node pos="r" depth="3" NCoef="0" IVar="-1" Cut="0.0000000000000000e+00" cType="1" res="9.1692397836595774e-04" rms="1.6445367038249969e-01" purity="9.5460969209671021e-01" nType="-99"/>
          </Node>
        </Node>
        <Node pos="r" depth="1" NCoef="0" IVar="6" Cut="-8.2286930084228516e-01" cType="1" res="6.1683314852416515e-03" rms="2.5745901465415955e-01" purity="4.2376217246055603e-01" nType="0">
          <Node pos="l" depth="2" NCoef="0" IVar="-1" Cut="0.0000000000000000e+00" cType="1" res="-1.5781024470925331e-02" rms="2.1872857213020325e-01" purity="1.8133839964866638e-01" nType="-99"/>
          <Node pos="r" depth="2" NCoef="0" IVar="7" Cut="6.6399008035659790e-01" cType="1" res="9.0499203652143478e-03" rms="2.6435253024101257e-01" purity="4.7170567512512207e-01" nType="0">
            <Node pos="l" depth="3" NCoef="0" IVar="-1" Cut="0.0000000000000000e+00" cType="1" res="2.0342387259006500e-02" rms="2.6453632116317749e-01" purity="5.2709305286407471e-01" nType="-99"/>
            <Node pos="r" depth="3" NCoef="0" IVar="-1" Cut="0.0000000000000000e+00" cType="1" res="-6.0214931145310402e-03" rms="2.6342961192131042e-01" purity="3.3249574899673462e-01" nType="-99"/>
          </Node>
        </Node>
      </Node>
    </BinaryTree>
    <BinaryTree type="DecisionTree" boostWeight="1.0000000000000000e+00" itree="648">
      <Node pos="s" depth="0" NCoef="0" IVar="1" Cut="6.3504330813884735e-02" cType="1" res="-1.9272837380412966e-04" rms="2.3925600945949554e-01" purity="5.0377357006072998e-01" nType="0">
        <Node pos="l" depth="1" NCoef="0" IVar="8" Cut="-1.3337919116020203e-01" cType="1" res="-4.3124365620315075e-03" rms="2.2993339598178864e-01" purity="2.5624191761016846e-01" nType="0">
          <Node pos="l" depth="2" NCoef="0" IVar="9" Cut="-1.4658794403076172e+00" cType="1" res="-1.1565347202122211e-02" rms="2.2696955502033234e-01" purity="2.3226445913314819e-01" nType="0">
            <Node pos="l" depth="3" NCoef="0" IVar="-1" Cut="0.0000000000000000e+00" cType="1" res="-6.6006846725940704e-02" rms="1.9277468323707581e-01" purity="8.3827123045921326e-02" nType="-99"/>
            <Node pos="r" depth="3" NCoef="0" IVar="-1" Cut="0.0000000000000000e+00" cType="1" res="-1.3547860085964203e-02" rms="2.3207113146781921e-01" purity="2.5746297836303711e-01" nType="-99"/>
          </Node>
          <Node pos="r" depth="2" NCoef="0" IVar="5" Cut="2.0782308959960938e+02" cType="1" res="1.6699731349945068e-03" rms="2.3217913508415222e-01" purity="2.7601924538612366e-01" nType="0">
            <Node pos="l" depth="3" NCoef="0" IVar="-1" Cut="0.0000000000000000e+00" cType="1" res="-3.2322108745574951e-03" rms="2.3112879693508148e-01" purity="1.8405851721763611e-01" nType="-99"/>
            <Node pos="r" depth="3" NCoef="0" IVar="-1" Cut="0.0000000000000000e+00" cType="1" res="3.1624525785446167e-02" rms="2.3738710582256317e-01" purity="8.3881914615631104e-01" nType="-99"/>
          </Node>
        </Node>
        <Node pos="r" depth="1" NCoef="0" IVar="0" Cut="1.8529396972656250e+03" cType="1" res="3.8498456124216318e-03" rms="2.4799720942974091e-01" purity="7.4667060375213623e-01" nType="0">
          <Node pos="l" depth="2" NCoef="0" IVar="5" Cut="1.2864759826660156e+02" cType="1" res="1.4894211664795876e-02" rms="3.2897496223449707e-01" purity="1.8531370162963867e-01" nType="0">
            <Node pos="l" depth="3" NCoef="0" IVar="-1" Cut="0.0000000000000000e+00" cType="1" res="-6.3366070389747620e-03" rms="2.6800820231437683e-01" purity="9.7996443510055542e-02" nType="-99"/>
            <Node pos="r" depth="3" NCoef="0" IVar="-1" Cut="0.0000000000000000e+00" cType="1" res="2.5076603516936302e-02" rms="3.7581819295883179e-01" purity="2.6614698767662048e-01" nType="-99"/>
          </Node>
          <Node pos="r" depth="2" NCoef="0" IVar="6" Cut="-1.4771352708339691e-01" cType="1" res="5.4580968571826816e-04" rms="2.1789416670799255e-01" purity="9.1460639238357544e-01" nType="0">
            <Node pos="l" depth="3" NCoef="0" IVar="-1" Cut="0.0000000000000000e+00" cType="1" res="1.0919794440269470e-02" rms="2.2391036152839661e-01" purity="9.1463410854339600e-01" nType="-99"/>
            <Node pos="r" depth="3" NCoef="0" IVar="-1" Cut="0.0000000000000000e+00" cType="1" res="-6.3928901217877865e-03" rms="2.1365483105182648e-01" purity="9.1458761692047119e-01" nType="-99"/>
          </Node>
        </Node>
      </Node>
    </BinaryTree>
    <BinaryTree type="DecisionTree" boostWeight="1.0000000000000000e+00" itree="649">
      <Node pos="s" depth="0" NCoef="0" IVar="6" Cut="-3.5449746251106262e-01" cType="1" res="6.7736639175564051e-04" rms="2.3885133862495422e-01" purity="4.9640148878097534e-01" nType="0">
        <Node pos="l" depth="1" NCoef="0" IVar="6" Cut="-1.0295794010162354e+00" cType="1" res="-7.3122777976095676e-03" rms="2.4022774398326874e-01" purity="4.1541558504104614e-01" nType="0">
          <Node pos="l" depth="2" NCoef="0" IVar="4" Cut="1.9415036010742188e+02" cType="1" res="3.5130407195538282e-03" rms="2.1354962885379791e-01" purity="1.8798187375068665e-01" nType="0">
            <Node pos="l" depth="3" NCoef="0" IVar="-1" Cut="0.0000000000000000e+00" cType="1" res="-1.9630357623100281e-02" rms="1.4971452951431274e-01" purity="3.6093316972255707e-02" nType="-99"/>
            <Node pos="r" depth="3" NCoef="0" IVar="-1" Cut="0.0000000000000000e+00" cType="1" res="1.9715992733836174e-02" rms="2.7428773045539856e-01" purity="3.8350501656532288e-01" nType="-99"/>
          </Node>
          <Node pos="r" depth="2" NCoef="0" IVar="1" Cut="1.1577174067497253e-01" cType="1" res="-1.3366417959332466e-02" rms="2.5372722744941711e-01" purity="5.4260957241058350e-01" nType="0">
            <Node pos="l" depth="3" NCoef="0" IVar="-1" Cut="0.0000000000000000e+00" cType="1" res="-2.5393472984433174e-02" rms="2.6870280504226685e-01" purity="4.1424810886383057e-01" nType="-99"/>
            <Node pos="r" depth="3" NCoef="0" IVar="-1" Cut="0.0000000000000000e+00" cType="1" res="-1.0889641707763076e-03" rms="2.1524372696876526e-01" purity="8.3482372760772705e-01" nType="-99"/>
          </Node>
        </Node>
        <Node pos="r" depth="1" NCoef="0" IVar="1" Cut="1.0622987151145935e-01" cType="1" res="4.6660033985972404e-03" rms="2.3806089162826538e-01" purity="5.3683179616928101e-01" nType="0">
          <Node pos="l" depth="2" NCoef="0" IVar="8" Cut="1.1994960308074951e+00" cType="1" res="8.1106908619403839e-03" rms="2.5036066770553589e-01" purity="3.8888221979141235e-01" nType="0">
            <Node pos="l" depth="3" NCoef="0" IVar="-1" Cut="0.0000000000000000e+00" cType="1" res="1.7724949866533279e-02" rms="2.5167915225028992e-01" purity="4.1250053048133850e-01" nType="-99"/>
            <Node pos="r" depth="3" NCoef="0" IVar="-1" Cut="0.0000000000000000e+00" cType="1" res="-1.4634369872510433e-02" rms="2.4120339751243591e-01" purity="2.4197606742382050e-01" nType="-99"/>
          </Node>
          <Node pos="r" depth="2" NCoef="0" IVar="1" Cut="1.7090879380702972e-01" cType="1" res="-1.8928342033177614e-03" rms="2.1252973377704620e-01" purity="8.1853419542312622e-01" nType="0">
            <Node pos="l" depth="3" NCoef="0" IVar="-1" Cut="0.0000000000000000e+00" cType="1" res="-1.6083102673292160e-02" rms="2.2320403158664703e-01" purity="7.7234768867492676e-01" nType="-99"/>
            <Node pos="r" depth="3" NCoef="0" IVar="-1" Cut="0.0000000000000000e+00" cType="1" res="2.0418351516127586e-02" rms="1.9610519707202911e-01" purity="8.8341176509857178e-01" nType="-99"/>
          </Node>
        </Node>
      </Node>
    </BinaryTree>
    <BinaryTree type="DecisionTree" boostWeight="1.0000000000000000e+00" itree="650">
      <Node pos="s" depth="0" NCoef="0" IVar="1" Cut="6.3701950013637543e-02" cType="1" res="6.6017697099596262e-04" rms="2.3749668896198273e-01" purity="5.0800341367721558e-01" nType="0">
        <Node pos="l" depth="1" NCoef="0" IVar="1" Cut="2.4280529469251633e-02" cType="1" res="-3.5149969626218081e-03" rms="2.2814141213893890e-01" purity="2.4850802123546600e-01" nType="0">
          <Node pos="l" depth="2" NCoef="0" IVar="9" Cut="-6.6326844692230225e-01" cType="1" res="2.4556391872465611e-03" rms="1.8187408149242401e-01" purity="1.1613226681947708e-01" nType="0">
            <Node pos="l" depth="3" NCoef="0" IVar="-1" Cut="0.0000000000000000e+00" cType="1" res="-1.7653537914156914e-02" rms="1.6728824377059937e-01" purity="9.2162311077117920e-02" nType="-99"/>
            <Node pos="r" depth="3" NCoef="0" IVar="-1" Cut="0.0000000000000000e+00" cType="1" res="1.6923142597079277e-02" rms="1.8809723854064941e-01" purity="1.2719063460826874e-01" nType="-99"/>
          </Node>
          <Node pos="r" depth="2" NCoef="0" IVar="1" Cut="2.9912633821368217e-02" cType="1" res="-8.1492811441421509e-03" rms="2.5830936431884766e-01" purity="3.5125535726547241e-01" nType="0">
            <Node pos="l" depth="3" NCoef="0" IVar="-1" Cut="0.0000000000000000e+00" cType="1" res="-4.1691828519105911e-02" rms="2.2664827108383179e-01" purity="2.1557845175266266e-01" nType="-99"/>
            <Node pos="r" depth="3" NCoef="0" IVar="-1" Cut="0.0000000000000000e+00" cType="1" res="-6.6659413278102875e-03" rms="2.6393043994903564e-01" purity="3.7778112292289734e-01" nType="-99"/>
          </Node>
        </Node>
        <Node pos="r" depth="1" NCoef="0" IVar="0" Cut="2.3776416015625000e+03" cType="1" res="4.6125589869916439e-03" rms="2.4595990777015686e-01" purity="7.5365179777145386e-01" nType="0">
          <Node pos="l" depth="2" NCoef="0" IVar="4" Cut="2.3562947082519531e+02" cType="1" res="1.0956150479614735e-02" rms="3.2304221391677856e-01" purity="5.1336252689361572e-01" nType="0">
            <Node pos="l" depth="3" NCoef="0" IVar="-1" Cut="0.0000000000000000e+00" cType="1" res="3.0476860702037811e-03" rms="3.2397997379302979e-01" purity="3.8151240348815918e-01" nType="-99"/>
            <Node pos="r" depth="3" NCoef="0" IVar="-1" Cut="0.0000000000000000e+00" cType="1" res="2.2479932755231857e-02" rms="3.2089859247207642e-01" purity="7.4956333637237549e-01" nType="-99"/>
          </Node>
          <Node pos="r" depth="2" NCoef="0" IVar="0" Cut="2.5755017089843750e+03" cType="1" res="-1.2378193205222487e-03" rms="1.4133313298225403e-01" purity="9.7525870800018311e-01" nType="0">
            <Node pos="l" depth="3" NCoef="0" IVar="-1" Cut="0.0000000000000000e+00" cType="1" res="-4.0134664624929428e-02" rms="2.1086975932121277e-01" purity="9.4042778015136719e-01" nType="-99"/>
            <Node pos="r" depth="3" NCoef="0" IVar="-1" Cut="0.0000000000000000e+00" cType="1" res="1.4850775711238384e-02" rms="1.1566498130559921e-01" purity="9.8455309867858887e-01" nType="-99"/>
          </Node>
        </Node>
      </Node>
    </BinaryTree>
    <BinaryTree type="DecisionTree" boostWeight="1.0000000000000000e+00" itree="651">
      <Node pos="s" depth="0" NCoef="0" IVar="9" Cut="-1.3305456936359406e-01" cType="1" res="-1.3337890850380063e-03" rms="2.3842065036296844e-01" purity="4.9553757905960083e-01" nType="0">
        <Node pos="l" depth="1" NCoef="0" IVar="5" Cut="1.6803842163085938e+02" cType="1" res="2.1700158249586821e-03" rms="2.3873955011367798e-01" purity="4.9016368389129639e-01" nType="0">
          <Node pos="l" depth="2" NCoef="0" IVar="1" Cut="5.4518073797225952e-02" cType="1" res="-2.4480153806507587e-03" rms="2.4578502774238586e-01" purity="2.2097556293010712e-01" nType="0">
            <Node pos="l" depth="3" NCoef="0" IVar="-1" Cut="0.0000000000000000e+00" cType="1" res="1.0100684128701687e-02" rms="1.9815258681774139e-01" purity="1.0379587858915329e-01" nType="-99"/>
            <Node pos="r" depth="3" NCoef="0" IVar="-1" Cut="0.0000000000000000e+00" cType="1" res="-1.3691994361579418e-02" rms="3.1023696064949036e-01" purity="4.2064449191093445e-01" nType="-99"/>
          </Node>
          <Node pos="r" depth="2" NCoef="0" IVar="5" Cut="1.9165287780761719e+02" cType="1" res="7.8617548570036888e-03" rms="2.2963118553161621e-01" purity="8.2193887233734131e-01" nType="0">
            <Node pos="l" depth="3" NCoef="0" IVar="-1" Cut="0.0000000000000000e+00" cType="1" res="3.5799641162157059e-02" rms="3.0815136432647705e-01" purity="6.4434736967086792e-01" nType="-99"/>
            <Node pos="r" depth="3" NCoef="0" IVar="-1" Cut="0.0000000000000000e+00" cType="1" res="1.8213867442682385e-03" rms="1.9920389354228973e-01" purity="8.7593042850494385e-01" nType="-99"/>
          </Node>
        </Node>
        <Node pos="r" depth="1" NCoef="0" IVar="2" Cut="4.2457714843750000e+02" cType="1" res="-4.4076382182538509e-03" rms="2.3809808492660522e-01" purity="5.0025206804275513e-01" nType="0">
          <Node pos="l" depth="2" NCoef="0" IVar="9" Cut="1.6822507381439209e+00" cType="1" res="-1.1366473510861397e-02" rms="2.5097739696502686e-01" purity="2.6682254672050476e-01" nType="0">
            <Node pos="l" depth="3" NCoef="0" IVar="-1" Cut="0.0000000000000000e+00" cType="1" res="-9.9541647359728813e-03" rms="2.5679117441177368e-01" purity="2.9615879058837891e-01" nType="-99"/>
            <Node pos="r" depth="3" NCoef="0" IVar="-1" Cut="0.0000000000000000e+00" cType="1" res="-5.5584844201803207e-02" rms="2.1635353565216064e-01" purity="1.1267542839050293e-01" nType="-99"/>
          </Node>
          <Node pos="r" depth="2" NCoef="0" IVar="6" Cut="1.0046285390853882e+00" cType="1" res="-1.1723501374945045e-03" rms="2.3179563879966736e-01" purity="6.0877770185470581e-01" nType="0">
            <Node pos="l" depth="3" NCoef="0" IVar="-1" Cut="0.0000000000000000e+00" cType="1" res="1.6629626043140888e-03" rms="2.3356211185455322e-01" purity="6.5107202529907227e-01" nType="-99"/>
            <Node pos="r" depth="3" NCoef="0" IVar="-1" Cut="0.0000000000000000e+00" cType="1" res="-3.6286234855651855e-02" rms="2.1508499979972839e-01" purity="2.4329987168312073e-01" nType="-99"/>
          </Node>
        </Node>
      </Node>
    </BinaryTree>
    <BinaryTree type="DecisionTree" boostWeight="1.0000000000000000e+00" itree="652">
      <Node pos="s" depth="0" NCoef="0" IVar="3" Cut="4.0941021728515625e+02" cType="1" res="2.3617940023541451e-03" rms="2.4377244710922241e-01" purity="5.0578922033309937e-01" nType="0">
        <Node pos="l" depth="1" NCoef="0" IVar="9" Cut="9.3451720476150513e-01" cType="1" res="5.0893719308078289e-03" rms="2.5146842002868652e-01" purity="3.8109678030014038e-01" nType="0">
          <Node pos="l" depth="2" NCoef="0" IVar="7" Cut="-1.3125173747539520e-01" cType="1" res="2.6810297276824713e-03" rms="2.4830894172191620e-01" purity="3.9463022351264954e-01" nType="0">
            <Node pos="l" depth="3" NCoef="0" IVar="-1" Cut="0.0000000000000000e+00" cType="1" res="-3.0274502933025360e-03" rms="2.5193855166435242e-01" purity="3.9039286971092224e-01" nType="-99"/>
            <Node pos="r" depth="3" NCoef="0" IVar="-1" Cut="0.0000000000000000e+00" cType="1" res="1.0388336144387722e-02" rms="2.4515381455421448e-01" purity="3.9818826317787170e-01" nType="-99"/>
          </Node>
          <Node pos="r" depth="2" NCoef="0" IVar="7" Cut="9.3149679899215698e-01" cType="1" res="1.4215422794222832e-02" rms="2.6289665699005127e-01" purity="3.2981401681900024e-01" nType="0">
            <Node pos="l" depth="3" NCoef="0" IVar="-1" Cut="0.0000000000000000e+00" cType="1" res="1.3235970400273800e-02" rms="2.5896972417831421e-01" purity="3.5394403338432312e-01" nType="-99"/>
            <Node pos="r" depth="3" NCoef="0" IVar="-1" Cut="0.0000000000000000e+00" cType="1" res="5.3417522460222244e-02" rms="2.7461060881614685e-01" purity="2.5085374712944031e-01" nType="-99"/>
          </Node>
        </Node>
        <Node pos="r" depth="1" NCoef="0" IVar="8" Cut="4.0460231900215149e-01" cType="1" res="-5.0273216329514980e-03" rms="2.2141613066196442e-01" purity="8.4358578920364380e-01" nType="0">
          <Node pos="l" depth="2" NCoef="0" IVar="7" Cut="1.2510210275650024e-01" cType="1" res="-5.2710657473653555e-04" rms="2.1115398406982422e-01" purity="8.5850769281387329e-01" nType="0">
            <Node pos="l" depth="3" NCoef="0" IVar="-1" Cut="0.0000000000000000e+00" cType="1" res="1.2272675521671772e-02" rms="2.0155136287212372e-01" purity="8.6954927444458008e-01" nType="-99"/>
            <Node pos="r" depth="3" NCoef="0" IVar="-1" Cut="0.0000000000000000e+00" cType="1" res="-2.0047439262270927e-02" rms="2.2441068291664124e-01" purity="8.4204941987991333e-01" nType="-99"/>
          </Node>
          <Node pos="r" depth="2" NCoef="0" IVar="8" Cut="8.6083400249481201e-01" cType="1" res="-1.5175784006714821e-02" rms="2.4266660213470459e-01" purity="8.0993533134460449e-01" nType="0">
            <Node pos="l" depth="3" NCoef="0" IVar="-1" Cut="0.0000000000000000e+00" cType="1" res="-5.4322104901075363e-02" rms="2.2249580919742584e-01" purity="8.6542487144470215e-01" nType="-99"/>
            <Node pos="r" depth="3" NCoef="0" IVar="-1" Cut="0.0000000000000000e+00" cType="1" res="-8.3654364570975304e-03" rms="2.6328825950622559e-01" purity="7.4721455574035645e-01" nType="-99"/>
          </Node>
        </Node>
      </Node>
    </BinaryTree>
    <BinaryTree type="DecisionTree" boostWeight="1.0000000000000000e+00" itree="653">
      <Node pos="s" depth="0" NCoef="0" IVar="2" Cut="3.1323751831054688e+02" cType="1" res="1.1331142159178853e-03" rms="2.4253958463668823e-01" purity="5.0388079881668091e-01" nType="0">
        <Node pos="l" depth="1" NCoef="0" IVar="0" Cut="1.4911525878906250e+03" cType="1" res="-1.3930006884038448e-02" rms="2.5700879096984863e-01" purity="1.7766240239143372e-01" nType="0">
          <Node pos="l" depth="2" NCoef="0" IVar="-1" Cut="0.0000000000000000e+00" cType="1" res="1.6741359606385231e-02" rms="1.9805079698562622e-01" purity="4.3612677603960037e-02" nType="-99"/>
          <Node pos="r" depth="2" NCoef="0" IVar="-1" Cut="0.0000000000000000e+00" cType="1" res="-2.6968674734234810e-02" rms="2.8615465760231018e-01" purity="2.5863948464393616e-01" nType="-99"/>
        </Node>
        <Node pos="r" depth="1" NCoef="0" IVar="9" Cut="-1.7325572967529297e+00" cType="1" res="2.4843341670930386e-03" rms="2.4115324020385742e-01" purity="5.3314381837844849e-01" nType="0">
          <Node pos="l" depth="2" NCoef="0" IVar="1" Cut="3.8205560296773911e-02" cType="1" res="1.7390731722116470e-02" rms="2.6012566685676575e-01" purity="2.7308502793312073e-01" nType="0">
            <Node pos="l" depth="3" NCoef="0" IVar="-1" Cut="0.0000000000000000e+00" cType="1" res="7.3887212201952934e-03" rms="1.6928479075431824e-01" purity="8.4572821855545044e-02" nType="-99"/>
            <Node pos="r" depth="3" NCoef="0" IVar="-1" Cut="0.0000000000000000e+00" cType="1" res="3.1814940273761749e-02" rms="3.2517567276954651e-01" purity="4.5911815762519836e-01" nType="-99"/>
          </Node>
          <Node pos="r" depth="2" NCoef="0" IVar="1" Cut="4.2287699878215790e-02" cType="1" res="1.5278308419510722e-03" rms="2.3985296487808228e-01" purity="5.4983109235763550e-01" nType="0">
            <Node pos="l" depth="3" NCoef="0" IVar="-1" Cut="0.0000000000000000e+00" cType="1" res="1.4156531542539597e-02" rms="2.2916650772094727e-01" purity="2.2052687406539917e-01" nType="-99"/>
            <Node pos="r" depth="3" NCoef="0" IVar="-1" Cut="0.0000000000000000e+00" cType="1" res="-2.6205747853964567e-03" rms="2.4529735743999481e-01" purity="7.2523427009582520e-01" nType="-99"/>
          </Node>
        </Node>
      </Node>
    </BinaryTree>
    <BinaryTree type="DecisionTree" boostWeight="1.0000000000000000e+00" itree="654">
      <Node pos="s" depth="0" NCoef="0" IVar="9" Cut="-1.9988764524459839e+00" cType="1" res="-6.1110587557777762e-04" rms="2.3798802495002747e-01" purity="5.0454938411712646e-01" nType="0">
        <Node pos="l" depth="1" NCoef="0" IVar="-1" Cut="0.0000000000000000e+00" cType="1" res="5.0176352262496948e-02" rms="2.7023288607597351e-01" purity="2.3556596040725708e-01" nType="-99"/>
        <Node pos="r" depth="1" NCoef="0" IVar="7" Cut="1.3522545993328094e-01" cType="1" res="-1.6704306472092867e-03" rms="2.3679320514202118e-01" purity="5.1327431201934814e-01" nType="0">
          <Node pos="l" depth="2" NCoef="0" IVar="0" Cut="2.3775549316406250e+03" cType="1" res="-6.6157691180706024e-03" rms="2.3670944571495056e-01" purity="5.2351832389831543e-01" nType="0">
            <Node pos="l" depth="3" NCoef="0" IVar="-1" Cut="0.0000000000000000e+00" cType="1" res="-1.6232481226325035e-02" rms="2.6821330189704895e-01" purity="2.5509396195411682e-01" nType="-99"/>
            <Node pos="r" depth="3" NCoef="0" IVar="-1" Cut="0.0000000000000000e+00" cType="1" res="6.7281853407621384e-03" rms="1.7580781877040863e-01" purity="9.4528973102569580e-01" nType="-99"/>
          </Node>
          <Node pos="r" depth="2" NCoef="0" IVar="7" Cut="1.1504476070404053e+00" cType="1" res="4.4743572361767292e-03" rms="2.3675334453582764e-01" purity="5.0054585933685303e-01" nType="0">
            <Node pos="l" depth="3" NCoef="0" IVar="-1" Cut="0.0000000000000000e+00" cType="1" res="1.3014804571866989e-02" rms="2.3930273950099945e-01" purity="6.0121876001358032e-01" nType="-99"/>
            <Node pos="r" depth="3" NCoef="0" IVar="-1" Cut="0.0000000000000000e+00" cType="1" res="-9.4448281452059746e-03" rms="2.2922825813293457e-01" purity="2.2059468924999237e-01" nType="-99"/>
          </Node>
        </Node>
      </Node>
    </BinaryTree>
    <BinaryTree type="DecisionTree" boostWeight="1.0000000000000000e+00" itree="655">
      <Node pos="s" depth="0" NCoef="0" IVar="9" Cut="-6.6615170240402222e-01" cType="1" res="-2.0167289767414331e-03" rms="2.4176089465618134e-01" purity="4.9574628472328186e-01" nType="0">
        <Node pos="l" depth="1" NCoef="0" IVar="8" Cut="-9.3149918317794800e-01" cType="1" res="-1.1382753960788250e-02" rms="2.5075224041938782e-01" purity="4.4601687788963318e-01" nType="0">
          <Node pos="l" depth="2" NCoef="0" IVar="0" Cut="1.8051600341796875e+03" cType="1" res="9.9820364266633987e-03" rms="2.5609576702117920e-01" purity="3.1488284468650818e-01" nType="0">
            <Node pos="l" depth="3" NCoef="0" IVar="-1" Cut="0.0000000000000000e+00" cType="1" res="7.2853349149227142e-02" rms="2.1299646794795990e-01" purity="7.5546868145465851e-02" nType="-99"/>
            <Node pos="r" depth="3" NCoef="0" IVar="-1" Cut="0.0000000000000000e+00" cType="1" res="-9.5530254766345024e-03" rms="2.9824131727218628e-01" purity="5.9939914941787720e-01" nType="-99"/>
          </Node>
          <Node pos="r" depth="2" NCoef="0" IVar="7" Cut="4.0209287405014038e-01" cType="1" res="-1.7317244783043861e-02" rms="2.4892245233058929e-01" purity="4.8244190216064453e-01" nType="0">
            <Node pos="l" depth="3" NCoef="0" IVar="-1" Cut="0.0000000000000000e+00" cType="1" res="-1.6188336536288261e-02" rms="2.4443888664245605e-01" purity="5.0902605056762695e-01" nType="-99"/>
            <Node pos="r" depth="3" NCoef="0" IVar="-1" Cut="0.0000000000000000e+00" cType="1" res="-4.9024328589439392e-02" rms="2.5787553191184998e-01" purity="4.2374038696289062e-01" nType="-99"/>
          </Node>
        </Node>
        <Node pos="r" depth="1" NCoef="0" IVar="1" Cut="4.1432101279497147e-02" cType="1" res="1.7426500562578440e-03" rms="2.3795275390148163e-01" purity="5.1570689678192139e-01" nType="0">
          <Node pos="l" depth="2" NCoef="0" IVar="1" Cut="1.7815480008721352e-02" cType="1" res="-4.0628672577440739e-03" rms="2.1706397831439972e-01" purity="1.8297514319419861e-01" nType="0">
            <Node pos="l" depth="3" NCoef="0" IVar="-1" Cut="0.0000000000000000e+00" cType="1" res="1.2021004222333431e-02" rms="1.7756912112236023e-01" purity="9.0039357542991638e-02" nType="-99"/>
            <Node pos="r" depth="3" NCoef="0" IVar="-1" Cut="0.0000000000000000e+00" cType="1" res="-1.6350712627172470e-02" rms="2.4414664506912231e-01" purity="2.5796964764595032e-01" nType="-99"/>
          </Node>
          <Node pos="r" depth="2" NCoef="0" IVar="3" Cut="2.1161708068847656e+02" cType="1" res="4.7441781498491764e-03" rms="2.4801038205623627e-01" purity="6.8773359060287476e-01" nType="0">
            <Node pos="l" depth="3" NCoef="0" IVar="-1" Cut="0.0000000000000000e+00" cType="1" res="4.3607808649539948e-02" rms="2.9633083939552307e-01" purity="2.0717702805995941e-01" nType="-99"/>
            <Node pos="r" depth="3" NCoef="0" IVar="-1" Cut="0.0000000000000000e+00" cType="1" res="3.1645603012293577e-03" rms="2.4258993566036224e-01" purity="7.3469704389572144e-01" nType="-99"/>
          </Node>
        </Node>
      </Node>
    </BinaryTree>
    <BinaryTree type="DecisionTree" boostWeight="1.0000000000000000e+00" itree="656">
      <Node pos="s" depth="0" NCoef="0" IVar="9" Cut="1.9995913505554199e+00" cType="1" res="-1.9166539423167706e-03" rms="2.4027219414710999e-01" purity="5.0358855724334717e-01" nType="0">
        <Node pos="l" depth="1" NCoef="0" IVar="7" Cut="-1.2006118297576904e+00" cType="1" res="-2.6650696527212858e-03" rms="2.3971581459045410e-01" purity="5.1449412107467651e-01" nType="0">
          <Node pos="l" depth="2" NCoef="0" IVar="8" Cut="6.6468948125839233e-01" cType="1" res="7.6177441515028477e-03" rms="2.3060911893844604e-01" purity="2.2568111121654510e-01" nType="0">
            <Node pos="l" depth="3" NCoef="0" IVar="-1" Cut="0.0000000000000000e+00" cType="1" res="1.4857631176710129e-03" rms="2.1424236893653870e-01" purity="2.3407943546772003e-01" nType="-99"/>
            <Node pos="r" depth="3" NCoef="0" IVar="-1" Cut="0.0000000000000000e+00" cType="1" res="4.4286999851465225e-02" rms="2.6800158619880676e-01" purity="2.0366165041923523e-01" nType="-99"/>
          </Node>
          <Node pos="r" depth="2" NCoef="0" IVar="4" Cut="2.8962075805664062e+02" cType="1" res="-3.8255690596997738e-03" rms="2.4069435894489288e-01" purity="5.4708904027938843e-01" nType="0">
            <Node pos="l" depth="3" NCoef="0" IVar="-1" Cut="0.0000000000000000e+00" cType="1" res="-9.2493267729878426e-03" rms="2.5832548737525940e-01" purity="3.8466221094131470e-01" nType="-99"/>
            <Node pos="r" depth="3" NCoef="0" IVar="-1" Cut="0.0000000000000000e+00" cType="1" res="5.6262528523802757e-03" rms="1.9375678896903992e-01" purity="9.2259711027145386e-01" nType="-99"/>
          </Node>
        </Node>
        <Node pos="r" depth="1" NCoef="0" IVar="-1" Cut="0.0000000000000000e+00" cType="1" res="3.1815495342016220e-02" rms="2.5483655929565430e-01" purity="1.8948377668857574e-01" nType="-99"/>
      </Node>
    </BinaryTree>
    <BinaryTree type="DecisionTree" boostWeight="1.0000000000000000e+00" itree="657">
      <Node pos="s" depth="0" NCoef="0" IVar="8" Cut="1.4666867256164551e+00" cType="1" res="4.8769067507237196e-04" rms="2.4139292538166046e-01" purity="4.9782961606979370e-01" nType="0">
        <Node pos="l" depth="1" NCoef="0" IVar="1" Cut="1.2682051956653595e-01" cType="1" res="-7.9383677802979946e-04" rms="2.4038514494895935e-01" purity="5.1924490928649902e-01" nType="0">
          <Node pos="l" depth="2" NCoef="0" IVar="9" Cut="-1.3255678117275238e-01" cType="1" res="-2.9346463270485401e-03" rms="2.4925348162651062e-01" purity="4.0451675653457642e-01" nType="0">
            <Node pos="l" depth="3" NCoef="0" IVar="-1" Cut="0.0000000000000000e+00" cType="1" res="2.0081689581274986e-03" rms="2.5010833144187927e-01" purity="4.0107586979866028e-01" nType="-99"/>
            <Node pos="r" depth="3" NCoef="0" IVar="-1" Cut="0.0000000000000000e+00" cType="1" res="-1.0438346303999424e-02" rms="2.4845631420612335e-01" purity="4.0748128294944763e-01" nType="-99"/>
          </Node>
          <Node pos="r" depth="2" NCoef="0" IVar="0" Cut="1.7811032714843750e+03" cType="1" res="5.5941841565072536e-03" rms="2.1159748733043671e-01" purity="8.6158531904220581e-01" nType="0">
            <Node pos="l" depth="3" NCoef="0" IVar="-1" Cut="0.0000000000000000e+00" cType="1" res="2.9593853279948235e-02" rms="3.5067951679229736e-01" purity="2.4154844880104065e-01" nType="-99"/>
            <Node pos="r" depth="3" NCoef="0" IVar="-1" Cut="0.0000000000000000e+00" cType="1" res="3.8840251509100199e-03" rms="1.8338133394718170e-01" purity="9.4881606101989746e-01" nType="-99"/>
          </Node>
        </Node>
        <Node pos="r" depth="1" NCoef="0" IVar="9" Cut="-3.9104756712913513e-01" cType="1" res="1.5792312100529671e-02" rms="2.5261643528938293e-01" purity="2.4207793176174164e-01" nType="0">
          <Node pos="l" depth="2" NCoef="0" IVar="-1" Cut="0.0000000000000000e+00" cType="1" res="5.4310824722051620e-02" rms="2.7822330594062805e-01" purity="2.6147451996803284e-01" nType="-99"/>
          <Node pos="r" depth="2" NCoef="0" IVar="9" Cut="6.7224800586700439e-01" cType="1" res="6.2400163151323795e-03" rms="2.3821340501308441e-01" purity="2.3238091170787811e-01" nType="0">
            <Node pos="l" depth="3" NCoef="0" IVar="-1" Cut="0.0000000000000000e+00" cType="1" res="-4.3384125456213951e-03" rms="2.3276636004447937e-01" purity="2.4359858036041260e-01" nType="-99"/>
            <Node pos="r" depth="3" NCoef="0" IVar="-1" Cut="0.0000000000000000e+00" cType="1" res="2.4007568135857582e-02" rms="2.4298378825187683e-01" purity="2.2174064815044403e-01" nType="-99"/>
          </Node>
        </Node>
      </Node>
    </BinaryTree>
    <BinaryTree type="DecisionTree" boostWeight="1.0000000000000000e+00" itree="658">
      <Node pos="s" depth="0" NCoef="0" IVar="9" Cut="-1.1994092464447021e+00" cType="1" res="-1.3244989095255733e-03" rms="2.3533962666988373e-01" purity="4.9309742450714111e-01" nType="0">
        <Node pos="l" depth="1" NCoef="0" IVar="5" Cut="1.7567337036132812e+02" cType="1" res="-9.5082288607954979e-03" rms="2.4345688521862030e-01" purity="3.5524111986160278e-01" nType="0">
          <Node pos="l" depth="2" NCoef="0" IVar="5" Cut="1.1705476379394531e+02" cType="1" res="-3.1222917605191469e-03" rms="2.4371074140071869e-01" purity="2.1997018158435822e-01" nType="0">
            <Node pos="l" depth="3" NCoef="0" IVar="-1" Cut="0.0000000000000000e+00" cType="1" res="1.3262329623103142e-02" rms="2.0470793545246124e-01" purity="1.1829498410224915e-01" nType="-99"/>
            <Node pos="r" depth="3" NCoef="0" IVar="-1" Cut="0.0000000000000000e+00" cType="1" res="-1.3647592626512051e-02" rms="2.7444285154342651e-01" purity="3.1344410777091980e-01" nType="-99"/>
          </Node>
          <Node pos="r" depth="2" NCoef="0" IVar="-1" Cut="0.0000000000000000e+00" cType="1" res="-3.3529531210660934e-02" rms="2.4216134846210480e-01" purity="6.7972338199615479e-01" nType="-99"/>
        </Node>
        <Node pos="r" depth="1" NCoef="0" IVar="9" Cut="-6.2815397977828979e-01" cType="1" res="1.4001237286720425e-04" rms="2.3382708430290222e-01" purity="5.1776736974716187e-01" nType="0">
          <Node pos="l" depth="2" NCoef="0" IVar="4" Cut="2.0543426513671875e+02" cType="1" res="1.0613868013024330e-02" rms="2.4211472272872925e-01" purity="5.4712790250778198e-01" nType="0">
            <Node pos="l" depth="3" NCoef="0" IVar="-1" Cut="0.0000000000000000e+00" cType="1" res="2.2201328538358212e-03" rms="2.4726463854312897e-01" purity="1.9033272564411163e-01" nType="-99"/>
            <Node pos="r" depth="3" NCoef="0" IVar="-1" Cut="0.0000000000000000e+00" cType="1" res="2.8151188045740128e-02" rms="2.3831266164779663e-01" purity="7.9143595695495605e-01" nType="-99"/>
          </Node>
          <Node pos="r" depth="2" NCoef="0" IVar="7" Cut="9.3334144353866577e-01" cType="1" res="-2.0260359160602093e-03" rms="2.3201723396778107e-01" purity="5.1169544458389282e-01" nType="0">
            <Node pos="l" depth="3" NCoef="0" IVar="-1" Cut="0.0000000000000000e+00" cType="1" res="-6.8556088954210281e-03" rms="2.3016966879367828e-01" purity="5.4937779903411865e-01" nType="-99"/>
            <Node pos="r" depth="3" NCoef="0" IVar="-1" Cut="0.0000000000000000e+00" cType="1" res="1.0810774751007557e-02" rms="2.4080173671245575e-01" purity="3.2421755790710449e-01" nType="-99"/>
          </Node>
        </Node>
      </Node>
    </BinaryTree>
    <BinaryTree type="DecisionTree" boostWeight="1.0000000000000000e+00" itree="659">
      <Node pos="s" depth="0" NCoef="0" IVar="2" Cut="5.4384326171875000e+02" cType="1" res="1.8549496307969093e-03" rms="2.3979714512825012e-01" purity="4.9820128083229065e-01" nType="0">
        <Node pos="l" depth="1" NCoef="0" IVar="4" Cut="3.2557864379882812e+02" cType="1" res="4.6578575856983662e-03" rms="2.4859490990638733e-01" purity="3.9390069246292114e-01" nType="0">
          <Node pos="l" depth="2" NCoef="0" IVar="3" Cut="3.8389871215820312e+02" cType="1" res="6.4396727830171585e-03" rms="2.5216475129127502e-01" purity="3.3905059099197388e-01" nType="0">
            <Node pos="l" depth="3" NCoef="0" IVar="-1" Cut="0.0000000000000000e+00" cType="1" res="7.3212250135838985e-03" rms="2.5405701994895935e-01" purity="3.0125951766967773e-01" nType="-99"/>
            <Node pos="r" depth="3" NCoef="0" IVar="-1" Cut="0.0000000000000000e+00" cType="1" res="2.7226541191339493e-02" rms="2.3519498109817505e-01" purity="6.5719771385192871e-01" nType="-99"/>
          </Node>
          <Node pos="r" depth="2" NCoef="0" IVar="-1" Cut="0.0000000000000000e+00" cType="1" res="-3.0245715752243996e-02" rms="2.1174430847167969e-01" purity="9.0503293275833130e-01" nType="-99"/>
        </Node>
        <Node pos="r" depth="1" NCoef="0" IVar="8" Cut="1.3427902758121490e-01" cType="1" res="-2.2412266116589308e-03" rms="2.2626337409019470e-01" purity="6.5062642097473145e-01" nType="0">
          <Node pos="l" depth="2" NCoef="0" IVar="1" Cut="1.1324694752693176e-01" cType="1" res="3.0820497777312994e-03" rms="2.2009436786174774e-01" purity="6.5446507930755615e-01" nType="0">
            <Node pos="l" depth="3" NCoef="0" IVar="-1" Cut="0.0000000000000000e+00" cType="1" res="1.2042969465255737e-02" rms="2.3860991001129150e-01" purity="5.5102407932281494e-01" nType="-99"/>
            <Node pos="r" depth="3" NCoef="0" IVar="-1" Cut="0.0000000000000000e+00" cType="1" res="-2.9111759737133980e-02" rms="1.6317597031593323e-01" purity="9.1798627376556396e-01" nType="-99"/>
          </Node>
          <Node pos="r" depth="2" NCoef="0" IVar="5" Cut="1.5651899719238281e+02" cType="1" res="-9.0411994606256485e-03" rms="2.3373085260391235e-01" purity="6.4572286605834961e-01" nType="0">
            <Node pos="l" depth="3" NCoef="0" IVar="-1" Cut="0.0000000000000000e+00" cType="1" res="-2.3708503693342209e-02" rms="2.6120570302009583e-01" purity="2.8473788499832153e-01" nType="-99"/>
            <Node pos="r" depth="3" NCoef="0" IVar="-1" Cut="0.0000000000000000e+00" cType="1" res="-6.7819603718817234e-03" rms="2.1297821402549744e-01" purity="8.8944178819656372e-01" nType="-99"/>
          </Node>
        </Node>
      </Node>
    </BinaryTree>
    <BinaryTree type="DecisionTree" boostWeight="1.0000000000000000e+00" itree="660">
      <Node pos="s" depth="0" NCoef="0" IVar="8" Cut="-6.6689014434814453e-01" cType="1" res="4.3616894981823862e-04" rms="2.3655839264392853e-01" purity="4.9691477417945862e-01" nType="0">
        <Node pos="l" depth="1" NCoef="0" IVar="9" Cut="1.3285721838474274e-01" cType="1" res="7.7353487722575665e-03" rms="2.4640890955924988e-01" purity="4.0829446911811829e-01" nType="0">
          <Node pos="l" depth="2" NCoef="0" IVar="0" Cut="1.8685041503906250e+03" cType="1" res="1.3832923024892807e-02" rms="2.5077411532402039e-01" purity="4.1407558321952820e-01" nType="0">
            <Node pos="l" depth="3" NCoef="0" IVar="-1" Cut="0.0000000000000000e+00" cType="1" res="8.5787400603294373e-03" rms="2.1088904142379761e-01" purity="6.6445253789424896e-02" nType="-99"/>
            <Node pos="r" depth="3" NCoef="0" IVar="-1" Cut="0.0000000000000000e+00" cType="1" res="2.7446854859590530e-02" rms="2.8456047177314758e-01" purity="7.5931918621063232e-01" nType="-99"/>
          </Node>
          <Node pos="r" depth="2" NCoef="0" IVar="9" Cut="5.1358664035797119e-01" cType="1" res="-1.4003878459334373e-03" rms="2.3942954838275909e-01" purity="3.9963290095329285e-01" nType="0">
            <Node pos="l" depth="3" NCoef="0" IVar="-1" Cut="0.0000000000000000e+00" cType="1" res="-3.1905099749565125e-02" rms="2.0936517417430878e-01" purity="4.4642508029937744e-01" nType="-99"/>
            <Node pos="r" depth="3" NCoef="0" IVar="-1" Cut="0.0000000000000000e+00" cType="1" res="7.9150879755616188e-03" rms="2.4989666044712067e-01" purity="3.8138434290885925e-01" nType="-99"/>
          </Node>
        </Node>
        <Node pos="r" depth="1" NCoef="0" IVar="3" Cut="2.0457571411132812e+02" cType="1" res="-2.1985059138387442e-03" rms="2.3284429311752319e-01" purity="5.2890264987945557e-01" nType="0">
          <Node pos="l" depth="2" NCoef="0" IVar="8" Cut="6.5342754125595093e-01" cType="1" res="-1.5396292321383953e-02" rms="1.8885427713394165e-01" purity="7.4208371341228485e-02" nType="0">
            <Node pos="l" depth="3" NCoef="0" IVar="-1" Cut="0.0000000000000000e+00" cType="1" res="-7.5950711034238338e-03" rms="1.9809538125991821e-01" purity="8.5509240627288818e-02" nType="-99"/>
            <Node pos="r" depth="3" NCoef="0" IVar="-1" Cut="0.0000000000000000e+00" cType="1" res="-5.9977374970912933e-02" rms="1.7722412943840027e-01" purity="6.1823897063732147e-02" nType="-99"/>
          </Node>
          <Node pos="r" depth="2" NCoef="0" IVar="2" Cut="3.2944842529296875e+02" cType="1" res="-5.4628844372928143e-04" rms="2.3772725462913513e-01" purity="5.8582544326782227e-01" nType="0">
            <Node pos="l" depth="3" NCoef="0" IVar="-1" Cut="0.0000000000000000e+00" cType="1" res="-2.4413367733359337e-02" rms="2.5063318014144897e-01" purity="2.3262858390808105e-01" nType="-99"/>
            <Node pos="r" depth="3" NCoef="0" IVar="-1" Cut="0.0000000000000000e+00" cType="1" res="2.0778987091034651e-03" rms="2.3628833889961243e-01" purity="6.2218040227890015e-01" nType="-99"/>
          </Node>
        </Node>
      </Node>
    </BinaryTree>
    <BinaryTree type="DecisionTree" boostWeight="1.0000000000000000e+00" itree="661">
      <Node pos="s" depth="0" NCoef="0" IVar="8" Cut="-1.7333199977874756e+00" cType="1" res="-3.8554047932848334e-04" rms="2.4272198975086212e-01" purity="4.9743300676345825e-01" nType="0">
        <Node pos="l" depth="1" NCoef="0" IVar="6" Cut="-2.7262346819043159e-02" cType="1" res="1.9380357116460800e-02" rms="2.4395403265953064e-01" purity="1.7154774069786072e-01" nType="0">
          <Node pos="l" depth="2" NCoef="0" IVar="-1" Cut="0.0000000000000000e+00" cType="1" res="5.8999285101890564e-02" rms="2.6453885436058044e-01" purity="2.3639468848705292e-01" nType="-99"/>
          <Node pos="r" depth="2" NCoef="0" IVar="-1" Cut="0.0000000000000000e+00" cType="1" res="1.0189858265221119e-02" rms="2.2209933400154114e-01" purity="1.1143493652343750e-01" nType="-99"/>
        </Node>
        <Node pos="r" depth="1" NCoef="0" IVar="4" Cut="1.4688244628906250e+02" cType="1" res="-1.4842310920357704e-03" rms="2.4260608851909637e-01" purity="5.1554739475250244e-01" nType="0">
          <Node pos="l" depth="2" NCoef="0" IVar="4" Cut="1.2078484344482422e+02" cType="1" res="6.8728486075997353e-03" rms="2.0581057667732239e-01" purity="7.3503591120243073e-02" nType="0">
            <Node pos="l" depth="3" NCoef="0" IVar="-1" Cut="0.0000000000000000e+00" cType="1" res="-8.7403114885091782e-03" rms="1.4496192336082458e-01" purity="3.5073071718215942e-02" nType="-99"/>
            <Node pos="r" depth="3" NCoef="0" IVar="-1" Cut="0.0000000000000000e+00" cType="1" res="3.2388500869274139e-02" rms="2.4669657647609711e-01" purity="1.0705827921628952e-01" nType="-99"/>
          </Node>
          <Node pos="r" depth="2" NCoef="0" IVar="6" Cut="-1.0413343906402588e+00" cType="1" res="-3.2002553343772888e-03" rms="2.4945628643035889e-01" purity="6.0631573200225830e-01" nType="0">
            <Node pos="l" depth="3" NCoef="0" IVar="-1" Cut="0.0000000000000000e+00" cType="1" res="-3.0819743871688843e-02" rms="2.4059848487377167e-01" purity="2.5816735625267029e-01" nType="-99"/>
            <Node pos="r" depth="3" NCoef="0" IVar="-1" Cut="0.0000000000000000e+00" cType="1" res="-2.2372894454747438e-03" rms="2.5030365586280823e-01" purity="6.4285993576049805e-01" nType="-99"/>
          </Node>
        </Node>
      </Node>
    </BinaryTree>
    <BinaryTree type="DecisionTree" boostWeight="1.0000000000000000e+00" itree="662">
      <Node pos="s" depth="0" NCoef="0" IVar="9" Cut="1.7330646514892578e+00" cType="1" res="-1.0674582154024392e-04" rms="2.4008558690547943e-01" purity="4.9900868535041809e-01" nType="0">
        <Node pos="l" depth="1" NCoef="0" IVar="2" Cut="8.0896228027343750e+02" cType="1" res="-9.5567281823605299e-04" rms="2.3800309002399445e-01" purity="5.1095134019851685e-01" nType="0">
          <Node pos="l" depth="2" NCoef="0" IVar="0" Cut="2.0076230468750000e+03" cType="1" res="5.8886234910460189e-05" rms="2.3512862622737885e-01" purity="4.8953458666801453e-01" nType="0">
            <Node pos="l" depth="3" NCoef="0" IVar="-1" Cut="0.0000000000000000e+00" cType="1" res="-5.7403240352869034e-03" rms="2.3998178541660309e-01" purity="1.1511662602424622e-01" nType="-99"/>
            <Node pos="r" depth="3" NCoef="0" IVar="-1" Cut="0.0000000000000000e+00" cType="1" res="7.2792181745171547e-03" rms="2.2974005341529846e-01" purity="8.9154654741287231e-01" nType="-99"/>
          </Node>
          <Node pos="r" depth="2" NCoef="0" IVar="4" Cut="2.7783819580078125e+02" cType="1" res="-1.2351334095001221e-02" rms="2.6791733503341675e-01" purity="7.5150698423385620e-01" nType="0">
            <Node pos="l" depth="3" NCoef="0" IVar="-1" Cut="0.0000000000000000e+00" cType="1" res="-2.2129943594336510e-02" rms="3.0846449732780457e-01" purity="5.6689751148223877e-01" nType="-99"/>
            <Node pos="r" depth="3" NCoef="0" IVar="-1" Cut="0.0000000000000000e+00" cType="1" res="-9.0429969131946564e-03" rms="2.2273077070713043e-01" purity="9.2550742626190186e-01" nType="-99"/>
          </Node>
        </Node>
        <Node pos="r" depth="1" NCoef="0" IVar="6" Cut="-6.7269233986735344e-03" cType="1" res="1.4721292071044445e-02" rms="2.7349400520324707e-01" purity="2.9040861129760742e-01" nType="0">
          <Node pos="l" depth="2" NCoef="0" IVar="-1" Cut="0.0000000000000000e+00" cType="1" res="4.4904161244630814e-02" rms="2.7974399924278259e-01" purity="3.1102335453033447e-01" nType="-99"/>
          <Node pos="r" depth="2" NCoef="0" IVar="-1" Cut="0.0000000000000000e+00" cType="1" res="1.4637699350714684e-03" rms="2.6701644062995911e-01" purity="2.7190282940864563e-01" nType="-99"/>
        </Node>
      </Node>
    </BinaryTree>
    <BinaryTree type="DecisionTree" boostWeight="1.0000000000000000e+00" itree="663">
      <Node pos="s" depth="0" NCoef="0" IVar="8" Cut="-1.4667003154754639e+00" cType="1" res="-3.0808937735855579e-03" rms="2.3688232898712158e-01" purity="5.0021207332611084e-01" nType="0">
        <Node pos="l" depth="1" NCoef="0" IVar="3" Cut="3.1249081420898438e+02" cType="1" res="-1.7692435532808304e-02" rms="2.2507235407829285e-01" purity="1.9870562851428986e-01" nType="0">
          <Node pos="l" depth="2" NCoef="0" IVar="7" Cut="-1.3870663940906525e-01" cType="1" res="-8.0779930576682091e-03" rms="1.9944670796394348e-01" purity="1.3169384002685547e-01" nType="0">
            <Node pos="l" depth="3" NCoef="0" IVar="-1" Cut="0.0000000000000000e+00" cType="1" res="-3.5057503730058670e-02" rms="1.8451084196567535e-01" purity="1.2582778930664062e-01" nType="-99"/>
            <Node pos="r" depth="3" NCoef="0" IVar="-1" Cut="0.0000000000000000e+00" cType="1" res="-1.0876775486394763e-03" rms="2.1330352127552032e-01" purity="1.3765910267829895e-01" nType="-99"/>
          </Node>
          <Node pos="r" depth="2" NCoef="0" IVar="-1" Cut="0.0000000000000000e+00" cType="1" res="-4.6536691486835480e-02" rms="2.6751717925071716e-01" purity="3.3083412051200867e-01" nType="-99"/>
        </Node>
        <Node pos="r" depth="1" NCoef="0" IVar="6" Cut="-3.5411328077316284e-01" cType="1" res="-1.8672969890758395e-03" rms="2.3779648542404175e-01" purity="5.2525436878204346e-01" nType="0">
          <Node pos="l" depth="2" NCoef="0" IVar="4" Cut="3.0599374389648438e+02" cType="1" res="4.3533626012504101e-03" rms="2.4496416747570038e-01" purity="4.5264849066734314e-01" nType="0">
            <Node pos="l" depth="3" NCoef="0" IVar="-1" Cut="0.0000000000000000e+00" cType="1" res="1.1646931990981102e-02" rms="2.5278535485267639e-01" purity="3.3240211009979248e-01" nType="-99"/>
            <Node pos="r" depth="3" NCoef="0" IVar="-1" Cut="0.0000000000000000e+00" cType="1" res="-1.6164066269993782e-02" rms="2.1416431665420532e-01" purity="8.8429015874862671e-01" nType="-99"/>
          </Node>
          <Node pos="r" depth="2" NCoef="0" IVar="5" Cut="1.6375856018066406e+02" cType="1" res="-4.9335500225424767e-03" rms="2.3412191867828369e-01" purity="5.6104284524917603e-01" nType="0">
            <Node pos="l" depth="3" NCoef="0" IVar="-1" Cut="0.0000000000000000e+00" cType="1" res="-1.6494346782565117e-02" rms="2.5037220120429993e-01" purity="2.5320935249328613e-01" nType="-99"/>
            <Node pos="r" depth="3" NCoef="0" IVar="-1" Cut="0.0000000000000000e+00" cType="1" res="2.6505491696298122e-03" rms="2.1786062419414520e-01" purity="8.4518879652023315e-01" nType="-99"/>
          </Node>
        </Node>
      </Node>
    </BinaryTree>
    <BinaryTree type="DecisionTree" boostWeight="1.0000000000000000e+00" itree="664">
      <Node pos="s" depth="0" NCoef="0" IVar="9" Cut="9.3333822488784790e-01" cType="1" res="4.7442261129617691e-03" rms="2.4142858386039734e-01" purity="5.0263392925262451e-01" nType="0">
        <Node pos="l" depth="1" NCoef="0" IVar="9" Cut="-1.9102033376693726e+00" cType="1" res="6.8358196876943111e-03" rms="2.4014694988727570e-01" purity="5.3002190589904785e-01" nType="0">
          <Node pos="l" depth="2" NCoef="0" IVar="-1" Cut="0.0000000000000000e+00" cType="1" res="4.5820422470569611e-02" rms="2.7833789587020874e-01" purity="2.6167151331901550e-01" nType="-99"/>
          <Node pos="r" depth="2" NCoef="0" IVar="5" Cut="1.2181958007812500e+02" cType="1" res="5.5477959103882313e-03" rms="2.3784454166889191e-01" purity="5.4449713230133057e-01" nType="0">
            <Node pos="l" depth="3" NCoef="0" IVar="-1" Cut="0.0000000000000000e+00" cType="1" res="-1.6198555240407586e-03" rms="2.1642228960990906e-01" purity="1.0962938517332077e-01" nType="-99"/>
            <Node pos="r" depth="3" NCoef="0" IVar="-1" Cut="0.0000000000000000e+00" cType="1" res="1.2200372293591499e-02" rms="2.4486340582370758e-01" purity="6.9674253463745117e-01" nType="-99"/>
          </Node>
        </Node>
        <Node pos="r" depth="1" NCoef="0" IVar="6" Cut="-9.7882524132728577e-03" cType="1" res="-3.3694442827254534e-03" rms="2.4616901576519012e-01" purity="3.9639097452163696e-01" nType="0">
          <Node pos="l" depth="2" NCoef="0" IVar="2" Cut="4.5031015014648438e+02" cType="1" res="6.1672744341194630e-03" rms="2.4885946512222290e-01" purity="4.0884044766426086e-01" nType="0">
            <Node pos="l" depth="3" NCoef="0" IVar="-1" Cut="0.0000000000000000e+00" cType="1" res="3.7133742123842239e-02" rms="2.6883229613304138e-01" purity="2.9272261261940002e-01" nType="-99"/>
            <Node pos="r" depth="3" NCoef="0" IVar="-1" Cut="0.0000000000000000e+00" cType="1" res="-1.1401955969631672e-02" rms="2.3315092921257019e-01" purity="4.8922023177146912e-01" nType="-99"/>
          </Node>
          <Node pos="r" depth="2" NCoef="0" IVar="5" Cut="1.6847875976562500e+02" cType="1" res="-1.1540410108864307e-02" rms="2.4354338645935059e-01" purity="3.8572436571121216e-01" nType="0">
            <Node pos="l" depth="3" NCoef="0" IVar="-1" Cut="0.0000000000000000e+00" cType="1" res="-9.1984408209100366e-04" rms="2.4780488014221191e-01" purity="2.2659611701965332e-01" nType="-99"/>
            <Node pos="r" depth="3" NCoef="0" IVar="-1" Cut="0.0000000000000000e+00" cType="1" res="-4.4930189847946167e-02" rms="2.3567253351211548e-01" purity="6.3562685251235962e-01" nType="-99"/>
          </Node>
        </Node>
      </Node>
    </BinaryTree>
    <BinaryTree type="DecisionTree" boostWeight="1.0000000000000000e+00" itree="665">
      <Node pos="s" depth="0" NCoef="0" IVar="9" Cut="1.3353021442890167e-01" cType="1" res="9.8924727353733033e-05" rms="2.4151183664798737e-01" purity="5.0458085536956787e-01" nType="0">
        <Node pos="l" depth="1" NCoef="0" IVar="0" Cut="2.5652807617187500e+03" cType="1" res="-6.1517530120909214e-03" rms="2.3897919058799744e-01" purity="5.1327663660049438e-01" nType="0">
          <Node pos="l" depth="2" NCoef="0" IVar="0" Cut="1.5664705810546875e+03" cType="1" res="-9.3280514702200890e-03" rms="2.6466226577758789e-01" purity="3.2393890619277954e-01" nType="0">
            <Node pos="l" depth="3" NCoef="0" IVar="-1" Cut="0.0000000000000000e+00" cType="1" res="-8.3898950833827257e-04" rms="1.4089344441890717e-01" purity="2.2290039807558060e-02" nType="-99"/>
            <Node pos="r" depth="3" NCoef="0" IVar="-1" Cut="0.0000000000000000e+00" cType="1" res="-1.3449913822114468e-02" rms="2.9817920923233032e-01" purity="4.3756800889968872e-01" nType="-99"/>
          </Node>
          <Node pos="r" depth="2" NCoef="0" IVar="0" Cut="2.7428969726562500e+03" cType="1" res="1.3167096767574549e-03" rms="1.6314780712127686e-01" purity="9.5846837759017944e-01" nType="0">
            <Node pos="l" depth="3" NCoef="0" IVar="-1" Cut="0.0000000000000000e+00" cType="1" res="2.4841111153364182e-02" rms="1.8847805261611938e-01" purity="9.4330137968063354e-01" nType="-99"/>
            <Node pos="r" depth="3" NCoef="0" IVar="-1" Cut="0.0000000000000000e+00" cType="1" res="-6.9231176748871803e-03" rms="1.5411193668842316e-01" purity="9.6328955888748169e-01" nType="-99"/>
          </Node>
        </Node>
        <Node pos="r" depth="1" NCoef="0" IVar="4" Cut="1.9655262756347656e+02" cType="1" res="7.6029272750020027e-03" rms="2.4430651962757111e-01" purity="4.9414137005805969e-01" nType="0">
          <Node pos="l" depth="2" NCoef="0" IVar="5" Cut="1.0637850189208984e+02" cType="1" res="1.4733349904417992e-02" rms="2.4612563848495483e-01" purity="1.6577152907848358e-01" nType="0">
            <Node pos="l" depth="3" NCoef="0" IVar="-1" Cut="0.0000000000000000e+00" cType="1" res="4.2459345422685146e-03" rms="1.8468464910984039e-01" purity="5.2812173962593079e-02" nType="-99"/>
            <Node pos="r" depth="3" NCoef="0" IVar="-1" Cut="0.0000000000000000e+00" cType="1" res="3.3955104649066925e-02" rms="2.7990210056304932e-01" purity="2.4246951937675476e-01" nType="-99"/>
          </Node>
          <Node pos="r" depth="2" NCoef="0" IVar="6" Cut="-5.5976021289825439e-01" cType="1" res="2.8804123867303133e-03" rms="2.4297903478145599e-01" purity="7.1162235736846924e-01" nType="0">
            <Node pos="l" depth="3" NCoef="0" IVar="-1" Cut="0.0000000000000000e+00" cType="1" res="3.0483959242701530e-02" rms="2.6240813732147217e-01" purity="5.9748309850692749e-01" nType="-99"/>
            <Node pos="r" depth="3" NCoef="0" IVar="-1" Cut="0.0000000000000000e+00" cType="1" res="-3.5470575094223022e-03" rms="2.3774951696395874e-01" purity="7.3936182260513306e-01" nType="-99"/>
          </Node>
        </Node>
      </Node>
    </BinaryTree>
    <BinaryTree type="DecisionTree" boostWeight="1.0000000000000000e+00" itree="666">
      <Node pos="s" depth="0" NCoef="0" IVar="3" Cut="2.7050549316406250e+02" cType="1" res="5.9895624872297049e-04" rms="2.4038325250148773e-01" purity="5.0296884775161743e-01" nType="0">
        <Node pos="l" depth="1" NCoef="0" IVar="4" Cut="2.1849504089355469e+02" cType="1" res="-4.6176603063941002e-03" rms="2.3941077291965485e-01" purity="1.8173348903656006e-01" nType="0">
          <Node pos="l" depth="2" NCoef="0" IVar="4" Cut="2.0285777282714844e+02" cType="1" res="-7.8716762363910675e-03" rms="2.2711743414402008e-01" purity="1.3341461122035980e-01" nType="0">
            <Node pos="l" depth="3" NCoef="0" IVar="-1" Cut="0.0000000000000000e+00" cType="1" res="-9.0185934677720070e-03" rms="2.1931447088718414e-01" purity="1.1445455253124237e-01" nType="-99"/>
            <Node pos="r" depth="3" NCoef="0" IVar="-1" Cut="0.0000000000000000e+00" cType="1" res="-3.8412764668464661e-02" rms="2.8128471970558167e-01" purity="2.8744304180145264e-01" nType="-99"/>
          </Node>
          <Node pos="r" depth="2" NCoef="0" IVar="-1" Cut="0.0000000000000000e+00" cType="1" res="1.7575755715370178e-02" rms="3.0568903684616089e-01" purity="4.9032220244407654e-01" nType="-99"/>
        </Node>
        <Node pos="r" depth="1" NCoef="0" IVar="8" Cut="1.4662170410156250e+00" cType="1" res="3.1917742453515530e-03" rms="2.4082311987876892e-01" purity="6.6263258457183838e-01" nType="0">
          <Node pos="l" depth="2" NCoef="0" IVar="8" Cut="1.0595948696136475e+00" cType="1" res="1.7468691803514957e-03" rms="2.3634979128837585e-01" purity="6.7650359869003296e-01" nType="0">
            <Node pos="l" depth="3" NCoef="0" IVar="-1" Cut="0.0000000000000000e+00" cType="1" res="6.1408540932461619e-04" rms="2.3326131701469421e-01" purity="6.7974430322647095e-01" nType="-99"/>
            <Node pos="r" depth="3" NCoef="0" IVar="-1" Cut="0.0000000000000000e+00" cType="1" res="2.7837403118610382e-02" rms="2.7289351820945740e-01" purity="6.3412088155746460e-01" nType="-99"/>
          </Node>
          <Node pos="r" depth="2" NCoef="0" IVar="-1" Cut="0.0000000000000000e+00" cType="1" res="3.4207269549369812e-02" rms="3.0916929244995117e-01" purity="4.1375151276588440e-01" nType="-99"/>
        </Node>
      </Node>
    </BinaryTree>
    <BinaryTree type="DecisionTree" boostWeight="1.0000000000000000e+00" itree="667">
      <Node pos="s" depth="0" NCoef="0" IVar="3" Cut="1.9554942321777344e+02" cType="1" res="-1.5652560978196561e-04" rms="2.3991505801677704e-01" purity="5.0256276130676270e-01" nType="0">
        <Node pos="l" depth="1" NCoef="0" IVar="0" Cut="1.5742561035156250e+03" cType="1" res="1.3657602481544018e-02" rms="2.0828817784786224e-01" purity="8.7787583470344543e-02" nType="0">
          <Node pos="l" depth="2" NCoef="0" IVar="6" Cut="-1.8336057662963867e-02" cType="1" res="-1.0468196123838425e-03" rms="1.4696647226810455e-01" purity="2.5691866874694824e-02" nType="0">
            <Node pos="l" depth="3" NCoef="0" IVar="-1" Cut="0.0000000000000000e+00" cType="1" res="2.8275404125452042e-02" rms="1.5756542980670929e-01" purity="3.0424829572439194e-02" nType="-99"/>
            <Node pos="r" depth="3" NCoef="0" IVar="-1" Cut="0.0000000000000000e+00" cType="1" res="-2.3984152823686600e-02" rms="1.3883705437183380e-01" purity="2.2373616695404053e-02" nType="-99"/>
          </Node>
          <Node pos="r" depth="2" NCoef="0" IVar="-1" Cut="0.0000000000000000e+00" cType="1" res="5.4318487644195557e-02" rms="2.7697813510894775e-01" purity="1.8528732657432556e-01" nType="-99"/>
        </Node>
        <Node pos="r" depth="1" NCoef="0" IVar="7" Cut="1.2000687122344971e+00" cType="1" res="-1.7311006085947156e-03" rms="2.4320925772190094e-01" purity="5.4984003305435181e-01" nType="0">
          <Node pos="l" depth="2" NCoef="0" IVar="6" Cut="-2.9696935415267944e-01" cType="1" res="-2.8502722852863371e-04" rms="2.4503377079963684e-01" purity="5.8566009998321533e-01" nType="0">
            <Node pos="l" depth="3" NCoef="0" IVar="-1" Cut="0.0000000000000000e+00" cType="1" res="-9.5990467816591263e-03" rms="2.5866350531578064e-01" purity="5.2878230810165405e-01" nType="-99"/>
            <Node pos="r" depth="3" NCoef="0" IVar="-1" Cut="0.0000000000000000e+00" cType="1" res="4.7111473977565765e-03" rms="2.3741361498832703e-01" purity="6.1588001251220703e-01" nType="-99"/>
          </Node>
          <Node pos="r" depth="2" NCoef="0" IVar="1" Cut="4.1541751474142075e-02" cType="1" res="-1.4622932299971581e-02" rms="2.2588564455509186e-01" purity="2.3050197958946228e-01" nType="0">
            <Node pos="l" depth="3" NCoef="0" IVar="-1" Cut="0.0000000000000000e+00" cType="1" res="-1.1602997779846191e-02" rms="1.9005852937698364e-01" purity="9.1688685119152069e-02" nType="-99"/>
            <Node pos="r" depth="3" NCoef="0" IVar="-1" Cut="0.0000000000000000e+00" cType="1" res="-3.2604787498712540e-02" rms="2.7141588926315308e-01" purity="4.4501608610153198e-01" nType="-99"/>
          </Node>
        </Node>
      </Node>
    </BinaryTree>
    <BinaryTree type="DecisionTree" boostWeight="1.0000000000000000e+00" itree="668">
      <Node pos="s" depth="0" NCoef="0" IVar="5" Cut="1.2127301025390625e+02" cType="1" res="-1.2156326556578279e-03" rms="2.4447819590568542e-01" purity="5.0348335504531860e-01" nType="0">
        <Node pos="l" depth="1" NCoef="0" IVar="0" Cut="2.0684125976562500e+03" cType="1" res="6.4975270070135593e-03" rms="2.2961920499801636e-01" purity="1.1527448892593384e-01" nType="0">
          <Node pos="l" depth="2" NCoef="0" IVar="6" Cut="-3.0283802747726440e-01" cType="1" res="3.7714585196226835e-03" rms="1.9600346684455872e-01" purity="5.5399339646100998e-02" nType="0">
            <Node pos="l" depth="3" NCoef="0" IVar="-1" Cut="0.0000000000000000e+00" cType="1" res="3.8986500352621078e-02" rms="2.0640803873538971e-01" purity="5.9418804943561554e-02" nType="-99"/>
            <Node pos="r" depth="3" NCoef="0" IVar="-1" Cut="0.0000000000000000e+00" cType="1" res="-5.2241510711610317e-03" rms="1.8905802071094513e-01" purity="5.2911218255758286e-02" nType="-99"/>
          </Node>
          <Node pos="r" depth="2" NCoef="0" IVar="-1" Cut="0.0000000000000000e+00" cType="1" res="1.8055440858006477e-02" rms="3.8600793480873108e-01" purity="5.1980894804000854e-01" nType="-99"/>
        </Node>
        <Node pos="r" depth="1" NCoef="0" IVar="8" Cut="-1.4660984277725220e+00" cType="1" res="-4.1513796895742416e-03" rms="2.4983917176723480e-01" purity="6.5124166011810303e-01" nType="0">
          <Node pos="l" depth="2" NCoef="0" IVar="-1" Cut="0.0000000000000000e+00" cType="1" res="-3.1335908919572830e-02" rms="2.6694381237030029e-01" purity="3.0282577872276306e-01" nType="-99"/>
          <Node pos="r" depth="2" NCoef="0" IVar="8" Cut="1.3775073289871216e+00" cType="1" res="-2.8038867749273777e-03" rms="2.4859607219696045e-01" purity="6.7452132701873779e-01" nType="0">
            <Node pos="l" depth="3" NCoef="0" IVar="-1" Cut="0.0000000000000000e+00" cType="1" res="-2.3011686280369759e-03" rms="2.4716357886791229e-01" purity="7.0040225982666016e-01" nType="-99"/>
            <Node pos="r" depth="3" NCoef="0" IVar="-1" Cut="0.0000000000000000e+00" cType="1" res="-2.4354653432965279e-02" rms="2.6518127322196960e-01" purity="3.5300853848457336e-01" nType="-99"/>
          </Node>
        </Node>
      </Node>
    </BinaryTree>
    <BinaryTree type="DecisionTree" boostWeight="1.0000000000000000e+00" itree="669">
      <Node pos="s" depth="0" NCoef="0" IVar="6" Cut="-8.7921816110610962e-01" cType="1" res="-3.4072497510351241e-04" rms="2.4072383344173431e-01" purity="4.9821430444717407e-01" nType="0">
        <Node pos="l" depth="1" NCoef="0" IVar="8" Cut="-4.0014821290969849e-01" cType="1" res="5.9034926816821098e-03" rms="2.3034387826919556e-01" purity="2.5812286138534546e-01" nType="0">
          <Node pos="l" depth="2" NCoef="0" IVar="0" Cut="1.7234534912109375e+03" cType="1" res="2.4582546204328537e-02" rms="2.5209236145019531e-01" purity="2.6675203442573547e-01" nType="0">
            <Node pos="l" depth="3" NCoef="0" IVar="-1" Cut="0.0000000000000000e+00" cType="1" res="3.9752177894115448e-02" rms="1.6448086500167847e-01" purity="3.2226227223873138e-02" nType="-99"/>
            <Node pos="r" depth="3" NCoef="0" IVar="-1" Cut="0.0000000000000000e+00" cType="1" res="4.3187029659748077e-02" rms="3.2240292429924011e-01" purity="5.3051954507827759e-01" nType="-99"/>
          </Node>
          <Node pos="r" depth="2" NCoef="0" IVar="2" Cut="4.1102435302734375e+02" cType="1" res="-5.6014377623796463e-03" rms="2.1505482494831085e-01" purity="2.5280791521072388e-01" nType="0">
            <Node pos="l" depth="3" NCoef="0" IVar="-1" Cut="0.0000000000000000e+00" cType="1" res="8.5526956245303154e-03" rms="2.2323781251907349e-01" purity="1.8761762976646423e-01" nType="-99"/>
            <Node pos="r" depth="3" NCoef="0" IVar="-1" Cut="0.0000000000000000e+00" cType="1" res="-2.1839285269379616e-02" rms="2.0970721542835236e-01" purity="2.9231190681457520e-01" nType="-99"/>
          </Node>
        </Node>
        <Node pos="r" depth="1" NCoef="0" IVar="6" Cut="-5.2898216247558594e-01" cType="1" res="-1.4532440109178424e-03" rms="2.4250972270965576e-01" purity="5.4099088907241821e-01" nType="0">
          <Node pos="l" depth="2" NCoef="0" IVar="8" Cut="4.0401858091354370e-01" cType="1" res="-1.1904140934348106e-02" rms="2.6629239320755005e-01" purity="5.3639507293701172e-01" nType="0">
            <Node pos="l" depth="3" NCoef="0" IVar="-1" Cut="0.0000000000000000e+00" cType="1" res="-1.4461476821452379e-03" rms="2.5728765130043030e-01" purity="5.6784898042678833e-01" nType="-99"/>
            <Node pos="r" depth="3" NCoef="0" IVar="-1" Cut="0.0000000000000000e+00" cType="1" res="-4.5461338013410568e-02" rms="2.8247341513633728e-01" purity="4.7221788763999939e-01" nType="-99"/>
          </Node>
          <Node pos="r" depth="2" NCoef="0" IVar="8" Cut="-9.3354326486587524e-01" cType="1" res="1.4418810314964503e-04" rms="2.3862546682357788e-01" purity="5.4169338941574097e-01" nType="0">
            <Node pos="l" depth="3" NCoef="0" IVar="-1" Cut="0.0000000000000000e+00" cType="1" res="-1.3655570335686207e-02" rms="2.4365180730819702e-01" purity="3.6086130142211914e-01" nType="-99"/>
            <Node pos="r" depth="3" NCoef="0" IVar="-1" Cut="0.0000000000000000e+00" cType="1" res="3.5743932239711285e-03" rms="2.3747327923774719e-01" purity="5.8106476068496704e-01" nType="-99"/>
          </Node>
        </Node>
      </Node>
    </BinaryTree>
    <BinaryTree type="DecisionTree" boostWeight="1.0000000000000000e+00" itree="670">
      <Node pos="s" depth="0" NCoef="0" IVar="8" Cut="6.6709131002426147e-01" cType="1" res="-2.6127600576728582e-03" rms="2.3820370435714722e-01" purity="5.0053626298904419e-01" nType="0">
        <Node pos="l" depth="1" NCoef="0" IVar="2" Cut="4.1422293090820312e+02" cType="1" res="-3.5587849561125040e-04" rms="2.3547674715518951e-01" purity="5.3173691034317017e-01" nType="0">
          <Node pos="l" depth="2" NCoef="0" IVar="4" Cut="1.7193414306640625e+02" cType="1" res="8.1559484824538231e-03" rms="2.6479980349540710e-01" purity="3.1063964962959290e-01" nType="0">
            <Node pos="l" depth="3" NCoef="0" IVar="-1" Cut="0.0000000000000000e+00" cType="1" res="-1.4063666574656963e-02" rms="2.0188279449939728e-01" purity="6.8133488297462463e-02" nType="-99"/>
            <Node pos="r" depth="3" NCoef="0" IVar="-1" Cut="0.0000000000000000e+00" cType="1" res="1.8406970426440239e-02" rms="2.8837680816650391e-01" purity="4.1951352357864380e-01" nType="-99"/>
          </Node>
          <Node pos="r" depth="2" NCoef="0" IVar="1" Cut="4.1355650871992111e-02" cType="1" res="-3.5703531466424465e-03" rms="2.2331959009170532e-01" purity="6.1523383855819702e-01" nType="0">
            <Node pos="l" depth="3" NCoef="0" IVar="-1" Cut="0.0000000000000000e+00" cType="1" res="-2.0403148606419563e-02" rms="2.2355544567108154e-01" purity="2.3230350017547607e-01" nType="-99"/>
            <Node pos="r" depth="3" NCoef="0" IVar="-1" Cut="0.0000000000000000e+00" cType="1" res="3.4839939326047897e-04" rms="2.2310703992843628e-01" purity="8.0538034439086914e-01" nType="-99"/>
          </Node>
        </Node>
        <Node pos="r" depth="1" NCoef="0" IVar="9" Cut="1.3500787317752838e-01" cType="1" res="-9.3097761273384094e-03" rms="2.4599598348140717e-01" purity="4.0795215964317322e-01" nType="0">
          <Node pos="l" depth="2" NCoef="0" IVar="8" Cut="9.7099578380584717e-01" cType="1" res="5.3091411245986819e-04" rms="2.5395843386650085e-01" purity="4.5189800858497620e-01" nType="0">
            <Node pos="l" depth="3" NCoef="0" IVar="-1" Cut="0.0000000000000000e+00" cType="1" res="1.7728542909026146e-02" rms="2.5114530324935913e-01" purity="5.9376072883605957e-01" nType="-99"/>
            <Node pos="r" depth="3" NCoef="0" IVar="-1" Cut="0.0000000000000000e+00" cType="1" res="-8.7786726653575897e-03" rms="2.5523734092712402e-01" purity="3.7588512897491455e-01" nType="-99"/>
          </Node>
          <Node pos="r" depth="2" NCoef="0" IVar="8" Cut="9.7174102067947388e-01" cType="1" res="-1.9387438893318176e-02" rms="2.3714250326156616e-01" purity="3.6294806003570557e-01" nType="0">
            <Node pos="l" depth="3" NCoef="0" IVar="-1" Cut="0.0000000000000000e+00" cType="1" res="-5.4574601352214813e-02" rms="2.3174649477005005e-01" purity="4.5321112871170044e-01" nType="-99"/>
            <Node pos="r" depth="3" NCoef="0" IVar="-1" Cut="0.0000000000000000e+00" cType="1" res="-1.9811557605862617e-02" rms="2.3932740092277527e-01" purity="3.2078775763511658e-01" nType="-99"/>
          </Node>
        </Node>
      </Node>
    </BinaryTree>
    <BinaryTree type="DecisionTree" boostWeight="1.0000000000000000e+00" itree="671">
      <Node pos="s" depth="0" NCoef="0" IVar="1" Cut="1.0335718840360641e-01" cType="1" res="-4.3296796502545476e-04" rms="2.3613949120044708e-01" purity="4.9721643328666687e-01" nType="0">
        <Node pos="l" depth="1" NCoef="0" IVar="7" Cut="9.3408685922622681e-01" cType="1" res="1.8572681583464146e-03" rms="2.4265334010124207e-01" purity="3.5286140441894531e-01" nType="0">
          <Node pos="l" depth="2" NCoef="0" IVar="8" Cut="1.1996176242828369e+00" cType="1" res="3.6168252117931843e-03" rms="2.4695979058742523e-01" purity="3.9096111059188843e-01" nType="0">
            <Node pos="l" depth="3" NCoef="0" IVar="-1" Cut="0.0000000000000000e+00" cType="1" res="3.2623871229588985e-03" rms="2.4644826352596283e-01" purity="4.1169676184654236e-01" nType="-99"/>
            <Node pos="r" depth="3" NCoef="0" IVar="-1" Cut="0.0000000000000000e+00" cType="1" res="2.0615886896848679e-02" rms="2.4999475479125977e-01" purity="2.5748059153556824e-01" nType="-99"/>
          </Node>
          <Node pos="r" depth="2" NCoef="0" IVar="9" Cut="-9.3479412794113159e-01" cType="1" res="-4.9673686735332012e-03" rms="2.2504231333732605e-01" purity="2.0508739352226257e-01" nType="0">
            <Node pos="l" depth="3" NCoef="0" IVar="-1" Cut="0.0000000000000000e+00" cType="1" res="-4.4094257056713104e-02" rms="2.2477486729621887e-01" purity="1.8408618867397308e-01" nType="-99"/>
            <Node pos="r" depth="3" NCoef="0" IVar="-1" Cut="0.0000000000000000e+00" cType="1" res="-5.5758323287591338e-04" rms="2.2486156225204468e-01" purity="2.1019795536994934e-01" nType="-99"/>
          </Node>
        </Node>
        <Node pos="r" depth="1" NCoef="0" IVar="9" Cut="1.1904917955398560e+00" cType="1" res="-5.2553485147655010e-03" rms="2.2172179818153381e-01" purity="8.0117410421371460e-01" nType="0">
          <Node pos="l" depth="2" NCoef="0" IVar="4" Cut="1.9954753112792969e+02" cType="1" res="-3.0201100744307041e-03" rms="2.1585097908973694e-01" purity="8.1328272819519043e-01" nType="0">
            <Node pos="l" depth="3" NCoef="0" IVar="-1" Cut="0.0000000000000000e+00" cType="1" res="1.2040502391755581e-02" rms="3.0570322275161743e-01" purity="4.2171871662139893e-01" nType="-99"/>
            <Node pos="r" depth="3" NCoef="0" IVar="-1" Cut="0.0000000000000000e+00" cType="1" res="-1.4822422526776791e-02" rms="1.9337691366672516e-01" purity="8.8970458507537842e-01" nType="-99"/>
          </Node>
          <Node pos="r" depth="2" NCoef="0" IVar="-1" Cut="0.0000000000000000e+00" cType="1" res="-3.3655315637588501e-02" rms="2.6288124918937683e-01" purity="7.0550167560577393e-01" nType="-99"/>
        </Node>
      </Node>
    </BinaryTree>
    <BinaryTree type="DecisionTree" boostWeight="1.0000000000000000e+00" itree="672">
      <Node pos="s" depth="0" NCoef="0" IVar="6" Cut="-3.0244985222816467e-01" cType="1" res="5.4809800349175930e-04" rms="2.4116837978363037e-01" purity="5.0134098529815674e-01" nType="0">
        <Node pos="l" depth="1" NCoef="0" IVar="8" Cut="9.3181115388870239e-01" cType="1" res="-4.5318310149013996e-03" rms="2.4350029230117798e-01" purity="4.3120944499969482e-01" nType="0">
          <Node pos="l" depth="2" NCoef="0" IVar="8" Cut="5.7627290487289429e-01" cType="1" res="-1.1806663824245334e-03" rms="2.4576018750667572e-01" purity="4.7494307160377502e-01" nType="0">
            <Node pos="l" depth="3" NCoef="0" IVar="-1" Cut="0.0000000000000000e+00" cType="1" res="-5.5940807797014713e-03" rms="2.4322651326656342e-01" purity="4.7179582715034485e-01" nType="-99"/>
            <Node pos="r" depth="3" NCoef="0" IVar="-1" Cut="0.0000000000000000e+00" cType="1" res="2.3815572261810303e-02" rms="2.6424849033355713e-01" purity="4.9971625208854675e-01" nType="-99"/>
          </Node>
          <Node pos="r" depth="2" NCoef="0" IVar="0" Cut="1.7867749023437500e+03" cType="1" res="-1.9442193210124969e-02" rms="2.3259538412094116e-01" purity="2.3662509024143219e-01" nType="0">
            <Node pos="l" depth="3" NCoef="0" IVar="-1" Cut="0.0000000000000000e+00" cType="1" res="-2.4833090603351593e-02" rms="1.4486461877822876e-01" purity="2.7386823669075966e-02" nType="-99"/>
            <Node pos="r" depth="3" NCoef="0" IVar="-1" Cut="0.0000000000000000e+00" cType="1" res="-3.6382898688316345e-02" rms="3.1048411130905151e-01" purity="5.0671023130416870e-01" nType="-99"/>
          </Node>
        </Node>
        <Node pos="r" depth="1" NCoef="0" IVar="4" Cut="3.8467437744140625e+02" cType="1" res="3.2845467794686556e-03" rms="2.3985825479030609e-01" purity="5.3911936283111572e-01" nType="0">
          <Node pos="l" depth="2" NCoef="0" IVar="8" Cut="3.9974638819694519e-01" cType="1" res="4.6805534511804581e-03" rms="2.4554069340229034e-01" purity="4.9446135759353638e-01" nType="0">
            <Node pos="l" depth="3" NCoef="0" IVar="-1" Cut="0.0000000000000000e+00" cType="1" res="1.1163353919982910e-03" rms="2.3974230885505676e-01" purity="5.0238686800003052e-01" nType="-99"/>
            <Node pos="r" depth="3" NCoef="0" IVar="-1" Cut="0.0000000000000000e+00" cType="1" res="1.7700241878628731e-02" rms="2.5541996955871582e-01" purity="4.8029622435569763e-01" nType="-99"/>
          </Node>
          <Node pos="r" depth="2" NCoef="0" IVar="-1" Cut="0.0000000000000000e+00" cType="1" res="-3.7152819335460663e-02" rms="1.7906622588634491e-01" purity="9.4851171970367432e-01" nType="-99"/>
        </Node>
      </Node>
    </BinaryTree>
    <BinaryTree type="DecisionTree" boostWeight="1.0000000000000000e+00" itree="673">
      <Node pos="s" depth="0" NCoef="0" IVar="7" Cut="1.3416051864624023e-01" cType="1" res="1.6987647395581007e-03" rms="2.4048957228660583e-01" purity="5.0125968456268311e-01" nType="0">
        <Node pos="l" depth="1" NCoef="0" IVar="9" Cut="-1.7327885627746582e+00" cType="1" res="-2.7394315693527460e-03" rms="2.3869349062442780e-01" purity="5.1042926311492920e-01" nType="0">
          <Node pos="l" depth="2" NCoef="0" IVar="-1" Cut="0.0000000000000000e+00" cType="1" res="-4.5585744082927704e-02" rms="2.5799545645713806e-01" purity="2.2587171196937561e-01" nType="-99"/>
          <Node pos="r" depth="2" NCoef="0" IVar="8" Cut="-1.3344016671180725e-01" cType="1" res="-3.9712243597023189e-04" rms="2.3706668615341187e-01" purity="5.3098452091217041e-01" nType="0">
            <Node pos="l" depth="3" NCoef="0" IVar="-1" Cut="0.0000000000000000e+00" cType="1" res="-1.0833961889147758e-02" rms="2.3441213369369507e-01" purity="5.0794124603271484e-01" nType="-99"/>
            <Node pos="r" depth="3" NCoef="0" IVar="-1" Cut="0.0000000000000000e+00" cType="1" res="8.3762872964143753e-03" rms="2.3925730586051941e-01" purity="5.5133587121963501e-01" nType="-99"/>
          </Node>
        </Node>
        <Node pos="r" depth="1" NCoef="0" IVar="7" Cut="1.5305882692337036e+00" cType="1" res="7.4218031950294971e-03" rms="2.4266621470451355e-01" purity="4.8943561315536499e-01" nType="0">
          <Node pos="l" depth="2" NCoef="0" IVar="5" Cut="1.5645040893554688e+02" cType="1" res="9.4179185107350349e-03" rms="2.5102421641349792e-01" purity="5.5155342817306519e-01" nType="0">
            <Node pos="l" depth="3" NCoef="0" IVar="-1" Cut="0.0000000000000000e+00" cType="1" res="1.9946169108152390e-02" rms="2.6930102705955505e-01" purity="2.4747058749198914e-01" nType="-99"/>
            <Node pos="r" depth="3" NCoef="0" IVar="-1" Cut="0.0000000000000000e+00" cType="1" res="8.8438913226127625e-03" rms="2.3514890670776367e-01" purity="7.9712677001953125e-01" nType="-99"/>
          </Node>
          <Node pos="r" depth="2" NCoef="0" IVar="1" Cut="2.1884208545088768e-02" cType="1" res="-5.0459816120564938e-03" rms="1.8147666752338409e-01" purity="1.0144614428281784e-01" nType="0">
            <Node pos="l" depth="3" NCoef="0" IVar="-1" Cut="0.0000000000000000e+00" cType="1" res="-8.8730454444885254e-02" rms="9.3986637890338898e-02" purity="1.0170020163059235e-02" nType="-99"/>
            <Node pos="r" depth="3" NCoef="0" IVar="-1" Cut="0.0000000000000000e+00" cType="1" res="8.9569250121712685e-03" rms="2.2901958227157593e-01" purity="1.7620661854743958e-01" nType="-99"/>
          </Node>
        </Node>
      </Node>
    </BinaryTree>
    <BinaryTree type="DecisionTree" boostWeight="1.0000000000000000e+00" itree="674">
      <Node pos="s" depth="0" NCoef="0" IVar="9" Cut="-1.1993846893310547e+00" cType="1" res="1.3263769214972854e-03" rms="2.4204985797405243e-01" purity="5.0746303796768188e-01" nType="0">
        <Node pos="l" depth="1" NCoef="0" IVar="2" Cut="4.8213522338867188e+02" cType="1" res="1.1350690387189388e-02" rms="2.6641157269477844e-01" purity="3.8726344704627991e-01" nType="0">
          <Node pos="l" depth="2" NCoef="0" IVar="2" Cut="3.6162319946289062e+02" cType="1" res="2.6760865002870560e-02" rms="2.7891698479652405e-01" purity="3.0052214860916138e-01" nType="0">
            <Node pos="l" depth="3" NCoef="0" IVar="-1" Cut="0.0000000000000000e+00" cType="1" res="6.2497269362211227e-02" rms="3.1079822778701782e-01" purity="2.5374504923820496e-01" nType="-99"/>
            <Node pos="r" depth="3" NCoef="0" IVar="-1" Cut="0.0000000000000000e+00" cType="1" res="2.1317999809980392e-02" rms="2.5404855608940125e-01" purity="3.3266672492027283e-01" nType="-99"/>
          </Node>
          <Node pos="r" depth="2" NCoef="0" IVar="4" Cut="1.9659375000000000e+02" cType="1" res="-3.5332583356648684e-03" rms="2.5285872817039490e-01" purity="4.7104269266128540e-01" nType="0">
            <Node pos="l" depth="3" NCoef="0" IVar="-1" Cut="0.0000000000000000e+00" cType="1" res="-3.0456975102424622e-02" rms="2.3761181533336639e-01" purity="1.6767257452011108e-01" nType="-99"/>
            <Node pos="r" depth="3" NCoef="0" IVar="-1" Cut="0.0000000000000000e+00" cType="1" res="1.0461838915944099e-02" rms="2.6306992769241333e-01" purity="6.9813567399978638e-01" nType="-99"/>
          </Node>
        </Node>
        <Node pos="r" depth="1" NCoef="0" IVar="9" Cut="-8.1851768493652344e-01" cType="1" res="-3.5592011408880353e-04" rms="2.3767547309398651e-01" purity="5.2763509750366211e-01" nType="0">
          <Node pos="l" depth="2" NCoef="0" IVar="4" Cut="2.4703031921386719e+02" cType="1" res="-9.7799245268106461e-03" rms="2.3108622431755066e-01" purity="4.9692675471305847e-01" nType="0">
            <Node pos="l" depth="3" NCoef="0" IVar="-1" Cut="0.0000000000000000e+00" cType="1" res="2.8054052381776273e-04" rms="2.3003442585468292e-01" purity="2.6736304163932800e-01" nType="-99"/>
            <Node pos="r" depth="3" NCoef="0" IVar="-1" Cut="0.0000000000000000e+00" cType="1" res="-4.7351345419883728e-02" rms="2.3183985054492950e-01" purity="8.2345730066299438e-01" nType="-99"/>
          </Node>
          <Node pos="r" depth="2" NCoef="0" IVar="1" Cut="8.0041535198688507e-02" cType="1" res="8.6882879259064794e-04" rms="2.3849111795425415e-01" purity="5.3162598609924316e-01" nType="0">
            <Node pos="l" depth="3" NCoef="0" IVar="-1" Cut="0.0000000000000000e+00" cType="1" res="5.5989711545407772e-03" rms="2.4740703403949738e-01" purity="3.3021697402000427e-01" nType="-99"/>
            <Node pos="r" depth="3" NCoef="0" IVar="-1" Cut="0.0000000000000000e+00" cType="1" res="-4.4750063680112362e-03" rms="2.2666163742542267e-01" purity="7.8654807806015015e-01" nType="-99"/>
          </Node>
        </Node>
      </Node>
    </BinaryTree>
    <BinaryTree type="DecisionTree" boostWeight="1.0000000000000000e+00" itree="675">
      <Node pos="s" depth="0" NCoef="0" IVar="5" Cut="1.2120568847656250e+02" cType="1" res="-2.3354904260486364e-03" rms="2.3835235834121704e-01" purity="4.9727383255958557e-01" nType="0">
        <Node pos="l" depth="1" NCoef="0" IVar="2" Cut="6.8781335449218750e+02" cType="1" res="4.8486273735761642e-03" rms="2.2132723033428192e-01" purity="1.1445455998182297e-01" nType="0">
          <Node pos="l" depth="2" NCoef="0" IVar="8" Cut="-1.4610855579376221e+00" cType="1" res="1.0889401892200112e-03" rms="2.0459227263927460e-01" purity="8.5548028349876404e-02" nType="0">
            <Node pos="l" depth="3" NCoef="0" IVar="-1" Cut="0.0000000000000000e+00" cType="1" res="6.0948748141527176e-02" rms="2.1437041461467743e-01" purity="6.7782834172248840e-02" nType="-99"/>
            <Node pos="r" depth="3" NCoef="0" IVar="-1" Cut="0.0000000000000000e+00" cType="1" res="-3.6706230603158474e-03" rms="2.0297661423683167e-01" purity="8.8172212243080139e-02" nType="-99"/>
          </Node>
          <Node pos="r" depth="2" NCoef="0" IVar="-1" Cut="0.0000000000000000e+00" cType="1" res="3.2136585563421249e-02" rms="3.0584070086479187e-01" purity="2.9780817031860352e-01" nType="-99"/>
        </Node>
        <Node pos="r" depth="1" NCoef="0" IVar="0" Cut="1.9326209716796875e+03" cType="1" res="-5.1108147017657757e-03" rms="2.4455580115318298e-01" purity="6.4516216516494751e-01" nType="0">
          <Node pos="l" depth="2" NCoef="0" IVar="1" Cut="9.4477161765098572e-02" cType="1" res="-1.4573212713003159e-02" rms="2.7233758568763733e-01" purity="1.3696117699146271e-01" nType="0">
            <Node pos="l" depth="3" NCoef="0" IVar="-1" Cut="0.0000000000000000e+00" cType="1" res="-8.9280745014548302e-03" rms="2.3981946706771851e-01" purity="8.9031264185905457e-02" nType="-99"/>
            <Node pos="r" depth="3" NCoef="0" IVar="-1" Cut="0.0000000000000000e+00" cType="1" res="-2.8972143307328224e-02" rms="3.5239791870117188e-01" purity="2.8372198343276978e-01" nType="-99"/>
          </Node>
          <Node pos="r" depth="2" NCoef="0" IVar="2" Cut="8.7872766113281250e+02" cType="1" res="-9.9634996149688959e-04" rms="2.3131693899631500e-01" purity="8.6613947153091431e-01" nType="0">
            <Node pos="l" depth="3" NCoef="0" IVar="-1" Cut="0.0000000000000000e+00" cType="1" res="1.1586140608415008e-03" rms="2.2960829734802246e-01" purity="8.6900424957275391e-01" nType="-99"/>
            <Node pos="r" depth="3" NCoef="0" IVar="-1" Cut="0.0000000000000000e+00" cType="1" res="-2.9108123853802681e-02" rms="2.4773624539375305e-01" purity="8.3634424209594727e-01" nType="-99"/>
          </Node>
        </Node>
      </Node>
    </BinaryTree>
    <BinaryTree type="DecisionTree" boostWeight="1.0000000000000000e+00" itree="676">
      <Node pos="s" depth="0" NCoef="0" IVar="5" Cut="1.7654875183105469e+02" cType="1" res="-2.7883471921086311e-04" rms="2.4023032188415527e-01" purity="4.9596837162971497e-01" nType="0">
        <Node pos="l" depth="1" NCoef="0" IVar="9" Cut="-9.3279838562011719e-01" cType="1" res="-3.2054241746664047e-03" rms="2.5098401308059692e-01" purity="2.4001382291316986e-01" nType="0">
          <Node pos="l" depth="2" NCoef="0" IVar="5" Cut="1.2291819763183594e+02" cType="1" res="6.1870678327977657e-03" rms="2.5011724233627319e-01" purity="2.2680072486400604e-01" nType="0">
            <Node pos="l" depth="3" NCoef="0" IVar="-1" Cut="0.0000000000000000e+00" cType="1" res="-1.2585146352648735e-02" rms="2.0917160809040070e-01" purity="1.0680348426103592e-01" nType="-99"/>
            <Node pos="r" depth="3" NCoef="0" IVar="-1" Cut="0.0000000000000000e+00" cType="1" res="2.4530971422791481e-02" rms="2.9085808992385864e-01" purity="3.6987105011940002e-01" nType="-99"/>
          </Node>
          <Node pos="r" depth="2" NCoef="0" IVar="7" Cut="-1.3074405491352081e-01" cType="1" res="-6.5153418108820915e-03" rms="2.5120508670806885e-01" purity="2.4467013776302338e-01" nType="0">
            <Node pos="l" depth="3" NCoef="0" IVar="-1" Cut="0.0000000000000000e+00" cType="1" res="1.5124338679015636e-03" rms="2.5596323609352112e-01" purity="2.4050538241863251e-01" nType="-99"/>
            <Node pos="r" depth="3" NCoef="0" IVar="-1" Cut="0.0000000000000000e+00" cType="1" res="-1.8132224678993225e-02" rms="2.4736696481704712e-01" purity="2.4784253537654877e-01" nType="-99"/>
          </Node>
        </Node>
        <Node pos="r" depth="1" NCoef="0" IVar="0" Cut="1.8833199462890625e+03" cType="1" res="3.7679865490645170e-03" rms="2.2445052862167358e-01" purity="8.4989643096923828e-01" nType="0">
          <Node pos="l" depth="2" NCoef="0" IVar="-1" Cut="0.0000000000000000e+00" cType="1" res="2.6816785335540771e-02" rms="3.3795997500419617e-01" purity="2.3500840365886688e-01" nType="-99"/>
          <Node pos="r" depth="2" NCoef="0" IVar="7" Cut="9.3286949396133423e-01" cType="1" res="1.0566657874733210e-03" rms="2.0868471264839172e-01" purity="9.1492962837219238e-01" nType="0">
            <Node pos="l" depth="3" NCoef="0" IVar="-1" Cut="0.0000000000000000e+00" cType="1" res="-1.8469621427357197e-03" rms="2.0018452405929565e-01" purity="9.2312705516815186e-01" nType="-99"/>
            <Node pos="r" depth="3" NCoef="0" IVar="-1" Cut="0.0000000000000000e+00" cType="1" res="2.1397089585661888e-02" rms="2.7098289132118225e-01" purity="8.4378749132156372e-01" nType="-99"/>
          </Node>
        </Node>
      </Node>
    </BinaryTree>
    <BinaryTree type="DecisionTree" boostWeight="1.0000000000000000e+00" itree="677">
      <Node pos="s" depth="0" NCoef="0" IVar="6" Cut="-1.0789049863815308e+00" cType="1" res="3.8335097488015890e-03" rms="2.3925802111625671e-01" purity="4.9966675043106079e-01" nType="0">
        <Node pos="l" depth="1" NCoef="0" IVar="4" Cut="2.2745631408691406e+02" cType="1" res="-6.9957287050783634e-03" rms="2.1843409538269043e-01" purity="1.6606937348842621e-01" nType="0">
          <Node pos="l" depth="2" NCoef="0" IVar="0" Cut="1.6904833984375000e+03" cType="1" res="2.6320149190723896e-03" rms="1.8153999745845795e-01" purity="6.8782202899456024e-02" nType="0">
            <Node pos="l" depth="3" NCoef="0" IVar="-1" Cut="0.0000000000000000e+00" cType="1" res="-5.1295969635248184e-02" rms="8.5197113454341888e-02" purity="9.7194183617830276e-03" nType="-99"/>
            <Node pos="r" depth="3" NCoef="0" IVar="-1" Cut="0.0000000000000000e+00" cType="1" res="3.2750260084867477e-02" rms="2.9126739501953125e-01" purity="1.8958540260791779e-01" nType="-99"/>
          </Node>
          <Node pos="r" depth="2" NCoef="0" IVar="-1" Cut="0.0000000000000000e+00" cType="1" res="-3.9530359208583832e-02" rms="3.0125468969345093e-01" purity="4.5712554454803467e-01" nType="-99"/>
        </Node>
        <Node pos="r" depth="1" NCoef="0" IVar="0" Cut="1.6438341064453125e+03" cType="1" res="5.0761224702000618e-03" rms="2.4150164425373077e-01" purity="5.3794574737548828e-01" nType="0">
          <Node pos="l" depth="2" NCoef="0" IVar="5" Cut="1.2593262481689453e+02" cType="1" res="-8.3694740897044539e-04" rms="1.7335943877696991e-01" purity="3.8632076233625412e-02" nType="0">
            <Node pos="l" depth="3" NCoef="0" IVar="-1" Cut="0.0000000000000000e+00" cType="1" res="3.4008059650659561e-02" rms="1.5430784225463867e-01" purity="2.9153494164347649e-02" nType="-99"/>
            <Node pos="r" depth="3" NCoef="0" IVar="-1" Cut="0.0000000000000000e+00" cType="1" res="-2.4464763700962067e-02" rms="2.0037314295768738e-01" purity="5.4347611963748932e-02" nType="-99"/>
          </Node>
          <Node pos="r" depth="2" NCoef="0" IVar="7" Cut="-1.4639670848846436e+00" cType="1" res="7.0636384189128876e-03" rms="2.6040232181549072e-01" purity="7.0577627420425415e-01" nType="0">
            <Node pos="l" depth="3" NCoef="0" IVar="-1" Cut="0.0000000000000000e+00" cType="1" res="4.8062816262245178e-02" rms="2.8086262941360474e-01" purity="3.2120794057846069e-01" nType="-99"/>
            <Node pos="r" depth="3" NCoef="0" IVar="-1" Cut="0.0000000000000000e+00" cType="1" res="8.2539590075612068e-03" rms="2.5937938690185547e-01" purity="7.2288727760314941e-01" nType="-99"/>
          </Node>
        </Node>
      </Node>
    </BinaryTree>
    <BinaryTree type="DecisionTree" boostWeight="1.0000000000000000e+00" itree="678">
      <Node pos="s" depth="0" NCoef="0" IVar="1" Cut="4.1433740407228470e-02" cType="1" res="-8.7374588474631310e-04" rms="2.4290861189365387e-01" purity="4.9905508756637573e-01" nType="0">
        <Node pos="l" depth="1" NCoef="0" IVar="3" Cut="4.7925964355468750e+02" cType="1" res="4.8176273703575134e-03" rms="2.2630161046981812e-01" purity="1.8415157496929169e-01" nType="0">
          <Node pos="l" depth="2" NCoef="0" IVar="5" Cut="1.3697225952148438e+02" cType="1" res="7.3601282201707363e-03" rms="2.2032223641872406e-01" purity="1.4241319894790649e-01" nType="0">
            <Node pos="l" depth="3" NCoef="0" IVar="-1" Cut="0.0000000000000000e+00" cType="1" res="7.7501274645328522e-03" rms="1.7628294229507446e-01" purity="5.5029086768627167e-02" nType="-99"/>
            <Node pos="r" depth="3" NCoef="0" IVar="-1" Cut="0.0000000000000000e+00" cType="1" res="2.2093046456575394e-02" rms="2.8521522879600525e-01" purity="3.0726167559623718e-01" nType="-99"/>
          </Node>
          <Node pos="r" depth="2" NCoef="0" IVar="-1" Cut="0.0000000000000000e+00" cType="1" res="-1.8891109153628349e-02" rms="2.7131429314613342e-01" purity="5.4254829883575439e-01" nType="-99"/>
        </Node>
        <Node pos="r" depth="1" NCoef="0" IVar="1" Cut="9.7523063421249390e-02" cType="1" res="-3.9531164802610874e-03" rms="2.5138339400291443e-01" purity="6.6943657398223877e-01" nType="0">
          <Node pos="l" depth="2" NCoef="0" IVar="1" Cut="7.0811189711093903e-02" cType="1" res="-9.3167144805192947e-03" rms="2.7651354670524597e-01" purity="5.1917213201522827e-01" nType="0">
            <Node pos="l" depth="3" NCoef="0" IVar="-1" Cut="0.0000000000000000e+00" cType="1" res="-2.5284248404204845e-03" rms="2.7590200304985046e-01" purity="4.6540114283561707e-01" nType="-99"/>
            <Node pos="r" depth="3" NCoef="0" IVar="-1" Cut="0.0000000000000000e+00" cType="1" res="-2.3802552372217178e-02" rms="2.7703732252120972e-01" purity="5.9357106685638428e-01" nType="-99"/>
          </Node>
          <Node pos="r" depth="2" NCoef="0" IVar="9" Cut="1.1814092397689819e+00" cType="1" res="8.0040690954774618e-04" rms="2.2668994963169098e-01" purity="8.0260938405990601e-01" nType="0">
            <Node pos="l" depth="3" NCoef="0" IVar="-1" Cut="0.0000000000000000e+00" cType="1" res="5.0899931229650974e-03" rms="2.2205492854118347e-01" purity="8.1653797626495361e-01" nType="-99"/>
            <Node pos="r" depth="3" NCoef="0" IVar="-1" Cut="0.0000000000000000e+00" cType="1" res="-1.9340962171554565e-02" rms="2.6003503799438477e-01" purity="6.9226020574569702e-01" nType="-99"/>
          </Node>
        </Node>
      </Node>
    </BinaryTree>
    <BinaryTree type="DecisionTree" boostWeight="1.0000000000000000e+00" itree="679">
      <Node pos="s" depth="0" NCoef="0" IVar="9" Cut="-6.6627377271652222e-01" cType="1" res="-2.1971366368234158e-03" rms="2.3932726681232452e-01" purity="4.9978521466255188e-01" nType="0">
        <Node pos="l" depth="1" NCoef="0" IVar="4" Cut="1.8848402404785156e+02" cType="1" res="-8.1956218928098679e-03" rms="2.4889495968818665e-01" purity="4.4337922334671021e-01" nType="0">
          <Node pos="l" depth="2" NCoef="0" IVar="9" Cut="-1.7824584245681763e+00" cType="1" res="4.0878567961044610e-04" rms="2.2517205774784088e-01" purity="1.4407172799110413e-01" nType="0">
            <Node pos="l" depth="3" NCoef="0" IVar="-1" Cut="0.0000000000000000e+00" cType="1" res="-3.8215108215808868e-02" rms="1.9427669048309326e-01" purity="9.1004952788352966e-02" nType="-99"/>
            <Node pos="r" depth="3" NCoef="0" IVar="-1" Cut="0.0000000000000000e+00" cType="1" res="1.2395174242556095e-02" rms="2.3371422290802002e-01" purity="1.6079182922840118e-01" nType="-99"/>
          </Node>
          <Node pos="r" depth="2" NCoef="0" IVar="6" Cut="2.4527662992477417e-01" cType="1" res="-1.3779395259916782e-02" rms="2.6299744844436646e-01" purity="6.3761276006698608e-01" nType="0">
            <Node pos="l" depth="3" NCoef="0" IVar="-1" Cut="0.0000000000000000e+00" cType="1" res="-8.6324643343687057e-03" rms="2.6622551679611206e-01" purity="6.7772608995437622e-01" nType="-99"/>
            <Node pos="r" depth="3" NCoef="0" IVar="-1" Cut="0.0000000000000000e+00" cType="1" res="-4.0958378463983536e-02" rms="2.5605043768882751e-01" purity="5.6079572439193726e-01" nType="-99"/>
          </Node>
        </Node>
        <Node pos="r" depth="1" NCoef="0" IVar="4" Cut="1.9222485351562500e+02" cType="1" res="1.8546661885920912e-04" rms="2.3537670075893402e-01" purity="5.2218973636627197e-01" nType="0">
          <Node pos="l" depth="2" NCoef="0" IVar="6" Cut="2.2964468598365784e-01" cType="1" res="-9.0182274580001831e-03" rms="2.2462053596973419e-01" purity="1.3459607958793640e-01" nType="0">
            <Node pos="l" depth="3" NCoef="0" IVar="-1" Cut="0.0000000000000000e+00" cType="1" res="-2.7523634955286980e-02" rms="2.2702120244503021e-01" purity="1.4650581777095795e-01" nType="-99"/>
            <Node pos="r" depth="3" NCoef="0" IVar="-1" Cut="0.0000000000000000e+00" cType="1" res="8.3140708738937974e-05" rms="2.2116082906723022e-01" purity="1.1925620585680008e-01" nType="-99"/>
          </Node>
          <Node pos="r" depth="2" NCoef="0" IVar="7" Cut="-1.1976634263992310e+00" cType="1" res="5.0546335987746716e-03" rms="2.4073070287704468e-01" purity="7.2724419832229614e-01" nType="0">
            <Node pos="l" depth="3" NCoef="0" IVar="-1" Cut="0.0000000000000000e+00" cType="1" res="5.6256286799907684e-02" rms="3.0208885669708252e-01" purity="4.3943694233894348e-01" nType="-99"/>
            <Node pos="r" depth="3" NCoef="0" IVar="-1" Cut="0.0000000000000000e+00" cType="1" res="3.9235427975654602e-03" rms="2.3553526401519775e-01" purity="7.4764716625213623e-01" nType="-99"/>
          </Node>
        </Node>
      </Node>
    </BinaryTree>
    <BinaryTree type="DecisionTree" boostWeight="1.0000000000000000e+00" itree="680">
      <Node pos="s" depth="0" NCoef="0" IVar="2" Cut="7.7266290283203125e+02" cType="1" res="-1.6501034842804074e-03" rms="2.4135364592075348e-01" purity="4.9154102802276611e-01" nType="0">
        <Node pos="l" depth="1" NCoef="0" IVar="8" Cut="1.4661341905593872e+00" cType="1" res="-4.2541467701084912e-04" rms="2.3974905908107758e-01" purity="4.6537926793098450e-01" nType="0">
          <Node pos="l" depth="2" NCoef="0" IVar="8" Cut="-1.7834559679031372e+00" cType="1" res="-1.5259964857250452e-03" rms="2.3845429718494415e-01" purity="4.8400613665580750e-01" nType="0">
            <Node pos="l" depth="3" NCoef="0" IVar="-1" Cut="0.0000000000000000e+00" cType="1" res="3.2239511609077454e-02" rms="2.2810772061347961e-01" purity="1.3955482840538025e-01" nType="-99"/>
            <Node pos="r" depth="3" NCoef="0" IVar="-1" Cut="0.0000000000000000e+00" cType="1" res="-4.2326385155320168e-03" rms="2.3901152610778809e-01" purity="5.0425070524215698e-01" nType="-99"/>
          </Node>
          <Node pos="r" depth="2" NCoef="0" IVar="1" Cut="4.8715945333242416e-02" cType="1" res="1.3019206002354622e-02" rms="2.5465205311775208e-01" purity="2.3783494532108307e-01" nType="0">
            <Node pos="l" depth="3" NCoef="0" IVar="-1" Cut="0.0000000000000000e+00" cType="1" res="-2.7534482069313526e-04" rms="1.9288289546966553e-01" purity="7.8421115875244141e-02" nType="-99"/>
            <Node pos="r" depth="3" NCoef="0" IVar="-1" Cut="0.0000000000000000e+00" cType="1" res="3.4019608050584793e-02" rms="3.2802805304527283e-01" purity="4.8840314149856567e-01" nType="-99"/>
          </Node>
        </Node>
        <Node pos="r" depth="1" NCoef="0" IVar="0" Cut="2.6440461425781250e+03" cType="1" res="-1.2261012569069862e-02" rms="2.5458690524101257e-01" purity="7.1821087598800659e-01" nType="0">
          <Node pos="l" depth="2" NCoef="0" IVar="-1" Cut="0.0000000000000000e+00" cType="1" res="-3.2923664897680283e-02" rms="2.9820543527603149e-01" purity="2.4954360723495483e-01" nType="-99"/>
          <Node pos="r" depth="2" NCoef="0" IVar="1" Cut="7.1254007518291473e-02" cType="1" res="-4.0320539847016335e-03" rms="2.3551146686077118e-01" purity="8.9512199163436890e-01" nType="0">
            <Node pos="l" depth="3" NCoef="0" IVar="-1" Cut="0.0000000000000000e+00" cType="1" res="-1.3722111470997334e-02" rms="3.0045679211616516e-01" purity="8.0986678600311279e-01" nType="-99"/>
            <Node pos="r" depth="3" NCoef="0" IVar="-1" Cut="0.0000000000000000e+00" cType="1" res="1.3286863453686237e-02" rms="1.5226748585700989e-01" purity="9.7390097379684448e-01" nType="-99"/>
          </Node>
        </Node>
      </Node>
    </BinaryTree>
    <BinaryTree type="DecisionTree" boostWeight="1.0000000000000000e+00" itree="681">
      <Node pos="s" depth="0" NCoef="0" IVar="4" Cut="2.3722004699707031e+02" cType="1" res="2.5937727186828852e-03" rms="2.4108335375785828e-01" purity="5.0462108850479126e-01" nType="0">
        <Node pos="l" depth="1" NCoef="0" IVar="5" Cut="1.3045629882812500e+02" cType="1" res="5.5992025882005692e-03" rms="2.5052338838577271e-01" purity="2.4921718239784241e-01" nType="0">
          <Node pos="l" depth="2" NCoef="0" IVar="0" Cut="2.0648986816406250e+03" cType="1" res="-1.0272311046719551e-03" rms="2.0576959848403931e-01" purity="9.2790976166725159e-02" nType="0">
            <Node pos="l" depth="3" NCoef="0" IVar="-1" Cut="0.0000000000000000e+00" cType="1" res="-1.0001645423471928e-02" rms="1.7857298254966736e-01" purity="4.8019405454397202e-02" nType="-99"/>
            <Node pos="r" depth="3" NCoef="0" IVar="-1" Cut="0.0000000000000000e+00" cType="1" res="1.6617884859442711e-02" rms="3.7069600820541382e-01" purity="5.0250637531280518e-01" nType="-99"/>
          </Node>
          <Node pos="r" depth="2" NCoef="0" IVar="5" Cut="1.7578869628906250e+02" cType="1" res="1.3107682578265667e-02" rms="2.9290765523910522e-01" purity="4.2646527290344238e-01" nType="0">
            <Node pos="l" depth="3" NCoef="0" IVar="-1" Cut="0.0000000000000000e+00" cType="1" res="2.3863876238465309e-02" rms="2.9217594861984253e-01" purity="3.4259748458862305e-01" nType="-99"/>
            <Node pos="r" depth="3" NCoef="0" IVar="-1" Cut="0.0000000000000000e+00" cType="1" res="-3.8130218163132668e-03" rms="2.9385676980018616e-01" purity="6.1268532276153564e-01" nType="-99"/>
          </Node>
        </Node>
        <Node pos="r" depth="1" NCoef="0" IVar="0" Cut="2.1427084960937500e+03" cType="1" res="-1.1907889274880290e-03" rms="2.2858613729476929e-01" purity="8.2623630762100220e-01" nType="0">
          <Node pos="l" depth="2" NCoef="0" IVar="9" Cut="-4.0106242895126343e-01" cType="1" res="-1.1602649465203285e-02" rms="3.4300079941749573e-01" purity="3.6126580834388733e-01" nType="0">
            <Node pos="l" depth="3" NCoef="0" IVar="-1" Cut="0.0000000000000000e+00" cType="1" res="-2.5667930021882057e-02" rms="3.4003698825836182e-01" purity="3.2076573371887207e-01" nType="-99"/>
            <Node pos="r" depth="3" NCoef="0" IVar="-1" Cut="0.0000000000000000e+00" cType="1" res="1.5183342620730400e-03" rms="3.4434178471565247e-01" purity="3.8876613974571228e-01" nType="-99"/>
          </Node>
          <Node pos="r" depth="2" NCoef="0" IVar="7" Cut="-9.2506426572799683e-01" cType="1" res="1.2149568647146225e-03" rms="1.9263972342014313e-01" purity="9.3367153406143188e-01" nType="0">
            <Node pos="l" depth="3" NCoef="0" IVar="-1" Cut="0.0000000000000000e+00" cType="1" res="-2.5550449267029762e-02" rms="2.6075091958045959e-01" purity="8.4732943773269653e-01" nType="-99"/>
            <Node pos="r" depth="3" NCoef="0" IVar="-1" Cut="0.0000000000000000e+00" cType="1" res="8.1105437129735947e-03" rms="1.8427920341491699e-01" purity="9.4238454103469849e-01" nType="-99"/>
          </Node>
        </Node>
      </Node>
    </BinaryTree>
    <BinaryTree type="DecisionTree" boostWeight="1.0000000000000000e+00" itree="682">
      <Node pos="s" depth="0" NCoef="0" IVar="2" Cut="7.6458856201171875e+02" cType="1" res="-2.6384543161839247e-05" rms="2.3716464638710022e-01" purity="4.9510571360588074e-01" nType="0">
        <Node pos="l" depth="1" NCoef="0" IVar="5" Cut="1.8006956481933594e+02" cType="1" res="-1.4947104500606656e-03" rms="2.3535887897014618e-01" purity="4.6152356266975403e-01" nType="0">
          <Node pos="l" depth="2" NCoef="0" IVar="5" Cut="1.1870211791992188e+02" cType="1" res="-4.5649148523807526e-03" rms="2.4430665373802185e-01" purity="2.2924475371837616e-01" nType="0">
            <Node pos="l" depth="3" NCoef="0" IVar="-1" Cut="0.0000000000000000e+00" cType="1" res="9.5995031297206879e-03" rms="2.1281293034553528e-01" purity="9.4526462256908417e-02" nType="-99"/>
            <Node pos="r" depth="3" NCoef="0" IVar="-1" Cut="0.0000000000000000e+00" cType="1" res="-1.5033448114991188e-02" rms="2.6742950081825256e-01" purity="3.4101465344429016e-01" nType="-99"/>
          </Node>
          <Node pos="r" depth="2" NCoef="0" IVar="9" Cut="1.1995722055435181e+00" cType="1" res="3.6210932303220034e-03" rms="2.1954584121704102e-01" purity="8.4856379032135010e-01" nType="0">
            <Node pos="l" depth="3" NCoef="0" IVar="-1" Cut="0.0000000000000000e+00" cType="1" res="1.0758241638541222e-02" rms="2.1485075354576111e-01" purity="8.6475580930709839e-01" nType="-99"/>
            <Node pos="r" depth="3" NCoef="0" IVar="-1" Cut="0.0000000000000000e+00" cType="1" res="-1.7116183415055275e-02" rms="2.5784122943878174e-01" purity="7.0113682746887207e-01" nType="-99"/>
          </Node>
        </Node>
        <Node pos="r" depth="1" NCoef="0" IVar="6" Cut="-2.9517617821693420e-01" cType="1" res="1.1964371427893639e-02" rms="2.5110486149787903e-01" purity="7.6934677362442017e-01" nType="0">
          <Node pos="l" depth="2" NCoef="0" IVar="-1" Cut="0.0000000000000000e+00" cType="1" res="-2.4273805320262909e-03" rms="2.8457990288734436e-01" purity="6.7661386728286743e-01" nType="-99"/>
          <Node pos="r" depth="2" NCoef="0" IVar="2" Cut="8.5063323974609375e+02" cType="1" res="1.7451493069529533e-02" rms="2.3619723320007324e-01" purity="8.0636841058731079e-01" nType="0">
            <Node pos="l" depth="3" NCoef="0" IVar="-1" Cut="0.0000000000000000e+00" cType="1" res="3.1579029746353626e-03" rms="2.2139045596122742e-01" purity="7.6361429691314697e-01" nType="-99"/>
            <Node pos="r" depth="3" NCoef="0" IVar="-1" Cut="0.0000000000000000e+00" cType="1" res="4.3202780187129974e-02" rms="2.4609079957008362e-01" purity="8.3856236934661865e-01" nType="-99"/>
          </Node>
        </Node>
      </Node>
    </BinaryTree>
    <BinaryTree type="DecisionTree" boostWeight="1.0000000000000000e+00" itree="683">
      <Node pos="s" depth="0" NCoef="0" IVar="6" Cut="-1.4041074514389038e+00" cType="1" res="-2.4101852905005217e-03" rms="2.3622252047061920e-01" purity="4.9843516945838928e-01" nType="0">
        <Node pos="l" depth="1" NCoef="0" IVar="6" Cut="-1.7167780399322510e+00" cType="1" res="1.5570115298032761e-02" rms="2.0256942510604858e-01" purity="1.0365436226129532e-01" nType="0">
          <Node pos="l" depth="2" NCoef="0" IVar="-1" Cut="0.0000000000000000e+00" cType="1" res="6.1285053379833698e-03" rms="1.5011198818683624e-01" purity="3.5170052200555801e-02" nType="-99"/>
          <Node pos="r" depth="2" NCoef="0" IVar="-1" Cut="0.0000000000000000e+00" cType="1" res="6.1691086739301682e-02" rms="2.4652956426143646e-01" purity="1.7850360274314880e-01" nType="-99"/>
        </Node>
        <Node pos="r" depth="1" NCoef="0" IVar="0" Cut="2.3891545410156250e+03" cType="1" res="-3.4980357158929110e-03" rms="2.3806250095367432e-01" purity="5.2232033014297485e-01" nType="0">
          <Node pos="l" depth="2" NCoef="0" IVar="9" Cut="1.9996649026870728e+00" cType="1" res="-6.7118289880454540e-03" rms="2.6626986265182495e-01" purity="2.6374953985214233e-01" nType="0">
            <Node pos="l" depth="3" NCoef="0" IVar="-1" Cut="0.0000000000000000e+00" cType="1" res="-1.0694854892790318e-02" rms="2.6640686392784119e-01" purity="2.6987156271934509e-01" nType="-99"/>
            <Node pos="r" depth="3" NCoef="0" IVar="-1" Cut="0.0000000000000000e+00" cType="1" res="3.9258372038602829e-02" rms="2.6155257225036621e-01" purity="1.3710297644138336e-01" nType="-99"/>
          </Node>
          <Node pos="r" depth="2" NCoef="0" IVar="7" Cut="9.2672926187515259e-01" cType="1" res="1.6833724221214652e-03" rms="1.8356117606163025e-01" purity="9.3919867277145386e-01" nType="0">
            <Node pos="l" depth="3" NCoef="0" IVar="-1" Cut="0.0000000000000000e+00" cType="1" res="1.0673467768356204e-03" rms="1.7847445607185364e-01" purity="9.4393312931060791e-01" nType="-99"/>
            <Node pos="r" depth="3" NCoef="0" IVar="-1" Cut="0.0000000000000000e+00" cType="1" res="2.4009322747588158e-02" rms="2.2637183964252472e-01" purity="8.9361947774887085e-01" nType="-99"/>
          </Node>
        </Node>
      </Node>
    </BinaryTree>
    <BinaryTree type="DecisionTree" boostWeight="1.0000000000000000e+00" itree="684">
      <Node pos="s" depth="0" NCoef="0" IVar="4" Cut="1.9655262756347656e+02" cType="1" res="1.5122870681807399e-03" rms="2.4302923679351807e-01" purity="5.0560814142227173e-01" nType="0">
        <Node pos="l" depth="1" NCoef="0" IVar="8" Cut="-1.4657695293426514e+00" cType="1" res="6.3103227876126766e-03" rms="2.4379438161849976e-01" purity="1.6109324991703033e-01" nType="0">
          <Node pos="l" depth="2" NCoef="0" IVar="7" Cut="-1.1123214662075043e-01" cType="1" res="-1.0139795020222664e-02" rms="2.0900556445121765e-01" purity="1.0332098603248596e-01" nType="0">
            <Node pos="l" depth="3" NCoef="0" IVar="-1" Cut="0.0000000000000000e+00" cType="1" res="-2.5170326232910156e-02" rms="2.0190630853176117e-01" purity="9.9611587822437286e-02" nType="-99"/>
            <Node pos="r" depth="3" NCoef="0" IVar="-1" Cut="0.0000000000000000e+00" cType="1" res="-1.6711477190256119e-02" rms="2.1597506105899811e-01" purity="1.0709493607282639e-01" nType="-99"/>
          </Node>
          <Node pos="r" depth="2" NCoef="0" IVar="7" Cut="3.9897257089614868e-01" cType="1" res="8.7775681167840958e-03" rms="2.4849872291088104e-01" purity="1.6975812613964081e-01" nType="0">
            <Node pos="l" depth="3" NCoef="0" IVar="-1" Cut="0.0000000000000000e+00" cType="1" res="7.1396245621144772e-03" rms="2.5563997030258179e-01" purity="1.7699497938156128e-01" nType="-99"/>
            <Node pos="r" depth="3" NCoef="0" IVar="-1" Cut="0.0000000000000000e+00" cType="1" res="3.2472990453243256e-02" rms="2.3557727038860321e-01" purity="1.5735588967800140e-01" nType="-99"/>
          </Node>
        </Node>
        <Node pos="r" depth="1" NCoef="0" IVar="7" Cut="1.1989825963973999e+00" cType="1" res="-1.5525976195931435e-03" rms="2.4248953163623810e-01" purity="7.2567707300186157e-01" nType="0">
          <Node pos="l" depth="2" NCoef="0" IVar="3" Cut="2.6015975952148438e+02" cType="1" res="5.5878976127132773e-04" rms="2.4120007455348969e-01" purity="7.5386458635330200e-01" nType="0">
            <Node pos="l" depth="3" NCoef="0" IVar="-1" Cut="0.0000000000000000e+00" cType="1" res="-1.3891490176320076e-02" rms="2.9166555404663086e-01" purity="3.7613648176193237e-01" nType="-99"/>
            <Node pos="r" depth="3" NCoef="0" IVar="-1" Cut="0.0000000000000000e+00" cType="1" res="3.3450408373028040e-03" rms="2.3483304679393768e-01" purity="7.9616701602935791e-01" nType="-99"/>
          </Node>
          <Node pos="r" depth="2" NCoef="0" IVar="-1" Cut="0.0000000000000000e+00" cType="1" res="-3.4868970513343811e-02" rms="2.5614476203918457e-01" purity="3.8632377982139587e-01" nType="-99"/>
        </Node>
      </Node>
    </BinaryTree>
    <BinaryTree type="DecisionTree" boostWeight="1.0000000000000000e+00" itree="685">
      <Node pos="s" depth="0" NCoef="0" IVar="5" Cut="1.3889166259765625e+02" cType="1" res="1.9139408832415938e-03" rms="2.4163539707660675e-01" purity="5.0788795948028564e-01" nType="0">
        <Node pos="l" depth="1" NCoef="0" IVar="0" Cut="2.1314838867187500e+03" cType="1" res="-2.5925526861101389e-03" rms="2.3363046348094940e-01" purity="1.4703191816806793e-01" nType="0">
          <Node pos="l" depth="2" NCoef="0" IVar="7" Cut="1.4650197029113770e+00" cType="1" res="1.2328142474871129e-04" rms="2.0786736905574799e-01" purity="7.5177423655986786e-02" nType="0">
            <Node pos="l" depth="3" NCoef="0" IVar="-1" Cut="0.0000000000000000e+00" cType="1" res="4.1908789426088333e-03" rms="2.1939119696617126e-01" purity="8.4142431616783142e-02" nType="-99"/>
            <Node pos="r" depth="3" NCoef="0" IVar="-1" Cut="0.0000000000000000e+00" cType="1" res="-9.2938058078289032e-02" rms="6.6392973065376282e-02" purity="4.9955649301409721e-03" nType="-99"/>
          </Node>
          <Node pos="r" depth="2" NCoef="0" IVar="6" Cut="6.3798995688557625e-03" cType="1" res="-1.9247950986027718e-02" rms="3.5215914249420166e-01" purity="5.8769392967224121e-01" nType="0">
            <Node pos="l" depth="3" NCoef="0" IVar="-1" Cut="0.0000000000000000e+00" cType="1" res="-5.6029083207249641e-03" rms="3.6020478606224060e-01" purity="5.8611565828323364e-01" nType="-99"/>
            <Node pos="r" depth="3" NCoef="0" IVar="-1" Cut="0.0000000000000000e+00" cType="1" res="-2.7419174090027809e-02" rms="3.4402766823768616e-01" purity="5.8917403221130371e-01" nType="-99"/>
          </Node>
        </Node>
        <Node pos="r" depth="1" NCoef="0" IVar="7" Cut="3.9810445904731750e-01" cType="1" res="4.6849320642650127e-03" rms="2.4638755619525909e-01" purity="7.2977417707443237e-01" nType="0">
          <Node pos="l" depth="2" NCoef="0" IVar="3" Cut="3.1685614013671875e+02" cType="1" res="1.0731776710599661e-03" rms="2.3898762464523315e-01" purity="7.4881058931350708e-01" nType="0">
            <Node pos="l" depth="3" NCoef="0" IVar="-1" Cut="0.0000000000000000e+00" cType="1" res="-1.0227553546428680e-02" rms="2.9075002670288086e-01" purity="4.6683460474014282e-01" nType="-99"/>
            <Node pos="r" depth="3" NCoef="0" IVar="-1" Cut="0.0000000000000000e+00" cType="1" res="1.2454510666429996e-02" rms="2.0894680917263031e-01" purity="8.8643628358840942e-01" nType="-99"/>
          </Node>
          <Node pos="r" depth="2" NCoef="0" IVar="0" Cut="2.0564580078125000e+03" cType="1" res="1.2838223017752171e-02" rms="2.6214313507080078e-01" purity="6.8680083751678467e-01" nType="0">
            <Node pos="l" depth="3" NCoef="0" IVar="-1" Cut="0.0000000000000000e+00" cType="1" res="3.1838007271289825e-02" rms="3.2556059956550598e-01" purity="2.5277239084243774e-01" nType="-99"/>
            <Node pos="r" depth="3" NCoef="0" IVar="-1" Cut="0.0000000000000000e+00" cType="1" res="6.6862455569207668e-03" rms="2.2267840802669525e-01" purity="9.0667074918746948e-01" nType="-99"/>
          </Node>
        </Node>
      </Node>
    </BinaryTree>
    <BinaryTree type="DecisionTree" boostWeight="1.0000000000000000e+00" itree="686">
      <Node pos="s" depth="0" NCoef="0" IVar="9" Cut="6.6675657033920288e-01" cType="1" res="-3.8532214239239693e-04" rms="2.4280224740505219e-01" purity="5.0352042913436890e-01" nType="0">
        <Node pos="l" depth="1" NCoef="0" IVar="0" Cut="1.6438471679687500e+03" cType="1" res="-2.5987562257796526e-03" rms="2.4184378981590271e-01" purity="5.2375024557113647e-01" nType="0">
          <Node pos="l" depth="2" NCoef="0" IVar="5" Cut="1.3527622985839844e+02" cType="1" res="4.5826439745724201e-03" rms="1.7368142306804657e-01" purity="3.8458336144685745e-02" nType="0">
            <Node pos="l" depth="3" NCoef="0" IVar="-1" Cut="0.0000000000000000e+00" cType="1" res="4.7515992075204849e-02" rms="1.6233295202255249e-01" purity="3.1185070052742958e-02" nType="-99"/>
            <Node pos="r" depth="3" NCoef="0" IVar="-1" Cut="0.0000000000000000e+00" cType="1" res="-1.3268546201288700e-02" rms="1.9763748347759247e-01" purity="5.5764585733413696e-02" nType="-99"/>
          </Node>
          <Node pos="r" depth="2" NCoef="0" IVar="2" Cut="4.2979672241210938e+02" cType="1" res="-4.9801194109022617e-03" rms="2.6049503684043884e-01" purity="6.8467366695404053e-01" nType="0">
            <Node pos="l" depth="3" NCoef="0" IVar="-1" Cut="0.0000000000000000e+00" cType="1" res="-1.6556335613131523e-02" rms="3.1889405846595764e-01" purity="5.8102941513061523e-01" nType="-99"/>
            <Node pos="r" depth="3" NCoef="0" IVar="-1" Cut="0.0000000000000000e+00" cType="1" res="-3.2788750249892473e-03" rms="2.4370513856410980e-01" purity="7.1046912670135498e-01" nType="-99"/>
          </Node>
        </Node>
        <Node pos="r" depth="1" NCoef="0" IVar="9" Cut="7.6833385229110718e-01" cType="1" res="5.5090375244617462e-03" rms="2.4523891508579254e-01" purity="4.4964861869812012e-01" nType="0">
          <Node pos="l" depth="2" NCoef="0" IVar="-1" Cut="0.0000000000000000e+00" cType="1" res="-2.3622233420610428e-02" rms="2.2571083903312683e-01" purity="5.2672427892684937e-01" nType="-99"/>
          <Node pos="r" depth="2" NCoef="0" IVar="9" Cut="1.9291565418243408e+00" cType="1" res="7.6065342873334885e-03" rms="2.4715383350849152e-01" purity="4.4136640429496765e-01" nType="0">
            <Node pos="l" depth="3" NCoef="0" IVar="-1" Cut="0.0000000000000000e+00" cType="1" res="1.6377275809645653e-02" rms="2.4808722734451294e-01" purity="4.9211776256561279e-01" nType="-99"/>
            <Node pos="r" depth="3" NCoef="0" IVar="-1" Cut="0.0000000000000000e+00" cType="1" res="-1.0924806818366051e-02" rms="2.4191154539585114e-01" purity="1.8770457804203033e-01" nType="-99"/>
          </Node>
        </Node>
      </Node>
    </BinaryTree>
    <BinaryTree type="DecisionTree" boostWeight="1.0000000000000000e+00" itree="687">
      <Node pos="s" depth="0" NCoef="0" IVar="1" Cut="1.6351059079170227e-01" cType="1" res="1.5436370158568025e-03" rms="2.3942120373249054e-01" purity="5.0311648845672607e-01" nType="0">
        <Node pos="l" depth="1" NCoef="0" IVar="1" Cut="5.4507087916135788e-02" cType="1" res="3.1949146650731564e-03" rms="2.4386540055274963e-01" purity="4.4492849707603455e-01" nType="0">
          <Node pos="l" depth="2" NCoef="0" IVar="1" Cut="4.4121935963630676e-02" cType="1" res="-9.7632937831804156e-04" rms="2.2490274906158447e-01" purity="2.2333152592182159e-01" nType="0">
            <Node pos="l" depth="3" NCoef="0" IVar="-1" Cut="0.0000000000000000e+00" cType="1" res="2.6185684837400913e-03" rms="2.1591460704803467e-01" purity="1.9277469813823700e-01" nType="-99"/>
            <Node pos="r" depth="3" NCoef="0" IVar="-1" Cut="0.0000000000000000e+00" cType="1" res="-1.8535615876317024e-02" rms="2.6904511451721191e-01" purity="3.9293849468231201e-01" nType="-99"/>
          </Node>
          <Node pos="r" depth="2" NCoef="0" IVar="9" Cut="-1.4654859304428101e+00" cType="1" res="7.5437962077558041e-03" rms="2.6210859417915344e-01" purity="6.7596244812011719e-01" nType="0">
            <Node pos="l" depth="3" NCoef="0" IVar="-1" Cut="0.0000000000000000e+00" cType="1" res="3.0620107427239418e-02" rms="3.5276973247528076e-01" purity="5.5975168943405151e-01" nType="-99"/>
            <Node pos="r" depth="3" NCoef="0" IVar="-1" Cut="0.0000000000000000e+00" cType="1" res="7.8019765205681324e-03" rms="2.5300693511962891e-01" purity="6.8561762571334839e-01" nType="-99"/>
          </Node>
        </Node>
        <Node pos="r" depth="1" NCoef="0" IVar="0" Cut="2.3090070800781250e+03" cType="1" res="-8.4438398480415344e-03" rms="2.1027490496635437e-01" purity="8.5505676269531250e-01" nType="0">
          <Node pos="l" depth="2" NCoef="0" IVar="-1" Cut="0.0000000000000000e+00" cType="1" res="-1.9849140197038651e-02" rms="3.2288968563079834e-01" purity="6.0163033008575439e-01" nType="-99"/>
          <Node pos="r" depth="2" NCoef="0" IVar="-1" Cut="0.0000000000000000e+00" cType="1" res="-1.9723290577530861e-02" rms="1.1413560062646866e-01" purity="9.8619425296783447e-01" nType="-99"/>
        </Node>
      </Node>
    </BinaryTree>
    <BinaryTree type="DecisionTree" boostWeight="1.0000000000000000e+00" itree="688">
      <Node pos="s" depth="0" NCoef="0" IVar="7" Cut="-1.3283041119575500e-01" cType="1" res="1.1317539028823376e-03" rms="2.3857474327087402e-01" purity="5.0348591804504395e-01" nType="0">
        <Node pos="l" depth="1" NCoef="0" IVar="9" Cut="1.4674748182296753e+00" cType="1" res="5.9548364952206612e-03" rms="2.3939158022403717e-01" purity="4.8974072933197021e-01" nType="0">
          <Node pos="l" depth="2" NCoef="0" IVar="7" Cut="-5.1362740993499756e-01" cType="1" res="4.5745288953185081e-03" rms="2.3750384151935577e-01" purity="5.0651532411575317e-01" nType="0">
            <Node pos="l" depth="3" NCoef="0" IVar="-1" Cut="0.0000000000000000e+00" cType="1" res="1.3981983065605164e-02" rms="2.4657386541366577e-01" purity="4.3480005860328674e-01" nType="-99"/>
            <Node pos="r" depth="3" NCoef="0" IVar="-1" Cut="0.0000000000000000e+00" cType="1" res="-6.7619457840919495e-03" rms="2.1911823749542236e-01" purity="6.4189696311950684e-01" nType="-99"/>
          </Node>
          <Node pos="r" depth="2" NCoef="0" IVar="-1" Cut="0.0000000000000000e+00" cType="1" res="3.5058476030826569e-02" rms="2.5867265462875366e-01" purity="3.0616116523742676e-01" nType="-99"/>
        </Node>
        <Node pos="r" depth="1" NCoef="0" IVar="4" Cut="2.0915510559082031e+02" cType="1" res="-2.8144300449639559e-03" rms="2.3783159255981445e-01" purity="5.1473194360733032e-01" nType="0">
          <Node pos="l" depth="2" NCoef="0" IVar="1" Cut="7.5761184096336365e-02" cType="1" res="-9.2164948582649231e-03" rms="2.3709623515605927e-01" purity="1.8210226297378540e-01" nType="0">
            <Node pos="l" depth="3" NCoef="0" IVar="-1" Cut="0.0000000000000000e+00" cType="1" res="-9.3936035409569740e-03" rms="2.1037054061889648e-01" purity="1.0864721983671188e-01" nType="-99"/>
            <Node pos="r" depth="3" NCoef="0" IVar="-1" Cut="0.0000000000000000e+00" cType="1" res="-2.3413041606545448e-02" rms="2.9453200101852417e-01" purity="3.7107181549072266e-01" nType="-99"/>
          </Node>
          <Node pos="r" depth="2" NCoef="0" IVar="9" Cut="-1.2006503343582153e+00" cType="1" res="2.1208862308412790e-03" rms="2.3827953636646271e-01" purity="7.7115440368652344e-01" nType="0">
            <Node pos="l" depth="3" NCoef="0" IVar="-1" Cut="0.0000000000000000e+00" cType="1" res="-1.4633730985224247e-02" rms="2.8168308734893799e-01" purity="6.2962257862091064e-01" nType="-99"/>
            <Node pos="r" depth="3" NCoef="0" IVar="-1" Cut="0.0000000000000000e+00" cType="1" res="6.4093736000359058e-03" rms="2.3298023641109467e-01" purity="7.8665834665298462e-01" nType="-99"/>
          </Node>
        </Node>
      </Node>
    </BinaryTree>
    <BinaryTree type="DecisionTree" boostWeight="1.0000000000000000e+00" itree="689">
      <Node pos="s" depth="0" NCoef="0" IVar="9" Cut="-4.0043351054191589e-01" cType="1" res="-1.5590840484946966e-04" rms="2.4235796928405762e-01" purity="4.9818298220634460e-01" nType="0">
        <Node pos="l" depth="1" NCoef="0" IVar="0" Cut="2.1027634277343750e+03" cType="1" res="5.5849393829703331e-03" rms="2.5129812955856323e-01" purity="4.9081623554229736e-01" nType="0">
          <Node pos="l" depth="2" NCoef="0" IVar="5" Cut="1.4799110412597656e+02" cType="1" res="1.0892112739384174e-02" rms="2.6785871386528015e-01" purity="1.6171193122863770e-01" nType="0">
            <Node pos="l" depth="3" NCoef="0" IVar="-1" Cut="0.0000000000000000e+00" cType="1" res="5.8368900790810585e-03" rms="2.2599008679389954e-01" purity="8.6981140077114105e-02" nType="-99"/>
            <Node pos="r" depth="3" NCoef="0" IVar="-1" Cut="0.0000000000000000e+00" cType="1" res="2.6703229174017906e-02" rms="3.4846717119216919e-01" purity="3.4320953488349915e-01" nType="-99"/>
          </Node>
          <Node pos="r" depth="2" NCoef="0" IVar="5" Cut="2.1928730773925781e+02" cType="1" res="-6.7713501630350947e-04" rms="2.3007355630397797e-01" purity="8.7913519144058228e-01" nType="0">
            <Node pos="l" depth="3" NCoef="0" IVar="-1" Cut="0.0000000000000000e+00" cType="1" res="-1.1258983984589577e-02" rms="2.7551460266113281e-01" purity="8.0966573953628540e-01" nType="-99"/>
            <Node pos="r" depth="3" NCoef="0" IVar="-1" Cut="0.0000000000000000e+00" cType="1" res="2.9264889657497406e-02" rms="1.6233226656913757e-01" purity="9.5899087190628052e-01" nType="-99"/>
          </Node>
        </Node>
        <Node pos="r" depth="1" NCoef="0" IVar="9" Cut="-2.4814748764038086e-01" cType="1" res="-3.4870959352701902e-03" rms="2.3695202171802521e-01" purity="5.0245761871337891e-01" nType="0">
          <Node pos="l" depth="2" NCoef="0" IVar="-1" Cut="0.0000000000000000e+00" cType="1" res="-3.5077586770057678e-02" rms="2.2583696246147156e-01" purity="5.3082692623138428e-01" nType="-99"/>
          <Node pos="r" depth="2" NCoef="0" IVar="1" Cut="1.4110946655273438e-01" cType="1" res="-1.9049366237595677e-03" rms="2.3788475990295410e-01" purity="4.9985092878341675e-01" nType="0">
            <Node pos="l" depth="3" NCoef="0" IVar="-1" Cut="0.0000000000000000e+00" cType="1" res="-7.1547287516295910e-03" rms="2.4470536410808563e-01" purity="4.1407549381256104e-01" nType="-99"/>
            <Node pos="r" depth="3" NCoef="0" IVar="-1" Cut="0.0000000000000000e+00" cType="1" res="1.7552468925714493e-02" rms="2.0828621089458466e-01" purity="8.4062129259109497e-01" nType="-99"/>
          </Node>
        </Node>
      </Node>
    </BinaryTree>
    <BinaryTree type="DecisionTree" boostWeight="1.0000000000000000e+00" itree="690">
      <Node pos="s" depth="0" NCoef="0" IVar="2" Cut="4.4381143188476562e+02" cType="1" res="-6.3720083562657237e-04" rms="2.4218262732028961e-01" purity="5.0378668308258057e-01" nType="0">
        <Node pos="l" depth="1" NCoef="0" IVar="2" Cut="2.6994470214843750e+02" cType="1" res="4.3857414275407791e-03" rms="2.5895535945892334e-01" purity="3.2072082161903381e-01" nType="0">
          <Node pos="l" depth="2" NCoef="0" IVar="-1" Cut="0.0000000000000000e+00" cType="1" res="3.7247836589813232e-02" rms="2.7976623177528381e-01" purity="1.9284385442733765e-01" nType="-99"/>
          <Node pos="r" depth="2" NCoef="0" IVar="2" Cut="3.2798846435546875e+02" cType="1" res="2.0664003677666187e-03" rms="2.5662320852279663e-01" purity="3.3377316594123840e-01" nType="0">
            <Node pos="l" depth="3" NCoef="0" IVar="-1" Cut="0.0000000000000000e+00" cType="1" res="-1.9489362835884094e-02" rms="2.5206941366195679e-01" purity="2.0137777924537659e-01" nType="-99"/>
            <Node pos="r" depth="3" NCoef="0" IVar="-1" Cut="0.0000000000000000e+00" cType="1" res="1.0943142697215080e-02" rms="2.5793355703353882e-01" purity="3.7847778201103210e-01" nType="-99"/>
          </Node>
        </Node>
        <Node pos="r" depth="1" NCoef="0" IVar="8" Cut="4.0000876784324646e-01" cType="1" res="-3.4546167589724064e-03" rms="2.3219740390777588e-01" purity="6.0647004842758179e-01" nType="0">
          <Node pos="l" depth="2" NCoef="0" IVar="5" Cut="1.9728196716308594e+02" cType="1" res="-7.1893217973411083e-03" rms="2.2585971653461456e-01" purity="6.1678951978683472e-01" nType="0">
            <Node pos="l" depth="3" NCoef="0" IVar="-1" Cut="0.0000000000000000e+00" cType="1" res="-1.6531560570001602e-02" rms="2.5586909055709839e-01" purity="3.8791969418525696e-01" nType="-99"/>
            <Node pos="r" depth="3" NCoef="0" IVar="-1" Cut="0.0000000000000000e+00" cType="1" res="-3.7311480846256018e-03" rms="1.7417275905609131e-01" purity="9.4316613674163818e-01" nType="-99"/>
          </Node>
          <Node pos="r" depth="2" NCoef="0" IVar="7" Cut="-1.3431040942668915e-01" cType="1" res="3.8578449748456478e-03" rms="2.4396494030952454e-01" purity="5.8626466989517212e-01" nType="0">
            <Node pos="l" depth="3" NCoef="0" IVar="-1" Cut="0.0000000000000000e+00" cType="1" res="2.9314670711755753e-02" rms="2.5495481491088867e-01" purity="5.7821172475814819e-01" nType="-99"/>
            <Node pos="r" depth="3" NCoef="0" IVar="-1" Cut="0.0000000000000000e+00" cType="1" res="-1.1013553477823734e-02" rms="2.3572570085525513e-01" purity="5.9170866012573242e-01" nType="-99"/>
          </Node>
        </Node>
      </Node>
    </BinaryTree>
    <BinaryTree type="DecisionTree" boostWeight="1.0000000000000000e+00" itree="691">
      <Node pos="s" depth="0" NCoef="0" IVar="9" Cut="1.4666081666946411e+00" cType="1" res="1.1925928265554830e-04" rms="2.4231456220149994e-01" purity="4.9681699275970459e-01" nType="0">
        <Node pos="l" depth="1" NCoef="0" IVar="9" Cut="-1.3766455650329590e+00" cType="1" res="1.4796818140894175e-03" rms="2.4225550889968872e-01" purity="5.1903128623962402e-01" nType="0">
          <Node pos="l" depth="2" NCoef="0" IVar="9" Cut="-1.7828279733657837e+00" cType="1" res="-8.0990688875317574e-03" rms="2.7418822050094604e-01" purity="3.2531079649925232e-01" nType="0">
            <Node pos="l" depth="3" NCoef="0" IVar="-1" Cut="0.0000000000000000e+00" cType="1" res="1.6319829970598221e-02" rms="2.7229589223861694e-01" purity="2.3214100301265717e-01" nType="-99"/>
            <Node pos="r" depth="3" NCoef="0" IVar="-1" Cut="0.0000000000000000e+00" cType="1" res="-3.3093526959419250e-02" rms="2.7478256821632385e-01" purity="4.1144585609436035e-01" nType="-99"/>
          </Node>
          <Node pos="r" depth="2" NCoef="0" IVar="9" Cut="-1.5801987051963806e-01" cType="1" res="2.7452036738395691e-03" rms="2.3768718540668488e-01" purity="5.4462516307830811e-01" nType="0">
            <Node pos="l" depth="3" NCoef="0" IVar="-1" Cut="0.0000000000000000e+00" cType="1" res="1.1791254393756390e-02" rms="2.3987938463687897e-01" purity="5.5350732803344727e-01" nType="-99"/>
            <Node pos="r" depth="3" NCoef="0" IVar="-1" Cut="0.0000000000000000e+00" cType="1" res="-7.0646480889990926e-04" rms="2.3598286509513855e-01" purity="5.3797167539596558e-01" nType="-99"/>
          </Node>
        </Node>
        <Node pos="r" depth="1" NCoef="0" IVar="5" Cut="1.4943998718261719e+02" cType="1" res="-1.2834495864808559e-02" rms="2.4249403178691864e-01" purity="2.8529560565948486e-01" nType="0">
          <Node pos="l" depth="2" NCoef="0" IVar="2" Cut="4.5840969848632812e+02" cType="1" res="-2.0097889006137848e-02" rms="2.3376052081584930e-01" purity="1.4241181313991547e-01" nType="0">
            <Node pos="l" depth="3" NCoef="0" IVar="-1" Cut="0.0000000000000000e+00" cType="1" res="-4.2132236994802952e-03" rms="2.3150876164436340e-01" purity="9.8795995116233826e-02" nType="-99"/>
            <Node pos="r" depth="3" NCoef="0" IVar="-1" Cut="0.0000000000000000e+00" cType="1" res="-6.0650479048490524e-02" rms="2.3465850949287415e-01" purity="1.8566749989986420e-01" nType="-99"/>
          </Node>
          <Node pos="r" depth="2" NCoef="0" IVar="-1" Cut="0.0000000000000000e+00" cType="1" res="-2.2902938071638346e-03" rms="2.5495499372482300e-01" purity="5.0532215833663940e-01" nType="-99"/>
        </Node>
      </Node>
    </BinaryTree>
    <BinaryTree type="DecisionTree" boostWeight="1.0000000000000000e+00" itree="692">
      <Node pos="s" depth="0" NCoef="0" IVar="1" Cut="6.3493326306343079e-02" cType="1" res="-3.2938539516180754e-03" rms="2.3714058101177216e-01" purity="4.8770454525947571e-01" nType="0">
        <Node pos="l" depth="1" NCoef="0" IVar="2" Cut="5.6552575683593750e+02" cType="1" res="1.3981409138068557e-03" rms="2.3166079819202423e-01" purity="2.5604236125946045e-01" nType="0">
          <Node pos="l" depth="2" NCoef="0" IVar="6" Cut="7.5327670574188232e-01" cType="1" res="-1.6682075802236795e-03" rms="2.1272453665733337e-01" purity="1.5689142048358917e-01" nType="0">
            <Node pos="l" depth="3" NCoef="0" IVar="-1" Cut="0.0000000000000000e+00" cType="1" res="-1.0259458795189857e-02" rms="2.1835468709468842e-01" purity="1.7914317548274994e-01" nType="-99"/>
            <Node pos="r" depth="3" NCoef="0" IVar="-1" Cut="0.0000000000000000e+00" cType="1" res="1.8945442512631416e-02" rms="1.9978100061416626e-01" purity="1.0898954421281815e-01" nType="-99"/>
          </Node>
          <Node pos="r" depth="2" NCoef="0" IVar="6" Cut="-3.3133450895547867e-02" cType="1" res="6.9004190154373646e-03" rms="2.6214408874511719e-01" purity="4.3395954370498657e-01" nType="0">
            <Node pos="l" depth="3" NCoef="0" IVar="-1" Cut="0.0000000000000000e+00" cType="1" res="3.0984878540039062e-02" rms="2.6500725746154785e-01" purity="4.4745472073554993e-01" nType="-99"/>
            <Node pos="r" depth="3" NCoef="0" IVar="-1" Cut="0.0000000000000000e+00" cType="1" res="-1.2990930117666721e-02" rms="2.5839635729789734e-01" purity="4.2105215787887573e-01" nType="-99"/>
          </Node>
        </Node>
        <Node pos="r" depth="1" NCoef="0" IVar="9" Cut="-1.4584791660308838e+00" cType="1" res="-7.7671338804066181e-03" rms="2.4216488003730774e-01" purity="7.0856791734695435e-01" nType="0">
          <Node pos="l" depth="2" NCoef="0" IVar="-1" Cut="0.0000000000000000e+00" cType="1" res="-3.9195615798234940e-02" rms="3.0522510409355164e-01" purity="5.4999154806137085e-01" nType="-99"/>
          <Node pos="r" depth="2" NCoef="0" IVar="7" Cut="5.2741074562072754e-01" cType="1" res="-5.0660744309425354e-03" rms="2.3573926091194153e-01" purity="7.2225326299667358e-01" nType="0">
            <Node pos="l" depth="3" NCoef="0" IVar="-1" Cut="0.0000000000000000e+00" cType="1" res="-1.5217007137835026e-02" rms="2.3207223415374756e-01" purity="7.3577225208282471e-01" nType="-99"/>
            <Node pos="r" depth="3" NCoef="0" IVar="-1" Cut="0.0000000000000000e+00" cType="1" res="8.2646934315562248e-03" rms="2.4610751867294312e-01" purity="6.8169301748275757e-01" nType="-99"/>
          </Node>
        </Node>
      </Node>
    </BinaryTree>
    <BinaryTree type="DecisionTree" boostWeight="1.0000000000000000e+00" itree="693">
      <Node pos="s" depth="0" NCoef="0" IVar="9" Cut="-1.4659709930419922e+00" cType="1" res="-2.0289856474846601e-03" rms="2.3775932192802429e-01" purity="4.9869373440742493e-01" nType="0">
        <Node pos="l" depth="1" NCoef="0" IVar="5" Cut="1.5165010070800781e+02" cType="1" res="-1.6906036064028740e-02" rms="2.6404315233230591e-01" purity="3.0773007869720459e-01" nType="0">
          <Node pos="l" depth="2" NCoef="0" IVar="5" Cut="1.0917714691162109e+02" cType="1" res="-4.0586898103356361e-03" rms="2.4359084665775299e-01" purity="1.8959097564220428e-01" nType="0">
            <Node pos="l" depth="3" NCoef="0" IVar="-1" Cut="0.0000000000000000e+00" cType="1" res="-2.7802288532257080e-02" rms="2.0539978146553040e-01" purity="1.0096673667430878e-01" nType="-99"/>
            <Node pos="r" depth="3" NCoef="0" IVar="-1" Cut="0.0000000000000000e+00" cType="1" res="5.9211710467934608e-03" rms="2.7199286222457886e-01" purity="2.6620545983314514e-01" nType="-99"/>
          </Node>
          <Node pos="r" depth="2" NCoef="0" IVar="-1" Cut="0.0000000000000000e+00" cType="1" res="-4.3480195105075836e-02" rms="2.9191035032272339e-01" purity="4.9148723483085632e-01" nType="-99"/>
        </Node>
        <Node pos="r" depth="1" NCoef="0" IVar="6" Cut="1.2468390464782715e+00" cType="1" res="-3.7911505205556750e-04" rms="2.3460504412651062e-01" purity="5.1987171173095703e-01" nType="0">
          <Node pos="l" depth="2" NCoef="0" IVar="7" Cut="1.4675134420394897e+00" cType="1" res="5.5550126126036048e-04" rms="2.3855419456958771e-01" purity="5.5487108230590820e-01" nType="0">
            <Node pos="l" depth="3" NCoef="0" IVar="-1" Cut="0.0000000000000000e+00" cType="1" res="-4.0776372770778835e-04" rms="2.3915505409240723e-01" purity="5.7852238416671753e-01" nType="-99"/>
            <Node pos="r" depth="3" NCoef="0" IVar="-1" Cut="0.0000000000000000e+00" cType="1" res="2.5955142453312874e-02" rms="2.2813630104064941e-01" purity="1.6918313503265381e-01" nType="-99"/>
          </Node>
          <Node pos="r" depth="2" NCoef="0" IVar="1" Cut="2.1866528317332268e-02" cType="1" res="-1.0774712078273296e-02" rms="1.8476438522338867e-01" purity="1.3057915866374969e-01" nType="0">
            <Node pos="l" depth="3" NCoef="0" IVar="-1" Cut="0.0000000000000000e+00" cType="1" res="3.9848061278462410e-03" rms="1.3729265332221985e-01" purity="3.6047041416168213e-02" nType="-99"/>
            <Node pos="r" depth="3" NCoef="0" IVar="-1" Cut="0.0000000000000000e+00" cType="1" res="-3.6846622824668884e-02" rms="2.2614891827106476e-01" purity="2.3769856989383698e-01" nType="-99"/>
          </Node>
        </Node>
      </Node>
    </BinaryTree>
    <BinaryTree type="DecisionTree" boostWeight="1.0000000000000000e+00" itree="694">
      <Node pos="s" depth="0" NCoef="0" IVar="1" Cut="6.0547139495611191e-02" cType="1" res="-7.6180373298484483e-07" rms="2.4499121308326721e-01" purity="5.0258320569992065e-01" nType="0">
        <Node pos="l" depth="1" NCoef="0" IVar="6" Cut="-3.9534717798233032e-02" cType="1" res="4.2284154333174229e-03" rms="2.3601901531219482e-01" purity="2.5311726331710815e-01" nType="0">
          <Node pos="l" depth="2" NCoef="0" IVar="6" Cut="-1.2674309015274048e+00" cType="1" res="9.2292763292789459e-03" rms="2.4727395176887512e-01" purity="2.6165387034416199e-01" nType="0">
            <Node pos="l" depth="3" NCoef="0" IVar="-1" Cut="0.0000000000000000e+00" cType="1" res="-2.8022374026477337e-03" rms="1.6637346148490906e-01" purity="6.6109083592891693e-02" nType="-99"/>
            <Node pos="r" depth="3" NCoef="0" IVar="-1" Cut="0.0000000000000000e+00" cType="1" res="1.9357899203896523e-02" rms="2.7499669790267944e-01" purity="3.4662872552871704e-01" nType="-99"/>
          </Node>
          <Node pos="r" depth="2" NCoef="0" IVar="9" Cut="1.1938160657882690e+00" cType="1" res="-3.6515126703307033e-04" rms="2.2508773207664490e-01" purity="2.4527589976787567e-01" nType="0">
            <Node pos="l" depth="3" NCoef="0" IVar="-1" Cut="0.0000000000000000e+00" cType="1" res="4.4230050407350063e-03" rms="2.2876000404357910e-01" purity="2.6629841327667236e-01" nType="-99"/>
            <Node pos="r" depth="3" NCoef="0" IVar="-1" Cut="0.0000000000000000e+00" cType="1" res="-2.5052482262253761e-02" rms="2.0719861984252930e-01" purity="1.5008699893951416e-01" nType="-99"/>
          </Node>
        </Node>
        <Node pos="r" depth="1" NCoef="0" IVar="0" Cut="1.8162955322265625e+03" cType="1" res="-3.7067721132189035e-03" rms="2.5253340601921082e-01" purity="7.2118914127349854e-01" nType="0">
          <Node pos="l" depth="2" NCoef="0" IVar="1" Cut="1.3829061388969421e-01" cType="1" res="6.2539866194128990e-03" rms="3.1050196290016174e-01" purity="1.5160335600376129e-01" nType="0">
            <Node pos="l" depth="3" NCoef="0" IVar="-1" Cut="0.0000000000000000e+00" cType="1" res="1.7429269850254059e-02" rms="2.9899176955223083e-01" purity="1.3816745579242706e-01" nType="-99"/>
            <Node pos="r" depth="3" NCoef="0" IVar="-1" Cut="0.0000000000000000e+00" cType="1" res="-2.0370963960886002e-02" rms="3.4719932079315186e-01" purity="2.0032840967178345e-01" nType="-99"/>
          </Node>
          <Node pos="r" depth="2" NCoef="0" IVar="0" Cut="2.3809682617187500e+03" cType="1" res="-6.6450941376388073e-03" rms="2.3260964453220367e-01" purity="8.8921117782592773e-01" nType="0">
            <Node pos="l" depth="3" NCoef="0" IVar="-1" Cut="0.0000000000000000e+00" cType="1" res="-1.2852077372372150e-02" rms="3.3766245841979980e-01" purity="7.2858011722564697e-01" nType="-99"/>
            <Node pos="r" depth="3" NCoef="0" IVar="-1" Cut="0.0000000000000000e+00" cType="1" res="-9.4353631138801575e-03" rms="1.5212404727935791e-01" purity="9.7207117080688477e-01" nType="-99"/>
          </Node>
        </Node>
      </Node>
    </BinaryTree>
    <BinaryTree type="DecisionTree" boostWeight="1.0000000000000000e+00" itree="695">
      <Node pos="s" depth="0" NCoef="0" IVar="2" Cut="4.2592266845703125e+02" cType="1" res="-1.3795536942780018e-03" rms="2.3532693088054657e-01" purity="4.8700347542762756e-01" nType="0">
        <Node pos="l" depth="1" NCoef="0" IVar="9" Cut="-9.3019014596939087e-01" cType="1" res="-9.3650305643677711e-03" rms="2.4408018589019775e-01" purity="2.7739849686622620e-01" nType="0">
          <Node pos="l" depth="2" NCoef="0" IVar="0" Cut="1.5702247314453125e+03" cType="1" res="-2.8192268684506416e-02" rms="2.2067712247371674e-01" purity="1.9805753231048584e-01" nType="0">
            <Node pos="l" depth="3" NCoef="0" IVar="-1" Cut="0.0000000000000000e+00" cType="1" res="-6.0021325945854187e-02" rms="1.1386518925428391e-01" purity="1.3232532888650894e-02" nType="-99"/>
            <Node pos="r" depth="3" NCoef="0" IVar="-1" Cut="0.0000000000000000e+00" cType="1" res="-3.7745554000139236e-02" rms="2.9624658823013306e-01" purity="4.0183469653129578e-01" nType="-99"/>
          </Node>
          <Node pos="r" depth="2" NCoef="0" IVar="3" Cut="2.0631306457519531e+02" cType="1" res="-3.2134004868566990e-03" rms="2.5094890594482422e-01" purity="3.0332246422767639e-01" nType="0">
            <Node pos="l" depth="3" NCoef="0" IVar="-1" Cut="0.0000000000000000e+00" cType="1" res="-3.4160774201154709e-02" rms="2.0684064924716949e-01" purity="5.9679362922906876e-02" nType="-99"/>
            <Node pos="r" depth="3" NCoef="0" IVar="-1" Cut="0.0000000000000000e+00" cType="1" res="4.5383404767562752e-07" rms="2.5983983278274536e-01" purity="3.5879141092300415e-01" nType="-99"/>
          </Node>
        </Node>
        <Node pos="r" depth="1" NCoef="0" IVar="2" Cut="5.2802850341796875e+02" cType="1" res="2.3161827120929956e-03" rms="2.3107029497623444e-01" purity="5.8401012420654297e-01" nType="0">
          <Node pos="l" depth="2" NCoef="0" IVar="8" Cut="-9.3300437927246094e-01" cType="1" res="7.0627988316118717e-03" rms="2.3347733914852142e-01" purity="4.6787551045417786e-01" nType="0">
            <Node pos="l" depth="3" NCoef="0" IVar="-1" Cut="0.0000000000000000e+00" cType="1" res="-2.2470235824584961e-02" rms="2.1653714776039124e-01" purity="2.9186478257179260e-01" nType="-99"/>
            <Node pos="r" depth="3" NCoef="0" IVar="-1" Cut="0.0000000000000000e+00" cType="1" res="1.9888279959559441e-02" rms="2.3711289465427399e-01" purity="5.1012712717056274e-01" nType="-99"/>
          </Node>
          <Node pos="r" depth="2" NCoef="0" IVar="1" Cut="1.0622987151145935e-01" cType="1" res="-3.1255825888365507e-04" rms="2.2968420386314392e-01" purity="6.4832711219787598e-01" nType="0">
            <Node pos="l" depth="3" NCoef="0" IVar="-1" Cut="0.0000000000000000e+00" cType="1" res="5.6866956874728203e-03" rms="2.4964416027069092e-01" purity="5.1880043745040894e-01" nType="-99"/>
            <Node pos="r" depth="3" NCoef="0" IVar="-1" Cut="0.0000000000000000e+00" cType="1" res="-2.9584961012005806e-02" rms="1.7786595225334167e-01" purity="9.3263763189315796e-01" nType="-99"/>
          </Node>
        </Node>
      </Node>
    </BinaryTree>
    <BinaryTree type="DecisionTree" boostWeight="1.0000000000000000e+00" itree="696">
      <Node pos="s" depth="0" NCoef="0" IVar="9" Cut="9.3330574035644531e-01" cType="1" res="1.9343433668836951e-03" rms="2.4137188494205475e-01" purity="4.9778011441230774e-01" nType="0">
        <Node pos="l" depth="1" NCoef="0" IVar="1" Cut="4.0386237204074860e-02" cType="1" res="4.2534586973488331e-03" rms="2.4028366804122925e-01" purity="5.2380532026290894e-01" nType="0">
          <Node pos="l" depth="2" NCoef="0" IVar="9" Cut="2.2202412784099579e-01" cType="1" res="-2.2961150389164686e-03" rms="2.1975411474704742e-01" purity="1.9802002608776093e-01" nType="0">
            <Node pos="l" depth="3" NCoef="0" IVar="-1" Cut="0.0000000000000000e+00" cType="1" res="-1.2473526410758495e-02" rms="2.1640028059482574e-01" purity="1.9073644280433655e-01" nType="-99"/>
            <Node pos="r" depth="3" NCoef="0" IVar="-1" Cut="0.0000000000000000e+00" cType="1" res="1.7878165468573570e-02" rms="2.2889679670333862e-01" purity="2.1927650272846222e-01" nType="-99"/>
          </Node>
          <Node pos="r" depth="2" NCoef="0" IVar="0" Cut="2.0415572509765625e+03" cType="1" res="7.4723339639604092e-03" rms="2.4969252943992615e-01" purity="6.8391692638397217e-01" nType="0">
            <Node pos="l" depth="3" NCoef="0" IVar="-1" Cut="0.0000000000000000e+00" cType="1" res="1.5463384799659252e-02" rms="3.1958505511283875e-01" purity="2.3459592461585999e-01" nType="-99"/>
            <Node pos="r" depth="3" NCoef="0" IVar="-1" Cut="0.0000000000000000e+00" cType="1" res="6.1840321868658066e-03" rms="1.9958448410034180e-01" purity="9.3741321563720703e-01" nType="-99"/>
          </Node>
        </Node>
        <Node pos="r" depth="1" NCoef="0" IVar="6" Cut="-7.7141547203063965e-01" cType="1" res="-7.1756020188331604e-03" rms="2.4538788199424744e-01" purity="3.9554774761199951e-01" nType="0">
          <Node pos="l" depth="2" NCoef="0" IVar="-1" Cut="0.0000000000000000e+00" cType="1" res="-4.0380697697401047e-02" rms="2.0012991130352020e-01" purity="1.9619597494602203e-01" nType="-99"/>
          <Node pos="r" depth="2" NCoef="0" IVar="9" Cut="1.1110446453094482e+00" cType="1" res="-3.6865992005914450e-03" rms="2.5412720441818237e-01" purity="4.3937596678733826e-01" nType="0">
            <Node pos="l" depth="3" NCoef="0" IVar="-1" Cut="0.0000000000000000e+00" cType="1" res="-3.1849998980760574e-02" rms="2.3083202540874481e-01" purity="5.1956349611282349e-01" nType="-99"/>
            <Node pos="r" depth="3" NCoef="0" IVar="-1" Cut="0.0000000000000000e+00" cType="1" res="1.1668110964819789e-03" rms="2.6002597808837891e-01" purity="4.1718465089797974e-01" nType="-99"/>
          </Node>
        </Node>
      </Node>
    </BinaryTree>
    <BinaryTree type="DecisionTree" boostWeight="1.0000000000000000e+00" itree="697">
      <Node pos="s" depth="0" NCoef="0" IVar="7" Cut="-6.6559052467346191e-01" cType="1" res="-3.2880439539439976e-04" rms="2.4355563521385193e-01" purity="4.9623093008995056e-01" nType="0">
        <Node pos="l" depth="1" NCoef="0" IVar="8" Cut="-6.6322886943817139e-01" cType="1" res="-7.7034253627061844e-03" rms="2.4551910161972046e-01" purity="3.6961483955383301e-01" nType="0">
          <Node pos="l" depth="2" NCoef="0" IVar="5" Cut="1.3793769836425781e+02" cType="1" res="5.8449534699320793e-03" rms="2.4105048179626465e-01" purity="3.2571968436241150e-01" nType="0">
            <Node pos="l" depth="3" NCoef="0" IVar="-1" Cut="0.0000000000000000e+00" cType="1" res="-1.1790457181632519e-02" rms="2.1191020309925079e-01" purity="7.7968657016754150e-02" nType="-99"/>
            <Node pos="r" depth="3" NCoef="0" IVar="-1" Cut="0.0000000000000000e+00" cType="1" res="2.0796759054064751e-02" rms="2.6544952392578125e-01" purity="5.6182515621185303e-01" nType="-99"/>
          </Node>
          <Node pos="r" depth="2" NCoef="0" IVar="5" Cut="1.6625303649902344e+02" cType="1" res="-1.3475792482495308e-02" rms="2.4717296659946442e-01" purity="3.8831666111946106e-01" nType="0">
            <Node pos="l" depth="3" NCoef="0" IVar="-1" Cut="0.0000000000000000e+00" cType="1" res="-1.0016547515988350e-02" rms="2.2942984104156494e-01" purity="1.5762837231159210e-01" nType="-99"/>
            <Node pos="r" depth="3" NCoef="0" IVar="-1" Cut="0.0000000000000000e+00" cType="1" res="-3.5012081265449524e-02" rms="2.7141240239143372e-01" purity="7.3729383945465088e-01" nType="-99"/>
          </Node>
        </Node>
        <Node pos="r" depth="1" NCoef="0" IVar="2" Cut="4.2598275756835938e+02" cType="1" res="1.9750264473259449e-03" rms="2.4289309978485107e-01" purity="5.3578573465347290e-01" nType="0">
          <Node pos="l" depth="2" NCoef="0" IVar="0" Cut="1.7191228027343750e+03" cType="1" res="8.9281219989061356e-03" rms="2.7105566859245300e-01" purity="3.3584490418434143e-01" nType="0">
            <Node pos="l" depth="3" NCoef="0" IVar="-1" Cut="0.0000000000000000e+00" cType="1" res="3.6492560058832169e-02" rms="2.4207554757595062e-01" purity="8.0314241349697113e-02" nType="-99"/>
            <Node pos="r" depth="3" NCoef="0" IVar="-1" Cut="0.0000000000000000e+00" cType="1" res="-5.2965814247727394e-03" rms="3.1008458137512207e-01" purity="7.3132163286209106e-01" nType="-99"/>
          </Node>
          <Node pos="r" depth="2" NCoef="0" IVar="3" Cut="2.3945591735839844e+02" cType="1" res="-9.2328008031472564e-04" rms="2.3007643222808838e-01" purity="6.1912852525711060e-01" nType="0">
            <Node pos="l" depth="3" NCoef="0" IVar="-1" Cut="0.0000000000000000e+00" cType="1" res="-2.8831493109464645e-02" rms="1.9140271842479706e-01" purity="1.1006008088588715e-01" nType="-99"/>
            <Node pos="r" depth="3" NCoef="0" IVar="-1" Cut="0.0000000000000000e+00" cType="1" res="2.5643149856477976e-03" rms="2.3684670031070709e-01" purity="7.1897184848785400e-01" nType="-99"/>
          </Node>
        </Node>
      </Node>
    </BinaryTree>
    <BinaryTree type="DecisionTree" boostWeight="1.0000000000000000e+00" itree="698">
      <Node pos="s" depth="0" NCoef="0" IVar="9" Cut="-3.9659306406974792e-01" cType="1" res="1.4620759757235646e-03" rms="2.4214234948158264e-01" purity="5.0549095869064331e-01" nType="0">
        <Node pos="l" depth="1" NCoef="0" IVar="2" Cut="3.1245083618164062e+02" cType="1" res="6.6257091239094734e-03" rms="2.5005605816841125e-01" purity="4.8180606961250305e-01" nType="0">
          <Node pos="l" depth="2" NCoef="0" IVar="-1" Cut="0.0000000000000000e+00" cType="1" res="3.6169931292533875e-02" rms="2.7189332246780396e-01" purity="2.2729103267192841e-01" nType="-99"/>
          <Node pos="r" depth="2" NCoef="0" IVar="6" Cut="2.4798038601875305e-01" cType="1" res="5.0454856827855110e-03" rms="2.4801383912563324e-01" purity="5.0381892919540405e-01" nType="0">
            <Node pos="l" depth="3" NCoef="0" IVar="-1" Cut="0.0000000000000000e+00" cType="1" res="1.3534081168472767e-02" rms="2.5223717093467712e-01" purity="5.4208511114120483e-01" nType="-99"/>
            <Node pos="r" depth="3" NCoef="0" IVar="-1" Cut="0.0000000000000000e+00" cType="1" res="-3.0752723105251789e-03" rms="2.4016189575195312e-01" purity="4.3573194742202759e-01" nType="-99"/>
          </Node>
        </Node>
        <Node pos="r" depth="1" NCoef="0" IVar="6" Cut="-8.1300312280654907e-01" cType="1" res="-1.6299670096486807e-03" rms="2.3722340166568756e-01" purity="5.1967370510101318e-01" nType="0">
          <Node pos="l" depth="2" NCoef="0" IVar="2" Cut="5.0006677246093750e+02" cType="1" res="1.1372731998562813e-02" rms="2.2846603393554688e-01" purity="2.9321885108947754e-01" nType="0">
            <Node pos="l" depth="3" NCoef="0" IVar="-1" Cut="0.0000000000000000e+00" cType="1" res="3.4695412963628769e-02" rms="2.3827387392520905e-01" purity="2.4971188604831696e-01" nType="-99"/>
            <Node pos="r" depth="3" NCoef="0" IVar="-1" Cut="0.0000000000000000e+00" cType="1" res="-3.3199103199876845e-04" rms="2.1189609169960022e-01" purity="3.6048641800880432e-01" nType="-99"/>
          </Node>
          <Node pos="r" depth="2" NCoef="0" IVar="9" Cut="9.7312366962432861e-01" cType="1" res="-3.9887428283691406e-03" rms="2.3870174586772919e-01" purity="5.6075417995452881e-01" nType="0">
            <Node pos="l" depth="3" NCoef="0" IVar="-1" Cut="0.0000000000000000e+00" cType="1" res="-1.2539211660623550e-02" rms="2.3128966987133026e-01" purity="6.2052571773529053e-01" nType="-99"/>
            <Node pos="r" depth="3" NCoef="0" IVar="-1" Cut="0.0000000000000000e+00" cType="1" res="3.4352166112512350e-03" rms="2.5449997186660767e-01" purity="4.2608228325843811e-01" nType="-99"/>
          </Node>
        </Node>
      </Node>
    </BinaryTree>
    <BinaryTree type="DecisionTree" boostWeight="1.0000000000000000e+00" itree="699">
      <Node pos="s" depth="0" NCoef="0" IVar="7" Cut="-9.2907935380935669e-01" cType="1" res="-2.2350349463522434e-03" rms="2.3836117982864380e-01" purity="5.0163382291793823e-01" nType="0">
        <Node pos="l" depth="1" NCoef="0" IVar="9" Cut="-1.1966334581375122e+00" cType="1" res="-1.0692183859646320e-02" rms="2.3315489292144775e-01" purity="2.8419086337089539e-01" nType="0">
          <Node pos="l" depth="2" NCoef="0" IVar="-1" Cut="0.0000000000000000e+00" cType="1" res="-5.1168140023946762e-02" rms="2.3565739393234253e-01" purity="1.7641536891460419e-01" nType="-99"/>
          <Node pos="r" depth="2" NCoef="0" IVar="1" Cut="3.0817581340670586e-02" cType="1" res="-4.2895376682281494e-03" rms="2.3206877708435059e-01" purity="3.1251230835914612e-01" nType="0">
            <Node pos="l" depth="3" NCoef="0" IVar="-1" Cut="0.0000000000000000e+00" cType="1" res="-4.7951459884643555e-02" rms="1.6310329735279083e-01" purity="5.5754385888576508e-02" nType="-99"/>
            <Node pos="r" depth="3" NCoef="0" IVar="-1" Cut="0.0000000000000000e+00" cType="1" res="4.8455107025802135e-03" rms="2.7164518833160400e-01" purity="5.0175178050994873e-01" nType="-99"/>
          </Node>
        </Node>
        <Node pos="r" depth="1" NCoef="0" IVar="9" Cut="-1.4654859304428101e+00" cType="1" res="-5.7694123825058341e-04" rms="2.3933359980583191e-01" purity="5.4426532983779907e-01" nType="0">
          <Node pos="l" depth="2" NCoef="0" IVar="1" Cut="5.7247679680585861e-02" cType="1" res="1.4198526740074158e-02" rms="2.6822140812873840e-01" purity="3.7322908639907837e-01" nType="0">
            <Node pos="l" depth="3" NCoef="0" IVar="-1" Cut="0.0000000000000000e+00" cType="1" res="-4.9965642392635345e-03" rms="2.1791234612464905e-01" purity="1.4810399711132050e-01" nType="-99"/>
            <Node pos="r" depth="3" NCoef="0" IVar="-1" Cut="0.0000000000000000e+00" cType="1" res="3.3282838761806488e-02" rms="3.1671991944313049e-01" purity="6.4112198352813721e-01" nType="-99"/>
          </Node>
          <Node pos="r" depth="2" NCoef="0" IVar="2" Cut="4.4365881347656250e+02" cType="1" res="-2.1346989087760448e-03" rms="2.3602820932865143e-01" purity="5.6229740381240845e-01" nType="0">
            <Node pos="l" depth="3" NCoef="0" IVar="-1" Cut="0.0000000000000000e+00" cType="1" res="-1.1981525458395481e-02" rms="2.5809419155120850e-01" purity="3.4681707620620728e-01" nType="-99"/>
            <Node pos="r" depth="3" NCoef="0" IVar="-1" Cut="0.0000000000000000e+00" cType="1" res="2.0982131827622652e-03" rms="2.2390452027320862e-01" purity="6.7187869548797607e-01" nType="-99"/>
          </Node>
        </Node>
      </Node>
    </BinaryTree>
    <BinaryTree type="DecisionTree" boostWeight="1.0000000000000000e+00" itree="700">
      <Node pos="s" depth="0" NCoef="0" IVar="5" Cut="1.1808435058593750e+02" cType="1" res="-1.1078130046371371e-04" rms="2.3876455426216125e-01" purity="5.0390958786010742e-01" nType="0">
        <Node pos="l" depth="1" NCoef="0" IVar="0" Cut="1.6216394042968750e+03" cType="1" res="5.7751969434320927e-03" rms="2.1852818131446838e-01" purity="1.0776939988136292e-01" nType="0">
          <Node pos="l" depth="2" NCoef="0" IVar="7" Cut="1.3441427052021027e-01" cType="1" res="-3.5798125900328159e-03" rms="1.1329970508813858e-01" purity="1.4809387736022472e-02" nType="0">
            <Node pos="l" depth="3" NCoef="0" IVar="-1" Cut="0.0000000000000000e+00" cType="1" res="-5.2542515099048615e-02" rms="9.5631524920463562e-02" purity="9.9226171150803566e-03" nType="-99"/>
            <Node pos="r" depth="3" NCoef="0" IVar="-1" Cut="0.0000000000000000e+00" cType="1" res="2.4810915812849998e-02" rms="1.3259398937225342e-01" purity="2.1220706403255463e-02" nType="-99"/>
          </Node>
          <Node pos="r" depth="2" NCoef="0" IVar="1" Cut="5.5955026298761368e-02" cType="1" res="1.6561318188905716e-02" rms="2.9630511999130249e-01" purity="2.1495027840137482e-01" nType="0">
            <Node pos="l" depth="3" NCoef="0" IVar="-1" Cut="0.0000000000000000e+00" cType="1" res="1.0625205002725124e-02" rms="2.4886056780815125e-01" purity="1.2256193161010742e-01" nType="-99"/>
            <Node pos="r" depth="3" NCoef="0" IVar="-1" Cut="0.0000000000000000e+00" cType="1" res="2.9847318306565285e-02" rms="3.8541057705879211e-01" purity="4.3492439389228821e-01" nType="-99"/>
          </Node>
        </Node>
        <Node pos="r" depth="1" NCoef="0" IVar="7" Cut="-6.6338729858398438e-01" cType="1" res="-2.1331892348825932e-03" rms="2.4530012905597687e-01" purity="6.4002239704132080e-01" nType="0">
          <Node pos="l" depth="2" NCoef="0" IVar="6" Cut="2.4434673786163330e-01" cType="1" res="-7.8968983143568039e-03" rms="2.5888028740882874e-01" purity="4.9227735400199890e-01" nType="0">
            <Node pos="l" depth="3" NCoef="0" IVar="-1" Cut="0.0000000000000000e+00" cType="1" res="-1.1741046328097582e-03" rms="2.6562586426734924e-01" purity="5.7022827863693237e-01" nType="-99"/>
            <Node pos="r" depth="3" NCoef="0" IVar="-1" Cut="0.0000000000000000e+00" cType="1" res="-2.7912899851799011e-02" rms="2.4658080935478210e-01" purity="3.6027005314826965e-01" nType="-99"/>
          </Node>
          <Node pos="r" depth="2" NCoef="0" IVar="7" Cut="-1.6881486773490906e-01" cType="1" res="-4.3718045344576240e-04" rms="2.4113227427005768e-01" purity="6.8349736928939819e-01" nType="0">
            <Node pos="l" depth="3" NCoef="0" IVar="-1" Cut="0.0000000000000000e+00" cType="1" res="1.3824318535625935e-02" rms="2.3457102477550507e-01" purity="7.6837182044982910e-01" nType="-99"/>
            <Node pos="r" depth="3" NCoef="0" IVar="-1" Cut="0.0000000000000000e+00" cType="1" res="-4.8477803356945515e-03" rms="2.4320800602436066e-01" purity="6.5538626909255981e-01" nType="-99"/>
          </Node>
        </Node>
      </Node>
    </BinaryTree>
    <BinaryTree type="DecisionTree" boostWeight="1.0000000000000000e+00" itree="701">
      <Node pos="s" depth="0" NCoef="0" IVar="5" Cut="1.9718518066406250e+02" cType="1" res="-1.3583544641733170e-03" rms="2.3628461360931396e-01" purity="4.9705991148948669e-01" nType="0">
        <Node pos="l" depth="1" NCoef="0" IVar="6" Cut="1.7146608233451843e-01" cType="1" res="-3.4581560175865889e-03" rms="2.5248217582702637e-01" purity="3.0102041363716125e-01" nType="0">
          <Node pos="l" depth="2" NCoef="0" IVar="5" Cut="1.6251322937011719e+02" cType="1" res="-7.1920109912753105e-03" rms="2.5831970572471619e-01" purity="3.2187449932098389e-01" nType="0">
            <Node pos="l" depth="3" NCoef="0" IVar="-1" Cut="0.0000000000000000e+00" cType="1" res="-5.4478738456964493e-03" rms="2.5216752290725708e-01" purity="2.2714704275131226e-01" nType="-99"/>
            <Node pos="r" depth="3" NCoef="0" IVar="-1" Cut="0.0000000000000000e+00" cType="1" res="-2.1792171522974968e-02" rms="2.7593415975570679e-01" purity="6.1043995618820190e-01" nType="-99"/>
          </Node>
          <Node pos="r" depth="2" NCoef="0" IVar="6" Cut="2.9657751321792603e-01" cType="1" res="1.3471988495439291e-03" rms="2.4468086659908295e-01" purity="2.7418184280395508e-01" nType="0">
            <Node pos="l" depth="3" NCoef="0" IVar="-1" Cut="0.0000000000000000e+00" cType="1" res="2.6961600407958031e-02" rms="2.7167439460754395e-01" purity="4.3771860003471375e-01" nType="-99"/>
            <Node pos="r" depth="3" NCoef="0" IVar="-1" Cut="0.0000000000000000e+00" cType="1" res="-1.7636936390772462e-03" rms="2.4083931744098663e-01" purity="2.5291255116462708e-01" nType="-99"/>
          </Node>
        </Node>
        <Node pos="r" depth="1" NCoef="0" IVar="5" Cut="2.1939390563964844e+02" cType="1" res="2.9564062133431435e-03" rms="1.9883382320404053e-01" purity="8.9989018440246582e-01" nType="0">
          <Node pos="l" depth="2" NCoef="0" IVar="7" Cut="-9.3124695122241974e-02" cType="1" res="1.5730084851384163e-02" rms="2.6061418652534485e-01" purity="7.9091459512710571e-01" nType="0">
            <Node pos="l" depth="3" NCoef="0" IVar="-1" Cut="0.0000000000000000e+00" cType="1" res="4.5875489711761475e-02" rms="2.5453713536262512e-01" purity="7.8896707296371460e-01" nType="-99"/>
            <Node pos="r" depth="3" NCoef="0" IVar="-1" Cut="0.0000000000000000e+00" cType="1" res="1.4630010118708014e-03" rms="2.6532018184661865e-01" purity="7.9273027181625366e-01" nType="-99"/>
          </Node>
          <Node pos="r" depth="2" NCoef="0" IVar="6" Cut="-4.5930418372154236e-01" cType="1" res="-1.0948579292744398e-03" rms="1.7454013228416443e-01" purity="9.3445253372192383e-01" nType="0">
            <Node pos="l" depth="3" NCoef="0" IVar="-1" Cut="0.0000000000000000e+00" cType="1" res="-2.3315502330660820e-02" rms="2.1148031949996948e-01" purity="8.8817554712295532e-01" nType="-99"/>
            <Node pos="r" depth="3" NCoef="0" IVar="-1" Cut="0.0000000000000000e+00" cType="1" res="5.7829474098980427e-03" rms="1.6199126839637756e-01" purity="9.4804245233535767e-01" nType="-99"/>
          </Node>
        </Node>
      </Node>
    </BinaryTree>
    <BinaryTree type="DecisionTree" boostWeight="1.0000000000000000e+00" itree="702">
      <Node pos="s" depth="0" NCoef="0" IVar="9" Cut="1.9996509552001953e+00" cType="1" res="-1.6595879569649696e-03" rms="2.3189106583595276e-01" purity="5.0451862812042236e-01" nType="0">
        <Node pos="l" depth="1" NCoef="0" IVar="8" Cut="6.6589754819869995e-01" cType="1" res="-6.9193821400403976e-04" rms="2.3269672691822052e-01" purity="5.1941537857055664e-01" nType="0">
          <Node pos="l" depth="2" NCoef="0" IVar="4" Cut="1.7952009582519531e+02" cType="1" res="2.1498952992260456e-03" rms="2.2973915934562683e-01" purity="5.5095827579498291e-01" nType="0">
            <Node pos="l" depth="3" NCoef="0" IVar="-1" Cut="0.0000000000000000e+00" cType="1" res="-1.1393162421882153e-02" rms="2.1549430489540100e-01" purity="1.2043554335832596e-01" nType="-99"/>
            <Node pos="r" depth="3" NCoef="0" IVar="-1" Cut="0.0000000000000000e+00" cType="1" res="8.4036393091082573e-03" rms="2.3460823297500610e-01" purity="7.0656812191009521e-01" nType="-99"/>
          </Node>
          <Node pos="r" depth="2" NCoef="0" IVar="0" Cut="2.3013894042968750e+03" cType="1" res="-8.9486902579665184e-03" rms="2.4089385569095612e-01" purity="4.2776963114738464e-01" nType="0">
            <Node pos="l" depth="3" NCoef="0" IVar="-1" Cut="0.0000000000000000e+00" cType="1" res="-1.9906682893633842e-02" rms="2.5223788619041443e-01" purity="1.9489619135856628e-01" nType="-99"/>
            <Node pos="r" depth="3" NCoef="0" IVar="-1" Cut="0.0000000000000000e+00" cType="1" res="6.0588908381760120e-03" rms="2.1504376828670502e-01" purity="9.0977877378463745e-01" nType="-99"/>
          </Node>
        </Node>
        <Node pos="r" depth="1" NCoef="0" IVar="-1" Cut="0.0000000000000000e+00" cType="1" res="-5.0908941775560379e-02" rms="2.0742465555667877e-01" purity="1.0460145771503448e-01" nType="-99"/>
      </Node>
    </BinaryTree>
    <BinaryTree type="DecisionTree" boostWeight="1.0000000000000000e+00" itree="703">
      <Node pos="s" depth="0" NCoef="0" IVar="2" Cut="8.8714929199218750e+02" cType="1" res="7.0463854353874922e-04" rms="2.3905152082443237e-01" purity="4.9725219607353210e-01" nType="0">
        <Node pos="l" depth="1" NCoef="0" IVar="6" Cut="-3.5372510552406311e-01" cType="1" res="1.6701270360499620e-03" rms="2.3649702966213226e-01" purity="4.8453089594841003e-01" nType="0">
          <Node pos="l" depth="2" NCoef="0" IVar="0" Cut="1.7054094238281250e+03" cType="1" res="6.6035720519721508e-03" rms="2.3566386103630066e-01" purity="4.1389310359954834e-01" nType="0">
            <Node pos="l" depth="3" NCoef="0" IVar="-1" Cut="0.0000000000000000e+00" cType="1" res="-1.3817602768540382e-02" rms="1.5581022202968597e-01" purity="2.8981059789657593e-02" nType="-99"/>
            <Node pos="r" depth="3" NCoef="0" IVar="-1" Cut="0.0000000000000000e+00" cType="1" res="1.6931246966123581e-02" rms="2.7409672737121582e-01" purity="6.5649443864822388e-01" nType="-99"/>
          </Node>
          <Node pos="r" depth="2" NCoef="0" IVar="1" Cut="8.0575063824653625e-02" cType="1" res="-8.6499552708119154e-04" rms="2.3688405752182007e-01" purity="5.2082914113998413e-01" nType="0">
            <Node pos="l" depth="3" NCoef="0" IVar="-1" Cut="0.0000000000000000e+00" cType="1" res="-9.5214443281292915e-03" rms="2.3531372845172882e-01" purity="2.9506105184555054e-01" nType="-99"/>
            <Node pos="r" depth="3" NCoef="0" IVar="-1" Cut="0.0000000000000000e+00" cType="1" res="7.4948803521692753e-03" rms="2.3851694166660309e-01" purity="7.7391165494918823e-01" nType="-99"/>
          </Node>
        </Node>
        <Node pos="r" depth="1" NCoef="0" IVar="-1" Cut="0.0000000000000000e+00" cType="1" res="-2.3147324100136757e-02" rms="2.8401011228561401e-01" purity="7.4748474359512329e-01" nType="-99"/>
      </Node>
    </BinaryTree>
    <BinaryTree type="DecisionTree" boostWeight="1.0000000000000000e+00" itree="704">
      <Node pos="s" depth="0" NCoef="0" IVar="8" Cut="-1.1998928785324097e+00" cType="1" res="4.1099209338426590e-03" rms="2.4494792520999908e-01" purity="5.0643259286880493e-01" nType="0">
        <Node pos="l" depth="1" NCoef="0" IVar="1" Cut="3.7960872054100037e-02" cType="1" res="1.4751785434782505e-02" rms="2.5729244947433472e-01" purity="3.1865713000297546e-01" nType="0">
          <Node pos="l" depth="2" NCoef="0" IVar="7" Cut="1.3300172984600067e-01" cType="1" res="-1.7153068911284208e-03" rms="2.0712946355342865e-01" purity="1.0517891496419907e-01" nType="0">
            <Node pos="l" depth="3" NCoef="0" IVar="-1" Cut="0.0000000000000000e+00" cType="1" res="3.1616102904081345e-02" rms="2.2335465252399445e-01" purity="1.3311722874641418e-01" nType="-99"/>
            <Node pos="r" depth="3" NCoef="0" IVar="-1" Cut="0.0000000000000000e+00" cType="1" res="-5.4581232368946075e-02" rms="1.8284076452255249e-01" purity="6.9853596389293671e-02" nType="-99"/>
          </Node>
          <Node pos="r" depth="2" NCoef="0" IVar="9" Cut="1.3650377094745636e-01" cType="1" res="2.9947422444820404e-02" rms="2.9532399773597717e-01" purity="5.1565223932266235e-01" nType="0">
            <Node pos="l" depth="3" NCoef="0" IVar="-1" Cut="0.0000000000000000e+00" cType="1" res="2.1691158413887024e-02" rms="2.8196182847023010e-01" purity="5.2064812183380127e-01" nType="-99"/>
            <Node pos="r" depth="3" NCoef="0" IVar="-1" Cut="0.0000000000000000e+00" cType="1" res="5.4166421294212341e-02" rms="3.1354117393493652e-01" purity="5.0818043947219849e-01" nType="-99"/>
          </Node>
        </Node>
        <Node pos="r" depth="1" NCoef="0" IVar="9" Cut="1.4663549661636353e+00" cType="1" res="2.5600299704819918e-03" rms="2.4305890500545502e-01" purity="5.3378033638000488e-01" nType="0">
          <Node pos="l" depth="2" NCoef="0" IVar="8" Cut="-6.2850713729858398e-01" cType="1" res="1.3799705775454640e-03" rms="2.4063135683536530e-01" purity="5.5470919609069824e-01" nType="0">
            <Node pos="l" depth="3" NCoef="0" IVar="-1" Cut="0.0000000000000000e+00" cType="1" res="-1.3739367946982384e-02" rms="2.4829897284507751e-01" purity="5.2737760543823242e-01" nType="-99"/>
            <Node pos="r" depth="3" NCoef="0" IVar="-1" Cut="0.0000000000000000e+00" cType="1" res="5.6970976293087006e-03" rms="2.3900477588176727e-01" purity="5.6022864580154419e-01" nType="-99"/>
          </Node>
          <Node pos="r" depth="2" NCoef="0" IVar="2" Cut="4.5757922363281250e+02" cType="1" res="1.3498752377927303e-02" rms="2.6425233483314514e-01" purity="3.3977788686752319e-01" nType="0">
            <Node pos="l" depth="3" NCoef="0" IVar="-1" Cut="0.0000000000000000e+00" cType="1" res="3.9925344288349152e-02" rms="2.8064119815826416e-01" purity="2.1021831035614014e-01" nType="-99"/>
            <Node pos="r" depth="3" NCoef="0" IVar="-1" Cut="0.0000000000000000e+00" cType="1" res="4.3510906398296356e-03" rms="2.4847674369812012e-01" purity="4.5364722609519958e-01" nType="-99"/>
          </Node>
        </Node>
      </Node>
    </BinaryTree>
    <BinaryTree type="DecisionTree" boostWeight="1.0000000000000000e+00" itree="705">
      <Node pos="s" depth="0" NCoef="0" IVar="8" Cut="1.1999537944793701e+00" cType="1" res="1.7690691165626049e-03" rms="2.4036304652690887e-01" purity="5.0284773111343384e-01" nType="0">
        <Node pos="l" depth="1" NCoef="0" IVar="8" Cut="-1.4655123949050903e+00" cType="1" res="3.4903273917734623e-03" rms="2.4082295596599579e-01" purity="5.3007197380065918e-01" nType="0">
          <Node pos="l" depth="2" NCoef="0" IVar="0" Cut="1.7483411865234375e+03" cType="1" res="1.5200604684650898e-02" rms="2.5453609228134155e-01" purity="2.4365842342376709e-01" nType="0">
            <Node pos="l" depth="3" NCoef="0" IVar="-1" Cut="0.0000000000000000e+00" cType="1" res="5.4978212574496865e-04" rms="1.7262953519821167e-01" purity="3.6152929067611694e-02" nType="-99"/>
            <Node pos="r" depth="3" NCoef="0" IVar="-1" Cut="0.0000000000000000e+00" cType="1" res="3.3645469695329666e-02" rms="3.3281207084655762e-01" purity="5.2050954103469849e-01" nType="-99"/>
          </Node>
          <Node pos="r" depth="2" NCoef="0" IVar="5" Cut="1.9751907348632812e+02" cType="1" res="2.3241422604769468e-03" rms="2.3938295245170593e-01" purity="5.5859476327896118e-01" nType="0">
            <Node pos="l" depth="3" NCoef="0" IVar="-1" Cut="0.0000000000000000e+00" cType="1" res="7.7827270142734051e-03" rms="2.6155018806457520e-01" purity="3.5620400309562683e-01" nType="-99"/>
            <Node pos="r" depth="3" NCoef="0" IVar="-1" Cut="0.0000000000000000e+00" cType="1" res="-8.0808438360691071e-03" rms="1.9565005600452423e-01" purity="9.0452378988265991e-01" nType="-99"/>
          </Node>
        </Node>
        <Node pos="r" depth="1" NCoef="0" IVar="6" Cut="4.8612451553344727e-01" cType="1" res="-1.0857836343348026e-02" rms="2.3657925426959991e-01" purity="3.0313515663146973e-01" nType="0">
          <Node pos="l" depth="2" NCoef="0" IVar="3" Cut="3.3546124267578125e+02" cType="1" res="-1.6278779134154320e-02" rms="2.4713379144668579e-01" purity="3.3463087677955627e-01" nType="0">
            <Node pos="l" depth="3" NCoef="0" IVar="-1" Cut="0.0000000000000000e+00" cType="1" res="-1.5931323170661926e-02" rms="2.3385976254940033e-01" purity="2.0678514242172241e-01" nType="-99"/>
            <Node pos="r" depth="3" NCoef="0" IVar="-1" Cut="0.0000000000000000e+00" cType="1" res="-3.5053022205829620e-02" rms="2.6920315623283386e-01" purity="5.6619817018508911e-01" nType="-99"/>
          </Node>
          <Node pos="r" depth="2" NCoef="0" IVar="-1" Cut="0.0000000000000000e+00" cType="1" res="-7.2141687269322574e-05" rms="2.1355387568473816e-01" purity="2.4027895927429199e-01" nType="-99"/>
        </Node>
      </Node>
    </BinaryTree>
    <BinaryTree type="DecisionTree" boostWeight="1.0000000000000000e+00" itree="706">
      <Node pos="s" depth="0" NCoef="0" IVar="0" Cut="1.6662799072265625e+03" cType="1" res="-8.1451714504510164e-04" rms="2.3865377902984619e-01" purity="4.9748653173446655e-01" nType="0">
        <Node pos="l" depth="1" NCoef="0" IVar="1" Cut="8.8048934936523438e-02" cType="1" res="-7.0171426050364971e-03" rms="1.5487150847911835e-01" purity="2.8946802020072937e-02" nType="0">
          <Node pos="l" depth="2" NCoef="0" IVar="0" Cut="1.5648408203125000e+03" cType="1" res="-2.8554911259561777e-03" rms="1.3341881334781647e-01" purity="2.0342696458101273e-02" nType="0">
            <Node pos="l" depth="3" NCoef="0" IVar="-1" Cut="0.0000000000000000e+00" cType="1" res="7.3779230006039143e-03" rms="1.3119414448738098e-01" purity="1.9893206655979156e-02" nType="-99"/>
            <Node pos="r" depth="3" NCoef="0" IVar="-1" Cut="0.0000000000000000e+00" cType="1" res="-4.1471891105175018e-02" rms="1.3785800337791443e-01" purity="2.1357953548431396e-02" nType="-99"/>
          </Node>
          <Node pos="r" depth="2" NCoef="0" IVar="-1" Cut="0.0000000000000000e+00" cType="1" res="-3.5360794514417648e-02" rms="2.2954286634922028e-01" purity="6.9530978798866272e-02" nType="-99"/>
        </Node>
        <Node pos="r" depth="1" NCoef="0" IVar="0" Cut="2.1734650878906250e+03" cType="1" res="1.7970070475712419e-03" rms="2.6610961556434631e-01" purity="6.9475829601287842e-01" nType="0">
          <Node pos="l" depth="2" NCoef="0" IVar="0" Cut="1.9077662353515625e+03" cType="1" res="8.8519230484962463e-03" rms="3.3762302994728088e-01" purity="3.4204107522964478e-01" nType="0">
            <Node pos="l" depth="3" NCoef="0" IVar="-1" Cut="0.0000000000000000e+00" cType="1" res="-4.2719598859548569e-03" rms="3.0761614441871643e-01" purity="1.7795573174953461e-01" nType="-99"/>
            <Node pos="r" depth="3" NCoef="0" IVar="-1" Cut="0.0000000000000000e+00" cType="1" res="1.8418325111269951e-02" rms="3.7116116285324097e-01" purity="5.4758274555206299e-01" nType="-99"/>
          </Node>
          <Node pos="r" depth="2" NCoef="0" IVar="6" Cut="-7.4817252159118652e-01" cType="1" res="-2.4053144734352827e-03" rms="2.1224860846996307e-01" purity="9.0485733747482300e-01" nType="0">
            <Node pos="l" depth="3" NCoef="0" IVar="-1" Cut="0.0000000000000000e+00" cType="1" res="-2.4042207747697830e-02" rms="2.5373271107673645e-01" purity="7.8123092651367188e-01" nType="-99"/>
            <Node pos="r" depth="3" NCoef="0" IVar="-1" Cut="0.0000000000000000e+00" cType="1" res="-1.4001500094309449e-03" rms="2.0635063946247101e-01" purity="9.2046207189559937e-01" nType="-99"/>
          </Node>
        </Node>
      </Node>
    </BinaryTree>
    <BinaryTree type="DecisionTree" boostWeight="1.0000000000000000e+00" itree="707">
      <Node pos="s" depth="0" NCoef="0" IVar="6" Cut="9.5925283432006836e-01" cType="1" res="-8.7337207514792681e-04" rms="2.4038787186145782e-01" purity="4.9661073088645935e-01" nType="0">
        <Node pos="l" depth="1" NCoef="0" IVar="0" Cut="1.9326032714843750e+03" cType="1" res="-2.3222579620778561e-03" rms="2.4285365641117096e-01" purity="5.3800332546234131e-01" nType="0">
          <Node pos="l" depth="2" NCoef="0" IVar="1" Cut="7.5585022568702698e-02" cType="1" res="-7.2262114845216274e-03" rms="2.3982101678848267e-01" purity="9.3552507460117340e-02" nType="0">
            <Node pos="l" depth="3" NCoef="0" IVar="-1" Cut="0.0000000000000000e+00" cType="1" res="-6.6574621014297009e-03" rms="1.8965283036231995e-01" purity="4.8975437879562378e-02" nType="-99"/>
            <Node pos="r" depth="3" NCoef="0" IVar="-1" Cut="0.0000000000000000e+00" cType="1" res="-1.6262583434581757e-02" rms="3.3560144901275635e-01" purity="2.0798492431640625e-01" nType="-99"/>
          </Node>
          <Node pos="r" depth="2" NCoef="0" IVar="5" Cut="1.7648397827148438e+02" cType="1" res="1.1550805065780878e-03" rms="2.4492183327674866e-01" purity="8.5315841436386108e-01" nType="0">
            <Node pos="l" depth="3" NCoef="0" IVar="-1" Cut="0.0000000000000000e+00" cType="1" res="8.5861431434750557e-03" rms="3.2566204667091370e-01" purity="6.8193572759628296e-01" nType="-99"/>
            <Node pos="r" depth="3" NCoef="0" IVar="-1" Cut="0.0000000000000000e+00" cType="1" res="-6.5062018111348152e-03" rms="1.9580514729022980e-01" purity="9.3344688415527344e-01" nType="-99"/>
          </Node>
        </Node>
        <Node pos="r" depth="1" NCoef="0" IVar="1" Cut="4.1059035807847977e-02" cType="1" res="8.5019692778587341e-03" rms="2.2354984283447266e-01" purity="2.2877082228660583e-01" nType="0">
          <Node pos="l" depth="2" NCoef="0" IVar="3" Cut="2.9859368896484375e+02" cType="1" res="1.5347410226240754e-05" rms="1.7808946967124939e-01" purity="8.2472153007984161e-02" nType="0">
            <Node pos="l" depth="3" NCoef="0" IVar="-1" Cut="0.0000000000000000e+00" cType="1" res="2.5726929306983948e-02" rms="1.5021808445453644e-01" purity="4.2296260595321655e-02" nType="-99"/>
            <Node pos="r" depth="3" NCoef="0" IVar="-1" Cut="0.0000000000000000e+00" cType="1" res="-1.8750483170151711e-02" rms="2.1693292260169983e-01" purity="1.5038117766380310e-01" nType="-99"/>
          </Node>
          <Node pos="r" depth="2" NCoef="0" IVar="-1" Cut="0.0000000000000000e+00" cType="1" res="2.9200183227658272e-02" rms="2.8657007217407227e-01" purity="4.8921370506286621e-01" nType="-99"/>
        </Node>
      </Node>
    </BinaryTree>
    <BinaryTree type="DecisionTree" boostWeight="1.0000000000000000e+00" itree="708">
      <Node pos="s" depth="0" NCoef="0" IVar="8" Cut="1.3315311074256897e-01" cType="1" res="1.4238907024264336e-03" rms="2.4298930168151855e-01" purity="5.0411051511764526e-01" nType="0">
        <Node pos="l" depth="1" NCoef="0" IVar="7" Cut="6.6675919294357300e-01" cType="1" res="-2.6977532543241978e-03" rms="2.4053812026977539e-01" purity="5.0720947980880737e-01" nType="0">
          <Node pos="l" depth="2" NCoef="0" IVar="4" Cut="2.6579214477539062e+02" cType="1" res="1.1334554292261600e-03" rms="2.3976884782314301e-01" purity="5.5209368467330933e-01" nType="0">
            <Node pos="l" depth="3" NCoef="0" IVar="-1" Cut="0.0000000000000000e+00" cType="1" res="8.2435179501771927e-03" rms="2.5935649871826172e-01" purity="3.3826109766960144e-01" nType="-99"/>
            <Node pos="r" depth="3" NCoef="0" IVar="-1" Cut="0.0000000000000000e+00" cType="1" res="-1.3767041265964508e-02" rms="2.0486444234848022e-01" purity="8.8977801799774170e-01" nType="-99"/>
          </Node>
          <Node pos="r" depth="2" NCoef="0" IVar="1" Cut="5.3818814456462860e-02" cType="1" res="-1.5558983199298382e-02" rms="2.4266074597835541e-01" purity="3.5653468966484070e-01" nType="0">
            <Node pos="l" depth="3" NCoef="0" IVar="-1" Cut="0.0000000000000000e+00" cType="1" res="-7.8963726991787553e-04" rms="2.2403316199779510e-01" purity="1.6059245169162750e-01" nType="-99"/>
            <Node pos="r" depth="3" NCoef="0" IVar="-1" Cut="0.0000000000000000e+00" cType="1" res="-3.8540739566087723e-02" rms="2.6014223694801331e-01" purity="5.6613194942474365e-01" nType="-99"/>
          </Node>
        </Node>
        <Node pos="r" depth="1" NCoef="0" IVar="0" Cut="2.7899003906250000e+03" cType="1" res="6.4613549038767815e-03" rms="2.4585813283920288e-01" purity="5.0032293796539307e-01" nType="0">
          <Node pos="l" depth="2" NCoef="0" IVar="5" Cut="1.2806843566894531e+02" cType="1" res="9.6983285620808601e-03" rms="2.6060324907302856e-01" purity="3.9121511578559875e-01" nType="0">
            <Node pos="l" depth="3" NCoef="0" IVar="-1" Cut="0.0000000000000000e+00" cType="1" res="4.7169113531708717e-03" rms="2.2049647569656372e-01" purity="1.1226273328065872e-01" nType="-99"/>
            <Node pos="r" depth="3" NCoef="0" IVar="-1" Cut="0.0000000000000000e+00" cType="1" res="1.7454069107770920e-02" rms="2.8442901372909546e-01" purity="5.7982569932937622e-01" nType="-99"/>
          </Node>
          <Node pos="r" depth="2" NCoef="0" IVar="7" Cut="-1.3201999664306641e-01" cType="1" res="-7.0095481351017952e-03" rms="1.7071397602558136e-01" purity="9.5438349246978760e-01" nType="0">
            <Node pos="l" depth="3" NCoef="0" IVar="-1" Cut="0.0000000000000000e+00" cType="1" res="-5.3393904119729996e-02" rms="1.7972294986248016e-01" purity="9.4021093845367432e-01" nType="-99"/>
            <Node pos="r" depth="3" NCoef="0" IVar="-1" Cut="0.0000000000000000e+00" cType="1" res="-5.9760864824056625e-03" rms="1.6413691639900208e-01" purity="9.6392917633056641e-01" nType="-99"/>
          </Node>
        </Node>
      </Node>
    </BinaryTree>
    <BinaryTree type="DecisionTree" boostWeight="1.0000000000000000e+00" itree="709">
      <Node pos="s" depth="0" NCoef="0" IVar="6" Cut="-2.7757722139358521e-01" cType="1" res="2.9836519388481975e-04" rms="2.3909519612789154e-01" purity="4.9784597754478455e-01" nType="0">
        <Node pos="l" depth="1" NCoef="0" IVar="0" Cut="1.8577465820312500e+03" cType="1" res="-4.3983021751046181e-03" rms="2.4154965579509735e-01" purity="4.3713614344596863e-01" nType="0">
          <Node pos="l" depth="2" NCoef="0" IVar="4" Cut="1.8945355224609375e+02" cType="1" res="2.4672939907759428e-03" rms="2.0331957936286926e-01" purity="6.5367363393306732e-02" nType="0">
            <Node pos="l" depth="3" NCoef="0" IVar="-1" Cut="0.0000000000000000e+00" cType="1" res="-2.1610451862215996e-02" rms="1.5821413695812225e-01" purity="3.2745856791734695e-02" nType="-99"/>
            <Node pos="r" depth="3" NCoef="0" IVar="-1" Cut="0.0000000000000000e+00" cType="1" res="2.9261022806167603e-02" rms="2.7311718463897705e-01" purity="1.3295347988605499e-01" nType="-99"/>
          </Node>
          <Node pos="r" depth="2" NCoef="0" IVar="0" Cut="2.0648850097656250e+03" cType="1" res="-1.0376475751399994e-02" rms="2.7033039927482605e-01" purity="7.6085150241851807e-01" nType="0">
            <Node pos="l" depth="3" NCoef="0" IVar="-1" Cut="0.0000000000000000e+00" cType="1" res="-3.4333970397710800e-02" rms="3.7027779221534729e-01" purity="3.4533134102821350e-01" nType="-99"/>
            <Node pos="r" depth="3" NCoef="0" IVar="-1" Cut="0.0000000000000000e+00" cType="1" res="-4.8517938703298569e-03" rms="2.4481765925884247e-01" purity="8.4402453899383545e-01" nType="-99"/>
          </Node>
        </Node>
        <Node pos="r" depth="1" NCoef="0" IVar="2" Cut="3.1307687377929688e+02" cType="1" res="2.9529333114624023e-03" rms="2.3765565454959869e-01" purity="5.3215932846069336e-01" nType="0">
          <Node pos="l" depth="2" NCoef="0" IVar="-1" Cut="0.0000000000000000e+00" cType="1" res="-1.4318926259875298e-02" rms="2.4293205142021179e-01" purity="1.9532303512096405e-01" nType="-99"/>
          <Node pos="r" depth="2" NCoef="0" IVar="9" Cut="-1.7326663732528687e+00" cType="1" res="4.1909907013177872e-03" rms="2.3711729049682617e-01" purity="5.6373673677444458e-01" nType="0">
            <Node pos="l" depth="3" NCoef="0" IVar="-1" Cut="0.0000000000000000e+00" cType="1" res="3.5634580999612808e-02" rms="2.7891471982002258e-01" purity="3.2000243663787842e-01" nType="-99"/>
            <Node pos="r" depth="3" NCoef="0" IVar="-1" Cut="0.0000000000000000e+00" cType="1" res="5.2725831046700478e-03" rms="2.3456068336963654e-01" purity="5.7708787918090820e-01" nType="-99"/>
          </Node>
        </Node>
      </Node>
    </BinaryTree>
    <BinaryTree type="DecisionTree" boostWeight="1.0000000000000000e+00" itree="710">
      <Node pos="s" depth="0" NCoef="0" IVar="9" Cut="-1.9990645647048950e+00" cType="1" res="-2.6767407543957233e-03" rms="2.3800793290138245e-01" purity="4.9797204136848450e-01" nType="0">
        <Node pos="l" depth="1" NCoef="0" IVar="-1" Cut="0.0000000000000000e+00" cType="1" res="-4.9225393682718277e-02" rms="2.3981522023677826e-01" purity="1.7417636513710022e-01" nType="-99"/>
        <Node pos="r" depth="1" NCoef="0" IVar="8" Cut="-3.9936110377311707e-01" cType="1" res="-1.6000778414309025e-03" rms="2.3787251114845276e-01" purity="5.0998485088348389e-01" nType="0">
          <Node pos="l" depth="2" NCoef="0" IVar="2" Cut="5.1100015258789062e+02" cType="1" res="-6.2944823876023293e-03" rms="2.4044167995452881e-01" purity="4.6037733554840088e-01" nType="0">
            <Node pos="l" depth="3" NCoef="0" IVar="-1" Cut="0.0000000000000000e+00" cType="1" res="-2.0820325240492821e-02" rms="2.4516241252422333e-01" purity="3.1835347414016724e-01" nType="-99"/>
            <Node pos="r" depth="3" NCoef="0" IVar="-1" Cut="0.0000000000000000e+00" cType="1" res="2.5828178040683270e-03" rms="2.3477084934711456e-01" purity="6.2021571397781372e-01" nType="-99"/>
          </Node>
          <Node pos="r" depth="2" NCoef="0" IVar="9" Cut="-8.5656708478927612e-01" cType="1" res="8.9089246466755867e-04" rms="2.3646005988121033e-01" purity="5.3630787134170532e-01" nType="0">
            <Node pos="l" depth="3" NCoef="0" IVar="-1" Cut="0.0000000000000000e+00" cType="1" res="1.5150779858231544e-02" rms="2.5198480486869812e-01" purity="4.9737322330474854e-01" nType="-99"/>
            <Node pos="r" depth="3" NCoef="0" IVar="-1" Cut="0.0000000000000000e+00" cType="1" res="-2.2810248192399740e-03" rms="2.3256129026412964e-01" purity="5.4556870460510254e-01" nType="-99"/>
          </Node>
        </Node>
      </Node>
    </BinaryTree>
    <BinaryTree type="DecisionTree" boostWeight="1.0000000000000000e+00" itree="711">
      <Node pos="s" depth="0" NCoef="0" IVar="6" Cut="-3.5595586895942688e-01" cType="1" res="-4.0330769843421876e-04" rms="2.4181526899337769e-01" purity="5.0032055377960205e-01" nType="0">
        <Node pos="l" depth="1" NCoef="0" IVar="2" Cut="3.1591821289062500e+02" cType="1" res="5.0012250430881977e-03" rms="2.4995261430740356e-01" purity="4.3335205316543579e-01" nType="0">
          <Node pos="l" depth="2" NCoef="0" IVar="-1" Cut="0.0000000000000000e+00" cType="1" res="3.1266253441572189e-02" rms="2.8255793452262878e-01" purity="1.9061318039894104e-01" nType="-99"/>
          <Node pos="r" depth="2" NCoef="0" IVar="4" Cut="1.4578150939941406e+02" cType="1" res="3.2292562536895275e-03" rms="2.4612130224704742e-01" purity="4.5947179198265076e-01" nType="0">
            <Node pos="l" depth="3" NCoef="0" IVar="-1" Cut="0.0000000000000000e+00" cType="1" res="5.3426295518875122e-02" rms="2.0929445326328278e-01" purity="7.2289928793907166e-02" nType="-99"/>
            <Node pos="r" depth="3" NCoef="0" IVar="-1" Cut="0.0000000000000000e+00" cType="1" res="-3.5042493254877627e-04" rms="2.5403147935867310e-01" purity="5.5223757028579712e-01" nType="-99"/>
          </Node>
        </Node>
        <Node pos="r" depth="1" NCoef="0" IVar="7" Cut="1.3183499872684479e-01" cType="1" res="-3.0627585947513580e-03" rms="2.3766370117664337e-01" purity="5.3327423334121704e-01" nType="0">
          <Node pos="l" depth="2" NCoef="0" IVar="8" Cut="9.2945963144302368e-01" cType="1" res="-7.2136460803449154e-03" rms="2.4091920256614685e-01" purity="5.2712178230285645e-01" nType="0">
            <Node pos="l" depth="3" NCoef="0" IVar="-1" Cut="0.0000000000000000e+00" cType="1" res="-6.7381616681814194e-03" rms="2.3702847957611084e-01" purity="5.5552542209625244e-01" nType="-99"/>
            <Node pos="r" depth="3" NCoef="0" IVar="-1" Cut="0.0000000000000000e+00" cType="1" res="-3.2490540295839310e-02" rms="2.5786545872688293e-01" purity="3.9320746064186096e-01" nType="-99"/>
          </Node>
          <Node pos="r" depth="2" NCoef="0" IVar="9" Cut="4.0021538734436035e-01" cType="1" res="1.9563580863177776e-03" rms="2.3356819152832031e-01" purity="5.4071360826492310e-01" nType="0">
            <Node pos="l" depth="3" NCoef="0" IVar="-1" Cut="0.0000000000000000e+00" cType="1" res="-7.8138085082173347e-03" rms="2.2772972285747528e-01" purity="5.6304264068603516e-01" nType="-99"/>
            <Node pos="r" depth="3" NCoef="0" IVar="-1" Cut="0.0000000000000000e+00" cType="1" res="1.7844045534729958e-02" rms="2.4136435985565186e-01" purity="5.0884455442428589e-01" nType="-99"/>
          </Node>
        </Node>
      </Node>
    </BinaryTree>
    <BinaryTree type="DecisionTree" boostWeight="1.0000000000000000e+00" itree="712">
      <Node pos="s" depth="0" NCoef="0" IVar="2" Cut="4.4390032958984375e+02" cType="1" res="5.5238655768334866e-03" rms="2.4311394989490509e-01" purity="5.1264882087707520e-01" nType="0">
        <Node pos="l" depth="1" NCoef="0" IVar="7" Cut="4.0112373232841492e-01" cType="1" res="1.2069083750247955e-02" rms="2.7043321728706360e-01" purity="3.2600504159927368e-01" nType="0">
          <Node pos="l" depth="2" NCoef="0" IVar="7" Cut="9.6812874078750610e-02" cType="1" res="5.6201014667749405e-03" rms="2.6443943381309509e-01" purity="3.3373039960861206e-01" nType="0">
            <Node pos="l" depth="3" NCoef="0" IVar="-1" Cut="0.0000000000000000e+00" cType="1" res="1.6886802390217781e-02" rms="2.6704442501068115e-01" purity="3.1813111901283264e-01" nType="-99"/>
            <Node pos="r" depth="3" NCoef="0" IVar="-1" Cut="0.0000000000000000e+00" cType="1" res="-2.7807017788290977e-02" rms="2.4989384412765503e-01" purity="4.0844589471817017e-01" nType="-99"/>
          </Node>
          <Node pos="r" depth="2" NCoef="0" IVar="7" Cut="1.4280619621276855e+00" cType="1" res="2.4430461227893829e-02" rms="2.8115242719650269e-01" purity="3.1119707226753235e-01" nType="0">
            <Node pos="l" depth="3" NCoef="0" IVar="-1" Cut="0.0000000000000000e+00" cType="1" res="4.2194738984107971e-02" rms="3.0693751573562622e-01" purity="3.8793289661407471e-01" nType="-99"/>
            <Node pos="r" depth="3" NCoef="0" IVar="-1" Cut="0.0000000000000000e+00" cType="1" res="4.7819153405725956e-03" rms="2.0305849611759186e-01" purity="1.2334895133972168e-01" nType="-99"/>
          </Node>
        </Node>
        <Node pos="r" depth="1" NCoef="0" IVar="2" Cut="8.8434436035156250e+02" cType="1" res="1.9566295668482780e-03" rms="2.2676400840282440e-01" purity="6.1437231302261353e-01" nType="0">
          <Node pos="l" depth="2" NCoef="0" IVar="2" Cut="8.2136773681640625e+02" cType="1" res="1.9468700338620692e-04" rms="2.2378098964691162e-01" purity="5.9945821762084961e-01" nType="0">
            <Node pos="l" depth="3" NCoef="0" IVar="-1" Cut="0.0000000000000000e+00" cType="1" res="2.3590056225657463e-03" rms="2.2314603626728058e-01" purity="5.9320282936096191e-01" nType="-99"/>
            <Node pos="r" depth="3" NCoef="0" IVar="-1" Cut="0.0000000000000000e+00" cType="1" res="-3.8872689008712769e-02" rms="2.3592931032180786e-01" purity="7.3468434810638428e-01" nType="-99"/>
          </Node>
          <Node pos="r" depth="2" NCoef="0" IVar="-1" Cut="0.0000000000000000e+00" cType="1" res="2.9579978436231613e-02" rms="2.5851580500602722e-01" purity="7.9057568311691284e-01" nType="-99"/>
        </Node>
      </Node>
    </BinaryTree>
    <BinaryTree type="DecisionTree" boostWeight="1.0000000000000000e+00" itree="713">
      <Node pos="s" depth="0" NCoef="0" IVar="9" Cut="-1.4659913778305054e+00" cType="1" res="-2.9717694269493222e-04" rms="2.3943120241165161e-01" purity="5.0761258602142334e-01" nType="0">
        <Node pos="l" depth="1" NCoef="0" IVar="8" Cut="-1.3480772078037262e-01" cType="1" res="1.3049744069576263e-02" rms="2.6380914449691772e-01" purity="3.4010738134384155e-01" nType="0">
          <Node pos="l" depth="2" NCoef="0" IVar="-1" Cut="0.0000000000000000e+00" cType="1" res="4.4914193451404572e-02" rms="2.4990501999855042e-01" purity="3.0859762430191040e-01" nType="-99"/>
          <Node pos="r" depth="2" NCoef="0" IVar="-1" Cut="0.0000000000000000e+00" cType="1" res="-2.8696933295577765e-03" rms="2.7715423703193665e-01" purity="3.7394368648529053e-01" nType="-99"/>
        </Node>
        <Node pos="r" depth="1" NCoef="0" IVar="8" Cut="1.9986373186111450e+00" cType="1" res="-1.6705169109627604e-03" rms="2.3673775792121887e-01" purity="5.2484816312789917e-01" nType="0">
          <Node pos="l" depth="2" NCoef="0" IVar="6" Cut="-1.3357404470443726e+00" cType="1" res="-1.1638285359367728e-03" rms="2.3860628902912140e-01" purity="5.3855264186859131e-01" nType="0">
            <Node pos="l" depth="3" NCoef="0" IVar="-1" Cut="0.0000000000000000e+00" cType="1" res="-3.5997379571199417e-02" rms="1.5920341014862061e-01" purity="9.4838999211788177e-02" nType="-99"/>
            <Node pos="r" depth="3" NCoef="0" IVar="-1" Cut="0.0000000000000000e+00" cType="1" res="-7.3351769242435694e-04" rms="2.4252775311470032e-01" purity="5.6518471240997314e-01" nType="-99"/>
          </Node>
          <Node pos="r" depth="2" NCoef="0" IVar="-1" Cut="0.0000000000000000e+00" cType="1" res="-4.5463897287845612e-02" rms="1.6397956013679504e-01" purity="7.9309843480587006e-02" nType="-99"/>
        </Node>
      </Node>
    </BinaryTree>
    <BinaryTree type="DecisionTree" boostWeight="1.0000000000000000e+00" itree="714">
      <Node pos="s" depth="0" NCoef="0" IVar="9" Cut="-6.6603124141693115e-01" cType="1" res="4.8202014295384288e-04" rms="2.4150022864341736e-01" purity="5.0567758083343506e-01" nType="0">
        <Node pos="l" depth="1" NCoef="0" IVar="8" Cut="6.6335439682006836e-01" cType="1" res="-5.0362851470708847e-03" rms="2.4854084849357605e-01" purity="4.5330640673637390e-01" nType="0">
          <Node pos="l" depth="2" NCoef="0" IVar="5" Cut="1.4249865722656250e+02" cType="1" res="-8.0016552237793803e-04" rms="2.4878279864788055e-01" purity="4.8440709710121155e-01" nType="0">
            <Node pos="l" depth="3" NCoef="0" IVar="-1" Cut="0.0000000000000000e+00" cType="1" res="-1.4271278865635395e-02" rms="2.3909734189510345e-01" purity="1.6834403574466705e-01" nType="-99"/>
            <Node pos="r" depth="3" NCoef="0" IVar="-1" Cut="0.0000000000000000e+00" cType="1" res="7.4019939638674259e-03" rms="2.5566512346267700e-01" purity="7.2205072641372681e-01" nType="-99"/>
          </Node>
          <Node pos="r" depth="2" NCoef="0" IVar="2" Cut="5.0888943481445312e+02" cType="1" res="-1.7790710553526878e-02" rms="2.4737332761287689e-01" purity="3.5966607928276062e-01" nType="0">
            <Node pos="l" depth="3" NCoef="0" IVar="-1" Cut="0.0000000000000000e+00" cType="1" res="-5.0753727555274963e-02" rms="2.2931905090808868e-01" purity="2.2811919450759888e-01" nType="-99"/>
            <Node pos="r" depth="3" NCoef="0" IVar="-1" Cut="0.0000000000000000e+00" cType="1" res="1.2218958698213100e-02" rms="2.6894307136535645e-01" purity="5.4810708761215210e-01" nType="-99"/>
          </Node>
        </Node>
        <Node pos="r" depth="1" NCoef="0" IVar="8" Cut="-1.7320699691772461e+00" cType="1" res="2.6211452204734087e-03" rms="2.3868083953857422e-01" purity="5.2597886323928833e-01" nType="0">
          <Node pos="l" depth="2" NCoef="0" IVar="-1" Cut="0.0000000000000000e+00" cType="1" res="4.7338284552097321e-02" rms="2.8445231914520264e-01" purity="1.9662612676620483e-01" nType="-99"/>
          <Node pos="r" depth="2" NCoef="0" IVar="1" Cut="1.6908691823482513e-01" cType="1" res="1.6814222326502204e-03" rms="2.3668263852596283e-01" purity="5.3871798515319824e-01" nType="0">
            <Node pos="l" depth="3" NCoef="0" IVar="-1" Cut="0.0000000000000000e+00" cType="1" res="6.4270294387824833e-05" rms="2.4189136922359467e-01" purity="4.8049122095108032e-01" nType="-99"/>
            <Node pos="r" depth="3" NCoef="0" IVar="-1" Cut="0.0000000000000000e+00" cType="1" res="2.8405146673321724e-02" rms="2.0143455266952515e-01" purity="8.9666903018951416e-01" nType="-99"/>
          </Node>
        </Node>
      </Node>
    </BinaryTree>
    <BinaryTree type="DecisionTree" boostWeight="1.0000000000000000e+00" itree="715">
      <Node pos="s" depth="0" NCoef="0" IVar="7" Cut="-4.0045267343521118e-01" cType="1" res="9.3753205146640539e-04" rms="2.3918317258358002e-01" purity="4.9843102693557739e-01" nType="0">
        <Node pos="l" depth="1" NCoef="0" IVar="2" Cut="5.2152294921875000e+02" cType="1" res="7.6085035689175129e-03" rms="2.4363946914672852e-01" purity="4.3752282857894897e-01" nType="0">
          <Node pos="l" depth="2" NCoef="0" IVar="0" Cut="1.7275699462890625e+03" cType="1" res="1.4576683752238750e-02" rms="2.4786958098411560e-01" purity="3.4314987063407898e-01" nType="0">
            <Node pos="l" depth="3" NCoef="0" IVar="-1" Cut="0.0000000000000000e+00" cType="1" res="1.2303315103054047e-02" rms="1.9537259638309479e-01" purity="5.1067642867565155e-02" nType="-99"/>
            <Node pos="r" depth="3" NCoef="0" IVar="-1" Cut="0.0000000000000000e+00" cType="1" res="2.9124649241566658e-02" rms="2.9920125007629395e-01" purity="6.9909381866455078e-01" nType="-99"/>
          </Node>
          <Node pos="r" depth="2" NCoef="0" IVar="8" Cut="1.3552995026111603e-01" cType="1" res="-1.6668759053573012e-03" rms="2.3757520318031311e-01" purity="5.6314325332641602e-01" nType="0">
            <Node pos="l" depth="3" NCoef="0" IVar="-1" Cut="0.0000000000000000e+00" cType="1" res="8.7571050971746445e-03" rms="2.2514671087265015e-01" purity="5.9057003259658813e-01" nType="-99"/>
            <Node pos="r" depth="3" NCoef="0" IVar="-1" Cut="0.0000000000000000e+00" cType="1" res="-1.6951890662312508e-02" rms="2.5317853689193726e-01" purity="5.2596044540405273e-01" nType="-99"/>
          </Node>
        </Node>
        <Node pos="r" depth="1" NCoef="0" IVar="3" Cut="4.2296096801757812e+02" cType="1" res="-2.4771376047283411e-03" rms="2.3679699003696442e-01" purity="5.2960807085037231e-01" nType="0">
          <Node pos="l" depth="2" NCoef="0" IVar="3" Cut="2.1887901306152344e+02" cType="1" res="-4.8334542661905289e-03" rms="2.4940891563892365e-01" purity="4.0348431468009949e-01" nType="0">
            <Node pos="l" depth="3" NCoef="0" IVar="-1" Cut="0.0000000000000000e+00" cType="1" res="1.6459077596664429e-02" rms="2.2832140326499939e-01" purity="1.0120858252048492e-01" nType="-99"/>
            <Node pos="r" depth="3" NCoef="0" IVar="-1" Cut="0.0000000000000000e+00" cType="1" res="-1.1604603379964828e-02" rms="2.5454109907150269e-01" purity="4.8261535167694092e-01" nType="-99"/>
          </Node>
          <Node pos="r" depth="2" NCoef="0" IVar="9" Cut="-3.9928865432739258e-01" cType="1" res="3.9817611686885357e-03" rms="1.9800876080989838e-01" purity="8.7532591819763184e-01" nType="0">
            <Node pos="l" depth="3" NCoef="0" IVar="-1" Cut="0.0000000000000000e+00" cType="1" res="2.8404463082551956e-02" rms="1.9977203011512756e-01" purity="8.7612706422805786e-01" nType="-99"/>
            <Node pos="r" depth="3" NCoef="0" IVar="-1" Cut="0.0000000000000000e+00" cType="1" res="-1.3083660742267966e-03" rms="1.9699276983737946e-01" purity="8.7493973970413208e-01" nType="-99"/>
          </Node>
        </Node>
      </Node>
    </BinaryTree>
    <BinaryTree type="DecisionTree" boostWeight="1.0000000000000000e+00" itree="716">
      <Node pos="s" depth="0" NCoef="0" IVar="1" Cut="8.4997236728668213e-02" cType="1" res="-2.2378386929631233e-03" rms="2.3562744259834290e-01" purity="4.9689307808876038e-01" nType="0">
        <Node pos="l" depth="1" NCoef="0" IVar="1" Cut="3.6481831222772598e-02" cType="1" res="-5.7144109159708023e-03" rms="2.3692689836025238e-01" purity="3.0322653055191040e-01" nType="0">
          <Node pos="l" depth="2" NCoef="0" IVar="1" Cut="2.7816234156489372e-02" cType="1" res="-1.2318972731009126e-03" rms="2.0809794962406158e-01" purity="1.6661590337753296e-01" nType="0">
            <Node pos="l" depth="3" NCoef="0" IVar="-1" Cut="0.0000000000000000e+00" cType="1" res="-1.4444719068706036e-02" rms="1.8609888851642609e-01" purity="1.2743076682090759e-01" nType="-99"/>
            <Node pos="r" depth="3" NCoef="0" IVar="-1" Cut="0.0000000000000000e+00" cType="1" res="2.2004289552569389e-02" rms="2.7158585190773010e-01" purity="3.0562371015548706e-01" nType="-99"/>
          </Node>
          <Node pos="r" depth="2" NCoef="0" IVar="0" Cut="2.6260952148437500e+03" cType="1" res="-1.0648074559867382e-02" rms="2.6496934890747070e-01" purity="4.5358654856681824e-01" nType="0">
            <Node pos="l" depth="3" NCoef="0" IVar="-1" Cut="0.0000000000000000e+00" cType="1" res="-1.7257925122976303e-02" rms="2.8651276230812073e-01" purity="2.9253652691841125e-01" nType="-99"/>
            <Node pos="r" depth="3" NCoef="0" IVar="-1" Cut="0.0000000000000000e+00" cType="1" res="1.1101955547928810e-02" rms="1.8254323303699493e-01" purity="9.4947695732116699e-01" nType="-99"/>
          </Node>
        </Node>
        <Node pos="r" depth="1" NCoef="0" IVar="4" Cut="2.3334083557128906e+02" cType="1" res="2.9574213549494743e-03" rms="2.3357570171356201e-01" purity="7.8630113601684570e-01" nType="0">
          <Node pos="l" depth="2" NCoef="0" IVar="6" Cut="3.9237168431282043e-01" cType="1" res="1.3829919509589672e-02" rms="3.0087625980377197e-01" purity="5.3588593006134033e-01" nType="0">
            <Node pos="l" depth="3" NCoef="0" IVar="-1" Cut="0.0000000000000000e+00" cType="1" res="1.9215426873415709e-03" rms="2.9558941721916199e-01" purity="5.4262977838516235e-01" nType="-99"/>
            <Node pos="r" depth="3" NCoef="0" IVar="-1" Cut="0.0000000000000000e+00" cType="1" res="4.9869474023580551e-02" rms="3.1264647841453552e-01" purity="5.1715385913848877e-01" nType="-99"/>
          </Node>
          <Node pos="r" depth="2" NCoef="0" IVar="3" Cut="3.2629452514648438e+02" cType="1" res="-2.4321614764630795e-03" rms="1.9141548871994019e-01" purity="9.1043382883071899e-01" nType="0">
            <Node pos="l" depth="3" NCoef="0" IVar="-1" Cut="0.0000000000000000e+00" cType="1" res="-2.7343919500708580e-02" rms="2.5003826618194580e-01" purity="7.7397143840789795e-01" nType="-99"/>
            <Node pos="r" depth="3" NCoef="0" IVar="-1" Cut="0.0000000000000000e+00" cType="1" res="5.2265427075326443e-03" rms="1.7263647913932800e-01" purity="9.4606834650039673e-01" nType="-99"/>
          </Node>
        </Node>
      </Node>
    </BinaryTree>
    <BinaryTree type="DecisionTree" boostWeight="1.0000000000000000e+00" itree="717">
      <Node pos="s" depth="0" NCoef="0" IVar="7" Cut="-9.2941814661026001e-01" cType="1" res="-1.9977709744125605e-03" rms="2.3654182255268097e-01" purity="4.8839405179023743e-01" nType="0">
        <Node pos="l" depth="1" NCoef="0" IVar="7" Cut="-1.1069860458374023e+00" cType="1" res="7.5079370290040970e-03" rms="2.3805548250675201e-01" purity="2.9304507374763489e-01" nType="0">
          <Node pos="l" depth="2" NCoef="0" IVar="3" Cut="2.2806446838378906e+02" cType="1" res="1.3497654581442475e-03" rms="2.2482444345951080e-01" purity="2.3557245731353760e-01" nType="0">
            <Node pos="l" depth="3" NCoef="0" IVar="-1" Cut="0.0000000000000000e+00" cType="1" res="3.1954441219568253e-02" rms="2.1739475429058075e-01" purity="1.0001310706138611e-01" nType="-99"/>
            <Node pos="r" depth="3" NCoef="0" IVar="-1" Cut="0.0000000000000000e+00" cType="1" res="-6.3715972937643528e-03" rms="2.2786125540733337e-01" purity="2.9584917426109314e-01" nType="-99"/>
          </Node>
          <Node pos="r" depth="2" NCoef="0" IVar="-1" Cut="0.0000000000000000e+00" cType="1" res="3.6431271582841873e-02" rms="2.7271839976310730e-01" purity="4.6337258815765381e-01" nType="-99"/>
        </Node>
        <Node pos="r" depth="1" NCoef="0" IVar="8" Cut="-1.1994702816009521e+00" cType="1" res="-3.9257374592125416e-03" rms="2.3618696630001068e-01" purity="5.2801513671875000e-01" nType="0">
          <Node pos="l" depth="2" NCoef="0" IVar="7" Cut="8.4669113159179688e-01" cType="1" res="-1.5042908489704132e-02" rms="2.4507489800453186e-01" purity="3.1307995319366455e-01" nType="0">
            <Node pos="l" depth="3" NCoef="0" IVar="-1" Cut="0.0000000000000000e+00" cType="1" res="-2.7561139315366745e-02" rms="2.5202000141143799e-01" purity="3.5661017894744873e-01" nType="-99"/>
            <Node pos="r" depth="3" NCoef="0" IVar="-1" Cut="0.0000000000000000e+00" cType="1" res="-5.3008261602371931e-04" rms="2.2282274067401886e-01" purity="1.8547326326370239e-01" nType="-99"/>
          </Node>
          <Node pos="r" depth="2" NCoef="0" IVar="0" Cut="2.1418732910156250e+03" cType="1" res="-2.4431957863271236e-03" rms="2.3493655025959015e-01" purity="5.5667799711227417e-01" nType="0">
            <Node pos="l" depth="3" NCoef="0" IVar="-1" Cut="0.0000000000000000e+00" cType="1" res="-9.2020435258746147e-03" rms="2.6437011361122131e-01" purity="1.7231296002864838e-01" nType="-99"/>
            <Node pos="r" depth="3" NCoef="0" IVar="-1" Cut="0.0000000000000000e+00" cType="1" res="3.9858976379036903e-03" rms="2.0286908745765686e-01" purity="9.2295032739639282e-01" nType="-99"/>
          </Node>
        </Node>
      </Node>
    </BinaryTree>
    <BinaryTree type="DecisionTree" boostWeight="1.0000000000000000e+00" itree="718">
      <Node pos="s" depth="0" NCoef="0" IVar="3" Cut="2.4440184020996094e+02" cType="1" res="-1.3550005387514830e-03" rms="2.4134121835231781e-01" purity="5.0164353847503662e-01" nType="0">
        <Node pos="l" depth="1" NCoef="0" IVar="3" Cut="2.3588758850097656e+02" cType="1" res="6.9412696175277233e-03" rms="2.4265122413635254e-01" purity="1.4958304166793823e-01" nType="0">
          <Node pos="l" depth="2" NCoef="0" IVar="1" Cut="8.8161706924438477e-02" cType="1" res="1.0861352086067200e-02" rms="2.3986847698688507e-01" purity="1.4139558374881744e-01" nType="0">
            <Node pos="l" depth="3" NCoef="0" IVar="-1" Cut="0.0000000000000000e+00" cType="1" res="1.2190486304461956e-02" rms="2.1498896181583405e-01" purity="8.9199066162109375e-02" nType="-99"/>
            <Node pos="r" depth="3" NCoef="0" IVar="-1" Cut="0.0000000000000000e+00" cType="1" res="3.4727234393358231e-02" rms="3.2764151692390442e-01" purity="3.7487646937370300e-01" nType="-99"/>
          </Node>
          <Node pos="r" depth="2" NCoef="0" IVar="-1" Cut="0.0000000000000000e+00" cType="1" res="-2.8139710426330566e-02" rms="2.5949940085411072e-01" purity="2.0631973445415497e-01" nType="-99"/>
        </Node>
        <Node pos="r" depth="1" NCoef="0" IVar="5" Cut="1.2127301025390625e+02" cType="1" res="-3.9569507353007793e-03" rms="2.4087002873420715e-01" purity="6.1205989122390747e-01" nType="0">
          <Node pos="l" depth="2" NCoef="0" IVar="1" Cut="3.8146916776895523e-02" cType="1" res="-1.0743717662990093e-02" rms="2.3236915469169617e-01" purity="1.5207849442958832e-01" nType="0">
            <Node pos="l" depth="3" NCoef="0" IVar="-1" Cut="0.0000000000000000e+00" cType="1" res="-1.8101917812600732e-03" rms="1.8862439692020416e-01" purity="7.0910774171352386e-02" nType="-99"/>
            <Node pos="r" depth="3" NCoef="0" IVar="-1" Cut="0.0000000000000000e+00" cType="1" res="-2.7808558195829391e-02" rms="2.8097146749496460e-01" purity="2.6351451873779297e-01" nType="-99"/>
          </Node>
          <Node pos="r" depth="2" NCoef="0" IVar="3" Cut="3.2518621826171875e+02" cType="1" res="-2.1383692510426044e-03" rms="2.4306523799896240e-01" purity="7.3531645536422729e-01" nType="0">
            <Node pos="l" depth="3" NCoef="0" IVar="-1" Cut="0.0000000000000000e+00" cType="1" res="3.0550055671483278e-03" rms="2.8461652994155884e-01" purity="5.2282953262329102e-01" nType="-99"/>
            <Node pos="r" depth="3" NCoef="0" IVar="-1" Cut="0.0000000000000000e+00" cType="1" res="-7.8647881746292114e-03" rms="2.2187247872352600e-01" purity="8.3066934347152710e-01" nType="-99"/>
          </Node>
        </Node>
      </Node>
    </BinaryTree>
    <BinaryTree type="DecisionTree" boostWeight="1.0000000000000000e+00" itree="719">
      <Node pos="s" depth="0" NCoef="0" IVar="7" Cut="-1.3069243729114532e-01" cType="1" res="-3.5439705243334174e-04" rms="2.3866342008113861e-01" purity="4.9160829186439514e-01" nType="0">
        <Node pos="l" depth="1" NCoef="0" IVar="6" Cut="7.5752627849578857e-01" cType="1" res="-5.1166675984859467e-03" rms="2.3842583596706390e-01" purity="4.7165393829345703e-01" nType="0">
          <Node pos="l" depth="2" NCoef="0" IVar="7" Cut="-1.6522948741912842e+00" cType="1" res="-7.4436711147427559e-03" rms="2.4208785593509674e-01" purity="5.3405946493148804e-01" nType="0">
            <Node pos="l" depth="3" NCoef="0" IVar="-1" Cut="0.0000000000000000e+00" cType="1" res="1.8847268074750900e-02" rms="2.1815942227840424e-01" purity="1.5138892829418182e-01" nType="-99"/>
            <Node pos="r" depth="3" NCoef="0" IVar="-1" Cut="0.0000000000000000e+00" cType="1" res="-1.4368990436196327e-02" rms="2.4420334398746490e-01" purity="5.7076555490493774e-01" nType="-99"/>
          </Node>
          <Node pos="r" depth="2" NCoef="0" IVar="7" Cut="-8.9160376787185669e-01" cType="1" res="4.4312831014394760e-03" rms="2.2251623868942261e-01" purity="2.1559728682041168e-01" nType="0">
            <Node pos="l" depth="3" NCoef="0" IVar="-1" Cut="0.0000000000000000e+00" cType="1" res="-3.7210207432508469e-02" rms="1.7272825539112091e-01" purity="7.4988521635532379e-02" nType="-99"/>
            <Node pos="r" depth="3" NCoef="0" IVar="-1" Cut="0.0000000000000000e+00" cType="1" res="3.8349017500877380e-02" rms="2.6572942733764648e-01" purity="3.7138658761978149e-01" nType="-99"/>
          </Node>
        </Node>
        <Node pos="r" depth="1" NCoef="0" IVar="9" Cut="-6.6615170240402222e-01" cType="1" res="3.5449210554361343e-03" rms="2.3878706991672516e-01" purity="5.0794672966003418e-01" nType="0">
          <Node pos="l" depth="2" NCoef="0" IVar="9" Cut="-1.4787899255752563e+00" cType="1" res="1.6230609267950058e-02" rms="2.6012328267097473e-01" purity="4.9350488185882568e-01" nType="0">
            <Node pos="l" depth="3" NCoef="0" IVar="-1" Cut="0.0000000000000000e+00" cType="1" res="-6.0936980880796909e-03" rms="2.6616302132606506e-01" purity="3.0358707904815674e-01" nType="-99"/>
            <Node pos="r" depth="3" NCoef="0" IVar="-1" Cut="0.0000000000000000e+00" cType="1" res="4.1776861995458603e-02" rms="2.5663027167320251e-01" purity="5.8394652605056763e-01" nType="-99"/>
          </Node>
          <Node pos="r" depth="2" NCoef="0" IVar="7" Cut="8.9283986017107964e-03" cType="1" res="-4.7012904542498291e-04" rms="2.3148022592067719e-01" purity="5.1251763105392456e-01" nType="0">
            <Node pos="l" depth="3" NCoef="0" IVar="-1" Cut="0.0000000000000000e+00" cType="1" res="-4.0548685938119888e-02" rms="2.1980781853199005e-01" purity="6.0620236396789551e-01" nType="-99"/>
            <Node pos="r" depth="3" NCoef="0" IVar="-1" Cut="0.0000000000000000e+00" cType="1" res="3.3530276268720627e-03" rms="2.3256288468837738e-01" purity="5.0253963470458984e-01" nType="-99"/>
          </Node>
        </Node>
      </Node>
    </BinaryTree>
    <BinaryTree type="DecisionTree" boostWeight="1.0000000000000000e+00" itree="720">
      <Node pos="s" depth="0" NCoef="0" IVar="6" Cut="2.1116185188293457e-01" cType="1" res="2.3817943292669952e-04" rms="2.3908178508281708e-01" purity="5.0289249420166016e-01" nType="0">
        <Node pos="l" depth="1" NCoef="0" IVar="1" Cut="1.6988867521286011e-01" cType="1" res="-3.9012702181935310e-03" rms="2.4122007191181183e-01" purity="5.3780251741409302e-01" nType="0">
          <Node pos="l" depth="2" NCoef="0" IVar="6" Cut="-1.0053625106811523e+00" cType="1" res="-5.7483231648802757e-03" rms="2.4883885681629181e-01" purity="4.7785338759422302e-01" nType="0">
            <Node pos="l" depth="3" NCoef="0" IVar="-1" Cut="0.0000000000000000e+00" cType="1" res="8.1560323014855385e-03" rms="2.1445634961128235e-01" purity="2.0883116126060486e-01" nType="-99"/>
            <Node pos="r" depth="3" NCoef="0" IVar="-1" Cut="0.0000000000000000e+00" cType="1" res="-1.3357116840779781e-02" rms="2.5865170359611511e-01" purity="5.6265193223953247e-01" nType="-99"/>
          </Node>
          <Node pos="r" depth="2" NCoef="0" IVar="-1" Cut="0.0000000000000000e+00" cType="1" res="1.7050854861736298e-02" rms="1.9108156859874725e-01" purity="8.8368558883666992e-01" nType="-99"/>
        </Node>
        <Node pos="r" depth="1" NCoef="0" IVar="6" Cut="1.1942243576049805e+00" cType="1" res="6.2544723041355610e-03" rms="2.3580992221832275e-01" purity="4.5215409994125366e-01" nType="0">
          <Node pos="l" depth="2" NCoef="0" IVar="6" Cut="5.8565104007720947e-01" cType="1" res="9.3114823102951050e-03" rms="2.4887546896934509e-01" purity="5.5015021562576294e-01" nType="0">
            <Node pos="l" depth="3" NCoef="0" IVar="-1" Cut="0.0000000000000000e+00" cType="1" res="2.2098955232650042e-03" rms="2.3237623274326324e-01" purity="5.9673583507537842e-01" nType="-99"/>
            <Node pos="r" depth="3" NCoef="0" IVar="-1" Cut="0.0000000000000000e+00" cType="1" res="2.6452591642737389e-02" rms="2.6456457376480103e-01" purity="5.0209933519363403e-01" nType="-99"/>
          </Node>
          <Node pos="r" depth="2" NCoef="0" IVar="7" Cut="-6.5977710485458374e-01" cType="1" res="-4.0582320652902126e-03" rms="1.8467643857002258e-01" purity="1.2156806886196136e-01" nType="0">
            <Node pos="l" depth="3" NCoef="0" IVar="-1" Cut="0.0000000000000000e+00" cType="1" res="-8.0899134278297424e-02" rms="1.4733795821666718e-01" purity="3.4012444317340851e-02" nType="-99"/>
            <Node pos="r" depth="3" NCoef="0" IVar="-1" Cut="0.0000000000000000e+00" cType="1" res="6.2118866480886936e-03" rms="1.9809950888156891e-01" purity="1.5884496271610260e-01" nType="-99"/>
          </Node>
        </Node>
      </Node>
    </BinaryTree>
    <BinaryTree type="DecisionTree" boostWeight="1.0000000000000000e+00" itree="721">
      <Node pos="s" depth="0" NCoef="0" IVar="7" Cut="3.9931398630142212e-01" cType="1" res="1.4178634155541658e-03" rms="2.3781010508537292e-01" purity="4.9718207120895386e-01" nType="0">
        <Node pos="l" depth="1" NCoef="0" IVar="7" Cut="-2.1003562211990356e-01" cType="1" res="4.3555404990911484e-03" rms="2.3858994245529175e-01" purity="5.3642272949218750e-01" nType="0">
          <Node pos="l" depth="2" NCoef="0" IVar="9" Cut="6.6527199745178223e-01" cType="1" res="3.8489830330945551e-04" rms="2.3914715647697449e-01" purity="4.6280011534690857e-01" nType="0">
            <Node pos="l" depth="3" NCoef="0" IVar="-1" Cut="0.0000000000000000e+00" cType="1" res="-4.7034448944032192e-03" rms="2.3305034637451172e-01" purity="4.7296276688575745e-01" nType="-99"/>
            <Node pos="r" depth="3" NCoef="0" IVar="-1" Cut="0.0000000000000000e+00" cType="1" res="1.5953877940773964e-02" rms="2.5786772370338440e-01" purity="4.2947369813919067e-01" nType="-99"/>
          </Node>
          <Node pos="r" depth="2" NCoef="0" IVar="7" Cut="-6.9116153754293919e-03" cType="1" res="1.0967734269797802e-02" rms="2.3751187324523926e-01" purity="6.5902447700500488e-01" nType="0">
            <Node pos="l" depth="3" NCoef="0" IVar="-1" Cut="0.0000000000000000e+00" cType="1" res="4.4352345168590546e-02" rms="2.4222268164157867e-01" purity="6.7487722635269165e-01" nType="-99"/>
            <Node pos="r" depth="3" NCoef="0" IVar="-1" Cut="0.0000000000000000e+00" cType="1" res="5.9768222272396088e-03" rms="2.3478376865386963e-01" purity="6.5116441249847412e-01" nType="-99"/>
          </Node>
        </Node>
        <Node pos="r" depth="1" NCoef="0" IVar="6" Cut="5.0107657909393311e-01" cType="1" res="-4.3220790103077888e-03" rms="2.3617351055145264e-01" purity="4.2050948739051819e-01" nType="0">
          <Node pos="l" depth="2" NCoef="0" IVar="8" Cut="1.1972075700759888e+00" cType="1" res="-7.7236775541678071e-04" rms="2.4135203659534454e-01" purity="4.6312540769577026e-01" nType="0">
            <Node pos="l" depth="3" NCoef="0" IVar="-1" Cut="0.0000000000000000e+00" cType="1" res="-5.4666795767843723e-03" rms="2.4059806764125824e-01" purity="4.8741799592971802e-01" nType="-99"/>
            <Node pos="r" depth="3" NCoef="0" IVar="-1" Cut="0.0000000000000000e+00" cType="1" res="2.4597080424427986e-02" rms="2.4530404806137085e-01" purity="3.1520020961761475e-01" nType="-99"/>
          </Node>
          <Node pos="r" depth="2" NCoef="0" IVar="1" Cut="5.1253441721200943e-02" cType="1" res="-1.2570867314934731e-02" rms="2.2345946729183197e-01" purity="3.2147896289825439e-01" nType="0">
            <Node pos="l" depth="3" NCoef="0" IVar="-1" Cut="0.0000000000000000e+00" cType="1" res="-6.0872691683471203e-03" rms="1.9091787934303284e-01" purity="1.5516600012779236e-01" nType="-99"/>
            <Node pos="r" depth="3" NCoef="0" IVar="-1" Cut="0.0000000000000000e+00" cType="1" res="-3.7003267556428909e-02" rms="2.6442608237266541e-01" purity="5.7253676652908325e-01" nType="-99"/>
          </Node>
        </Node>
      </Node>
    </BinaryTree>
    <BinaryTree type="DecisionTree" boostWeight="1.0000000000000000e+00" itree="722">
      <Node pos="s" depth="0" NCoef="0" IVar="2" Cut="4.2926391601562500e+02" cType="1" res="-4.9131637206301093e-04" rms="2.3808273673057556e-01" purity="4.9223434925079346e-01" nType="0">
        <Node pos="l" depth="1" NCoef="0" IVar="7" Cut="9.3225115537643433e-01" cType="1" res="-5.7364269159734249e-03" rms="2.4622991681098938e-01" purity="2.8192406892776489e-01" nType="0">
          <Node pos="l" depth="2" NCoef="0" IVar="2" Cut="3.7475732421875000e+02" cType="1" res="-2.0760160405188799e-03" rms="2.5650405883789062e-01" purity="3.1451117992401123e-01" nType="0">
            <Node pos="l" depth="3" NCoef="0" IVar="-1" Cut="0.0000000000000000e+00" cType="1" res="5.7570817880332470e-03" rms="2.5563952326774597e-01" purity="2.6947781443595886e-01" nType="-99"/>
            <Node pos="r" depth="3" NCoef="0" IVar="-1" Cut="0.0000000000000000e+00" cType="1" res="-1.7579201608896255e-02" rms="2.5762316584587097e-01" purity="3.8955640792846680e-01" nType="-99"/>
          </Node>
          <Node pos="r" depth="2" NCoef="0" IVar="7" Cut="1.4655945301055908e+00" cType="1" res="-1.9040275365114212e-02" rms="2.0403583347797394e-01" purity="1.6348552703857422e-01" nType="0">
            <Node pos="l" depth="3" NCoef="0" IVar="-1" Cut="0.0000000000000000e+00" cType="1" res="-4.4653035700321198e-02" rms="2.1684017777442932e-01" purity="2.3032553493976593e-01" nType="-99"/>
            <Node pos="r" depth="3" NCoef="0" IVar="-1" Cut="0.0000000000000000e+00" cType="1" res="-1.0483670979738235e-02" rms="1.8508981168270111e-01" purity="7.6906047761440277e-02" nType="-99"/>
          </Node>
        </Node>
        <Node pos="r" depth="1" NCoef="0" IVar="9" Cut="-1.4635910987854004e+00" cType="1" res="2.0589157938957214e-03" rms="2.3397655785083771e-01" purity="5.9448957443237305e-01" nType="0">
          <Node pos="l" depth="2" NCoef="0" IVar="3" Cut="3.2753106689453125e+02" cType="1" res="-1.5230032615363598e-02" rms="2.7412849664688110e-01" purity="3.8098773360252380e-01" nType="0">
            <Node pos="l" depth="3" NCoef="0" IVar="-1" Cut="0.0000000000000000e+00" cType="1" res="1.7260933294892311e-02" rms="2.6563411951065063e-01" purity="2.0621410012245178e-01" nType="-99"/>
            <Node pos="r" depth="3" NCoef="0" IVar="-1" Cut="0.0000000000000000e+00" cType="1" res="-4.8419341444969177e-02" rms="2.7987575531005859e-01" purity="5.5459064245223999e-01" nType="-99"/>
          </Node>
          <Node pos="r" depth="2" NCoef="0" IVar="7" Cut="-6.5846258401870728e-01" cType="1" res="3.7641704548150301e-03" rms="2.2956566512584686e-01" purity="6.1554789543151855e-01" nType="0">
            <Node pos="l" depth="3" NCoef="0" IVar="-1" Cut="0.0000000000000000e+00" cType="1" res="2.5050515308976173e-02" rms="2.4936272203922272e-01" purity="4.7485327720642090e-01" nType="-99"/>
            <Node pos="r" depth="3" NCoef="0" IVar="-1" Cut="0.0000000000000000e+00" cType="1" res="8.9106813538819551e-04" rms="2.2347222268581390e-01" purity="6.5578663349151611e-01" nType="-99"/>
          </Node>
        </Node>
      </Node>
    </BinaryTree>
    <BinaryTree type="DecisionTree" boostWeight="1.0000000000000000e+00" itree="723">
      <Node pos="s" depth="0" NCoef="0" IVar="6" Cut="-7.8699094057083130e-01" cType="1" res="-1.4592049410566688e-03" rms="2.3870238661766052e-01" purity="4.9616003036499023e-01" nType="0">
        <Node pos="l" depth="1" NCoef="0" IVar="0" Cut="2.3763229980468750e+03" cType="1" res="-9.7482977434992790e-03" rms="2.2429262101650238e-01" purity="2.5899755954742432e-01" nType="0">
          <Node pos="l" depth="2" NCoef="0" IVar="0" Cut="1.7254219970703125e+03" cType="1" res="-1.3840759173035622e-02" rms="2.2553402185440063e-01" purity="1.2153923511505127e-01" nType="0">
            <Node pos="l" depth="3" NCoef="0" IVar="-1" Cut="0.0000000000000000e+00" cType="1" res="-1.5744680538773537e-02" rms="1.4256604015827179e-01" purity="2.6286847889423370e-02" nType="-99"/>
            <Node pos="r" depth="3" NCoef="0" IVar="-1" Cut="0.0000000000000000e+00" cType="1" res="-2.8982566669583321e-02" rms="3.1441476941108704e-01" purity="2.7250614762306213e-01" nType="-99"/>
          </Node>
          <Node pos="r" depth="2" NCoef="0" IVar="-1" Cut="0.0000000000000000e+00" cType="1" res="1.2641683220863342e-02" rms="2.1802607178688049e-01" purity="8.4794807434082031e-01" nType="-99"/>
        </Node>
        <Node pos="r" depth="1" NCoef="0" IVar="6" Cut="4.0784123539924622e-01" cType="1" res="2.8570080758072436e-04" rms="2.4159002304077148e-01" purity="5.4608422517776489e-01" nType="0">
          <Node pos="l" depth="2" NCoef="0" IVar="8" Cut="-1.1989362239837646e+00" cType="1" res="3.6553971003741026e-03" rms="2.4548010528087616e-01" purity="6.4483445882797241e-01" nType="0">
            <Node pos="l" depth="3" NCoef="0" IVar="-1" Cut="0.0000000000000000e+00" cType="1" res="-1.7888542264699936e-02" rms="2.5476607680320740e-01" purity="4.2028856277465820e-01" nType="-99"/>
            <Node pos="r" depth="3" NCoef="0" IVar="-1" Cut="0.0000000000000000e+00" cType="1" res="9.5217302441596985e-03" rms="2.4425189197063446e-01" purity="6.7211288213729858e-01" nType="-99"/>
          </Node>
          <Node pos="r" depth="2" NCoef="0" IVar="7" Cut="-1.1987578868865967e+00" cType="1" res="-5.1234243437647820e-03" rms="2.3511013388633728e-01" purity="3.8756772875785828e-01" nType="0">
            <Node pos="l" depth="3" NCoef="0" IVar="-1" Cut="0.0000000000000000e+00" cType="1" res="2.7634778991341591e-02" rms="1.7922404408454895e-01" purity="1.0044218599796295e-01" nType="-99"/>
            <Node pos="r" depth="3" NCoef="0" IVar="-1" Cut="0.0000000000000000e+00" cType="1" res="-1.2273244559764862e-02" rms="2.4287994205951691e-01" purity="4.3411973118782043e-01" nType="-99"/>
          </Node>
        </Node>
      </Node>
    </BinaryTree>
    <BinaryTree type="DecisionTree" boostWeight="1.0000000000000000e+00" itree="724">
      <Node pos="s" depth="0" NCoef="0" IVar="9" Cut="-1.9990831613540649e+00" cType="1" res="-2.4433655198663473e-04" rms="2.3900018632411957e-01" purity="4.9753367900848389e-01" nType="0">
        <Node pos="l" depth="1" NCoef="0" IVar="-1" Cut="0.0000000000000000e+00" cType="1" res="-3.2751884311437607e-02" rms="2.1557611227035522e-01" purity="1.6162317991256714e-01" nType="-99"/>
        <Node pos="r" depth="1" NCoef="0" IVar="9" Cut="-1.5420432090759277e+00" cType="1" res="3.8896128535270691e-04" rms="2.3975069820880890e-01" purity="5.0924438238143921e-01" nType="0">
          <Node pos="l" depth="2" NCoef="0" IVar="0" Cut="1.7907592773437500e+03" cType="1" res="1.7895871773362160e-02" rms="2.7066168189048767e-01" purity="3.9067682623863220e-01" nType="0">
            <Node pos="l" depth="3" NCoef="0" IVar="-1" Cut="0.0000000000000000e+00" cType="1" res="1.8650867044925690e-02" rms="2.1174795925617218e-01" purity="6.6348008811473846e-02" nType="-99"/>
            <Node pos="r" depth="3" NCoef="0" IVar="-1" Cut="0.0000000000000000e+00" cType="1" res="2.4978617206215858e-02" rms="3.1488618254661560e-01" purity="6.8805223703384399e-01" nType="-99"/>
          </Node>
          <Node pos="r" depth="2" NCoef="0" IVar="9" Cut="9.3872749805450439e-01" cType="1" res="-6.0728366952389479e-04" rms="2.3783217370510101e-01" purity="5.1599156856536865e-01" nType="0">
            <Node pos="l" depth="3" NCoef="0" IVar="-1" Cut="0.0000000000000000e+00" cType="1" res="-4.3525220826268196e-03" rms="2.3174606263637543e-01" purity="5.4404926300048828e-01" nType="-99"/>
            <Node pos="r" depth="3" NCoef="0" IVar="-1" Cut="0.0000000000000000e+00" cType="1" res="9.3856500461697578e-03" rms="2.5860080122947693e-01" purity="4.1421282291412354e-01" nType="-99"/>
          </Node>
        </Node>
      </Node>
    </BinaryTree>
    <BinaryTree type="DecisionTree" boostWeight="1.0000000000000000e+00" itree="725">
      <Node pos="s" depth="0" NCoef="0" IVar="1" Cut="6.0436621308326721e-02" cType="1" res="-1.1863289400935173e-03" rms="2.4018013477325439e-01" purity="4.9633604288101196e-01" nType="0">
        <Node pos="l" depth="1" NCoef="0" IVar="1" Cut="5.1803305745124817e-02" cType="1" res="4.2133596725761890e-03" rms="2.3441347479820251e-01" purity="2.4367591738700867e-01" nType="0">
          <Node pos="l" depth="2" NCoef="0" IVar="0" Cut="2.3266291503906250e+03" cType="1" res="2.0123829599469900e-03" rms="2.2545523941516876e-01" purity="2.1138231456279755e-01" nType="0">
            <Node pos="l" depth="3" NCoef="0" IVar="-1" Cut="0.0000000000000000e+00" cType="1" res="1.1867346242070198e-02" rms="2.0675368607044220e-01" purity="8.3888567984104156e-02" nType="-99"/>
            <Node pos="r" depth="3" NCoef="0" IVar="-1" Cut="0.0000000000000000e+00" cType="1" res="-1.2664215639233589e-02" rms="2.9299959540367126e-01" purity="7.6709300279617310e-01" nType="-99"/>
          </Node>
          <Node pos="r" depth="2" NCoef="0" IVar="8" Cut="1.1283527314662933e-01" cType="1" res="2.2101160138845444e-02" rms="2.9676803946495056e-01" purity="5.0613284111022949e-01" nType="0">
            <Node pos="l" depth="3" NCoef="0" IVar="-1" Cut="0.0000000000000000e+00" cType="1" res="3.9014827460050583e-02" rms="2.9802149534225464e-01" purity="5.2513974905014038e-01" nType="-99"/>
            <Node pos="r" depth="3" NCoef="0" IVar="-1" Cut="0.0000000000000000e+00" cType="1" res="1.9330618903040886e-02" rms="2.9536831378936768e-01" purity="4.8700955510139465e-01" nType="-99"/>
          </Node>
        </Node>
        <Node pos="r" depth="1" NCoef="0" IVar="0" Cut="2.5713295898437500e+03" cType="1" res="-5.9087742120027542e-03" rms="2.4501483142375946e-01" purity="7.1730691194534302e-01" nType="0">
          <Node pos="l" depth="2" NCoef="0" IVar="8" Cut="-6.6798835992813110e-01" cType="1" res="-1.1185485869646072e-02" rms="3.0095311999320984e-01" purity="5.3920006752014160e-01" nType="0">
            <Node pos="l" depth="3" NCoef="0" IVar="-1" Cut="0.0000000000000000e+00" cType="1" res="4.3553626164793968e-03" rms="3.0741789937019348e-01" purity="4.8471215367317200e-01" nType="-99"/>
            <Node pos="r" depth="3" NCoef="0" IVar="-1" Cut="0.0000000000000000e+00" cType="1" res="-1.6615185886621475e-02" rms="2.9868441820144653e-01" purity="5.5665612220764160e-01" nType="-99"/>
          </Node>
          <Node pos="r" depth="2" NCoef="0" IVar="8" Cut="5.7622087001800537e-01" cType="1" res="1.9830223172903061e-03" rms="1.1938286572694778e-01" purity="9.8368179798126221e-01" nType="0">
            <Node pos="l" depth="3" NCoef="0" IVar="-1" Cut="0.0000000000000000e+00" cType="1" res="2.8131783008575439e-02" rms="1.0767079889774323e-01" purity="9.8692423105239868e-01" nType="-99"/>
            <Node pos="r" depth="3" NCoef="0" IVar="-1" Cut="0.0000000000000000e+00" cType="1" res="-3.5313989967107773e-02" rms="1.5437468886375427e-01" purity="9.7188550233840942e-01" nType="-99"/>
          </Node>
        </Node>
      </Node>
    </BinaryTree>
    <BinaryTree type="DecisionTree" boostWeight="1.0000000000000000e+00" itree="726">
      <Node pos="s" depth="0" NCoef="0" IVar="9" Cut="-1.9986016750335693e+00" cType="1" res="-4.3853640090674162e-04" rms="2.3919998109340668e-01" purity="4.9883615970611572e-01" nType="0">
        <Node pos="l" depth="1" NCoef="0" IVar="-1" Cut="0.0000000000000000e+00" cType="1" res="3.0722526833415031e-02" rms="2.6157775521278381e-01" purity="2.1616750955581665e-01" nType="-99"/>
        <Node pos="r" depth="1" NCoef="0" IVar="7" Cut="-1.1974048614501953e+00" cType="1" res="-1.1478280648589134e-03" rms="2.3834586143493652e-01" purity="5.0875002145767212e-01" nType="0">
          <Node pos="l" depth="2" NCoef="0" IVar="8" Cut="-1.2730349600315094e-01" cType="1" res="-1.2208885513246059e-02" rms="2.1276499330997467e-01" purity="2.0914682745933533e-01" nType="0">
            <Node pos="l" depth="3" NCoef="0" IVar="-1" Cut="0.0000000000000000e+00" cType="1" res="3.7501791957765818e-03" rms="2.0136249065399170e-01" purity="2.2305099666118622e-01" nType="-99"/>
            <Node pos="r" depth="3" NCoef="0" IVar="-1" Cut="0.0000000000000000e+00" cType="1" res="-4.6802457422018051e-02" rms="2.2310057282447815e-01" purity="1.9465440511703491e-01" nType="-99"/>
          </Node>
          <Node pos="r" depth="2" NCoef="0" IVar="8" Cut="-1.7329998016357422e+00" cType="1" res="1.6255571972578764e-04" rms="2.4116310477256775e-01" purity="5.4424345493316650e-01" nType="0">
            <Node pos="l" depth="3" NCoef="0" IVar="-1" Cut="0.0000000000000000e+00" cType="1" res="-3.0532499775290489e-02" rms="2.3617647588253021e-01" purity="1.5374319255352020e-01" nType="-99"/>
            <Node pos="r" depth="3" NCoef="0" IVar="-1" Cut="0.0000000000000000e+00" cType="1" res="1.7442607786506414e-03" rms="2.4137409031391144e-01" purity="5.6367814540863037e-01" nType="-99"/>
          </Node>
        </Node>
      </Node>
    </BinaryTree>
    <BinaryTree type="DecisionTree" boostWeight="1.0000000000000000e+00" itree="727">
      <Node pos="s" depth="0" NCoef="0" IVar="6" Cut="-8.1327193975448608e-01" cType="1" res="-8.1514252815395594e-04" rms="2.4196915328502655e-01" purity="5.0365000963211060e-01" nType="0">
        <Node pos="l" depth="1" NCoef="0" IVar="6" Cut="-9.8525518178939819e-01" cType="1" res="6.5719522535800934e-03" rms="2.3824262619018555e-01" purity="2.7852272987365723e-01" nType="0">
          <Node pos="l" depth="2" NCoef="0" IVar="5" Cut="1.7946270751953125e+02" cType="1" res="8.7914068717509508e-04" rms="2.2068582475185394e-01" purity="2.1141289174556732e-01" nType="0">
            <Node pos="l" depth="3" NCoef="0" IVar="-1" Cut="0.0000000000000000e+00" cType="1" res="1.6017831861972809e-02" rms="2.0175828039646149e-01" purity="8.9867666363716125e-02" nType="-99"/>
            <Node pos="r" depth="3" NCoef="0" IVar="-1" Cut="0.0000000000000000e+00" cType="1" res="-1.8859043717384338e-02" rms="2.7267506718635559e-01" purity="6.0736626386642456e-01" nType="-99"/>
          </Node>
          <Node pos="r" depth="2" NCoef="0" IVar="-1" Cut="0.0000000000000000e+00" cType="1" res="3.3291682600975037e-02" rms="2.8550553321838379e-01" purity="4.8817655444145203e-01" nType="-99"/>
        </Node>
        <Node pos="r" depth="1" NCoef="0" IVar="6" Cut="-2.9759791493415833e-01" cType="1" res="-2.2788869682699442e-03" rms="2.4267408251762390e-01" purity="5.4825872182846069e-01" nType="0">
          <Node pos="l" depth="2" NCoef="0" IVar="9" Cut="4.0230536460876465e-01" cType="1" res="-1.0209123603999615e-02" rms="2.6538521051406860e-01" purity="5.7560718059539795e-01" nType="0">
            <Node pos="l" depth="3" NCoef="0" IVar="-1" Cut="0.0000000000000000e+00" cType="1" res="6.8263040157034993e-04" rms="2.5866797566413879e-01" purity="6.0295009613037109e-01" nType="-99"/>
            <Node pos="r" depth="3" NCoef="0" IVar="-1" Cut="0.0000000000000000e+00" cType="1" res="-4.3524365872144699e-02" rms="2.7751806378364563e-01" purity="5.1882374286651611e-01" nType="-99"/>
          </Node>
          <Node pos="r" depth="2" NCoef="0" IVar="7" Cut="9.3104100227355957e-01" cType="1" res="3.3408698072889820e-05" rms="2.3558989167213440e-01" purity="5.4028451442718506e-01" nType="0">
            <Node pos="l" depth="3" NCoef="0" IVar="-1" Cut="0.0000000000000000e+00" cType="1" res="-2.8002778999507427e-03" rms="2.3236019909381866e-01" purity="5.7348519563674927e-01" nType="-99"/>
            <Node pos="r" depth="3" NCoef="0" IVar="-1" Cut="0.0000000000000000e+00" cType="1" res="1.4094569720327854e-02" rms="2.5180330872535706e-01" purity="3.6464416980743408e-01" nType="-99"/>
          </Node>
        </Node>
      </Node>
    </BinaryTree>
    <BinaryTree type="DecisionTree" boostWeight="1.0000000000000000e+00" itree="728">
      <Node pos="s" depth="0" NCoef="0" IVar="8" Cut="-9.3354326486587524e-01" cType="1" res="-5.0471251597627997e-04" rms="2.3991696536540985e-01" purity="4.9476784467697144e-01" nType="0">
        <Node pos="l" depth="1" NCoef="0" IVar="5" Cut="1.3861618041992188e+02" cType="1" res="8.9123807847499847e-03" rms="2.5193881988525391e-01" purity="3.5929378867149353e-01" nType="0">
          <Node pos="l" depth="2" NCoef="0" IVar="1" Cut="3.7960872054100037e-02" cType="1" res="-3.2627205364406109e-03" rms="2.1457821130752563e-01" purity="9.7787566483020782e-02" nType="0">
            <Node pos="l" depth="3" NCoef="0" IVar="-1" Cut="0.0000000000000000e+00" cType="1" res="2.4705819785594940e-02" rms="1.7506767809391022e-01" purity="5.1200162619352341e-02" nType="-99"/>
            <Node pos="r" depth="3" NCoef="0" IVar="-1" Cut="0.0000000000000000e+00" cType="1" res="-2.4281343445181847e-02" rms="2.6278129220008850e-01" purity="1.6857206821441650e-01" nType="-99"/>
          </Node>
          <Node pos="r" depth="2" NCoef="0" IVar="7" Cut="1.4798498153686523e-01" cType="1" res="2.0480474457144737e-02" rms="2.8241616487503052e-01" purity="6.0776221752166748e-01" nType="0">
            <Node pos="l" depth="3" NCoef="0" IVar="-1" Cut="0.0000000000000000e+00" cType="1" res="1.1804528534412384e-02" rms="2.7160769701004028e-01" purity="6.1819726228713989e-01" nType="-99"/>
            <Node pos="r" depth="3" NCoef="0" IVar="-1" Cut="0.0000000000000000e+00" cType="1" res="4.4977985322475433e-02" rms="2.9776015877723694e-01" purity="5.9129852056503296e-01" nType="-99"/>
          </Node>
        </Node>
        <Node pos="r" depth="1" NCoef="0" IVar="3" Cut="5.0807553100585938e+02" cType="1" res="-2.6968542952090502e-03" rms="2.3697732388973236e-01" purity="5.2630394697189331e-01" nType="0">
          <Node pos="l" depth="2" NCoef="0" IVar="9" Cut="1.3263076543807983e-01" cType="1" res="-4.1689560748636723e-03" rms="2.4223820865154266e-01" purity="4.7488471865653992e-01" nType="0">
            <Node pos="l" depth="3" NCoef="0" IVar="-1" Cut="0.0000000000000000e+00" cType="1" res="-1.3382790610194206e-02" rms="2.4497140944004059e-01" purity="4.8581573367118835e-01" nType="-99"/>
            <Node pos="r" depth="3" NCoef="0" IVar="-1" Cut="0.0000000000000000e+00" cType="1" res="7.0280651561915874e-04" rms="2.3898802697658539e-01" purity="4.6236985921859741e-01" nType="-99"/>
          </Node>
          <Node pos="r" depth="2" NCoef="0" IVar="4" Cut="2.9323004150390625e+02" cType="1" res="7.9802172258496284e-03" rms="1.9427590072154999e-01" purity="8.9924478530883789e-01" nType="0">
            <Node pos="l" depth="3" NCoef="0" IVar="-1" Cut="0.0000000000000000e+00" cType="1" res="3.2365530729293823e-02" rms="2.7025976777076721e-01" purity="7.3669785261154175e-01" nType="-99"/>
            <Node pos="r" depth="3" NCoef="0" IVar="-1" Cut="0.0000000000000000e+00" cType="1" res="4.2371312156319618e-03" rms="1.5687169134616852e-01" purity="9.5895439386367798e-01" nType="-99"/>
          </Node>
        </Node>
      </Node>
    </BinaryTree>
    <BinaryTree type="DecisionTree" boostWeight="1.0000000000000000e+00" itree="729">
      <Node pos="s" depth="0" NCoef="0" IVar="9" Cut="4.0008312463760376e-01" cType="1" res="-1.1085135629400611e-03" rms="2.3833779990673065e-01" purity="4.9862578511238098e-01" nType="0">
        <Node pos="l" depth="1" NCoef="0" IVar="4" Cut="2.3468263244628906e+02" cType="1" res="-4.8326016403734684e-03" rms="2.3275822401046753e-01" purity="5.1136565208435059e-01" nType="0">
          <Node pos="l" depth="2" NCoef="0" IVar="0" Cut="1.6438378906250000e+03" cType="1" res="-9.5823379233479500e-03" rms="2.3920451104640961e-01" purity="2.2796207666397095e-01" nType="0">
            <Node pos="l" depth="3" NCoef="0" IVar="-1" Cut="0.0000000000000000e+00" cType="1" res="-1.1166078038513660e-02" rms="1.5239079296588898e-01" purity="3.0150769278407097e-02" nType="-99"/>
            <Node pos="r" depth="3" NCoef="0" IVar="-1" Cut="0.0000000000000000e+00" cType="1" res="-1.6568209975957870e-02" rms="2.9862251877784729e-01" purity="4.1435006260871887e-01" nType="-99"/>
          </Node>
          <Node pos="r" depth="2" NCoef="0" IVar="9" Cut="-1.2753252983093262e+00" cType="1" res="5.0150428432971239e-04" rms="2.2517967224121094e-01" purity="8.2963681221008301e-01" nType="0">
            <Node pos="l" depth="3" NCoef="0" IVar="-1" Cut="0.0000000000000000e+00" cType="1" res="2.1044423803687096e-02" rms="2.7203288674354553e-01" purity="6.8767005205154419e-01" nType="-99"/>
            <Node pos="r" depth="3" NCoef="0" IVar="-1" Cut="0.0000000000000000e+00" cType="1" res="-4.5649744570255280e-03" rms="2.1662493050098419e-01" purity="8.5235291719436646e-01" nType="-99"/>
          </Node>
        </Node>
        <Node pos="r" depth="1" NCoef="0" IVar="0" Cut="2.3893061523437500e+03" cType="1" res="5.5331885814666748e-03" rms="2.4783839285373688e-01" purity="4.7590500116348267e-01" nType="0">
          <Node pos="l" depth="2" NCoef="0" IVar="4" Cut="2.4213088989257812e+02" cType="1" res="1.0994163341820240e-02" rms="2.6849237084388733e-01" purity="2.4717026948928833e-01" nType="0">
            <Node pos="l" depth="3" NCoef="0" IVar="-1" Cut="0.0000000000000000e+00" cType="1" res="8.8296290487051010e-03" rms="2.4871529638767242e-01" purity="1.6884286701679230e-01" nType="-99"/>
            <Node pos="r" depth="3" NCoef="0" IVar="-1" Cut="0.0000000000000000e+00" cType="1" res="2.9927812516689301e-02" rms="3.3881303668022156e-01" purity="5.7917982339859009e-01" nType="-99"/>
          </Node>
          <Node pos="r" depth="2" NCoef="0" IVar="1" Cut="5.4827351123094559e-02" cType="1" res="-5.1520597189664841e-03" rms="2.0096018910408020e-01" purity="9.2346006631851196e-01" nType="0">
            <Node pos="l" depth="3" NCoef="0" IVar="-1" Cut="0.0000000000000000e+00" cType="1" res="-2.1644042804837227e-02" rms="3.1430801749229431e-01" purity="7.5214147567749023e-01" nType="-99"/>
            <Node pos="r" depth="3" NCoef="0" IVar="-1" Cut="0.0000000000000000e+00" cType="1" res="-4.7759935259819031e-03" rms="1.5650084614753723e-01" purity="9.6985799074172974e-01" nType="-99"/>
          </Node>
        </Node>
      </Node>
    </BinaryTree>
    <BinaryTree type="DecisionTree" boostWeight="1.0000000000000000e+00" itree="730">
      <Node pos="s" depth="0" NCoef="0" IVar="9" Cut="1.7330390214920044e+00" cType="1" res="5.4887292208150029e-04" rms="2.4202720820903778e-01" purity="4.9312046170234680e-01" nType="0">
        <Node pos="l" depth="1" NCoef="0" IVar="9" Cut="4.3815806508064270e-01" cType="1" res="-7.7346526086330414e-04" rms="2.4021115899085999e-01" purity="5.0810414552688599e-01" nType="0">
          <Node pos="l" depth="2" NCoef="0" IVar="7" Cut="-9.3345445394515991e-01" cType="1" res="2.1480727009475231e-03" rms="2.3994976282119751e-01" purity="5.1040464639663696e-01" nType="0">
            <Node pos="l" depth="3" NCoef="0" IVar="-1" Cut="0.0000000000000000e+00" cType="1" res="2.0938426256179810e-02" rms="2.4068383872509003e-01" purity="3.0579036474227905e-01" nType="-99"/>
            <Node pos="r" depth="3" NCoef="0" IVar="-1" Cut="0.0000000000000000e+00" cType="1" res="1.5259307110682130e-04" rms="2.3974531888961792e-01" purity="5.5299335718154907e-01" nType="-99"/>
          </Node>
          <Node pos="r" depth="2" NCoef="0" IVar="7" Cut="-9.2943143844604492e-01" cType="1" res="-7.4886134825646877e-03" rms="2.4067650735378265e-01" purity="5.0281649827957153e-01" nType="0">
            <Node pos="l" depth="3" NCoef="0" IVar="-1" Cut="0.0000000000000000e+00" cType="1" res="-4.4695332646369934e-02" rms="2.3780143260955811e-01" purity="2.7791094779968262e-01" nType="-99"/>
            <Node pos="r" depth="3" NCoef="0" IVar="-1" Cut="0.0000000000000000e+00" cType="1" res="-6.1955400742590427e-03" rms="2.4098400771617889e-01" purity="5.4222875833511353e-01" nType="-99"/>
          </Node>
        </Node>
        <Node pos="r" depth="1" NCoef="0" IVar="3" Cut="2.7872360229492188e+02" cType="1" res="2.0536139607429504e-02" rms="2.6718640327453613e-01" purity="2.6664081215858459e-01" nType="0">
          <Node pos="l" depth="2" NCoef="0" IVar="-1" Cut="0.0000000000000000e+00" cType="1" res="1.3198426924645901e-02" rms="2.3249655961990356e-01" purity="1.2701185047626495e-01" nType="-99"/>
          <Node pos="r" depth="2" NCoef="0" IVar="-1" Cut="0.0000000000000000e+00" cType="1" res="4.5219257473945618e-02" rms="2.9978263378143311e-01" purity="4.1860294342041016e-01" nType="-99"/>
        </Node>
      </Node>
    </BinaryTree>
    <BinaryTree type="DecisionTree" boostWeight="1.0000000000000000e+00" itree="731">
      <Node pos="s" depth="0" NCoef="0" IVar="8" Cut="-1.1998132467269897e+00" cType="1" res="-9.2519388999789953e-04" rms="2.3877069354057312e-01" purity="5.0369268655776978e-01" nType="0">
        <Node pos="l" depth="1" NCoef="0" IVar="4" Cut="2.4843775939941406e+02" cType="1" res="-1.4320454560220242e-02" rms="2.4005679786205292e-01" purity="2.9770559072494507e-01" nType="0">
          <Node pos="l" depth="2" NCoef="0" IVar="8" Cut="-1.5046637058258057e+00" cType="1" res="-9.7697963938117027e-03" rms="2.3790636658668518e-01" purity="2.0232531428337097e-01" nType="0">
            <Node pos="l" depth="3" NCoef="0" IVar="-1" Cut="0.0000000000000000e+00" cType="1" res="-1.3790813682135195e-04" rms="2.2882753610610962e-01" purity="1.7309111356735229e-01" nType="-99"/>
            <Node pos="r" depth="3" NCoef="0" IVar="-1" Cut="0.0000000000000000e+00" cType="1" res="-4.0443010628223419e-02" rms="2.5400748848915100e-01" purity="2.6086485385894775e-01" nType="-99"/>
          </Node>
          <Node pos="r" depth="2" NCoef="0" IVar="-1" Cut="0.0000000000000000e+00" cType="1" res="-4.1133254766464233e-02" rms="2.4652375280857086e-01" purity="6.1780565977096558e-01" nType="-99"/>
        </Node>
        <Node pos="r" depth="1" NCoef="0" IVar="6" Cut="4.9750685691833496e-01" cType="1" res="9.3067652778699994e-04" rms="2.3853263258934021e-01" purity="5.3223150968551636e-01" nType="0">
          <Node pos="l" depth="2" NCoef="0" IVar="6" Cut="3.5148835182189941e-01" cType="1" res="2.8882485348731279e-03" rms="2.3855064809322357e-01" purity="5.8208894729614258e-01" nType="0">
            <Node pos="l" depth="3" NCoef="0" IVar="-1" Cut="0.0000000000000000e+00" cType="1" res="2.4187827948480844e-03" rms="2.3718011379241943e-01" purity="5.7455271482467651e-01" nType="-99"/>
            <Node pos="r" depth="3" NCoef="0" IVar="-1" Cut="0.0000000000000000e+00" cType="1" res="2.8881333768367767e-02" rms="2.5185659527778625e-01" purity="6.6047751903533936e-01" nType="-99"/>
          </Node>
          <Node pos="r" depth="2" NCoef="0" IVar="8" Cut="7.0393806695938110e-01" cType="1" res="-4.4223475269973278e-03" rms="2.3840130865573883e-01" purity="3.9589527249336243e-01" nType="0">
            <Node pos="l" depth="3" NCoef="0" IVar="-1" Cut="0.0000000000000000e+00" cType="1" res="-1.7677944153547287e-02" rms="2.3665982484817505e-01" purity="4.2771199345588684e-01" nType="-99"/>
            <Node pos="r" depth="3" NCoef="0" IVar="-1" Cut="0.0000000000000000e+00" cType="1" res="1.5259312465786934e-02" rms="2.4167768657207489e-01" purity="3.2502034306526184e-01" nType="-99"/>
          </Node>
        </Node>
      </Node>
    </BinaryTree>
    <BinaryTree type="DecisionTree" boostWeight="1.0000000000000000e+00" itree="732">
      <Node pos="s" depth="0" NCoef="0" IVar="2" Cut="6.5817657470703125e+02" cType="1" res="-6.0931895859539509e-04" rms="2.3653773963451385e-01" purity="4.9722492694854736e-01" nType="0">
        <Node pos="l" depth="1" NCoef="0" IVar="2" Cut="3.3106954956054688e+02" cType="1" res="7.9161429312080145e-04" rms="2.3915386199951172e-01" purity="4.3701973557472229e-01" nType="0">
          <Node pos="l" depth="2" NCoef="0" IVar="5" Cut="1.3077468872070312e+02" cType="1" res="-9.8488461226224899e-03" rms="2.4554502964019775e-01" purity="2.0188440382480621e-01" nType="0">
            <Node pos="l" depth="3" NCoef="0" IVar="-1" Cut="0.0000000000000000e+00" cType="1" res="6.6485293209552765e-03" rms="2.1827475726604462e-01" purity="7.3085792362689972e-02" nType="-99"/>
            <Node pos="r" depth="3" NCoef="0" IVar="-1" Cut="0.0000000000000000e+00" cType="1" res="-2.1762821823358536e-02" rms="2.6105588674545288e-01" purity="2.8363600373268127e-01" nType="-99"/>
          </Node>
          <Node pos="r" depth="2" NCoef="0" IVar="7" Cut="-6.6473305225372314e-01" cType="1" res="2.6263908948749304e-03" rms="2.3798638582229614e-01" purity="4.7756510972976685e-01" nType="0">
            <Node pos="l" depth="3" NCoef="0" IVar="-1" Cut="0.0000000000000000e+00" cType="1" res="1.5024879947304726e-02" rms="2.3716115951538086e-01" purity="3.6742129921913147e-01" nType="-99"/>
            <Node pos="r" depth="3" NCoef="0" IVar="-1" Cut="0.0000000000000000e+00" cType="1" res="1.0630933102220297e-03" rms="2.3823586106300354e-01" purity="5.1542741060256958e-01" nType="-99"/>
          </Node>
        </Node>
        <Node pos="r" depth="1" NCoef="0" IVar="0" Cut="2.3800651855468750e+03" cType="1" res="-5.6112767197191715e-03" rms="2.2688053548336029e-01" purity="7.1218436956405640e-01" nType="0">
          <Node pos="l" depth="2" NCoef="0" IVar="9" Cut="1.3452704250812531e-01" cType="1" res="-2.7760306373238564e-02" rms="2.3219436407089233e-01" purity="1.4647309482097626e-01" nType="0">
            <Node pos="l" depth="3" NCoef="0" IVar="-1" Cut="0.0000000000000000e+00" cType="1" res="-5.6305445730686188e-02" rms="2.1885319054126740e-01" purity="1.2445668131113052e-01" nType="-99"/>
            <Node pos="r" depth="3" NCoef="0" IVar="-1" Cut="0.0000000000000000e+00" cType="1" res="-1.8015226349234581e-02" rms="2.4390865862369537e-01" purity="1.6820105910301208e-01" nType="-99"/>
          </Node>
          <Node pos="r" depth="2" NCoef="0" IVar="4" Cut="2.3493859863281250e+02" cType="1" res="1.5272890450432897e-03" rms="2.2467640042304993e-01" purity="8.9451134204864502e-01" nType="0">
            <Node pos="l" depth="3" NCoef="0" IVar="-1" Cut="0.0000000000000000e+00" cType="1" res="1.8484858796000481e-02" rms="3.1239482760429382e-01" purity="7.6569759845733643e-01" nType="-99"/>
            <Node pos="r" depth="3" NCoef="0" IVar="-1" Cut="0.0000000000000000e+00" cType="1" res="-8.4454799070954323e-03" rms="1.9235774874687195e-01" purity="9.3108272552490234e-01" nType="-99"/>
          </Node>
        </Node>
      </Node>
    </BinaryTree>
    <BinaryTree type="DecisionTree" boostWeight="1.0000000000000000e+00" itree="733">
      <Node pos="s" depth="0" NCoef="0" IVar="1" Cut="6.2025293707847595e-02" cType="1" res="-1.2207654071971774e-03" rms="2.3738640546798706e-01" purity="4.9136850237846375e-01" nType="0">
        <Node pos="l" depth="1" NCoef="0" IVar="2" Cut="6.8730267333984375e+02" cType="1" res="-5.7072015479207039e-03" rms="2.2865839302539825e-01" purity="2.4366879463195801e-01" nType="0">
          <Node pos="l" depth="2" NCoef="0" IVar="4" Cut="2.5694461059570312e+02" cType="1" res="-7.9630818217992783e-03" rms="2.1594837307929993e-01" purity="1.8291229009628296e-01" nType="0">
            <Node pos="l" depth="3" NCoef="0" IVar="-1" Cut="0.0000000000000000e+00" cType="1" res="-9.6940658986568451e-03" rms="2.0296357572078705e-01" purity="1.0259844362735748e-01" nType="-99"/>
            <Node pos="r" depth="3" NCoef="0" IVar="-1" Cut="0.0000000000000000e+00" cType="1" res="-3.1699135899543762e-02" rms="2.7074050903320312e-01" purity="5.8287400007247925e-01" nType="-99"/>
          </Node>
          <Node pos="r" depth="2" NCoef="0" IVar="4" Cut="2.4388421630859375e+02" cType="1" res="4.5908396132290363e-03" rms="2.7919867634773254e-01" purity="5.2102088928222656e-01" nType="0">
            <Node pos="l" depth="3" NCoef="0" IVar="-1" Cut="0.0000000000000000e+00" cType="1" res="-1.0988197289407253e-02" rms="2.7623566985130310e-01" purity="2.7432656288146973e-01" nType="-99"/>
            <Node pos="r" depth="3" NCoef="0" IVar="-1" Cut="0.0000000000000000e+00" cType="1" res="2.5358898565173149e-02" rms="2.8184777498245239e-01" purity="8.1875175237655640e-01" nType="-99"/>
          </Node>
        </Node>
        <Node pos="r" depth="1" NCoef="0" IVar="6" Cut="5.0244188308715820e-01" cType="1" res="2.8425117488950491e-03" rms="2.4495214223861694e-01" purity="7.1570527553558350e-01" nType="0">
          <Node pos="l" depth="2" NCoef="0" IVar="9" Cut="-1.4633178710937500e+00" cType="1" res="6.8585202097892761e-03" rms="2.4373409152030945e-01" purity="7.4394261837005615e-01" nType="0">
            <Node pos="l" depth="3" NCoef="0" IVar="-1" Cut="0.0000000000000000e+00" cType="1" res="3.8440961390733719e-02" rms="3.2185187935829163e-01" purity="6.7774617671966553e-01" nType="-99"/>
            <Node pos="r" depth="3" NCoef="0" IVar="-1" Cut="0.0000000000000000e+00" cType="1" res="7.6988884247839451e-03" rms="2.3646971583366394e-01" purity="7.4904352426528931e-01" nType="-99"/>
          </Node>
          <Node pos="r" depth="2" NCoef="0" IVar="0" Cut="2.1758039550781250e+03" cType="1" res="-1.1795097962021828e-02" rms="2.4879324436187744e-01" purity="6.1278545856475830e-01" nType="0">
            <Node pos="l" depth="3" NCoef="0" IVar="-1" Cut="0.0000000000000000e+00" cType="1" res="-2.6303553953766823e-02" rms="3.0537489056587219e-01" purity="2.6691421866416931e-01" nType="-99"/>
            <Node pos="r" depth="3" NCoef="0" IVar="-1" Cut="0.0000000000000000e+00" cType="1" res="1.8609648570418358e-02" rms="1.7147952318191528e-01" purity="9.6399748325347900e-01" nType="-99"/>
          </Node>
        </Node>
      </Node>
    </BinaryTree>
    <BinaryTree type="DecisionTree" boostWeight="1.0000000000000000e+00" itree="734">
      <Node pos="s" depth="0" NCoef="0" IVar="8" Cut="-6.6692388057708740e-01" cType="1" res="2.0717158913612366e-03" rms="2.3743078112602234e-01" purity="4.9520865082740784e-01" nType="0">
        <Node pos="l" depth="1" NCoef="0" IVar="4" Cut="2.4785813903808594e+02" cType="1" res="-4.8339013010263443e-03" rms="2.3329766094684601e-01" purity="3.9770677685737610e-01" nType="0">
          <Node pos="l" depth="2" NCoef="0" IVar="2" Cut="4.5600912475585938e+02" cType="1" res="-1.0962923057377338e-02" rms="2.3301595449447632e-01" purity="2.2202728688716888e-01" nType="0">
            <Node pos="l" depth="3" NCoef="0" IVar="-1" Cut="0.0000000000000000e+00" cType="1" res="-3.5097017884254456e-02" rms="2.1196357905864716e-01" purity="1.4099588990211487e-01" nType="-99"/>
            <Node pos="r" depth="3" NCoef="0" IVar="-1" Cut="0.0000000000000000e+00" cType="1" res="-7.0242537185549736e-04" rms="2.5408047437667847e-01" purity="3.1258362531661987e-01" nType="-99"/>
          </Node>
          <Node pos="r" depth="2" NCoef="0" IVar="7" Cut="7.1168333292007446e-02" cType="1" res="8.6908778175711632e-03" rms="2.3334921896457672e-01" purity="7.8537493944168091e-01" nType="0">
            <Node pos="l" depth="3" NCoef="0" IVar="-1" Cut="0.0000000000000000e+00" cType="1" res="2.7273958548903465e-02" rms="2.3434031009674072e-01" purity="8.2221716642379761e-01" nType="-99"/>
            <Node pos="r" depth="3" NCoef="0" IVar="-1" Cut="0.0000000000000000e+00" cType="1" res="6.1812874628230929e-04" rms="2.3194581270217896e-01" purity="7.4383682012557983e-01" nType="-99"/>
          </Node>
        </Node>
        <Node pos="r" depth="1" NCoef="0" IVar="1" Cut="1.2011200189590454e-01" cType="1" res="4.4363308697938919e-03" rms="2.3878370225429535e-01" purity="5.2859520912170410e-01" nType="0">
          <Node pos="l" depth="2" NCoef="0" IVar="1" Cut="3.4392986446619034e-02" cType="1" res="7.6952646486461163e-03" rms="2.4931813776493073e-01" purity="4.1433575749397278e-01" nType="0">
            <Node pos="l" depth="3" NCoef="0" IVar="-1" Cut="0.0000000000000000e+00" cType="1" res="2.3326239897869527e-04" rms="2.0062620937824249e-01" purity="1.7051357030868530e-01" nType="-99"/>
            <Node pos="r" depth="3" NCoef="0" IVar="-1" Cut="0.0000000000000000e+00" cType="1" res="1.6893247142434120e-02" rms="2.7616444230079651e-01" purity="5.7201915979385376e-01" nType="-99"/>
          </Node>
          <Node pos="r" depth="2" NCoef="0" IVar="0" Cut="2.1238754882812500e+03" cType="1" res="-4.0381234139204025e-03" rms="2.0868010818958282e-01" purity="8.2571268081665039e-01" nType="0">
            <Node pos="l" depth="3" NCoef="0" IVar="-1" Cut="0.0000000000000000e+00" cType="1" res="-1.7509231343865395e-02" rms="3.4024909138679504e-01" purity="4.0608930587768555e-01" nType="-99"/>
            <Node pos="r" depth="3" NCoef="0" IVar="-1" Cut="0.0000000000000000e+00" cType="1" res="1.5190367586910725e-02" rms="1.2834903597831726e-01" purity="9.8201805353164673e-01" nType="-99"/>
          </Node>
        </Node>
      </Node>
    </BinaryTree>
    <BinaryTree type="DecisionTree" boostWeight="1.0000000000000000e+00" itree="735">
      <Node pos="s" depth="0" NCoef="0" IVar="8" Cut="-1.9948883056640625e+00" cType="1" res="1.7600930295884609e-03" rms="2.3930211365222931e-01" purity="5.0424778461456299e-01" nType="0">
        <Node pos="l" depth="1" NCoef="0" IVar="-1" Cut="0.0000000000000000e+00" cType="1" res="5.4953563958406448e-02" rms="2.3133209347724915e-01" purity="1.2460403889417648e-01" nType="-99"/>
        <Node pos="r" depth="1" NCoef="0" IVar="8" Cut="-6.2507766485214233e-01" cType="1" res="1.1532388161867857e-03" rms="2.3949864506721497e-01" purity="5.1511168479919434e-01" nType="0">
          <Node pos="l" depth="2" NCoef="0" IVar="0" Cut="2.0794167480468750e+03" cType="1" res="-6.8403924815356731e-03" rms="2.4097386002540588e-01" purity="4.3528673052787781e-01" nType="0">
            <Node pos="l" depth="3" NCoef="0" IVar="-1" Cut="0.0000000000000000e+00" cType="1" res="-1.9531816244125366e-02" rms="2.4115289747714996e-01" purity="1.1541772633790970e-01" nType="-99"/>
            <Node pos="r" depth="3" NCoef="0" IVar="-1" Cut="0.0000000000000000e+00" cType="1" res="1.5244302339851856e-03" rms="2.4051682651042938e-01" purity="8.6477708816528320e-01" nType="-99"/>
          </Node>
          <Node pos="r" depth="2" NCoef="0" IVar="9" Cut="1.9996649026870728e+00" cType="1" res="3.8798111490905285e-03" rms="2.3893222212791443e-01" purity="5.4233944416046143e-01" nType="0">
            <Node pos="l" depth="3" NCoef="0" IVar="-1" Cut="0.0000000000000000e+00" cType="1" res="7.9709868878126144e-03" rms="2.3865579068660736e-01" purity="5.5587244033813477e-01" nType="-99"/>
            <Node pos="r" depth="3" NCoef="0" IVar="-1" Cut="0.0000000000000000e+00" cType="1" res="-2.6146266609430313e-02" rms="2.4529017508029938e-01" purity="1.7577293515205383e-01" nType="-99"/>
          </Node>
        </Node>
      </Node>
    </BinaryTree>
    <BinaryTree type="DecisionTree" boostWeight="1.0000000000000000e+00" itree="736">
      <Node pos="s" depth="0" NCoef="0" IVar="9" Cut="-1.1994786262512207e+00" cType="1" res="5.7803414529189467e-04" rms="2.3647086322307587e-01" purity="5.0153291225433350e-01" nType="0">
        <Node pos="l" depth="1" NCoef="0" IVar="2" Cut="4.2477838134765625e+02" cType="1" res="-7.1034077554941177e-03" rms="2.4510809779167175e-01" purity="3.8345450162887573e-01" nType="0">
          <Node pos="l" depth="2" NCoef="0" IVar="-1" Cut="0.0000000000000000e+00" cType="1" res="7.7580381184816360e-03" rms="2.6705357432365417e-01" purity="2.7128493785858154e-01" nType="-99"/>
          <Node pos="r" depth="2" NCoef="0" IVar="9" Cut="-1.6564719676971436e+00" cType="1" res="-1.3263236731290817e-02" rms="2.3338238894939423e-01" purity="4.3829455971717834e-01" nType="0">
            <Node pos="l" depth="3" NCoef="0" IVar="-1" Cut="0.0000000000000000e+00" cType="1" res="-7.1115413447842002e-04" rms="2.4522486329078674e-01" purity="3.3267414569854736e-01" nType="-99"/>
            <Node pos="r" depth="3" NCoef="0" IVar="-1" Cut="0.0000000000000000e+00" cType="1" res="-3.7808120250701904e-02" rms="2.2322490811347961e-01" purity="5.2052700519561768e-01" nType="-99"/>
          </Node>
        </Node>
        <Node pos="r" depth="1" NCoef="0" IVar="0" Cut="1.9325506591796875e+03" cType="1" res="1.8760896055027843e-03" rms="2.3495513200759888e-01" purity="5.2148646116256714e-01" nType="0">
          <Node pos="l" depth="2" NCoef="0" IVar="0" Cut="1.8564514160156250e+03" cType="1" res="5.2824895828962326e-03" rms="2.3340906202793121e-01" purity="9.5317423343658447e-02" nType="0">
            <Node pos="l" depth="3" NCoef="0" IVar="-1" Cut="0.0000000000000000e+00" cType="1" res="6.7659970372915268e-03" rms="2.1719983220100403e-01" purity="7.1986161172389984e-02" nType="-99"/>
            <Node pos="r" depth="3" NCoef="0" IVar="-1" Cut="0.0000000000000000e+00" cType="1" res="2.1184710785746574e-02" rms="3.6902374029159546e-01" purity="3.5821995139122009e-01" nType="-99"/>
          </Node>
          <Node pos="r" depth="2" NCoef="0" IVar="0" Cut="2.1736650390625000e+03" cType="1" res="-6.5682275453582406e-04" rms="2.3606632649898529e-01" purity="8.3837491273880005e-01" nType="0">
            <Node pos="l" depth="3" NCoef="0" IVar="-1" Cut="0.0000000000000000e+00" cType="1" res="-8.7778959423303604e-03" rms="3.3668875694274902e-01" purity="5.0072246789932251e-01" nType="-99"/>
            <Node pos="r" depth="3" NCoef="0" IVar="-1" Cut="0.0000000000000000e+00" cType="1" res="3.9857761003077030e-03" rms="2.0594371855258942e-01" purity="9.1620409488677979e-01" nType="-99"/>
          </Node>
        </Node>
      </Node>
    </BinaryTree>
    <BinaryTree type="DecisionTree" boostWeight="1.0000000000000000e+00" itree="737">
      <Node pos="s" depth="0" NCoef="0" IVar="1" Cut="2.1328650414943695e-02" cType="1" res="1.4135978417471051e-03" rms="2.3811024427413940e-01" purity="5.0065004825592041e-01" nType="0">
        <Node pos="l" depth="1" NCoef="0" IVar="0" Cut="1.8456688232421875e+03" cType="1" res="9.3220453709363937e-03" rms="1.8164083361625671e-01" purity="1.1774608492851257e-01" nType="0">
          <Node pos="l" depth="2" NCoef="0" IVar="8" Cut="-1.1970777511596680e+00" cType="1" res="-8.2436448428779840e-04" rms="8.8047005236148834e-02" purity="8.9848721399903297e-03" nType="0">
            <Node pos="l" depth="3" NCoef="0" IVar="-1" Cut="0.0000000000000000e+00" cType="1" res="1.1565367132425308e-01" rms="1.2171497195959091e-01" purity="1.7825137823820114e-02" nType="-99"/>
            <Node pos="r" depth="3" NCoef="0" IVar="-1" Cut="0.0000000000000000e+00" cType="1" res="-3.9105974137783051e-02" rms="7.5982324779033661e-02" purity="6.5521975047886372e-03" nType="-99"/>
          </Node>
          <Node pos="r" depth="2" NCoef="0" IVar="5" Cut="1.3742187500000000e+02" cType="1" res="3.1185101717710495e-02" rms="2.9441815614700317e-01" purity="3.5210016369819641e-01" nType="0">
            <Node pos="l" depth="3" NCoef="0" IVar="-1" Cut="0.0000000000000000e+00" cType="1" res="2.0403962582349777e-02" rms="2.7780610322952271e-01" purity="1.5658248960971832e-01" nType="-99"/>
            <Node pos="r" depth="3" NCoef="0" IVar="-1" Cut="0.0000000000000000e+00" cType="1" res="4.4446088373661041e-02" rms="3.0914568901062012e-01" purity="5.4572272300720215e-01" nType="-99"/>
          </Node>
        </Node>
        <Node pos="r" depth="1" NCoef="0" IVar="8" Cut="1.3365119695663452e-01" cType="1" res="-3.3795289346016943e-04" rms="2.4885596334934235e-01" purity="5.8545500040054321e-01" nType="0">
          <Node pos="l" depth="2" NCoef="0" IVar="8" Cut="-2.8528639674186707e-01" cType="1" res="-3.1918273307383060e-03" rms="2.4468775093555450e-01" purity="5.8484703302383423e-01" nType="0">
            <Node pos="l" depth="3" NCoef="0" IVar="-1" Cut="0.0000000000000000e+00" cType="1" res="6.4566096989437938e-04" rms="2.5403198599815369e-01" purity="5.5136543512344360e-01" nType="-99"/>
            <Node pos="r" depth="3" NCoef="0" IVar="-1" Cut="0.0000000000000000e+00" cType="1" res="-2.0850947126746178e-02" rms="2.2133846580982208e-01" purity="6.6231018304824829e-01" nType="-99"/>
          </Node>
          <Node pos="r" depth="2" NCoef="0" IVar="7" Cut="3.5622996091842651e-01" cType="1" res="3.2775946892797947e-03" rms="2.5399240851402283e-01" purity="5.8622527122497559e-01" nType="0">
            <Node pos="l" depth="3" NCoef="0" IVar="-1" Cut="0.0000000000000000e+00" cType="1" res="1.2812847271561623e-02" rms="2.5897368788719177e-01" purity="6.1401617527008057e-01" nType="-99"/>
            <Node pos="r" depth="3" NCoef="0" IVar="-1" Cut="0.0000000000000000e+00" cType="1" res="-9.5928590744733810e-03" rms="2.4464794993400574e-01" purity="5.3709673881530762e-01" nType="-99"/>
          </Node>
        </Node>
      </Node>
    </BinaryTree>
    <BinaryTree type="DecisionTree" boostWeight="1.0000000000000000e+00" itree="738">
      <Node pos="s" depth="0" NCoef="0" IVar="3" Cut="1.9833650207519531e+02" cType="1" res="-2.5238725356757641e-03" rms="2.3827670514583588e-01" purity="5.0073230266571045e-01" nType="0">
        <Node pos="l" depth="1" NCoef="0" IVar="3" Cut="1.8597171020507812e+02" cType="1" res="8.7213162332773209e-03" rms="2.0610494911670685e-01" purity="8.4412604570388794e-02" nType="0">
          <Node pos="l" depth="2" NCoef="0" IVar="4" Cut="1.3587414550781250e+02" cType="1" res="-2.4583900813013315e-04" rms="1.7697411775588989e-01" purity="6.1136666685342789e-02" nType="0">
            <Node pos="l" depth="3" NCoef="0" IVar="-1" Cut="0.0000000000000000e+00" cType="1" res="-2.7651594951748848e-02" rms="1.3731858134269714e-01" purity="2.0827727392315865e-02" nType="-99"/>
            <Node pos="r" depth="3" NCoef="0" IVar="-1" Cut="0.0000000000000000e+00" cType="1" res="1.4454427175223827e-02" rms="2.1920523047447205e-01" purity="1.1557607352733612e-01" nType="-99"/>
          </Node>
          <Node pos="r" depth="2" NCoef="0" IVar="-1" Cut="0.0000000000000000e+00" cType="1" res="6.1160322278738022e-02" rms="2.6806268095970154e-01" purity="1.4736971259117126e-01" nType="-99"/>
        </Node>
        <Node pos="r" depth="1" NCoef="0" IVar="3" Cut="2.5709234619140625e+02" cType="1" res="-3.7738855462521315e-03" rms="2.4155613780021667e-01" purity="5.4701030254364014e-01" nType="0">
          <Node pos="l" depth="2" NCoef="0" IVar="1" Cut="5.3813725709915161e-02" cType="1" res="-1.3012957759201527e-02" rms="2.4279254674911499e-01" purity="1.9222478568553925e-01" nType="0">
            <Node pos="l" depth="3" NCoef="0" IVar="-1" Cut="0.0000000000000000e+00" cType="1" res="-7.0334332995116711e-03" rms="1.9032643735408783e-01" purity="7.5912721455097198e-02" nType="-99"/>
            <Node pos="r" depth="3" NCoef="0" IVar="-1" Cut="0.0000000000000000e+00" cType="1" res="-2.6898246258497238e-02" rms="2.9678240418434143e-01" purity="3.4293857216835022e-01" nType="-99"/>
          </Node>
          <Node pos="r" depth="2" NCoef="0" IVar="0" Cut="1.9325506591796875e+03" cType="1" res="-1.4324076473712921e-03" rms="2.4118559062480927e-01" purity="6.3692438602447510e-01" nType="0">
            <Node pos="l" depth="3" NCoef="0" IVar="-1" Cut="0.0000000000000000e+00" cType="1" res="8.7462663650512695e-03" rms="2.4721565842628479e-01" purity="1.1597911268472672e-01" nType="-99"/>
            <Node pos="r" depth="3" NCoef="0" IVar="-1" Cut="0.0000000000000000e+00" cType="1" res="-7.2902184911072254e-03" rms="2.3865541815757751e-01" purity="8.4689474105834961e-01" nType="-99"/>
          </Node>
        </Node>
      </Node>
    </BinaryTree>
    <BinaryTree type="DecisionTree" boostWeight="1.0000000000000000e+00" itree="739">
      <Node pos="s" depth="0" NCoef="0" IVar="2" Cut="9.7325122070312500e+02" cType="1" res="1.0430819820612669e-03" rms="2.3726975917816162e-01" purity="5.0498086214065552e-01" nType="0">
