<?xml version="1.0"?>
<MethodSetup Method="BDT::BDTG">
  <GeneralInfo>
    <Info name="TMVA Release" value="4.2.1 [262657]"/>
    <Info name="ROOT Release" value="6.14/04 [396804]"/>
    <Info name="Creator" value="unok"/>
    <Info name="Date" value="Mon Jan 14 13:17:41 2019"/>
    <Info name="Host" value="Linux lcgapp-slc6-x86-64-39.cern.ch 2.6.32-696.30.1.el6.x86_64 #1 SMP Tue May 22 06:09:36 CEST 2018 x86_64 x86_64 x86_64 GNU/Linux"/>
    <Info name="Dir" value="/gpfs/fs6001/unok/TMVA/2018/v142/V2/TMVA-0L"/>
    <Info name="Training events" value="1017244"/>
    <Info name="TrainingTime" value="7.59401187e+02"/>
    <Info name="AnalysisType" value="Classification"/>
  </GeneralInfo>
  <Options>
    <Option name="V" modified="Yes">False</Option>
    <Option name="VerbosityLevel" modified="No">Default</Option>
    <Option name="VarTransform" modified="No">None</Option>
    <Option name="H" modified="Yes">False</Option>
    <Option name="CreateMVAPdfs" modified="No">False</Option>
    <Option name="IgnoreNegWeightsInTraining" modified="No">False</Option>
    <Option name="NTrees" modified="Yes">800</Option>
    <Option name="MaxDepth" modified="Yes">3</Option>
    <Option name="MinNodeSize" modified="Yes">2.500000%</Option>
    <Option name="nCuts" modified="Yes">20</Option>
    <Option name="BoostType" modified="Yes">Grad</Option>
    <Option name="AdaBoostR2Loss" modified="No">quadratic</Option>
    <Option name="UseBaggedBoost" modified="Yes">True</Option>
    <Option name="Shrinkage" modified="Yes">2.000000e-01</Option>
    <Option name="AdaBoostBeta" modified="No">5.000000e-01</Option>
    <Option name="UseRandomisedTrees" modified="No">False</Option>
    <Option name="UseNvars" modified="No">3</Option>
    <Option name="UsePoissonNvars" modified="No">True</Option>
    <Option name="BaggedSampleFraction" modified="Yes">5.000000e-01</Option>
    <Option name="UseYesNoLeaf" modified="No">True</Option>
    <Option name="NegWeightTreatment" modified="Yes">pray</Option>
    <Option name="Css" modified="No">1.000000e+00</Option>
    <Option name="Cts_sb" modified="No">1.000000e+00</Option>
    <Option name="Ctb_ss" modified="No">1.000000e+00</Option>
    <Option name="Cbb" modified="No">1.000000e+00</Option>
    <Option name="NodePurityLimit" modified="No">5.000000e-01</Option>
    <Option name="SeparationType" modified="No">giniindex</Option>
    <Option name="RegressionLossFunctionBDTG" modified="No">huber</Option>
    <Option name="HuberQuantile" modified="No">7.000000e-01</Option>
    <Option name="DoBoostMonitor" modified="No">False</Option>
    <Option name="UseFisherCuts" modified="No">False</Option>
    <Option name="MinLinCorrForFisher" modified="No">8.000000e-01</Option>
    <Option name="UseExclusiveVars" modified="No">False</Option>
    <Option name="DoPreselection" modified="No">False</Option>
    <Option name="SigToBkgFraction" modified="No">1.000000e+00</Option>
    <Option name="PruneMethod" modified="No">nopruning</Option>
    <Option name="PruneStrength" modified="No">0.000000e+00</Option>
    <Option name="PruningValFraction" modified="No">5.000000e-01</Option>
    <Option name="SkipNormalization" modified="No">False</Option>
    <Option name="nEventsMin" modified="No">0</Option>
    <Option name="UseBaggedGrad" modified="No">False</Option>
    <Option name="GradBaggingFraction" modified="No">5.000000e-01</Option>
    <Option name="UseNTrainEvents" modified="No">0</Option>
    <Option name="NNodesMax" modified="No">0</Option>
  </Options>
  <Variables NVar="11">
    <Variable VarIndex="0" Expression="met" Label="met" Title="E_{T}^{miss}" Unit="GeV" Internal="met" Type="F" Min="3.00000122e+02" Max="3.51288330e+03"/>
    <Variable VarIndex="1" Expression="meff" Label="meff" Title="m_{eff}(incl.)" Unit="GeV" Internal="meff" Type="F" Min="8.00000244e+02" Max="7.52059717e+03"/>
    <Variable VarIndex="2" Expression="Ap" Label="Ap" Title="Aplanarity" Unit="" Internal="Ap" Type="F" Min="2.23593588e-07" Max="4.47899461e-01"/>
    <Variable VarIndex="3" Expression="jetPt0" Label="jetPt0" Title="p_{T}(j_{1})" Unit="GeV" Internal="jetPt0" Type="F" Min="2.00000092e+02" Max="3.38986719e+03"/>
    <Variable VarIndex="4" Expression="jetPt1" Label="jetPt1" Title="p_{T}(j_{2})" Unit="GeV" Internal="jetPt1" Type="F" Min="5.09737549e+01" Max="2.04839258e+03"/>
    <Variable VarIndex="5" Expression="jetPt2" Label="jetPt2" Title="p_{T}(j_{3})" Unit="GeV" Internal="jetPt2" Type="F" Min="5.00433693e+01" Max="1.21655359e+03"/>
    <Variable VarIndex="6" Expression="jetPt3" Label="jetPt3" Title="p_{T}(j_{4})" Unit="GeV" Internal="jetPt3" Type="F" Min="5.00000267e+01" Max="7.86908386e+02"/>
    <Variable VarIndex="7" Expression="jetEta0" Label="jetEta0" Title="#eta(j_{1})" Unit="" Internal="jetEta0" Type="F" Min="-2.78860641e+00" Max="2.79982066e+00"/>
    <Variable VarIndex="8" Expression="jetEta1" Label="jetEta1" Title="#eta(j_{2})" Unit="" Internal="jetEta1" Type="F" Min="-2.79999161e+00" Max="2.79996657e+00"/>
    <Variable VarIndex="9" Expression="jetEta2" Label="jetEta2" Title="#eta(j_{3})" Unit="" Internal="jetEta2" Type="F" Min="-2.79999733e+00" Max="2.79998136e+00"/>
    <Variable VarIndex="10" Expression="jetEta3" Label="jetEta3" Title="#eta(j_{4})" Unit="" Internal="jetEta3" Type="F" Min="-2.79999065e+00" Max="2.79999518e+00"/>
  </Variables>
  <Spectators NSpec="0">
  </Spectators>
  <Classes NClass="2">
    <Class Name="Signal" Index="0"/>
    <Class Name="Background" Index="1"/>
  </Classes>
  <Transformations NTransformations="0"/>
  <MVAPdfs/>
  <Weights NTrees="800" AnalysisType="1">
    <BinaryTree type="DecisionTree" boostWeight="1.0000000000000000e+00" itree="0">
      <Node pos="s" depth="0" NCoef="0" IVar="1" Cut="1.3997886962890625e+03" cType="1" res="-1.8302841344848275e-03" rms="4.9999666213989258e-01" purity="4.9816969037055969e-01" nType="0">
        <Node pos="l" depth="1" NCoef="0" IVar="1" Cut="1.1998585205078125e+03" cType="1" res="-3.3646905422210693e-01" rms="3.6984941363334656e-01" purity="1.6353096067905426e-01" nType="0">
          <Node pos="l" depth="2" NCoef="0" IVar="2" Cut="6.2750950455665588e-02" cType="1" res="-4.1877123713493347e-01" rms="2.7318608760833740e-01" purity="8.1228747963905334e-02" nType="0">
            <Node pos="l" depth="3" NCoef="0" IVar="-1" Cut="0.0000000000000000e+00" cType="1" res="-1.7900450527667999e-01" rms="2.2301049530506134e-01" purity="5.2488755434751511e-02" nType="-99"/>
            <Node pos="r" depth="3" NCoef="0" IVar="-1" Cut="0.0000000000000000e+00" cType="1" res="-1.1277906596660614e-01" rms="4.1292312741279602e-01" purity="2.1805234253406525e-01" nType="-99"/>
          </Node>
          <Node pos="r" depth="2" NCoef="0" IVar="2" Cut="5.7238191366195679e-02" cType="1" res="-1.4560237526893616e-01" rms="4.7833037376403809e-01" purity="3.5439762473106384e-01" nType="0">
            <Node pos="l" depth="3" NCoef="0" IVar="-1" Cut="0.0000000000000000e+00" cType="1" res="-1.0557329654693604e-01" rms="4.2466369271278381e-01" purity="2.3606674373149872e-01" nType="-99"/>
            <Node pos="r" depth="3" NCoef="0" IVar="-1" Cut="0.0000000000000000e+00" cType="1" res="4.8280991613864899e-02" rms="4.8521223664283752e-01" purity="6.2070250511169434e-01" nType="-99"/>
          </Node>
        </Node>
        <Node pos="r" depth="1" NCoef="0" IVar="2" Cut="2.0562252029776573e-02" cType="1" res="3.1720131635665894e-01" rms="3.8650140166282654e-01" purity="8.1720131635665894e-01" nType="0">
          <Node pos="l" depth="2" NCoef="0" IVar="1" Cut="1.6711318359375000e+03" cType="1" res="8.5937120020389557e-02" rms="4.9255946278572083e-01" purity="5.8593708276748657e-01" nType="0">
            <Node pos="l" depth="3" NCoef="0" IVar="-1" Cut="0.0000000000000000e+00" cType="1" res="-4.4497750699520111e-02" rms="4.8746761679649353e-01" purity="3.8875561952590942e-01" nType="-99"/>
            <Node pos="r" depth="3" NCoef="0" IVar="-1" Cut="0.0000000000000000e+00" cType="1" res="9.1811686754226685e-02" rms="4.4420304894447327e-01" purity="7.2952920198440552e-01" nType="-99"/>
          </Node>
          <Node pos="r" depth="2" NCoef="0" IVar="1" Cut="1.6588090820312500e+03" cType="1" res="3.8906067609786987e-01" rms="3.1405696272850037e-01" purity="8.8906067609786987e-01" nType="0">
            <Node pos="l" depth="3" NCoef="0" IVar="-1" Cut="0.0000000000000000e+00" cType="1" res="1.0017233341932297e-01" rms="4.3276366591453552e-01" purity="7.5043088197708130e-01" nType="-99"/>
            <Node pos="r" depth="3" NCoef="0" IVar="-1" Cut="0.0000000000000000e+00" cType="1" res="1.7591154575347900e-01" rms="2.3789606988430023e-01" purity="9.3977886438369751e-01" nType="-99"/>
          </Node>
        </Node>
      </Node>
    </BinaryTree>
    <BinaryTree type="DecisionTree" boostWeight="1.0000000000000000e+00" itree="1">
      <Node pos="s" depth="0" NCoef="0" IVar="1" Cut="1.4400631103515625e+03" cType="1" res="1.7609044443815947e-03" rms="4.4973415136337280e-01" purity="5.0101828575134277e-01" nType="0">
        <Node pos="l" depth="1" NCoef="0" IVar="5" Cut="1.3295384216308594e+02" cType="1" res="-2.5167030096054077e-01" rms="3.7315055727958679e-01" purity="1.8558923900127411e-01" nType="0">
          <Node pos="l" depth="2" NCoef="0" IVar="2" Cut="4.1834097355604172e-02" cType="1" res="-3.1755954027175903e-01" rms="3.0408135056495667e-01" purity="1.1023770272731781e-01" nType="0">
            <Node pos="l" depth="3" NCoef="0" IVar="-1" Cut="0.0000000000000000e+00" cType="1" res="-1.4627982676029205e-01" rms="2.4279516935348511e-01" purity="6.4180985093116760e-02" nType="-99"/>
            <Node pos="r" depth="3" NCoef="0" IVar="-1" Cut="0.0000000000000000e+00" cType="1" res="-8.6332246661186218e-02" rms="4.1177827119827271e-01" purity="2.3697197437286377e-01" nType="-99"/>
          </Node>
          <Node pos="r" depth="2" NCoef="0" IVar="2" Cut="4.1799366474151611e-02" cType="1" res="-8.0823257565498352e-02" rms="4.6912986040115356e-01" purity="3.8097143173217773e-01" nType="0">
            <Node pos="l" depth="3" NCoef="0" IVar="-1" Cut="0.0000000000000000e+00" cType="1" res="-8.2587264478206635e-02" rms="4.1608142852783203e-01" purity="2.3687957227230072e-01" nType="-99"/>
            <Node pos="r" depth="3" NCoef="0" IVar="-1" Cut="0.0000000000000000e+00" cType="1" res="2.2836098447442055e-02" rms="4.8729816079139709e-01" purity="5.4350304603576660e-01" nType="-99"/>
          </Node>
        </Node>
        <Node pos="r" depth="1" NCoef="0" IVar="2" Cut="2.1316725760698318e-02" cType="1" res="2.6945796608924866e-01" rms="3.5961532592773438e-01" purity="8.3420312404632568e-01" nType="0">
          <Node pos="l" depth="2" NCoef="0" IVar="0" Cut="4.5301034545898438e+02" cType="1" res="1.0168812423944473e-01" rms="4.7444513440132141e-01" purity="6.2428617477416992e-01" nType="0">
            <Node pos="l" depth="3" NCoef="0" IVar="-1" Cut="0.0000000000000000e+00" cType="1" res="-7.3237232863903046e-02" rms="4.6074810624122620e-01" purity="3.2145994901657104e-01" nType="-99"/>
            <Node pos="r" depth="3" NCoef="0" IVar="-1" Cut="0.0000000000000000e+00" cType="1" res="7.3911502957344055e-02" rms="4.4596755504608154e-01" purity="7.1149474382400513e-01" nType="-99"/>
          </Node>
          <Node pos="r" depth="2" NCoef="0" IVar="0" Cut="4.2647042846679688e+02" cType="1" res="3.2376819849014282e-01" rms="2.9369676113128662e-01" purity="9.0215718746185303e-01" nType="0">
            <Node pos="l" depth="3" NCoef="0" IVar="-1" Cut="0.0000000000000000e+00" cType="1" res="6.4549714326858521e-02" rms="4.4464179873466492e-01" purity="7.2389173507690430e-01" nType="-99"/>
            <Node pos="r" depth="3" NCoef="0" IVar="-1" Cut="0.0000000000000000e+00" cType="1" res="1.4306491613388062e-01" rms="2.5535085797309875e-01" purity="9.2843413352966309e-01" nType="-99"/>
          </Node>
        </Node>
      </Node>
    </BinaryTree>
    <BinaryTree type="DecisionTree" boostWeight="1.0000000000000000e+00" itree="2">
      <Node pos="s" depth="0" NCoef="0" IVar="1" Cut="1.4400571289062500e+03" cType="1" res="-3.3841615077108145e-03" rms="4.1348931193351746e-01" purity="4.9668189883232117e-01" nType="0">
        <Node pos="l" depth="1" NCoef="0" IVar="1" Cut="1.2571822509765625e+03" cType="1" res="-2.1008065342903137e-01" rms="3.5709241032600403e-01" purity="1.7856714129447937e-01" nType="0">
          <Node pos="l" depth="2" NCoef="0" IVar="1" Cut="1.0830152587890625e+03" cType="1" res="-2.7041125297546387e-01" rms="2.8697654604911804e-01" purity="9.8749771714210510e-02" nType="0">
            <Node pos="l" depth="3" NCoef="0" IVar="-1" Cut="0.0000000000000000e+00" cType="1" res="-1.3626721501350403e-01" rms="2.0560635626316071e-01" purity="4.6086601912975311e-02" nType="-99"/>
            <Node pos="r" depth="3" NCoef="0" IVar="-1" Cut="0.0000000000000000e+00" cType="1" res="-8.6289346218109131e-02" rms="3.7377887964248657e-01" purity="1.8393054604530334e-01" nType="-99"/>
          </Node>
          <Node pos="r" depth="2" NCoef="0" IVar="2" Cut="2.0685853436589241e-02" cType="1" res="-2.6517186313867569e-02" rms="4.6919956803321838e-01" purity="4.2142155766487122e-01" nType="0">
            <Node pos="l" depth="3" NCoef="0" IVar="-1" Cut="0.0000000000000000e+00" cType="1" res="-8.6107388138771057e-02" rms="3.8849535584449768e-01" purity="1.8969522416591644e-01" nType="-99"/>
            <Node pos="r" depth="3" NCoef="0" IVar="-1" Cut="0.0000000000000000e+00" cType="1" res="3.3669423311948776e-02" rms="4.8054167628288269e-01" purity="5.6282067298889160e-01" nType="-99"/>
          </Node>
        </Node>
        <Node pos="r" depth="1" NCoef="0" IVar="5" Cut="1.4381904602050781e+02" cType="1" res="2.1449200809001923e-01" rms="3.5253107547760010e-01" purity="8.3200263977050781e-01" nType="0">
          <Node pos="l" depth="2" NCoef="0" IVar="0" Cut="6.0414978027343750e+02" cType="1" res="3.7995040416717529e-02" rms="4.6035578846931458e-01" purity="6.2476992607116699e-01" nType="0">
            <Node pos="l" depth="3" NCoef="0" IVar="-1" Cut="0.0000000000000000e+00" cType="1" res="-3.5934958606958389e-02" rms="4.7495204210281372e-01" purity="4.7281801700592041e-01" nType="-99"/>
            <Node pos="r" depth="3" NCoef="0" IVar="-1" Cut="0.0000000000000000e+00" cType="1" res="5.5847283452749252e-02" rms="4.2554360628128052e-01" purity="7.3922449350357056e-01" nType="-99"/>
          </Node>
          <Node pos="r" depth="2" NCoef="0" IVar="0" Cut="4.5300604248046875e+02" cType="1" res="2.5761753320693970e-01" rms="3.0559852719306946e-01" purity="8.8263821601867676e-01" nType="0">
            <Node pos="l" depth="3" NCoef="0" IVar="-1" Cut="0.0000000000000000e+00" cType="1" res="5.1477082073688507e-02" rms="4.3708369135856628e-01" purity="7.0033389329910278e-01" nType="-99"/>
            <Node pos="r" depth="3" NCoef="0" IVar="-1" Cut="0.0000000000000000e+00" cType="1" res="1.2609910964965820e-01" rms="2.5326547026634216e-01" purity="9.2704719305038452e-01" nType="-99"/>
          </Node>
        </Node>
      </Node>
    </BinaryTree>
    <BinaryTree type="DecisionTree" boostWeight="1.0000000000000000e+00" itree="3">
      <Node pos="s" depth="0" NCoef="0" IVar="1" Cut="1.4400612792968750e+03" cType="1" res="-2.3094709031283855e-03" rms="3.8909146189689636e-01" purity="4.9445056915283203e-01" nType="0">
        <Node pos="l" depth="1" NCoef="0" IVar="1" Cut="1.1352709960937500e+03" cType="1" res="-1.6363064944744110e-01" rms="3.5439148545265198e-01" purity="1.8367855250835419e-01" nType="0">
          <Node pos="l" depth="2" NCoef="0" IVar="1" Cut="9.9158264160156250e+02" cType="1" res="-2.4107536673545837e-01" rms="2.3742440342903137e-01" purity="6.2670767307281494e-02" nType="0">
            <Node pos="l" depth="3" NCoef="0" IVar="-1" Cut="0.0000000000000000e+00" cType="1" res="-1.2924958765506744e-01" rms="1.6225638985633850e-01" purity="2.7321850880980492e-02" nType="-99"/>
            <Node pos="r" depth="3" NCoef="0" IVar="-1" Cut="0.0000000000000000e+00" cType="1" res="-9.8488532006740570e-02" rms="2.9626441001892090e-01" purity="1.0172420740127563e-01" nType="-99"/>
          </Node>
          <Node pos="r" depth="2" NCoef="0" IVar="2" Cut="6.2751337885856628e-02" cType="1" res="-6.4429797232151031e-02" rms="4.4355309009552002e-01" purity="3.3868041634559631e-01" nType="0">
            <Node pos="l" depth="3" NCoef="0" IVar="-1" Cut="0.0000000000000000e+00" cType="1" res="-5.8543119579553604e-02" rms="4.1044971346855164e-01" purity="2.3482900857925415e-01" nType="-99"/>
            <Node pos="r" depth="3" NCoef="0" IVar="-1" Cut="0.0000000000000000e+00" cType="1" res="5.1169689744710922e-02" rms="4.7368729114532471e-01" purity="6.2133228778839111e-01" nType="-99"/>
          </Node>
        </Node>
        <Node pos="r" depth="1" NCoef="0" IVar="2" Cut="4.1124220937490463e-02" cType="1" res="1.7244431376457214e-01" rms="3.4728774428367615e-01" purity="8.3109945058822632e-01" nType="0">
          <Node pos="l" depth="2" NCoef="0" IVar="1" Cut="1.7296213378906250e+03" cType="1" res="7.7847845852375031e-02" rms="4.3040654063224792e-01" purity="6.9528108835220337e-01" nType="0">
            <Node pos="l" depth="3" NCoef="0" IVar="-1" Cut="0.0000000000000000e+00" cType="1" res="-2.0072819665074348e-02" rms="4.7692692279815674e-01" purity="5.1451772451400757e-01" nType="-99"/>
            <Node pos="r" depth="3" NCoef="0" IVar="-1" Cut="0.0000000000000000e+00" cType="1" res="7.2839766740798950e-02" rms="3.7262913584709167e-01" purity="8.1724077463150024e-01" nType="-99"/>
          </Node>
          <Node pos="r" depth="2" NCoef="0" IVar="1" Cut="1.6509097900390625e+03" cType="1" res="2.3730906844139099e-01" rms="2.5678995251655579e-01" purity="9.2422997951507568e-01" nType="0">
            <Node pos="l" depth="3" NCoef="0" IVar="-1" Cut="0.0000000000000000e+00" cType="1" res="7.6671458780765533e-02" rms="3.8197922706604004e-01" purity="8.1614106893539429e-01" nType="-99"/>
            <Node pos="r" depth="3" NCoef="0" IVar="-1" Cut="0.0000000000000000e+00" cType="1" res="1.2144137173891068e-01" rms="2.0553766191005707e-01" purity="9.5441520214080811e-01" nType="-99"/>
          </Node>
        </Node>
      </Node>
    </BinaryTree>
    <BinaryTree type="DecisionTree" boostWeight="1.0000000000000000e+00" itree="4">
      <Node pos="s" depth="0" NCoef="0" IVar="1" Cut="1.3997928466796875e+03" cType="1" res="4.8201790195889771e-04" rms="3.6982873082160950e-01" purity="4.9928662180900574e-01" nType="0">
        <Node pos="l" depth="1" NCoef="0" IVar="6" Cut="8.6904426574707031e+01" cType="1" res="-1.4047095179557800e-01" rms="3.3903825283050537e-01" purity="1.6728772222995758e-01" nType="0">
          <Node pos="l" depth="2" NCoef="0" IVar="0" Cut="4.5609436035156250e+02" cType="1" res="-1.8156233429908752e-01" rms="2.8421059250831604e-01" purity="1.0442370176315308e-01" nType="0">
            <Node pos="l" depth="3" NCoef="0" IVar="-1" Cut="0.0000000000000000e+00" cType="1" res="-1.0287612676620483e-01" rms="2.4706827104091644e-01" purity="7.3702432215213776e-02" nType="-99"/>
            <Node pos="r" depth="3" NCoef="0" IVar="-1" Cut="0.0000000000000000e+00" cType="1" res="-3.9611045271158218e-02" rms="4.0361779928207397e-01" purity="2.4978962540626526e-01" nType="-99"/>
          </Node>
          <Node pos="r" depth="2" NCoef="0" IVar="2" Cut="2.0900011062622070e-02" cType="1" res="-2.9103102162480354e-02" rms="4.3655526638031006e-01" purity="3.3766478300094604e-01" nType="0">
            <Node pos="l" depth="3" NCoef="0" IVar="-1" Cut="0.0000000000000000e+00" cType="1" res="-8.2839205861091614e-02" rms="3.2311880588531494e-01" purity="1.2387489527463913e-01" nType="-99"/>
            <Node pos="r" depth="3" NCoef="0" IVar="-1" Cut="0.0000000000000000e+00" cType="1" res="1.5297710895538330e-02" rms="4.6498015522956848e-01" purity="4.3388649821281433e-01" nType="-99"/>
          </Node>
        </Node>
        <Node pos="r" depth="1" NCoef="0" IVar="2" Cut="2.0562231540679932e-02" cType="1" res="1.3560688495635986e-01" rms="3.4697580337524414e-01" purity="8.1755810976028442e-01" nType="0">
          <Node pos="l" depth="2" NCoef="0" IVar="1" Cut="1.9424584960937500e+03" cType="1" res="6.6209947690367699e-03" rms="4.5624995231628418e-01" purity="5.7591038942337036e-01" nType="0">
            <Node pos="l" depth="3" NCoef="0" IVar="-1" Cut="0.0000000000000000e+00" cType="1" res="-3.1674053519964218e-02" rms="4.7235098481178284e-01" purity="4.4477748870849609e-01" nType="-99"/>
            <Node pos="r" depth="3" NCoef="0" IVar="-1" Cut="0.0000000000000000e+00" cType="1" res="7.0973329246044159e-02" rms="3.8052886724472046e-01" purity="8.1790298223495483e-01" nType="-99"/>
          </Node>
          <Node pos="r" depth="2" NCoef="0" IVar="2" Cut="5.9728123247623444e-02" cType="1" res="1.7433120310306549e-01" rms="2.9588302969932556e-01" purity="8.9010590314865112e-01" nType="0">
            <Node pos="l" depth="3" NCoef="0" IVar="-1" Cut="0.0000000000000000e+00" cType="1" res="5.7711903005838394e-02" rms="3.6676576733589172e-01" purity="8.1538242101669312e-01" nType="-99"/>
            <Node pos="r" depth="3" NCoef="0" IVar="-1" Cut="0.0000000000000000e+00" cType="1" res="1.0637812316417694e-01" rms="2.3542609810829163e-01" purity="9.3636018037796021e-01" nType="-99"/>
          </Node>
        </Node>
      </Node>
    </BinaryTree>
    <BinaryTree type="DecisionTree" boostWeight="1.0000000000000000e+00" itree="5">
      <Node pos="s" depth="0" NCoef="0" IVar="0" Cut="4.5299456787109375e+02" cType="1" res="8.2979304715991020e-04" rms="3.5877498984336853e-01" purity="4.9904569983482361e-01" nType="0">
        <Node pos="l" depth="1" NCoef="0" IVar="2" Cut="8.2738935947418213e-02" cType="1" res="-1.0626868903636932e-01" rms="3.4771341085433960e-01" purity="2.3053695261478424e-01" nType="0">
          <Node pos="l" depth="2" NCoef="0" IVar="5" Cut="1.8406047058105469e+02" cType="1" res="-1.3827371597290039e-01" rms="3.2303354144096375e-01" purity="1.6698703169822693e-01" nType="0">
            <Node pos="l" depth="3" NCoef="0" IVar="-1" Cut="0.0000000000000000e+00" cType="1" res="-8.4936760365962982e-02" rms="2.8964552283287048e-01" purity="1.1247614771127701e-01" nType="-99"/>
            <Node pos="r" depth="3" NCoef="0" IVar="-1" Cut="0.0000000000000000e+00" cType="1" res="-6.3964203000068665e-03" rms="4.6406558156013489e-01" purity="5.1026791334152222e-01" nType="-99"/>
          </Node>
          <Node pos="r" depth="2" NCoef="0" IVar="-1" Cut="0.0000000000000000e+00" cType="1" res="2.5577710941433907e-02" rms="4.1601318120956421e-01" purity="5.4976338148117065e-01" nType="-99"/>
        </Node>
        <Node pos="r" depth="1" NCoef="0" IVar="5" Cut="1.0559147644042969e+02" cType="1" res="1.0901675373315811e-01" rms="3.3663436770439148e-01" purity="7.7028340101242065e-01" nType="0">
          <Node pos="l" depth="2" NCoef="0" IVar="4" Cut="2.0336456298828125e+02" cType="1" res="-9.2574141919612885e-02" rms="4.0992289781570435e-01" purity="3.3480069041252136e-01" nType="0">
            <Node pos="l" depth="3" NCoef="0" IVar="-1" Cut="0.0000000000000000e+00" cType="1" res="-7.3758304119110107e-02" rms="3.6910533905029297e-01" purity="2.0517477393150330e-01" nType="-99"/>
            <Node pos="r" depth="3" NCoef="0" IVar="-1" Cut="0.0000000000000000e+00" cType="1" res="4.0712947957217693e-03" rms="4.5275935530662537e-01" purity="5.5246931314468384e-01" nType="-99"/>
          </Node>
          <Node pos="r" depth="2" NCoef="0" IVar="6" Cut="1.1358573913574219e+02" cType="1" res="1.4929011464118958e-01" rms="3.0438688397407532e-01" purity="8.5728311538696289e-01" nType="0">
            <Node pos="l" depth="3" NCoef="0" IVar="-1" Cut="0.0000000000000000e+00" cType="1" res="4.8471659421920776e-02" rms="3.8377460837364197e-01" purity="7.4123299121856689e-01" nType="-99"/>
            <Node pos="r" depth="3" NCoef="0" IVar="-1" Cut="0.0000000000000000e+00" cType="1" res="1.0280027985572815e-01" rms="2.2668376564979553e-01" purity="9.3841236829757690e-01" nType="-99"/>
          </Node>
        </Node>
      </Node>
    </BinaryTree>
    <BinaryTree type="DecisionTree" boostWeight="1.0000000000000000e+00" itree="6">
      <Node pos="s" depth="0" NCoef="0" IVar="5" Cut="1.6113958740234375e+02" cType="1" res="2.0158227998763323e-03" rms="3.4792155027389526e-01" purity="5.0141113996505737e-01" nType="0">
        <Node pos="l" depth="1" NCoef="0" IVar="0" Cut="6.0413476562500000e+02" cType="1" res="-7.9796478152275085e-02" rms="3.4391465783119202e-01" purity="2.6747301220893860e-01" nType="0">
          <Node pos="l" depth="2" NCoef="0" IVar="2" Cut="5.7923585176467896e-02" cType="1" res="-1.0616849362850189e-01" rms="3.2841101288795471e-01" purity="1.8341362476348877e-01" nType="0">
            <Node pos="l" depth="3" NCoef="0" IVar="-1" Cut="0.0000000000000000e+00" cType="1" res="-7.5436033308506012e-02" rms="2.9376366734504700e-01" purity="1.2240829318761826e-01" nType="-99"/>
            <Node pos="r" depth="3" NCoef="0" IVar="-1" Cut="0.0000000000000000e+00" cType="1" res="-5.5784950964152813e-03" rms="4.1878849267959595e-01" purity="4.0669688582420349e-01" nType="-99"/>
          </Node>
          <Node pos="r" depth="2" NCoef="0" IVar="6" Cut="7.6248336791992188e+01" cType="1" res="7.2978660464286804e-02" rms="3.8896292448043823e-01" purity="7.5443559885025024e-01" nType="0">
            <Node pos="l" depth="3" NCoef="0" IVar="-1" Cut="0.0000000000000000e+00" cType="1" res="1.7697933362796903e-03" rms="4.5099407434463501e-01" purity="6.1576563119888306e-01" nType="-99"/>
            <Node pos="r" depth="3" NCoef="0" IVar="-1" Cut="0.0000000000000000e+00" cType="1" res="6.3887231051921844e-02" rms="3.3188915252685547e-01" purity="8.4928077459335327e-01" nType="-99"/>
          </Node>
        </Node>
        <Node pos="r" depth="1" NCoef="0" IVar="0" Cut="4.5299841308593750e+02" cType="1" res="1.1189700663089752e-01" rms="3.2203900814056396e-01" purity="8.1561076641082764e-01" nType="0">
          <Node pos="l" depth="2" NCoef="0" IVar="2" Cut="6.3951134681701660e-02" cType="1" res="3.6619637161493301e-02" rms="4.3710008263587952e-01" purity="5.6729310750961304e-01" nType="0">
            <Node pos="l" depth="3" NCoef="0" IVar="-1" Cut="0.0000000000000000e+00" cType="1" res="-1.3007644563913345e-02" rms="4.5777988433837891e-01" purity="4.1705149412155151e-01" nType="-99"/>
            <Node pos="r" depth="3" NCoef="0" IVar="-1" Cut="0.0000000000000000e+00" cType="1" res="5.9796731919050217e-02" rms="3.8827058672904968e-01" purity="7.7814567089080811e-01" nType="-99"/>
          </Node>
          <Node pos="r" depth="2" NCoef="0" IVar="0" Cut="5.9870739746093750e+02" cType="1" res="1.4443750679492950e-01" rms="2.4988517165184021e-01" purity="9.2295229434967041e-01" nType="0">
            <Node pos="l" depth="3" NCoef="0" IVar="-1" Cut="0.0000000000000000e+00" cType="1" res="6.3634887337684631e-02" rms="3.2376962900161743e-01" purity="8.5897439718246460e-01" nType="-99"/>
            <Node pos="r" depth="3" NCoef="0" IVar="-1" Cut="0.0000000000000000e+00" cType="1" res="1.0153057426214218e-01" rms="1.9474855065345764e-01" purity="9.5863765478134155e-01" nType="-99"/>
          </Node>
        </Node>
      </Node>
    </BinaryTree>
    <BinaryTree type="DecisionTree" boostWeight="1.0000000000000000e+00" itree="7">
      <Node pos="s" depth="0" NCoef="0" IVar="4" Cut="2.4120411682128906e+02" cType="1" res="-5.4622802417725325e-04" rms="3.3904597163200378e-01" purity="4.9953076243400574e-01" nType="0">
        <Node pos="l" depth="1" NCoef="0" IVar="5" Cut="1.3184065246582031e+02" cType="1" res="-7.8163318336009979e-02" rms="3.2912170886993408e-01" purity="2.4652884900569916e-01" nType="0">
          <Node pos="l" depth="2" NCoef="0" IVar="4" Cut="1.5967388916015625e+02" cType="1" res="-1.1667628586292267e-01" rms="2.8148418664932251e-01" purity="1.2094296514987946e-01" nType="0">
            <Node pos="l" depth="3" NCoef="0" IVar="-1" Cut="0.0000000000000000e+00" cType="1" res="-8.9204125106334686e-02" rms="2.3461246490478516e-01" purity="7.4949152767658234e-02" nType="-99"/>
            <Node pos="r" depth="3" NCoef="0" IVar="-1" Cut="0.0000000000000000e+00" cType="1" res="-4.4607985764741898e-02" rms="3.4569445252418518e-01" purity="2.0200125873088837e-01" nType="-99"/>
          </Node>
          <Node pos="r" depth="2" NCoef="0" IVar="0" Cut="4.1601525878906250e+02" cType="1" res="2.9393511358648539e-03" rms="3.9984315633773804e-01" purity="5.1099437475204468e-01" nType="0">
            <Node pos="l" depth="3" NCoef="0" IVar="-1" Cut="0.0000000000000000e+00" cType="1" res="-3.7889987230300903e-02" rms="3.9784449338912964e-01" purity="2.6612839102745056e-01" nType="-99"/>
            <Node pos="r" depth="3" NCoef="0" IVar="-1" Cut="0.0000000000000000e+00" cType="1" res="3.5968255251646042e-02" rms="3.8958379626274109e-01" purity="7.1308237314224243e-01" nType="-99"/>
          </Node>
        </Node>
        <Node pos="r" depth="1" NCoef="0" IVar="6" Cut="7.8424484252929688e+01" cType="1" res="8.6309477686882019e-02" rms="3.2876604795455933e-01" purity="7.8264707326889038e-01" nType="0">
          <Node pos="l" depth="2" NCoef="0" IVar="0" Cut="5.5700848388671875e+02" cType="1" res="-1.0316921398043633e-03" rms="4.0876409411430359e-01" purity="5.3204029798507690e-01" nType="0">
            <Node pos="l" depth="3" NCoef="0" IVar="-1" Cut="0.0000000000000000e+00" cType="1" res="-2.6320310309529305e-02" rms="4.2680248618125916e-01" purity="3.5862332582473755e-01" nType="-99"/>
            <Node pos="r" depth="3" NCoef="0" IVar="-1" Cut="0.0000000000000000e+00" cType="1" res="4.5563839375972748e-02" rms="3.6189869046211243e-01" purity="8.1349825859069824e-01" nType="-99"/>
          </Node>
          <Node pos="r" depth="2" NCoef="0" IVar="7" Cut="9.8158580064773560e-01" cType="1" res="1.1086864769458771e-01" rms="2.9790711402893066e-01" purity="8.5311436653137207e-01" nType="0">
            <Node pos="l" depth="3" NCoef="0" IVar="-1" Cut="0.0000000000000000e+00" cType="1" res="7.3468819260597229e-02" rms="2.8546682000160217e-01" purity="8.7150555849075317e-01" nType="-99"/>
            <Node pos="r" depth="3" NCoef="0" IVar="-1" Cut="0.0000000000000000e+00" cType="1" res="-4.9907960928976536e-03" rms="3.9387068152427673e-01" purity="6.4512789249420166e-01" nType="-99"/>
          </Node>
        </Node>
      </Node>
    </BinaryTree>
    <BinaryTree type="DecisionTree" boostWeight="1.0000000000000000e+00" itree="8">
      <Node pos="s" depth="0" NCoef="0" IVar="1" Cut="1.4002539062500000e+03" cType="1" res="-1.7592908116057515e-03" rms="3.3376380801200867e-01" purity="4.9795520305633545e-01" nType="0">
        <Node pos="l" depth="1" NCoef="0" IVar="2" Cut="2.0917113870382309e-02" cType="1" res="-7.1439430117607117e-02" rms="3.2372403144836426e-01" purity="1.5965387225151062e-01" nType="0">
          <Node pos="l" depth="2" NCoef="0" IVar="2" Cut="1.2948649004101753e-02" cType="1" res="-1.1357246339321136e-01" rms="2.3129077255725861e-01" purity="6.0878574848175049e-02" nType="0">
            <Node pos="l" depth="3" NCoef="0" IVar="-1" Cut="0.0000000000000000e+00" cType="1" res="-9.1340646147727966e-02" rms="2.0185332000255585e-01" purity="4.4269312173128128e-02" nType="-99"/>
            <Node pos="r" depth="3" NCoef="0" IVar="-1" Cut="0.0000000000000000e+00" cType="1" res="-5.0474785268306732e-02" rms="2.9404357075691223e-01" purity="1.0677129775285721e-01" nType="-99"/>
          </Node>
          <Node pos="r" depth="2" NCoef="0" IVar="1" Cut="1.1430000000000000e+03" cType="1" res="-3.2539337873458862e-02" rms="3.8601866364479065e-01" purity="2.5084996223449707e-01" nType="0">
            <Node pos="l" depth="3" NCoef="0" IVar="-1" Cut="0.0000000000000000e+00" cType="1" res="-5.1137614995241165e-02" rms="3.0810278654098511e-01" purity="1.1442635208368301e-01" nType="-99"/>
            <Node pos="r" depth="3" NCoef="0" IVar="-1" Cut="0.0000000000000000e+00" cType="1" res="1.1963706463575363e-02" rms="4.6227592229843140e-01" purity="4.2944583296775818e-01" nType="-99"/>
          </Node>
        </Node>
        <Node pos="r" depth="1" NCoef="0" IVar="7" Cut="-1.1480082273483276e+00" cType="1" res="6.4308524131774902e-02" rms="3.2967942953109741e-01" purity="8.1871855258941650e-01" nType="0">
          <Node pos="l" depth="2" NCoef="0" IVar="-1" Cut="0.0000000000000000e+00" cType="1" res="-6.4386039972305298e-02" rms="4.2117235064506531e-01" purity="5.3544646501541138e-01" nType="-99"/>
          <Node pos="r" depth="2" NCoef="0" IVar="7" Cut="1.1069203615188599e+00" cType="1" res="7.5304031372070312e-02" rms="3.2011058926582336e-01" purity="8.3538562059402466e-01" nType="0">
            <Node pos="l" depth="3" NCoef="0" IVar="-1" Cut="0.0000000000000000e+00" cType="1" res="5.4429288953542709e-02" rms="3.0825835466384888e-01" purity="8.5590720176696777e-01" nType="-99"/>
            <Node pos="r" depth="3" NCoef="0" IVar="-1" Cut="0.0000000000000000e+00" cType="1" res="-5.6265648454427719e-02" rms="4.1888955235481262e-01" purity="5.3239601850509644e-01" nType="-99"/>
          </Node>
        </Node>
      </Node>
    </BinaryTree>
    <BinaryTree type="DecisionTree" boostWeight="1.0000000000000000e+00" itree="9">
      <Node pos="s" depth="0" NCoef="0" IVar="6" Cut="8.5090972900390625e+01" cType="1" res="-2.3597260005772114e-03" rms="3.2720604538917542e-01" purity="4.9733561277389526e-01" nType="0">
        <Node pos="l" depth="1" NCoef="0" IVar="0" Cut="7.1713220214843750e+02" cType="1" res="-6.5508641302585602e-02" rms="3.1549692153930664e-01" purity="2.3751297593116760e-01" nType="0">
          <Node pos="l" depth="2" NCoef="0" IVar="2" Cut="2.0562311634421349e-02" cType="1" res="-7.7435456216335297e-02" rms="3.0881437659263611e-01" purity="1.8320307135581970e-01" nType="0">
            <Node pos="l" depth="3" NCoef="0" IVar="-1" Cut="0.0000000000000000e+00" cType="1" res="-7.7456161379814148e-02" rms="2.5188487768173218e-01" purity="9.5175318419933319e-02" nType="-99"/>
            <Node pos="r" depth="3" NCoef="0" IVar="-1" Cut="0.0000000000000000e+00" cType="1" res="-2.6960348710417747e-02" rms="3.5798218846321106e-01" purity="2.7951499819755554e-01" nType="-99"/>
          </Node>
          <Node pos="r" depth="2" NCoef="0" IVar="-1" Cut="0.0000000000000000e+00" cType="1" res="3.6006126552820206e-02" rms="3.5553619265556335e-01" purity="8.2059812545776367e-01" nType="-99"/>
        </Node>
        <Node pos="r" depth="1" NCoef="0" IVar="0" Cut="4.2404354858398438e+02" cType="1" res="5.3586568683385849e-02" rms="3.2721248269081116e-01" purity="7.2752350568771362e-01" nType="0">
          <Node pos="l" depth="2" NCoef="0" IVar="6" Cut="1.2468932342529297e+02" cType="1" res="-2.1042687818408012e-02" rms="4.0097498893737793e-01" purity="4.0981125831604004e-01" nType="0">
            <Node pos="l" depth="3" NCoef="0" IVar="-1" Cut="0.0000000000000000e+00" cType="1" res="-3.5567250102758408e-02" rms="3.7948554754257202e-01" purity="2.6771309971809387e-01" nType="-99"/>
            <Node pos="r" depth="3" NCoef="0" IVar="-1" Cut="0.0000000000000000e+00" cType="1" res="2.4031482636928558e-02" rms="4.2361569404602051e-01" purity="6.3510096073150635e-01" nType="-99"/>
          </Node>
          <Node pos="r" depth="2" NCoef="0" IVar="0" Cut="5.4218347167968750e+02" cType="1" res="8.7306030094623566e-02" rms="2.8132835030555725e-01" purity="8.7107425928115845e-01" nType="0">
            <Node pos="l" depth="3" NCoef="0" IVar="-1" Cut="0.0000000000000000e+00" cType="1" res="3.0848834663629532e-02" rms="3.7515297532081604e-01" purity="7.2620356082916260e-01" nType="-99"/>
            <Node pos="r" depth="3" NCoef="0" IVar="-1" Cut="0.0000000000000000e+00" cType="1" res="7.7741272747516632e-02" rms="2.2673992812633514e-01" purity="9.3458312749862671e-01" nType="-99"/>
          </Node>
        </Node>
      </Node>
    </BinaryTree>
    <BinaryTree type="DecisionTree" boostWeight="1.0000000000000000e+00" itree="10">
      <Node pos="s" depth="0" NCoef="0" IVar="5" Cut="1.4369297790527344e+02" cType="1" res="1.3412552652880549e-03" rms="3.2640379667282104e-01" purity="5.0206142663955688e-01" nType="0">
        <Node pos="l" depth="1" NCoef="0" IVar="0" Cut="5.4566754150390625e+02" cType="1" res="-4.8898763954639435e-02" rms="3.1976750493049622e-01" purity="2.2479303181171417e-01" nType="0">
          <Node pos="l" depth="2" NCoef="0" IVar="2" Cut="2.0501371473073959e-02" cType="1" res="-6.5781705081462860e-02" rms="2.9477071762084961e-01" purity="1.3034202158451080e-01" nType="0">
            <Node pos="l" depth="3" NCoef="0" IVar="-1" Cut="0.0000000000000000e+00" cType="1" res="-7.7667661011219025e-02" rms="2.1513509750366211e-01" purity="5.5130578577518463e-02" nType="-99"/>
            <Node pos="r" depth="3" NCoef="0" IVar="-1" Cut="0.0000000000000000e+00" cType="1" res="-2.4141443893313408e-02" rms="3.5779765248298645e-01" purity="2.0920054614543915e-01" nType="-99"/>
          </Node>
          <Node pos="r" depth="2" NCoef="0" IVar="2" Cut="1.9090633839368820e-02" cType="1" res="2.7708781883120537e-02" rms="4.0594699978828430e-01" purity="6.5337133407592773e-01" nType="0">
            <Node pos="l" depth="3" NCoef="0" IVar="-1" Cut="0.0000000000000000e+00" cType="1" res="-1.4282287098467350e-02" rms="4.3167808651924133e-01" purity="4.9479639530181885e-01" nType="-99"/>
            <Node pos="r" depth="3" NCoef="0" IVar="-1" Cut="0.0000000000000000e+00" cType="1" res="4.0304854512214661e-02" rms="3.7976071238517761e-01" purity="7.7315598726272583e-01" nType="-99"/>
          </Node>
        </Node>
        <Node pos="r" depth="1" NCoef="0" IVar="8" Cut="1.2000100612640381e+00" cType="1" res="5.1262639462947845e-02" rms="3.2526946067810059e-01" purity="7.7757132053375244e-01" nType="0">
          <Node pos="l" depth="2" NCoef="0" IVar="7" Cut="1.2258119583129883e+00" cType="1" res="6.2471721321344376e-02" rms="3.1842184066772461e-01" purity="7.9907095432281494e-01" nType="0">
            <Node pos="l" depth="3" NCoef="0" IVar="-1" Cut="0.0000000000000000e+00" cType="1" res="4.7801747918128967e-02" rms="3.1165206432342529e-01" purity="8.1948810815811157e-01" nType="-99"/>
            <Node pos="r" depth="3" NCoef="0" IVar="-1" Cut="0.0000000000000000e+00" cType="1" res="-3.6949429661035538e-02" rms="3.9668163657188416e-01" purity="4.4451078772544861e-01" nType="-99"/>
          </Node>
          <Node pos="r" depth="2" NCoef="0" IVar="-1" Cut="0.0000000000000000e+00" cType="1" res="-4.2609799653291702e-02" rms="3.7099936604499817e-01" purity="5.4192155599594116e-01" nType="-99"/>
        </Node>
      </Node>
    </BinaryTree>
    <BinaryTree type="DecisionTree" boostWeight="1.0000000000000000e+00" itree="11">
      <Node pos="s" depth="0" NCoef="0" IVar="1" Cut="1.6996868896484375e+03" cType="1" res="-4.5518318074755371e-04" rms="3.2294622063636780e-01" purity="4.9870610237121582e-01" nType="0">
        <Node pos="l" depth="1" NCoef="0" IVar="2" Cut="4.1369538754224777e-02" cType="1" res="-3.3293176442384720e-02" rms="3.4560343623161316e-01" purity="2.8443354368209839e-01" nType="0">
          <Node pos="l" depth="2" NCoef="0" IVar="0" Cut="3.5711608886718750e+02" cType="1" res="-5.9965394437313080e-02" rms="3.0900806188583374e-01" purity="1.5788571536540985e-01" nType="0">
            <Node pos="l" depth="3" NCoef="0" IVar="-1" Cut="0.0000000000000000e+00" cType="1" res="-7.3250539600849152e-02" rms="2.2885993123054504e-01" purity="6.9690242409706116e-02" nType="-99"/>
            <Node pos="r" depth="3" NCoef="0" IVar="-1" Cut="0.0000000000000000e+00" cType="1" res="-2.7464812621474266e-02" rms="3.5173058509826660e-01" purity="2.1742586791515350e-01" nType="-99"/>
          </Node>
          <Node pos="r" depth="2" NCoef="0" IVar="1" Cut="1.0998980712890625e+03" cType="1" res="1.2360634282231331e-02" rms="3.9641380310058594e-01" purity="5.0104057788848877e-01" nType="0">
            <Node pos="l" depth="3" NCoef="0" IVar="-1" Cut="0.0000000000000000e+00" cType="1" res="-4.8508852720260620e-02" rms="3.0420884490013123e-01" purity="1.0841882973909378e-01" nType="-99"/>
            <Node pos="r" depth="3" NCoef="0" IVar="-1" Cut="0.0000000000000000e+00" cType="1" res="2.3283248767256737e-02" rms="4.2292240262031555e-01" purity="6.5561759471893311e-01" nType="-99"/>
          </Node>
        </Node>
        <Node pos="r" depth="1" NCoef="0" IVar="3" Cut="6.5694830322265625e+02" cType="1" res="6.2215059995651245e-02" rms="2.6343935728073120e-01" purity="9.0763837099075317e-01" nType="0">
          <Node pos="l" depth="2" NCoef="0" IVar="1" Cut="1.8148457031250000e+03" cType="1" res="7.8265942633152008e-02" rms="2.3093552887439728e-01" purity="9.3476384878158569e-01" nType="0">
            <Node pos="l" depth="3" NCoef="0" IVar="-1" Cut="0.0000000000000000e+00" cType="1" res="3.4935534000396729e-02" rms="3.2264706492424011e-01" purity="8.6153137683868408e-01" nType="-99"/>
            <Node pos="r" depth="3" NCoef="0" IVar="-1" Cut="0.0000000000000000e+00" cType="1" res="7.7569313347339630e-02" rms="1.9780400395393372e-01" purity="9.5483064651489258e-01" nType="-99"/>
          </Node>
          <Node pos="r" depth="2" NCoef="0" IVar="1" Cut="2.2137941894531250e+03" cType="1" res="2.3335913196206093e-02" rms="3.2586482167243958e-01" purity="8.4193384647369385e-01" nType="0">
            <Node pos="l" depth="3" NCoef="0" IVar="-1" Cut="0.0000000000000000e+00" cType="1" res="-3.0124774202704430e-02" rms="4.2420613765716553e-01" purity="6.8392169475555420e-01" nType="-99"/>
            <Node pos="r" depth="3" NCoef="0" IVar="-1" Cut="0.0000000000000000e+00" cType="1" res="5.3614795207977295e-02" rms="2.5202673673629761e-01" purity="9.2364823818206787e-01" nType="-99"/>
          </Node>
        </Node>
      </Node>
    </BinaryTree>
    <BinaryTree type="DecisionTree" boostWeight="1.0000000000000000e+00" itree="12">
      <Node pos="s" depth="0" NCoef="0" IVar="4" Cut="2.3760939025878906e+02" cType="1" res="9.3120464589446783e-04" rms="3.2266411185264587e-01" purity="4.9941015243530273e-01" nType="0">
        <Node pos="l" depth="1" NCoef="0" IVar="6" Cut="7.6166542053222656e+01" cType="1" res="-3.5119567066431046e-02" rms="3.2166340947151184e-01" purity="2.4274215102195740e-01" nType="0">
          <Node pos="l" depth="2" NCoef="0" IVar="5" Cut="8.5571662902832031e+01" cType="1" res="-6.2807865440845490e-02" rms="2.6346182823181152e-01" purity="1.0694489628076553e-01" nType="0">
            <Node pos="l" depth="3" NCoef="0" IVar="-1" Cut="0.0000000000000000e+00" cType="1" res="-7.6630935072898865e-02" rms="2.0060840249061584e-01" purity="5.1612328737974167e-02" nType="-99"/>
            <Node pos="r" depth="3" NCoef="0" IVar="-1" Cut="0.0000000000000000e+00" cType="1" res="-3.5171613097190857e-02" rms="3.1525796651840210e-01" purity="1.6484099626541138e-01" nType="-99"/>
          </Node>
          <Node pos="r" depth="2" NCoef="0" IVar="7" Cut="-8.9631134271621704e-01" cType="1" res="-1.5657108742743731e-03" rms="3.7773272395133972e-01" purity="4.0730705857276917e-01" nType="0">
            <Node pos="l" depth="3" NCoef="0" IVar="-1" Cut="0.0000000000000000e+00" cType="1" res="-5.9583786875009537e-02" rms="3.2221353054046631e-01" purity="1.9840945303440094e-01" nType="-99"/>
            <Node pos="r" depth="3" NCoef="0" IVar="-1" Cut="0.0000000000000000e+00" cType="1" res="1.0850861668586731e-02" rms="3.8618883490562439e-01" purity="4.5306503772735596e-01" nType="-99"/>
          </Node>
        </Node>
        <Node pos="r" depth="1" NCoef="0" IVar="7" Cut="-1.1919403076171875e+00" cType="1" res="3.9415448904037476e-02" rms="3.1926792860031128e-01" purity="7.7340358495712280e-01" nType="0">
          <Node pos="l" depth="2" NCoef="0" IVar="-1" Cut="0.0000000000000000e+00" cType="1" res="-5.7446967810392380e-02" rms="3.7679883837699890e-01" purity="4.2539477348327637e-01" nType="-99"/>
          <Node pos="r" depth="2" NCoef="0" IVar="7" Cut="8.9840686321258545e-01" cType="1" res="4.7743353992700577e-02" rms="3.1348517537117004e-01" purity="7.9479342699050903e-01" nType="0">
            <Node pos="l" depth="3" NCoef="0" IVar="-1" Cut="0.0000000000000000e+00" cType="1" res="4.4681645929813385e-02" rms="3.0285215377807617e-01" purity="8.2808667421340942e-01" nType="-99"/>
            <Node pos="r" depth="3" NCoef="0" IVar="-1" Cut="0.0000000000000000e+00" cType="1" res="-2.4440253153443336e-02" rms="3.7365922331809998e-01" purity="5.4104846715927124e-01" nType="-99"/>
          </Node>
        </Node>
      </Node>
    </BinaryTree>
    <BinaryTree type="DecisionTree" boostWeight="1.0000000000000000e+00" itree="13">
      <Node pos="s" depth="0" NCoef="0" IVar="0" Cut="4.5299490356445312e+02" cType="1" res="-5.9372937539592385e-04" rms="3.1922331452369690e-01" purity="5.0154811143875122e-01" nType="0">
        <Node pos="l" depth="1" NCoef="0" IVar="0" Cut="3.8013943481445312e+02" cType="1" res="-3.5761468112468719e-02" rms="3.2311621308326721e-01" purity="2.3624622821807861e-01" nType="0">
          <Node pos="l" depth="2" NCoef="0" IVar="6" Cut="1.3305487060546875e+02" cType="1" res="-6.2242411077022552e-02" rms="2.9499363899230957e-01" purity="1.6249336302280426e-01" nType="0">
            <Node pos="l" depth="3" NCoef="0" IVar="-1" Cut="0.0000000000000000e+00" cType="1" res="-5.6744489818811417e-02" rms="2.7314189076423645e-01" purity="1.1214955896139145e-01" nType="-99"/>
            <Node pos="r" depth="3" NCoef="0" IVar="-1" Cut="0.0000000000000000e+00" cType="1" res="-1.5005465829744935e-03" rms="4.3623253703117371e-01" purity="5.9722661972045898e-01" nType="-99"/>
          </Node>
          <Node pos="r" depth="2" NCoef="0" IVar="5" Cut="1.1583685302734375e+02" cType="1" res="9.0835774317383766e-03" rms="3.6144578456878662e-01" purity="3.6114549636840820e-01" nType="0">
            <Node pos="l" depth="3" NCoef="0" IVar="-1" Cut="0.0000000000000000e+00" cType="1" res="-3.5060197114944458e-02" rms="2.8156068921089172e-01" purity="1.0222703963518143e-01" nType="-99"/>
            <Node pos="r" depth="3" NCoef="0" IVar="-1" Cut="0.0000000000000000e+00" cType="1" res="2.6933932676911354e-02" rms="4.1186690330505371e-01" purity="5.7496958971023560e-01" nType="-99"/>
          </Node>
        </Node>
        <Node pos="r" depth="1" NCoef="0" IVar="2" Cut="1.9968122243881226e-02" cType="1" res="3.5382378846406937e-02" rms="3.1110450625419617e-01" purity="7.7294832468032837e-01" nType="0">
          <Node pos="l" depth="2" NCoef="0" IVar="2" Cut="5.7054525241255760e-03" cType="1" res="-1.7425280064344406e-02" rms="3.8433635234832764e-01" purity="5.0708609819412231e-01" nType="0">
            <Node pos="l" depth="3" NCoef="0" IVar="-1" Cut="0.0000000000000000e+00" cType="1" res="-5.5729988962411880e-02" rms="3.8469919562339783e-01" purity="3.5904091596603394e-01" nType="-99"/>
            <Node pos="r" depth="3" NCoef="0" IVar="-1" Cut="0.0000000000000000e+00" cType="1" res="1.0436017997562885e-02" rms="3.7913265824317932e-01" purity="5.7457941770553589e-01" nType="-99"/>
          </Node>
          <Node pos="r" depth="2" NCoef="0" IVar="2" Cut="9.6035614609718323e-02" cType="1" res="5.3192425519227982e-02" rms="2.7991437911987305e-01" purity="8.6261367797851562e-01" nType="0">
            <Node pos="l" depth="3" NCoef="0" IVar="-1" Cut="0.0000000000000000e+00" cType="1" res="3.3542860299348831e-02" rms="3.1116896867752075e-01" purity="8.1911432743072510e-01" nType="-99"/>
            <Node pos="r" depth="3" NCoef="0" IVar="-1" Cut="0.0000000000000000e+00" cType="1" res="7.2867080569267273e-02" rms="2.1182489395141602e-01" purity="9.4002032279968262e-01" nType="-99"/>
          </Node>
        </Node>
      </Node>
    </BinaryTree>
    <BinaryTree type="DecisionTree" boostWeight="1.0000000000000000e+00" itree="14">
      <Node pos="s" depth="0" NCoef="0" IVar="4" Cut="2.3771272277832031e+02" cType="1" res="3.7429267540574074e-03" rms="3.1887140870094299e-01" purity="5.0584876537322998e-01" nType="0">
        <Node pos="l" depth="1" NCoef="0" IVar="2" Cut="8.3595238626003265e-02" cType="1" res="-2.3633547127246857e-02" rms="3.1893748044967651e-01" purity="2.4554237723350525e-01" nType="0">
          <Node pos="l" depth="2" NCoef="0" IVar="7" Cut="1.2071015834808350e+00" cType="1" res="-3.4580681473016739e-02" rms="3.0416592955589294e-01" purity="1.9243335723876953e-01" nType="0">
            <Node pos="l" depth="3" NCoef="0" IVar="-1" Cut="0.0000000000000000e+00" cType="1" res="-2.1961633116006851e-02" rms="3.1731197237968445e-01" purity="2.1625015139579773e-01" nType="-99"/>
            <Node pos="r" depth="3" NCoef="0" IVar="-1" Cut="0.0000000000000000e+00" cType="1" res="-7.3707863688468933e-02" rms="2.1737390756607056e-01" purity="6.6021613776683807e-02" nType="-99"/>
          </Node>
          <Node pos="r" depth="2" NCoef="0" IVar="-1" Cut="0.0000000000000000e+00" cType="1" res="2.2863026708364487e-02" rms="3.8671332597732544e-01" purity="5.4784244298934937e-01" nType="-99"/>
        </Node>
        <Node pos="r" depth="1" NCoef="0" IVar="7" Cut="-1.1048390865325928e+00" cType="1" res="3.2474253326654434e-02" rms="3.1626367568969727e-01" purity="7.7903765439987183e-01" nType="0">
          <Node pos="l" depth="2" NCoef="0" IVar="-1" Cut="0.0000000000000000e+00" cType="1" res="-5.2404154092073441e-02" rms="3.6187875270843506e-01" purity="4.3243607878684998e-01" nType="-99"/>
          <Node pos="r" depth="2" NCoef="0" IVar="8" Cut="1.1997163295745850e+00" cType="1" res="4.0970813482999802e-02" rms="3.1098970770835876e-01" purity="8.0411553382873535e-01" nType="0">
            <Node pos="l" depth="3" NCoef="0" IVar="-1" Cut="0.0000000000000000e+00" cType="1" res="3.8709923624992371e-02" rms="3.0492570996284485e-01" purity="8.2302320003509521e-01" nType="-99"/>
            <Node pos="r" depth="3" NCoef="0" IVar="-1" Cut="0.0000000000000000e+00" cType="1" res="-3.8077395409345627e-02" rms="3.6662074923515320e-01" purity="5.6042969226837158e-01" nType="-99"/>
          </Node>
        </Node>
      </Node>
    </BinaryTree>
    <BinaryTree type="DecisionTree" boostWeight="1.0000000000000000e+00" itree="15">
      <Node pos="s" depth="0" NCoef="0" IVar="0" Cut="4.5299465942382812e+02" cType="1" res="1.7233168473467231e-03" rms="3.1911775469779968e-01" purity="5.0264203548431396e-01" nType="0">
        <Node pos="l" depth="1" NCoef="0" IVar="2" Cut="1.0458475351333618e-01" cType="1" res="-2.4027839303016663e-02" rms="3.2609885931015015e-01" purity="2.3800882697105408e-01" nType="0">
          <Node pos="l" depth="2" NCoef="0" IVar="3" Cut="5.5294427490234375e+02" cType="1" res="-3.3449344336986542e-02" rms="3.1505355238914490e-01" purity="1.8893121182918549e-01" nType="0">
            <Node pos="l" depth="3" NCoef="0" IVar="-1" Cut="0.0000000000000000e+00" cType="1" res="-2.3245846852660179e-02" rms="3.0690824985504150e-01" purity="1.7488040030002594e-01" nType="-99"/>
            <Node pos="r" depth="3" NCoef="0" IVar="-1" Cut="0.0000000000000000e+00" cType="1" res="-5.7549048215150833e-02" rms="3.9136683940887451e-01" purity="3.5398146510124207e-01" nType="-99"/>
          </Node>
          <Node pos="r" depth="2" NCoef="0" IVar="-1" Cut="0.0000000000000000e+00" cType="1" res="2.6322575286030769e-02" rms="3.9136341214179993e-01" purity="6.0064607858657837e-01" nType="-99"/>
        </Node>
        <Node pos="r" depth="1" NCoef="0" IVar="4" Cut="1.4697917175292969e+02" cType="1" res="2.8170133009552956e-02" rms="3.0956366658210754e-01" purity="7.7442425489425659e-01" nType="0">
          <Node pos="l" depth="2" NCoef="0" IVar="-1" Cut="0.0000000000000000e+00" cType="1" res="-2.7877036482095718e-02" rms="3.6540237069129944e-01" purity="2.1825489401817322e-01" nType="-99"/>
          <Node pos="r" depth="2" NCoef="0" IVar="9" Cut="1.4666471481323242e+00" cType="1" res="3.4933827817440033e-02" rms="3.0275276303291321e-01" purity="8.2832533121109009e-01" nType="0">
            <Node pos="l" depth="3" NCoef="0" IVar="-1" Cut="0.0000000000000000e+00" cType="1" res="3.4632798284292221e-02" rms="2.9623857140541077e-01" purity="8.3980417251586914e-01" nType="-99"/>
            <Node pos="r" depth="3" NCoef="0" IVar="-1" Cut="0.0000000000000000e+00" cType="1" res="-3.3837947994470596e-02" rms="3.7463605403900146e-01" purity="6.6404765844345093e-01" nType="-99"/>
          </Node>
        </Node>
      </Node>
    </BinaryTree>
    <BinaryTree type="DecisionTree" boostWeight="1.0000000000000000e+00" itree="16">
      <Node pos="s" depth="0" NCoef="0" IVar="0" Cut="4.2850430297851562e+02" cType="1" res="3.0547718051820993e-04" rms="3.1596043705940247e-01" purity="5.0097060203552246e-01" nType="0">
        <Node pos="l" depth="1" NCoef="0" IVar="6" Cut="9.4609771728515625e+01" cType="1" res="-3.0489215627312660e-02" rms="3.1136396527290344e-01" purity="2.0700715482234955e-01" nType="0">
          <Node pos="l" depth="2" NCoef="0" IVar="0" Cut="4.0402413940429688e+02" cType="1" res="-4.4291075319051743e-02" rms="2.6063227653503418e-01" purity="9.5688313245773315e-02" nType="0">
            <Node pos="l" depth="3" NCoef="0" IVar="-1" Cut="0.0000000000000000e+00" cType="1" res="-5.1096800714731216e-02" rms="2.4834606051445007e-01" purity="8.2637563347816467e-02" nType="-99"/>
            <Node pos="r" depth="3" NCoef="0" IVar="-1" Cut="0.0000000000000000e+00" cType="1" res="-1.3551265001296997e-03" rms="3.3003729581832886e-01" purity="1.8559570610523224e-01" nType="-99"/>
          </Node>
          <Node pos="r" depth="2" NCoef="0" IVar="7" Cut="-6.0992127656936646e-01" cType="1" res="2.2800965234637260e-03" rms="4.0536242723464966e-01" purity="4.7130799293518066e-01" nType="0">
            <Node pos="l" depth="3" NCoef="0" IVar="-1" Cut="0.0000000000000000e+00" cType="1" res="-2.9916217550635338e-02" rms="3.9681029319763184e-01" purity="3.4173899888992310e-01" nType="-99"/>
            <Node pos="r" depth="3" NCoef="0" IVar="-1" Cut="0.0000000000000000e+00" cType="1" res="1.1625047773122787e-02" rms="4.0665793418884277e-01" purity="5.1601153612136841e-01" nType="-99"/>
          </Node>
        </Node>
        <Node pos="r" depth="1" NCoef="0" IVar="8" Cut="-1.1998711824417114e+00" cType="1" res="2.5209391489624977e-02" rms="3.1745201349258423e-01" purity="7.3870122432708740e-01" nType="0">
          <Node pos="l" depth="2" NCoef="0" IVar="-1" Cut="0.0000000000000000e+00" cType="1" res="-3.3082157373428345e-02" rms="3.7022835016250610e-01" purity="4.9513182044029236e-01" nType="-99"/>
          <Node pos="r" depth="2" NCoef="0" IVar="8" Cut="1.4663835763931274e+00" cType="1" res="3.2246906310319901e-02" rms="3.1091770529747009e-01" purity="7.6252651214599609e-01" nType="0">
            <Node pos="l" depth="3" NCoef="0" IVar="-1" Cut="0.0000000000000000e+00" cType="1" res="3.1776133924722672e-02" rms="3.0532217025756836e-01" purity="7.8466588258743286e-01" nType="-99"/>
            <Node pos="r" depth="3" NCoef="0" IVar="-1" Cut="0.0000000000000000e+00" cType="1" res="-3.0240949243307114e-02" rms="3.7552446126937866e-01" purity="4.3621924519538879e-01" nType="-99"/>
          </Node>
        </Node>
      </Node>
    </BinaryTree>
    <BinaryTree type="DecisionTree" boostWeight="1.0000000000000000e+00" itree="17">
      <Node pos="s" depth="0" NCoef="0" IVar="4" Cut="2.1086752319335938e+02" cType="1" res="-2.7738255448639393e-03" rms="3.1384876370429993e-01" purity="4.9672323465347290e-01" nType="0">
        <Node pos="l" depth="1" NCoef="0" IVar="2" Cut="6.0122400522232056e-02" cType="1" res="-3.0727440491318703e-02" rms="2.9436370730400085e-01" purity="1.8551939725875854e-01" nType="0">
          <Node pos="l" depth="2" NCoef="0" IVar="2" Cut="5.7253157719969749e-03" cType="1" res="-4.1706457734107971e-02" rms="2.6200416684150696e-01" purity="1.2451365590095520e-01" nType="0">
            <Node pos="l" depth="3" NCoef="0" IVar="-1" Cut="0.0000000000000000e+00" cType="1" res="-7.9638697206974030e-02" rms="1.8520602583885193e-01" purity="4.0445465594530106e-02" nType="-99"/>
            <Node pos="r" depth="3" NCoef="0" IVar="-1" Cut="0.0000000000000000e+00" cType="1" res="-3.3300999552011490e-02" rms="2.8079560399055481e-01" purity="1.4991620182991028e-01" nType="-99"/>
          </Node>
          <Node pos="r" depth="2" NCoef="0" IVar="1" Cut="1.1132342529296875e+03" cType="1" res="1.0245494544506073e-02" rms="3.8950011134147644e-01" purity="4.1318863630294800e-01" nType="0">
            <Node pos="l" depth="3" NCoef="0" IVar="-1" Cut="0.0000000000000000e+00" cType="1" res="-1.6097517684102058e-02" rms="3.3856216073036194e-01" purity="1.4093558490276337e-01" nType="-99"/>
            <Node pos="r" depth="3" NCoef="0" IVar="-1" Cut="0.0000000000000000e+00" cType="1" res="2.0211499184370041e-02" rms="4.2713290452957153e-01" purity="6.5070998668670654e-01" nType="-99"/>
          </Node>
        </Node>
        <Node pos="r" depth="1" NCoef="0" IVar="8" Cut="-1.4667006731033325e+00" cType="1" res="1.8289608880877495e-02" rms="3.2618784904479980e-01" purity="7.3121953010559082e-01" nType="0">
          <Node pos="l" depth="2" NCoef="0" IVar="-1" Cut="0.0000000000000000e+00" cType="1" res="-6.6558957099914551e-02" rms="3.7305864691734314e-01" purity="3.6697229743003845e-01" nType="-99"/>
          <Node pos="r" depth="2" NCoef="0" IVar="9" Cut="-1.4664788246154785e+00" cType="1" res="2.4509910494089127e-02" rms="3.2234072685241699e-01" purity="7.5031620264053345e-01" nType="0">
            <Node pos="l" depth="3" NCoef="0" IVar="-1" Cut="0.0000000000000000e+00" cType="1" res="-4.7992557287216187e-02" rms="3.7380105257034302e-01" purity="5.4181051254272461e-01" nType="-99"/>
            <Node pos="r" depth="3" NCoef="0" IVar="-1" Cut="0.0000000000000000e+00" cType="1" res="2.5938397273421288e-02" rms="3.1693947315216064e-01" purity="7.6638287305831909e-01" nType="-99"/>
          </Node>
        </Node>
      </Node>
    </BinaryTree>
    <BinaryTree type="DecisionTree" boostWeight="1.0000000000000000e+00" itree="18">
      <Node pos="s" depth="0" NCoef="0" IVar="6" Cut="7.8424575805664062e+01" cType="1" res="-1.2066022027283907e-03" rms="3.1407126784324646e-01" purity="4.9656581878662109e-01" nType="0">
        <Node pos="l" depth="1" NCoef="0" IVar="7" Cut="-9.1667431592941284e-01" cType="1" res="-2.9113318771123886e-02" rms="2.9518371820449829e-01" purity="2.1558707952499390e-01" nType="0">
          <Node pos="l" depth="2" NCoef="0" IVar="3" Cut="3.7442089843750000e+02" cType="1" res="-6.4166851341724396e-02" rms="2.1848361194133759e-01" purity="7.9606138169765472e-02" nType="0">
            <Node pos="l" depth="3" NCoef="0" IVar="-1" Cut="0.0000000000000000e+00" cType="1" res="-5.7747956365346909e-02" rms="1.9067949056625366e-01" purity="5.4802030324935913e-02" nType="-99"/>
            <Node pos="r" depth="3" NCoef="0" IVar="-1" Cut="0.0000000000000000e+00" cType="1" res="-8.7352305650711060e-02" rms="2.5788581371307373e-01" purity="1.2535300850868225e-01" nType="-99"/>
          </Node>
          <Node pos="r" depth="2" NCoef="0" IVar="5" Cut="9.2099685668945312e+01" cType="1" res="-2.0591277629137039e-02" rms="3.1038749217987061e-01" purity="2.4864609539508820e-01" nType="0">
            <Node pos="l" depth="3" NCoef="0" IVar="-1" Cut="0.0000000000000000e+00" cType="1" res="-4.4504150748252869e-02" rms="2.5119456648826599e-01" purity="1.0623032599687576e-01" nType="-99"/>
            <Node pos="r" depth="3" NCoef="0" IVar="-1" Cut="0.0000000000000000e+00" cType="1" res="-5.3539650980383158e-04" rms="3.5614550113677979e-01" purity="3.8280141353607178e-01" nType="-99"/>
          </Node>
        </Node>
        <Node pos="r" depth="1" NCoef="0" IVar="8" Cut="1.4661500453948975e+00" cType="1" res="1.8024139106273651e-02" rms="3.2506009936332703e-01" purity="6.9019049406051636e-01" nType="0">
          <Node pos="l" depth="2" NCoef="0" IVar="8" Cut="-1.5810266733169556e+00" cType="1" res="2.3640846833586693e-02" rms="3.2198134064674377e-01" purity="7.1308118104934692e-01" nType="0">
            <Node pos="l" depth="3" NCoef="0" IVar="-1" Cut="0.0000000000000000e+00" cType="1" res="-4.7373764216899872e-02" rms="3.5926306247711182e-01" purity="2.9587924480438232e-01" nType="-99"/>
            <Node pos="r" depth="3" NCoef="0" IVar="-1" Cut="0.0000000000000000e+00" cType="1" res="2.3891886696219444e-02" rms="3.1905260682106018e-01" purity="7.3608148097991943e-01" nType="-99"/>
          </Node>
          <Node pos="r" depth="2" NCoef="0" IVar="-1" Cut="0.0000000000000000e+00" cType="1" res="-4.8815228044986725e-02" rms="3.5851788520812988e-01" purity="3.3393719792366028e-01" nType="-99"/>
        </Node>
      </Node>
    </BinaryTree>
    <BinaryTree type="DecisionTree" boostWeight="1.0000000000000000e+00" itree="19">
      <Node pos="s" depth="0" NCoef="0" IVar="0" Cut="5.5563220214843750e+02" cType="1" res="2.8019078308716416e-04" rms="3.1556090712547302e-01" purity="4.9995881319046021e-01" nType="0">
        <Node pos="l" depth="1" NCoef="0" IVar="2" Cut="1.2300692498683929e-01" cType="1" res="-1.4020338654518127e-02" rms="3.3317789435386658e-01" purity="3.1602692604064941e-01" nType="0">
          <Node pos="l" depth="2" NCoef="0" IVar="3" Cut="4.5604910278320312e+02" cType="1" res="-2.2381927818059921e-02" rms="3.2958382368087769e-01" purity="2.6751407980918884e-01" nType="0">
            <Node pos="l" depth="3" NCoef="0" IVar="-1" Cut="0.0000000000000000e+00" cType="1" res="-9.8339077085256577e-03" rms="3.1552818417549133e-01" purity="2.1882918477058411e-01" nType="-99"/>
            <Node pos="r" depth="3" NCoef="0" IVar="-1" Cut="0.0000000000000000e+00" cType="1" res="-4.0725901722908020e-02" rms="3.6949664354324341e-01" purity="4.2699754238128662e-01" nType="-99"/>
          </Node>
          <Node pos="r" depth="2" NCoef="0" IVar="-1" Cut="0.0000000000000000e+00" cType="1" res="3.9872534573078156e-02" rms="3.5456022620201111e-01" purity="7.3290753364562988e-01" nType="-99"/>
        </Node>
        <Node pos="r" depth="1" NCoef="0" IVar="6" Cut="1.0684879302978516e+02" cType="1" res="2.9150271788239479e-02" rms="2.7433505654335022e-01" purity="8.7128269672393799e-01" nType="0">
          <Node pos="l" depth="2" NCoef="0" IVar="3" Cut="5.8679724121093750e+02" cType="1" res="1.1369195766746998e-02" rms="3.6046493053436279e-01" purity="7.4827772378921509e-01" nType="0">
            <Node pos="l" depth="3" NCoef="0" IVar="-1" Cut="0.0000000000000000e+00" cType="1" res="1.8537113443017006e-02" rms="3.6493512988090515e-01" purity="7.2831189632415771e-01" nType="-99"/>
            <Node pos="r" depth="3" NCoef="0" IVar="-1" Cut="0.0000000000000000e+00" cType="1" res="-9.6540823578834534e-03" rms="3.5168772935867310e-01" purity="7.8082001209259033e-01" nType="-99"/>
          </Node>
          <Node pos="r" depth="2" NCoef="0" IVar="0" Cut="7.7938714599609375e+02" cType="1" res="4.1646659374237061e-02" rms="1.9093476235866547e-01" purity="9.5772963762283325e-01" nType="0">
            <Node pos="l" depth="3" NCoef="0" IVar="-1" Cut="0.0000000000000000e+00" cType="1" res="4.4262524694204330e-02" rms="2.2094094753265381e-01" purity="9.4170492887496948e-01" nType="-99"/>
            <Node pos="r" depth="3" NCoef="0" IVar="-1" Cut="0.0000000000000000e+00" cType="1" res="7.7677555382251740e-02" rms="1.4160148799419403e-01" purity="9.7879022359848022e-01" nType="-99"/>
          </Node>
        </Node>
      </Node>
    </BinaryTree>
    <BinaryTree type="DecisionTree" boostWeight="1.0000000000000000e+00" itree="20">
      <Node pos="s" depth="0" NCoef="0" IVar="5" Cut="9.5686653137207031e+01" cType="1" res="2.2996557527221739e-04" rms="3.1117111444473267e-01" purity="5.0122398138046265e-01" nType="0">
        <Node pos="l" depth="1" NCoef="0" IVar="6" Cut="6.5155487060546875e+01" cType="1" res="-3.3987332135438919e-02" rms="2.4248018860816956e-01" purity="1.0746219009160995e-01" nType="0">
          <Node pos="l" depth="2" NCoef="0" IVar="3" Cut="4.4573797607421875e+02" cType="1" res="-4.6031914651393890e-02" rms="2.0878985524177551e-01" purity="7.4511677026748657e-02" nType="0">
            <Node pos="l" depth="3" NCoef="0" IVar="-1" Cut="0.0000000000000000e+00" cType="1" res="-6.1145205050706863e-02" rms="1.7703595757484436e-01" purity="3.7819549441337585e-02" nType="-99"/>
            <Node pos="r" depth="3" NCoef="0" IVar="-1" Cut="0.0000000000000000e+00" cType="1" res="-5.1026239991188049e-02" rms="2.9178714752197266e-01" purity="2.0049999654293060e-01" nType="-99"/>
          </Node>
          <Node pos="r" depth="2" NCoef="0" IVar="0" Cut="4.1953210449218750e+02" cType="1" res="-1.3081967830657959e-02" rms="2.9068177938461304e-01" purity="1.6465325653553009e-01" nType="0">
            <Node pos="l" depth="3" NCoef="0" IVar="-1" Cut="0.0000000000000000e+00" cType="1" res="-3.9791941642761230e-02" rms="2.2350059449672699e-01" purity="5.5130694061517715e-02" nType="-99"/>
            <Node pos="r" depth="3" NCoef="0" IVar="-1" Cut="0.0000000000000000e+00" cType="1" res="9.5328819006681442e-03" rms="3.7693896889686584e-01" purity="3.5085284709930420e-01" nType="-99"/>
          </Node>
        </Node>
        <Node pos="r" depth="1" NCoef="0" IVar="7" Cut="-1.4280054569244385e+00" cType="1" res="1.1087732389569283e-02" rms="3.2925051450729370e-01" purity="6.2617170810699463e-01" nType="0">
          <Node pos="l" depth="2" NCoef="0" IVar="-1" Cut="0.0000000000000000e+00" cType="1" res="-6.1713814735412598e-02" rms="3.0537697672843933e-01" purity="1.8332657217979431e-01" nType="-99"/>
          <Node pos="r" depth="2" NCoef="0" IVar="7" Cut="1.1891353130340576e+00" cType="1" res="1.5708724036812782e-02" rms="3.2981675863265991e-01" purity="6.4953464269638062e-01" nType="0">
            <Node pos="l" depth="3" NCoef="0" IVar="-1" Cut="0.0000000000000000e+00" cType="1" res="1.8576212227344513e-02" rms="3.2907098531723022e-01" purity="6.8657517433166504e-01" nType="-99"/>
            <Node pos="r" depth="3" NCoef="0" IVar="-1" Cut="0.0000000000000000e+00" cType="1" res="-3.9953287690877914e-02" rms="3.2973143458366394e-01" purity="2.7496516704559326e-01" nType="-99"/>
          </Node>
        </Node>
      </Node>
    </BinaryTree>
    <BinaryTree type="DecisionTree" boostWeight="1.0000000000000000e+00" itree="21">
      <Node pos="s" depth="0" NCoef="0" IVar="1" Cut="1.1148211669921875e+03" cType="1" res="1.3284772867336869e-03" rms="3.1278628110885620e-01" purity="5.0165075063705444e-01" nType="0">
        <Node pos="l" depth="1" NCoef="0" IVar="1" Cut="9.1993560791015625e+02" cType="1" res="-2.5569023564457893e-02" rms="2.1489827334880829e-01" purity="5.2985716611146927e-02" nType="0">
          <Node pos="l" depth="2" NCoef="0" IVar="3" Cut="2.3319401550292969e+02" cType="1" res="-4.2156320065259933e-02" rms="1.1369368433952332e-01" purity="1.3013178482651711e-02" nType="0">
            <Node pos="l" depth="3" NCoef="0" IVar="-1" Cut="0.0000000000000000e+00" cType="1" res="-9.5285028219223022e-02" rms="9.0334914624691010e-02" purity="7.8324340283870697e-03" nType="-99"/>
            <Node pos="r" depth="3" NCoef="0" IVar="-1" Cut="0.0000000000000000e+00" cType="1" res="-7.3314964771270752e-02" rms="1.2402731925249100e-01" purity="1.5846056863665581e-02" nType="-99"/>
          </Node>
          <Node pos="r" depth="2" NCoef="0" IVar="3" Cut="3.5984762573242188e+02" cType="1" res="-1.8237993121147156e-02" rms="2.4638086557388306e-01" purity="7.0652246475219727e-02" nType="0">
            <Node pos="l" depth="3" NCoef="0" IVar="-1" Cut="0.0000000000000000e+00" cType="1" res="-1.5248524025082588e-02" rms="2.6845335960388184e-01" purity="8.4628745913505554e-02" nType="-99"/>
            <Node pos="r" depth="3" NCoef="0" IVar="-1" Cut="0.0000000000000000e+00" cType="1" res="-7.6041512191295624e-02" rms="1.2618409097194672e-01" purity="1.6279440373182297e-02" nType="-99"/>
          </Node>
        </Node>
        <Node pos="r" depth="1" NCoef="0" IVar="7" Cut="-1.4581344127655029e+00" cType="1" res="1.1055848561227322e-02" rms="3.4082174301147461e-01" purity="6.6390866041183472e-01" nType="0">
          <Node pos="l" depth="2" NCoef="0" IVar="-1" Cut="0.0000000000000000e+00" cType="1" res="-7.4633061885833740e-02" rms="3.0253967642784119e-01" purity="1.7924927175045013e-01" nType="-99"/>
          <Node pos="r" depth="2" NCoef="0" IVar="7" Cut="7.7202904224395752e-01" cType="1" res="1.5477470122277737e-02" rms="3.4151297807693481e-01" purity="6.8322700262069702e-01" nType="0">
            <Node pos="l" depth="3" NCoef="0" IVar="-1" Cut="0.0000000000000000e+00" cType="1" res="2.0237632095813751e-02" rms="3.3680206537246704e-01" purity="7.2736889123916626e-01" nType="-99"/>
            <Node pos="r" depth="3" NCoef="0" IVar="-1" Cut="0.0000000000000000e+00" cType="1" res="-2.1620696410536766e-02" rms="3.5970884561538696e-01" purity="4.7230079770088196e-01" nType="-99"/>
          </Node>
        </Node>
      </Node>
    </BinaryTree>
    <BinaryTree type="DecisionTree" boostWeight="1.0000000000000000e+00" itree="22">
      <Node pos="s" depth="0" NCoef="0" IVar="7" Cut="1.4691886901855469e+00" cType="1" res="3.6967725027352571e-03" rms="3.1552776694297791e-01" purity="5.0248205661773682e-01" nType="0">
        <Node pos="l" depth="1" NCoef="0" IVar="7" Cut="-7.6090246438980103e-01" cType="1" res="7.7178492210805416e-03" rms="3.1903675198554993e-01" purity="5.2793008089065552e-01" nType="0">
          <Node pos="l" depth="2" NCoef="0" IVar="3" Cut="4.4882705688476562e+02" cType="1" res="-2.3922163993120193e-02" rms="3.0788883566856384e-01" purity="3.0771645903587341e-01" nType="0">
            <Node pos="l" depth="3" NCoef="0" IVar="-1" Cut="0.0000000000000000e+00" cType="1" res="-9.1489711776375771e-03" rms="2.9788017272949219e-01" purity="2.4612119793891907e-01" nType="-99"/>
            <Node pos="r" depth="3" NCoef="0" IVar="-1" Cut="0.0000000000000000e+00" cType="1" res="-5.2311025559902191e-02" rms="3.3063757419586182e-01" purity="4.7846060991287231e-01" nType="-99"/>
          </Node>
          <Node pos="r" depth="2" NCoef="0" IVar="10" Cut="2.0000004768371582e+00" cType="1" res="1.5895672142505646e-02" rms="3.2134905457496643e-01" purity="5.8484750986099243e-01" nType="0">
            <Node pos="l" depth="3" NCoef="0" IVar="-1" Cut="0.0000000000000000e+00" cType="1" res="1.7344890162348747e-02" rms="3.2017222046852112e-01" purity="5.9589689970016479e-01" nType="-99"/>
            <Node pos="r" depth="3" NCoef="0" IVar="-1" Cut="0.0000000000000000e+00" cType="1" res="-5.0471331924200058e-02" rms="3.3644378185272217e-01" purity="3.5336104035377502e-01" nType="-99"/>
          </Node>
        </Node>
        <Node pos="r" depth="1" NCoef="0" IVar="3" Cut="3.0580426025390625e+02" cType="1" res="-5.8672610670328140e-02" rms="2.4673865735530853e-01" purity="1.0776690393686295e-01" nType="0">
          <Node pos="l" depth="2" NCoef="0" IVar="-1" Cut="0.0000000000000000e+00" cType="1" res="-4.0490388870239258e-02" rms="2.2276017069816589e-01" purity="7.4050083756446838e-02" nType="-99"/>
          <Node pos="r" depth="2" NCoef="0" IVar="-1" Cut="0.0000000000000000e+00" cType="1" res="-7.9263389110565186e-02" rms="2.6223173737525940e-01" purity="1.3527780771255493e-01" nType="-99"/>
        </Node>
      </Node>
    </BinaryTree>
    <BinaryTree type="DecisionTree" boostWeight="1.0000000000000000e+00" itree="23">
      <Node pos="s" depth="0" NCoef="0" IVar="0" Cut="6.0598901367187500e+02" cType="1" res="-2.8511672280728817e-03" rms="3.0931833386421204e-01" purity="4.9893382191658020e-01" nType="0">
        <Node pos="l" depth="1" NCoef="0" IVar="3" Cut="6.6092810058593750e+02" cType="1" res="-1.2856823392212391e-02" rms="3.2785809040069580e-01" purity="3.4452357888221741e-01" nType="0">
          <Node pos="l" depth="2" NCoef="0" IVar="0" Cut="3.4371212768554688e+02" cType="1" res="-8.4827169775962830e-03" rms="3.2526791095733643e-01" purity="3.3314681053161621e-01" nType="0">
            <Node pos="l" depth="3" NCoef="0" IVar="-1" Cut="0.0000000000000000e+00" cType="1" res="-3.7208929657936096e-02" rms="2.8172028064727783e-01" purity="1.3246542215347290e-01" nType="-99"/>
            <Node pos="r" depth="3" NCoef="0" IVar="-1" Cut="0.0000000000000000e+00" cType="1" res="1.7889726441353559e-03" rms="3.3989739418029785e-01" purity="4.1014087200164795e-01" nType="-99"/>
          </Node>
          <Node pos="r" depth="2" NCoef="0" IVar="-1" Cut="0.0000000000000000e+00" cType="1" res="-7.4954070150852203e-02" rms="3.6694428324699402e-01" purity="5.8967375755310059e-01" nType="-99"/>
        </Node>
        <Node pos="r" depth="1" NCoef="0" IVar="5" Cut="1.8553631591796875e+02" cType="1" res="2.3145372048020363e-02" rms="2.5307965278625488e-01" purity="9.0012001991271973e-01" nType="0">
          <Node pos="l" depth="2" NCoef="0" IVar="5" Cut="1.0819679260253906e+02" cType="1" res="5.7787955738604069e-03" rms="3.4005731344223022e-01" purity="7.9987609386444092e-01" nType="0">
            <Node pos="l" depth="3" NCoef="0" IVar="-1" Cut="0.0000000000000000e+00" cType="1" res="-1.6057534143328667e-02" rms="4.2508146166801453e-01" purity="5.8025830984115601e-01" nType="-99"/>
            <Node pos="r" depth="3" NCoef="0" IVar="-1" Cut="0.0000000000000000e+00" cType="1" res="1.6178309917449951e-02" rms="3.0599460005760193e-01" purity="8.7237012386322021e-01" nType="-99"/>
          </Node>
          <Node pos="r" depth="2" NCoef="0" IVar="3" Cut="6.4113964843750000e+02" cType="1" res="3.5024452954530716e-02" rms="1.6856320202350616e-01" purity="9.6868884563446045e-01" nType="0">
            <Node pos="l" depth="3" NCoef="0" IVar="-1" Cut="0.0000000000000000e+00" cType="1" res="6.4516499638557434e-02" rms="1.5888862311840057e-01" purity="9.7225272655487061e-01" nType="-99"/>
            <Node pos="r" depth="3" NCoef="0" IVar="-1" Cut="0.0000000000000000e+00" cType="1" res="4.4246248900890350e-02" rms="1.8937826156616211e-01" purity="9.6020632982254028e-01" nType="-99"/>
          </Node>
        </Node>
      </Node>
    </BinaryTree>
    <BinaryTree type="DecisionTree" boostWeight="1.0000000000000000e+00" itree="24">
      <Node pos="s" depth="0" NCoef="0" IVar="9" Cut="1.7333204746246338e+00" cType="1" res="-5.4760289458499756e-07" rms="3.1178212165832520e-01" purity="4.9688225984573364e-01" nType="0">
        <Node pos="l" depth="1" NCoef="0" IVar="9" Cut="-1.7206318378448486e+00" cType="1" res="4.1575161740183830e-03" rms="3.1219333410263062e-01" purity="5.1521706581115723e-01" nType="0">
          <Node pos="l" depth="2" NCoef="0" IVar="10" Cut="-3.9987155795097351e-01" cType="1" res="-5.3403750061988831e-02" rms="2.9798683524131775e-01" purity="2.4807813763618469e-01" nType="0">
            <Node pos="l" depth="3" NCoef="0" IVar="-1" Cut="0.0000000000000000e+00" cType="1" res="-7.1414098143577576e-02" rms="2.8512811660766602e-01" purity="1.9601267576217651e-01" nType="-99"/>
            <Node pos="r" depth="3" NCoef="0" IVar="-1" Cut="0.0000000000000000e+00" cType="1" res="-3.5052247345447540e-02" rms="3.0690681934356689e-01" purity="2.8950959444046021e-01" nType="-99"/>
          </Node>
          <Node pos="r" depth="2" NCoef="0" IVar="7" Cut="-8.9962500333786011e-01" cType="1" res="8.7949223816394806e-03" rms="3.1284919381141663e-01" purity="5.3673905134201050e-01" nType="0">
            <Node pos="l" depth="3" NCoef="0" IVar="-1" Cut="0.0000000000000000e+00" cType="1" res="-2.6802804321050644e-02" rms="2.9764050245285034e-01" purity="2.8145271539688110e-01" nType="-99"/>
            <Node pos="r" depth="3" NCoef="0" IVar="-1" Cut="0.0000000000000000e+00" cType="1" res="1.3979631476104259e-02" rms="3.1497403979301453e-01" purity="5.8087652921676636e-01" nType="-99"/>
          </Node>
        </Node>
        <Node pos="r" depth="1" NCoef="0" IVar="1" Cut="1.2602065429687500e+03" cType="1" res="-5.7661931961774826e-02" rms="3.0014219880104065e-01" purity="2.4262736737728119e-01" nType="0">
          <Node pos="l" depth="2" NCoef="0" IVar="-1" Cut="0.0000000000000000e+00" cType="1" res="-4.9527674913406372e-02" rms="2.2488681972026825e-01" purity="5.3967289626598358e-02" nType="-99"/>
          <Node pos="r" depth="2" NCoef="0" IVar="-1" Cut="0.0000000000000000e+00" cType="1" res="-5.9650797396898270e-02" rms="3.8165944814682007e-01" purity="5.1530671119689941e-01" nType="-99"/>
        </Node>
      </Node>
    </BinaryTree>
    <BinaryTree type="DecisionTree" boostWeight="1.0000000000000000e+00" itree="25">
      <Node pos="s" depth="0" NCoef="0" IVar="9" Cut="1.4666504859924316e+00" cType="1" res="-1.3501113280653954e-03" rms="3.1028407812118530e-01" purity="4.9611303210258484e-01" nType="0">
        <Node pos="l" depth="1" NCoef="0" IVar="9" Cut="-1.1745954751968384e+00" cType="1" res="3.3862262498587370e-03" rms="3.1122657656669617e-01" purity="5.1926249265670776e-01" nType="0">
          <Node pos="l" depth="2" NCoef="0" IVar="7" Cut="4.2088040709495544e-01" cType="1" res="-3.4100614488124847e-02" rms="3.1333979964256287e-01" purity="3.3882129192352295e-01" nType="0">
            <Node pos="l" depth="3" NCoef="0" IVar="-1" Cut="0.0000000000000000e+00" cType="1" res="-1.9462486729025841e-02" rms="3.2150143384933472e-01" purity="3.6331391334533691e-01" nType="-99"/>
            <Node pos="r" depth="3" NCoef="0" IVar="-1" Cut="0.0000000000000000e+00" cType="1" res="-6.3597694039344788e-02" rms="2.9022878408432007e-01" purity="2.7961212396621704e-01" nType="-99"/>
          </Node>
          <Node pos="r" depth="2" NCoef="0" IVar="4" Cut="1.4586143493652344e+02" cType="1" res="1.0993835516273975e-02" rms="3.1024357676506042e-01" purity="5.5588138103485107e-01" nType="0">
            <Node pos="l" depth="3" NCoef="0" IVar="-1" Cut="0.0000000000000000e+00" cType="1" res="-2.2225217893719673e-02" rms="2.4912834167480469e-01" purity="8.8953487575054169e-02" nType="-99"/>
            <Node pos="r" depth="3" NCoef="0" IVar="-1" Cut="0.0000000000000000e+00" cType="1" res="1.4886636286973953e-02" rms="3.2138848304748535e-01" purity="6.5476787090301514e-01" nType="-99"/>
          </Node>
        </Node>
        <Node pos="r" depth="1" NCoef="0" IVar="4" Cut="2.1529266357421875e+02" cType="1" res="-4.3582472950220108e-02" rms="2.9844504594802856e-01" purity="2.8969660401344299e-01" nType="0">
          <Node pos="l" depth="2" NCoef="0" IVar="2" Cut="1.7853526398539543e-02" cType="1" res="-2.5153404101729393e-02" rms="2.6203516125679016e-01" purity="1.3012215495109558e-01" nType="0">
            <Node pos="l" depth="3" NCoef="0" IVar="-1" Cut="0.0000000000000000e+00" cType="1" res="-5.8859124779701233e-02" rms="1.7894944548606873e-01" purity="4.9101442098617554e-02" nType="-99"/>
            <Node pos="r" depth="3" NCoef="0" IVar="-1" Cut="0.0000000000000000e+00" cType="1" res="-1.1982895433902740e-02" rms="3.2280915975570679e-01" purity="2.0932221412658691e-01" nType="-99"/>
          </Node>
          <Node pos="r" depth="2" NCoef="0" IVar="-1" Cut="0.0000000000000000e+00" cType="1" res="-5.3728211671113968e-02" rms="3.4425151348114014e-01" purity="5.2991890907287598e-01" nType="-99"/>
        </Node>
      </Node>
    </BinaryTree>
    <BinaryTree type="DecisionTree" boostWeight="1.0000000000000000e+00" itree="26">
      <Node pos="s" depth="0" NCoef="0" IVar="6" Cut="1.5527264404296875e+02" cType="1" res="-1.3923294318374246e-04" rms="3.1378775835037231e-01" purity="4.9688664078712463e-01" nType="0">
        <Node pos="l" depth="1" NCoef="0" IVar="3" Cut="5.0379696655273438e+02" cType="1" res="-6.8593383766710758e-03" rms="3.2873296737670898e-01" purity="4.0275144577026367e-01" nType="0">
          <Node pos="l" depth="2" NCoef="0" IVar="8" Cut="-1.4666144847869873e+00" cType="1" res="-6.8734938395209610e-05" rms="3.2345059514045715e-01" purity="3.1987315416336060e-01" nType="0">
            <Node pos="l" depth="3" NCoef="0" IVar="-1" Cut="0.0000000000000000e+00" cType="1" res="-4.1063752025365829e-02" rms="2.5643962621688843e-01" purity="1.1928169429302216e-01" nType="-99"/>
            <Node pos="r" depth="3" NCoef="0" IVar="-1" Cut="0.0000000000000000e+00" cType="1" res="3.7527473177760839e-03" rms="3.3027988672256470e-01" purity="3.4378984570503235e-01" nType="-99"/>
          </Node>
          <Node pos="r" depth="2" NCoef="0" IVar="7" Cut="7.4302554130554199e-01" cType="1" res="-2.7472335845232010e-02" rms="3.4345018863677979e-01" purity="6.5433001518249512e-01" nType="0">
            <Node pos="l" depth="3" NCoef="0" IVar="-1" Cut="0.0000000000000000e+00" cType="1" res="-1.1069815605878830e-02" rms="3.4187471866607666e-01" purity="6.9742238521575928e-01" nType="-99"/>
            <Node pos="r" depth="3" NCoef="0" IVar="-1" Cut="0.0000000000000000e+00" cType="1" res="-8.3897501230239868e-02" rms="3.4009745717048645e-01" purity="3.8632348179817200e-01" nType="-99"/>
          </Node>
        </Node>
        <Node pos="r" depth="1" NCoef="0" IVar="7" Cut="4.4292601943016052e-01" cType="1" res="3.0306378379464149e-02" rms="2.3200513422489166e-01" purity="9.2336851358413696e-01" nType="0">
          <Node pos="l" depth="2" NCoef="0" IVar="6" Cut="1.8535144042968750e+02" cType="1" res="3.5914134234189987e-02" rms="2.1923819184303284e-01" purity="9.3691694736480713e-01" nType="0">
            <Node pos="l" depth="3" NCoef="0" IVar="-1" Cut="0.0000000000000000e+00" cType="1" res="3.3411614596843719e-02" rms="2.6387265324592590e-01" purity="9.0085619688034058e-01" nType="-99"/>
            <Node pos="r" depth="3" NCoef="0" IVar="-1" Cut="0.0000000000000000e+00" cType="1" res="6.2204610556364059e-02" rms="1.8375100195407867e-01" purity="9.6074938774108887e-01" nType="-99"/>
          </Node>
          <Node pos="r" depth="2" NCoef="0" IVar="-1" Cut="0.0000000000000000e+00" cType="1" res="1.4794261194765568e-02" rms="2.6628735661506653e-01" purity="8.8229060173034668e-01" nType="-99"/>
        </Node>
      </Node>
    </BinaryTree>
    <BinaryTree type="DecisionTree" boostWeight="1.0000000000000000e+00" itree="27">
      <Node pos="s" depth="0" NCoef="0" IVar="7" Cut="-9.1659402847290039e-01" cType="1" res="1.2267997954040766e-03" rms="3.1199318170547485e-01" purity="4.9993091821670532e-01" nType="0">
        <Node pos="l" depth="1" NCoef="0" IVar="3" Cut="4.9942770385742188e+02" cType="1" res="-2.8811793774366379e-02" rms="2.8455686569213867e-01" purity="2.5115314126014709e-01" nType="0">
          <Node pos="l" depth="2" NCoef="0" IVar="1" Cut="1.3287145996093750e+03" cType="1" res="-1.9570549950003624e-02" rms="2.7210986614227295e-01" purity="2.1605290472507477e-01" nType="0">
            <Node pos="l" depth="3" NCoef="0" IVar="-1" Cut="0.0000000000000000e+00" cType="1" res="-4.1292808949947357e-02" rms="2.1367980539798737e-01" purity="5.9272907674312592e-02" nType="-99"/>
            <Node pos="r" depth="3" NCoef="0" IVar="-1" Cut="0.0000000000000000e+00" cType="1" res="2.4456540122628212e-03" rms="3.8666838407516479e-01" purity="6.3701444864273071e-01" nType="-99"/>
          </Node>
          <Node pos="r" depth="2" NCoef="0" IVar="-1" Cut="0.0000000000000000e+00" cType="1" res="-5.7934701442718506e-02" rms="3.3506837487220764e-01" purity="4.2206883430480957e-01" nType="-99"/>
        </Node>
        <Node pos="r" depth="1" NCoef="0" IVar="7" Cut="1.7378953695297241e+00" cType="1" res="6.6362647339701653e-03" rms="3.1637862324714661e-01" purity="5.4473179578781128e-01" nType="0">
          <Node pos="l" depth="2" NCoef="0" IVar="9" Cut="-1.7333670854568481e+00" cType="1" res="9.7687933593988419e-03" rms="3.2071217894554138e-01" purity="5.6658279895782471e-01" nType="0">
            <Node pos="l" depth="3" NCoef="0" IVar="-1" Cut="0.0000000000000000e+00" cType="1" res="-3.4690495580434799e-02" rms="3.2386896014213562e-01" purity="3.0263873934745789e-01" nType="-99"/>
            <Node pos="r" depth="3" NCoef="0" IVar="-1" Cut="0.0000000000000000e+00" cType="1" res="1.1776311323046684e-02" rms="3.2028672099113464e-01" purity="5.8279860019683838e-01" nType="-99"/>
          </Node>
          <Node pos="r" depth="2" NCoef="0" IVar="-1" Cut="0.0000000000000000e+00" cType="1" res="-8.4745220839977264e-02" rms="1.8469579517841339e-01" purity="6.2109805643558502e-02" nType="-99"/>
        </Node>
      </Node>
    </BinaryTree>
    <BinaryTree type="DecisionTree" boostWeight="1.0000000000000000e+00" itree="28">
      <Node pos="s" depth="0" NCoef="0" IVar="8" Cut="1.9999725818634033e+00" cType="1" res="2.2015832364559174e-03" rms="3.1011536717414856e-01" purity="5.0246626138687134e-01" nType="0">
        <Node pos="l" depth="1" NCoef="0" IVar="8" Cut="-1.4285871982574463e+00" cType="1" res="4.5836023055016994e-03" rms="3.1198516488075256e-01" purity="5.1679337024688721e-01" nType="0">
          <Node pos="l" depth="2" NCoef="0" IVar="5" Cut="1.2782372283935547e+02" cType="1" res="-3.7628781050443649e-02" rms="2.8367358446121216e-01" purity="2.0756325125694275e-01" nType="0">
            <Node pos="l" depth="3" NCoef="0" IVar="-1" Cut="0.0000000000000000e+00" cType="1" res="-3.3091850578784943e-02" rms="2.2077697515487671e-01" purity="8.0109760165214539e-02" nType="-99"/>
            <Node pos="r" depth="3" NCoef="0" IVar="-1" Cut="0.0000000000000000e+00" cType="1" res="-4.4325064867734909e-02" rms="3.6257135868072510e-01" purity="4.1613388061523438e-01" nType="-99"/>
          </Node>
          <Node pos="r" depth="2" NCoef="0" IVar="4" Cut="1.4608894348144531e+02" cType="1" res="8.7025761604309082e-03" rms="3.1430789828300476e-01" purity="5.4696720838546753e-01" nType="0">
            <Node pos="l" depth="3" NCoef="0" IVar="-1" Cut="0.0000000000000000e+00" cType="1" res="-2.3609960451722145e-02" rms="2.4503077566623688e-01" purity="8.3648808300495148e-02" nType="-99"/>
            <Node pos="r" depth="3" NCoef="0" IVar="-1" Cut="0.0000000000000000e+00" cType="1" res="1.2698010541498661e-02" rms="3.2722485065460205e-01" purity="6.4818263053894043e-01" nType="-99"/>
          </Node>
        </Node>
        <Node pos="r" depth="1" NCoef="0" IVar="-1" Cut="0.0000000000000000e+00" cType="1" res="-8.3248145878314972e-02" rms="2.3745001852512360e-01" purity="7.6302140951156616e-02" nType="-99"/>
      </Node>
    </BinaryTree>
    <BinaryTree type="DecisionTree" boostWeight="1.0000000000000000e+00" itree="29">
      <Node pos="s" depth="0" NCoef="0" IVar="7" Cut="9.3701165914535522e-01" cType="1" res="1.0518048657104373e-03" rms="3.0949202179908752e-01" purity="5.0276035070419312e-01" nType="0">
        <Node pos="l" depth="1" NCoef="0" IVar="8" Cut="9.3329119682312012e-01" cType="1" res="6.2463446520268917e-03" rms="3.1278020143508911e-01" purity="5.4769539833068848e-01" nType="0">
          <Node pos="l" depth="2" NCoef="0" IVar="7" Cut="-1.5467362403869629e+00" cType="1" res="1.1951421387493610e-02" rms="3.1201300024986267e-01" purity="5.8341008424758911e-01" nType="0">
            <Node pos="l" depth="3" NCoef="0" IVar="-1" Cut="0.0000000000000000e+00" cType="1" res="-4.3374039232730865e-02" rms="2.3515792191028595e-01" purity="1.0371916741132736e-01" nType="-99"/>
            <Node pos="r" depth="3" NCoef="0" IVar="-1" Cut="0.0000000000000000e+00" cType="1" res="1.3799747452139854e-02" rms="3.1559669971466064e-01" purity="6.1044096946716309e-01" nType="-99"/>
          </Node>
          <Node pos="r" depth="2" NCoef="0" IVar="0" Cut="5.2775140380859375e+02" cType="1" res="-2.1321021020412445e-02" rms="3.1500861048698425e-01" purity="3.7511929869651794e-01" nType="0">
            <Node pos="l" depth="3" NCoef="0" IVar="-1" Cut="0.0000000000000000e+00" cType="1" res="-3.2849952578544617e-02" rms="3.0404976010322571e-01" purity="2.0401823520660400e-01" nType="-99"/>
            <Node pos="r" depth="3" NCoef="0" IVar="-1" Cut="0.0000000000000000e+00" cType="1" res="7.8054424375295639e-03" rms="3.3762994408607483e-01" purity="7.7975505590438843e-01" nType="-99"/>
          </Node>
        </Node>
        <Node pos="r" depth="1" NCoef="0" IVar="3" Cut="3.9988848876953125e+02" cType="1" res="-2.8477545827627182e-02" rms="2.8831973671913147e-01" purity="2.4731832742691040e-01" nType="0">
          <Node pos="l" depth="2" NCoef="0" IVar="4" Cut="2.1662176513671875e+02" cType="1" res="-1.6618423163890839e-02" rms="2.6824626326560974e-01" purity="1.8225817382335663e-01" nType="0">
            <Node pos="l" depth="3" NCoef="0" IVar="-1" Cut="0.0000000000000000e+00" cType="1" res="-4.5559197664260864e-02" rms="2.1069234609603882e-01" purity="7.2363607585430145e-02" nType="-99"/>
            <Node pos="r" depth="3" NCoef="0" IVar="-1" Cut="0.0000000000000000e+00" cType="1" res="1.2482857331633568e-02" rms="3.7287914752960205e-01" purity="4.5622542500495911e-01" nType="-99"/>
          </Node>
          <Node pos="r" depth="2" NCoef="0" IVar="2" Cut="1.1927069164812565e-02" cType="1" res="-5.1933795213699341e-02" rms="3.2310605049133301e-01" purity="3.7600141763687134e-01" nType="0">
            <Node pos="l" depth="3" NCoef="0" IVar="-1" Cut="0.0000000000000000e+00" cType="1" res="-6.0998618602752686e-02" rms="2.8743529319763184e-01" purity="1.5374073386192322e-01" nType="-99"/>
            <Node pos="r" depth="3" NCoef="0" IVar="-1" Cut="0.0000000000000000e+00" cType="1" res="-2.7969760820269585e-02" rms="3.5406669974327087e-01" purity="5.9544467926025391e-01" nType="-99"/>
          </Node>
        </Node>
      </Node>
    </BinaryTree>
    <BinaryTree type="DecisionTree" boostWeight="1.0000000000000000e+00" itree="30">
      <Node pos="s" depth="0" NCoef="0" IVar="0" Cut="7.5620208740234375e+02" cType="1" res="4.9196567852050066e-04" rms="3.1314828991889954e-01" purity="4.9801895022392273e-01" nType="0">
        <Node pos="l" depth="1" NCoef="0" IVar="3" Cut="6.2355352783203125e+02" cType="1" res="-3.6212268751114607e-03" rms="3.2695755362510681e-01" purity="4.2257669568061829e-01" nType="0">
          <Node pos="l" depth="2" NCoef="0" IVar="0" Cut="3.8688897705078125e+02" cType="1" res="1.1431373422965407e-03" rms="3.2360666990280151e-01" purity="4.0034276247024536e-01" nType="0">
            <Node pos="l" depth="3" NCoef="0" IVar="-1" Cut="0.0000000000000000e+00" cType="1" res="-1.5651613473892212e-02" rms="2.9838654398918152e-01" purity="1.7472481727600098e-01" nType="-99"/>
            <Node pos="r" depth="3" NCoef="0" IVar="-1" Cut="0.0000000000000000e+00" cType="1" res="1.1540439911186695e-02" rms="3.4082102775573730e-01" purity="5.6972610950469971e-01" nType="-99"/>
          </Node>
          <Node pos="r" depth="2" NCoef="0" IVar="4" Cut="3.3544317626953125e+02" cType="1" res="-5.4661627858877182e-02" rms="3.5694083571434021e-01" purity="6.6076761484146118e-01" nType="0">
            <Node pos="l" depth="3" NCoef="0" IVar="-1" Cut="0.0000000000000000e+00" cType="1" res="-6.5801747143268585e-02" rms="3.8202369213104248e-01" purity="5.0407648086547852e-01" nType="-99"/>
            <Node pos="r" depth="3" NCoef="0" IVar="-1" Cut="0.0000000000000000e+00" cType="1" res="-2.1554555743932724e-02" rms="3.3329010009765625e-01" purity="7.8039199113845825e-01" nType="-99"/>
          </Node>
        </Node>
        <Node pos="r" depth="1" NCoef="0" IVar="3" Cut="8.1060333251953125e+02" cType="1" res="2.4494796991348267e-02" rms="2.1401910483837128e-01" purity="9.3826752901077271e-01" nType="0">
          <Node pos="l" depth="2" NCoef="0" IVar="1" Cut="2.1584057617187500e+03" cType="1" res="2.8737831860780716e-02" rms="1.9994461536407471e-01" purity="9.4667798280715942e-01" nType="0">
            <Node pos="l" depth="3" NCoef="0" IVar="-1" Cut="0.0000000000000000e+00" cType="1" res="2.1665524691343307e-02" rms="2.6673510670661926e-01" purity="8.9795488119125366e-01" nType="-99"/>
            <Node pos="r" depth="3" NCoef="0" IVar="-1" Cut="0.0000000000000000e+00" cType="1" res="6.8982116878032684e-02" rms="1.3821768760681152e-01" purity="9.7914844751358032e-01" nType="-99"/>
          </Node>
          <Node pos="r" depth="2" NCoef="0" IVar="-1" Cut="0.0000000000000000e+00" cType="1" res="4.8903422430157661e-03" rms="2.7088299393653870e-01" purity="8.9773595333099365e-01" nType="-99"/>
        </Node>
      </Node>
    </BinaryTree>
    <BinaryTree type="DecisionTree" boostWeight="1.0000000000000000e+00" itree="31">
      <Node pos="s" depth="0" NCoef="0" IVar="8" Cut="1.4666432142257690e+00" cType="1" res="-5.8701878879219294e-04" rms="3.0857226252555847e-01" purity="5.0007057189941406e-01" nType="0">
        <Node pos="l" depth="1" NCoef="0" IVar="8" Cut="-7.6826953887939453e-01" cType="1" res="3.6276683676987886e-03" rms="3.1175428628921509e-01" purity="5.2973818778991699e-01" nType="0">
          <Node pos="l" depth="2" NCoef="0" IVar="10" Cut="-1.3333249092102051e-01" cType="1" res="-1.6196146607398987e-02" rms="3.1049227714538574e-01" purity="3.6734166741371155e-01" nType="0">
            <Node pos="l" depth="3" NCoef="0" IVar="-1" Cut="0.0000000000000000e+00" cType="1" res="-3.4603685140609741e-02" rms="2.9857349395751953e-01" purity="3.3053883910179138e-01" nType="-99"/>
            <Node pos="r" depth="3" NCoef="0" IVar="-1" Cut="0.0000000000000000e+00" cType="1" res="2.7702006045728922e-03" rms="3.2126462459564209e-01" purity="4.0544366836547852e-01" nType="-99"/>
          </Node>
          <Node pos="r" depth="2" NCoef="0" IVar="4" Cut="3.3631930541992188e+02" cType="1" res="1.0068141855299473e-02" rms="3.1189215183258057e-01" purity="5.8249849081039429e-01" nType="0">
            <Node pos="l" depth="3" NCoef="0" IVar="-1" Cut="0.0000000000000000e+00" cType="1" res="2.5261505506932735e-03" rms="3.3046847581863403e-01" purity="4.6378874778747559e-01" nType="-99"/>
            <Node pos="r" depth="3" NCoef="0" IVar="-1" Cut="0.0000000000000000e+00" cType="1" res="3.4499522298574448e-02" rms="2.5637313723564148e-01" purity="8.9140284061431885e-01" nType="-99"/>
          </Node>
        </Node>
        <Node pos="r" depth="1" NCoef="0" IVar="5" Cut="1.1569091033935547e+02" cType="1" res="-4.7444306313991547e-02" rms="2.6623046398162842e-01" purity="1.7023715376853943e-01" nType="0">
          <Node pos="l" depth="2" NCoef="0" IVar="-1" Cut="0.0000000000000000e+00" cType="1" res="-3.2670110464096069e-02" rms="2.0657557249069214e-01" purity="6.5722525119781494e-02" nType="-99"/>
          <Node pos="r" depth="2" NCoef="0" IVar="-1" Cut="0.0000000000000000e+00" cType="1" res="-6.4332477748394012e-02" rms="3.2321187853813171e-01" purity="3.0270373821258545e-01" nType="-99"/>
        </Node>
      </Node>
    </BinaryTree>
    <BinaryTree type="DecisionTree" boostWeight="1.0000000000000000e+00" itree="32">
      <Node pos="s" depth="0" NCoef="0" IVar="6" Cut="1.4537651062011719e+02" cType="1" res="-6.9472932955250144e-04" rms="3.0755731463432312e-01" purity="5.0010544061660767e-01" nType="0">
        <Node pos="l" depth="1" NCoef="0" IVar="6" Cut="5.9083496093750000e+01" cType="1" res="-6.0019795782864094e-03" rms="3.2366484403610229e-01" purity="3.8893902301788330e-01" nType="0">
          <Node pos="l" depth="2" NCoef="0" IVar="3" Cut="3.2447509765625000e+02" cType="1" res="-2.6717156171798706e-02" rms="2.5797465443611145e-01" purity="1.6097243130207062e-01" nType="0">
            <Node pos="l" depth="3" NCoef="0" IVar="-1" Cut="0.0000000000000000e+00" cType="1" res="-1.9374473020434380e-02" rms="2.1029010415077209e-01" purity="7.1110792458057404e-02" nType="-99"/>
            <Node pos="r" depth="3" NCoef="0" IVar="-1" Cut="0.0000000000000000e+00" cType="1" res="-3.8112174719572067e-02" rms="2.8787750005722046e-01" purity="2.2777047753334045e-01" nType="-99"/>
          </Node>
          <Node pos="r" depth="2" NCoef="0" IVar="7" Cut="-3.9356622099876404e-01" cType="1" res="-6.5599696245044470e-04" rms="3.3834889531135559e-01" purity="4.4777047634124756e-01" nType="0">
            <Node pos="l" depth="3" NCoef="0" IVar="-1" Cut="0.0000000000000000e+00" cType="1" res="-1.4069158583879471e-02" rms="3.2874736189842224e-01" purity="3.6144369840621948e-01" nType="-99"/>
            <Node pos="r" depth="3" NCoef="0" IVar="-1" Cut="0.0000000000000000e+00" cType="1" res="5.7308659888803959e-03" rms="3.4266430139541626e-01" purity="4.8956012725830078e-01" nType="-99"/>
          </Node>
        </Node>
        <Node pos="r" depth="1" NCoef="0" IVar="10" Cut="6.6719001531600952e-01" cType="1" res="1.8869513645768166e-02" rms="2.3795902729034424e-01" purity="9.0990096330642700e-01" nType="0">
          <Node pos="l" depth="2" NCoef="0" IVar="3" Cut="4.5020333862304688e+02" cType="1" res="2.4608934298157692e-02" rms="2.3262058198451996e-01" purity="9.1749066114425659e-01" nType="0">
            <Node pos="l" depth="3" NCoef="0" IVar="-1" Cut="0.0000000000000000e+00" cType="1" res="3.8719534873962402e-02" rms="2.6417267322540283e-01" purity="8.8533896207809448e-01" nType="-99"/>
            <Node pos="r" depth="3" NCoef="0" IVar="-1" Cut="0.0000000000000000e+00" cType="1" res="2.4172037839889526e-02" rms="2.0094014704227448e-01" purity="9.4513046741485596e-01" nType="-99"/>
          </Node>
          <Node pos="r" depth="2" NCoef="0" IVar="-1" Cut="0.0000000000000000e+00" cType="1" res="2.1269272547215223e-03" rms="2.5254532694816589e-01" purity="8.8708698749542236e-01" nType="-99"/>
        </Node>
      </Node>
    </BinaryTree>
    <BinaryTree type="DecisionTree" boostWeight="1.0000000000000000e+00" itree="33">
      <Node pos="s" depth="0" NCoef="0" IVar="7" Cut="6.7610859870910645e-01" cType="1" res="7.2456058114767075e-04" rms="3.0965760350227356e-01" purity="5.0117272138595581e-01" nType="0">
        <Node pos="l" depth="1" NCoef="0" IVar="1" Cut="1.1148236083984375e+03" cType="1" res="5.6920670904219151e-03" rms="3.1248515844345093e-01" purity="5.4873704910278320e-01" nType="0">
          <Node pos="l" depth="2" NCoef="0" IVar="1" Cut="1.0098852539062500e+03" cType="1" res="-1.0605284944176674e-02" rms="2.2703927755355835e-01" purity="5.9433728456497192e-02" nType="0">
            <Node pos="l" depth="3" NCoef="0" IVar="-1" Cut="0.0000000000000000e+00" cType="1" res="-4.3605361133813858e-02" rms="1.7612320184707642e-01" purity="3.3021844923496246e-02" nType="-99"/>
            <Node pos="r" depth="3" NCoef="0" IVar="-1" Cut="0.0000000000000000e+00" cType="1" res="9.9583044648170471e-03" rms="2.9133310914039612e-01" purity="1.0302942991256714e-01" nType="-99"/>
          </Node>
          <Node pos="r" depth="2" NCoef="0" IVar="1" Cut="1.4146483154296875e+03" cType="1" res="1.0783432982861996e-02" rms="3.3457431197166443e-01" purity="7.0159757137298584e-01" nType="0">
            <Node pos="l" depth="3" NCoef="0" IVar="-1" Cut="0.0000000000000000e+00" cType="1" res="2.0609013736248016e-02" rms="4.1440916061401367e-01" purity="3.4330332279205322e-01" nType="-99"/>
            <Node pos="r" depth="3" NCoef="0" IVar="-1" Cut="0.0000000000000000e+00" cType="1" res="2.2264425642788410e-03" rms="2.9565420746803284e-01" purity="8.4701234102249146e-01" nType="-99"/>
          </Node>
        </Node>
        <Node pos="r" depth="1" NCoef="0" IVar="3" Cut="5.5309600830078125e+02" cType="1" res="-1.6341356560587883e-02" rms="2.9911243915557861e-01" purity="3.3776521682739258e-01" nType="0">
          <Node pos="l" depth="2" NCoef="0" IVar="0" Cut="3.6206439208984375e+02" cType="1" res="-9.7910892218351364e-03" rms="2.9449787735939026e-01" purity="2.9536947607994080e-01" nType="0">
            <Node pos="l" depth="3" NCoef="0" IVar="-1" Cut="0.0000000000000000e+00" cType="1" res="-4.2032327502965927e-02" rms="2.3561553657054901e-01" purity="7.9442344605922699e-02" nType="-99"/>
            <Node pos="r" depth="3" NCoef="0" IVar="-1" Cut="0.0000000000000000e+00" cType="1" res="1.4196856645867229e-03" rms="3.2217830419540405e-01" purity="4.1592618823051453e-01" nType="-99"/>
          </Node>
          <Node pos="r" depth="2" NCoef="0" IVar="-1" Cut="0.0000000000000000e+00" cType="1" res="-4.7057304531335831e-02" rms="3.2324558496475220e-01" purity="5.9966742992401123e-01" nType="-99"/>
        </Node>
      </Node>
    </BinaryTree>
    <BinaryTree type="DecisionTree" boostWeight="1.0000000000000000e+00" itree="34">
      <Node pos="s" depth="0" NCoef="0" IVar="0" Cut="7.5620208740234375e+02" cType="1" res="-3.3016614615917206e-03" rms="3.0671486258506775e-01" purity="4.9503028392791748e-01" nType="0">
        <Node pos="l" depth="1" NCoef="0" IVar="3" Cut="6.1200012207031250e+02" cType="1" res="-7.9890694469213486e-03" rms="3.1928220391273499e-01" purity="4.1960167884826660e-01" nType="0">
          <Node pos="l" depth="2" NCoef="0" IVar="0" Cut="3.6517178344726562e+02" cType="1" res="-3.1291169580072165e-03" rms="3.1718897819519043e-01" purity="3.9524778723716736e-01" nType="0">
            <Node pos="l" depth="3" NCoef="0" IVar="-1" Cut="0.0000000000000000e+00" cType="1" res="-1.8967919051647186e-02" rms="2.8486195206642151e-01" purity="1.5295392274856567e-01" nType="-99"/>
            <Node pos="r" depth="3" NCoef="0" IVar="-1" Cut="0.0000000000000000e+00" cType="1" res="3.6252546124160290e-03" rms="3.3276137709617615e-01" purity="5.2309918403625488e-01" nType="-99"/>
          </Node>
          <Node pos="r" depth="2" NCoef="0" IVar="1" Cut="1.9471761474609375e+03" cType="1" res="-5.5771529674530029e-02" rms="3.3544653654098511e-01" purity="6.5904611349105835e-01" nType="0">
            <Node pos="l" depth="3" NCoef="0" IVar="-1" Cut="0.0000000000000000e+00" cType="1" res="-7.0888251066207886e-02" rms="3.7889605760574341e-01" purity="3.5849583148956299e-01" nType="-99"/>
            <Node pos="r" depth="3" NCoef="0" IVar="-1" Cut="0.0000000000000000e+00" cType="1" res="-1.5519743785262108e-02" rms="2.9423731565475464e-01" purity="8.6895179748535156e-01" nType="-99"/>
          </Node>
        </Node>
        <Node pos="r" depth="1" NCoef="0" IVar="10" Cut="6.6661596298217773e-01" cType="1" res="2.4299450218677521e-02" rms="2.1646815538406372e-01" purity="9.3918031454086304e-01" nType="0">
          <Node pos="l" depth="2" NCoef="0" IVar="2" Cut="3.7040639668703079e-02" cType="1" res="2.8103774413466454e-02" rms="2.1388444304466248e-01" purity="9.4217807054519653e-01" nType="0">
            <Node pos="l" depth="3" NCoef="0" IVar="-1" Cut="0.0000000000000000e+00" cType="1" res="3.5202316939830780e-02" rms="2.9338347911834717e-01" purity="8.8498663902282715e-01" nType="-99"/>
            <Node pos="r" depth="3" NCoef="0" IVar="-1" Cut="0.0000000000000000e+00" cType="1" res="5.4575800895690918e-02" rms="1.3951511681079865e-01" purity="9.7930788993835449e-01" nType="-99"/>
          </Node>
          <Node pos="r" depth="2" NCoef="0" IVar="-1" Cut="0.0000000000000000e+00" cType="1" res="2.1114069968461990e-02" rms="2.2313092648983002e-01" purity="9.3087631464004517e-01" nType="-99"/>
        </Node>
      </Node>
    </BinaryTree>
    <BinaryTree type="DecisionTree" boostWeight="1.0000000000000000e+00" itree="35">
      <Node pos="s" depth="0" NCoef="0" IVar="9" Cut="-1.2000005245208740e+00" cType="1" res="2.1799108944833279e-03" rms="3.0961307883262634e-01" purity="5.0193345546722412e-01" nType="0">
        <Node pos="l" depth="1" NCoef="0" IVar="5" Cut="1.3429727172851562e+02" cType="1" res="-2.6896072551608086e-02" rms="3.0738088488578796e-01" purity="3.2354894280433655e-01" nType="0">
          <Node pos="l" depth="2" NCoef="0" IVar="6" Cut="6.9885360717773438e+01" cType="1" res="-1.3633714057505131e-02" rms="2.6274427771568298e-01" purity="1.4967170357704163e-01" nType="0">
            <Node pos="l" depth="3" NCoef="0" IVar="-1" Cut="0.0000000000000000e+00" cType="1" res="-3.8174524903297424e-02" rms="2.1923922002315521e-01" purity="7.9077132046222687e-02" nType="-99"/>
            <Node pos="r" depth="3" NCoef="0" IVar="-1" Cut="0.0000000000000000e+00" cType="1" res="1.2630582787096500e-03" rms="3.1117838621139526e-01" purity="2.4456603825092316e-01" nType="-99"/>
          </Node>
          <Node pos="r" depth="2" NCoef="0" IVar="9" Cut="-1.5809845924377441e+00" cType="1" res="-4.6410806477069855e-02" rms="3.6233848333358765e-01" purity="5.7939845323562622e-01" nType="0">
            <Node pos="l" depth="3" NCoef="0" IVar="-1" Cut="0.0000000000000000e+00" cType="1" res="-5.6999199092388153e-02" rms="3.6282855272293091e-01" purity="4.9723866581916809e-01" nType="-99"/>
            <Node pos="r" depth="3" NCoef="0" IVar="-1" Cut="0.0000000000000000e+00" cType="1" res="-1.6699720174074173e-02" rms="3.5987430810928345e-01" purity="6.6144829988479614e-01" nType="-99"/>
          </Node>
        </Node>
        <Node pos="r" depth="1" NCoef="0" IVar="9" Cut="1.2761855125427246e+00" cType="1" res="7.1447188965976238e-03" rms="3.0971989035606384e-01" purity="5.3239315748214722e-01" nType="0">
          <Node pos="l" depth="2" NCoef="0" IVar="10" Cut="-1.9997843503952026e+00" cType="1" res="1.1888535693287849e-02" rms="3.0841085314750671e-01" purity="5.6760281324386597e-01" nType="0">
            <Node pos="l" depth="3" NCoef="0" IVar="-1" Cut="0.0000000000000000e+00" cType="1" res="-2.6893887668848038e-02" rms="3.3349534869194031e-01" purity="3.9188656210899353e-01" nType="-99"/>
            <Node pos="r" depth="3" NCoef="0" IVar="-1" Cut="0.0000000000000000e+00" cType="1" res="1.3989484868943691e-02" rms="3.0708923935890198e-01" purity="5.7564759254455566e-01" nType="-99"/>
          </Node>
          <Node pos="r" depth="2" NCoef="0" IVar="5" Cut="1.3166151428222656e+02" cType="1" res="-1.8139872699975967e-02" rms="3.1540453433990479e-01" purity="3.4472522139549255e-01" nType="0">
            <Node pos="l" depth="3" NCoef="0" IVar="-1" Cut="0.0000000000000000e+00" cType="1" res="1.6047388780862093e-03" rms="2.9023948311805725e-01" purity="1.7510922253131866e-01" nType="-99"/>
            <Node pos="r" depth="3" NCoef="0" IVar="-1" Cut="0.0000000000000000e+00" cType="1" res="-3.7620797753334045e-02" rms="3.4649196267127991e-01" purity="5.8851438760757446e-01" nType="-99"/>
          </Node>
        </Node>
      </Node>
    </BinaryTree>
    <BinaryTree type="DecisionTree" boostWeight="1.0000000000000000e+00" itree="36">
      <Node pos="s" depth="0" NCoef="0" IVar="10" Cut="2.2666625976562500e+00" cType="1" res="-2.3255695123225451e-03" rms="3.0693718791007996e-01" purity="4.9718207120895386e-01" nType="0">
        <Node pos="l" depth="1" NCoef="0" IVar="7" Cut="-1.7129211425781250e+00" cType="1" res="-7.4219395173713565e-04" rms="3.0756437778472900e-01" purity="5.0394070148468018e-01" nType="0">
          <Node pos="l" depth="2" NCoef="0" IVar="-1" Cut="0.0000000000000000e+00" cType="1" res="-6.9217436015605927e-02" rms="1.8732535839080811e-01" purity="6.0806334018707275e-02" nType="-99"/>
          <Node pos="r" depth="2" NCoef="0" IVar="7" Cut="1.5103260278701782e+00" cType="1" res="7.9821684630587697e-04" rms="3.1091004610061646e-01" purity="5.1985979080200195e-01" nType="0">
            <Node pos="l" depth="3" NCoef="0" IVar="-1" Cut="0.0000000000000000e+00" cType="1" res="2.7091070078313351e-03" rms="3.1522846221923828e-01" purity="5.4526716470718384e-01" nType="-99"/>
            <Node pos="r" depth="3" NCoef="0" IVar="-1" Cut="0.0000000000000000e+00" cType="1" res="-4.5416526496410370e-02" rms="2.2617605328559875e-01" purity="1.0242734849452972e-01" nType="-99"/>
          </Node>
        </Node>
        <Node pos="r" depth="1" NCoef="0" IVar="-1" Cut="0.0000000000000000e+00" cType="1" res="-5.8554787188768387e-02" rms="2.7932709455490112e-01" purity="2.6617974042892456e-01" nType="-99"/>
      </Node>
    </BinaryTree>
    <BinaryTree type="DecisionTree" boostWeight="1.0000000000000000e+00" itree="37">
      <Node pos="s" depth="0" NCoef="0" IVar="8" Cut="1.7332357168197632e+00" cType="1" res="1.4694747515022755e-03" rms="3.0654093623161316e-01" purity="5.0356018543243408e-01" nType="0">
        <Node pos="l" depth="1" NCoef="0" IVar="8" Cut="-1.2889263629913330e+00" cType="1" res="3.6955175455659628e-03" rms="3.0946251749992371e-01" purity="5.2476853132247925e-01" nType="0">
          <Node pos="l" depth="2" NCoef="0" IVar="1" Cut="1.4668737792968750e+03" cType="1" res="-2.1160136908292770e-02" rms="2.9683130979537964e-01" purity="2.4407692253589630e-01" nType="0">
            <Node pos="l" depth="3" NCoef="0" IVar="-1" Cut="0.0000000000000000e+00" cType="1" res="-5.2073872648179531e-03" rms="2.5921297073364258e-01" purity="1.0929979383945465e-01" nType="-99"/>
            <Node pos="r" depth="3" NCoef="0" IVar="-1" Cut="0.0000000000000000e+00" cType="1" res="-5.0924450159072876e-02" rms="3.8051483035087585e-01" purity="6.3027662038803101e-01" nType="-99"/>
          </Node>
          <Node pos="r" depth="2" NCoef="0" IVar="9" Cut="1.9999204874038696e+00" cType="1" res="6.8919784389436245e-03" rms="3.1090551614761353e-01" purity="5.6086575984954834e-01" nType="0">
            <Node pos="l" depth="3" NCoef="0" IVar="-1" Cut="0.0000000000000000e+00" cType="1" res="8.6538428440690041e-03" rms="3.1096249818801880e-01" purity="5.7359498739242554e-01" nType="-99"/>
            <Node pos="r" depth="3" NCoef="0" IVar="-1" Cut="0.0000000000000000e+00" cType="1" res="-3.8734633475542068e-02" rms="3.0591228604316711e-01" purity="2.3659744858741760e-01" nType="-99"/>
          </Node>
        </Node>
        <Node pos="r" depth="1" NCoef="0" IVar="8" Cut="2.0887839794158936e+00" cType="1" res="-3.8395565003156662e-02" rms="2.4507017433643341e-01" purity="1.2375162541866302e-01" nType="0">
          <Node pos="l" depth="2" NCoef="0" IVar="-1" Cut="0.0000000000000000e+00" cType="1" res="-3.2254632562398911e-02" rms="2.7988803386688232e-01" purity="1.8106660246849060e-01" nType="-99"/>
          <Node pos="r" depth="2" NCoef="0" IVar="-1" Cut="0.0000000000000000e+00" cType="1" res="-7.4045963585376740e-02" rms="1.9904603064060211e-01" purity="6.0501303523778915e-02" nType="-99"/>
        </Node>
      </Node>
    </BinaryTree>
    <BinaryTree type="DecisionTree" boostWeight="1.0000000000000000e+00" itree="38">
      <Node pos="s" depth="0" NCoef="0" IVar="0" Cut="6.0598907470703125e+02" cType="1" res="1.4068735763430595e-03" rms="3.0839371681213379e-01" purity="5.0146615505218506e-01" nType="0">
        <Node pos="l" depth="1" NCoef="0" IVar="3" Cut="4.8147671508789062e+02" cType="1" res="-3.9250203408300877e-03" rms="3.2870453596115112e-01" purity="3.4396228194236755e-01" nType="0">
          <Node pos="l" depth="2" NCoef="0" IVar="0" Cut="3.4371023559570312e+02" cType="1" res="3.1113943550735712e-03" rms="3.2203167676925659e-01" purity="2.9851794242858887e-01" nType="0">
            <Node pos="l" depth="3" NCoef="0" IVar="-1" Cut="0.0000000000000000e+00" cType="1" res="-1.6650358214974403e-02" rms="2.7381518483161926e-01" purity="1.2662753462791443e-01" nType="-99"/>
            <Node pos="r" depth="3" NCoef="0" IVar="-1" Cut="0.0000000000000000e+00" cType="1" res="9.0488037094473839e-03" rms="3.4024608135223389e-01" purity="3.7168413400650024e-01" nType="-99"/>
          </Node>
          <Node pos="r" depth="2" NCoef="0" IVar="7" Cut="7.2067350149154663e-01" cType="1" res="-3.0962606891989708e-02" rms="3.5186737775802612e-01" purity="5.1858329772949219e-01" nType="0">
            <Node pos="l" depth="3" NCoef="0" IVar="-1" Cut="0.0000000000000000e+00" cType="1" res="-1.5586051158607006e-02" rms="3.5781145095825195e-01" purity="5.7391542196273804e-01" nType="-99"/>
            <Node pos="r" depth="3" NCoef="0" IVar="-1" Cut="0.0000000000000000e+00" cType="1" res="-6.8125382065773010e-02" rms="3.1787568330764771e-01" purity="2.6369917392730713e-01" nType="-99"/>
          </Node>
        </Node>
        <Node pos="r" depth="1" NCoef="0" IVar="0" Cut="8.8283764648437500e+02" cType="1" res="1.4983925968408585e-02" rms="2.4879664182662964e-01" purity="9.0253156423568726e-01" nType="0">
          <Node pos="l" depth="2" NCoef="0" IVar="3" Cut="6.7944250488281250e+02" cType="1" res="1.0730808600783348e-02" rms="2.6774340867996216e-01" purity="8.8154870271682739e-01" nType="0">
            <Node pos="l" depth="3" NCoef="0" IVar="-1" Cut="0.0000000000000000e+00" cType="1" res="2.0713377743959427e-02" rms="2.6172310113906860e-01" purity="8.8776987791061401e-01" nType="-99"/>
            <Node pos="r" depth="3" NCoef="0" IVar="-1" Cut="0.0000000000000000e+00" cType="1" res="-1.8353128805756569e-02" rms="2.9391825199127197e-01" purity="8.5114967823028564e-01" nType="-99"/>
          </Node>
          <Node pos="r" depth="2" NCoef="0" IVar="10" Cut="3.9993873238563538e-01" cType="1" res="2.5514464825391769e-02" rms="1.9368137419223785e-01" purity="9.5448446273803711e-01" nType="0">
            <Node pos="l" depth="3" NCoef="0" IVar="-1" Cut="0.0000000000000000e+00" cType="1" res="5.1519747823476791e-02" rms="1.9432701170444489e-01" purity="9.5621383190155029e-01" nType="-99"/>
            <Node pos="r" depth="3" NCoef="0" IVar="-1" Cut="0.0000000000000000e+00" cType="1" res="2.9866889119148254e-02" rms="1.9220456480979919e-01" purity="9.5146256685256958e-01" nType="-99"/>
          </Node>
        </Node>
      </Node>
    </BinaryTree>
    <BinaryTree type="DecisionTree" boostWeight="1.0000000000000000e+00" itree="39">
      <Node pos="s" depth="0" NCoef="0" IVar="3" Cut="8.7728472900390625e+02" cType="1" res="7.4533943552523851e-04" rms="3.0681365728378296e-01" purity="5.0288075208663940e-01" nType="0">
        <Node pos="l" depth="1" NCoef="0" IVar="4" Cut="2.0824241638183594e+02" cType="1" res="2.0634136162698269e-03" rms="3.0636656284332275e-01" purity="4.9402084946632385e-01" nType="0">
          <Node pos="l" depth="2" NCoef="0" IVar="3" Cut="4.5800894165039062e+02" cType="1" res="-9.3157840892672539e-03" rms="2.8978231549263000e-01" purity="1.7839619517326355e-01" nType="0">
            <Node pos="l" depth="3" NCoef="0" IVar="-1" Cut="0.0000000000000000e+00" cType="1" res="-5.6257047690451145e-03" rms="2.8068950772285461e-01" purity="1.5211537480354309e-01" nType="-99"/>
            <Node pos="r" depth="3" NCoef="0" IVar="-1" Cut="0.0000000000000000e+00" cType="1" res="-2.9102370142936707e-02" rms="3.3319479227066040e-01" purity="3.1928175687789917e-01" nType="-99"/>
          </Node>
          <Node pos="r" depth="2" NCoef="0" IVar="9" Cut="-9.3336772918701172e-01" cType="1" res="1.0384348221123219e-02" rms="3.1768870353698730e-01" purity="7.2481852769851685e-01" nType="0">
            <Node pos="l" depth="3" NCoef="0" IVar="-1" Cut="0.0000000000000000e+00" cType="1" res="-1.7610387876629829e-02" rms="3.4678712487220764e-01" purity="6.0736489295959473e-01" nType="-99"/>
            <Node pos="r" depth="3" NCoef="0" IVar="-1" Cut="0.0000000000000000e+00" cType="1" res="1.6332844272255898e-02" rms="3.1090649962425232e-01" purity="7.4929541349411011e-01" nType="-99"/>
          </Node>
        </Node>
        <Node pos="r" depth="1" NCoef="0" IVar="-1" Cut="0.0000000000000000e+00" cType="1" res="-5.8978840708732605e-02" rms="3.1922316551208496e-01" purity="8.3493447303771973e-01" nType="-99"/>
      </Node>
    </BinaryTree>
    <BinaryTree type="DecisionTree" boostWeight="1.0000000000000000e+00" itree="40">
      <Node pos="s" depth="0" NCoef="0" IVar="8" Cut="-1.7332314252853394e+00" cType="1" res="8.8487111497670412e-04" rms="3.0765533447265625e-01" purity="5.0083827972412109e-01" nType="0">
        <Node pos="l" depth="1" NCoef="0" IVar="8" Cut="-2.0887889862060547e+00" cType="1" res="-3.3609014004468918e-02" rms="2.6555654406547546e-01" purity="1.4187243580818176e-01" nType="0">
          <Node pos="l" depth="2" NCoef="0" IVar="-1" Cut="0.0000000000000000e+00" cType="1" res="-6.1844013631343842e-02" rms="2.3391719162464142e-01" purity="9.0325169265270233e-02" nType="-99"/>
          <Node pos="r" depth="2" NCoef="0" IVar="-1" Cut="0.0000000000000000e+00" cType="1" res="-2.4553012102842331e-02" rms="2.9244726896286011e-01" purity="1.9184465706348419e-01" nType="-99"/>
        </Node>
        <Node pos="r" depth="1" NCoef="0" IVar="8" Cut="1.5047678947448730e+00" cType="1" res="2.8083918150514364e-03" rms="3.0972152948379517e-01" purity="5.2085572481155396e-01" nType="0">
          <Node pos="l" depth="2" NCoef="0" IVar="7" Cut="1.7354359626770020e+00" cType="1" res="5.2048801444470882e-03" rms="3.1274035573005676e-01" purity="5.5225598812103271e-01" nType="0">
            <Node pos="l" depth="3" NCoef="0" IVar="-1" Cut="0.0000000000000000e+00" cType="1" res="6.8176430650055408e-03" rms="3.1584304571151733e-01" purity="5.6833761930465698e-01" nType="-99"/>
            <Node pos="r" depth="3" NCoef="0" IVar="-1" Cut="0.0000000000000000e+00" cType="1" res="-6.8066783249378204e-02" rms="1.9396224617958069e-01" purity="7.6414361596107483e-02" nType="-99"/>
          </Node>
          <Node pos="r" depth="2" NCoef="0" IVar="5" Cut="1.1258693695068359e+02" cType="1" res="-2.3287279531359673e-02" rms="2.7335309982299805e-01" purity="1.7893415689468384e-01" nType="0">
            <Node pos="l" depth="3" NCoef="0" IVar="-1" Cut="0.0000000000000000e+00" cType="1" res="-5.7752216234803200e-03" rms="2.2413311898708344e-01" purity="6.5612554550170898e-02" nType="-99"/>
            <Node pos="r" depth="3" NCoef="0" IVar="-1" Cut="0.0000000000000000e+00" cType="1" res="-3.9469510316848755e-02" rms="3.1953078508377075e-01" purity="3.1043702363967896e-01" nType="-99"/>
          </Node>
        </Node>
      </Node>
    </BinaryTree>
    <BinaryTree type="DecisionTree" boostWeight="1.0000000000000000e+00" itree="41">
      <Node pos="s" depth="0" NCoef="0" IVar="7" Cut="-9.2584401369094849e-01" cType="1" res="-1.4082576381042600e-03" rms="3.0681127309799194e-01" purity="4.9928051233291626e-01" nType="0">
        <Node pos="l" depth="1" NCoef="0" IVar="1" Cut="1.2611237792968750e+03" cType="1" res="-2.4470297619700432e-02" rms="2.8403413295745850e-01" purity="2.3899778723716736e-01" nType="0">
          <Node pos="l" depth="2" NCoef="0" IVar="8" Cut="-6.6661584377288818e-01" cType="1" res="-7.7043264172971249e-03" rms="2.0839110016822815e-01" purity="5.2337802946567535e-02" nType="0">
            <Node pos="l" depth="3" NCoef="0" IVar="-1" Cut="0.0000000000000000e+00" cType="1" res="-4.9748927354812622e-02" rms="1.6636762022972107e-01" purity="2.9327049851417542e-02" nType="-99"/>
            <Node pos="r" depth="3" NCoef="0" IVar="-1" Cut="0.0000000000000000e+00" cType="1" res="2.9854318127036095e-03" rms="2.3085111379623413e-01" purity="6.7076757550239563e-02" nType="-99"/>
          </Node>
          <Node pos="r" depth="2" NCoef="0" IVar="0" Cut="4.9936682128906250e+02" cType="1" res="-4.6790748834609985e-02" rms="3.5971066355705261e-01" purity="4.8749721050262451e-01" nType="0">
            <Node pos="l" depth="3" NCoef="0" IVar="-1" Cut="0.0000000000000000e+00" cType="1" res="-4.5066453516483307e-02" rms="3.7055402994155884e-01" purity="3.0547931790351868e-01" nType="-99"/>
            <Node pos="r" depth="3" NCoef="0" IVar="-1" Cut="0.0000000000000000e+00" cType="1" res="-2.2047296166419983e-02" rms="3.4794202446937561e-01" purity="6.6256159543991089e-01" nType="-99"/>
          </Node>
        </Node>
        <Node pos="r" depth="1" NCoef="0" IVar="7" Cut="4.9341031908988953e-01" cType="1" res="2.6600286364555359e-03" rms="3.1047838926315308e-01" purity="5.4519599676132202e-01" nType="0">
          <Node pos="l" depth="2" NCoef="0" IVar="10" Cut="1.7333774566650391e+00" cType="1" res="8.8500641286373138e-03" rms="3.1440261006355286e-01" purity="6.2238764762878418e-01" nType="0">
            <Node pos="l" depth="3" NCoef="0" IVar="-1" Cut="0.0000000000000000e+00" cType="1" res="1.1359468102455139e-02" rms="3.1338050961494446e-01" purity="6.3230419158935547e-01" nType="-99"/>
            <Node pos="r" depth="3" NCoef="0" IVar="-1" Cut="0.0000000000000000e+00" cType="1" res="-1.9805798307061195e-02" rms="3.2531309127807617e-01" purity="4.9975293874740601e-01" nType="-99"/>
          </Node>
          <Node pos="r" depth="2" NCoef="0" IVar="5" Cut="2.1493162536621094e+02" cType="1" res="-9.5378290861845016e-03" rms="3.0222567915916443e-01" purity="3.9308494329452515e-01" nType="0">
            <Node pos="l" depth="3" NCoef="0" IVar="-1" Cut="0.0000000000000000e+00" cType="1" res="-1.6478205099701881e-02" rms="3.0764171481132507e-01" purity="2.6745542883872986e-01" nType="-99"/>
            <Node pos="r" depth="3" NCoef="0" IVar="-1" Cut="0.0000000000000000e+00" cType="1" res="1.6655271872878075e-02" rms="2.7973154187202454e-01" purity="8.6312937736511230e-01" nType="-99"/>
          </Node>
        </Node>
      </Node>
    </BinaryTree>
    <BinaryTree type="DecisionTree" boostWeight="1.0000000000000000e+00" itree="42">
      <Node pos="s" depth="0" NCoef="0" IVar="9" Cut="1.9999859333038330e+00" cType="1" res="9.2754798242822289e-04" rms="3.0754530429840088e-01" purity="5.0118708610534668e-01" nType="0">
        <Node pos="l" depth="1" NCoef="0" IVar="10" Cut="-1.7332592010498047e+00" cType="1" res="2.4525721091777086e-03" rms="3.0841255187988281e-01" purity="5.1409679651260376e-01" nType="0">
          <Node pos="l" depth="2" NCoef="0" IVar="4" Cut="2.0522663879394531e+02" cType="1" res="-2.2675400599837303e-02" rms="3.0565917491912842e-01" purity="3.8439396023750305e-01" nType="0">
            <Node pos="l" depth="3" NCoef="0" IVar="-1" Cut="0.0000000000000000e+00" cType="1" res="-3.2827924005687237e-03" rms="2.8270313143730164e-01" purity="1.5378113090991974e-01" nType="-99"/>
            <Node pos="r" depth="3" NCoef="0" IVar="-1" Cut="0.0000000000000000e+00" cType="1" res="-3.8835655897855759e-02" rms="3.2586979866027832e-01" purity="6.1604738235473633e-01" nType="-99"/>
          </Node>
          <Node pos="r" depth="2" NCoef="0" IVar="10" Cut="1.5047756433486938e+00" cType="1" res="4.8143048770725727e-03" rms="3.0856487154960632e-01" purity="5.2628731727600098e-01" nType="0">
            <Node pos="l" depth="3" NCoef="0" IVar="-1" Cut="0.0000000000000000e+00" cType="1" res="7.8863939270377159e-03" rms="3.0881816148757935e-01" purity="5.4393118619918823e-01" nType="-99"/>
            <Node pos="r" depth="3" NCoef="0" IVar="-1" Cut="0.0000000000000000e+00" cType="1" res="-1.4787725172936916e-02" rms="3.0605167150497437e-01" purity="4.0122300386428833e-01" nType="-99"/>
          </Node>
        </Node>
        <Node pos="r" depth="1" NCoef="0" IVar="-1" Cut="0.0000000000000000e+00" cType="1" res="-4.1371814906597137e-02" rms="2.8352755308151245e-01" purity="1.9173821806907654e-01" nType="-99"/>
      </Node>
    </BinaryTree>
    <BinaryTree type="DecisionTree" boostWeight="1.0000000000000000e+00" itree="43">
      <Node pos="s" depth="0" NCoef="0" IVar="5" Cut="1.0559147644042969e+02" cType="1" res="3.3464463194832206e-04" rms="3.0949357151985168e-01" purity="4.9634557962417603e-01" nType="0">
        <Node pos="l" depth="1" NCoef="0" IVar="5" Cut="8.1784118652343750e+01" cType="1" res="-1.0591259226202965e-02" rms="2.6049569249153137e-01" purity="1.2400432676076889e-01" nType="0">
          <Node pos="l" depth="2" NCoef="0" IVar="0" Cut="4.5207244873046875e+02" cType="1" res="-2.4558283388614655e-02" rms="2.0408755540847778e-01" purity="6.5767824649810791e-02" nType="0">
            <Node pos="l" depth="3" NCoef="0" IVar="-1" Cut="0.0000000000000000e+00" cType="1" res="-4.7828126698732376e-02" rms="1.5008443593978882e-01" purity="2.4819333106279373e-02" nType="-99"/>
            <Node pos="r" depth="3" NCoef="0" IVar="-1" Cut="0.0000000000000000e+00" cType="1" res="-3.5348094999790192e-02" rms="3.2094484567642212e-01" purity="1.9807162880897522e-01" nType="-99"/>
          </Node>
          <Node pos="r" depth="2" NCoef="0" IVar="9" Cut="-4.0004262328147888e-01" cType="1" res="2.8331226203590631e-03" rms="3.0443128943443298e-01" purity="1.7997826635837555e-01" nType="0">
            <Node pos="l" depth="3" NCoef="0" IVar="-1" Cut="0.0000000000000000e+00" cType="1" res="2.0113119855523109e-02" rms="3.1799301505088806e-01" purity="1.8786272406578064e-01" nType="-99"/>
            <Node pos="r" depth="3" NCoef="0" IVar="-1" Cut="0.0000000000000000e+00" cType="1" res="-7.6085887849330902e-03" rms="2.9499590396881104e-01" purity="1.7492274940013885e-01" nType="-99"/>
          </Node>
        </Node>
        <Node pos="r" depth="1" NCoef="0" IVar="1" Cut="1.3935394287109375e+03" cType="1" res="5.1271403208374977e-03" rms="3.2857462763786316e-01" purity="6.5966784954071045e-01" nType="0">
          <Node pos="l" depth="2" NCoef="0" IVar="2" Cut="6.2697440385818481e-02" cType="1" res="2.4844460189342499e-02" rms="3.8698858022689819e-01" purity="2.8332313895225525e-01" nType="0">
            <Node pos="l" depth="3" NCoef="0" IVar="-1" Cut="0.0000000000000000e+00" cType="1" res="3.6781337112188339e-02" rms="3.6100736260414124e-01" purity="2.0071597397327423e-01" nType="-99"/>
            <Node pos="r" depth="3" NCoef="0" IVar="-1" Cut="0.0000000000000000e+00" cType="1" res="-7.8974608331918716e-03" rms="4.4286635518074036e-01" purity="4.9001434445381165e-01" nType="-99"/>
          </Node>
          <Node pos="r" depth="2" NCoef="0" IVar="0" Cut="6.6830664062500000e+02" cType="1" res="-4.4666798785328865e-03" rms="2.9553696513175964e-01" purity="8.4278529882431030e-01" nType="0">
            <Node pos="l" depth="3" NCoef="0" IVar="-1" Cut="0.0000000000000000e+00" cType="1" res="-1.3726065866649151e-02" rms="3.4194436669349670e-01" purity="7.7215474843978882e-01" nType="-99"/>
            <Node pos="r" depth="3" NCoef="0" IVar="-1" Cut="0.0000000000000000e+00" cType="1" res="2.1536272019147873e-02" rms="2.1002647280693054e-01" purity="9.4490617513656616e-01" nType="-99"/>
          </Node>
        </Node>
      </Node>
    </BinaryTree>
    <BinaryTree type="DecisionTree" boostWeight="1.0000000000000000e+00" itree="44">
      <Node pos="s" depth="0" NCoef="0" IVar="6" Cut="1.9036358642578125e+02" cType="1" res="-1.1705736396834254e-03" rms="3.0449429154396057e-01" purity="4.9953615665435791e-01" nType="0">
        <Node pos="l" depth="1" NCoef="0" IVar="3" Cut="7.4182794189453125e+02" cType="1" res="-3.3835244830697775e-03" rms="3.1459748744964600e-01" purity="4.4914564490318298e-01" nType="0">
          <Node pos="l" depth="2" NCoef="0" IVar="8" Cut="1.9999154806137085e+00" cType="1" res="-1.6114804893732071e-03" rms="3.1371539831161499e-01" purity="4.2924401164054871e-01" nType="0">
            <Node pos="l" depth="3" NCoef="0" IVar="-1" Cut="0.0000000000000000e+00" cType="1" res="-3.9917655522003770e-04" rms="3.1714200973510742e-01" purity="4.4283255934715271e-01" nType="-99"/>
            <Node pos="r" depth="3" NCoef="0" IVar="-1" Cut="0.0000000000000000e+00" cType="1" res="-5.8756858110427856e-02" rms="1.9499406218528748e-01" purity="5.6720100343227386e-02" nType="-99"/>
          </Node>
          <Node pos="r" depth="2" NCoef="0" IVar="3" Cut="8.5148370361328125e+02" cType="1" res="-3.2853148877620697e-02" rms="3.2751804590225220e-01" purity="7.8011536598205566e-01" nType="0">
            <Node pos="l" depth="3" NCoef="0" IVar="-1" Cut="0.0000000000000000e+00" cType="1" res="-3.1010139733552933e-02" rms="3.1583592295646667e-01" purity="7.5192278623580933e-01" nType="-99"/>
            <Node pos="r" depth="3" NCoef="0" IVar="-1" Cut="0.0000000000000000e+00" cType="1" res="-3.0281318351626396e-02" rms="3.3850696682929993e-01" purity="8.0757129192352295e-01" nType="-99"/>
          </Node>
        </Node>
        <Node pos="r" depth="1" NCoef="0" IVar="-1" Cut="0.0000000000000000e+00" cType="1" res="3.6181785166263580e-02" rms="1.8915984034538269e-01" purity="9.5464861392974854e-01" nType="-99"/>
      </Node>
    </BinaryTree>
    <BinaryTree type="DecisionTree" boostWeight="1.0000000000000000e+00" itree="45">
      <Node pos="s" depth="0" NCoef="0" IVar="2" Cut="1.4929996430873871e-01" cType="1" res="-2.4690123973414302e-04" rms="3.0596190690994263e-01" purity="4.9887096881866455e-01" nType="0">
        <Node pos="l" depth="1" NCoef="0" IVar="0" Cut="5.7280096435546875e+02" cType="1" res="-2.2811787202954292e-03" rms="3.1079268455505371e-01" purity="4.6117600798606873e-01" nType="0">
          <Node pos="l" depth="2" NCoef="0" IVar="3" Cut="5.6911968994140625e+02" cType="1" res="-6.3289203681051731e-03" rms="3.2350546121597290e-01" purity="2.9247656464576721e-01" nType="0">
            <Node pos="l" depth="3" NCoef="0" IVar="-1" Cut="0.0000000000000000e+00" cType="1" res="-3.3434038050472736e-03" rms="3.1893131136894226e-01" purity="2.6823496818542480e-01" nType="-99"/>
            <Node pos="r" depth="3" NCoef="0" IVar="-1" Cut="0.0000000000000000e+00" cType="1" res="-2.3864423856139183e-02" rms="3.6262181401252747e-01" purity="5.2072638273239136e-01" nType="-99"/>
          </Node>
          <Node pos="r" depth="2" NCoef="0" IVar="2" Cut="7.1088531985878944e-03" cType="1" res="7.4312677606940269e-03" rms="2.7768653631210327e-01" purity="8.6596572399139404e-01" nType="0">
            <Node pos="l" depth="3" NCoef="0" IVar="-1" Cut="0.0000000000000000e+00" cType="1" res="-1.4503894373774529e-02" rms="3.8690027594566345e-01" purity="5.7312655448913574e-01" nType="-99"/>
            <Node pos="r" depth="3" NCoef="0" IVar="-1" Cut="0.0000000000000000e+00" cType="1" res="1.4028212055563927e-02" rms="2.6344659924507141e-01" purity="8.9666396379470825e-01" nType="-99"/>
          </Node>
        </Node>
        <Node pos="r" depth="1" NCoef="0" IVar="-1" Cut="0.0000000000000000e+00" cType="1" res="2.6718944311141968e-02" rms="2.5202319025993347e-01" purity="8.7394917011260986e-01" nType="-99"/>
      </Node>
    </BinaryTree>
    <BinaryTree type="DecisionTree" boostWeight="1.0000000000000000e+00" itree="46">
      <Node pos="s" depth="0" NCoef="0" IVar="6" Cut="1.6358595275878906e+02" cType="1" res="6.4704706892371178e-04" rms="3.0642858147621155e-01" purity="4.9940595030784607e-01" nType="0">
        <Node pos="l" depth="1" NCoef="0" IVar="7" Cut="6.7077326774597168e-01" cType="1" res="-2.5355687830597162e-03" rms="3.2080274820327759e-01" purity="4.1650316119194031e-01" nType="0">
          <Node pos="l" depth="2" NCoef="0" IVar="3" Cut="7.8387579345703125e+02" cType="1" res="1.8753161421045661e-03" rms="3.2736504077911377e-01" purity="4.6356689929962158e-01" nType="0">
            <Node pos="l" depth="3" NCoef="0" IVar="-1" Cut="0.0000000000000000e+00" cType="1" res="3.2103091944009066e-03" rms="3.2694637775421143e-01" purity="4.4724929332733154e-01" nType="-99"/>
            <Node pos="r" depth="3" NCoef="0" IVar="-1" Cut="0.0000000000000000e+00" cType="1" res="-2.7125902473926544e-02" rms="3.3437243103981018e-01" purity="7.9864305257797241e-01" nType="-99"/>
          </Node>
          <Node pos="r" depth="2" NCoef="0" IVar="3" Cut="5.2210198974609375e+02" cType="1" res="-1.6562724485993385e-02" rms="2.9854518175125122e-01" purity="2.6683464646339417e-01" nType="0">
            <Node pos="l" depth="3" NCoef="0" IVar="-1" Cut="0.0000000000000000e+00" cType="1" res="-1.2835059314966202e-02" rms="2.9219585657119751e-01" purity="2.2905364632606506e-01" nType="-99"/>
            <Node pos="r" depth="3" NCoef="0" IVar="-1" Cut="0.0000000000000000e+00" cType="1" res="-3.9042290300130844e-02" rms="3.3048498630523682e-01" purity="4.7945529222488403e-01" nType="-99"/>
          </Node>
        </Node>
        <Node pos="r" depth="1" NCoef="0" IVar="3" Cut="5.0017797851562500e+02" cType="1" res="1.7338709905743599e-02" rms="2.1513120830059052e-01" purity="9.3420082330703735e-01" nType="0">
          <Node pos="l" depth="2" NCoef="0" IVar="-1" Cut="0.0000000000000000e+00" cType="1" res="3.1354330480098724e-02" rms="2.3816263675689697e-01" purity="9.1691762208938599e-01" nType="-99"/>
          <Node pos="r" depth="2" NCoef="0" IVar="-1" Cut="0.0000000000000000e+00" cType="1" res="2.4079309776425362e-02" rms="1.8203118443489075e-01" purity="9.5584702491760254e-01" nType="-99"/>
        </Node>
      </Node>
    </BinaryTree>
    <BinaryTree type="DecisionTree" boostWeight="1.0000000000000000e+00" itree="47">
      <Node pos="s" depth="0" NCoef="0" IVar="10" Cut="-1.9999927282333374e+00" cType="1" res="3.9714071899652481e-03" rms="3.0952462553977966e-01" purity="5.0542533397674561e-01" nType="0">
        <Node pos="l" depth="1" NCoef="0" IVar="9" Cut="-1.3338018953800201e-01" cType="1" res="-3.2993510365486145e-02" rms="2.9229307174682617e-01" purity="3.1640452146530151e-01" nType="0">
          <Node pos="l" depth="2" NCoef="0" IVar="-1" Cut="0.0000000000000000e+00" cType="1" res="-6.0441050678491592e-02" rms="2.7010986208915710e-01" purity="2.7791571617126465e-01" nType="-99"/>
          <Node pos="r" depth="2" NCoef="0" IVar="-1" Cut="0.0000000000000000e+00" cType="1" res="-1.4441045932471752e-02" rms="3.1201422214508057e-01" purity="3.5541310906410217e-01" nType="-99"/>
        </Node>
        <Node pos="r" depth="1" NCoef="0" IVar="8" Cut="-1.7332695722579956e+00" cType="1" res="5.9193414635956287e-03" rms="3.1028401851654053e-01" purity="5.1538610458374023e-01" nType="0">
          <Node pos="l" depth="2" NCoef="0" IVar="-1" Cut="0.0000000000000000e+00" cType="1" res="-2.8931828215718269e-02" rms="2.7314245700836182e-01" purity="1.3637560606002808e-01" nType="-99"/>
          <Node pos="r" depth="2" NCoef="0" IVar="10" Cut="7.4286013841629028e-01" cType="1" res="7.4839894659817219e-03" rms="3.1209236383438110e-01" purity="5.3590506315231323e-01" nType="0">
            <Node pos="l" depth="3" NCoef="0" IVar="-1" Cut="0.0000000000000000e+00" cType="1" res="1.2357217259705067e-02" rms="3.1387126445770264e-01" purity="5.6017547845840454e-01" nType="-99"/>
            <Node pos="r" depth="3" NCoef="0" IVar="-1" Cut="0.0000000000000000e+00" cType="1" res="-3.0013395007699728e-03" rms="3.0763092637062073e-01" purity="4.7898256778717041e-01" nType="-99"/>
          </Node>
        </Node>
      </Node>
    </BinaryTree>
    <BinaryTree type="DecisionTree" boostWeight="1.0000000000000000e+00" itree="48">
      <Node pos="s" depth="0" NCoef="0" IVar="9" Cut="1.1999341249465942e+00" cType="1" res="-3.9690287667326629e-04" rms="3.0479970574378967e-01" purity="4.9858596920967102e-01" nType="0">
        <Node pos="l" depth="1" NCoef="0" IVar="7" Cut="-3.7230220437049866e-01" cType="1" res="3.8844591472297907e-03" rms="3.0440926551818848e-01" purity="5.2834457159042358e-01" nType="0">
          <Node pos="l" depth="2" NCoef="0" IVar="6" Cut="1.2018207550048828e+02" cType="1" res="-9.2599922791123390e-03" rms="3.0005204677581787e-01" purity="4.4145417213439941e-01" nType="0">
            <Node pos="l" depth="3" NCoef="0" IVar="-1" Cut="0.0000000000000000e+00" cType="1" res="-1.6511447727680206e-02" rms="3.0385354161262512e-01" purity="2.7434626221656799e-01" nType="-99"/>
            <Node pos="r" depth="3" NCoef="0" IVar="-1" Cut="0.0000000000000000e+00" cType="1" res="7.7883941121399403e-03" rms="2.9023790359497070e-01" purity="8.3645659685134888e-01" nType="-99"/>
          </Node>
          <Node pos="r" depth="2" NCoef="0" IVar="7" Cut="1.7423603534698486e+00" cType="1" res="1.0454355739057064e-02" rms="3.0635258555412292e-01" purity="5.7177436351776123e-01" nType="0">
            <Node pos="l" depth="3" NCoef="0" IVar="-1" Cut="0.0000000000000000e+00" cType="1" res="1.2719688005745411e-02" rms="3.1108054518699646e-01" purity="5.9718090295791626e-01" nType="-99"/>
            <Node pos="r" depth="3" NCoef="0" IVar="-1" Cut="0.0000000000000000e+00" cType="1" res="-5.2745763212442398e-02" rms="1.8726363778114319e-01" purity="7.5078055262565613e-02" nType="-99"/>
          </Node>
        </Node>
        <Node pos="r" depth="1" NCoef="0" IVar="5" Cut="1.2825053405761719e+02" cType="1" res="-2.5566991418600082e-02" rms="3.0587556958198547e-01" purity="3.2363557815551758e-01" nType="0">
          <Node pos="l" depth="2" NCoef="0" IVar="10" Cut="1.3371808826923370e-01" cType="1" res="-1.1138578876852989e-02" rms="2.6775634288787842e-01" purity="1.4370411634445190e-01" nType="0">
            <Node pos="l" depth="3" NCoef="0" IVar="-1" Cut="0.0000000000000000e+00" cType="1" res="5.9185917489230633e-03" rms="2.9400157928466797e-01" purity="1.7889221012592316e-01" nType="-99"/>
            <Node pos="r" depth="3" NCoef="0" IVar="-1" Cut="0.0000000000000000e+00" cType="1" res="-3.3911272883415222e-02" rms="2.4260772764682770e-01" purity="1.1402289569377899e-01" nType="-99"/>
          </Node>
          <Node pos="r" depth="2" NCoef="0" IVar="0" Cut="4.2255636596679688e+02" cType="1" res="-4.4242464005947113e-02" rms="3.4820184111595154e-01" purity="5.5653053522109985e-01" nType="0">
            <Node pos="l" depth="3" NCoef="0" IVar="-1" Cut="0.0000000000000000e+00" cType="1" res="-4.5135825872421265e-02" rms="3.6425524950027466e-01" purity="2.5629690289497375e-01" nType="-99"/>
            <Node pos="r" depth="3" NCoef="0" IVar="-1" Cut="0.0000000000000000e+00" cType="1" res="-3.1132919713854790e-02" rms="3.3659136295318604e-01" purity="7.5659996271133423e-01" nType="-99"/>
          </Node>
        </Node>
      </Node>
    </BinaryTree>
    <BinaryTree type="DecisionTree" boostWeight="1.0000000000000000e+00" itree="49">
      <Node pos="s" depth="0" NCoef="0" IVar="8" Cut="6.6663604974746704e-01" cType="1" res="-1.4071998884901404e-04" rms="3.0571880936622620e-01" purity="4.9770325422286987e-01" nType="0">
        <Node pos="l" depth="1" NCoef="0" IVar="8" Cut="-1.9745200872421265e+00" cType="1" res="4.0797973051667213e-03" rms="3.0656468868255615e-01" purity="5.3784239292144775e-01" nType="0">
          <Node pos="l" depth="2" NCoef="0" IVar="-1" Cut="0.0000000000000000e+00" cType="1" res="-4.8350073397159576e-02" rms="2.2543115913867950e-01" purity="9.4717696309089661e-02" nType="-99"/>
          <Node pos="r" depth="2" NCoef="0" IVar="8" Cut="5.4086726903915405e-01" cType="1" res="5.8417767286300659e-03" rms="3.0978992581367493e-01" purity="5.5895197391510010e-01" nType="0">
            <Node pos="l" depth="3" NCoef="0" IVar="-1" Cut="0.0000000000000000e+00" cType="1" res="4.0532140992581844e-03" rms="3.0869185924530029e-01" purity="5.5649238824844360e-01" nType="-99"/>
            <Node pos="r" depth="3" NCoef="0" IVar="-1" Cut="0.0000000000000000e+00" cType="1" res="3.6214135587215424e-02" rms="3.2508313655853271e-01" purity="5.9765809774398804e-01" nType="-99"/>
          </Node>
        </Node>
        <Node pos="r" depth="1" NCoef="0" IVar="7" Cut="-6.3658076524734497e-01" cType="1" res="-1.2074279598891735e-02" rms="3.0299642682075500e-01" purity="3.8420930504798889e-01" nType="0">
          <Node pos="l" depth="2" NCoef="0" IVar="8" Cut="1.2760331630706787e+00" cType="1" res="-3.4446038305759430e-02" rms="2.8070965409278870e-01" purity="2.2510002553462982e-01" nType="0">
            <Node pos="l" depth="3" NCoef="0" IVar="-1" Cut="0.0000000000000000e+00" cType="1" res="-4.9381326884031296e-02" rms="3.0281025171279907e-01" purity="3.0506250262260437e-01" nType="-99"/>
            <Node pos="r" depth="3" NCoef="0" IVar="-1" Cut="0.0000000000000000e+00" cType="1" res="-2.8694933280348778e-02" rms="2.5828149914741516e-01" purity="1.5249124169349670e-01" nType="-99"/>
          </Node>
          <Node pos="r" depth="2" NCoef="0" IVar="9" Cut="1.3278067111968994e-01" cType="1" res="-5.6015336886048317e-03" rms="3.0884292721748352e-01" purity="4.3024384975433350e-01" nType="0">
            <Node pos="l" depth="3" NCoef="0" IVar="-1" Cut="0.0000000000000000e+00" cType="1" res="8.1218956038355827e-03" rms="3.1942766904830933e-01" purity="4.8189947009086609e-01" nType="-99"/>
            <Node pos="r" depth="3" NCoef="0" IVar="-1" Cut="0.0000000000000000e+00" cType="1" res="-1.9753832370042801e-02" rms="2.9803895950317383e-01" purity="3.8187643885612488e-01" nType="-99"/>
          </Node>
        </Node>
      </Node>
    </BinaryTree>
    <BinaryTree type="DecisionTree" boostWeight="1.0000000000000000e+00" itree="50">
      <Node pos="s" depth="0" NCoef="0" IVar="9" Cut="-1.7333164215087891e+00" cType="1" res="2.3590453201904893e-04" rms="3.0592572689056396e-01" purity="5.0073540210723877e-01" nType="0">
        <Node pos="l" depth="1" NCoef="0" IVar="10" Cut="-1.3330587744712830e-01" cType="1" res="-2.3599229753017426e-02" rms="2.8449031710624695e-01" purity="2.4532382190227509e-01" nType="0">
          <Node pos="l" depth="2" NCoef="0" IVar="-1" Cut="0.0000000000000000e+00" cType="1" res="-3.9806853979825974e-02" rms="2.7125632762908936e-01" purity="2.0004604756832123e-01" nType="-99"/>
          <Node pos="r" depth="2" NCoef="0" IVar="-1" Cut="0.0000000000000000e+00" cType="1" res="-1.2336472980678082e-02" rms="2.9784002900123596e-01" purity="2.9489630460739136e-01" nType="-99"/>
        </Node>
        <Node pos="r" depth="1" NCoef="0" IVar="10" Cut="-1.9999896287918091e+00" cType="1" res="1.9274001242592931e-03" rms="3.0731987953186035e-01" purity="5.1886111497879028e-01" nType="0">
          <Node pos="l" depth="2" NCoef="0" IVar="-1" Cut="0.0000000000000000e+00" cType="1" res="-2.4344289675354958e-02" rms="3.1291610002517700e-01" purity="3.2534325122833252e-01" nType="-99"/>
          <Node pos="r" depth="2" NCoef="0" IVar="9" Cut="2.1523721218109131e+00" cType="1" res="3.1925619114190340e-03" rms="3.0698174238204956e-01" purity="5.2857458591461182e-01" nType="0">
            <Node pos="l" depth="3" NCoef="0" IVar="-1" Cut="0.0000000000000000e+00" cType="1" res="4.4977362267673016e-03" rms="3.0801495909690857e-01" purity="5.3992795944213867e-01" nType="-99"/>
            <Node pos="r" depth="3" NCoef="0" IVar="-1" Cut="0.0000000000000000e+00" cType="1" res="-3.9603631943464279e-02" rms="2.6954215764999390e-01" purity="1.6552932560443878e-01" nType="-99"/>
          </Node>
        </Node>
      </Node>
    </BinaryTree>
    <BinaryTree type="DecisionTree" boostWeight="1.0000000000000000e+00" itree="51">
      <Node pos="s" depth="0" NCoef="0" IVar="4" Cut="2.3882780456542969e+02" cType="1" res="8.0306659219786525e-04" rms="3.0453568696975708e-01" purity="5.0308501720428467e-01" nType="0">
        <Node pos="l" depth="1" NCoef="0" IVar="3" Cut="4.4881991577148438e+02" cType="1" res="-6.2131155282258987e-03" rms="3.0602607131004333e-01" purity="2.3984867334365845e-01" nType="0">
          <Node pos="l" depth="2" NCoef="0" IVar="4" Cut="1.8515354919433594e+02" cType="1" res="-1.6202916158363223e-03" rms="2.9865941405296326e-01" purity="2.0520466566085815e-01" nType="0">
            <Node pos="l" depth="3" NCoef="0" IVar="-1" Cut="0.0000000000000000e+00" cType="1" res="-1.0251448489725590e-02" rms="2.6292935013771057e-01" purity="1.0739565640687943e-01" nType="-99"/>
            <Node pos="r" depth="3" NCoef="0" IVar="-1" Cut="0.0000000000000000e+00" cType="1" res="7.3921573348343372e-03" rms="3.5866016149520874e-01" purity="3.9832082390785217e-01" nType="-99"/>
          </Node>
          <Node pos="r" depth="2" NCoef="0" IVar="0" Cut="6.8344958496093750e+02" cType="1" res="-2.5736657902598381e-02" rms="3.3483827114105225e-01" purity="3.8711607456207275e-01" nType="0">
            <Node pos="l" depth="3" NCoef="0" IVar="-1" Cut="0.0000000000000000e+00" cType="1" res="-3.9734128862619400e-02" rms="3.1971031427383423e-01" purity="2.4893972277641296e-01" nType="-99"/>
            <Node pos="r" depth="3" NCoef="0" IVar="-1" Cut="0.0000000000000000e+00" cType="1" res="1.7877375707030296e-02" rms="3.6832261085510254e-01" purity="7.6385098695755005e-01" nType="-99"/>
          </Node>
        </Node>
        <Node pos="r" depth="1" NCoef="0" IVar="8" Cut="1.1996868848800659e+00" cType="1" res="8.2137752324342728e-03" rms="3.0277705192565918e-01" purity="7.8112339973449707e-01" nType="0">
          <Node pos="l" depth="2" NCoef="0" IVar="8" Cut="-8.9532333612442017e-01" cType="1" res="1.2203011661767960e-02" rms="2.9959452152252197e-01" purity="8.0216276645660400e-01" nType="0">
            <Node pos="l" depth="3" NCoef="0" IVar="-1" Cut="0.0000000000000000e+00" cType="1" res="-8.4110405296087265e-03" rms="3.5005804896354675e-01" purity="6.3299065828323364e-01" nType="-99"/>
            <Node pos="r" depth="3" NCoef="0" IVar="-1" Cut="0.0000000000000000e+00" cType="1" res="1.8146270886063576e-02" rms="2.8925821185112000e-01" purity="8.3305108547210693e-01" nType="-99"/>
          </Node>
          <Node pos="r" depth="2" NCoef="0" IVar="-1" Cut="0.0000000000000000e+00" cType="1" res="-3.4568525850772858e-02" rms="3.3633434772491455e-01" purity="5.1576226949691772e-01" nType="-99"/>
        </Node>
      </Node>
    </BinaryTree>
    <BinaryTree type="DecisionTree" boostWeight="1.0000000000000000e+00" itree="52">
      <Node pos="s" depth="0" NCoef="0" IVar="10" Cut="-1.7333266735076904e+00" cType="1" res="-1.8247303087264299e-03" rms="3.0431994795799255e-01" purity="4.9739986658096313e-01" nType="0">
        <Node pos="l" depth="1" NCoef="0" IVar="5" Cut="1.2025471496582031e+02" cType="1" res="-2.4451220408082008e-02" rms="2.9543423652648926e-01" purity="3.4430938959121704e-01" nType="0">
          <Node pos="l" depth="2" NCoef="0" IVar="-1" Cut="0.0000000000000000e+00" cType="1" res="-1.3620957732200623e-02" rms="2.5287067890167236e-01" purity="1.2483830004930496e-01" nType="-99"/>
          <Node pos="r" depth="2" NCoef="0" IVar="-1" Cut="0.0000000000000000e+00" cType="1" res="-3.6412548273801804e-02" rms="3.3228629827499390e-01" purity="5.6585931777954102e-01" nType="-99"/>
        </Node>
        <Node pos="r" depth="1" NCoef="0" IVar="7" Cut="-1.1919696331024170e+00" cType="1" res="2.2182296379469335e-04" rms="3.0502814054489136e-01" purity="5.1124680042266846e-01" nType="0">
          <Node pos="l" depth="2" NCoef="0" IVar="8" Cut="-3.9998248219490051e-01" cType="1" res="-1.8037501722574234e-02" rms="2.5729662179946899e-01" purity="1.7727957665920258e-01" nType="0">
            <Node pos="l" depth="3" NCoef="0" IVar="-1" Cut="0.0000000000000000e+00" cType="1" res="5.3470628336071968e-03" rms="2.7711772918701172e-01" purity="1.7317563295364380e-01" nType="-99"/>
            <Node pos="r" depth="3" NCoef="0" IVar="-1" Cut="0.0000000000000000e+00" cType="1" res="-4.2249001562595367e-02" rms="2.4021245539188385e-01" purity="1.8033087253570557e-01" nType="-99"/>
          </Node>
          <Node pos="r" depth="2" NCoef="0" IVar="7" Cut="1.6591695547103882e+00" cType="1" res="2.0843008533120155e-03" rms="3.0942279100418091e-01" purity="5.4531198740005493e-01" nType="0">
            <Node pos="l" depth="3" NCoef="0" IVar="-1" Cut="0.0000000000000000e+00" cType="1" res="3.6426163278520107e-03" rms="3.1403771042823792e-01" purity="5.6833052635192871e-01" nType="-99"/>
            <Node pos="r" depth="3" NCoef="0" IVar="-1" Cut="0.0000000000000000e+00" cType="1" res="-5.5481489747762680e-02" rms="1.8511296808719635e-01" purity="6.1439603567123413e-02" nType="-99"/>
          </Node>
        </Node>
      </Node>
    </BinaryTree>
    <BinaryTree type="DecisionTree" boostWeight="1.0000000000000000e+00" itree="53">
      <Node pos="s" depth="0" NCoef="0" IVar="7" Cut="-1.4580618143081665e+00" cType="1" res="7.8671122901141644e-04" rms="3.0500796437263489e-01" purity="4.9651405215263367e-01" nType="0">
        <Node pos="l" depth="1" NCoef="0" IVar="6" Cut="6.8732467651367188e+01" cType="1" res="-2.4128409102559090e-02" rms="2.1731008589267731e-01" purity="9.6217982470989227e-02" nType="0">
          <Node pos="l" depth="2" NCoef="0" IVar="-1" Cut="0.0000000000000000e+00" cType="1" res="-4.1002154350280762e-02" rms="1.4200286567211151e-01" purity="3.1195415183901787e-02" nType="-99"/>
          <Node pos="r" depth="2" NCoef="0" IVar="-1" Cut="0.0000000000000000e+00" cType="1" res="-3.7483088672161102e-02" rms="2.6357311010360718e-01" purity="1.5005536377429962e-01" nType="-99"/>
        </Node>
        <Node pos="r" depth="1" NCoef="0" IVar="1" Cut="1.0998989257812500e+03" cType="1" res="2.3000140208750963e-03" rms="3.0947059392929077e-01" purity="5.2082735300064087e-01" nType="0">
          <Node pos="l" depth="2" NCoef="0" IVar="1" Cut="1.0142101440429688e+03" cType="1" res="-8.3839194849133492e-03" rms="2.1465541422367096e-01" purity="5.2346657961606979e-02" nType="0">
            <Node pos="l" depth="3" NCoef="0" IVar="-1" Cut="0.0000000000000000e+00" cType="1" res="-3.3238280564546585e-02" rms="1.7449691891670227e-01" purity="3.2131195068359375e-02" nType="-99"/>
            <Node pos="r" depth="3" NCoef="0" IVar="-1" Cut="0.0000000000000000e+00" cType="1" res="4.3675606139004230e-03" rms="2.7929544448852539e-01" purity="9.3911714851856232e-02" nType="-99"/>
          </Node>
          <Node pos="r" depth="2" NCoef="0" IVar="5" Cut="1.4139579772949219e+02" cType="1" res="5.7083317078649998e-03" rms="3.3403208851814270e-01" purity="6.7027896642684937e-01" nType="0">
            <Node pos="l" depth="3" NCoef="0" IVar="-1" Cut="0.0000000000000000e+00" cType="1" res="1.4758625999093056e-02" rms="3.8427987694740295e-01" purity="4.0438759326934814e-01" nType="-99"/>
            <Node pos="r" depth="3" NCoef="0" IVar="-1" Cut="0.0000000000000000e+00" cType="1" res="-1.8915245309472084e-03" rms="3.0544042587280273e-01" purity="8.0373370647430420e-01" nType="-99"/>
          </Node>
        </Node>
      </Node>
    </BinaryTree>
    <BinaryTree type="DecisionTree" boostWeight="1.0000000000000000e+00" itree="54">
      <Node pos="s" depth="0" NCoef="0" IVar="7" Cut="1.2185823917388916e+00" cType="1" res="6.8656174698844552e-04" rms="3.0484947562217712e-01" purity="5.0361174345016479e-01" nType="0">
        <Node pos="l" depth="1" NCoef="0" IVar="2" Cut="2.0917210727930069e-02" cType="1" res="2.4752877652645111e-03" rms="3.0991190671920776e-01" purity="5.3908002376556396e-01" nType="0">
          <Node pos="l" depth="2" NCoef="0" IVar="2" Cut="9.9607137963175774e-03" cType="1" res="1.2011489830911160e-02" rms="3.0381339788436890e-01" purity="2.8900620341300964e-01" nType="0">
            <Node pos="l" depth="3" NCoef="0" IVar="-1" Cut="0.0000000000000000e+00" cType="1" res="3.6124492908129469e-05" rms="2.8598332405090332e-01" purity="2.3669536411762238e-01" nType="-99"/>
            <Node pos="r" depth="3" NCoef="0" IVar="-1" Cut="0.0000000000000000e+00" cType="1" res="2.6557890698313713e-02" rms="3.2312512397766113e-01" purity="3.5108485817909241e-01" nType="-99"/>
          </Node>
          <Node pos="r" depth="2" NCoef="0" IVar="1" Cut="1.9049624023437500e+03" cType="1" res="-1.8918822752311826e-03" rms="3.1256794929504395e-01" purity="6.5360313653945923e-01" nType="0">
            <Node pos="l" depth="3" NCoef="0" IVar="-1" Cut="0.0000000000000000e+00" cType="1" res="-6.0453652404248714e-03" rms="3.5733258724212646e-01" purity="5.1328015327453613e-01" nType="-99"/>
            <Node pos="r" depth="3" NCoef="0" IVar="-1" Cut="0.0000000000000000e+00" cType="1" res="2.5259315967559814e-02" rms="1.7583894729614258e-01" purity="9.6506935358047485e-01" nType="-99"/>
          </Node>
        </Node>
        <Node pos="r" depth="1" NCoef="0" IVar="3" Cut="3.8646612548828125e+02" cType="1" res="-1.6548613086342812e-02" rms="2.5023564696311951e-01" purity="1.6185830533504486e-01" nType="0">
          <Node pos="l" depth="2" NCoef="0" IVar="10" Cut="6.6662102937698364e-01" cType="1" res="-4.2268284596502781e-03" rms="2.3177386820316315e-01" purity="1.3388489186763763e-01" nType="0">
            <Node pos="l" depth="3" NCoef="0" IVar="-1" Cut="0.0000000000000000e+00" cType="1" res="8.4028653800487518e-03" rms="2.4333117902278900e-01" purity="1.6765218973159790e-01" nType="-99"/>
            <Node pos="r" depth="3" NCoef="0" IVar="-1" Cut="0.0000000000000000e+00" cType="1" res="-3.3196784555912018e-02" rms="2.1185438334941864e-01" purity="8.1771500408649445e-02" nType="-99"/>
          </Node>
          <Node pos="r" depth="2" NCoef="0" IVar="-1" Cut="0.0000000000000000e+00" cType="1" res="-4.5882735401391983e-02" rms="2.8392350673675537e-01" purity="2.2162327170372009e-01" nType="-99"/>
        </Node>
      </Node>
    </BinaryTree>
    <BinaryTree type="DecisionTree" boostWeight="1.0000000000000000e+00" itree="55">
      <Node pos="s" depth="0" NCoef="0" IVar="9" Cut="-1.4666872024536133e+00" cType="1" res="-7.3428032919764519e-04" rms="3.0576348304748535e-01" purity="4.9768280982971191e-01" nType="0">
        <Node pos="l" depth="1" NCoef="0" IVar="5" Cut="1.5544725036621094e+02" cType="1" res="-1.5620693564414978e-02" rms="3.0311354994773865e-01" purity="2.8321239352226257e-01" nType="0">
          <Node pos="l" depth="2" NCoef="0" IVar="7" Cut="1.5700887143611908e-01" cType="1" res="-7.2720536263659596e-04" rms="2.8472161293029785e-01" purity="1.8896938860416412e-01" nType="0">
            <Node pos="l" depth="3" NCoef="0" IVar="-1" Cut="0.0000000000000000e+00" cType="1" res="1.5652770176529884e-02" rms="3.0515593290328979e-01" purity="2.0920975506305695e-01" nType="-99"/>
            <Node pos="r" depth="3" NCoef="0" IVar="-1" Cut="0.0000000000000000e+00" cType="1" res="-3.2588999718427658e-02" rms="2.4449627101421356e-01" purity="1.5473721921443939e-01" nType="-99"/>
          </Node>
          <Node pos="r" depth="2" NCoef="0" IVar="-1" Cut="0.0000000000000000e+00" cType="1" res="-4.6883285045623779e-02" rms="3.4804400801658630e-01" purity="5.6069993972778320e-01" nType="-99"/>
        </Node>
        <Node pos="r" depth="1" NCoef="0" IVar="3" Cut="7.5996600341796875e+02" cType="1" res="9.6136302454397082e-04" rms="3.0601793527603149e-01" purity="5.2211219072341919e-01" nType="0">
          <Node pos="l" depth="2" NCoef="0" IVar="0" Cut="3.7839358520507812e+02" cType="1" res="2.2165533155202866e-03" rms="3.0632045865058899e-01" purity="5.0378715991973877e-01" nType="0">
            <Node pos="l" depth="3" NCoef="0" IVar="-1" Cut="0.0000000000000000e+00" cType="1" res="-9.6341501921415329e-03" rms="2.9872941970825195e-01" purity="1.7720678448677063e-01" nType="-99"/>
            <Node pos="r" depth="3" NCoef="0" IVar="-1" Cut="0.0000000000000000e+00" cType="1" res="7.6675466261804104e-03" rms="3.0971938371658325e-01" purity="6.5843373537063599e-01" nType="-99"/>
          </Node>
          <Node pos="r" depth="2" NCoef="0" IVar="1" Cut="2.5544770507812500e+03" cType="1" res="-1.9755065441131592e-02" rms="3.0022367835044861e-01" purity="8.2455945014953613e-01" nType="0">
            <Node pos="l" depth="3" NCoef="0" IVar="-1" Cut="0.0000000000000000e+00" cType="1" res="-3.2120101153850555e-02" rms="3.5449868440628052e-01" purity="7.1403509378433228e-01" nType="-99"/>
            <Node pos="r" depth="3" NCoef="0" IVar="-1" Cut="0.0000000000000000e+00" cType="1" res="3.1319945119321346e-03" rms="2.3132218420505524e-01" purity="9.3560177087783813e-01" nType="-99"/>
          </Node>
        </Node>
      </Node>
    </BinaryTree>
    <BinaryTree type="DecisionTree" boostWeight="1.0000000000000000e+00" itree="56">
      <Node pos="s" depth="0" NCoef="0" IVar="2" Cut="1.4930000901222229e-01" cType="1" res="6.3258263980969787e-04" rms="3.0401575565338135e-01" purity="5.0192928314208984e-01" nType="0">
        <Node pos="l" depth="1" NCoef="0" IVar="2" Cut="4.9763757735490799e-02" cType="1" res="-9.9665031302720308e-04" rms="3.0808082222938538e-01" purity="4.6453216671943665e-01" nType="0">
          <Node pos="l" depth="2" NCoef="0" IVar="10" Cut="1.7333326339721680e+00" cType="1" res="2.9428550042212009e-03" rms="3.0714458227157593e-01" purity="3.4244501590728760e-01" nType="0">
            <Node pos="l" depth="3" NCoef="0" IVar="-1" Cut="0.0000000000000000e+00" cType="1" res="5.5631813593208790e-03" rms="3.0970460176467896e-01" purity="3.5728043317794800e-01" nType="-99"/>
            <Node pos="r" depth="3" NCoef="0" IVar="-1" Cut="0.0000000000000000e+00" cType="1" res="-2.5557132437825203e-02" rms="2.7776414155960083e-01" purity="1.8703067302703857e-01" nType="-99"/>
          </Node>
          <Node pos="r" depth="2" NCoef="0" IVar="0" Cut="5.2035260009765625e+02" cType="1" res="-8.6710406467318535e-03" rms="3.0975276231765747e-01" purity="7.0236527919769287e-01" nType="0">
            <Node pos="l" depth="3" NCoef="0" IVar="-1" Cut="0.0000000000000000e+00" cType="1" res="-1.6306558623909950e-02" rms="3.7085264921188354e-01" purity="4.8826971650123596e-01" nType="-99"/>
            <Node pos="r" depth="3" NCoef="0" IVar="-1" Cut="0.0000000000000000e+00" cType="1" res="1.1609659530222416e-02" rms="2.2406950592994690e-01" purity="9.3562632799148560e-01" nType="-99"/>
          </Node>
        </Node>
        <Node pos="r" depth="1" NCoef="0" IVar="-1" Cut="0.0000000000000000e+00" cType="1" res="2.3212209343910217e-02" rms="2.5969421863555908e-01" purity="8.7311089038848877e-01" nType="-99"/>
      </Node>
    </BinaryTree>
    <BinaryTree type="DecisionTree" boostWeight="1.0000000000000000e+00" itree="57">
      <Node pos="s" depth="0" NCoef="0" IVar="1" Cut="1.3918098144531250e+03" cType="1" res="2.9873515013605356e-03" rms="3.0615311861038208e-01" purity="5.0403702259063721e-01" nType="0">
        <Node pos="l" depth="1" NCoef="0" IVar="1" Cut="1.3354459228515625e+03" cType="1" res="8.8624367490410805e-03" rms="3.1080916523933411e-01" purity="1.6632544994354248e-01" nType="0">
          <Node pos="l" depth="2" NCoef="0" IVar="0" Cut="3.6366744995117188e+02" cType="1" res="5.7993824593722820e-03" rms="2.9957863688468933e-01" purity="1.4398163557052612e-01" nType="0">
            <Node pos="l" depth="3" NCoef="0" IVar="-1" Cut="0.0000000000000000e+00" cType="1" res="-5.2137239836156368e-03" rms="2.5412297248840332e-01" purity="9.0640954673290253e-02" nType="-99"/>
            <Node pos="r" depth="3" NCoef="0" IVar="-1" Cut="0.0000000000000000e+00" cType="1" res="1.4148544520139694e-02" rms="3.3783760666847229e-01" purity="1.9601599872112274e-01" nType="-99"/>
          </Node>
          <Node pos="r" depth="2" NCoef="0" IVar="-1" Cut="0.0000000000000000e+00" cType="1" res="2.7984321117401123e-02" rms="4.2053017020225525e-01" purity="4.3258562684059143e-01" nType="-99"/>
        </Node>
        <Node pos="r" depth="1" NCoef="0" IVar="10" Cut="1.7333118915557861e+00" cType="1" res="-2.4564901832491159e-03" rms="3.0167257785797119e-01" purity="8.1695985794067383e-01" nType="0">
          <Node pos="l" depth="2" NCoef="0" IVar="5" Cut="9.6862144470214844e+01" cType="1" res="-3.9131139055825770e-04" rms="2.9906821250915527e-01" purity="8.2320249080657959e-01" nType="0">
            <Node pos="l" depth="3" NCoef="0" IVar="-1" Cut="0.0000000000000000e+00" cType="1" res="2.0486541092395782e-02" rms="4.2105790972709656e-01" purity="5.1009690761566162e-01" nType="-99"/>
            <Node pos="r" depth="3" NCoef="0" IVar="-1" Cut="0.0000000000000000e+00" cType="1" res="-3.2291710376739502e-03" rms="2.8880906105041504e-01" purity="8.4437942504882812e-01" nType="-99"/>
          </Node>
          <Node pos="r" depth="2" NCoef="0" IVar="-1" Cut="0.0000000000000000e+00" cType="1" res="-3.0131297186017036e-02" rms="3.3735886216163635e-01" purity="7.2175103425979614e-01" nType="-99"/>
        </Node>
      </Node>
    </BinaryTree>
    <BinaryTree type="DecisionTree" boostWeight="1.0000000000000000e+00" itree="58">
      <Node pos="s" depth="0" NCoef="0" IVar="4" Cut="3.3641717529296875e+02" cType="1" res="-1.8201264319941401e-03" rms="3.0340665578842163e-01" purity="4.9869763851165771e-01" nType="0">
        <Node pos="l" depth="1" NCoef="0" IVar="3" Cut="5.0379714965820312e+02" cType="1" res="-5.2322070114314556e-03" rms="3.1304132938385010e-01" purity="3.8699638843536377e-01" nType="0">
          <Node pos="l" depth="2" NCoef="0" IVar="6" Cut="6.3028480529785156e+01" cType="1" res="-1.6339680878445506e-03" rms="3.0963221192359924e-01" purity="3.4402799606323242e-01" nType="0">
            <Node pos="l" depth="3" NCoef="0" IVar="-1" Cut="0.0000000000000000e+00" cType="1" res="-2.4809930473566055e-02" rms="2.3766569793224335e-01" purity="8.4763109683990479e-02" nType="-99"/>
            <Node pos="r" depth="3" NCoef="0" IVar="-1" Cut="0.0000000000000000e+00" cType="1" res="3.2426039688289165e-03" rms="3.3268436789512634e-01" purity="4.4212028384208679e-01" nType="-99"/>
          </Node>
          <Node pos="r" depth="2" NCoef="0" IVar="0" Cut="7.5621502685546875e+02" cType="1" res="-2.2389126941561699e-02" rms="3.2826876640319824e-01" purity="5.9187597036361694e-01" nType="0">
            <Node pos="l" depth="3" NCoef="0" IVar="-1" Cut="0.0000000000000000e+00" cType="1" res="-2.8037050738930702e-02" rms="3.4346088767051697e-01" purity="4.7301271557807922e-01" nType="-99"/>
            <Node pos="r" depth="3" NCoef="0" IVar="-1" Cut="0.0000000000000000e+00" cType="1" res="6.2595498748123646e-03" rms="2.8685364127159119e-01" purity="8.7595009803771973e-01" nType="-99"/>
          </Node>
        </Node>
        <Node pos="r" depth="1" NCoef="0" IVar="8" Cut="-9.3159294128417969e-01" cType="1" res="9.2419786378741264e-03" rms="2.6951831579208374e-01" purity="8.6083763837814331e-01" nType="0">
          <Node pos="l" depth="2" NCoef="0" IVar="-1" Cut="0.0000000000000000e+00" cType="1" res="-3.2139305025339127e-02" rms="3.0979111790657043e-01" purity="7.3584079742431641e-01" nType="-99"/>
          <Node pos="r" depth="2" NCoef="0" IVar="1" Cut="1.6899406738281250e+03" cType="1" res="1.4062885195016861e-02" rms="2.6378110051155090e-01" purity="8.7608492374420166e-01" nType="0">
            <Node pos="l" depth="3" NCoef="0" IVar="-1" Cut="0.0000000000000000e+00" cType="1" res="3.5218119621276855e-02" rms="4.1884219646453857e-01" purity="5.9567725658416748e-01" nType="-99"/>
            <Node pos="r" depth="3" NCoef="0" IVar="-1" Cut="0.0000000000000000e+00" cType="1" res="1.1555028147995472e-02" rms="2.2600542008876801e-01" purity="9.2417162656784058e-01" nType="-99"/>
          </Node>
        </Node>
      </Node>
    </BinaryTree>
    <BinaryTree type="DecisionTree" boostWeight="1.0000000000000000e+00" itree="59">
      <Node pos="s" depth="0" NCoef="0" IVar="1" Cut="1.4400631103515625e+03" cType="1" res="-8.0184912076219916e-04" rms="3.0529567599296570e-01" purity="4.9484372138977051e-01" nType="0">
        <Node pos="l" depth="1" NCoef="0" IVar="2" Cut="8.3595328032970428e-02" cType="1" res="4.2101922444999218e-03" rms="3.1263014674186707e-01" purity="1.7881722748279572e-01" nType="0">
          <Node pos="l" depth="2" NCoef="0" IVar="4" Cut="1.7975584411621094e+02" cType="1" res="9.4718812033534050e-03" rms="2.9438674449920654e-01" purity="1.3757255673408508e-01" nType="0">
            <Node pos="l" depth="3" NCoef="0" IVar="-1" Cut="0.0000000000000000e+00" cType="1" res="-2.4785320274531841e-03" rms="2.3128034174442291e-01" purity="7.0152431726455688e-02" nType="-99"/>
            <Node pos="r" depth="3" NCoef="0" IVar="-1" Cut="0.0000000000000000e+00" cType="1" res="2.0639481022953987e-02" rms="3.6814853549003601e-01" purity="2.3777800798416138e-01" nType="-99"/>
          </Node>
          <Node pos="r" depth="2" NCoef="0" IVar="-1" Cut="0.0000000000000000e+00" cType="1" res="-1.7732927575707436e-02" rms="4.0957483649253845e-01" purity="4.4452348351478577e-01" nType="-99"/>
        </Node>
        <Node pos="r" depth="1" NCoef="0" IVar="7" Cut="9.6262198686599731e-01" cType="1" res="-6.1136316508054733e-03" rms="2.9723289608955383e-01" purity="8.2976984977722168e-01" nType="0">
          <Node pos="l" depth="2" NCoef="0" IVar="7" Cut="-6.0920131206512451e-01" cType="1" res="-2.9251314699649811e-03" rms="2.9246339201927185e-01" purity="8.4918564558029175e-01" nType="0">
            <Node pos="l" depth="3" NCoef="0" IVar="-1" Cut="0.0000000000000000e+00" cType="1" res="-2.5319885462522507e-02" rms="3.3011755347251892e-01" purity="7.3332476615905762e-01" nType="-99"/>
            <Node pos="r" depth="3" NCoef="0" IVar="-1" Cut="0.0000000000000000e+00" cType="1" res="4.1759228333830833e-03" rms="2.8191220760345459e-01" purity="8.7816917896270752e-01" nType="-99"/>
          </Node>
          <Node pos="r" depth="2" NCoef="0" IVar="-1" Cut="0.0000000000000000e+00" cType="1" res="-3.2111048698425293e-02" rms="3.4446695446968079e-01" purity="6.1081516742706299e-01" nType="-99"/>
        </Node>
      </Node>
    </BinaryTree>
    <BinaryTree type="DecisionTree" boostWeight="1.0000000000000000e+00" itree="60">
      <Node pos="s" depth="0" NCoef="0" IVar="6" Cut="1.7716867065429688e+02" cType="1" res="-1.5317971119657159e-03" rms="3.0489087104797363e-01" purity="4.9740850925445557e-01" nType="0">
        <Node pos="l" depth="1" NCoef="0" IVar="9" Cut="-1.7333347797393799e+00" cType="1" res="-3.5990127362310886e-03" rms="3.1739658117294312e-01" purity="4.3118712306022644e-01" nType="0">
          <Node pos="l" depth="2" NCoef="0" IVar="10" Cut="1.3345183432102203e-01" cType="1" res="1.6246400773525238e-02" rms="3.2480084896087646e-01" purity="2.4956618249416351e-01" nType="0">
            <Node pos="l" depth="3" NCoef="0" IVar="-1" Cut="0.0000000000000000e+00" cType="1" res="4.4313729740679264e-03" rms="3.1013834476470947e-01" purity="2.2259102761745453e-01" nType="-99"/>
            <Node pos="r" depth="3" NCoef="0" IVar="-1" Cut="0.0000000000000000e+00" cType="1" res="3.7778411060571671e-02" rms="3.4513619542121887e-01" purity="2.9076400399208069e-01" nType="-99"/>
          </Node>
          <Node pos="r" depth="2" NCoef="0" IVar="2" Cut="6.3985913991928101e-02" cType="1" res="-5.2481172606348991e-03" rms="3.1671756505966187e-01" purity="4.4627937674522400e-01" nType="0">
            <Node pos="l" depth="3" NCoef="0" IVar="-1" Cut="0.0000000000000000e+00" cType="1" res="-2.1168710663914680e-03" rms="3.1329861283302307e-01" purity="3.4032857418060303e-01" nType="-99"/>
            <Node pos="r" depth="3" NCoef="0" IVar="-1" Cut="0.0000000000000000e+00" cType="1" res="-1.2611285783350468e-02" rms="3.2488459348678589e-01" purity="7.0823591947555542e-01" nType="-99"/>
          </Node>
        </Node>
        <Node pos="r" depth="1" NCoef="0" IVar="-1" Cut="0.0000000000000000e+00" cType="1" res="2.4959223344922066e-02" rms="1.9989466667175293e-01" purity="9.4649213552474976e-01" nType="-99"/>
      </Node>
    </BinaryTree>
    <BinaryTree type="DecisionTree" boostWeight="1.0000000000000000e+00" itree="61">
      <Node pos="s" depth="0" NCoef="0" IVar="1" Cut="1.4400631103515625e+03" cType="1" res="1.6671781195327640e-03" rms="3.0669233202934265e-01" purity="4.9972701072692871e-01" nType="0">
        <Node pos="l" depth="1" NCoef="0" IVar="4" Cut="1.1532401275634766e+02" cType="1" res="7.7859084121882915e-03" rms="3.1826400756835938e-01" purity="1.8443122506141663e-01" nType="0">
          <Node pos="l" depth="2" NCoef="0" IVar="8" Cut="4.0007755160331726e-01" cType="1" res="-1.2520815245807171e-02" rms="1.6350029408931732e-01" purity="2.8903104364871979e-02" nType="0">
            <Node pos="l" depth="3" NCoef="0" IVar="-1" Cut="0.0000000000000000e+00" cType="1" res="-5.3852755576372147e-02" rms="1.4635060727596283e-01" purity="2.2235823795199394e-02" nType="-99"/>
            <Node pos="r" depth="3" NCoef="0" IVar="-1" Cut="0.0000000000000000e+00" cType="1" res="-4.3896370334550738e-04" rms="1.8554458022117615e-01" purity="3.8877498358488083e-02" nType="-99"/>
          </Node>
          <Node pos="r" depth="2" NCoef="0" IVar="3" Cut="4.2599655151367188e+02" cType="1" res="1.2617114000022411e-02" rms="3.4483206272125244e-01" purity="2.2143316268920898e-01" nType="0">
            <Node pos="l" depth="3" NCoef="0" IVar="-1" Cut="0.0000000000000000e+00" cType="1" res="1.5367876738309860e-02" rms="3.4926375746726990e-01" purity="2.3344172537326813e-01" nType="-99"/>
            <Node pos="r" depth="3" NCoef="0" IVar="-1" Cut="0.0000000000000000e+00" cType="1" res="-1.2303626164793968e-02" rms="3.1702691316604614e-01" purity="1.5254232287406921e-01" nType="-99"/>
          </Node>
        </Node>
        <Node pos="r" depth="1" NCoef="0" IVar="0" Cut="7.1713665771484375e+02" cType="1" res="-4.7998148947954178e-03" rms="2.9382881522178650e-01" purity="8.3296865224838257e-01" nType="0">
          <Node pos="l" depth="2" NCoef="0" IVar="3" Cut="7.3097839355468750e+02" cType="1" res="-1.2528534978628159e-02" rms="3.2966870069503784e-01" purity="7.7515327930450439e-01" nType="0">
            <Node pos="l" depth="3" NCoef="0" IVar="-1" Cut="0.0000000000000000e+00" cType="1" res="-8.2541005685925484e-03" rms="3.2739612460136414e-01" purity="7.8464794158935547e-01" nType="-99"/>
            <Node pos="r" depth="3" NCoef="0" IVar="-1" Cut="0.0000000000000000e+00" cType="1" res="-4.5291870832443237e-02" rms="3.5094368457794189e-01" purity="6.7117768526077271e-01" nType="-99"/>
          </Node>
          <Node pos="r" depth="2" NCoef="0" IVar="0" Cut="8.3633306884765625e+02" cType="1" res="8.8219186291098595e-03" rms="2.1600924432277679e-01" purity="9.3486732244491577e-01" nType="0">
            <Node pos="l" depth="3" NCoef="0" IVar="-1" Cut="0.0000000000000000e+00" cType="1" res="3.0588202207582071e-05" rms="2.3941105604171753e-01" purity="9.1318315267562866e-01" nType="-99"/>
            <Node pos="r" depth="3" NCoef="0" IVar="-1" Cut="0.0000000000000000e+00" cType="1" res="3.0479306355118752e-02" rms="1.9617062807083130e-01" purity="9.5129454135894775e-01" nType="-99"/>
          </Node>
        </Node>
      </Node>
    </BinaryTree>
    <BinaryTree type="DecisionTree" boostWeight="1.0000000000000000e+00" itree="62">
      <Node pos="s" depth="0" NCoef="0" IVar="3" Cut="8.0759399414062500e+02" cType="1" res="1.8328389851376414e-03" rms="3.0503162741661072e-01" purity="5.0404345989227295e-01" nType="0">
        <Node pos="l" depth="1" NCoef="0" IVar="7" Cut="-1.7241441011428833e+00" cType="1" res="3.0397763475775719e-03" rms="3.0454665422439575e-01" purity="4.9195048213005066e-01" nType="0">
          <Node pos="l" depth="2" NCoef="0" IVar="-1" Cut="0.0000000000000000e+00" cType="1" res="-5.4132986813783646e-02" rms="1.7766940593719482e-01" purity="5.8768913149833679e-02" nType="-99"/>
          <Node pos="r" depth="2" NCoef="0" IVar="2" Cut="2.0898977294564247e-02" cType="1" res="4.1504977270960808e-03" rms="3.0810973048210144e-01" purity="5.0765585899353027e-01" nType="0">
            <Node pos="l" depth="3" NCoef="0" IVar="-1" Cut="0.0000000000000000e+00" cType="1" res="1.3842307031154633e-02" rms="2.9313740134239197e-01" purity="2.4251487851142883e-01" nType="-99"/>
            <Node pos="r" depth="3" NCoef="0" IVar="-1" Cut="0.0000000000000000e+00" cType="1" res="2.1868747717235237e-04" rms="3.1521424651145935e-01" purity="6.3946050405502319e-01" nType="-99"/>
          </Node>
        </Node>
        <Node pos="r" depth="1" NCoef="0" IVar="-1" Cut="0.0000000000000000e+00" cType="1" res="-3.0777163803577423e-02" rms="3.1560388207435608e-01" purity="8.1282579898834229e-01" nType="-99"/>
      </Node>
    </BinaryTree>
    <BinaryTree type="DecisionTree" boostWeight="1.0000000000000000e+00" itree="63">
      <Node pos="s" depth="0" NCoef="0" IVar="2" Cut="2.1316707134246826e-02" cType="1" res="2.4446772295050323e-04" rms="3.0387988686561584e-01" purity="5.0123411417007446e-01" nType="0">
        <Node pos="l" depth="1" NCoef="0" IVar="2" Cut="7.1057141758501530e-03" cType="1" res="5.4243067279458046e-03" rms="2.9161393642425537e-01" purity="2.4791313707828522e-01" nType="0">
          <Node pos="l" depth="2" NCoef="0" IVar="5" Cut="1.4005253601074219e+02" cType="1" res="-8.2029029726982117e-03" rms="2.5930967926979065e-01" purity="1.6166476905345917e-01" nType="0">
            <Node pos="l" depth="3" NCoef="0" IVar="-1" Cut="0.0000000000000000e+00" cType="1" res="-2.1309652365744114e-03" rms="2.3353199660778046e-01" purity="9.9760800600051880e-02" nType="-99"/>
            <Node pos="r" depth="3" NCoef="0" IVar="-1" Cut="0.0000000000000000e+00" cType="1" res="-2.6490537449717522e-02" rms="3.3253329992294312e-01" purity="3.7651982903480530e-01" nType="-99"/>
          </Node>
          <Node pos="r" depth="2" NCoef="0" IVar="1" Cut="1.0974187011718750e+03" cType="1" res="1.5435168519616127e-02" rms="3.1285181641578674e-01" purity="3.1127315759658813e-01" nType="0">
            <Node pos="l" depth="3" NCoef="0" IVar="-1" Cut="0.0000000000000000e+00" cType="1" res="-2.2699389606714249e-02" rms="1.6034434735774994e-01" purity="2.6694590225815773e-02" nType="-99"/>
            <Node pos="r" depth="3" NCoef="0" IVar="-1" Cut="0.0000000000000000e+00" cType="1" res="2.1136069670319557e-02" rms="3.6749163269996643e-01" purity="4.5947742462158203e-01" nType="-99"/>
          </Node>
        </Node>
        <Node pos="r" depth="1" NCoef="0" IVar="1" Cut="1.9503022460937500e+03" cType="1" res="-2.6621455326676369e-03" rms="3.1051284074783325e-01" purity="6.4338260889053345e-01" nType="0">
          <Node pos="l" depth="2" NCoef="0" IVar="10" Cut="1.4666588306427002e+00" cType="1" res="-7.6113883405923843e-03" rms="3.4906592965126038e-01" purity="5.1860570907592773e-01" nType="0">
            <Node pos="l" depth="3" NCoef="0" IVar="-1" Cut="0.0000000000000000e+00" cType="1" res="-9.2124808579683304e-03" rms="3.4738734364509583e-01" purity="5.2410328388214111e-01" nType="-99"/>
            <Node pos="r" depth="3" NCoef="0" IVar="-1" Cut="0.0000000000000000e+00" cType="1" res="1.1167362332344055e-02" rms="3.5867872834205627e-01" purity="4.8418173193931580e-01" nType="-99"/>
          </Node>
          <Node pos="r" depth="2" NCoef="0" IVar="5" Cut="2.7045504760742188e+02" cType="1" res="1.0148005560040474e-02" rms="1.7427912354469299e-01" purity="9.6634322404861450e-01" nType="0">
            <Node pos="l" depth="3" NCoef="0" IVar="-1" Cut="0.0000000000000000e+00" cType="1" res="2.8731830418109894e-02" rms="1.8617224693298340e-01" purity="9.6143364906311035e-01" nType="-99"/>
            <Node pos="r" depth="3" NCoef="0" IVar="-1" Cut="0.0000000000000000e+00" cType="1" res="2.0978173241019249e-02" rms="1.5777328610420227e-01" purity="9.7259366512298584e-01" nType="-99"/>
          </Node>
        </Node>
      </Node>
    </BinaryTree>
    <BinaryTree type="DecisionTree" boostWeight="1.0000000000000000e+00" itree="64">
      <Node pos="s" depth="0" NCoef="0" IVar="10" Cut="2.2666416168212891e+00" cType="1" res="2.8099485207349062e-03" rms="3.0706265568733215e-01" purity="5.0146901607513428e-01" nType="0">
        <Node pos="l" depth="1" NCoef="0" IVar="2" Cut="6.3949689269065857e-02" cType="1" res="3.9291572757065296e-03" rms="3.0787259340286255e-01" purity="5.0875663757324219e-01" nType="0">
          <Node pos="l" depth="2" NCoef="0" IVar="1" Cut="1.4400571289062500e+03" cType="1" res="7.6760565862059593e-03" rms="3.1512719392776489e-01" purity="3.8203260302543640e-01" nType="0">
            <Node pos="l" depth="3" NCoef="0" IVar="-1" Cut="0.0000000000000000e+00" cType="1" res="1.6663206741213799e-02" rms="2.9372331500053406e-01" purity="1.3092315196990967e-01" nType="-99"/>
            <Node pos="r" depth="3" NCoef="0" IVar="-1" Cut="0.0000000000000000e+00" cType="1" res="-5.9516564942896366e-04" rms="3.4402534365653992e-01" purity="7.5135231018066406e-01" nType="-99"/>
          </Node>
          <Node pos="r" depth="2" NCoef="0" IVar="1" Cut="1.6287109375000000e+03" cType="1" res="-3.9211963303387165e-03" rms="2.9193347692489624e-01" purity="7.7426385879516602e-01" nType="0">
            <Node pos="l" depth="3" NCoef="0" IVar="-1" Cut="0.0000000000000000e+00" cType="1" res="-1.3925519771873951e-02" rms="3.8868242502212524e-01" purity="5.4014700651168823e-01" nType="-99"/>
            <Node pos="r" depth="3" NCoef="0" IVar="-1" Cut="0.0000000000000000e+00" cType="1" res="2.3905815556645393e-02" rms="1.7590855062007904e-01" purity="9.6583378314971924e-01" nType="-99"/>
          </Node>
        </Node>
        <Node pos="r" depth="1" NCoef="0" IVar="-1" Cut="0.0000000000000000e+00" cType="1" res="-4.1904870420694351e-02" rms="2.7461439371109009e-01" purity="2.4809026718139648e-01" nType="-99"/>
      </Node>
    </BinaryTree>
    <BinaryTree type="DecisionTree" boostWeight="1.0000000000000000e+00" itree="65">
      <Node pos="s" depth="0" NCoef="0" IVar="9" Cut="-1.9999928474426270e+00" cType="1" res="-5.4722960339859128e-04" rms="3.0598270893096924e-01" purity="4.9851959943771362e-01" nType="0">
        <Node pos="l" depth="1" NCoef="0" IVar="-1" Cut="0.0000000000000000e+00" cType="1" res="-3.0940314754843712e-02" rms="2.8702282905578613e-01" purity="1.8747740983963013e-01" nType="-99"/>
        <Node pos="r" depth="1" NCoef="0" IVar="9" Cut="9.7142708301544189e-01" cType="1" res="4.8813942703418434e-04" rms="3.0668473243713379e-01" purity="5.1117634773254395e-01" nType="0">
          <Node pos="l" depth="2" NCoef="0" IVar="10" Cut="1.3344697654247284e-01" cType="1" res="3.1637265346944332e-03" rms="3.0708208680152893e-01" purity="5.4272246360778809e-01" nType="0">
            <Node pos="l" depth="3" NCoef="0" IVar="-1" Cut="0.0000000000000000e+00" cType="1" res="-2.8815153054893017e-03" rms="3.0702528357505798e-01" purity="5.3526031970977783e-01" nType="-99"/>
            <Node pos="r" depth="3" NCoef="0" IVar="-1" Cut="0.0000000000000000e+00" cType="1" res="1.0819328017532825e-02" rms="3.0700024962425232e-01" purity="5.5181479454040527e-01" nType="-99"/>
          </Node>
          <Node pos="r" depth="2" NCoef="0" IVar="5" Cut="1.4038424682617188e+02" cType="1" res="-9.4985803589224815e-03" rms="3.0498975515365601e-01" purity="3.9342954754829407e-01" nType="0">
            <Node pos="l" depth="3" NCoef="0" IVar="-1" Cut="0.0000000000000000e+00" cType="1" res="-5.3259602282196283e-04" rms="2.8481185436248779e-01" purity="2.0055282115936279e-01" nType="-99"/>
            <Node pos="r" depth="3" NCoef="0" IVar="-1" Cut="0.0000000000000000e+00" cType="1" res="-2.0674366503953934e-02" rms="3.3106514811515808e-01" purity="6.6677927970886230e-01" nType="-99"/>
          </Node>
        </Node>
      </Node>
    </BinaryTree>
    <BinaryTree type="DecisionTree" boostWeight="1.0000000000000000e+00" itree="66">
      <Node pos="s" depth="0" NCoef="0" IVar="8" Cut="1.9998214244842529e+00" cType="1" res="-4.8050945624709129e-03" rms="3.0405408143997192e-01" purity="4.9549078941345215e-01" nType="0">
        <Node pos="l" depth="1" NCoef="0" IVar="10" Cut="-2.2666594982147217e+00" cType="1" res="-3.9615626446902752e-03" rms="3.0666476488113403e-01" purity="5.0936847925186157e-01" nType="0">
          <Node pos="l" depth="2" NCoef="0" IVar="-1" Cut="0.0000000000000000e+00" cType="1" res="-3.6593019962310791e-02" rms="2.8333389759063721e-01" purity="2.9211765527725220e-01" nType="-99"/>
          <Node pos="r" depth="2" NCoef="0" IVar="1" Cut="1.4400654296875000e+03" cType="1" res="-3.1453007832169533e-03" rms="3.0728274583816528e-01" purity="5.1572614908218384e-01" nType="0">
            <Node pos="l" depth="3" NCoef="0" IVar="-1" Cut="0.0000000000000000e+00" cType="1" res="1.3548381393775344e-03" rms="3.2232812047004700e-01" purity="1.9114476442337036e-01" nType="-99"/>
            <Node pos="r" depth="3" NCoef="0" IVar="-1" Cut="0.0000000000000000e+00" cType="1" res="-8.9141028001904488e-03" rms="2.9151797294616699e-01" purity="8.3780169486999512e-01" nType="-99"/>
          </Node>
        </Node>
        <Node pos="r" depth="1" NCoef="0" IVar="-1" Cut="0.0000000000000000e+00" cType="1" res="-5.1243863999843597e-02" rms="2.0651948451995850e-01" purity="6.8107031285762787e-02" nType="-99"/>
      </Node>
    </BinaryTree>
    <BinaryTree type="DecisionTree" boostWeight="1.0000000000000000e+00" itree="67">
      <Node pos="s" depth="0" NCoef="0" IVar="9" Cut="1.1999232769012451e+00" cType="1" res="-1.4888086589053273e-03" rms="3.0186986923217773e-01" purity="4.9753656983375549e-01" nType="0">
        <Node pos="l" depth="1" NCoef="0" IVar="8" Cut="-4.0001019835472107e-01" cType="1" res="1.0320894652977586e-03" rms="3.0232745409011841e-01" purity="5.2450472116470337e-01" nType="0">
          <Node pos="l" depth="2" NCoef="0" IVar="10" Cut="-1.3333249092102051e-01" cType="1" res="-6.4513408578932285e-03" rms="3.0542904138565063e-01" purity="4.5994928479194641e-01" nType="0">
            <Node pos="l" depth="3" NCoef="0" IVar="-1" Cut="0.0000000000000000e+00" cType="1" res="-1.6328025609254837e-02" rms="3.0444943904876709e-01" purity="4.1845592856407166e-01" nType="-99"/>
            <Node pos="r" depth="3" NCoef="0" IVar="-1" Cut="0.0000000000000000e+00" cType="1" res="2.7352143079042435e-03" rms="3.0618682503700256e-01" purity="5.0326806306838989e-01" nType="-99"/>
          </Node>
          <Node pos="r" depth="2" NCoef="0" IVar="3" Cut="3.3999343872070312e+02" cType="1" res="5.1299543119966984e-03" rms="3.0053654313087463e-01" purity="5.5985480546951294e-01" nType="0">
            <Node pos="l" depth="3" NCoef="0" IVar="-1" Cut="0.0000000000000000e+00" cType="1" res="1.5908276662230492e-02" rms="3.2218888401985168e-01" purity="3.1644347310066223e-01" nType="-99"/>
            <Node pos="r" depth="3" NCoef="0" IVar="-1" Cut="0.0000000000000000e+00" cType="1" res="-1.5062864986248314e-04" rms="2.8888905048370361e-01" purity="6.8229633569717407e-01" nType="-99"/>
          </Node>
        </Node>
        <Node pos="r" depth="1" NCoef="0" IVar="5" Cut="1.3159553527832031e+02" cType="1" res="-1.6308890655636787e-02" rms="2.9873585700988770e-01" purity="3.3899372816085815e-01" nType="0">
          <Node pos="l" depth="2" NCoef="0" IVar="0" Cut="4.1328182983398438e+02" cType="1" res="-4.1010300628840923e-03" rms="2.7180153131484985e-01" purity="1.6036392748355865e-01" nType="0">
            <Node pos="l" depth="3" NCoef="0" IVar="-1" Cut="0.0000000000000000e+00" cType="1" res="-3.5190232098102570e-02" rms="1.8975619971752167e-01" purity="4.3739739805459976e-02" nType="-99"/>
            <Node pos="r" depth="3" NCoef="0" IVar="-1" Cut="0.0000000000000000e+00" cType="1" res="1.2653342448174953e-02" rms="3.5868382453918457e-01" purity="3.3092609047889709e-01" nType="-99"/>
          </Node>
          <Node pos="r" depth="2" NCoef="0" IVar="10" Cut="1.3365696370601654e-01" cType="1" res="-3.3244911581277847e-02" rms="3.3176538348197937e-01" purity="5.8680760860443115e-01" nType="0">
            <Node pos="l" depth="3" NCoef="0" IVar="-1" Cut="0.0000000000000000e+00" cType="1" res="-1.3291309587657452e-02" rms="3.2513642311096191e-01" purity="6.4183837175369263e-01" nType="-99"/>
            <Node pos="r" depth="3" NCoef="0" IVar="-1" Cut="0.0000000000000000e+00" cType="1" res="-4.4177897274494171e-02" rms="3.3743464946746826e-01" purity="5.2985930442810059e-01" nType="-99"/>
          </Node>
        </Node>
      </Node>
    </BinaryTree>
    <BinaryTree type="DecisionTree" boostWeight="1.0000000000000000e+00" itree="68">
      <Node pos="s" depth="0" NCoef="0" IVar="7" Cut="4.0478047728538513e-01" cType="1" res="-1.7701670294627547e-03" rms="3.0398625135421753e-01" purity="4.9793398380279541e-01" nType="0">
        <Node pos="l" depth="1" NCoef="0" IVar="7" Cut="-6.5968561172485352e-01" cType="1" res="1.7045432468876243e-03" rms="3.0681306123733521e-01" purity="5.3868705034255981e-01" nType="0">
          <Node pos="l" depth="2" NCoef="0" IVar="7" Cut="-1.0652015209197998e+00" cType="1" res="-5.5366265587508678e-03" rms="2.9702788591384888e-01" purity="3.3434939384460449e-01" nType="0">
            <Node pos="l" depth="3" NCoef="0" IVar="-1" Cut="0.0000000000000000e+00" cType="1" res="7.5658452697098255e-03" rms="2.8205338120460510e-01" purity="2.2069855034351349e-01" nType="-99"/>
            <Node pos="r" depth="3" NCoef="0" IVar="-1" Cut="0.0000000000000000e+00" cType="1" res="-1.9652292132377625e-02" rms="3.1377711892127991e-01" purity="4.7324597835540771e-01" nType="-99"/>
          </Node>
          <Node pos="r" depth="2" NCoef="0" IVar="5" Cut="1.4375434875488281e+02" cType="1" res="5.2965776994824409e-03" rms="3.1149059534072876e-01" purity="6.4005023241043091e-01" nType="0">
            <Node pos="l" depth="3" NCoef="0" IVar="-1" Cut="0.0000000000000000e+00" cType="1" res="1.0315940715372562e-02" rms="3.5109072923660278e-01" purity="3.4164211153984070e-01" nType="-99"/>
            <Node pos="r" depth="3" NCoef="0" IVar="-1" Cut="0.0000000000000000e+00" cType="1" res="3.8731569657102227e-04" rms="2.7919369935989380e-01" purity="8.5634201765060425e-01" nType="-99"/>
          </Node>
        </Node>
        <Node pos="r" depth="1" NCoef="0" IVar="8" Cut="-1.2000814676284790e+00" cType="1" res="-9.1423047706484795e-03" rms="2.9776567220687866e-01" purity="4.1147005558013916e-01" nType="0">
          <Node pos="l" depth="2" NCoef="0" IVar="-1" Cut="0.0000000000000000e+00" cType="1" res="-3.5414453595876694e-02" rms="2.5601783394813538e-01" purity="2.0501822233200073e-01" nType="-99"/>
          <Node pos="r" depth="2" NCoef="0" IVar="10" Cut="4.0001615881919861e-01" cType="1" res="-6.2062800861895084e-03" rms="3.0332377552986145e-01" purity="4.4190320372581482e-01" nType="0">
            <Node pos="l" depth="3" NCoef="0" IVar="-1" Cut="0.0000000000000000e+00" cType="1" res="1.3194083003327250e-03" rms="3.1312274932861328e-01" purity="4.7422027587890625e-01" nType="-99"/>
            <Node pos="r" depth="3" NCoef="0" IVar="-1" Cut="0.0000000000000000e+00" cType="1" res="-1.7529619857668877e-02" rms="2.9036730527877808e-01" purity="4.0158489346504211e-01" nType="-99"/>
          </Node>
        </Node>
      </Node>
    </BinaryTree>
    <BinaryTree type="DecisionTree" boostWeight="1.0000000000000000e+00" itree="69">
      <Node pos="s" depth="0" NCoef="0" IVar="8" Cut="-1.7332695722579956e+00" cType="1" res="1.4225143240764737e-03" rms="3.0429300665855408e-01" purity="5.0194907188415527e-01" nType="0">
        <Node pos="l" depth="1" NCoef="0" IVar="8" Cut="-2.0888085365295410e+00" cType="1" res="-1.9193878397345543e-02" rms="2.5036031007766724e-01" purity="1.3180133700370789e-01" nType="0">
          <Node pos="l" depth="2" NCoef="0" IVar="-1" Cut="0.0000000000000000e+00" cType="1" res="-5.5668824352324009e-03" rms="2.5359633564949036e-01" purity="1.0116743296384811e-01" nType="-99"/>
          <Node pos="r" depth="2" NCoef="0" IVar="-1" Cut="0.0000000000000000e+00" cType="1" res="-4.4266976416110992e-02" rms="2.4594332277774811e-01" purity="1.6343727707862854e-01" nType="-99"/>
        </Node>
        <Node pos="r" depth="1" NCoef="0" IVar="10" Cut="-2.2665836811065674e+00" cType="1" res="2.5763420853763819e-03" rms="3.0699071288108826e-01" purity="5.2266496419906616e-01" nType="0">
          <Node pos="l" depth="2" NCoef="0" IVar="-1" Cut="0.0000000000000000e+00" cType="1" res="-2.4556886404752731e-02" rms="2.9392942786216736e-01" purity="3.1440287828445435e-01" nType="-99"/>
          <Node pos="r" depth="2" NCoef="0" IVar="8" Cut="1.5046592950820923e+00" cType="1" res="3.2797122839838266e-03" rms="3.0732715129852295e-01" purity="5.2862131595611572e-01" nType="0">
            <Node pos="l" depth="3" NCoef="0" IVar="-1" Cut="0.0000000000000000e+00" cType="1" res="4.6699158847332001e-03" rms="3.1006246805191040e-01" purity="5.5897182226181030e-01" nType="-99"/>
            <Node pos="r" depth="3" NCoef="0" IVar="-1" Cut="0.0000000000000000e+00" cType="1" res="-1.3336169533431530e-02" rms="2.7421998977661133e-01" purity="1.8633034825325012e-01" nType="-99"/>
          </Node>
        </Node>
      </Node>
    </BinaryTree>
    <BinaryTree type="DecisionTree" boostWeight="1.0000000000000000e+00" itree="70">
      <Node pos="s" depth="0" NCoef="0" IVar="7" Cut="1.4722160100936890e+00" cType="1" res="1.0708880145102739e-03" rms="3.0315276980400085e-01" purity="5.0176864862442017e-01" nType="0">
        <Node pos="l" depth="1" NCoef="0" IVar="9" Cut="1.4665985107421875e+00" cType="1" res="2.2218294907361269e-03" rms="3.0834150314331055e-01" purity="5.2702021598815918e-01" nType="0">
          <Node pos="l" depth="2" NCoef="0" IVar="0" Cut="5.5700878906250000e+02" cType="1" res="6.9532392080873251e-04" rms="3.0610892176628113e-01" purity="5.4647755622863770e-01" nType="0">
            <Node pos="l" depth="3" NCoef="0" IVar="-1" Cut="0.0000000000000000e+00" cType="1" res="-1.9944889936596155e-03" rms="3.3132025599479675e-01" purity="3.5606557130813599e-01" nType="-99"/>
            <Node pos="r" depth="3" NCoef="0" IVar="-1" Cut="0.0000000000000000e+00" cType="1" res="8.5406312718987465e-03" rms="2.5458571314811707e-01" purity="8.8827365636825562e-01" nType="-99"/>
          </Node>
          <Node pos="r" depth="2" NCoef="0" IVar="10" Cut="6.6700112819671631e-01" cType="1" res="1.6420558094978333e-02" rms="3.2804125547409058e-01" purity="3.4603857994079590e-01" nType="0">
            <Node pos="l" depth="3" NCoef="0" IVar="-1" Cut="0.0000000000000000e+00" cType="1" res="3.5262305289506912e-02" rms="3.4057313203811646e-01" purity="3.9427819848060608e-01" nType="-99"/>
            <Node pos="r" depth="3" NCoef="0" IVar="-1" Cut="0.0000000000000000e+00" cType="1" res="-1.9283579662442207e-02" rms="3.0082622170448303e-01" purity="2.5807929039001465e-01" nType="-99"/>
          </Node>
        </Node>
        <Node pos="r" depth="1" NCoef="0" IVar="9" Cut="3.9982309937477112e-01" cType="1" res="-1.6993209719657898e-02" rms="2.0434255897998810e-01" purity="1.0544388741254807e-01" nType="0">
          <Node pos="l" depth="2" NCoef="0" IVar="-1" Cut="0.0000000000000000e+00" cType="1" res="-7.7308439649641514e-03" rms="2.3179370164871216e-01" purity="1.3177390396595001e-01" nType="-99"/>
          <Node pos="r" depth="2" NCoef="0" IVar="-1" Cut="0.0000000000000000e+00" cType="1" res="-5.9126969426870346e-02" rms="1.6447755694389343e-01" purity="7.3947712779045105e-02" nType="-99"/>
        </Node>
      </Node>
    </BinaryTree>
    <BinaryTree type="DecisionTree" boostWeight="1.0000000000000000e+00" itree="71">
      <Node pos="s" depth="0" NCoef="0" IVar="8" Cut="-1.9997005462646484e+00" cType="1" res="4.1032223962247372e-03" rms="3.0492803454399109e-01" purity="5.0388091802597046e-01" nType="0">
        <Node pos="l" depth="1" NCoef="0" IVar="-1" Cut="0.0000000000000000e+00" cType="1" res="-4.5853473246097565e-02" rms="2.1536627411842346e-01" purity="7.9666256904602051e-02" nType="-99"/>
        <Node pos="r" depth="1" NCoef="0" IVar="9" Cut="-9.3330341577529907e-01" cType="1" res="5.1412298344075680e-03" rms="3.0727538466453552e-01" purity="5.1728349924087524e-01" nType="0">
          <Node pos="l" depth="2" NCoef="0" IVar="8" Cut="-6.2839949131011963e-01" cType="1" res="-4.0624667890369892e-03" rms="3.1217652559280396e-01" purity="4.0504416823387146e-01" nType="0">
            <Node pos="l" depth="3" NCoef="0" IVar="-1" Cut="0.0000000000000000e+00" cType="1" res="-2.1010231226682663e-02" rms="2.9574111104011536e-01" purity="3.2496318221092224e-01" nType="-99"/>
            <Node pos="r" depth="3" NCoef="0" IVar="-1" Cut="0.0000000000000000e+00" cType="1" res="2.8031305409967899e-03" rms="3.1885543465614319e-01" purity="4.4006028771400452e-01" nType="-99"/>
          </Node>
          <Node pos="r" depth="2" NCoef="0" IVar="8" Cut="2.8582331538200378e-01" cType="1" res="7.4755493551492691e-03" rms="3.0597582459449768e-01" purity="5.4575061798095703e-01" nType="0">
            <Node pos="l" depth="3" NCoef="0" IVar="-1" Cut="0.0000000000000000e+00" cType="1" res="1.1790967546403408e-02" rms="3.0894216895103455e-01" purity="5.8567565679550171e-01" nType="-99"/>
            <Node pos="r" depth="3" NCoef="0" IVar="-1" Cut="0.0000000000000000e+00" cType="1" res="2.3269527591764927e-03" rms="3.0161488056182861e-01" purity="4.8881405591964722e-01" nType="-99"/>
          </Node>
        </Node>
      </Node>
    </BinaryTree>
    <BinaryTree type="DecisionTree" boostWeight="1.0000000000000000e+00" itree="72">
      <Node pos="s" depth="0" NCoef="0" IVar="10" Cut="6.6666281223297119e-01" cType="1" res="1.5137122245505452e-03" rms="3.0531594157218933e-01" purity="5.0334292650222778e-01" nType="0">
        <Node pos="l" depth="1" NCoef="0" IVar="8" Cut="1.1999784708023071e+00" cType="1" res="-1.1857601348310709e-03" rms="3.0355194211006165e-01" purity="5.1405107975006104e-01" nType="0">
          <Node pos="l" depth="2" NCoef="0" IVar="6" Cut="1.4064868164062500e+02" cType="1" res="-3.5774083808064461e-03" rms="3.0182939767837524e-01" purity="5.4112082719802856e-01" nType="0">
            <Node pos="l" depth="3" NCoef="0" IVar="-1" Cut="0.0000000000000000e+00" cType="1" res="-7.7089802362024784e-03" rms="3.2274550199508667e-01" purity="4.1136577725410461e-01" nType="-99"/>
            <Node pos="r" depth="3" NCoef="0" IVar="-1" Cut="0.0000000000000000e+00" cType="1" res="1.5347026288509369e-02" rms="2.3015342652797699e-01" purity="9.1762453317642212e-01" nType="-99"/>
          </Node>
          <Node pos="r" depth="2" NCoef="0" IVar="3" Cut="4.0980401611328125e+02" cType="1" res="1.6886692494153976e-02" rms="3.1567984819412231e-01" purity="3.0949914455413818e-01" nType="0">
            <Node pos="l" depth="3" NCoef="0" IVar="-1" Cut="0.0000000000000000e+00" cType="1" res="3.9360892027616501e-02" rms="3.0905216932296753e-01" purity="2.2622501850128174e-01" nType="-99"/>
            <Node pos="r" depth="3" NCoef="0" IVar="-1" Cut="0.0000000000000000e+00" cType="1" res="-8.1456098705530167e-03" rms="3.2578286528587341e-01" purity="4.6068492531776428e-01" nType="-99"/>
          </Node>
        </Node>
        <Node pos="r" depth="1" NCoef="0" IVar="8" Cut="4.0016460418701172e-01" cType="1" res="7.5594154186546803e-03" rms="3.0914458632469177e-01" purity="4.7936108708381653e-01" nType="0">
          <Node pos="l" depth="2" NCoef="0" IVar="3" Cut="4.4084301757812500e+02" cType="1" res="1.5408776700496674e-02" rms="3.1384912133216858e-01" purity="5.3608679771423340e-01" nType="0">
            <Node pos="l" depth="3" NCoef="0" IVar="-1" Cut="0.0000000000000000e+00" cType="1" res="2.6237957179546356e-02" rms="3.2721278071403503e-01" purity="4.1509273648262024e-01" nType="-99"/>
            <Node pos="r" depth="3" NCoef="0" IVar="-1" Cut="0.0000000000000000e+00" cType="1" res="-3.9567975909449160e-04" rms="2.9167997837066650e-01" purity="7.1986019611358643e-01" nType="-99"/>
          </Node>
          <Node pos="r" depth="2" NCoef="0" IVar="9" Cut="4.0051466226577759e-01" cType="1" res="-4.7030076384544373e-03" rms="3.0123919248580933e-01" purity="3.9074307680130005e-01" nType="0">
            <Node pos="l" depth="3" NCoef="0" IVar="-1" Cut="0.0000000000000000e+00" cType="1" res="7.4227298609912395e-03" rms="3.0992078781127930e-01" purity="4.6400210261344910e-01" nType="-99"/>
            <Node pos="r" depth="3" NCoef="0" IVar="-1" Cut="0.0000000000000000e+00" cType="1" res="-2.2411737591028214e-02" rms="2.8917056322097778e-01" purity="2.9780054092407227e-01" nType="-99"/>
          </Node>
        </Node>
      </Node>
    </BinaryTree>
    <BinaryTree type="DecisionTree" boostWeight="1.0000000000000000e+00" itree="73">
      <Node pos="s" depth="0" NCoef="0" IVar="10" Cut="-1.3329638540744781e-01" cType="1" res="-1.5919109864626080e-04" rms="3.0350816249847412e-01" purity="5.0025290250778198e-01" nType="0">
        <Node pos="l" depth="1" NCoef="0" IVar="10" Cut="-1.4031244516372681e+00" cType="1" res="-4.7363271005451679e-03" rms="3.0180269479751587e-01" purity="4.8744788765907288e-01" nType="0">
          <Node pos="l" depth="2" NCoef="0" IVar="4" Cut="2.3884867858886719e+02" cType="1" res="6.1493269167840481e-03" rms="3.0860191583633423e-01" purity="4.1765409708023071e-01" nType="0">
            <Node pos="l" depth="3" NCoef="0" IVar="-1" Cut="0.0000000000000000e+00" cType="1" res="1.8746675923466682e-02" rms="3.0545848608016968e-01" purity="2.1868924796581268e-01" nType="-99"/>
            <Node pos="r" depth="3" NCoef="0" IVar="-1" Cut="0.0000000000000000e+00" cType="1" res="-8.3797136321663857e-03" rms="3.1257659196853638e-01" purity="7.0947927236557007e-01" nType="-99"/>
          </Node>
          <Node pos="r" depth="2" NCoef="0" IVar="6" Cut="1.3386689758300781e+02" cType="1" res="-9.3991160392761230e-03" rms="2.9872164130210876e-01" purity="5.1734352111816406e-01" nType="0">
            <Node pos="l" depth="3" NCoef="0" IVar="-1" Cut="0.0000000000000000e+00" cType="1" res="-1.5803869813680649e-02" rms="3.1905907392501831e-01" purity="3.6030000448226929e-01" nType="-99"/>
            <Node pos="r" depth="3" NCoef="0" IVar="-1" Cut="0.0000000000000000e+00" cType="1" res="1.0825610719621181e-02" rms="2.4119904637336731e-01" purity="9.0086460113525391e-01" nType="-99"/>
          </Node>
        </Node>
        <Node pos="r" depth="1" NCoef="0" IVar="7" Cut="-1.2760688364505768e-01" cType="1" res="3.6616455763578415e-03" rms="3.0487191677093506e-01" purity="5.1094204187393188e-01" nType="0">
          <Node pos="l" depth="2" NCoef="0" IVar="8" Cut="-9.3334555625915527e-01" cType="1" res="-4.5176446437835693e-03" rms="3.0096378922462463e-01" purity="5.0189626216888428e-01" nType="0">
            <Node pos="l" depth="3" NCoef="0" IVar="-1" Cut="0.0000000000000000e+00" cType="1" res="2.3506717756390572e-02" rms="3.2807731628417969e-01" purity="3.9338609576225281e-01" nType="-99"/>
            <Node pos="r" depth="3" NCoef="0" IVar="-1" Cut="0.0000000000000000e+00" cType="1" res="-1.1588896624743938e-02" rms="2.9402679204940796e-01" purity="5.2687370777130127e-01" nType="-99"/>
          </Node>
          <Node pos="r" depth="2" NCoef="0" IVar="10" Cut="2.8575298190116882e-01" cType="1" res="9.1156857088208199e-03" rms="3.0732932686805725e-01" purity="5.1697373390197754e-01" nType="0">
            <Node pos="l" depth="3" NCoef="0" IVar="-1" Cut="0.0000000000000000e+00" cType="1" res="2.4613033980131149e-02" rms="3.2009258866310120e-01" purity="5.9858781099319458e-01" nType="-99"/>
            <Node pos="r" depth="3" NCoef="0" IVar="-1" Cut="0.0000000000000000e+00" cType="1" res="5.1526352763175964e-03" rms="3.0337050557136536e-01" purity="4.9318811297416687e-01" nType="-99"/>
          </Node>
        </Node>
      </Node>
    </BinaryTree>
    <BinaryTree type="DecisionTree" boostWeight="1.0000000000000000e+00" itree="74">
      <Node pos="s" depth="0" NCoef="0" IVar="8" Cut="1.4665656089782715e+00" cType="1" res="-1.9608295406214893e-04" rms="3.0272421240806580e-01" purity="5.0160312652587891e-01" nType="0">
        <Node pos="l" depth="1" NCoef="0" IVar="2" Cut="2.0917152985930443e-02" cType="1" res="-1.7844764515757561e-03" rms="3.0300846695899963e-01" purity="5.2898550033569336e-01" nType="0">
          <Node pos="l" depth="2" NCoef="0" IVar="3" Cut="6.3790661621093750e+02" cType="1" res="4.3699182569980621e-03" rms="2.9082703590393066e-01" purity="2.6671001315116882e-01" nType="0">
            <Node pos="l" depth="3" NCoef="0" IVar="-1" Cut="0.0000000000000000e+00" cType="1" res="1.0067056864500046e-02" rms="2.7945381402969360e-01" purity="2.1404562890529633e-01" nType="-99"/>
            <Node pos="r" depth="3" NCoef="0" IVar="-1" Cut="0.0000000000000000e+00" cType="1" res="-1.5402634628117085e-02" rms="3.5406601428985596e-01" purity="6.0367125272750854e-01" nType="-99"/>
          </Node>
          <Node pos="r" depth="2" NCoef="0" IVar="1" Cut="1.6287208251953125e+03" cType="1" res="-4.7650961205363274e-03" rms="3.0869120359420776e-01" purity="6.5600752830505371e-01" nType="0">
            <Node pos="l" depth="3" NCoef="0" IVar="-1" Cut="0.0000000000000000e+00" cType="1" res="-8.8725462555885315e-03" rms="3.7165197730064392e-01" purity="3.9754480123519897e-01" nType="-99"/>
            <Node pos="r" depth="3" NCoef="0" IVar="-1" Cut="0.0000000000000000e+00" cType="1" res="6.0317735187709332e-03" rms="2.1920691430568695e-01" purity="9.4032537937164307e-01" nType="-99"/>
          </Node>
        </Node>
        <Node pos="r" depth="1" NCoef="0" IVar="8" Cut="1.9110059738159180e+00" cType="1" res="1.6639059409499168e-02" rms="2.9917716979980469e-01" purity="2.1138098835945129e-01" nType="0">
          <Node pos="l" depth="2" NCoef="0" IVar="-1" Cut="0.0000000000000000e+00" cType="1" res="3.6373455077409744e-02" rms="3.3370691537857056e-01" purity="3.0217325687408447e-01" nType="-99"/>
          <Node pos="r" depth="2" NCoef="0" IVar="-1" Cut="0.0000000000000000e+00" cType="1" res="-9.1516543179750443e-03" rms="2.4804653227329254e-01" purity="9.8799176514148712e-02" nType="-99"/>
        </Node>
      </Node>
    </BinaryTree>
    <BinaryTree type="DecisionTree" boostWeight="1.0000000000000000e+00" itree="75">
      <Node pos="s" depth="0" NCoef="0" IVar="7" Cut="-1.4474570751190186e+00" cType="1" res="-1.1016100324923173e-04" rms="3.0106145143508911e-01" purity="5.0222486257553101e-01" nType="0">
        <Node pos="l" depth="1" NCoef="0" IVar="3" Cut="3.4884600830078125e+02" cType="1" res="-1.6291029751300812e-02" rms="2.1966846287250519e-01" purity="1.0700400173664093e-01" nType="0">
          <Node pos="l" depth="2" NCoef="0" IVar="-1" Cut="0.0000000000000000e+00" cType="1" res="-1.8874672241508961e-03" rms="2.1545058488845825e-01" purity="8.9744500815868378e-02" nType="-99"/>
          <Node pos="r" depth="2" NCoef="0" IVar="-1" Cut="0.0000000000000000e+00" cType="1" res="-5.2486132830381393e-02" rms="2.2377398610115051e-01" purity="1.3183674216270447e-01" nType="-99"/>
        </Node>
        <Node pos="r" depth="1" NCoef="0" IVar="7" Cut="1.7055563628673553e-01" cType="1" res="9.3886913964524865e-04" rms="3.0556133389472961e-01" purity="5.2784758806228638e-01" nType="0">
          <Node pos="l" depth="2" NCoef="0" IVar="10" Cut="1.4664326906204224e+00" cType="1" res="4.8889489844441414e-03" rms="3.1102117896080017e-01" purity="5.7241034507751465e-01" nType="0">
            <Node pos="l" depth="3" NCoef="0" IVar="-1" Cut="0.0000000000000000e+00" cType="1" res="7.7285780571401119e-03" rms="3.1050500273704529e-01" purity="5.8620733022689819e-01" nType="-99"/>
            <Node pos="r" depth="3" NCoef="0" IVar="-1" Cut="0.0000000000000000e+00" cType="1" res="-1.7007300630211830e-02" rms="3.1455397605895996e-01" purity="4.5316284894943237e-01" nType="-99"/>
          </Node>
          <Node pos="r" depth="2" NCoef="0" IVar="9" Cut="-1.4667422771453857e+00" cType="1" res="-3.8642596919089556e-03" rms="2.9871767759323120e-01" purity="4.7366115450859070e-01" nType="0">
            <Node pos="l" depth="3" NCoef="0" IVar="-1" Cut="0.0000000000000000e+00" cType="1" res="-3.0837468802928925e-02" rms="2.8154137730598450e-01" purity="2.4376420676708221e-01" nType="-99"/>
            <Node pos="r" depth="3" NCoef="0" IVar="-1" Cut="0.0000000000000000e+00" cType="1" res="-1.8462673760950565e-03" rms="3.0023896694183350e-01" purity="4.9592283368110657e-01" nType="-99"/>
          </Node>
        </Node>
      </Node>
    </BinaryTree>
    <BinaryTree type="DecisionTree" boostWeight="1.0000000000000000e+00" itree="76">
      <Node pos="s" depth="0" NCoef="0" IVar="9" Cut="-6.6667610406875610e-01" cType="1" res="2.0879348739981651e-03" rms="3.0549326539039612e-01" purity="5.0103962421417236e-01" nType="0">
        <Node pos="l" depth="1" NCoef="0" IVar="5" Cut="1.4135865783691406e+02" cType="1" res="-1.0128241032361984e-02" rms="3.0477654933929443e-01" purity="4.1926676034927368e-01" nType="0">
          <Node pos="l" depth="2" NCoef="0" IVar="10" Cut="9.3335694074630737e-01" cType="1" res="5.8387243188917637e-04" rms="2.9108417034149170e-01" purity="2.0190608501434326e-01" nType="0">
            <Node pos="l" depth="3" NCoef="0" IVar="-1" Cut="0.0000000000000000e+00" cType="1" res="-7.5201783329248428e-03" rms="2.8680717945098877e-01" purity="1.9292449951171875e-01" nType="-99"/>
            <Node pos="r" depth="3" NCoef="0" IVar="-1" Cut="0.0000000000000000e+00" cType="1" res="2.8169045224785805e-02" rms="3.0344679951667786e-01" purity="2.3111042380332947e-01" nType="-99"/>
          </Node>
          <Node pos="r" depth="2" NCoef="0" IVar="0" Cut="4.2762841796875000e+02" cType="1" res="-2.3653179407119751e-02" rms="3.2072111964225769e-01" purity="6.9370275735855103e-01" nType="0">
            <Node pos="l" depth="3" NCoef="0" IVar="-1" Cut="0.0000000000000000e+00" cType="1" res="-3.3862378448247910e-02" rms="3.6582291126251221e-01" purity="3.6366915702819824e-01" nType="-99"/>
            <Node pos="r" depth="3" NCoef="0" IVar="-1" Cut="0.0000000000000000e+00" cType="1" res="-1.3878906145691872e-02" rms="2.9597443342208862e-01" purity="8.5120970010757446e-01" nType="-99"/>
          </Node>
        </Node>
        <Node pos="r" depth="1" NCoef="0" IVar="10" Cut="-3.9999672770500183e-01" cType="1" res="6.7033097147941589e-03" rms="3.0563658475875854e-01" purity="5.3193408250808716e-01" nType="0">
          <Node pos="l" depth="2" NCoef="0" IVar="9" Cut="9.8407703638076782e-01" cType="1" res="1.5249036252498627e-02" rms="3.1309163570404053e-01" purity="5.2919006347656250e-01" nType="0">
            <Node pos="l" depth="3" NCoef="0" IVar="-1" Cut="0.0000000000000000e+00" cType="1" res="8.8249780237674713e-03" rms="3.0262762308120728e-01" purity="5.6369704008102417e-01" nType="-99"/>
            <Node pos="r" depth="3" NCoef="0" IVar="-1" Cut="0.0000000000000000e+00" cType="1" res="3.5493779927492142e-02" rms="3.3974170684814453e-01" purity="4.3325144052505493e-01" nType="-99"/>
          </Node>
          <Node pos="r" depth="2" NCoef="0" IVar="7" Cut="-6.5126192569732666e-01" cType="1" res="1.8328042933717370e-03" rms="3.0119669437408447e-01" purity="5.3349798917770386e-01" nType="0">
            <Node pos="l" depth="3" NCoef="0" IVar="-1" Cut="0.0000000000000000e+00" cType="1" res="-1.5339173376560211e-02" rms="2.8954169154167175e-01" purity="3.8047078251838684e-01" nType="-99"/>
            <Node pos="r" depth="3" NCoef="0" IVar="-1" Cut="0.0000000000000000e+00" cType="1" res="5.8931391686201096e-03" rms="3.0363979935646057e-01" purity="5.6790375709533691e-01" nType="-99"/>
          </Node>
        </Node>
      </Node>
    </BinaryTree>
    <BinaryTree type="DecisionTree" boostWeight="1.0000000000000000e+00" itree="77">
      <Node pos="s" depth="0" NCoef="0" IVar="8" Cut="9.3325120210647583e-01" cType="1" res="4.0262360125780106e-03" rms="3.0522713065147400e-01" purity="5.0486254692077637e-01" nType="0">
        <Node pos="l" depth="1" NCoef="0" IVar="3" Cut="7.5996600341796875e+02" cType="1" res="6.7074089311063290e-03" rms="3.0793994665145874e-01" purity="5.4357439279556274e-01" nType="0">
          <Node pos="l" depth="2" NCoef="0" IVar="3" Cut="4.1331253051757812e+02" cType="1" res="8.4212962538003922e-03" rms="3.0844423174858093e-01" purity="5.2597725391387939e-01" nType="0">
            <Node pos="l" depth="3" NCoef="0" IVar="-1" Cut="0.0000000000000000e+00" cType="1" res="1.4013838022947311e-02" rms="3.2339549064636230e-01" purity="3.8482671976089478e-01" nType="-99"/>
            <Node pos="r" depth="3" NCoef="0" IVar="-1" Cut="0.0000000000000000e+00" cType="1" res="1.5217901673167944e-03" rms="2.8811135888099670e-01" purity="7.0587199926376343e-01" nType="-99"/>
          </Node>
          <Node pos="r" depth="2" NCoef="0" IVar="-1" Cut="0.0000000000000000e+00" cType="1" res="-2.4295097216963768e-02" rms="2.9840475320816040e-01" purity="8.2552939653396606e-01" nType="-99"/>
        </Node>
        <Node pos="r" depth="1" NCoef="0" IVar="0" Cut="5.4462261962890625e+02" cType="1" res="-7.6934588141739368e-03" rms="2.9278647899627686e-01" purity="3.3564898371696472e-01" nType="0">
          <Node pos="l" depth="2" NCoef="0" IVar="4" Cut="2.4375286865234375e+02" cType="1" res="-1.4148556627333164e-02" rms="2.8229796886444092e-01" purity="1.8419346213340759e-01" nType="0">
            <Node pos="l" depth="3" NCoef="0" IVar="-1" Cut="0.0000000000000000e+00" cType="1" res="-1.1982294730842113e-02" rms="2.5369033217430115e-01" purity="1.0727483779191971e-01" nType="-99"/>
            <Node pos="r" depth="3" NCoef="0" IVar="-1" Cut="0.0000000000000000e+00" cType="1" res="-2.3321608081459999e-02" rms="3.5662263631820679e-01" purity="4.2467194795608521e-01" nType="-99"/>
          </Node>
          <Node pos="r" depth="2" NCoef="0" IVar="-1" Cut="0.0000000000000000e+00" cType="1" res="1.1266285553574562e-02" rms="3.2092070579528809e-01" purity="7.8133553266525269e-01" nType="-99"/>
        </Node>
      </Node>
    </BinaryTree>
    <BinaryTree type="DecisionTree" boostWeight="1.0000000000000000e+00" itree="78">
      <Node pos="s" depth="0" NCoef="0" IVar="0" Cut="9.1197814941406250e+02" cType="1" res="-9.4600470038130879e-04" rms="3.0499681830406189e-01" purity="5.0027513504028320e-01" nType="0">
        <Node pos="l" depth="1" NCoef="0" IVar="0" Cut="5.3312792968750000e+02" cType="1" res="-2.0980744156986475e-03" rms="3.1101161241531372e-01" purity="4.6833372116088867e-01" nType="0">
          <Node pos="l" depth="2" NCoef="0" IVar="0" Cut="4.3321383666992188e+02" cType="1" res="-5.4146726615726948e-03" rms="3.2026311755180359e-01" purity="2.9706308245658875e-01" nType="0">
            <Node pos="l" depth="3" NCoef="0" IVar="-1" Cut="0.0000000000000000e+00" cType="1" res="4.9996777670457959e-04" rms="3.0856260657310486e-01" purity="2.2119322419166565e-01" nType="-99"/>
            <Node pos="r" depth="3" NCoef="0" IVar="-1" Cut="0.0000000000000000e+00" cType="1" res="-1.7419012263417244e-02" rms="3.4921887516975403e-01" purity="5.0048941373825073e-01" nType="-99"/>
          </Node>
          <Node pos="r" depth="2" NCoef="0" IVar="4" Cut="1.7048051452636719e+02" cType="1" res="5.0210258923470974e-03" rms="2.9003065824508667e-01" purity="8.3596736192703247e-01" nType="0">
            <Node pos="l" depth="3" NCoef="0" IVar="-1" Cut="0.0000000000000000e+00" cType="1" res="2.1185310557484627e-02" rms="4.2437088489532471e-01" purity="4.4071486592292786e-01" nType="-99"/>
            <Node pos="r" depth="3" NCoef="0" IVar="-1" Cut="0.0000000000000000e+00" cType="1" res="2.3919579107314348e-03" rms="2.7006140351295471e-01" purity="8.8161402940750122e-01" nType="-99"/>
          </Node>
        </Node>
        <Node pos="r" depth="1" NCoef="0" IVar="2" Cut="3.9916194975376129e-02" cType="1" res="1.5395781956613064e-02" rms="2.0045079290866852e-01" purity="9.5335507392883301e-01" nType="0">
          <Node pos="l" depth="2" NCoef="0" IVar="-1" Cut="0.0000000000000000e+00" cType="1" res="3.4333560615777969e-02" rms="2.7079099416732788e-01" purity="9.1195017099380493e-01" nType="-99"/>
          <Node pos="r" depth="2" NCoef="0" IVar="-1" Cut="0.0000000000000000e+00" cType="1" res="2.6576712727546692e-02" rms="1.2527203559875488e-01" purity="9.8366004228591919e-01" nType="-99"/>
        </Node>
      </Node>
    </BinaryTree>
    <BinaryTree type="DecisionTree" boostWeight="1.0000000000000000e+00" itree="79">
      <Node pos="s" depth="0" NCoef="0" IVar="4" Cut="4.2935299682617188e+02" cType="1" res="-1.7373928567394614e-03" rms="3.0553370714187622e-01" purity="4.9809142947196960e-01" nType="0">
        <Node pos="l" depth="1" NCoef="0" IVar="3" Cut="5.8868823242187500e+02" cType="1" res="-3.1794845126569271e-03" rms="3.1020483374595642e-01" purity="4.5788970589637756e-01" nType="0">
          <Node pos="l" depth="2" NCoef="0" IVar="2" Cut="6.3986025750637054e-02" cType="1" res="-7.2972179623320699e-04" rms="3.0980426073074341e-01" purity="4.2601096630096436e-01" nType="0">
            <Node pos="l" depth="3" NCoef="0" IVar="-1" Cut="0.0000000000000000e+00" cType="1" res="3.8232540246099234e-03" rms="3.0679076910018921e-01" purity="2.8658428788185120e-01" nType="-99"/>
            <Node pos="r" depth="3" NCoef="0" IVar="-1" Cut="0.0000000000000000e+00" cType="1" res="-1.0007341392338276e-02" rms="3.1588187813758850e-01" purity="7.2033494710922241e-01" nType="-99"/>
          </Node>
          <Node pos="r" depth="2" NCoef="0" IVar="0" Cut="5.4566687011718750e+02" cType="1" res="-2.1822610870003700e-02" rms="3.1260821223258972e-01" purity="7.0049244165420532e-01" nType="0">
            <Node pos="l" depth="3" NCoef="0" IVar="-1" Cut="0.0000000000000000e+00" cType="1" res="-4.1906673461198807e-02" rms="3.5305020213127136e-01" purity="3.9208063483238220e-01" nType="-99"/>
            <Node pos="r" depth="3" NCoef="0" IVar="-1" Cut="0.0000000000000000e+00" cType="1" res="-9.0337656438350677e-03" rms="2.9219880700111389e-01" purity="8.3436965942382812e-01" nType="-99"/>
          </Node>
        </Node>
        <Node pos="r" depth="1" NCoef="0" IVar="8" Cut="1.3452270627021790e-01" cType="1" res="1.2219261378049850e-02" rms="2.5553855299949646e-01" purity="8.8716584444046021e-01" nType="0">
          <Node pos="l" depth="2" NCoef="0" IVar="-1" Cut="0.0000000000000000e+00" cType="1" res="3.0501114204525948e-02" rms="2.4450688064098358e-01" purity="9.0007400512695312e-01" nType="-99"/>
          <Node pos="r" depth="2" NCoef="0" IVar="-1" Cut="0.0000000000000000e+00" cType="1" res="-2.5766422040760517e-03" rms="2.7043288946151733e-01" purity="8.6805546283721924e-01" nType="-99"/>
        </Node>
      </Node>
    </BinaryTree>
    <BinaryTree type="DecisionTree" boostWeight="1.0000000000000000e+00" itree="80">
      <Node pos="s" depth="0" NCoef="0" IVar="5" Cut="2.1478007507324219e+02" cType="1" res="-1.6268778126686811e-03" rms="2.9930591583251953e-01" purity="4.9894541501998901e-01" nType="0">
        <Node pos="l" depth="1" NCoef="0" IVar="9" Cut="9.3312209844589233e-01" cType="1" res="-4.1433563455939293e-03" rms="3.1587642431259155e-01" purity="3.7029361724853516e-01" nType="0">
          <Node pos="l" depth="2" NCoef="0" IVar="5" Cut="1.4418515014648438e+02" cType="1" res="-7.4235042557120323e-03" rms="3.1556791067123413e-01" purity="3.8593724370002747e-01" nType="0">
            <Node pos="l" depth="3" NCoef="0" IVar="-1" Cut="0.0000000000000000e+00" cType="1" res="-3.2092104665935040e-03" rms="3.0479168891906738e-01" purity="2.2976025938987732e-01" nType="-99"/>
            <Node pos="r" depth="3" NCoef="0" IVar="-1" Cut="0.0000000000000000e+00" cType="1" res="-1.3493366539478302e-02" rms="3.3444827795028687e-01" purity="6.7502641677856445e-01" nType="-99"/>
          </Node>
          <Node pos="r" depth="2" NCoef="0" IVar="7" Cut="9.7289758920669556e-01" cType="1" res="6.2363040633499622e-03" rms="3.1662696599960327e-01" purity="3.2079112529754639e-01" nType="0">
            <Node pos="l" depth="3" NCoef="0" IVar="-1" Cut="0.0000000000000000e+00" cType="1" res="1.1522937566041946e-02" rms="3.3410778641700745e-01" purity="3.7674391269683838e-01" nType="-99"/>
            <Node pos="r" depth="3" NCoef="0" IVar="-1" Cut="0.0000000000000000e+00" cType="1" res="-2.4742519482970238e-02" rms="2.3770245909690857e-01" purity="1.0872381925582886e-01" nType="-99"/>
          </Node>
        </Node>
        <Node pos="r" depth="1" NCoef="0" IVar="2" Cut="8.0564871430397034e-02" cType="1" res="6.2236934900283813e-03" rms="2.4021056294441223e-01" purity="9.0029597282409668e-01" nType="0">
          <Node pos="l" depth="2" NCoef="0" IVar="9" Cut="6.6265803575515747e-01" cType="1" res="-1.1491336626932025e-03" rms="2.8009620308876038e-01" purity="8.4649604558944702e-01" nType="0">
            <Node pos="l" depth="3" NCoef="0" IVar="-1" Cut="0.0000000000000000e+00" cType="1" res="6.6860094666481018e-03" rms="2.7376785874366760e-01" purity="8.6253869533538818e-01" nType="-99"/>
            <Node pos="r" depth="3" NCoef="0" IVar="-1" Cut="0.0000000000000000e+00" cType="1" res="-2.6644490659236908e-02" rms="3.0053240060806274e-01" purity="7.8887194395065308e-01" nType="-99"/>
          </Node>
          <Node pos="r" depth="2" NCoef="0" IVar="-1" Cut="0.0000000000000000e+00" cType="1" res="3.4266408532857895e-02" rms="1.8200796842575073e-01" purity="9.6364146471023560e-01" nType="-99"/>
        </Node>
      </Node>
    </BinaryTree>
    <BinaryTree type="DecisionTree" boostWeight="1.0000000000000000e+00" itree="81">
      <Node pos="s" depth="0" NCoef="0" IVar="9" Cut="1.9999766349792480e+00" cType="1" res="-1.7145894526038319e-04" rms="3.0232405662536621e-01" purity="4.9988663196563721e-01" nType="0">
        <Node pos="l" depth="1" NCoef="0" IVar="8" Cut="6.6671782732009888e-01" cType="1" res="6.7345023853704333e-04" rms="3.0318000912666321e-01" purity="5.1251977682113647e-01" nType="0">
          <Node pos="l" depth="2" NCoef="0" IVar="8" Cut="-1.1490844488143921e+00" cType="1" res="3.3479845151305199e-03" rms="3.0276882648468018e-01" purity="5.5130541324615479e-01" nType="0">
            <Node pos="l" depth="3" NCoef="0" IVar="-1" Cut="0.0000000000000000e+00" cType="1" res="-9.5372013747692108e-03" rms="2.9570248723030090e-01" purity="2.8360527753829956e-01" nType="-99"/>
            <Node pos="r" depth="3" NCoef="0" IVar="-1" Cut="0.0000000000000000e+00" cType="1" res="6.3751619309186935e-03" rms="3.0426502227783203e-01" purity="6.1122512817382812e-01" nType="-99"/>
          </Node>
          <Node pos="r" depth="2" NCoef="0" IVar="10" Cut="1.1999706029891968e+00" cType="1" res="-7.2203236632049084e-03" rms="3.0425330996513367e-01" purity="3.9804553985595703e-01" nType="0">
            <Node pos="l" depth="3" NCoef="0" IVar="-1" Cut="0.0000000000000000e+00" cType="1" res="-3.4130583517253399e-03" rms="3.0808487534523010e-01" purity="4.2901429533958435e-01" nType="-99"/>
            <Node pos="r" depth="3" NCoef="0" IVar="-1" Cut="0.0000000000000000e+00" cType="1" res="-2.5214999914169312e-02" rms="2.8917589783668518e-01" purity="2.8359416127204895e-01" nType="-99"/>
          </Node>
        </Node>
        <Node pos="r" depth="1" NCoef="0" IVar="-1" Cut="0.0000000000000000e+00" cType="1" res="-2.3361038416624069e-02" rms="2.8111532330513000e-01" purity="2.0796373486518860e-01" nType="-99"/>
      </Node>
    </BinaryTree>
    <BinaryTree type="DecisionTree" boostWeight="1.0000000000000000e+00" itree="82">
      <Node pos="s" depth="0" NCoef="0" IVar="10" Cut="-2.2666623592376709e+00" cType="1" res="-1.4959654072299600e-03" rms="3.0081784725189209e-01" purity="4.9820289015769958e-01" nType="0">
        <Node pos="l" depth="1" NCoef="0" IVar="-1" Cut="0.0000000000000000e+00" cType="1" res="-3.3875454217195511e-02" rms="2.6599097251892090e-01" purity="2.5558632612228394e-01" nType="-99"/>
        <Node pos="r" depth="1" NCoef="0" IVar="6" Cut="1.2018177795410156e+02" cType="1" res="-6.3652778044342995e-04" rms="3.0178582668304443e-01" purity="5.0567591190338135e-01" nType="0">
          <Node pos="l" depth="2" NCoef="0" IVar="6" Cut="6.3367954254150391e+01" cType="1" res="-3.2297666184604168e-03" rms="3.1681418418884277e-01" purity="3.4323319792747498e-01" nType="0">
            <Node pos="l" depth="3" NCoef="0" IVar="-1" Cut="0.0000000000000000e+00" cType="1" res="-1.3809728436172009e-02" rms="2.6943236589431763e-01" purity="1.7450995743274689e-01" nType="-99"/>
            <Node pos="r" depth="3" NCoef="0" IVar="-1" Cut="0.0000000000000000e+00" cType="1" res="3.2487299176864326e-04" rms="3.3724546432495117e-01" purity="4.2464450001716614e-01" nType="-99"/>
          </Node>
          <Node pos="r" depth="2" NCoef="0" IVar="10" Cut="-1.0600506067276001e+00" cType="1" res="5.0177089869976044e-03" rms="2.6600393652915955e-01" purity="8.5986208915710449e-01" nType="0">
            <Node pos="l" depth="3" NCoef="0" IVar="-1" Cut="0.0000000000000000e+00" cType="1" res="-2.5825496762990952e-02" rms="2.8387916088104248e-01" purity="8.1370544433593750e-01" nType="-99"/>
            <Node pos="r" depth="3" NCoef="0" IVar="-1" Cut="0.0000000000000000e+00" cType="1" res="1.2531192973256111e-02" rms="2.6259857416152954e-01" purity="8.6769860982894897e-01" nType="-99"/>
          </Node>
        </Node>
      </Node>
    </BinaryTree>
    <BinaryTree type="DecisionTree" boostWeight="1.0000000000000000e+00" itree="83">
      <Node pos="s" depth="0" NCoef="0" IVar="9" Cut="-1.2000291347503662e+00" cType="1" res="1.6082018555607647e-04" rms="3.0176770687103271e-01" purity="4.9930348992347717e-01" nType="0">
        <Node pos="l" depth="1" NCoef="0" IVar="0" Cut="4.2763146972656250e+02" cType="1" res="1.4277096837759018e-02" rms="3.1128868460655212e-01" purity="3.6355391144752502e-01" nType="0">
          <Node pos="l" depth="2" NCoef="0" IVar="10" Cut="-9.3275028467178345e-01" cType="1" res="9.0607361926231533e-05" rms="2.7257803082466125e-01" purity="1.3598956167697906e-01" nType="0">
            <Node pos="l" depth="3" NCoef="0" IVar="-1" Cut="0.0000000000000000e+00" cType="1" res="-4.6178247779607773e-02" rms="2.1957437694072723e-01" purity="6.7989312112331390e-02" nType="-99"/>
            <Node pos="r" depth="3" NCoef="0" IVar="-1" Cut="0.0000000000000000e+00" cType="1" res="1.5674721449613571e-02" rms="2.9209527373313904e-01" purity="1.6606342792510986e-01" nType="-99"/>
          </Node>
          <Node pos="r" depth="2" NCoef="0" IVar="4" Cut="2.0742761230468750e+02" cType="1" res="3.0496893450617790e-02" rms="3.4964096546173096e-01" purity="6.2373441457748413e-01" nType="0">
            <Node pos="l" depth="3" NCoef="0" IVar="-1" Cut="0.0000000000000000e+00" cType="1" res="5.4586522281169891e-02" rms="3.7379610538482666e-01" purity="3.9656177163124084e-01" nType="-99"/>
            <Node pos="r" depth="3" NCoef="0" IVar="-1" Cut="0.0000000000000000e+00" cType="1" res="5.0300718285143375e-03" rms="3.3048027753829956e-01" purity="7.7271276712417603e-01" nType="-99"/>
          </Node>
        </Node>
        <Node pos="r" depth="1" NCoef="0" IVar="9" Cut="1.6570584774017334e+00" cType="1" res="-2.4223746731877327e-03" rms="2.9992079734802246e-01" purity="5.2414488792419434e-01" nType="0">
          <Node pos="l" depth="2" NCoef="0" IVar="4" Cut="3.3693667602539062e+02" cType="1" res="-4.1236833203583956e-04" rms="3.0154559016227722e-01" purity="5.5161821842193604e-01" nType="0">
            <Node pos="l" depth="3" NCoef="0" IVar="-1" Cut="0.0000000000000000e+00" cType="1" res="-3.5649398341774940e-03" rms="3.1797716021537781e-01" purity="4.3425413966178894e-01" nType="-99"/>
            <Node pos="r" depth="3" NCoef="0" IVar="-1" Cut="0.0000000000000000e+00" cType="1" res="1.2372722849249840e-02" rms="2.4922148883342743e-01" purity="8.8262903690338135e-01" nType="-99"/>
          </Node>
          <Node pos="r" depth="2" NCoef="0" IVar="6" Cut="8.4004928588867188e+01" cType="1" res="-2.3624062538146973e-02" rms="2.8134009242057800e-01" purity="2.3435416817665100e-01" nType="0">
            <Node pos="l" depth="3" NCoef="0" IVar="-1" Cut="0.0000000000000000e+00" cType="1" res="-1.7955416813492775e-02" rms="2.4924935400485992e-01" purity="1.2157227098941803e-01" nType="-99"/>
            <Node pos="r" depth="3" NCoef="0" IVar="-1" Cut="0.0000000000000000e+00" cType="1" res="-3.8302980363368988e-02" rms="3.2968863844871521e-01" purity="4.3450954556465149e-01" nType="-99"/>
          </Node>
        </Node>
      </Node>
    </BinaryTree>
    <BinaryTree type="DecisionTree" boostWeight="1.0000000000000000e+00" itree="84">
      <Node pos="s" depth="0" NCoef="0" IVar="6" Cut="1.0546742248535156e+02" cType="1" res="1.1589083587750793e-03" rms="3.0283612012863159e-01" purity="5.0145053863525391e-01" nType="0">
        <Node pos="l" depth="1" NCoef="0" IVar="5" Cut="1.4133175659179688e+02" cType="1" res="-1.8361300462856889e-03" rms="3.1354618072509766e-01" purity="2.9866659641265869e-01" nType="0">
          <Node pos="l" depth="2" NCoef="0" IVar="5" Cut="1.2394593048095703e+02" cType="1" res="2.1145371720194817e-03" rms="2.9606977105140686e-01" purity="1.9336348772048950e-01" nType="0">
            <Node pos="l" depth="3" NCoef="0" IVar="-1" Cut="0.0000000000000000e+00" cType="1" res="-1.5797422965988517e-03" rms="2.8465583920478821e-01" purity="1.6299806535243988e-01" nType="-99"/>
            <Node pos="r" depth="3" NCoef="0" IVar="-1" Cut="0.0000000000000000e+00" cType="1" res="1.9075529649853706e-02" rms="3.6184480786323547e-01" purity="3.9424726366996765e-01" nType="-99"/>
          </Node>
          <Node pos="r" depth="2" NCoef="0" IVar="8" Cut="-6.6623866558074951e-01" cType="1" res="-1.2745794840157032e-02" rms="3.5716882348060608e-01" purity="5.8945840597152710e-01" nType="0">
            <Node pos="l" depth="3" NCoef="0" IVar="-1" Cut="0.0000000000000000e+00" cType="1" res="-2.8902927413582802e-02" rms="3.5403004288673401e-01" purity="4.8236712813377380e-01" nType="-99"/>
            <Node pos="r" depth="3" NCoef="0" IVar="-1" Cut="0.0000000000000000e+00" cType="1" res="-3.9861961267888546e-03" rms="3.5780301690101624e-01" purity="6.2331545352935791e-01" nType="-99"/>
          </Node>
        </Node>
        <Node pos="r" depth="1" NCoef="0" IVar="7" Cut="-1.1321511268615723e+00" cType="1" res="5.8112661354243755e-03" rms="2.8534135222434998e-01" purity="8.1644594669342041e-01" nType="0">
          <Node pos="l" depth="2" NCoef="0" IVar="-1" Cut="0.0000000000000000e+00" cType="1" res="2.7000742033123970e-02" rms="3.7807950377464294e-01" purity="5.4136788845062256e-01" nType="-99"/>
          <Node pos="r" depth="2" NCoef="0" IVar="5" Cut="1.4817755126953125e+02" cType="1" res="3.6560941953212023e-03" rms="2.7727165818214417e-01" purity="8.3643847703933716e-01" nType="0">
            <Node pos="l" depth="3" NCoef="0" IVar="-1" Cut="0.0000000000000000e+00" cType="1" res="-1.6750842332839966e-02" rms="3.5880970954895020e-01" purity="5.4423528909683228e-01" nType="-99"/>
            <Node pos="r" depth="3" NCoef="0" IVar="-1" Cut="0.0000000000000000e+00" cType="1" res="1.0572200641036034e-02" rms="2.6283296942710876e-01" purity="8.7967830896377563e-01" nType="-99"/>
          </Node>
        </Node>
      </Node>
    </BinaryTree>
    <BinaryTree type="DecisionTree" boostWeight="1.0000000000000000e+00" itree="85">
      <Node pos="s" depth="0" NCoef="0" IVar="8" Cut="-4.0006798505783081e-01" cType="1" res="-3.0416558729484677e-04" rms="3.0433106422424316e-01" purity="4.9928656220436096e-01" nType="0">
        <Node pos="l" depth="1" NCoef="0" IVar="10" Cut="-1.3333226740360260e-01" cType="1" res="-6.8928003311157227e-03" rms="3.0123698711395264e-01" purity="4.3853846192359924e-01" nType="0">
          <Node pos="l" depth="2" NCoef="0" IVar="10" Cut="-1.6571531295776367e+00" cType="1" res="-1.3780916109681129e-02" rms="2.9978784918785095e-01" purity="3.9699047803878784e-01" nType="0">
            <Node pos="l" depth="3" NCoef="0" IVar="-1" Cut="0.0000000000000000e+00" cType="1" res="1.1025340296328068e-02" rms="3.0147179961204529e-01" purity="3.1850418448448181e-01" nType="-99"/>
            <Node pos="r" depth="3" NCoef="0" IVar="-1" Cut="0.0000000000000000e+00" cType="1" res="-2.3076189681887627e-02" rms="2.9889583587646484e-01" purity="4.2133188247680664e-01" nType="-99"/>
          </Node>
          <Node pos="r" depth="2" NCoef="0" IVar="7" Cut="1.5954068303108215e-01" cType="1" res="-7.1691829361952841e-05" rms="3.0251067876815796e-01" purity="4.7968226671218872e-01" nType="0">
            <Node pos="l" depth="3" NCoef="0" IVar="-1" Cut="0.0000000000000000e+00" cType="1" res="1.1433131992816925e-02" rms="3.1082260608673096e-01" purity="5.1414358615875244e-01" nType="-99"/>
            <Node pos="r" depth="3" NCoef="0" IVar="-1" Cut="0.0000000000000000e+00" cType="1" res="-1.5601497143507004e-02" rms="2.9078131914138794e-01" purity="4.3508449196815491e-01" nType="-99"/>
          </Node>
        </Node>
        <Node pos="r" depth="1" NCoef="0" IVar="10" Cut="1.3333526253700256e-01" cType="1" res="3.1869213562458754e-03" rms="3.0590030550956726e-01" purity="5.3147488832473755e-01" nType="0">
          <Node pos="l" depth="2" NCoef="0" IVar="5" Cut="1.7971090698242188e+02" cType="1" res="1.1025491170585155e-02" rms="3.1253355741500854e-01" purity="5.5490678548812866e-01" nType="0">
            <Node pos="l" depth="3" NCoef="0" IVar="-1" Cut="0.0000000000000000e+00" cType="1" res="1.7934972420334816e-02" rms="3.3790126442909241e-01" purity="3.5932099819183350e-01" nType="-99"/>
            <Node pos="r" depth="3" NCoef="0" IVar="-1" Cut="0.0000000000000000e+00" cType="1" res="-1.7125700833275914e-03" rms="2.6697346568107605e-01" purity="8.6496007442474365e-01" nType="-99"/>
          </Node>
          <Node pos="r" depth="2" NCoef="0" IVar="1" Cut="1.9049440917968750e+03" cType="1" res="-5.1151439547538757e-03" rms="2.9848989844322205e-01" purity="5.0665742158889771e-01" nType="0">
            <Node pos="l" depth="3" NCoef="0" IVar="-1" Cut="0.0000000000000000e+00" cType="1" res="-9.5561305060982704e-03" rms="3.2258504629135132e-01" purity="3.5992714762687683e-01" nType="-99"/>
            <Node pos="r" depth="3" NCoef="0" IVar="-1" Cut="0.0000000000000000e+00" cType="1" res="1.7488988116383553e-02" rms="2.1168966591358185e-01" purity="9.3819004297256470e-01" nType="-99"/>
          </Node>
        </Node>
      </Node>
    </BinaryTree>
    <BinaryTree type="DecisionTree" boostWeight="1.0000000000000000e+00" itree="86">
      <Node pos="s" depth="0" NCoef="0" IVar="2" Cut="2.1328821778297424e-02" cType="1" res="1.7010519513860345e-03" rms="3.0591404438018799e-01" purity="5.0353538990020752e-01" nType="0">
        <Node pos="l" depth="1" NCoef="0" IVar="7" Cut="-8.9949804544448853e-01" cType="1" res="9.2200832441449165e-03" rms="2.9104790091514587e-01" purity="2.5679427385330200e-01" nType="0">
          <Node pos="l" depth="2" NCoef="0" IVar="3" Cut="3.9179974365234375e+02" cType="1" res="-9.7763249650597572e-03" rms="2.4066132307052612e-01" purity="1.1001724749803543e-01" nType="0">
            <Node pos="l" depth="3" NCoef="0" IVar="-1" Cut="0.0000000000000000e+00" cType="1" res="5.9655024670064449e-03" rms="2.2217255830764771e-01" purity="7.4041910469532013e-02" nType="-99"/>
            <Node pos="r" depth="3" NCoef="0" IVar="-1" Cut="0.0000000000000000e+00" cType="1" res="-3.4959599375724792e-02" rms="2.6725503802299500e-01" purity="1.6981489956378937e-01" nType="-99"/>
          </Node>
          <Node pos="r" depth="2" NCoef="0" IVar="1" Cut="1.1001365966796875e+03" cType="1" res="1.5760667622089386e-02" rms="3.0621260404586792e-01" purity="3.0733054876327515e-01" nType="0">
            <Node pos="l" depth="3" NCoef="0" IVar="-1" Cut="0.0000000000000000e+00" cType="1" res="-1.0530401952564716e-02" rms="1.6259585320949554e-01" purity="2.9171798378229141e-02" nType="-99"/>
            <Node pos="r" depth="3" NCoef="0" IVar="-1" Cut="0.0000000000000000e+00" cType="1" res="2.0488321781158447e-02" rms="3.5735121369361877e-01" purity="4.4866028428077698e-01" nType="-99"/>
          </Node>
        </Node>
        <Node pos="r" depth="1" NCoef="0" IVar="7" Cut="8.9245074987411499e-01" cType="1" res="-2.6078345254063606e-03" rms="3.1403523683547974e-01" purity="6.4493387937545776e-01" nType="0">
          <Node pos="l" depth="2" NCoef="0" IVar="1" Cut="1.9049477539062500e+03" cType="1" res="-5.3490218706429005e-03" rms="3.0938836932182312e-01" purity="6.6175329685211182e-01" nType="0">
            <Node pos="l" depth="3" NCoef="0" IVar="-1" Cut="0.0000000000000000e+00" cType="1" res="-7.5488728471100330e-03" rms="3.5583508014678955e-01" purity="5.1846808195114136e-01" nType="-99"/>
            <Node pos="r" depth="3" NCoef="0" IVar="-1" Cut="0.0000000000000000e+00" cType="1" res="8.0415792763233185e-03" rms="1.7340941727161407e-01" purity="9.6576362848281860e-01" nType="-99"/>
          </Node>
          <Node pos="r" depth="2" NCoef="0" IVar="1" Cut="1.4195327148437500e+03" cType="1" res="2.1044919267296791e-02" rms="3.5070034861564636e-01" purity="4.9980485439300537e-01" nType="0">
            <Node pos="l" depth="3" NCoef="0" IVar="-1" Cut="0.0000000000000000e+00" cType="1" res="3.1557075679302216e-02" rms="3.6119273304939270e-01" purity="2.3658213019371033e-01" nType="-99"/>
            <Node pos="r" depth="3" NCoef="0" IVar="-1" Cut="0.0000000000000000e+00" cType="1" res="2.6504998095333576e-03" rms="3.3684253692626953e-01" purity="8.1464958190917969e-01" nType="-99"/>
          </Node>
        </Node>
      </Node>
    </BinaryTree>
    <BinaryTree type="DecisionTree" boostWeight="1.0000000000000000e+00" itree="87">
      <Node pos="s" depth="0" NCoef="0" IVar="3" Cut="8.7728472900390625e+02" cType="1" res="2.0608683116734028e-03" rms="3.0226948857307434e-01" purity="5.0645661354064941e-01" nType="0">
        <Node pos="l" depth="1" NCoef="0" IVar="5" Cut="1.2362118530273438e+02" cType="1" res="3.1048839446157217e-03" rms="3.0223920941352844e-01" purity="4.9765309691429138e-01" nType="0">
          <Node pos="l" depth="2" NCoef="0" IVar="8" Cut="-3.9997410774230957e-01" cType="1" res="-2.7359744999557734e-03" rms="2.8234469890594482e-01" purity="1.6975656151771545e-01" nType="0">
            <Node pos="l" depth="3" NCoef="0" IVar="-1" Cut="0.0000000000000000e+00" cType="1" res="1.2462730519473553e-02" rms="2.8627809882164001e-01" purity="1.6630648076534271e-01" nType="-99"/>
            <Node pos="r" depth="3" NCoef="0" IVar="-1" Cut="0.0000000000000000e+00" cType="1" res="-1.2527697719633579e-02" rms="2.7955922484397888e-01" purity="1.7193032801151276e-01" nType="-99"/>
          </Node>
          <Node pos="r" depth="2" NCoef="0" IVar="9" Cut="6.6653007268905640e-01" cType="1" res="7.0989583618938923e-03" rms="3.1505876779556274e-01" purity="7.2187411785125732e-01" nType="0">
            <Node pos="l" depth="3" NCoef="0" IVar="-1" Cut="0.0000000000000000e+00" cType="1" res="1.1619196273386478e-02" rms="3.1265178322792053e-01" purity="7.4117410182952881e-01" nType="-99"/>
            <Node pos="r" depth="3" NCoef="0" IVar="-1" Cut="0.0000000000000000e+00" cType="1" res="-5.2396105602383614e-03" rms="3.2160538434982300e-01" purity="6.6594612598419189e-01" nType="-99"/>
          </Node>
        </Node>
        <Node pos="r" depth="1" NCoef="0" IVar="-1" Cut="0.0000000000000000e+00" cType="1" res="-4.4914510101079941e-02" rms="3.0081254243850708e-01" purity="8.3540284633636475e-01" nType="-99"/>
      </Node>
    </BinaryTree>
    <BinaryTree type="DecisionTree" boostWeight="1.0000000000000000e+00" itree="88">
      <Node pos="s" depth="0" NCoef="0" IVar="2" Cut="4.2633190751075745e-02" cType="1" res="-1.7824389215093106e-04" rms="3.0360588431358337e-01" purity="5.0058877468109131e-01" nType="0">
        <Node pos="l" depth="1" NCoef="0" IVar="0" Cut="6.0413482666015625e+02" cType="1" res="5.0467434339225292e-03" rms="3.0675971508026123e-01" purity="3.2402276992797852e-01" nType="0">
          <Node pos="l" depth="2" NCoef="0" IVar="0" Cut="5.1723815917968750e+02" cType="1" res="8.2966545596718788e-03" rms="3.0302697420120239e-01" purity="2.0471927523612976e-01" nType="0">
            <Node pos="l" depth="3" NCoef="0" IVar="-1" Cut="0.0000000000000000e+00" cType="1" res="6.4188716933131218e-03" rms="2.8996309638023376e-01" purity="1.6325482726097107e-01" nType="-99"/>
            <Node pos="r" depth="3" NCoef="0" IVar="-1" Cut="0.0000000000000000e+00" cType="1" res="2.2134754806756973e-02" rms="3.8824680447578430e-01" purity="5.2333217859268188e-01" nType="-99"/>
          </Node>
          <Node pos="r" depth="2" NCoef="0" IVar="6" Cut="8.5091407775878906e+01" cType="1" res="-7.9070674255490303e-03" rms="3.2088038325309753e-01" purity="7.9955434799194336e-01" nType="0">
            <Node pos="l" depth="3" NCoef="0" IVar="-1" Cut="0.0000000000000000e+00" cType="1" res="-1.5360455028712749e-02" rms="3.9247196912765503e-01" purity="6.4404308795928955e-01" nType="-99"/>
            <Node pos="r" depth="3" NCoef="0" IVar="-1" Cut="0.0000000000000000e+00" cType="1" res="2.2745211608707905e-03" rms="2.6436489820480347e-01" purity="8.9955466985702515e-01" nType="-99"/>
          </Node>
        </Node>
        <Node pos="r" depth="1" NCoef="0" IVar="1" Cut="1.5644871826171875e+03" cType="1" res="-6.6808923147618771e-03" rms="2.9950720071792603e-01" purity="7.2033017873764038e-01" nType="0">
          <Node pos="l" depth="2" NCoef="0" IVar="10" Cut="9.3373566865921021e-01" cType="1" res="-1.8452608957886696e-02" rms="3.8493180274963379e-01" purity="4.3233776092529297e-01" nType="0">
            <Node pos="l" depth="3" NCoef="0" IVar="-1" Cut="0.0000000000000000e+00" cType="1" res="-1.9087754189968109e-02" rms="3.8320112228393555e-01" purity="4.3020239472389221e-01" nType="-99"/>
            <Node pos="r" depth="3" NCoef="0" IVar="-1" Cut="0.0000000000000000e+00" cType="1" res="4.9438714049756527e-03" rms="3.8865324854850769e-01" purity="4.3840134143829346e-01" nType="-99"/>
          </Node>
          <Node pos="r" depth="2" NCoef="0" IVar="8" Cut="3.5894176363945007e-01" cType="1" res="2.6342121418565512e-03" rms="2.0794652402400970e-01" purity="9.4822216033935547e-01" nType="0">
            <Node pos="l" depth="3" NCoef="0" IVar="-1" Cut="0.0000000000000000e+00" cType="1" res="1.3586559332907200e-02" rms="2.0177711546421051e-01" purity="9.5264029502868652e-01" nType="-99"/>
            <Node pos="r" depth="3" NCoef="0" IVar="-1" Cut="0.0000000000000000e+00" cType="1" res="-1.2611986137926579e-02" rms="2.2177472710609436e-01" purity="9.3765389919281006e-01" nType="-99"/>
          </Node>
        </Node>
      </Node>
    </BinaryTree>
    <BinaryTree type="DecisionTree" boostWeight="1.0000000000000000e+00" itree="89">
      <Node pos="s" depth="0" NCoef="0" IVar="5" Cut="1.6113958740234375e+02" cType="1" res="4.2240739276167005e-05" rms="3.0581364035606384e-01" purity="4.9879729747772217e-01" nType="0">
        <Node pos="l" depth="1" NCoef="0" IVar="10" Cut="1.4666588306427002e+00" cType="1" res="4.5136115513741970e-03" rms="3.1532332301139832e-01" purity="2.7283930778503418e-01" nType="0">
          <Node pos="l" depth="2" NCoef="0" IVar="10" Cut="-7.6825761795043945e-01" cType="1" res="1.9815787672996521e-03" rms="3.1423625349998474e-01" purity="2.7788865566253662e-01" nType="0">
            <Node pos="l" depth="3" NCoef="0" IVar="-1" Cut="0.0000000000000000e+00" cType="1" res="1.2535098940134048e-02" rms="3.1689226627349854e-01" purity="2.6232349872589111e-01" nType="-99"/>
            <Node pos="r" depth="3" NCoef="0" IVar="-1" Cut="0.0000000000000000e+00" cType="1" res="-3.3334046602249146e-03" rms="3.1264847517013550e-01" purity="2.8637889027595520e-01" nType="-99"/>
          </Node>
          <Node pos="r" depth="2" NCoef="0" IVar="5" Cut="9.7666374206542969e+01" cType="1" res="1.9727213308215141e-02" rms="3.2135784626007080e-01" purity="2.4250032007694244e-01" nType="0">
            <Node pos="l" depth="3" NCoef="0" IVar="-1" Cut="0.0000000000000000e+00" cType="1" res="6.0434635728597641e-02" rms="2.9011911153793335e-01" purity="1.4044994115829468e-01" nType="-99"/>
            <Node pos="r" depth="3" NCoef="0" IVar="-1" Cut="0.0000000000000000e+00" cType="1" res="3.0624400824308395e-03" rms="3.4684541821479797e-01" purity="3.3645170927047729e-01" nType="-99"/>
          </Node>
        </Node>
        <Node pos="r" depth="1" NCoef="0" IVar="0" Cut="5.7809020996093750e+02" cType="1" res="-6.1379070393741131e-03" rms="2.9204788804054260e-01" purity="8.1110733747482300e-01" nType="0">
          <Node pos="l" depth="2" NCoef="0" IVar="0" Cut="3.5297082519531250e+02" cType="1" res="-1.3184073381125927e-02" rms="3.6230438947677612e-01" purity="6.7399919033050537e-01" nType="0">
            <Node pos="l" depth="3" NCoef="0" IVar="-1" Cut="0.0000000000000000e+00" cType="1" res="-2.0569961518049240e-02" rms="4.0544208884239197e-01" purity="3.9420443773269653e-01" nType="-99"/>
            <Node pos="r" depth="3" NCoef="0" IVar="-1" Cut="0.0000000000000000e+00" cType="1" res="-6.6838795319199562e-03" rms="3.4926578402519226e-01" purity="7.5128901004791260e-01" nType="-99"/>
          </Node>
          <Node pos="r" depth="2" NCoef="0" IVar="4" Cut="2.5149531555175781e+02" cType="1" res="1.2174790026620030e-03" rms="1.9286276400089264e-01" purity="9.5423233509063721e-01" nType="0">
            <Node pos="l" depth="3" NCoef="0" IVar="-1" Cut="0.0000000000000000e+00" cType="1" res="-1.0963605716824532e-02" rms="2.6621073484420776e-01" purity="9.0156859159469604e-01" nType="-99"/>
            <Node pos="r" depth="3" NCoef="0" IVar="-1" Cut="0.0000000000000000e+00" cType="1" res="8.1786839291453362e-03" rms="1.7629410326480865e-01" purity="9.6377313137054443e-01" nType="-99"/>
          </Node>
        </Node>
      </Node>
    </BinaryTree>
    <BinaryTree type="DecisionTree" boostWeight="1.0000000000000000e+00" itree="90">
      <Node pos="s" depth="0" NCoef="0" IVar="7" Cut="6.7089605331420898e-01" cType="1" res="-1.6932091675698757e-03" rms="3.0262577533721924e-01" purity="5.0188219547271729e-01" nType="0">
        <Node pos="l" depth="1" NCoef="0" IVar="8" Cut="-9.3328052759170532e-01" cType="1" res="4.6853852109052241e-04" rms="3.0581465363502502e-01" purity="5.5056059360504150e-01" nType="0">
          <Node pos="l" depth="2" NCoef="0" IVar="10" Cut="-3.9988392591476440e-01" cType="1" res="8.6326450109481812e-03" rms="3.1312149763107300e-01" purity="3.9029419422149658e-01" nType="0">
            <Node pos="l" depth="3" NCoef="0" IVar="-1" Cut="0.0000000000000000e+00" cType="1" res="-5.2764886058866978e-03" rms="2.9570844769477844e-01" purity="3.3053219318389893e-01" nType="-99"/>
            <Node pos="r" depth="3" NCoef="0" IVar="-1" Cut="0.0000000000000000e+00" cType="1" res="2.0204944536089897e-02" rms="3.2704031467437744e-01" purity="4.4217172265052795e-01" nType="-99"/>
          </Node>
          <Node pos="r" depth="2" NCoef="0" IVar="8" Cut="1.3334420323371887e-01" cType="1" res="-1.4126012101769447e-03" rms="3.0407509207725525e-01" purity="5.8748853206634521e-01" nType="0">
            <Node pos="l" depth="3" NCoef="0" IVar="-1" Cut="0.0000000000000000e+00" cType="1" res="-9.6756350249052048e-03" rms="2.9407501220703125e-01" purity="6.3170254230499268e-01" nType="-99"/>
            <Node pos="r" depth="3" NCoef="0" IVar="-1" Cut="0.0000000000000000e+00" cType="1" res="5.2513093687593937e-03" rms="3.1234624981880188e-01" purity="5.4916703701019287e-01" nType="-99"/>
          </Node>
        </Node>
        <Node pos="r" depth="1" NCoef="0" IVar="4" Cut="1.2715038299560547e+02" cType="1" res="-9.2253424227237701e-03" rms="2.9111680388450623e-01" purity="3.3227309584617615e-01" nType="0">
          <Node pos="l" depth="2" NCoef="0" IVar="-1" Cut="0.0000000000000000e+00" cType="1" res="2.5779198855161667e-02" rms="2.0378731191158295e-01" purity="5.0155401229858398e-02" nType="-99"/>
          <Node pos="r" depth="2" NCoef="0" IVar="4" Cut="1.9959480285644531e+02" cType="1" res="-1.3462697155773640e-02" rms="3.0783087015151978e-01" purity="3.9823758602142334e-01" nType="0">
            <Node pos="l" depth="3" NCoef="0" IVar="-1" Cut="0.0000000000000000e+00" cType="1" res="-3.6899425089359283e-02" rms="2.5013071298599243e-01" purity="1.0873940587043762e-01" nType="-99"/>
            <Node pos="r" depth="3" NCoef="0" IVar="-1" Cut="0.0000000000000000e+00" cType="1" res="-4.1121300309896469e-03" rms="3.3567035198211670e-01" purity="5.6124961376190186e-01" nType="-99"/>
          </Node>
        </Node>
      </Node>
    </BinaryTree>
    <BinaryTree type="DecisionTree" boostWeight="1.0000000000000000e+00" itree="91">
      <Node pos="s" depth="0" NCoef="0" IVar="9" Cut="1.9999754428863525e+00" cType="1" res="2.5001026224344969e-03" rms="3.0389982461929321e-01" purity="5.0207018852233887e-01" nType="0">
        <Node pos="l" depth="1" NCoef="0" IVar="2" Cut="4.1834063827991486e-02" cType="1" res="3.4840002190321684e-03" rms="3.0503338575363159e-01" purity="5.1548790931701660e-01" nType="0">
          <Node pos="l" depth="2" NCoef="0" IVar="7" Cut="-1.0797028243541718e-01" cType="1" res="-7.2226737393066287e-04" rms="3.0413067340850830e-01" purity="3.2802745699882507e-01" nType="0">
            <Node pos="l" depth="3" NCoef="0" IVar="-1" Cut="0.0000000000000000e+00" cType="1" res="-9.3887932598590851e-03" rms="2.9655703902244568e-01" purity="3.0304318666458130e-01" nType="-99"/>
            <Node pos="r" depth="3" NCoef="0" IVar="-1" Cut="0.0000000000000000e+00" cType="1" res="6.4806556329131126e-03" rms="3.1033301353454590e-01" purity="3.4950819611549377e-01" nType="-99"/>
          </Node>
          <Node pos="r" depth="2" NCoef="0" IVar="3" Cut="4.1275521850585938e+02" cType="1" res="8.3140647038817406e-03" rms="3.0599540472030640e-01" purity="7.3074907064437866e-01" nType="0">
            <Node pos="l" depth="3" NCoef="0" IVar="-1" Cut="0.0000000000000000e+00" cType="1" res="1.3585095293819904e-02" rms="3.4933766722679138e-01" purity="5.8284515142440796e-01" nType="-99"/>
            <Node pos="r" depth="3" NCoef="0" IVar="-1" Cut="0.0000000000000000e+00" cType="1" res="-1.7632475646678358e-04" rms="2.4917975068092346e-01" purity="8.9429414272308350e-01" nType="-99"/>
          </Node>
        </Node>
        <Node pos="r" depth="1" NCoef="0" IVar="-1" Cut="0.0000000000000000e+00" cType="1" res="-2.8014993295073509e-02" rms="2.7324396371841431e-01" purity="1.7013444006443024e-01" nType="-99"/>
      </Node>
    </BinaryTree>
    <BinaryTree type="DecisionTree" boostWeight="1.0000000000000000e+00" itree="92">
      <Node pos="s" depth="0" NCoef="0" IVar="4" Cut="2.1959033203125000e+02" cType="1" res="-1.2475805124267936e-03" rms="3.0228966474533081e-01" purity="4.9867436289787292e-01" nType="0">
        <Node pos="l" depth="1" NCoef="0" IVar="9" Cut="9.3331772089004517e-01" cType="1" res="-5.3780917078256607e-03" rms="2.9377856850624084e-01" purity="2.0088928937911987e-01" nType="0">
          <Node pos="l" depth="2" NCoef="0" IVar="8" Cut="6.6656476259231567e-01" cType="1" res="-9.1660842299461365e-03" rms="2.9725238680839539e-01" purity="2.1107409894466400e-01" nType="0">
            <Node pos="l" depth="3" NCoef="0" IVar="-1" Cut="0.0000000000000000e+00" cType="1" res="-1.5841243788599968e-02" rms="2.9800510406494141e-01" purity="2.1871380507946014e-01" nType="-99"/>
            <Node pos="r" depth="3" NCoef="0" IVar="-1" Cut="0.0000000000000000e+00" cType="1" res="6.2128305435180664e-03" rms="2.9488557577133179e-01" purity="1.9209723174571991e-01" nType="-99"/>
          </Node>
          <Node pos="r" depth="2" NCoef="0" IVar="8" Cut="3.9992812275886536e-01" cType="1" res="5.9706834144890308e-03" rms="2.8281250596046448e-01" purity="1.7037570476531982e-01" nType="0">
            <Node pos="l" depth="3" NCoef="0" IVar="-1" Cut="0.0000000000000000e+00" cType="1" res="2.7529215440154076e-02" rms="3.1161713600158691e-01" purity="2.0887488126754761e-01" nType="-99"/>
            <Node pos="r" depth="3" NCoef="0" IVar="-1" Cut="0.0000000000000000e+00" cType="1" res="-2.4139486253261566e-02" rms="2.4030433595180511e-01" purity="1.2232261151075363e-01" nType="-99"/>
          </Node>
        </Node>
        <Node pos="r" depth="1" NCoef="0" IVar="1" Cut="1.4192030029296875e+03" cType="1" res="2.1852548234164715e-03" rms="3.0914297699928284e-01" purity="7.4616122245788574e-01" nType="0">
          <Node pos="l" depth="2" NCoef="0" IVar="1" Cut="1.3418896484375000e+03" cType="1" res="1.7233055084943771e-02" rms="3.9267206192016602e-01" purity="3.3892112970352173e-01" nType="0">
            <Node pos="l" depth="3" NCoef="0" IVar="-1" Cut="0.0000000000000000e+00" cType="1" res="5.0428146496415138e-03" rms="3.7918153405189514e-01" purity="2.7409398555755615e-01" nType="-99"/>
            <Node pos="r" depth="3" NCoef="0" IVar="-1" Cut="0.0000000000000000e+00" cType="1" res="2.5058222934603691e-02" rms="4.2538505792617798e-01" purity="5.1168584823608398e-01" nType="-99"/>
          </Node>
          <Node pos="r" depth="2" NCoef="0" IVar="9" Cut="-1.1999810934066772e+00" cType="1" res="-1.6908918041735888e-03" rms="2.8354126214981079e-01" purity="8.5106176137924194e-01" nType="0">
            <Node pos="l" depth="3" NCoef="0" IVar="-1" Cut="0.0000000000000000e+00" cType="1" res="-3.0215706676244736e-02" rms="3.4075328707695007e-01" purity="7.3164790868759155e-01" nType="-99"/>
            <Node pos="r" depth="3" NCoef="0" IVar="-1" Cut="0.0000000000000000e+00" cType="1" res="2.2189689334481955e-03" rms="2.7635693550109863e-01" purity="8.6411857604980469e-01" nType="-99"/>
          </Node>
        </Node>
      </Node>
    </BinaryTree>
    <BinaryTree type="DecisionTree" boostWeight="1.0000000000000000e+00" itree="93">
      <Node pos="s" depth="0" NCoef="0" IVar="0" Cut="4.5299465942382812e+02" cType="1" res="-8.2648172974586487e-04" rms="3.0312618613243103e-01" purity="4.9866017699241638e-01" nType="0">
        <Node pos="l" depth="1" NCoef="0" IVar="0" Cut="4.2385247802734375e+02" cType="1" res="3.8308100774884224e-03" rms="3.1088501214981079e-01" purity="2.3864586651325226e-01" nType="0">
          <Node pos="l" depth="2" NCoef="0" IVar="10" Cut="-9.3330436944961548e-01" cType="1" res="4.6896521234884858e-04" rms="3.0193617939949036e-01" purity="2.1141748130321503e-01" nType="0">
            <Node pos="l" depth="3" NCoef="0" IVar="-1" Cut="0.0000000000000000e+00" cType="1" res="1.7222588881850243e-02" rms="3.0027830600738525e-01" purity="2.1065545082092285e-01" nType="-99"/>
            <Node pos="r" depth="3" NCoef="0" IVar="-1" Cut="0.0000000000000000e+00" cType="1" res="-4.9583315849304199e-03" rms="3.0234479904174805e-01" purity="2.1168278157711029e-01" nType="-99"/>
          </Node>
          <Node pos="r" depth="2" NCoef="0" IVar="4" Cut="2.2441178894042969e+02" cType="1" res="2.5970844551920891e-02" rms="3.6359450221061707e-01" purity="4.1796320676803589e-01" nType="0">
            <Node pos="l" depth="3" NCoef="0" IVar="-1" Cut="0.0000000000000000e+00" cType="1" res="3.3424884080886841e-02" rms="3.5543173551559448e-01" purity="2.3389796912670135e-01" nType="-99"/>
            <Node pos="r" depth="3" NCoef="0" IVar="-1" Cut="0.0000000000000000e+00" cType="1" res="9.5469420775771141e-03" rms="3.7354093790054321e-01" purity="6.5706962347030640e-01" nType="-99"/>
          </Node>
        </Node>
        <Node pos="r" depth="1" NCoef="0" IVar="6" Cut="1.2018182373046875e+02" cType="1" res="-5.6746993213891983e-03" rms="2.9475426673889160e-01" purity="7.6933377981185913e-01" nType="0">
          <Node pos="l" depth="2" NCoef="0" IVar="3" Cut="3.3680105590820312e+02" cType="1" res="-1.2125153094530106e-02" rms="3.5198229551315308e-01" purity="6.2155932188034058e-01" nType="0">
            <Node pos="l" depth="3" NCoef="0" IVar="-1" Cut="0.0000000000000000e+00" cType="1" res="-2.1700512617826462e-02" rms="3.8064339756965637e-01" purity="3.9059549570083618e-01" nType="-99"/>
            <Node pos="r" depth="3" NCoef="0" IVar="-1" Cut="0.0000000000000000e+00" cType="1" res="-6.1377785168588161e-03" rms="3.4400588274002075e-01" purity="6.8123096227645874e-01" nType="-99"/>
          </Node>
          <Node pos="r" depth="2" NCoef="0" IVar="10" Cut="-3.9884573221206665e-01" cType="1" res="1.9169700099155307e-03" rms="2.0787967741489410e-01" purity="9.4325238466262817e-01" nType="0">
            <Node pos="l" depth="3" NCoef="0" IVar="-1" Cut="0.0000000000000000e+00" cType="1" res="-1.8538236618041992e-02" rms="2.1839374303817749e-01" purity="9.3457585573196411e-01" nType="-99"/>
            <Node pos="r" depth="3" NCoef="0" IVar="-1" Cut="0.0000000000000000e+00" cType="1" res="1.5116313472390175e-02" rms="2.0235522091388702e-01" purity="9.4749754667282104e-01" nType="-99"/>
          </Node>
        </Node>
      </Node>
    </BinaryTree>
    <BinaryTree type="DecisionTree" boostWeight="1.0000000000000000e+00" itree="94">
      <Node pos="s" depth="0" NCoef="0" IVar="7" Cut="-1.4580285549163818e+00" cType="1" res="1.7751455307006836e-03" rms="3.0355703830718994e-01" purity="5.0003689527511597e-01" nType="0">
        <Node pos="l" depth="1" NCoef="0" IVar="0" Cut="3.7200726318359375e+02" cType="1" res="-1.6402076929807663e-02" rms="2.1188567578792572e-01" purity="1.0000575333833694e-01" nType="0">
          <Node pos="l" depth="2" NCoef="0" IVar="-1" Cut="0.0000000000000000e+00" cType="1" res="-1.1493492871522903e-02" rms="1.7546999454498291e-01" purity="3.5870950669050217e-02" nType="-99"/>
          <Node pos="r" depth="2" NCoef="0" IVar="-1" Cut="0.0000000000000000e+00" cType="1" res="-3.4974008798599243e-02" rms="2.4185101687908173e-01" purity="1.6321937739849091e-01" nType="-99"/>
        </Node>
        <Node pos="r" depth="1" NCoef="0" IVar="1" Cut="1.4296292724609375e+03" cType="1" res="2.9076281934976578e-03" rms="3.0833241343498230e-01" purity="5.2495974302291870e-01" nType="0">
          <Node pos="l" depth="2" NCoef="0" IVar="5" Cut="7.6954902648925781e+01" cType="1" res="7.8654317185282707e-03" rms="3.2572516798973083e-01" purity="1.9873403012752533e-01" nType="0">
            <Node pos="l" depth="3" NCoef="0" IVar="-1" Cut="0.0000000000000000e+00" cType="1" res="-3.3633947372436523e-02" rms="1.8026687204837799e-01" purity="3.6990448832511902e-02" nType="-99"/>
            <Node pos="r" depth="3" NCoef="0" IVar="-1" Cut="0.0000000000000000e+00" cType="1" res="1.1807551607489586e-02" rms="3.5436221957206726e-01" purity="2.4191451072692871e-01" nType="-99"/>
          </Node>
          <Node pos="r" depth="2" NCoef="0" IVar="8" Cut="-1.2001808881759644e+00" cType="1" res="-1.8647429533302784e-03" rms="2.9052868485450745e-01" purity="8.3898395299911499e-01" nType="0">
            <Node pos="l" depth="3" NCoef="0" IVar="-1" Cut="0.0000000000000000e+00" cType="1" res="-2.2432159632444382e-02" rms="3.5303777456283569e-01" purity="6.5348994731903076e-01" nType="-99"/>
            <Node pos="r" depth="3" NCoef="0" IVar="-1" Cut="0.0000000000000000e+00" cType="1" res="3.0384102137759328e-04" rms="2.8478661179542542e-01" purity="8.5393947362899780e-01" nType="-99"/>
          </Node>
        </Node>
      </Node>
    </BinaryTree>
    <BinaryTree type="DecisionTree" boostWeight="1.0000000000000000e+00" itree="95">
      <Node pos="s" depth="0" NCoef="0" IVar="9" Cut="1.1998673677444458e+00" cType="1" res="3.3050373895093799e-04" rms="3.0639639496803284e-01" purity="4.9715501070022583e-01" nType="0">
        <Node pos="l" depth="1" NCoef="0" IVar="0" Cut="6.0413507080078125e+02" cType="1" res="-2.2149544674903154e-03" rms="3.0347910523414612e-01" purity="5.2227020263671875e-01" nType="0">
          <Node pos="l" depth="2" NCoef="0" IVar="7" Cut="4.2396858334541321e-01" cType="1" res="-5.3311772644519806e-03" rms="3.2416766881942749e-01" purity="3.6360424757003784e-01" nType="0">
            <Node pos="l" depth="3" NCoef="0" IVar="-1" Cut="0.0000000000000000e+00" cType="1" res="-1.0930494172498584e-03" rms="3.2812806963920593e-01" purity="4.0068945288658142e-01" nType="-99"/>
            <Node pos="r" depth="3" NCoef="0" IVar="-1" Cut="0.0000000000000000e+00" cType="1" res="-1.4030491933226585e-02" rms="3.1559139490127563e-01" purity="2.8643324971199036e-01" nType="-99"/>
          </Node>
          <Node pos="r" depth="2" NCoef="0" IVar="2" Cut="2.1328777074813843e-02" cType="1" res="5.2999076433479786e-03" rms="2.4638518691062927e-01" purity="9.0489786863327026e-01" nType="0">
            <Node pos="l" depth="3" NCoef="0" IVar="-1" Cut="0.0000000000000000e+00" cType="1" res="1.6731923446059227e-02" rms="3.5380187630653381e-01" purity="7.5949114561080933e-01" nType="-99"/>
            <Node pos="r" depth="3" NCoef="0" IVar="-1" Cut="0.0000000000000000e+00" cType="1" res="9.5712003530934453e-04" rms="2.0201429724693298e-01" purity="9.4954067468643188e-01" nType="-99"/>
          </Node>
        </Node>
        <Node pos="r" depth="1" NCoef="0" IVar="4" Cut="2.3845204162597656e+02" cType="1" res="1.4381833374500275e-02" rms="3.2166281342506409e-01" purity="3.5851514339447021e-01" nType="0">
          <Node pos="l" depth="2" NCoef="0" IVar="1" Cut="1.0502071533203125e+03" cType="1" res="2.8690995648503304e-02" rms="3.0759072303771973e-01" purity="2.0759938657283783e-01" nType="0">
            <Node pos="l" depth="3" NCoef="0" IVar="-1" Cut="0.0000000000000000e+00" cType="1" res="-4.0722852572798729e-03" rms="1.7601191997528076e-01" purity="3.3618479967117310e-02" nType="-99"/>
            <Node pos="r" depth="3" NCoef="0" IVar="-1" Cut="0.0000000000000000e+00" cType="1" res="4.2337235063314438e-02" rms="3.7302204966545105e-01" purity="3.3239364624023438e-01" nType="-99"/>
          </Node>
          <Node pos="r" depth="2" NCoef="0" IVar="0" Cut="5.1930645751953125e+02" cType="1" res="-1.2285662814974785e-02" rms="3.4478515386581421e-01" purity="6.3977164030075073e-01" nType="0">
            <Node pos="l" depth="3" NCoef="0" IVar="-1" Cut="0.0000000000000000e+00" cType="1" res="-2.1285686641931534e-02" rms="3.8200056552886963e-01" purity="4.0563786029815674e-01" nType="-99"/>
            <Node pos="r" depth="3" NCoef="0" IVar="-1" Cut="0.0000000000000000e+00" cType="1" res="7.1767922490835190e-03" rms="3.0320417881011963e-01" purity="8.6688870191574097e-01" nType="-99"/>
          </Node>
        </Node>
      </Node>
    </BinaryTree>
    <BinaryTree type="DecisionTree" boostWeight="1.0000000000000000e+00" itree="96">
      <Node pos="s" depth="0" NCoef="0" IVar="10" Cut="-1.4666625261306763e+00" cType="1" res="-7.3056545807048678e-04" rms="3.0150622129440308e-01" purity="5.0091511011123657e-01" nType="0">
        <Node pos="l" depth="1" NCoef="0" IVar="7" Cut="4.0937897562980652e-01" cType="1" res="-9.8420549184083939e-03" rms="3.0067616701126099e-01" purity="3.9108088612556458e-01" nType="0">
          <Node pos="l" depth="2" NCoef="0" IVar="3" Cut="3.2890594482421875e+02" cType="1" res="-2.4322774261236191e-03" rms="3.0780380964279175e-01" purity="4.2363932728767395e-01" nType="0">
            <Node pos="l" depth="3" NCoef="0" IVar="-1" Cut="0.0000000000000000e+00" cType="1" res="1.9217947497963905e-02" rms="3.0323901772499084e-01" purity="2.2817002236843109e-01" nType="-99"/>
            <Node pos="r" depth="3" NCoef="0" IVar="-1" Cut="0.0000000000000000e+00" cType="1" res="-1.5499677509069443e-02" rms="3.0991649627685547e-01" purity="5.4264247417449951e-01" nType="-99"/>
          </Node>
          <Node pos="r" depth="2" NCoef="0" IVar="-1" Cut="0.0000000000000000e+00" cType="1" res="-3.0701270326972008e-02" rms="2.8110578656196594e-01" purity="3.0924752354621887e-01" nType="-99"/>
        </Node>
        <Node pos="r" depth="1" NCoef="0" IVar="7" Cut="9.3714755773544312e-01" cType="1" res="5.6659872643649578e-04" rms="3.0160182714462280e-01" purity="5.1655173301696777e-01" nType="0">
          <Node pos="l" depth="2" NCoef="0" IVar="10" Cut="1.9872968196868896e+00" cType="1" res="-1.2406999012455344e-03" rms="3.0329889059066772e-01" purity="5.6127977371215820e-01" nType="0">
            <Node pos="l" depth="3" NCoef="0" IVar="-1" Cut="0.0000000000000000e+00" cType="1" res="-2.3943204723764211e-04" rms="3.0261993408203125e-01" purity="5.7206499576568604e-01" nType="-99"/>
            <Node pos="r" depth="3" NCoef="0" IVar="-1" Cut="0.0000000000000000e+00" cType="1" res="-1.9424749538302422e-02" rms="3.1428906321525574e-01" purity="3.7469056248664856e-01" nType="-99"/>
          </Node>
          <Node pos="r" depth="2" NCoef="0" IVar="2" Cut="1.3050779700279236e-02" cType="1" res="1.0328928008675575e-02" rms="2.9207131266593933e-01" purity="2.7494791150093079e-01" nType="0">
            <Node pos="l" depth="3" NCoef="0" IVar="-1" Cut="0.0000000000000000e+00" cType="1" res="-1.5423056669533253e-02" rms="2.2079724073410034e-01" purity="9.0710841119289398e-02" nType="-99"/>
            <Node pos="r" depth="3" NCoef="0" IVar="-1" Cut="0.0000000000000000e+00" cType="1" res="2.4718498811125755e-02" rms="3.4076675772666931e-01" purity="4.3325430154800415e-01" nType="-99"/>
          </Node>
        </Node>
      </Node>
    </BinaryTree>
    <BinaryTree type="DecisionTree" boostWeight="1.0000000000000000e+00" itree="97">
      <Node pos="s" depth="0" NCoef="0" IVar="7" Cut="4.0466713905334473e-01" cType="1" res="-5.2280467934906483e-04" rms="3.0269318819046021e-01" purity="5.0125151872634888e-01" nType="0">
        <Node pos="l" depth="1" NCoef="0" IVar="8" Cut="-6.6660970449447632e-01" cType="1" res="2.4647479876875877e-03" rms="3.0496078729629517e-01" purity="5.4303652048110962e-01" nType="0">
          <Node pos="l" depth="2" NCoef="0" IVar="1" Cut="1.4296376953125000e+03" cType="1" res="-5.4989289492368698e-03" rms="3.0354824662208557e-01" purity="4.1815167665481567e-01" nType="0">
            <Node pos="l" depth="3" NCoef="0" IVar="-1" Cut="0.0000000000000000e+00" cType="1" res="-1.5885936096310616e-02" rms="2.8370022773742676e-01" purity="1.3616991043090820e-01" nType="-99"/>
            <Node pos="r" depth="3" NCoef="0" IVar="-1" Cut="0.0000000000000000e+00" cType="1" res="5.8062556199729443e-03" rms="3.2803896069526672e-01" purity="7.9783540964126587e-01" nType="-99"/>
          </Node>
          <Node pos="r" depth="2" NCoef="0" IVar="0" Cut="4.3904541015625000e+02" cType="1" res="5.2902661263942719e-03" rms="3.0541050434112549e-01" purity="5.8734571933746338e-01" nType="0">
            <Node pos="l" depth="3" NCoef="0" IVar="-1" Cut="0.0000000000000000e+00" cType="1" res="1.2138788588345051e-02" rms="3.3646082878112793e-01" purity="2.8646832704544067e-01" nType="-99"/>
            <Node pos="r" depth="3" NCoef="0" IVar="-1" Cut="0.0000000000000000e+00" cType="1" res="-3.7233936018310487e-04" rms="2.8020000457763672e-01" purity="8.0911260843276978e-01" nType="-99"/>
          </Node>
        </Node>
        <Node pos="r" depth="1" NCoef="0" IVar="8" Cut="1.4666050672531128e+00" cType="1" res="-6.7963460460305214e-03" rms="2.9777768254280090e-01" purity="4.1350758075714111e-01" nType="0">
          <Node pos="l" depth="2" NCoef="0" IVar="3" Cut="4.2875015258789062e+02" cType="1" res="-4.3796100653707981e-03" rms="3.0458638072013855e-01" purity="4.4416010379791260e-01" nType="0">
            <Node pos="l" depth="3" NCoef="0" IVar="-1" Cut="0.0000000000000000e+00" cType="1" res="1.6461597988381982e-03" rms="3.0860459804534912e-01" purity="3.3166757225990295e-01" nType="-99"/>
            <Node pos="r" depth="3" NCoef="0" IVar="-1" Cut="0.0000000000000000e+00" cType="1" res="-1.4967755414545536e-02" rms="2.9779961705207825e-01" purity="6.2416440248489380e-01" nType="-99"/>
          </Node>
          <Node pos="r" depth="2" NCoef="0" IVar="-1" Cut="0.0000000000000000e+00" cType="1" res="-4.4492591172456741e-02" rms="2.2182302176952362e-01" purity="1.2288201600313187e-01" nType="-99"/>
        </Node>
      </Node>
    </BinaryTree>
    <BinaryTree type="DecisionTree" boostWeight="1.0000000000000000e+00" itree="98">
      <Node pos="s" depth="0" NCoef="0" IVar="2" Cut="1.4629168808460236e-01" cType="1" res="2.4082390591502190e-03" rms="3.0495169758796692e-01" purity="5.0344771146774292e-01" nType="0">
        <Node pos="l" depth="1" NCoef="0" IVar="9" Cut="3.9999049901962280e-01" cType="1" res="1.1078526731580496e-03" rms="3.0971702933311462e-01" purity="4.6345958113670349e-01" nType="0">
          <Node pos="l" depth="2" NCoef="0" IVar="9" Cut="2.4760858714580536e-01" cType="1" res="4.2898426763713360e-03" rms="3.0872109532356262e-01" purity="4.8839393258094788e-01" nType="0">
            <Node pos="l" depth="3" NCoef="0" IVar="-1" Cut="0.0000000000000000e+00" cType="1" res="2.3126685991883278e-03" rms="3.0829197168350220e-01" purity="4.7961995005607605e-01" nType="-99"/>
            <Node pos="r" depth="3" NCoef="0" IVar="-1" Cut="0.0000000000000000e+00" cType="1" res="2.9490485787391663e-02" rms="3.1248763203620911e-01" purity="5.8528333902359009e-01" nType="-99"/>
          </Node>
          <Node pos="r" depth="2" NCoef="0" IVar="10" Cut="-1.3335922360420227e-01" cType="1" res="-4.5179771259427071e-03" rms="3.1139054894447327e-01" purity="4.1937512159347534e-01" nType="0">
            <Node pos="l" depth="3" NCoef="0" IVar="-1" Cut="0.0000000000000000e+00" cType="1" res="7.5248247012495995e-03" rms="3.2175657153129578e-01" purity="4.5157805085182190e-01" nType="-99"/>
            <Node pos="r" depth="3" NCoef="0" IVar="-1" Cut="0.0000000000000000e+00" cType="1" res="-1.3641798868775368e-02" rms="3.0362170934677124e-01" purity="3.9675375819206238e-01" nType="-99"/>
          </Node>
        </Node>
        <Node pos="r" depth="1" NCoef="0" IVar="-1" Cut="0.0000000000000000e+00" cType="1" res="2.0733529701828957e-02" rms="2.5649347901344299e-01" purity="8.7269133329391479e-01" nType="-99"/>
      </Node>
    </BinaryTree>
    <BinaryTree type="DecisionTree" boostWeight="1.0000000000000000e+00" itree="99">
      <Node pos="s" depth="0" NCoef="0" IVar="7" Cut="1.7353583574295044e+00" cType="1" res="2.0877481438219547e-03" rms="3.0369737744331360e-01" purity="4.9945697188377380e-01" nType="0">
        <Node pos="l" depth="1" NCoef="0" IVar="2" Cut="2.0501371473073959e-02" cType="1" res="2.8728523757308722e-03" rms="3.0765858292579651e-01" purity="5.1596128940582275e-01" nType="0">
          <Node pos="l" depth="2" NCoef="0" IVar="1" Cut="1.1001370849609375e+03" cType="1" res="8.9217564091086388e-03" rms="2.9685115814208984e-01" purity="2.6773545145988464e-01" nType="0">
            <Node pos="l" depth="3" NCoef="0" IVar="-1" Cut="0.0000000000000000e+00" cType="1" res="-2.4271320551633835e-02" rms="1.4886133372783661e-01" purity="2.3532208055257797e-02" nType="-99"/>
            <Node pos="r" depth="3" NCoef="0" IVar="-1" Cut="0.0000000000000000e+00" cType="1" res="1.4650449156761169e-02" rms="3.5260543227195740e-01" purity="4.0259706974029541e-01" nType="-99"/>
          </Node>
          <Node pos="r" depth="2" NCoef="0" IVar="10" Cut="2.0000073909759521e+00" cType="1" res="-1.5318559599108994e-04" rms="3.1288120150566101e-01" purity="6.4013934135437012e-01" nType="0">
            <Node pos="l" depth="3" NCoef="0" IVar="-1" Cut="0.0000000000000000e+00" cType="1" res="-1.4193007955327630e-03" rms="3.1026118993759155e-01" purity="6.4835745096206665e-01" nType="-99"/>
            <Node pos="r" depth="3" NCoef="0" IVar="-1" Cut="0.0000000000000000e+00" cType="1" res="1.9769927486777306e-02" rms="3.5882195830345154e-01" purity="4.8196244239807129e-01" nType="-99"/>
          </Node>
        </Node>
        <Node pos="r" depth="1" NCoef="0" IVar="-1" Cut="0.0000000000000000e+00" cType="1" res="-4.4381957501173019e-02" rms="1.6274031996726990e-01" purity="5.4541669785976410e-02" nType="-99"/>
      </Node>
    </BinaryTree>
    <BinaryTree type="DecisionTree" boostWeight="1.0000000000000000e+00" itree="100">
      <Node pos="s" depth="0" NCoef="0" IVar="4" Cut="2.3910603332519531e+02" cType="1" res="7.7516521560028195e-04" rms="3.0281114578247070e-01" purity="5.0334364175796509e-01" nType="0">
        <Node pos="l" depth="1" NCoef="0" IVar="9" Cut="-2.0000152587890625e+00" cType="1" res="5.9049380943179131e-03" rms="3.1200113892555237e-01" purity="2.5615632534027100e-01" nType="0">
          <Node pos="l" depth="2" NCoef="0" IVar="-1" Cut="0.0000000000000000e+00" cType="1" res="5.6398715823888779e-02" rms="2.9467603564262390e-01" purity="1.6122564673423767e-01" nType="-99"/>
          <Node pos="r" depth="2" NCoef="0" IVar="8" Cut="1.1998692750930786e+00" cType="1" res="3.9599728770554066e-03" rms="3.1291094422340393e-01" purity="2.6189094781875610e-01" nType="0">
            <Node pos="l" depth="3" NCoef="0" IVar="-1" Cut="0.0000000000000000e+00" cType="1" res="7.8342016786336899e-04" rms="3.1751337647438049e-01" purity="2.7961376309394836e-01" nType="-99"/>
            <Node pos="r" depth="3" NCoef="0" IVar="-1" Cut="0.0000000000000000e+00" cType="1" res="2.5846609845757484e-02" rms="2.8951269388198853e-01" purity="1.7749334871768951e-01" nType="-99"/>
          </Node>
        </Node>
        <Node pos="r" depth="1" NCoef="0" IVar="8" Cut="1.1975555419921875e+00" cType="1" res="-4.8842625692486763e-03" rms="2.9223281145095825e-01" purity="7.7605336904525757e-01" nType="0">
          <Node pos="l" depth="2" NCoef="0" IVar="1" Cut="1.5203972167968750e+03" cType="1" res="-1.8939708825200796e-03" rms="2.8847980499267578e-01" purity="8.0037915706634521e-01" nType="0">
            <Node pos="l" depth="3" NCoef="0" IVar="-1" Cut="0.0000000000000000e+00" cType="1" res="-1.2267678044736385e-02" rms="3.9335957169532776e-01" purity="4.4511651992797852e-01" nType="-99"/>
            <Node pos="r" depth="3" NCoef="0" IVar="-1" Cut="0.0000000000000000e+00" cType="1" res="4.0806047618389130e-03" rms="2.5346094369888306e-01" purity="8.9414930343627930e-01" nType="-99"/>
          </Node>
          <Node pos="r" depth="2" NCoef="0" IVar="-1" Cut="0.0000000000000000e+00" cType="1" res="-3.5604435950517654e-02" rms="3.3282965421676636e-01" purity="4.7645005583763123e-01" nType="-99"/>
        </Node>
      </Node>
    </BinaryTree>
    <BinaryTree type="DecisionTree" boostWeight="1.0000000000000000e+00" itree="101">
      <Node pos="s" depth="0" NCoef="0" IVar="3" Cut="8.0759381103515625e+02" cType="1" res="2.1034469828009605e-03" rms="3.0610063672065735e-01" purity="5.0365877151489258e-01" nType="0">
        <Node pos="l" depth="1" NCoef="0" IVar="9" Cut="9.3312072753906250e-01" cType="1" res="3.0284209642559290e-03" rms="3.0601045489311218e-01" purity="4.9125868082046509e-01" nType="0">
          <Node pos="l" depth="2" NCoef="0" IVar="4" Cut="1.5631010437011719e+02" cType="1" res="1.1190982768312097e-03" rms="3.0284309387207031e-01" purity="5.1564973592758179e-01" nType="0">
            <Node pos="l" depth="3" NCoef="0" IVar="-1" Cut="0.0000000000000000e+00" cType="1" res="-1.3750090263783932e-02" rms="2.4099925160408020e-01" purity="8.8757403194904327e-02" nType="-99"/>
            <Node pos="r" depth="3" NCoef="0" IVar="-1" Cut="0.0000000000000000e+00" cType="1" res="3.9490759372711182e-03" rms="3.1861203908920288e-01" purity="6.4047974348068237e-01" nType="-99"/>
          </Node>
          <Node pos="r" depth="2" NCoef="0" IVar="10" Cut="-6.6666269302368164e-01" cType="1" res="9.9864732474088669e-03" rms="3.1718847155570984e-01" purity="4.0237170457839966e-01" nType="0">
            <Node pos="l" depth="3" NCoef="0" IVar="-1" Cut="0.0000000000000000e+00" cType="1" res="2.9526086524128914e-02" rms="3.3245575428009033e-01" purity="4.2003408074378967e-01" nType="-99"/>
            <Node pos="r" depth="3" NCoef="0" IVar="-1" Cut="0.0000000000000000e+00" cType="1" res="3.1642548274248838e-03" rms="3.1100681424140930e-01" purity="3.9578276872634888e-01" nType="-99"/>
          </Node>
        </Node>
        <Node pos="r" depth="1" NCoef="0" IVar="-1" Cut="0.0000000000000000e+00" cType="1" res="-2.3394666612148285e-02" rms="3.0745100975036621e-01" purity="8.1862598657608032e-01" nType="-99"/>
      </Node>
    </BinaryTree>
    <BinaryTree type="DecisionTree" boostWeight="1.0000000000000000e+00" itree="102">
      <Node pos="s" depth="0" NCoef="0" IVar="9" Cut="1.1999825239181519e+00" cType="1" res="-1.1550233466550708e-03" rms="3.0024558305740356e-01" purity="4.9941405653953552e-01" nType="0">
        <Node pos="l" depth="1" NCoef="0" IVar="7" Cut="1.2025003433227539e+00" cType="1" res="1.9011137192137539e-04" rms="3.0072280764579773e-01" purity="5.2636808156967163e-01" nType="0">
          <Node pos="l" depth="2" NCoef="0" IVar="4" Cut="2.3893113708496094e+02" cType="1" res="-6.0767581453546882e-04" rms="3.0308467149734497e-01" purity="5.5673205852508545e-01" nType="0">
            <Node pos="l" depth="3" NCoef="0" IVar="-1" Cut="0.0000000000000000e+00" cType="1" res="-3.4788795746862888e-03" rms="3.1709495186805725e-01" purity="2.8250536322593689e-01" nType="-99"/>
            <Node pos="r" depth="3" NCoef="0" IVar="-1" Cut="0.0000000000000000e+00" cType="1" res="2.5197407230734825e-03" rms="2.8934624791145325e-01" purity="8.1311631202697754e-01" nType="-99"/>
          </Node>
          <Node pos="r" depth="2" NCoef="0" IVar="7" Cut="1.5826396942138672e+00" cType="1" res="8.2885473966598511e-03" rms="2.7547329664230347e-01" purity="2.1813924610614777e-01" nType="0">
            <Node pos="l" depth="3" NCoef="0" IVar="-1" Cut="0.0000000000000000e+00" cType="1" res="2.6673404499888420e-02" rms="3.2070940732955933e-01" purity="3.2508122920989990e-01" nType="-99"/>
            <Node pos="r" depth="3" NCoef="0" IVar="-1" Cut="0.0000000000000000e+00" cType="1" res="-2.0729614421725273e-02" rms="2.1245451271533966e-01" purity="9.9138699471950531e-02" nType="-99"/>
          </Node>
        </Node>
        <Node pos="r" depth="1" NCoef="0" IVar="8" Cut="-6.6670501232147217e-01" cType="1" res="-8.8628027588129044e-03" rms="2.9737901687622070e-01" purity="3.4496447443962097e-01" nType="0">
          <Node pos="l" depth="2" NCoef="0" IVar="-1" Cut="0.0000000000000000e+00" cType="1" res="-3.2506864517927170e-02" rms="2.7745679020881653e-01" purity="2.5402203202247620e-01" nType="-99"/>
          <Node pos="r" depth="2" NCoef="0" IVar="8" Cut="8.1885999441146851e-01" cType="1" res="-2.5276048108935356e-03" rms="3.0286452174186707e-01" purity="3.7248390913009644e-01" nType="0">
            <Node pos="l" depth="3" NCoef="0" IVar="-1" Cut="0.0000000000000000e+00" cType="1" res="6.7129954695701599e-03" rms="3.2359924912452698e-01" purity="4.7399005293846130e-01" nType="-99"/>
            <Node pos="r" depth="3" NCoef="0" IVar="-1" Cut="0.0000000000000000e+00" cType="1" res="-2.2732047364115715e-02" rms="2.6454544067382812e-01" purity="2.0548430085182190e-01" nType="-99"/>
          </Node>
        </Node>
      </Node>
    </BinaryTree>
    <BinaryTree type="DecisionTree" boostWeight="1.0000000000000000e+00" itree="103">
      <Node pos="s" depth="0" NCoef="0" IVar="8" Cut="-1.3325044512748718e-01" cType="1" res="-1.9242755661252886e-04" rms="3.0312612652778625e-01" purity="5.0033837556838989e-01" nType="0">
        <Node pos="l" depth="1" NCoef="0" IVar="10" Cut="-1.3322773575782776e-01" cType="1" res="5.4250042885541916e-03" rms="3.0946815013885498e-01" purity="4.9059516191482544e-01" nType="0">
          <Node pos="l" depth="2" NCoef="0" IVar="9" Cut="-4.0003684163093567e-01" cType="1" res="-2.9308917000889778e-03" rms="3.0369365215301514e-01" purity="4.5335727930068970e-01" nType="0">
            <Node pos="l" depth="3" NCoef="0" IVar="-1" Cut="0.0000000000000000e+00" cType="1" res="-1.6107596457004547e-02" rms="2.9592290520668030e-01" purity="3.7893804907798767e-01" nType="-99"/>
            <Node pos="r" depth="3" NCoef="0" IVar="-1" Cut="0.0000000000000000e+00" cType="1" res="5.9106806293129921e-03" rms="3.0911287665367126e-01" purity="5.0907516479492188e-01" nType="-99"/>
          </Node>
          <Node pos="r" depth="2" NCoef="0" IVar="1" Cut="1.4002622070312500e+03" cType="1" res="1.3370604254305363e-02" rms="3.1465515494346619e-01" purity="5.2600455284118652e-01" nType="0">
            <Node pos="l" depth="3" NCoef="0" IVar="-1" Cut="0.0000000000000000e+00" cType="1" res="2.7552500367164612e-02" rms="3.3594140410423279e-01" purity="1.9629381597042084e-01" nType="-99"/>
            <Node pos="r" depth="3" NCoef="0" IVar="-1" Cut="0.0000000000000000e+00" cType="1" res="1.1518606916069984e-03" rms="2.9313161969184875e-01" purity="8.2985413074493408e-01" nType="-99"/>
          </Node>
        </Node>
        <Node pos="r" depth="1" NCoef="0" IVar="4" Cut="3.0348126220703125e+02" cType="1" res="-4.8862127587199211e-03" rms="2.9764202237129211e-01" purity="5.0847953557968140e-01" nType="0">
          <Node pos="l" depth="2" NCoef="0" IVar="8" Cut="6.4407046884298325e-03" cType="1" res="-9.8857106640934944e-03" rms="3.0658015608787537e-01" purity="3.5851132869720459e-01" nType="0">
            <Node pos="l" depth="3" NCoef="0" IVar="-1" Cut="0.0000000000000000e+00" cType="1" res="-4.8375282436609268e-02" rms="2.8681570291519165e-01" purity="4.2835947871208191e-01" nType="-99"/>
            <Node pos="r" depth="3" NCoef="0" IVar="-1" Cut="0.0000000000000000e+00" cType="1" res="-6.8785795010626316e-03" rms="3.0807536840438843e-01" purity="3.5229459404945374e-01" nType="-99"/>
          </Node>
          <Node pos="r" depth="2" NCoef="0" IVar="5" Cut="1.6018528747558594e+02" cType="1" res="6.3021965324878693e-03" rms="2.7626714110374451e-01" purity="8.4409451484680176e-01" nType="0">
            <Node pos="l" depth="3" NCoef="0" IVar="-1" Cut="0.0000000000000000e+00" cType="1" res="2.9910210520029068e-02" rms="3.5763561725616455e-01" purity="6.7896181344985962e-01" nType="-99"/>
            <Node pos="r" depth="3" NCoef="0" IVar="-1" Cut="0.0000000000000000e+00" cType="1" res="-7.1464059874415398e-03" rms="2.4261952936649323e-01" purity="8.9854574203491211e-01" nType="-99"/>
          </Node>
        </Node>
      </Node>
    </BinaryTree>
    <BinaryTree type="DecisionTree" boostWeight="1.0000000000000000e+00" itree="104">
      <Node pos="s" depth="0" NCoef="0" IVar="6" Cut="8.0216247558593750e+01" cType="1" res="-1.4972042990848422e-03" rms="3.0163833498954773e-01" purity="4.9881350994110107e-01" nType="0">
        <Node pos="l" depth="1" NCoef="0" IVar="10" Cut="-1.1999921798706055e+00" cType="1" res="4.1673709638416767e-03" rms="2.9586380720138550e-01" purity="2.3521719872951508e-01" nType="0">
          <Node pos="l" depth="2" NCoef="0" IVar="0" Cut="4.2276953125000000e+02" cType="1" res="2.0109228789806366e-02" rms="2.9682594537734985e-01" purity="2.3992367088794708e-01" nType="0">
            <Node pos="l" depth="3" NCoef="0" IVar="-1" Cut="0.0000000000000000e+00" cType="1" res="5.2117472514510155e-03" rms="2.3749580979347229e-01" purity="7.5797021389007568e-02" nType="-99"/>
            <Node pos="r" depth="3" NCoef="0" IVar="-1" Cut="0.0000000000000000e+00" cType="1" res="3.6015834659337997e-02" rms="3.6433437466621399e-01" purity="4.7644200921058655e-01" nType="-99"/>
          </Node>
          <Node pos="r" depth="2" NCoef="0" IVar="9" Cut="-1.4666891098022461e+00" cType="1" res="-3.4808163036359474e-05" rms="2.9546648263931274e-01" purity="2.3397660255432129e-01" nType="0">
            <Node pos="l" depth="3" NCoef="0" IVar="-1" Cut="0.0000000000000000e+00" cType="1" res="-2.6402903720736504e-02" rms="2.5023072957992554e-01" purity="1.2206957489252090e-01" nType="-99"/>
            <Node pos="r" depth="3" NCoef="0" IVar="-1" Cut="0.0000000000000000e+00" cType="1" res="2.8441706672310829e-03" rms="3.0098193883895874e-01" purity="2.4914468824863434e-01" nType="-99"/>
          </Node>
        </Node>
        <Node pos="r" depth="1" NCoef="0" IVar="8" Cut="1.4664461612701416e+00" cType="1" res="-5.7677561417222023e-03" rms="3.0585038661956787e-01" purity="6.9754004478454590e-01" nType="0">
          <Node pos="l" depth="2" NCoef="0" IVar="8" Cut="-3.6195880174636841e-01" cType="1" res="-4.0554702281951904e-03" rms="3.0525389313697815e-01" purity="7.1975404024124146e-01" nType="0">
            <Node pos="l" depth="3" NCoef="0" IVar="-1" Cut="0.0000000000000000e+00" cType="1" res="-1.1695732362568378e-02" rms="3.1747192144393921e-01" purity="6.4713799953460693e-01" nType="-99"/>
            <Node pos="r" depth="3" NCoef="0" IVar="-1" Cut="0.0000000000000000e+00" cType="1" res="4.0709198219701648e-04" rms="2.9794919490814209e-01" purity="7.6129490137100220e-01" nType="-99"/>
          </Node>
          <Node pos="r" depth="2" NCoef="0" IVar="-1" Cut="0.0000000000000000e+00" cType="1" res="-3.0522514134645462e-02" rms="3.1422126293182373e-01" purity="3.2911121845245361e-01" nType="-99"/>
        </Node>
      </Node>
    </BinaryTree>
    <BinaryTree type="DecisionTree" boostWeight="1.0000000000000000e+00" itree="105">
      <Node pos="s" depth="0" NCoef="0" IVar="4" Cut="4.3010693359375000e+02" cType="1" res="-1.9906263332813978e-03" rms="2.9904952645301819e-01" purity="4.9973702430725098e-01" nType="0">
        <Node pos="l" depth="1" NCoef="0" IVar="4" Cut="1.5996066284179688e+02" cType="1" res="-3.3028624020516872e-03" rms="3.0320021510124207e-01" purity="4.6016043424606323e-01" nType="0">
          <Node pos="l" depth="2" NCoef="0" IVar="8" Cut="9.3332219123840332e-01" cType="1" res="-1.2596952728927135e-02" rms="2.3404008150100708e-01" purity="8.3127297461032867e-02" nType="0">
            <Node pos="l" depth="3" NCoef="0" IVar="-1" Cut="0.0000000000000000e+00" cType="1" res="-3.1732812523841858e-02" rms="2.3011595010757446e-01" purity="8.1238545477390289e-02" nType="-99"/>
            <Node pos="r" depth="3" NCoef="0" IVar="-1" Cut="0.0000000000000000e+00" cType="1" res="1.8797304481267929e-02" rms="2.4346327781677246e-01" purity="8.8491886854171753e-02" nType="-99"/>
          </Node>
          <Node pos="r" depth="2" NCoef="0" IVar="8" Cut="1.7333329916000366e+00" cType="1" res="1.2454399256967008e-04" rms="3.2494419813156128e-01" purity="5.9919995069503784e-01" nType="0">
            <Node pos="l" depth="3" NCoef="0" IVar="-1" Cut="0.0000000000000000e+00" cType="1" res="1.3486680109053850e-03" rms="3.2686352729797363e-01" purity="6.1782521009445190e-01" nType="-99"/>
            <Node pos="r" depth="3" NCoef="0" IVar="-1" Cut="0.0000000000000000e+00" cType="1" res="-3.4096550196409225e-02" rms="2.7442735433578491e-01" purity="1.6312459111213684e-01" nType="-99"/>
          </Node>
        </Node>
        <Node pos="r" depth="1" NCoef="0" IVar="0" Cut="5.7282727050781250e+02" cType="1" res="1.0949195362627506e-02" rms="2.5415846705436707e-01" purity="8.8999748229980469e-01" nType="0">
          <Node pos="l" depth="2" NCoef="0" IVar="-1" Cut="0.0000000000000000e+00" cType="1" res="2.1199671551585197e-02" rms="3.4262907505035400e-01" purity="7.6782292127609253e-01" nType="-99"/>
          <Node pos="r" depth="2" NCoef="0" IVar="10" Cut="-1.3310083746910095e-01" cType="1" res="3.0635686125606298e-03" rms="1.9251300394535065e-01" purity="9.5329213142395020e-01" nType="0">
            <Node pos="l" depth="3" NCoef="0" IVar="-1" Cut="0.0000000000000000e+00" cType="1" res="-2.2740904241800308e-03" rms="1.9749470055103302e-01" purity="9.4966644048690796e-01" nType="-99"/>
            <Node pos="r" depth="3" NCoef="0" IVar="-1" Cut="0.0000000000000000e+00" cType="1" res="1.4532367698848248e-02" rms="1.8856705725193024e-01" purity="9.5605790615081787e-01" nType="-99"/>
          </Node>
        </Node>
      </Node>
    </BinaryTree>
    <BinaryTree type="DecisionTree" boostWeight="1.0000000000000000e+00" itree="106">
      <Node pos="s" depth="0" NCoef="0" IVar="3" Cut="5.0379873657226562e+02" cType="1" res="1.2257376220077276e-03" rms="3.0429425835609436e-01" purity="4.9854898452758789e-01" nType="0">
        <Node pos="l" depth="1" NCoef="0" IVar="0" Cut="3.6826068115234375e+02" cType="1" res="4.1700256988406181e-03" rms="3.0862873792648315e-01" purity="4.0860414505004883e-01" nType="0">
          <Node pos="l" depth="2" NCoef="0" IVar="4" Cut="2.8845800781250000e+02" cType="1" res="-3.5066897980868816e-03" rms="2.8013026714324951e-01" purity="1.5164677798748016e-01" nType="0">
            <Node pos="l" depth="3" NCoef="0" IVar="-1" Cut="0.0000000000000000e+00" cType="1" res="-6.0689210658892989e-04" rms="2.6780539751052856e-01" purity="1.1994580924510956e-01" nType="-99"/>
            <Node pos="r" depth="3" NCoef="0" IVar="-1" Cut="0.0000000000000000e+00" cType="1" res="-2.0940061658620834e-02" rms="3.7303367257118225e-01" purity="4.4058591127395630e-01" nType="-99"/>
          </Node>
          <Node pos="r" depth="2" NCoef="0" IVar="8" Cut="-6.6657251119613647e-01" cType="1" res="8.4574632346630096e-03" rms="3.2337486743927002e-01" purity="5.5211460590362549e-01" nType="0">
            <Node pos="l" depth="3" NCoef="0" IVar="-1" Cut="0.0000000000000000e+00" cType="1" res="1.9558109343051910e-02" rms="3.3086222410202026e-01" purity="4.7793307900428772e-01" nType="-99"/>
            <Node pos="r" depth="3" NCoef="0" IVar="-1" Cut="0.0000000000000000e+00" cType="1" res="4.0929606184363365e-03" rms="3.2048016786575317e-01" purity="5.7924962043762207e-01" nType="-99"/>
          </Node>
        </Node>
        <Node pos="r" depth="1" NCoef="0" IVar="1" Cut="1.6372542724609375e+03" cType="1" res="-6.5480517223477364e-03" rms="2.9239907860755920e-01" purity="7.3602980375289917e-01" nType="0">
          <Node pos="l" depth="2" NCoef="0" IVar="6" Cut="6.7983131408691406e+01" cType="1" res="-3.6049403250217438e-02" rms="3.3875149488449097e-01" purity="2.1426291763782501e-01" nType="0">
            <Node pos="l" depth="3" NCoef="0" IVar="-1" Cut="0.0000000000000000e+00" cType="1" res="-1.7023216933012009e-02" rms="3.1968754529953003e-01" purity="1.6220413148403168e-01" nType="-99"/>
            <Node pos="r" depth="3" NCoef="0" IVar="-1" Cut="0.0000000000000000e+00" cType="1" res="-3.7577543407678604e-02" rms="3.5469126701354980e-01" purity="2.6257041096687317e-01" nType="-99"/>
          </Node>
          <Node pos="r" depth="2" NCoef="0" IVar="5" Cut="1.4149678039550781e+02" cType="1" res="6.3975964440032840e-04" rms="2.7947387099266052e-01" purity="8.6315488815307617e-01" nType="0">
            <Node pos="l" depth="3" NCoef="0" IVar="-1" Cut="0.0000000000000000e+00" cType="1" res="9.1966325417160988e-03" rms="3.8217023015022278e-01" purity="7.0404988527297974e-01" nType="-99"/>
            <Node pos="r" depth="3" NCoef="0" IVar="-1" Cut="0.0000000000000000e+00" cType="1" res="-4.2693177238106728e-03" rms="2.4621601402759552e-01" purity="9.0397083759307861e-01" nType="-99"/>
          </Node>
        </Node>
      </Node>
    </BinaryTree>
    <BinaryTree type="DecisionTree" boostWeight="1.0000000000000000e+00" itree="107">
      <Node pos="s" depth="0" NCoef="0" IVar="3" Cut="3.5189874267578125e+02" cType="1" res="6.1490616644732654e-05" rms="3.0100169777870178e-01" purity="4.9333307147026062e-01" nType="0">
        <Node pos="l" depth="1" NCoef="0" IVar="10" Cut="-1.1998054981231689e+00" cType="1" res="-4.4479905627667904e-03" rms="2.9968550801277161e-01" purity="2.6352107524871826e-01" nType="0">
          <Node pos="l" depth="2" NCoef="0" IVar="7" Cut="-1.2034562975168228e-01" cType="1" res="1.1606628075242043e-02" rms="3.0760303139686584e-01" purity="2.5396415591239929e-01" nType="0">
            <Node pos="l" depth="3" NCoef="0" IVar="-1" Cut="0.0000000000000000e+00" cType="1" res="-6.4678634516894817e-03" rms="2.8446769714355469e-01" purity="2.0596477389335632e-01" nType="-99"/>
            <Node pos="r" depth="3" NCoef="0" IVar="-1" Cut="0.0000000000000000e+00" cType="1" res="3.1795721501111984e-02" rms="3.3005610108375549e-01" purity="3.0638298392295837e-01" nType="-99"/>
          </Node>
          <Node pos="r" depth="2" NCoef="0" IVar="3" Cut="2.5786648559570312e+02" cType="1" res="-8.4399404004216194e-03" rms="2.9754969477653503e-01" purity="2.6589736342430115e-01" nType="0">
            <Node pos="l" depth="3" NCoef="0" IVar="-1" Cut="0.0000000000000000e+00" cType="1" res="-2.6162859052419662e-02" rms="2.7105540037155151e-01" purity="1.3836424052715302e-01" nType="-99"/>
            <Node pos="r" depth="3" NCoef="0" IVar="-1" Cut="0.0000000000000000e+00" cType="1" res="-1.7595035023987293e-03" rms="3.1072545051574707e-01" purity="3.3484315872192383e-01" nType="-99"/>
          </Node>
        </Node>
        <Node pos="r" depth="1" NCoef="0" IVar="7" Cut="-6.0602277517318726e-01" cType="1" res="2.9377406463027000e-03" rms="3.0180302262306213e-01" purity="6.3991242647171021e-01" nType="0">
          <Node pos="l" depth="2" NCoef="0" IVar="2" Cut="3.3019773662090302e-02" cType="1" res="-8.5770050063729286e-03" rms="3.0026236176490784e-01" purity="4.9304011464118958e-01" nType="0">
            <Node pos="l" depth="3" NCoef="0" IVar="-1" Cut="0.0000000000000000e+00" cType="1" res="-1.9515061751008034e-02" rms="2.9464358091354370e-01" purity="2.9092296957969666e-01" nType="-99"/>
            <Node pos="r" depth="3" NCoef="0" IVar="-1" Cut="0.0000000000000000e+00" cType="1" res="7.4494685977697372e-03" rms="3.0773904919624329e-01" purity="7.9243481159210205e-01" nType="-99"/>
          </Node>
          <Node pos="r" depth="2" NCoef="0" IVar="2" Cut="4.1124317795038223e-02" cType="1" res="6.0637509450316429e-03" rms="3.0214419960975647e-01" purity="6.7978513240814209e-01" nType="0">
            <Node pos="l" depth="3" NCoef="0" IVar="-1" Cut="0.0000000000000000e+00" cType="1" res="1.2498583644628525e-02" rms="3.3329632878303528e-01" purity="4.9242004752159119e-01" nType="-99"/>
            <Node pos="r" depth="3" NCoef="0" IVar="-1" Cut="0.0000000000000000e+00" cType="1" res="-1.5998097369447351e-03" rms="2.6900291442871094e-01" purity="8.5793453454971313e-01" nType="-99"/>
          </Node>
        </Node>
      </Node>
    </BinaryTree>
    <BinaryTree type="DecisionTree" boostWeight="1.0000000000000000e+00" itree="108">
      <Node pos="s" depth="0" NCoef="0" IVar="10" Cut="-1.3333283364772797e-01" cType="1" res="2.1214543376117945e-03" rms="3.0409860610961914e-01" purity="5.0130176544189453e-01" nType="0">
        <Node pos="l" depth="1" NCoef="0" IVar="10" Cut="-2.6032030582427979e-01" cType="1" res="-5.4468703456223011e-03" rms="2.9887035489082336e-01" purity="4.8771092295646667e-01" nType="0">
          <Node pos="l" depth="2" NCoef="0" IVar="5" Cut="9.5740562438964844e+01" cType="1" res="-3.9548627100884914e-03" rms="2.9950696229934692e-01" purity="4.8509058356285095e-01" nType="0">
            <Node pos="l" depth="3" NCoef="0" IVar="-1" Cut="0.0000000000000000e+00" cType="1" res="6.4301351085305214e-03" rms="2.5854453444480896e-01" purity="1.1859610676765442e-01" nType="-99"/>
            <Node pos="r" depth="3" NCoef="0" IVar="-1" Cut="0.0000000000000000e+00" cType="1" res="-6.6626961342990398e-03" rms="3.1201940774917603e-01" purity="6.0822761058807373e-01" nType="-99"/>
          </Node>
          <Node pos="r" depth="2" NCoef="0" IVar="-1" Cut="0.0000000000000000e+00" cType="1" res="-2.6437435299158096e-02" rms="2.9069602489471436e-01" purity="5.1855915784835815e-01" nType="-99"/>
        </Node>
        <Node pos="r" depth="1" NCoef="0" IVar="9" Cut="-4.0000143647193909e-01" cType="1" res="8.3126099780201912e-03" rms="3.0817142128944397e-01" purity="5.1241946220397949e-01" nType="0">
          <Node pos="l" depth="2" NCoef="0" IVar="5" Cut="1.8686233520507812e+02" cType="1" res="1.9258312880992889e-02" rms="3.2184019684791565e-01" purity="5.0311887264251709e-01" nType="0">
            <Node pos="l" depth="3" NCoef="0" IVar="-1" Cut="0.0000000000000000e+00" cType="1" res="2.7306322008371353e-02" rms="3.4153470396995544e-01" purity="3.4971544146537781e-01" nType="-99"/>
            <Node pos="r" depth="3" NCoef="0" IVar="-1" Cut="0.0000000000000000e+00" cType="1" res="-1.2812408385798335e-03" rms="2.7100235223770142e-01" purity="8.5008192062377930e-01" nType="-99"/>
          </Node>
          <Node pos="r" depth="2" NCoef="0" IVar="8" Cut="1.1997114419937134e+00" cType="1" res="2.8367394115775824e-03" rms="3.0095112323760986e-01" purity="5.1707237958908081e-01" nType="0">
            <Node pos="l" depth="3" NCoef="0" IVar="-1" Cut="0.0000000000000000e+00" cType="1" res="-3.5340245813131332e-04" rms="3.0108985304832458e-01" purity="5.6119573116302490e-01" nType="-99"/>
            <Node pos="r" depth="3" NCoef="0" IVar="-1" Cut="0.0000000000000000e+00" cType="1" res="2.4349415674805641e-02" rms="2.9958221316337585e-01" purity="2.7322041988372803e-01" nType="-99"/>
          </Node>
        </Node>
      </Node>
    </BinaryTree>
    <BinaryTree type="DecisionTree" boostWeight="1.0000000000000000e+00" itree="109">
      <Node pos="s" depth="0" NCoef="0" IVar="10" Cut="9.3332964181900024e-01" cType="1" res="-2.2499794140458107e-03" rms="2.9867365956306458e-01" purity="5.0262951850891113e-01" nType="0">
        <Node pos="l" depth="1" NCoef="0" IVar="10" Cut="5.7777255773544312e-01" cType="1" res="9.7245210781693459e-05" rms="3.0026769638061523e-01" purity="5.2042353153228760e-01" nType="0">
          <Node pos="l" depth="2" NCoef="0" IVar="10" Cut="4.1692543029785156e-01" cType="1" res="-1.6148010035976768e-03" rms="3.0022582411766052e-01" purity="5.1507824659347534e-01" nType="0">
            <Node pos="l" depth="3" NCoef="0" IVar="-1" Cut="0.0000000000000000e+00" cType="1" res="-1.2879428686574101e-04" rms="3.0135333538055420e-01" purity="5.1290369033813477e-01" nType="-99"/>
            <Node pos="r" depth="3" NCoef="0" IVar="-1" Cut="0.0000000000000000e+00" cType="1" res="-2.5268765166401863e-02" rms="2.8371727466583252e-01" purity="5.4456508159637451e-01" nType="-99"/>
          </Node>
          <Node pos="r" depth="2" NCoef="0" IVar="2" Cut="2.0476995036005974e-02" cType="1" res="1.2113311327993870e-02" rms="3.0028679966926575e-01" purity="5.5793988704681396e-01" nType="0">
            <Node pos="l" depth="3" NCoef="0" IVar="-1" Cut="0.0000000000000000e+00" cType="1" res="4.0459573268890381e-02" rms="3.2016608119010925e-01" purity="3.2181224226951599e-01" nType="-99"/>
            <Node pos="r" depth="3" NCoef="0" IVar="-1" Cut="0.0000000000000000e+00" cType="1" res="-1.4353907899931073e-03" rms="2.8804063796997070e-01" purity="6.8607169389724731e-01" nType="-99"/>
          </Node>
        </Node>
        <Node pos="r" depth="1" NCoef="0" IVar="1" Cut="1.5699071044921875e+03" cType="1" res="-9.8786707967519760e-03" rms="2.9330343008041382e-01" purity="4.4479727745056152e-01" nType="0">
          <Node pos="l" depth="2" NCoef="0" IVar="1" Cut="1.1666507568359375e+03" cType="1" res="-1.6904607415199280e-02" rms="3.0112925171852112e-01" purity="2.0175451040267944e-01" nType="0">
            <Node pos="l" depth="3" NCoef="0" IVar="-1" Cut="0.0000000000000000e+00" cType="1" res="-5.9301899746060371e-03" rms="2.2430494427680969e-01" purity="6.4389370381832123e-02" nType="-99"/>
            <Node pos="r" depth="3" NCoef="0" IVar="-1" Cut="0.0000000000000000e+00" cType="1" res="-2.3160291835665703e-02" rms="3.7659385800361633e-01" purity="3.7765288352966309e-01" nType="-99"/>
          </Node>
          <Node pos="r" depth="2" NCoef="0" IVar="2" Cut="4.2657546699047089e-02" cType="1" res="2.0620978903025389e-03" rms="2.7909561991691589e-01" purity="8.5785502195358276e-01" nType="0">
            <Node pos="l" depth="3" NCoef="0" IVar="-1" Cut="0.0000000000000000e+00" cType="1" res="-5.9126168489456177e-03" rms="3.5046210885047913e-01" purity="7.1923923492431641e-01" nType="-99"/>
            <Node pos="r" depth="3" NCoef="0" IVar="-1" Cut="0.0000000000000000e+00" cType="1" res="1.4600410126149654e-02" rms="2.2504793107509613e-01" purity="9.4165074825286865e-01" nType="-99"/>
          </Node>
        </Node>
      </Node>
    </BinaryTree>
    <BinaryTree type="DecisionTree" boostWeight="1.0000000000000000e+00" itree="110">
      <Node pos="s" depth="0" NCoef="0" IVar="4" Cut="1.4131532287597656e+02" cType="1" res="-1.3284938177093863e-03" rms="3.0200269818305969e-01" purity="5.0035995244979858e-01" nType="0">
        <Node pos="l" depth="1" NCoef="0" IVar="8" Cut="1.3336019217967987e-01" cType="1" res="5.0351787358522415e-03" rms="2.3315082490444183e-01" purity="8.1336915493011475e-02" nType="0">
          <Node pos="l" depth="2" NCoef="0" IVar="10" Cut="1.3335683941841125e-01" cType="1" res="-4.2945747263729572e-03" rms="2.1739687025547028e-01" purity="6.6669069230556488e-02" nType="0">
            <Node pos="l" depth="3" NCoef="0" IVar="-1" Cut="0.0000000000000000e+00" cType="1" res="-4.1094172745943069e-02" rms="1.7900256812572479e-01" purity="4.3228384107351303e-02" nType="-99"/>
            <Node pos="r" depth="3" NCoef="0" IVar="-1" Cut="0.0000000000000000e+00" cType="1" res="2.7346525341272354e-02" rms="2.5824296474456787e-01" purity="9.7686700522899628e-02" nType="-99"/>
          </Node>
          <Node pos="r" depth="2" NCoef="0" IVar="2" Cut="1.7879979684948921e-02" cType="1" res="1.6008688136935234e-02" rms="2.4996991455554962e-01" purity="9.8589003086090088e-02" nType="0">
            <Node pos="l" depth="3" NCoef="0" IVar="-1" Cut="0.0000000000000000e+00" cType="1" res="1.5072250971570611e-03" rms="1.8500314652919769e-01" purity="5.1237720996141434e-02" nType="-99"/>
            <Node pos="r" depth="3" NCoef="0" IVar="-1" Cut="0.0000000000000000e+00" cType="1" res="4.3237689882516861e-02" rms="3.0404537916183472e-01" purity="1.4968758821487427e-01" nType="-99"/>
          </Node>
        </Node>
        <Node pos="r" depth="1" NCoef="0" IVar="5" Cut="1.8295077514648438e+02" cType="1" res="-2.7818263042718172e-03" rms="3.1560927629470825e-01" purity="5.9605622291564941e-01" nType="0">
          <Node pos="l" depth="2" NCoef="0" IVar="1" Cut="1.0771657714843750e+03" cType="1" res="-6.7643108777701855e-03" rms="3.4606420993804932e-01" purity="3.9816519618034363e-01" nType="0">
            <Node pos="l" depth="3" NCoef="0" IVar="-1" Cut="0.0000000000000000e+00" cType="1" res="1.1811781674623489e-02" rms="2.4943573772907257e-01" purity="7.2767622768878937e-02" nType="-99"/>
            <Node pos="r" depth="3" NCoef="0" IVar="-1" Cut="0.0000000000000000e+00" cType="1" res="-7.8420303761959076e-03" rms="3.6796200275421143e-01" purity="4.8694461584091187e-01" nType="-99"/>
          </Node>
          <Node pos="r" depth="2" NCoef="0" IVar="9" Cut="-6.6679674386978149e-01" cType="1" res="2.4815206415951252e-03" rms="2.7005219459533691e-01" purity="8.5759383440017700e-01" nType="0">
            <Node pos="l" depth="3" NCoef="0" IVar="-1" Cut="0.0000000000000000e+00" cType="1" res="-1.0683448053896427e-02" rms="2.9439350962638855e-01" purity="8.0576604604721069e-01" nType="-99"/>
            <Node pos="r" depth="3" NCoef="0" IVar="-1" Cut="0.0000000000000000e+00" cType="1" res="8.3302659913897514e-03" rms="2.6252421736717224e-01" purity="8.7251889705657959e-01" nType="-99"/>
          </Node>
        </Node>
      </Node>
    </BinaryTree>
    <BinaryTree type="DecisionTree" boostWeight="1.0000000000000000e+00" itree="111">
      <Node pos="s" depth="0" NCoef="0" IVar="2" Cut="4.2657293379306793e-02" cType="1" res="-1.9766011973842978e-06" rms="3.0046167969703674e-01" purity="5.0135332345962524e-01" nType="0">
        <Node pos="l" depth="1" NCoef="0" IVar="2" Cut="3.6562837660312653e-02" cType="1" res="-3.3045154996216297e-03" rms="2.9686245322227478e-01" purity="3.1842398643493652e-01" nType="0">
          <Node pos="l" depth="2" NCoef="0" IVar="6" Cut="1.2509043884277344e+02" cType="1" res="-5.5610891431570053e-03" rms="2.9301437735557556e-01" purity="2.9760283231735229e-01" nType="0">
            <Node pos="l" depth="3" NCoef="0" IVar="-1" Cut="0.0000000000000000e+00" cType="1" res="-9.6794720739126205e-03" rms="2.8649994730949402e-01" purity="2.2541233897209167e-01" nType="-99"/>
            <Node pos="r" depth="3" NCoef="0" IVar="-1" Cut="0.0000000000000000e+00" cType="1" res="1.0153126902878284e-02" rms="3.2885223627090454e-01" purity="7.2989481687545776e-01" nType="-99"/>
          </Node>
          <Node pos="r" depth="2" NCoef="0" IVar="-1" Cut="0.0000000000000000e+00" cType="1" res="1.9125852733850479e-02" rms="3.3408391475677490e-01" purity="5.3960943222045898e-01" nType="-99"/>
        </Node>
        <Node pos="r" depth="1" NCoef="0" IVar="10" Cut="1.2001117467880249e+00" cType="1" res="4.0519041940569878e-03" rms="3.0477270483970642e-01" purity="7.2589999437332153e-01" nType="0">
          <Node pos="l" depth="2" NCoef="0" IVar="10" Cut="-5.1384961605072021e-01" cType="1" res="3.8203419535420835e-04" rms="2.9781815409660339e-01" purity="7.3422026634216309e-01" nType="0">
            <Node pos="l" depth="3" NCoef="0" IVar="-1" Cut="0.0000000000000000e+00" cType="1" res="6.4757172949612141e-03" rms="3.0483061075210571e-01" purity="7.1149271726608276e-01" nType="-99"/>
            <Node pos="r" depth="3" NCoef="0" IVar="-1" Cut="0.0000000000000000e+00" cType="1" res="-4.6734558418393135e-03" rms="2.9234692454338074e-01" purity="7.5135302543640137e-01" nType="-99"/>
          </Node>
          <Node pos="r" depth="2" NCoef="0" IVar="-1" Cut="0.0000000000000000e+00" cType="1" res="2.1026432514190674e-02" rms="3.3581289649009705e-01" purity="6.8566811084747314e-01" nType="-99"/>
        </Node>
      </Node>
    </BinaryTree>
    <BinaryTree type="DecisionTree" boostWeight="1.0000000000000000e+00" itree="112">
      <Node pos="s" depth="0" NCoef="0" IVar="9" Cut="-1.7333366870880127e+00" cType="1" res="-1.3664367143064737e-03" rms="3.0350381135940552e-01" purity="4.9636328220367432e-01" nType="0">
        <Node pos="l" depth="1" NCoef="0" IVar="5" Cut="1.0978846740722656e+02" cType="1" res="-1.8580509349703789e-02" rms="2.8028860688209534e-01" purity="2.2198756039142609e-01" nType="0">
          <Node pos="l" depth="2" NCoef="0" IVar="-1" Cut="0.0000000000000000e+00" cType="1" res="-1.1935484595596790e-02" rms="2.2095435857772827e-01" purity="8.5950769484043121e-02" nType="-99"/>
          <Node pos="r" depth="2" NCoef="0" IVar="-1" Cut="0.0000000000000000e+00" cType="1" res="-2.7667468413710594e-02" rms="3.3402174711227417e-01" purity="3.7453773617744446e-01" nType="-99"/>
        </Node>
        <Node pos="r" depth="1" NCoef="0" IVar="0" Cut="4.5299456787109375e+02" cType="1" res="-1.5958590665832162e-04" rms="3.0502870678901672e-01" purity="5.1559931039810181e-01" nType="0">
          <Node pos="l" depth="2" NCoef="0" IVar="2" Cut="8.3667837083339691e-02" cType="1" res="3.8041842635720968e-03" rms="3.1644833087921143e-01" purity="2.5219836831092834e-01" nType="0">
            <Node pos="l" depth="3" NCoef="0" IVar="-1" Cut="0.0000000000000000e+00" cType="1" res="9.0852752327919006e-03" rms="3.0313336849212646e-01" purity="1.8679934740066528e-01" nType="-99"/>
            <Node pos="r" depth="3" NCoef="0" IVar="-1" Cut="0.0000000000000000e+00" cType="1" res="-1.1916116811335087e-02" rms="3.7262910604476929e-01" purity="5.6317168474197388e-01" nType="-99"/>
          </Node>
          <Node pos="r" depth="2" NCoef="0" IVar="10" Cut="-1.4666663408279419e+00" cType="1" res="-4.1292607784271240e-03" rms="2.9309281706809998e-01" purity="7.7939271926879883e-01" nType="0">
            <Node pos="l" depth="3" NCoef="0" IVar="-1" Cut="0.0000000000000000e+00" cType="1" res="-2.4735772982239723e-02" rms="3.2122811675071716e-01" purity="6.9222658872604370e-01" nType="-99"/>
            <Node pos="r" depth="3" NCoef="0" IVar="-1" Cut="0.0000000000000000e+00" cType="1" res="-2.1652926225215197e-03" rms="2.8958740830421448e-01" purity="7.8942286968231201e-01" nType="-99"/>
          </Node>
        </Node>
      </Node>
    </BinaryTree>
    <BinaryTree type="DecisionTree" boostWeight="1.0000000000000000e+00" itree="113">
      <Node pos="s" depth="0" NCoef="0" IVar="10" Cut="-9.3332868814468384e-01" cType="1" res="7.8139473771443591e-06" rms="2.9963362216949463e-01" purity="5.0200843811035156e-01" nType="0">
        <Node pos="l" depth="1" NCoef="0" IVar="8" Cut="4.0008845925331116e-01" cType="1" res="8.5431607440114021e-03" rms="3.0622470378875732e-01" purity="4.5753771066665649e-01" nType="0">
          <Node pos="l" depth="2" NCoef="0" IVar="0" Cut="4.1502429199218750e+02" cType="1" res="1.2586875818669796e-02" rms="3.0717942118644714e-01" purity="4.7186267375946045e-01" nType="0">
            <Node pos="l" depth="3" NCoef="0" IVar="-1" Cut="0.0000000000000000e+00" cType="1" res="1.2171994894742966e-03" rms="2.9266184568405151e-01" purity="1.8939912319183350e-01" nType="-99"/>
            <Node pos="r" depth="3" NCoef="0" IVar="-1" Cut="0.0000000000000000e+00" cType="1" res="2.2241458296775818e-02" rms="3.1786122918128967e-01" purity="6.9454818964004517e-01" nType="-99"/>
          </Node>
          <Node pos="r" depth="2" NCoef="0" IVar="10" Cut="-1.3778786659240723e+00" cType="1" res="-7.9255248419940472e-04" rms="3.0380365252494812e-01" purity="4.2446568608283997e-01" nType="0">
            <Node pos="l" depth="3" NCoef="0" IVar="-1" Cut="0.0000000000000000e+00" cType="1" res="-1.3079395517706871e-02" rms="2.9384544491767883e-01" purity="3.7898191809654236e-01" nType="-99"/>
            <Node pos="r" depth="3" NCoef="0" IVar="-1" Cut="0.0000000000000000e+00" cType="1" res="1.7138050869107246e-02" rms="3.1736868619918823e-01" purity="4.9276006221771240e-01" nType="-99"/>
          </Node>
        </Node>
        <Node pos="r" depth="1" NCoef="0" IVar="6" Cut="1.0769303131103516e+02" cType="1" res="-2.6650163345038891e-03" rms="2.9748928546905518e-01" purity="5.1593434810638428e-01" nType="0">
          <Node pos="l" depth="2" NCoef="0" IVar="2" Cut="4.1834041476249695e-02" cType="1" res="-7.0782606489956379e-03" rms="3.0856737494468689e-01" purity="3.0602788925170898e-01" nType="0">
            <Node pos="l" depth="3" NCoef="0" IVar="-1" Cut="0.0000000000000000e+00" cType="1" res="-3.7167717237025499e-03" rms="2.8679862618446350e-01" purity="2.2385780513286591e-01" nType="-99"/>
            <Node pos="r" depth="3" NCoef="0" IVar="-1" Cut="0.0000000000000000e+00" cType="1" res="-1.2998697347939014e-02" rms="3.5285544395446777e-01" purity="4.9245011806488037e-01" nType="-99"/>
          </Node>
          <Node pos="r" depth="2" NCoef="0" IVar="3" Cut="4.2628295898437500e+02" cType="1" res="3.9371075108647346e-03" rms="2.7997004985809326e-01" purity="8.2995021343231201e-01" nType="0">
            <Node pos="l" depth="3" NCoef="0" IVar="-1" Cut="0.0000000000000000e+00" cType="1" res="1.0248207487165928e-02" rms="3.2735434174537659e-01" purity="7.4384868144989014e-01" nType="-99"/>
            <Node pos="r" depth="3" NCoef="0" IVar="-1" Cut="0.0000000000000000e+00" cType="1" res="-2.7865779120475054e-03" rms="2.3527623713016510e-01" purity="8.9864283800125122e-01" nType="-99"/>
          </Node>
        </Node>
      </Node>
    </BinaryTree>
    <BinaryTree type="DecisionTree" boostWeight="1.0000000000000000e+00" itree="114">
      <Node pos="s" depth="0" NCoef="0" IVar="0" Cut="4.3904400634765625e+02" cType="1" res="2.0705389324575663e-03" rms="2.9999157786369324e-01" purity="5.0975149869918823e-01" nType="0">
        <Node pos="l" depth="1" NCoef="0" IVar="0" Cut="3.7945336914062500e+02" cType="1" res="6.0076061636209488e-03" rms="3.0849456787109375e-01" purity="2.3222969472408295e-01" nType="0">
          <Node pos="l" depth="2" NCoef="0" IVar="7" Cut="-1.0725830495357513e-01" cType="1" res="-9.0008752886205912e-04" rms="2.8931385278701782e-01" purity="1.7104117572307587e-01" nType="0">
            <Node pos="l" depth="3" NCoef="0" IVar="-1" Cut="0.0000000000000000e+00" cType="1" res="-1.0740337893366814e-02" rms="2.7959769964218140e-01" purity="1.5240859985351562e-01" nType="-99"/>
            <Node pos="r" depth="3" NCoef="0" IVar="-1" Cut="0.0000000000000000e+00" cType="1" res="6.6239419393241405e-03" rms="2.9715368151664734e-01" purity="1.8686352670192719e-01" nType="-99"/>
          </Node>
          <Node pos="r" depth="2" NCoef="0" IVar="5" Cut="9.2516532897949219e+01" cType="1" res="1.9495651125907898e-02" rms="3.4246641397476196e-01" purity="3.5170710086822510e-01" nType="0">
            <Node pos="l" depth="3" NCoef="0" IVar="-1" Cut="0.0000000000000000e+00" cType="1" res="4.9929227679967880e-03" rms="2.2892355918884277e-01" purity="6.7718699574470520e-02" nType="-99"/>
            <Node pos="r" depth="3" NCoef="0" IVar="-1" Cut="0.0000000000000000e+00" cType="1" res="1.9014768302440643e-02" rms="3.8088941574096680e-01" purity="4.7413471341133118e-01" nType="-99"/>
          </Node>
        </Node>
        <Node pos="r" depth="1" NCoef="0" IVar="7" Cut="1.6005377471446991e-01" cType="1" res="-1.4386494876816869e-03" rms="2.9215949773788452e-01" purity="7.5711232423782349e-01" nType="0">
          <Node pos="l" depth="2" NCoef="0" IVar="8" Cut="-1.2000008821487427e+00" cType="1" res="3.4440504387021065e-03" rms="2.9174938797950745e-01" purity="7.7102291584014893e-01" nType="0">
            <Node pos="l" depth="3" NCoef="0" IVar="-1" Cut="0.0000000000000000e+00" cType="1" res="2.0092455670237541e-02" rms="3.4802359342575073e-01" purity="5.6871610879898071e-01" nType="-99"/>
            <Node pos="r" depth="3" NCoef="0" IVar="-1" Cut="0.0000000000000000e+00" cType="1" res="1.5418938128277659e-03" rms="2.8470188379287720e-01" purity="7.9358869791030884e-01" nType="-99"/>
          </Node>
          <Node pos="r" depth="2" NCoef="0" IVar="6" Cut="7.4767852783203125e+01" cType="1" res="-8.4000108763575554e-03" rms="2.9260230064392090e-01" purity="7.3727989196777344e-01" nType="0">
            <Node pos="l" depth="3" NCoef="0" IVar="-1" Cut="0.0000000000000000e+00" cType="1" res="-2.6313448324799538e-02" rms="3.4567081928253174e-01" purity="3.9244934916496277e-01" nType="-99"/>
            <Node pos="r" depth="3" NCoef="0" IVar="-1" Cut="0.0000000000000000e+00" cType="1" res="-1.2646764516830444e-03" rms="2.7318990230560303e-01" purity="8.4675830602645874e-01" nType="-99"/>
          </Node>
        </Node>
      </Node>
    </BinaryTree>
    <BinaryTree type="DecisionTree" boostWeight="1.0000000000000000e+00" itree="115">
      <Node pos="s" depth="0" NCoef="0" IVar="2" Cut="2.1328777074813843e-02" cType="1" res="-1.0382980108261108e-03" rms="3.0017796158790588e-01" purity="4.9750238656997681e-01" nType="0">
        <Node pos="l" depth="1" NCoef="0" IVar="2" Cut="1.0156664997339249e-02" cType="1" res="6.2822266481816769e-03" rms="2.8841602802276611e-01" purity="2.5235238671302795e-01" nType="0">
          <Node pos="l" depth="2" NCoef="0" IVar="2" Cut="8.2219643518328667e-03" cType="1" res="-3.0136131681501865e-04" rms="2.6537534594535828e-01" purity="1.8696732819080353e-01" nType="0">
            <Node pos="l" depth="3" NCoef="0" IVar="-1" Cut="0.0000000000000000e+00" cType="1" res="5.4439972154796124e-03" rms="2.6624259352684021e-01" purity="1.7997580766677856e-01" nType="-99"/>
            <Node pos="r" depth="3" NCoef="0" IVar="-1" Cut="0.0000000000000000e+00" cType="1" res="-2.8163634240627289e-02" rms="2.5948929786682129e-01" purity="2.2469353675842285e-01" nType="-99"/>
          </Node>
          <Node pos="r" depth="2" NCoef="0" IVar="5" Cut="9.4844429016113281e+01" cType="1" res="1.5197880566120148e-02" rms="3.1674149632453918e-01" purity="3.4089839458465576e-01" nType="0">
            <Node pos="l" depth="3" NCoef="0" IVar="-1" Cut="0.0000000000000000e+00" cType="1" res="-1.1849307455122471e-02" rms="2.3195530474185944e-01" purity="8.4662914276123047e-02" nType="-99"/>
            <Node pos="r" depth="3" NCoef="0" IVar="-1" Cut="0.0000000000000000e+00" cType="1" res="2.1587891504168510e-02" rms="3.4734913706779480e-01" purity="4.5455691218376160e-01" nType="-99"/>
          </Node>
        </Node>
        <Node pos="r" depth="1" NCoef="0" IVar="4" Cut="3.2050341796875000e+02" cType="1" res="-5.2384245209395885e-03" rms="3.0664390325546265e-01" purity="6.3815635442733765e-01" nType="0">
          <Node pos="l" depth="2" NCoef="0" IVar="10" Cut="1.3342392444610596e-01" cType="1" res="-9.9452035501599312e-03" rms="3.3202144503593445e-01" purity="5.1352989673614502e-01" nType="0">
            <Node pos="l" depth="3" NCoef="0" IVar="-1" Cut="0.0000000000000000e+00" cType="1" res="-3.7967835087329149e-03" rms="3.3465909957885742e-01" purity="5.1897019147872925e-01" nType="-99"/>
            <Node pos="r" depth="3" NCoef="0" IVar="-1" Cut="0.0000000000000000e+00" cType="1" res="-1.5090502798557281e-02" rms="3.2875216007232666e-01" purity="5.0710493326187134e-01" nType="-99"/>
          </Node>
          <Node pos="r" depth="2" NCoef="0" IVar="7" Cut="5.6822471320629120e-02" cType="1" res="5.3740586154162884e-03" rms="2.3942406475543976e-01" purity="9.1915464401245117e-01" nType="0">
            <Node pos="l" depth="3" NCoef="0" IVar="-1" Cut="0.0000000000000000e+00" cType="1" res="2.1640947088599205e-02" rms="2.4036155641078949e-01" purity="9.2308747768402100e-01" nType="-99"/>
            <Node pos="r" depth="3" NCoef="0" IVar="-1" Cut="0.0000000000000000e+00" cType="1" res="-7.8900745138525963e-03" rms="2.3788611590862274e-01" purity="9.1424167156219482e-01" nType="-99"/>
          </Node>
        </Node>
      </Node>
    </BinaryTree>
    <BinaryTree type="DecisionTree" boostWeight="1.0000000000000000e+00" itree="116">
      <Node pos="s" depth="0" NCoef="0" IVar="10" Cut="-1.4666607379913330e+00" cType="1" res="-6.9682439789175987e-04" rms="3.0054050683975220e-01" purity="4.9815052747726440e-01" nType="0">
        <Node pos="l" depth="1" NCoef="0" IVar="8" Cut="4.0024456381797791e-01" cType="1" res="-1.3862109743058681e-02" rms="2.9109850525856018e-01" purity="3.8166642189025879e-01" nType="0">
          <Node pos="l" depth="2" NCoef="0" IVar="9" Cut="-4.0004816651344299e-01" cType="1" res="-3.6877968814224005e-03" rms="2.9928123950958252e-01" purity="4.0781474113464355e-01" nType="0">
            <Node pos="l" depth="3" NCoef="0" IVar="-1" Cut="0.0000000000000000e+00" cType="1" res="-2.3515151813626289e-02" rms="2.7821907401084900e-01" purity="3.2574981451034546e-01" nType="-99"/>
            <Node pos="r" depth="3" NCoef="0" IVar="-1" Cut="0.0000000000000000e+00" cType="1" res="9.1379331424832344e-03" rms="3.1478941440582275e-01" purity="4.7442623972892761e-01" nType="-99"/>
          </Node>
          <Node pos="r" depth="2" NCoef="0" IVar="-1" Cut="0.0000000000000000e+00" cType="1" res="-4.4285759329795837e-02" rms="2.6902237534523010e-01" purity="3.1926485896110535e-01" nType="-99"/>
        </Node>
        <Node pos="r" depth="1" NCoef="0" IVar="1" Cut="1.4400631103515625e+03" cType="1" res="1.1370889842510223e-03" rms="3.0178675055503845e-01" purity="5.1437669992446899e-01" nType="0">
          <Node pos="l" depth="2" NCoef="0" IVar="1" Cut="1.3181441650390625e+03" cType="1" res="5.1742242649197578e-03" rms="3.1648904085159302e-01" purity="1.9324198365211487e-01" nType="0">
            <Node pos="l" depth="3" NCoef="0" IVar="-1" Cut="0.0000000000000000e+00" cType="1" res="1.3853028649464250e-03" rms="2.9394763708114624e-01" purity="1.3975442945957184e-01" nType="-99"/>
            <Node pos="r" depth="3" NCoef="0" IVar="-1" Cut="0.0000000000000000e+00" cType="1" res="1.5915313735604286e-02" rms="4.1406536102294922e-01" purity="4.7232615947723389e-01" nType="-99"/>
          </Node>
          <Node pos="r" depth="2" NCoef="0" IVar="4" Cut="2.3020114135742188e+02" cType="1" res="-2.9415949247777462e-03" rms="2.8610932826995850e-01" purity="8.3881628513336182e-01" nType="0">
            <Node pos="l" depth="3" NCoef="0" IVar="-1" Cut="0.0000000000000000e+00" cType="1" res="-1.4563404023647308e-02" rms="3.6524093151092529e-01" purity="6.8049317598342896e-01" nType="-99"/>
            <Node pos="r" depth="3" NCoef="0" IVar="-1" Cut="0.0000000000000000e+00" cType="1" res="-2.7024274459108710e-04" rms="2.7025473117828369e-01" purity="8.6575305461883545e-01" nType="-99"/>
          </Node>
        </Node>
      </Node>
    </BinaryTree>
    <BinaryTree type="DecisionTree" boostWeight="1.0000000000000000e+00" itree="117">
      <Node pos="s" depth="0" NCoef="0" IVar="7" Cut="1.7352451086044312e+00" cType="1" res="1.8232110887765884e-03" rms="3.0272954702377319e-01" purity="5.0315696001052856e-01" nType="0">
        <Node pos="l" depth="1" NCoef="0" IVar="10" Cut="-6.6671860218048096e-01" cType="1" res="2.5035247672349215e-03" rms="3.0679357051849365e-01" purity="5.2015626430511475e-01" nType="0">
          <Node pos="l" depth="2" NCoef="0" IVar="9" Cut="6.6646426916122437e-01" cType="1" res="-2.8247893787920475e-03" rms="3.0633032321929932e-01" purity="4.7922495007514954e-01" nType="0">
            <Node pos="l" depth="3" NCoef="0" IVar="-1" Cut="0.0000000000000000e+00" cType="1" res="-8.1495400518178940e-03" rms="2.9935660958290100e-01" purity="4.8284581303596497e-01" nType="-99"/>
            <Node pos="r" depth="3" NCoef="0" IVar="-1" Cut="0.0000000000000000e+00" cType="1" res="1.1669687926769257e-02" rms="3.2638269662857056e-01" purity="4.6812218427658081e-01" nType="-99"/>
          </Node>
          <Node pos="r" depth="2" NCoef="0" IVar="10" Cut="-3.3655500411987305e-01" cType="1" res="4.8067444004118443e-03" rms="3.0696499347686768e-01" purity="5.3784924745559692e-01" nType="0">
            <Node pos="l" depth="3" NCoef="0" IVar="-1" Cut="0.0000000000000000e+00" cType="1" res="2.0174961537122726e-02" rms="3.1631308794021606e-01" purity="5.5814856290817261e-01" nType="-99"/>
            <Node pos="r" depth="3" NCoef="0" IVar="-1" Cut="0.0000000000000000e+00" cType="1" res="2.8185432311147451e-03" rms="3.0543372035026550e-01" purity="5.3470748662948608e-01" nType="-99"/>
          </Node>
        </Node>
        <Node pos="r" depth="1" NCoef="0" IVar="-1" Cut="0.0000000000000000e+00" cType="1" res="-4.0114261209964752e-02" rms="1.6075038909912109e-01" purity="5.3874451667070389e-02" nType="-99"/>
      </Node>
    </BinaryTree>
    <BinaryTree type="DecisionTree" boostWeight="1.0000000000000000e+00" itree="118">
      <Node pos="s" depth="0" NCoef="0" IVar="10" Cut="-1.9999583959579468e+00" cType="1" res="-9.6133223269134760e-04" rms="3.0048835277557373e-01" purity="4.9797233939170837e-01" nType="0">
        <Node pos="l" depth="1" NCoef="0" IVar="7" Cut="-8.8887862861156464e-02" cType="1" res="2.1156242117285728e-02" rms="3.1653636693954468e-01" purity="3.5076183080673218e-01" nType="0">
          <Node pos="l" depth="2" NCoef="0" IVar="-1" Cut="0.0000000000000000e+00" cType="1" res="3.7965103983879089e-02" rms="3.1625896692276001e-01" purity="3.4863215684890747e-01" nType="-99"/>
          <Node pos="r" depth="2" NCoef="0" IVar="-1" Cut="0.0000000000000000e+00" cType="1" res="7.8750420361757278e-03" rms="3.1623929738998413e-01" purity="3.5302710533142090e-01" nType="-99"/>
        </Node>
        <Node pos="r" depth="1" NCoef="0" IVar="7" Cut="-9.2565250396728516e-01" cType="1" res="-2.2153223399072886e-03" rms="2.9950383305549622e-01" purity="5.0631862878799438e-01" nType="0">
          <Node pos="l" depth="2" NCoef="0" IVar="9" Cut="-3.9999893307685852e-01" cType="1" res="-1.2140835635364056e-02" rms="2.6998770236968994e-01" purity="2.4141311645507812e-01" nType="0">
            <Node pos="l" depth="3" NCoef="0" IVar="-1" Cut="0.0000000000000000e+00" cType="1" res="-2.9169535264372826e-02" rms="2.5236693024635315e-01" purity="2.0157459378242493e-01" nType="-99"/>
            <Node pos="r" depth="3" NCoef="0" IVar="-1" Cut="0.0000000000000000e+00" cType="1" res="-5.1324246451258659e-03" rms="2.8303661942481995e-01" purity="2.7324947714805603e-01" nType="-99"/>
          </Node>
          <Node pos="r" depth="2" NCoef="0" IVar="7" Cut="-7.4822419881820679e-01" cType="1" res="-5.3708057384938002e-04" rms="3.0417957901954651e-01" purity="5.5110991001129150e-01" nType="0">
            <Node pos="l" depth="3" NCoef="0" IVar="-1" Cut="0.0000000000000000e+00" cType="1" res="-1.7359999939799309e-02" rms="3.1037861108779907e-01" purity="4.9353671073913574e-01" nType="-99"/>
            <Node pos="r" depth="3" NCoef="0" IVar="-1" Cut="0.0000000000000000e+00" cType="1" res="4.6508252853527665e-04" rms="3.0378839373588562e-01" purity="5.5444741249084473e-01" nType="-99"/>
          </Node>
        </Node>
      </Node>
    </BinaryTree>
    <BinaryTree type="DecisionTree" boostWeight="1.0000000000000000e+00" itree="119">
      <Node pos="s" depth="0" NCoef="0" IVar="2" Cut="6.3949689269065857e-02" cType="1" res="1.8181144259870052e-03" rms="3.0376729369163513e-01" purity="5.0178945064544678e-01" nType="0">
        <Node pos="l" depth="1" NCoef="0" IVar="1" Cut="1.7444438476562500e+03" cType="1" res="5.0084153190255165e-03" rms="3.1144827604293823e-01" purity="3.7242481112480164e-01" nType="0">
          <Node pos="l" depth="2" NCoef="0" IVar="0" Cut="3.6301821899414062e+02" cType="1" res="8.5949422791600227e-03" rms="3.1719321012496948e-01" purity="2.2038391232490540e-01" nType="0">
            <Node pos="l" depth="3" NCoef="0" IVar="-1" Cut="0.0000000000000000e+00" cType="1" res="-5.2501778118312359e-03" rms="2.4290046095848083e-01" purity="9.4947755336761475e-02" nType="-99"/>
            <Node pos="r" depth="3" NCoef="0" IVar="-1" Cut="0.0000000000000000e+00" cType="1" res="1.4092613942921162e-02" rms="3.5885158181190491e-01" purity="3.0577695369720459e-01" nType="-99"/>
          </Node>
          <Node pos="r" depth="2" NCoef="0" IVar="0" Cut="7.5937695312500000e+02" cType="1" res="-6.4029060304164886e-03" rms="2.9212683439254761e-01" purity="8.5617613792419434e-01" nType="0">
            <Node pos="l" depth="3" NCoef="0" IVar="-1" Cut="0.0000000000000000e+00" cType="1" res="-1.5716053545475006e-02" rms="3.2569521665573120e-01" purity="8.0514937639236450e-01" nType="-99"/>
            <Node pos="r" depth="3" NCoef="0" IVar="-1" Cut="0.0000000000000000e+00" cType="1" res="6.4806174486875534e-03" rms="2.4768154323101044e-01" purity="9.1468101739883423e-01" nType="-99"/>
          </Node>
        </Node>
        <Node pos="r" depth="1" NCoef="0" IVar="1" Cut="1.5843023681640625e+03" cType="1" res="-4.8669199459254742e-03" rms="2.8689152002334595e-01" purity="7.7286326885223389e-01" nType="0">
          <Node pos="l" depth="2" NCoef="0" IVar="1" Cut="1.1361436767578125e+03" cType="1" res="-1.5525138936936855e-02" rms="3.8723942637443542e-01" purity="5.0873839855194092e-01" nType="0">
            <Node pos="l" depth="3" NCoef="0" IVar="-1" Cut="0.0000000000000000e+00" cType="1" res="1.1269865557551384e-02" rms="3.4531858563423157e-01" purity="1.6411250829696655e-01" nType="-99"/>
            <Node pos="r" depth="3" NCoef="0" IVar="-1" Cut="0.0000000000000000e+00" cType="1" res="-1.8542448058724403e-02" rms="4.0655437111854553e-01" purity="6.8800681829452515e-01" nType="-99"/>
          </Node>
          <Node pos="r" depth="2" NCoef="0" IVar="0" Cut="6.1225531005859375e+02" cType="1" res="2.7537420392036438e-03" rms="1.8384546041488647e-01" purity="9.6171337366104126e-01" nType="0">
            <Node pos="l" depth="3" NCoef="0" IVar="-1" Cut="0.0000000000000000e+00" cType="1" res="-2.7255103923380375e-03" rms="2.4018280208110809e-01" purity="9.3230563402175903e-01" nType="-99"/>
            <Node pos="r" depth="3" NCoef="0" IVar="-1" Cut="0.0000000000000000e+00" cType="1" res="2.1957637742161751e-02" rms="1.3892801105976105e-01" purity="9.7953897714614868e-01" nType="-99"/>
          </Node>
        </Node>
      </Node>
    </BinaryTree>
    <BinaryTree type="DecisionTree" boostWeight="1.0000000000000000e+00" itree="120">
      <Node pos="s" depth="0" NCoef="0" IVar="5" Cut="1.4134704589843750e+02" cType="1" res="3.0735714244656265e-04" rms="3.0452790856361389e-01" purity="4.9923792481422424e-01" nType="0">
        <Node pos="l" depth="1" NCoef="0" IVar="5" Cut="6.7449592590332031e+01" cType="1" res="5.8835968375205994e-03" rms="3.0711859464645386e-01" purity="2.2348661720752716e-01" nType="0">
          <Node pos="l" depth="2" NCoef="0" IVar="9" Cut="1.3320523500442505e-01" cType="1" res="-1.4650035649538040e-02" rms="1.9787631928920746e-01" purity="4.6578794717788696e-02" nType="0">
            <Node pos="l" depth="3" NCoef="0" IVar="-1" Cut="0.0000000000000000e+00" cType="1" res="-5.3620807826519012e-02" rms="1.8180657923221588e-01" purity="3.8475021719932556e-02" nType="-99"/>
            <Node pos="r" depth="3" NCoef="0" IVar="-1" Cut="0.0000000000000000e+00" cType="1" res="-1.0656359605491161e-02" rms="2.1360631287097931e-01" purity="5.5429175496101379e-02" nType="-99"/>
          </Node>
          <Node pos="r" depth="2" NCoef="0" IVar="10" Cut="1.7332834005355835e+00" cType="1" res="8.7300464510917664e-03" rms="3.1922203302383423e-01" purity="2.4801023304462433e-01" nType="0">
            <Node pos="l" depth="3" NCoef="0" IVar="-1" Cut="0.0000000000000000e+00" cType="1" res="6.0571376234292984e-03" rms="3.1748369336128235e-01" purity="2.5287726521492004e-01" nType="-99"/>
            <Node pos="r" depth="3" NCoef="0" IVar="-1" Cut="0.0000000000000000e+00" cType="1" res="3.8195848464965820e-02" rms="3.3283987641334534e-01" purity="2.0610171556472778e-01" nType="-99"/>
          </Node>
        </Node>
        <Node pos="r" depth="1" NCoef="0" IVar="5" Cut="1.8264260864257812e+02" cType="1" res="-5.0969165749847889e-03" rms="3.0189761519432068e-01" purity="7.6648527383804321e-01" nType="0">
          <Node pos="l" depth="2" NCoef="0" IVar="10" Cut="-1.3327530026435852e-01" cType="1" res="-1.8068945035338402e-02" rms="3.5703763365745544e-01" purity="5.7814508676528931e-01" nType="0">
            <Node pos="l" depth="3" NCoef="0" IVar="-1" Cut="0.0000000000000000e+00" cType="1" res="-2.4053169414401054e-02" rms="3.4890180826187134e-01" purity="5.5818575620651245e-01" nType="-99"/>
            <Node pos="r" depth="3" NCoef="0" IVar="-1" Cut="0.0000000000000000e+00" cType="1" res="-6.5333009697496891e-03" rms="3.6318987607955933e-01" purity="5.9427982568740845e-01" nType="-99"/>
          </Node>
          <Node pos="r" depth="2" NCoef="0" IVar="8" Cut="-9.3310159444808960e-01" cType="1" res="1.0524876415729523e-03" rms="2.7166259288787842e-01" purity="8.5576820373535156e-01" nType="0">
            <Node pos="l" depth="3" NCoef="0" IVar="-1" Cut="0.0000000000000000e+00" cType="1" res="-2.1078364923596382e-02" rms="3.1465688347816467e-01" purity="7.4484223127365112e-01" nType="-99"/>
            <Node pos="r" depth="3" NCoef="0" IVar="-1" Cut="0.0000000000000000e+00" cType="1" res="5.8608883991837502e-03" rms="2.6471924781799316e-01" purity="8.7180590629577637e-01" nType="-99"/>
          </Node>
        </Node>
      </Node>
    </BinaryTree>
    <BinaryTree type="DecisionTree" boostWeight="1.0000000000000000e+00" itree="121">
      <Node pos="s" depth="0" NCoef="0" IVar="2" Cut="2.1316707134246826e-02" cType="1" res="1.4901744434610009e-03" rms="3.0376833677291870e-01" purity="5.0103306770324707e-01" nType="0">
        <Node pos="l" depth="1" NCoef="0" IVar="2" Cut="1.6241345554590225e-02" cType="1" res="7.4338959529995918e-03" rms="2.9087424278259277e-01" purity="2.5319227576255798e-01" nType="0">
          <Node pos="l" depth="2" NCoef="0" IVar="10" Cut="9.3332964181900024e-01" cType="1" res="2.7100171428173780e-03" rms="2.8012418746948242e-01" purity="2.2495046257972717e-01" nType="0">
            <Node pos="l" depth="3" NCoef="0" IVar="-1" Cut="0.0000000000000000e+00" cType="1" res="1.0346378199756145e-02" rms="2.9186612367630005e-01" purity="2.5140428543090820e-01" nType="-99"/>
            <Node pos="r" depth="3" NCoef="0" IVar="-1" Cut="0.0000000000000000e+00" cType="1" res="-2.2806337103247643e-02" rms="2.3877650499343872e-01" purity="1.4225180447101593e-01" nType="-99"/>
          </Node>
          <Node pos="r" depth="2" NCoef="0" IVar="6" Cut="7.4830780029296875e+01" cType="1" res="2.9367199167609215e-02" rms="3.3544534444808960e-01" purity="3.8432103395462036e-01" nType="0">
            <Node pos="l" depth="3" NCoef="0" IVar="-1" Cut="0.0000000000000000e+00" cType="1" res="-2.6165654417127371e-03" rms="2.7879804372787476e-01" purity="1.7611445486545563e-01" nType="-99"/>
            <Node pos="r" depth="3" NCoef="0" IVar="-1" Cut="0.0000000000000000e+00" cType="1" res="4.4927906244993210e-02" rms="3.7106996774673462e-01" purity="5.4292058944702148e-01" nType="-99"/>
          </Node>
        </Node>
        <Node pos="r" depth="1" NCoef="0" IVar="9" Cut="-1.7332581281661987e+00" cType="1" res="-1.8915787804871798e-03" rms="3.1081524491310120e-01" purity="6.4204508066177368e-01" nType="0">
          <Node pos="l" depth="2" NCoef="0" IVar="-1" Cut="0.0000000000000000e+00" cType="1" res="2.0070020109415054e-02" rms="3.5695967078208923e-01" purity="3.9765644073486328e-01" nType="-99"/>
          <Node pos="r" depth="2" NCoef="0" IVar="8" Cut="-1.2046175003051758e+00" cType="1" res="-3.2386500388383865e-03" rms="3.0796715617179871e-01" purity="6.5575134754180908e-01" nType="0">
            <Node pos="l" depth="3" NCoef="0" IVar="-1" Cut="0.0000000000000000e+00" cType="1" res="1.0616814717650414e-02" rms="3.4330770373344421e-01" purity="4.6998211741447449e-01" nType="-99"/>
            <Node pos="r" depth="3" NCoef="0" IVar="-1" Cut="0.0000000000000000e+00" cType="1" res="-4.9647409468889236e-03" rms="3.0451804399490356e-01" purity="6.7262423038482666e-01" nType="-99"/>
          </Node>
        </Node>
      </Node>
    </BinaryTree>
    <BinaryTree type="DecisionTree" boostWeight="1.0000000000000000e+00" itree="122">
      <Node pos="s" depth="0" NCoef="0" IVar="7" Cut="1.4518496394157410e-01" cType="1" res="9.1925426386296749e-04" rms="3.0245557427406311e-01" purity="4.9764120578765869e-01" nType="0">
        <Node pos="l" depth="1" NCoef="0" IVar="1" Cut="1.4002539062500000e+03" cType="1" res="5.3996448405086994e-03" rms="3.0837011337280273e-01" purity="5.1827138662338257e-01" nType="0">
          <Node pos="l" depth="2" NCoef="0" IVar="4" Cut="2.1317327880859375e+02" cType="1" res="1.3694845139980316e-02" rms="3.1936237215995789e-01" purity="1.8592569231987000e-01" nType="0">
            <Node pos="l" depth="3" NCoef="0" IVar="-1" Cut="0.0000000000000000e+00" cType="1" res="8.3416616544127464e-03" rms="2.8537455201148987e-01" purity="1.3081634044647217e-01" nType="-99"/>
            <Node pos="r" depth="3" NCoef="0" IVar="-1" Cut="0.0000000000000000e+00" cType="1" res="2.3989291861653328e-02" rms="4.0653523802757263e-01" purity="3.5737606883049011e-01" nType="-99"/>
          </Node>
          <Node pos="r" depth="2" NCoef="0" IVar="9" Cut="1.2000312805175781e+00" cType="1" res="-2.2157113999128342e-03" rms="2.9771846532821655e-01" purity="8.2337915897369385e-01" nType="0">
            <Node pos="l" depth="3" NCoef="0" IVar="-1" Cut="0.0000000000000000e+00" cType="1" res="-6.0729042161256075e-04" rms="2.9120951890945435e-01" purity="8.3631426095962524e-01" nType="-99"/>
            <Node pos="r" depth="3" NCoef="0" IVar="-1" Cut="0.0000000000000000e+00" cType="1" res="-1.5001028776168823e-02" rms="3.5062044858932495e-01" purity="7.0676237344741821e-01" nType="-99"/>
          </Node>
        </Node>
        <Node pos="r" depth="1" NCoef="0" IVar="2" Cut="6.2696486711502075e-02" cType="1" res="-4.8039141111075878e-03" rms="2.9462876915931702e-01" purity="4.7128865122795105e-01" nType="0">
          <Node pos="l" depth="2" NCoef="0" IVar="6" Cut="7.4767898559570312e+01" cType="1" res="-9.6816848963499069e-03" rms="2.9450798034667969e-01" purity="3.4047439694404602e-01" nType="0">
            <Node pos="l" depth="3" NCoef="0" IVar="-1" Cut="0.0000000000000000e+00" cType="1" res="-3.2588206231594086e-02" rms="2.4216771125793457e-01" purity="1.2810944020748138e-01" nType="-99"/>
            <Node pos="r" depth="3" NCoef="0" IVar="-1" Cut="0.0000000000000000e+00" cType="1" res="1.6005380311980844e-03" rms="3.3255112171173096e-01" purity="5.2295678853988647e-01" nType="-99"/>
          </Node>
          <Node pos="r" depth="2" NCoef="0" IVar="7" Cut="5.3899586200714111e-01" cType="1" res="6.2733227387070656e-03" rms="2.9460307955741882e-01" purity="7.6836287975311279e-01" nType="0">
            <Node pos="l" depth="3" NCoef="0" IVar="-1" Cut="0.0000000000000000e+00" cType="1" res="1.5160529874265194e-02" rms="2.7876517176628113e-01" purity="8.0056333541870117e-01" nType="-99"/>
            <Node pos="r" depth="3" NCoef="0" IVar="-1" Cut="0.0000000000000000e+00" cType="1" res="-1.1971209896728396e-03" rms="3.1244361400604248e-01" purity="7.2960239648818970e-01" nType="-99"/>
          </Node>
        </Node>
      </Node>
    </BinaryTree>
    <BinaryTree type="DecisionTree" boostWeight="1.0000000000000000e+00" itree="123">
      <Node pos="s" depth="0" NCoef="0" IVar="10" Cut="9.3332886695861816e-01" cType="1" res="-1.2562257470563054e-03" rms="3.0315667390823364e-01" purity="4.9771377444267273e-01" nType="0">
        <Node pos="l" depth="1" NCoef="0" IVar="9" Cut="-1.7333486080169678e+00" cType="1" res="-4.4846758246421814e-03" rms="3.0010291934013367e-01" purity="5.1272767782211304e-01" nType="0">
          <Node pos="l" depth="2" NCoef="0" IVar="9" Cut="-2.0889167785644531e+00" cType="1" res="-2.2608052939176559e-02" rms="2.7568316459655762e-01" purity="2.3869830369949341e-01" nType="0">
            <Node pos="l" depth="3" NCoef="0" IVar="-1" Cut="0.0000000000000000e+00" cType="1" res="-2.0280405879020691e-02" rms="2.7286678552627563e-01" purity="2.0198287069797516e-01" nType="-99"/>
            <Node pos="r" depth="3" NCoef="0" IVar="-1" Cut="0.0000000000000000e+00" cType="1" res="-3.1926393508911133e-02" rms="2.7837666869163513e-01" purity="2.7557012438774109e-01" nType="-99"/>
          </Node>
          <Node pos="r" depth="2" NCoef="0" IVar="2" Cut="8.0562785267829895e-02" cType="1" res="-3.1802849844098091e-03" rms="3.0174228549003601e-01" purity="5.3245031833648682e-01" nType="0">
            <Node pos="l" depth="3" NCoef="0" IVar="-1" Cut="0.0000000000000000e+00" cType="1" res="-6.1411005444824696e-03" rms="3.0828967690467834e-01" purity="4.3036270141601562e-01" nType="-99"/>
            <Node pos="r" depth="3" NCoef="0" IVar="-1" Cut="0.0000000000000000e+00" cType="1" res="5.4638469591736794e-03" rms="2.8285455703735352e-01" purity="8.1270390748977661e-01" nType="-99"/>
          </Node>
        </Node>
        <Node pos="r" depth="1" NCoef="0" IVar="0" Cut="4.2728366088867188e+02" cType="1" res="9.2222690582275391e-03" rms="3.1263321638107300e-01" purity="4.4898355007171631e-01" nType="0">
          <Node pos="l" depth="2" NCoef="0" IVar="1" Cut="1.0016634521484375e+03" cType="1" res="1.9073916599154472e-02" rms="3.0858626961708069e-01" purity="2.0624503493309021e-01" nType="0">
            <Node pos="l" depth="3" NCoef="0" IVar="-1" Cut="0.0000000000000000e+00" cType="1" res="-2.0870920270681381e-02" rms="1.6097885370254517e-01" purity="2.7158617973327637e-02" nType="-99"/>
            <Node pos="r" depth="3" NCoef="0" IVar="-1" Cut="0.0000000000000000e+00" cType="1" res="2.7494858950376511e-02" rms="3.6240696907043457e-01" purity="3.0092355608940125e-01" nType="-99"/>
          </Node>
          <Node pos="r" depth="2" NCoef="0" IVar="9" Cut="-3.9994230866432190e-01" cType="1" res="-3.5884554381482303e-04" rms="3.1622517108917236e-01" purity="6.8505626916885376e-01" nType="0">
            <Node pos="l" depth="3" NCoef="0" IVar="-1" Cut="0.0000000000000000e+00" cType="1" res="1.8583359196782112e-02" rms="3.2782250642776489e-01" purity="6.9591629505157471e-01" nType="-99"/>
            <Node pos="r" depth="3" NCoef="0" IVar="-1" Cut="0.0000000000000000e+00" cType="1" res="-1.0623323731124401e-02" rms="3.0996820330619812e-01" purity="6.7977333068847656e-01" nType="-99"/>
          </Node>
        </Node>
      </Node>
    </BinaryTree>
    <BinaryTree type="DecisionTree" boostWeight="1.0000000000000000e+00" itree="124">
      <Node pos="s" depth="0" NCoef="0" IVar="0" Cut="6.0599114990234375e+02" cType="1" res="-1.2596945744007826e-03" rms="2.9917454719543457e-01" purity="4.9787107110023499e-01" nType="0">
        <Node pos="l" depth="1" NCoef="0" IVar="0" Cut="5.1856445312500000e+02" cType="1" res="-3.4077395685017109e-03" rms="3.1647768616676331e-01" purity="3.4634706377983093e-01" nType="0">
          <Node pos="l" depth="2" NCoef="0" IVar="1" Cut="1.1634234619140625e+03" cType="1" res="-7.1661411784589291e-03" rms="3.1211200356483459e-01" purity="2.8352168202400208e-01" nType="0">
            <Node pos="l" depth="3" NCoef="0" IVar="-1" Cut="0.0000000000000000e+00" cType="1" res="-4.3250466696918011e-03" rms="2.3469421267509460e-01" purity="6.9491185247898102e-02" nType="-99"/>
            <Node pos="r" depth="3" NCoef="0" IVar="-1" Cut="0.0000000000000000e+00" cType="1" res="-8.4145432338118553e-03" rms="3.7366214394569397e-01" purity="4.9714910984039307e-01" nType="-99"/>
          </Node>
          <Node pos="r" depth="2" NCoef="0" IVar="5" Cut="1.4481524658203125e+02" cType="1" res="1.8397621810436249e-02" rms="3.3988529443740845e-01" purity="7.1084523200988770e-01" nType="0">
            <Node pos="l" depth="3" NCoef="0" IVar="-1" Cut="0.0000000000000000e+00" cType="1" res="2.9576567932963371e-02" rms="4.1316252946853638e-01" purity="4.5455917716026306e-01" nType="-99"/>
            <Node pos="r" depth="3" NCoef="0" IVar="-1" Cut="0.0000000000000000e+00" cType="1" res="5.1886076107621193e-04" rms="2.8273728489875793e-01" purity="8.7222522497177124e-01" nType="-99"/>
          </Node>
        </Node>
        <Node pos="r" depth="1" NCoef="0" IVar="9" Cut="-1.1999597549438477e+00" cType="1" res="4.4285790063440800e-03" rms="2.4748979508876801e-01" purity="8.9912426471710205e-01" nType="0">
          <Node pos="l" depth="2" NCoef="0" IVar="-1" Cut="0.0000000000000000e+00" cType="1" res="2.2415615618228912e-02" rms="3.0559048056602478e-01" purity="8.4157723188400269e-01" nType="-99"/>
          <Node pos="r" depth="2" NCoef="0" IVar="3" Cut="8.0768719482421875e+02" cType="1" res="2.2563219536095858e-03" rms="2.3922710120677948e-01" purity="9.0624952316284180e-01" nType="0">
            <Node pos="l" depth="3" NCoef="0" IVar="-1" Cut="0.0000000000000000e+00" cType="1" res="7.1715340018272400e-03" rms="2.3568664491176605e-01" purity="9.0901070833206177e-01" nType="-99"/>
            <Node pos="r" depth="3" NCoef="0" IVar="-1" Cut="0.0000000000000000e+00" cType="1" res="-1.5948908403515816e-02" rms="2.6328769326210022e-01" purity="8.8605517148971558e-01" nType="-99"/>
          </Node>
        </Node>
      </Node>
    </BinaryTree>
    <BinaryTree type="DecisionTree" boostWeight="1.0000000000000000e+00" itree="125">
      <Node pos="s" depth="0" NCoef="0" IVar="9" Cut="6.6661298274993896e-01" cType="1" res="2.6917823124676943e-03" rms="3.0364009737968445e-01" purity="5.0332462787628174e-01" nType="0">
        <Node pos="l" depth="1" NCoef="0" IVar="10" Cut="2.0000028610229492e+00" cType="1" res="5.6652734056115150e-03" rms="3.0201083421707153e-01" purity="5.2894145250320435e-01" nType="0">
          <Node pos="l" depth="2" NCoef="0" IVar="10" Cut="4.0000000596046448e-01" cType="1" res="6.9911982864141464e-03" rms="3.0221712589263916e-01" purity="5.3722417354583740e-01" nType="0">
            <Node pos="l" depth="3" NCoef="0" IVar="-1" Cut="0.0000000000000000e+00" cType="1" res="3.1872268300503492e-03" rms="3.0167269706726074e-01" purity="5.2174955606460571e-01" nType="-99"/>
            <Node pos="r" depth="3" NCoef="0" IVar="-1" Cut="0.0000000000000000e+00" cType="1" res="1.6321811825037003e-02" rms="3.0311721563339233e-01" purity="5.6752038002014160e-01" nType="-99"/>
          </Node>
          <Node pos="r" depth="2" NCoef="0" IVar="-1" Cut="0.0000000000000000e+00" cType="1" res="-2.3593699559569359e-02" rms="2.9627689719200134e-01" purity="3.5497102141380310e-01" nType="-99"/>
        </Node>
        <Node pos="r" depth="1" NCoef="0" IVar="7" Cut="6.8709439039230347e-01" cType="1" res="-5.0353514961898327e-03" rms="3.0769938230514526e-01" purity="4.3675491213798523e-01" nType="0">
          <Node pos="l" depth="2" NCoef="0" IVar="0" Cut="5.2198712158203125e+02" cType="1" res="-8.9166890829801559e-03" rms="3.1077665090560913e-01" purity="4.9562576413154602e-01" nType="0">
            <Node pos="l" depth="3" NCoef="0" IVar="-1" Cut="0.0000000000000000e+00" cType="1" res="-1.5671132132411003e-02" rms="3.2547488808631897e-01" purity="2.7260175347328186e-01" nType="-99"/>
            <Node pos="r" depth="3" NCoef="0" IVar="-1" Cut="0.0000000000000000e+00" cType="1" res="3.4807955380529165e-03" rms="2.8603738546371460e-01" purity="8.4237849712371826e-01" nType="-99"/>
          </Node>
          <Node pos="r" depth="2" NCoef="0" IVar="3" Cut="3.9420245361328125e+02" cType="1" res="5.1970123313367367e-03" rms="2.9919403791427612e-01" purity="2.8155371546745300e-01" nType="0">
            <Node pos="l" depth="3" NCoef="0" IVar="-1" Cut="0.0000000000000000e+00" cType="1" res="1.9030321389436722e-02" rms="2.8385713696479797e-01" purity="1.9788706302642822e-01" nType="-99"/>
            <Node pos="r" depth="3" NCoef="0" IVar="-1" Cut="0.0000000000000000e+00" cType="1" res="-8.9971348643302917e-03" rms="3.2239121198654175e-01" purity="4.1950154304504395e-01" nType="-99"/>
          </Node>
        </Node>
      </Node>
    </BinaryTree>
    <BinaryTree type="DecisionTree" boostWeight="1.0000000000000000e+00" itree="126">
      <Node pos="s" depth="0" NCoef="0" IVar="0" Cut="9.8200073242187500e+02" cType="1" res="-2.7181019540876150e-03" rms="3.0128359794616699e-01" purity="4.9778947234153748e-01" nType="0">
        <Node pos="l" depth="1" NCoef="0" IVar="9" Cut="-3.9999800920486450e-01" cType="1" res="-3.7242099642753601e-03" rms="3.0559739470481873e-01" purity="4.7483134269714355e-01" nType="0">
          <Node pos="l" depth="2" NCoef="0" IVar="5" Cut="1.1740704345703125e+02" cType="1" res="-1.0428423993289471e-02" rms="3.0644971132278442e-01" purity="4.2768520116806030e-01" nType="0">
            <Node pos="l" depth="3" NCoef="0" IVar="-1" Cut="0.0000000000000000e+00" cType="1" res="-2.6100683026015759e-03" rms="2.7982729673385620e-01" purity="1.3754226267337799e-01" nType="-99"/>
            <Node pos="r" depth="3" NCoef="0" IVar="-1" Cut="0.0000000000000000e+00" cType="1" res="-1.5506069175899029e-02" rms="3.2403030991554260e-01" purity="6.3538676500320435e-01" nType="-99"/>
          </Node>
          <Node pos="r" depth="2" NCoef="0" IVar="7" Cut="-1.4474570751190186e+00" cType="1" res="-9.8856144177261740e-06" rms="3.0506071448326111e-01" purity="5.0095170736312866e-01" nType="0">
            <Node pos="l" depth="3" NCoef="0" IVar="-1" Cut="0.0000000000000000e+00" cType="1" res="3.5169355571269989e-02" rms="2.5985789299011230e-01" purity="1.6518163681030273e-01" nType="-99"/>
            <Node pos="r" depth="3" NCoef="0" IVar="-1" Cut="0.0000000000000000e+00" cType="1" res="-1.4868631260469556e-03" rms="3.0745530128479004e-01" purity="5.2068758010864258e-01" nType="-99"/>
          </Node>
        </Node>
        <Node pos="r" depth="1" NCoef="0" IVar="-1" Cut="0.0000000000000000e+00" cType="1" res="3.9820443838834763e-02" rms="1.9454537332057953e-01" purity="9.5815664529800415e-01" nType="-99"/>
      </Node>
    </BinaryTree>
    <BinaryTree type="DecisionTree" boostWeight="1.0000000000000000e+00" itree="127">
      <Node pos="s" depth="0" NCoef="0" IVar="10" Cut="-1.7333282232284546e+00" cType="1" res="2.6455693296156824e-04" rms="3.0096226930618286e-01" purity="4.9804213643074036e-01" nType="0">
        <Node pos="l" depth="1" NCoef="0" IVar="7" Cut="-1.2156701087951660e-01" cType="1" res="-1.5040386468172073e-02" rms="2.9444092512130737e-01" purity="3.4418556094169617e-01" nType="0">
          <Node pos="l" depth="2" NCoef="0" IVar="-1" Cut="0.0000000000000000e+00" cType="1" res="-4.4244714081287384e-03" rms="2.9506272077560425e-01" purity="3.3002623915672302e-01" nType="-99"/>
          <Node pos="r" depth="2" NCoef="0" IVar="-1" Cut="0.0000000000000000e+00" cType="1" res="-2.9474643990397453e-02" rms="2.9331609606742859e-01" purity="3.5919997096061707e-01" nType="-99"/>
        </Node>
        <Node pos="r" depth="1" NCoef="0" IVar="9" Cut="6.6660392284393311e-01" cType="1" res="1.6191162867471576e-03" rms="3.0149522423744202e-01" purity="5.1165914535522461e-01" nType="0">
          <Node pos="l" depth="2" NCoef="0" IVar="5" Cut="1.0501953125000000e+02" cType="1" res="-1.5110848471522331e-03" rms="2.9429411888122559e-01" purity="5.3803795576095581e-01" nType="0">
            <Node pos="l" depth="3" NCoef="0" IVar="-1" Cut="0.0000000000000000e+00" cType="1" res="-1.4595352113246918e-02" rms="2.5388392806053162e-01" purity="1.2435524910688400e-01" nType="-99"/>
            <Node pos="r" depth="3" NCoef="0" IVar="-1" Cut="0.0000000000000000e+00" cType="1" res="1.8273534951731563e-03" rms="3.0776068568229675e-01" purity="6.9019818305969238e-01" nType="-99"/>
          </Node>
          <Node pos="r" depth="2" NCoef="0" IVar="5" Cut="9.0946723937988281e+01" cType="1" res="9.4068916514515877e-03" rms="3.1857261061668396e-01" purity="4.4603022933006287e-01" nType="0">
            <Node pos="l" depth="3" NCoef="0" IVar="-1" Cut="0.0000000000000000e+00" cType="1" res="5.1048062741756439e-02" rms="2.8778091073036194e-01" purity="1.3595649600028992e-01" nType="-99"/>
            <Node pos="r" depth="3" NCoef="0" IVar="-1" Cut="0.0000000000000000e+00" cType="1" res="2.2877163719385862e-03" rms="3.2776507735252380e-01" purity="5.4802334308624268e-01" nType="-99"/>
          </Node>
        </Node>
      </Node>
    </BinaryTree>
    <BinaryTree type="DecisionTree" boostWeight="1.0000000000000000e+00" itree="128">
      <Node pos="s" depth="0" NCoef="0" IVar="8" Cut="-3.9997225999832153e-01" cType="1" res="-4.6831779764033854e-04" rms="3.0300199985504150e-01" purity="4.9483701586723328e-01" nType="0">
        <Node pos="l" depth="1" NCoef="0" IVar="0" Cut="6.0413696289062500e+02" cType="1" res="-4.9802754074335098e-03" rms="3.0074799060821533e-01" purity="4.4094726443290710e-01" nType="0">
          <Node pos="l" depth="2" NCoef="0" IVar="0" Cut="4.5930871582031250e+02" cType="1" res="-8.2621118053793907e-03" rms="3.1132528185844421e-01" purity="2.9277658462524414e-01" nType="0">
            <Node pos="l" depth="3" NCoef="0" IVar="-1" Cut="0.0000000000000000e+00" cType="1" res="-3.8951148744672537e-03" rms="2.9587644338607788e-01" purity="2.0224083960056305e-01" nType="-99"/>
            <Node pos="r" depth="3" NCoef="0" IVar="-1" Cut="0.0000000000000000e+00" cType="1" res="-1.8058562651276588e-02" rms="3.5172337293624878e-01" purity="5.5372548103332520e-01" nType="-99"/>
          </Node>
          <Node pos="r" depth="2" NCoef="0" IVar="2" Cut="3.5493280738592148e-02" cType="1" res="4.7126784920692444e-03" rms="2.6683759689331055e-01" purity="8.7857156991958618e-01" nType="0">
            <Node pos="l" depth="3" NCoef="0" IVar="-1" Cut="0.0000000000000000e+00" cType="1" res="1.3577457517385483e-02" rms="3.4286645054817200e-01" purity="7.7350598573684692e-01" nType="-99"/>
            <Node pos="r" depth="3" NCoef="0" IVar="-1" Cut="0.0000000000000000e+00" cType="1" res="-8.2660913467407227e-03" rms="1.9547629356384277e-01" purity="9.5301491022109985e-01" nType="-99"/>
          </Node>
        </Node>
        <Node pos="r" depth="1" NCoef="0" IVar="2" Cut="2.1328777074813843e-02" cType="1" res="1.9329631468281150e-03" rms="3.0416747927665710e-01" purity="5.2351737022399902e-01" nType="0">
          <Node pos="l" depth="2" NCoef="0" IVar="7" Cut="-9.2621809244155884e-01" cType="1" res="7.8620435670018196e-03" rms="2.9237270355224609e-01" purity="2.6910069584846497e-01" nType="0">
            <Node pos="l" depth="3" NCoef="0" IVar="-1" Cut="0.0000000000000000e+00" cType="1" res="-1.1098928749561310e-02" rms="2.4789585173130035e-01" purity="1.3167774677276611e-01" nType="-99"/>
            <Node pos="r" depth="3" NCoef="0" IVar="-1" Cut="0.0000000000000000e+00" cType="1" res="1.3787723146378994e-02" rms="3.0411040782928467e-01" purity="3.0966690182685852e-01" nType="-99"/>
          </Node>
          <Node pos="r" depth="2" NCoef="0" IVar="10" Cut="3.9998459815979004e-01" cType="1" res="-1.1344096856191754e-03" rms="3.1004890799522400e-01" purity="6.5513825416564941e-01" nType="0">
            <Node pos="l" depth="3" NCoef="0" IVar="-1" Cut="0.0000000000000000e+00" cType="1" res="3.0346214771270752e-03" rms="3.1264537572860718e-01" purity="6.7420411109924316e-01" nType="-99"/>
            <Node pos="r" depth="3" NCoef="0" IVar="-1" Cut="0.0000000000000000e+00" cType="1" res="-7.6672090217471123e-03" rms="3.0589172244071960e-01" purity="6.2566542625427246e-01" nType="-99"/>
          </Node>
        </Node>
      </Node>
    </BinaryTree>
    <BinaryTree type="DecisionTree" boostWeight="1.0000000000000000e+00" itree="129">
      <Node pos="s" depth="0" NCoef="0" IVar="8" Cut="3.9998450875282288e-01" cType="1" res="1.7399595817551017e-03" rms="3.0450838804244995e-01" purity="4.9829384684562683e-01" nType="0">
        <Node pos="l" depth="1" NCoef="0" IVar="6" Cut="8.5090904235839844e+01" cType="1" res="5.0152232870459557e-03" rms="3.0505964159965515e-01" purity="5.2898746728897095e-01" nType="0">
          <Node pos="l" depth="2" NCoef="0" IVar="10" Cut="-3.9999467134475708e-01" cType="1" res="1.0620013810694218e-02" rms="3.0977419018745422e-01" purity="2.7267104387283325e-01" nType="0">
            <Node pos="l" depth="3" NCoef="0" IVar="-1" Cut="0.0000000000000000e+00" cType="1" res="2.2537598386406898e-02" rms="3.0844178795814514e-01" purity="2.7026739716529846e-01" nType="-99"/>
            <Node pos="r" depth="3" NCoef="0" IVar="-1" Cut="0.0000000000000000e+00" cType="1" res="3.5035468172281981e-03" rms="3.1059595942497253e-01" purity="2.7452176809310913e-01" nType="-99"/>
          </Node>
          <Node pos="r" depth="2" NCoef="0" IVar="7" Cut="-1.1414535045623779e+00" cType="1" res="2.0440555817913264e-04" rms="3.0087080597877502e-01" purity="7.4899411201477051e-01" nType="0">
            <Node pos="l" depth="3" NCoef="0" IVar="-1" Cut="0.0000000000000000e+00" cType="1" res="2.4695655331015587e-02" rms="3.5951524972915649e-01" purity="4.4773957133293152e-01" nType="-99"/>
            <Node pos="r" depth="3" NCoef="0" IVar="-1" Cut="0.0000000000000000e+00" cType="1" res="-2.4991191457957029e-03" rms="2.9533484578132629e-01" purity="7.7407765388488770e-01" nType="-99"/>
          </Node>
        </Node>
        <Node pos="r" depth="1" NCoef="0" IVar="6" Cut="7.7220130920410156e+01" cType="1" res="-4.4067725539207458e-03" rms="3.0337572097778320e-01" purity="4.4069072604179382e-01" nType="0">
          <Node pos="l" depth="2" NCoef="0" IVar="1" Cut="1.0743006591796875e+03" cType="1" res="-1.2981901876628399e-02" rms="2.7530464529991150e-01" purity="1.6437691450119019e-01" nType="0">
            <Node pos="l" depth="3" NCoef="0" IVar="-1" Cut="0.0000000000000000e+00" cType="1" res="-2.3745184298604727e-03" rms="1.7940117418766022e-01" purity="3.4750763326883316e-02" nType="-99"/>
            <Node pos="r" depth="3" NCoef="0" IVar="-1" Cut="0.0000000000000000e+00" cType="1" res="-2.0749811083078384e-02" rms="3.4252980351448059e-01" purity="2.8866934776306152e-01" nType="-99"/>
          </Node>
          <Node pos="r" depth="2" NCoef="0" IVar="9" Cut="1.3301607966423035e-01" cType="1" res="1.7658714205026627e-03" rms="3.2192990183830261e-01" purity="6.3958996534347534e-01" nType="0">
            <Node pos="l" depth="3" NCoef="0" IVar="-1" Cut="0.0000000000000000e+00" cType="1" res="1.3618333265185356e-02" rms="3.2331544160842896e-01" purity="6.7306661605834961e-01" nType="-99"/>
            <Node pos="r" depth="3" NCoef="0" IVar="-1" Cut="0.0000000000000000e+00" cType="1" res="-1.1912046000361443e-02" rms="3.1977713108062744e-01" purity="6.0125529766082764e-01" nType="-99"/>
          </Node>
        </Node>
      </Node>
    </BinaryTree>
    <BinaryTree type="DecisionTree" boostWeight="1.0000000000000000e+00" itree="130">
      <Node pos="s" depth="0" NCoef="0" IVar="8" Cut="-1.9998568296432495e+00" cType="1" res="1.5031120274215937e-03" rms="3.0040326714515686e-01" purity="5.0447338819503784e-01" nType="0">
        <Node pos="l" depth="1" NCoef="0" IVar="-1" Cut="0.0000000000000000e+00" cType="1" res="-4.5004840940237045e-02" rms="2.0514243841171265e-01" purity="8.6506552994251251e-02" nType="-99"/>
        <Node pos="r" depth="1" NCoef="0" IVar="10" Cut="-1.9999960660934448e+00" cType="1" res="2.4170188698917627e-03" rms="3.0293440818786621e-01" purity="5.1795917749404907e-01" nType="0">
          <Node pos="l" depth="2" NCoef="0" IVar="-1" Cut="0.0000000000000000e+00" cType="1" res="2.0235588774085045e-02" rms="3.2160338759422302e-01" purity="3.5900685191154480e-01" nType="-99"/>
          <Node pos="r" depth="2" NCoef="0" IVar="7" Cut="-9.2552560567855835e-01" cType="1" res="1.5324637060984969e-03" rms="3.0189439654350281e-01" purity="5.2632117271423340e-01" nType="0">
            <Node pos="l" depth="3" NCoef="0" IVar="-1" Cut="0.0000000000000000e+00" cType="1" res="-9.1950278729200363e-03" rms="2.7684643864631653e-01" purity="2.7395901083946228e-01" nType="-99"/>
            <Node pos="r" depth="3" NCoef="0" IVar="-1" Cut="0.0000000000000000e+00" cType="1" res="3.3083423040807247e-03" rms="3.0581575632095337e-01" purity="5.6810235977172852e-01" nType="-99"/>
          </Node>
        </Node>
      </Node>
    </BinaryTree>
    <BinaryTree type="DecisionTree" boostWeight="1.0000000000000000e+00" itree="131">
      <Node pos="s" depth="0" NCoef="0" IVar="9" Cut="-1.3333518803119659e-01" cType="1" res="-9.7739044576883316e-04" rms="2.9912510514259338e-01" purity="5.0068157911300659e-01" nType="0">
        <Node pos="l" depth="1" NCoef="0" IVar="5" Cut="9.5617797851562500e+01" cType="1" res="4.7435495071113110e-03" rms="3.0145943164825439e-01" purity="4.9867755174636841e-01" nType="0">
          <Node pos="l" depth="2" NCoef="0" IVar="9" Cut="-1.2761836051940918e+00" cType="1" res="-4.2924089357256889e-03" rms="2.3656392097473145e-01" purity="1.0535079240798950e-01" nType="0">
            <Node pos="l" depth="3" NCoef="0" IVar="-1" Cut="0.0000000000000000e+00" cType="1" res="2.3615697398781776e-02" rms="2.3766295611858368e-01" purity="1.0561692714691162e-01" nType="-99"/>
            <Node pos="r" depth="3" NCoef="0" IVar="-1" Cut="0.0000000000000000e+00" cType="1" res="-2.3993037641048431e-02" rms="2.3508952558040619e-01" purity="1.0516902804374695e-01" nType="-99"/>
          </Node>
          <Node pos="r" depth="2" NCoef="0" IVar="1" Cut="1.4405413818359375e+03" cType="1" res="7.6536438427865505e-03" rms="3.1951174139976501e-01" purity="6.2535119056701660e-01" nType="0">
            <Node pos="l" depth="3" NCoef="0" IVar="-1" Cut="0.0000000000000000e+00" cType="1" res="1.4586921781301498e-02" rms="3.6489510536193848e-01" purity="2.8696465492248535e-01" nType="-99"/>
            <Node pos="r" depth="3" NCoef="0" IVar="-1" Cut="0.0000000000000000e+00" cType="1" res="3.7641407107003033e-04" rms="2.8491133451461792e-01" purity="8.5171908140182495e-01" nType="-99"/>
          </Node>
        </Node>
        <Node pos="r" depth="1" NCoef="0" IVar="10" Cut="2.0000066757202148e+00" cType="1" res="-5.8390703052282333e-03" rms="2.9704037308692932e-01" purity="5.0238460302352905e-01" nType="0">
          <Node pos="l" depth="2" NCoef="0" IVar="5" Cut="2.1668768310546875e+02" cType="1" res="-7.4087041430175304e-03" rms="2.9540559649467468e-01" purity="5.1323992013931274e-01" nType="0">
            <Node pos="l" depth="3" NCoef="0" IVar="-1" Cut="0.0000000000000000e+00" cType="1" res="-1.1033269576728344e-02" rms="3.1383779644966125e-01" purity="3.7983971834182739e-01" nType="-99"/>
            <Node pos="r" depth="3" NCoef="0" IVar="-1" Cut="0.0000000000000000e+00" cType="1" res="6.0536195524036884e-03" rms="2.3191742599010468e-01" purity="9.0905088186264038e-01" nType="-99"/>
          </Node>
          <Node pos="r" depth="2" NCoef="0" IVar="-1" Cut="0.0000000000000000e+00" cType="1" res="2.2385356947779655e-02" rms="3.2182160019874573e-01" purity="3.2244911789894104e-01" nType="-99"/>
        </Node>
      </Node>
    </BinaryTree>
    <BinaryTree type="DecisionTree" boostWeight="1.0000000000000000e+00" itree="132">
      <Node pos="s" depth="0" NCoef="0" IVar="1" Cut="1.1200372314453125e+03" cType="1" res="-1.1472448240965605e-03" rms="2.9992103576660156e-01" purity="4.9958935379981995e-01" nType="0">
        <Node pos="l" depth="1" NCoef="0" IVar="2" Cut="6.2697380781173706e-02" cType="1" res="5.7709049433469772e-03" rms="2.3320932686328888e-01" purity="6.4971201121807098e-02" nType="0">
          <Node pos="l" depth="2" NCoef="0" IVar="10" Cut="3.9976099133491516e-01" cType="1" res="1.2452016817405820e-03" rms="1.9882984459400177e-01" purity="4.4045440852642059e-02" nType="0">
            <Node pos="l" depth="3" NCoef="0" IVar="-1" Cut="0.0000000000000000e+00" cType="1" res="2.0231317728757858e-02" rms="2.1502721309661865e-01" purity="5.1966622471809387e-02" nType="-99"/>
            <Node pos="r" depth="3" NCoef="0" IVar="-1" Cut="0.0000000000000000e+00" cType="1" res="-2.5276675820350647e-02" rms="1.6981589794158936e-01" purity="3.1626764684915543e-02" nType="-99"/>
          </Node>
          <Node pos="r" depth="2" NCoef="0" IVar="-1" Cut="0.0000000000000000e+00" cType="1" res="2.5772912427783012e-02" rms="3.6009216308593750e-01" purity="1.7192898690700531e-01" nType="-99"/>
        </Node>
        <Node pos="r" depth="1" NCoef="0" IVar="10" Cut="-1.4664853811264038e+00" cType="1" res="-3.7401530425995588e-03" rms="3.2133787870407104e-01" purity="6.6248327493667603e-01" nType="0">
          <Node pos="l" depth="2" NCoef="0" IVar="0" Cut="5.3808868408203125e+02" cType="1" res="-2.2545523941516876e-02" rms="3.2896399497985840e-01" purity="5.6968253850936890e-01" nType="0">
            <Node pos="l" depth="3" NCoef="0" IVar="-1" Cut="0.0000000000000000e+00" cType="1" res="-2.8964444994926453e-02" rms="3.5121023654937744e-01" purity="3.6519274115562439e-01" nType="-99"/>
            <Node pos="r" depth="3" NCoef="0" IVar="-1" Cut="0.0000000000000000e+00" cType="1" res="-3.8341546896845102e-03" rms="3.0060634016990662e-01" purity="8.0165004730224609e-01" nType="-99"/>
          </Node>
          <Node pos="r" depth="2" NCoef="0" IVar="8" Cut="-1.1999636888504028e+00" cType="1" res="-1.4571938663721085e-03" rms="3.2032459974288940e-01" purity="6.7374926805496216e-01" nType="0">
            <Node pos="l" depth="3" NCoef="0" IVar="-1" Cut="0.0000000000000000e+00" cType="1" res="1.2300004251301289e-02" rms="3.5900241136550903e-01" purity="4.7671994566917419e-01" nType="-99"/>
            <Node pos="r" depth="3" NCoef="0" IVar="-1" Cut="0.0000000000000000e+00" cType="1" res="-3.3335729967802763e-03" rms="3.1556975841522217e-01" purity="6.9615131616592407e-01" nType="-99"/>
          </Node>
        </Node>
      </Node>
    </BinaryTree>
    <BinaryTree type="DecisionTree" boostWeight="1.0000000000000000e+00" itree="133">
      <Node pos="s" depth="0" NCoef="0" IVar="1" Cut="1.1200330810546875e+03" cType="1" res="2.7437528478913009e-04" rms="3.0083876848220825e-01" purity="4.9829512834548950e-01" nType="0">
        <Node pos="l" depth="1" NCoef="0" IVar="1" Cut="9.9811535644531250e+02" cType="1" res="-5.8335503563284874e-03" rms="2.1390593051910400e-01" purity="5.3607590496540070e-02" nType="0">
          <Node pos="l" depth="2" NCoef="0" IVar="2" Cut="3.9023485034704208e-02" cType="1" res="-1.2108913622796535e-02" rms="1.4971724152565002e-01" purity="2.3646404966711998e-02" nType="0">
            <Node pos="l" depth="3" NCoef="0" IVar="-1" Cut="0.0000000000000000e+00" cType="1" res="-3.1655546277761459e-02" rms="1.2329255044460297e-01" purity="1.5481338836252689e-02" nType="-99"/>
            <Node pos="r" depth="3" NCoef="0" IVar="-1" Cut="0.0000000000000000e+00" cType="1" res="-4.1017565876245499e-02" rms="2.0357339084148407e-01" purity="4.5496582984924316e-02" nType="-99"/>
          </Node>
          <Node pos="r" depth="2" NCoef="0" IVar="7" Cut="1.4486530423164368e-01" cType="1" res="2.4128584191203117e-03" rms="2.7623826265335083e-01" purity="9.2979356646537781e-02" nType="0">
            <Node pos="l" depth="3" NCoef="0" IVar="-1" Cut="0.0000000000000000e+00" cType="1" res="-2.0552884787321091e-02" rms="2.5687313079833984e-01" purity="7.7137842774391174e-02" nType="-99"/>
            <Node pos="r" depth="3" NCoef="0" IVar="-1" Cut="0.0000000000000000e+00" cType="1" res="3.2056707888841629e-02" rms="2.9553535580635071e-01" purity="1.1113560199737549e-01" nType="-99"/>
          </Node>
        </Node>
        <Node pos="r" depth="1" NCoef="0" IVar="1" Cut="1.4248314208984375e+03" cType="1" res="2.5766938924789429e-03" rms="3.2764610648155212e-01" purity="6.6591542959213257e-01" nType="0">
          <Node pos="l" depth="2" NCoef="0" IVar="1" Cut="1.2942073974609375e+03" cType="1" res="1.0164455510675907e-02" rms="3.8985139131546021e-01" purity="3.1789565086364746e-01" nType="0">
            <Node pos="l" depth="3" NCoef="0" IVar="-1" Cut="0.0000000000000000e+00" cType="1" res="-1.6724564193282276e-04" rms="3.7309166789054871e-01" purity="2.3901170492172241e-01" nType="-99"/>
            <Node pos="r" depth="3" NCoef="0" IVar="-1" Cut="0.0000000000000000e+00" cType="1" res="1.6153832897543907e-02" rms="4.1425448656082153e-01" purity="4.4163814187049866e-01" nType="-99"/>
          </Node>
          <Node pos="r" depth="2" NCoef="0" IVar="5" Cut="9.5109016418457031e+01" cType="1" res="-9.4539666315540671e-04" rms="2.9427111148834229e-01" purity="8.2745939493179321e-01" nType="0">
            <Node pos="l" depth="3" NCoef="0" IVar="-1" Cut="0.0000000000000000e+00" cType="1" res="1.1437551118433475e-02" rms="4.2044669389724731e-01" purity="5.0255632400512695e-01" nType="-99"/>
            <Node pos="r" depth="3" NCoef="0" IVar="-1" Cut="0.0000000000000000e+00" cType="1" res="-2.6050840970128775e-03" rms="2.8481420874595642e-01" purity="8.4710013866424561e-01" nType="-99"/>
          </Node>
        </Node>
      </Node>
    </BinaryTree>
    <BinaryTree type="DecisionTree" boostWeight="1.0000000000000000e+00" itree="134">
      <Node pos="s" depth="0" NCoef="0" IVar="7" Cut="-6.5982687473297119e-01" cType="1" res="-1.8400094704702497e-03" rms="3.0055963993072510e-01" purity="4.9877980351448059e-01" nType="0">
        <Node pos="l" depth="1" NCoef="0" IVar="9" Cut="3.9997366070747375e-01" cType="1" res="7.3808049783110619e-03" rms="3.0101919174194336e-01" purity="3.5183507204055786e-01" nType="0">
          <Node pos="l" depth="2" NCoef="0" IVar="9" Cut="-5.7217810302972794e-02" cType="1" res="4.1616623639129102e-04" rms="2.9073995351791382e-01" purity="3.5811203718185425e-01" nType="0">
            <Node pos="l" depth="3" NCoef="0" IVar="-1" Cut="0.0000000000000000e+00" cType="1" res="7.8416690230369568e-03" rms="2.9534816741943359e-01" purity="3.4632670879364014e-01" nType="-99"/>
            <Node pos="r" depth="3" NCoef="0" IVar="-1" Cut="0.0000000000000000e+00" cType="1" res="-2.9489681124687195e-02" rms="2.6923957467079163e-01" purity="4.0706497430801392e-01" nType="-99"/>
          </Node>
          <Node pos="r" depth="2" NCoef="0" IVar="5" Cut="1.0574947357177734e+02" cType="1" res="2.1918546408414841e-02" rms="3.2093149423599243e-01" purity="3.3873274922370911e-01" nType="0">
            <Node pos="l" depth="3" NCoef="0" IVar="-1" Cut="0.0000000000000000e+00" cType="1" res="7.5184516608715057e-03" rms="2.2661809623241425e-01" purity="9.0969830751419067e-02" nType="-99"/>
            <Node pos="r" depth="3" NCoef="0" IVar="-1" Cut="0.0000000000000000e+00" cType="1" res="2.9137544333934784e-02" rms="3.6682668328285217e-01" purity="4.9173003435134888e-01" nType="-99"/>
          </Node>
        </Node>
        <Node pos="r" depth="1" NCoef="0" IVar="8" Cut="1.4666014909744263e+00" cType="1" res="-4.6020839363336563e-03" rms="3.0036675930023193e-01" purity="5.4279673099517822e-01" nType="0">
          <Node pos="l" depth="2" NCoef="0" IVar="4" Cut="3.3631930541992188e+02" cType="1" res="-5.9593403711915016e-03" rms="3.0122768878936768e-01" purity="5.7017463445663452e-01" nType="0">
            <Node pos="l" depth="3" NCoef="0" IVar="-1" Cut="0.0000000000000000e+00" cType="1" res="-9.0206880122423172e-03" rms="3.1713169813156128e-01" purity="4.5581448078155518e-01" nType="-99"/>
            <Node pos="r" depth="3" NCoef="0" IVar="-1" Cut="0.0000000000000000e+00" cType="1" res="4.7855633310973644e-03" rms="2.5172436237335205e-01" purity="8.8720422983169556e-01" nType="-99"/>
          </Node>
          <Node pos="r" depth="2" NCoef="0" IVar="8" Cut="1.8475562334060669e+00" cType="1" res="1.0983868502080441e-02" rms="2.8984212875366211e-01" purity="2.2840467095375061e-01" nType="0">
            <Node pos="l" depth="3" NCoef="0" IVar="-1" Cut="0.0000000000000000e+00" cType="1" res="2.5505630299448967e-02" rms="3.2747358083724976e-01" purity="3.1708526611328125e-01" nType="-99"/>
            <Node pos="r" depth="3" NCoef="0" IVar="-1" Cut="0.0000000000000000e+00" cType="1" res="-4.3137823231518269e-03" rms="2.4608771502971649e-01" purity="1.4036902785301208e-01" nType="-99"/>
          </Node>
        </Node>
      </Node>
    </BinaryTree>
    <BinaryTree type="DecisionTree" boostWeight="1.0000000000000000e+00" itree="135">
      <Node pos="s" depth="0" NCoef="0" IVar="9" Cut="1.9999859333038330e+00" cType="1" res="-2.6179437991231680e-03" rms="2.9934075474739075e-01" purity="4.9319154024124146e-01" nType="0">
        <Node pos="l" depth="1" NCoef="0" IVar="7" Cut="1.7443473339080811e+00" cType="1" res="-3.5952806938439608e-03" rms="2.9945418238639832e-01" purity="5.0458443164825439e-01" nType="0">
          <Node pos="l" depth="2" NCoef="0" IVar="3" Cut="4.7358053588867188e+02" cType="1" res="-4.3338034301996231e-03" rms="3.0194541811943054e-01" purity="5.1998907327651978e-01" nType="0">
            <Node pos="l" depth="3" NCoef="0" IVar="-1" Cut="0.0000000000000000e+00" cType="1" res="-7.3674153536558151e-03" rms="3.0647855997085571e-01" purity="4.0661069750785828e-01" nType="-99"/>
            <Node pos="r" depth="3" NCoef="0" IVar="-1" Cut="0.0000000000000000e+00" cType="1" res="1.1040495010092854e-03" rms="2.9297712445259094e-01" purity="7.3757028579711914e-01" nType="-99"/>
          </Node>
          <Node pos="r" depth="2" NCoef="0" IVar="-1" Cut="0.0000000000000000e+00" cType="1" res="3.8071289658546448e-02" rms="2.2128765285015106e-01" purity="9.0273626148700714e-02" nType="-99"/>
        </Node>
        <Node pos="r" depth="1" NCoef="0" IVar="-1" Cut="0.0000000000000000e+00" cType="1" res="2.3257207125425339e-02" rms="2.9595601558685303e-01" purity="2.3871666193008423e-01" nType="-99"/>
      </Node>
    </BinaryTree>
    <BinaryTree type="DecisionTree" boostWeight="1.0000000000000000e+00" itree="136">
      <Node pos="s" depth="0" NCoef="0" IVar="7" Cut="-6.5987056493759155e-01" cType="1" res="7.0668454281985760e-04" rms="3.0063089728355408e-01" purity="4.9965667724609375e-01" nType="0">
        <Node pos="l" depth="1" NCoef="0" IVar="7" Cut="-1.3694561719894409e+00" cType="1" res="8.2177454605698586e-03" rms="3.0015981197357178e-01" purity="3.5684403777122498e-01" nType="0">
          <Node pos="l" depth="2" NCoef="0" IVar="4" Cut="1.9228227233886719e+02" cType="1" res="-9.1074369847774506e-03" rms="2.4162237346172333e-01" purity="1.1544810235500336e-01" nType="0">
            <Node pos="l" depth="3" NCoef="0" IVar="-1" Cut="0.0000000000000000e+00" cType="1" res="2.6479246094822884e-02" rms="2.0016930997371674e-01" purity="4.9436736851930618e-02" nType="-99"/>
            <Node pos="r" depth="3" NCoef="0" IVar="-1" Cut="0.0000000000000000e+00" cType="1" res="-3.5257510840892792e-02" rms="2.8928855061531067e-01" purity="2.1069781482219696e-01" nType="-99"/>
          </Node>
          <Node pos="r" depth="2" NCoef="0" IVar="10" Cut="-3.9974266290664673e-01" cType="1" res="1.5667477622628212e-02" rms="3.2178941369056702e-01" purity="4.6064293384552002e-01" nType="0">
            <Node pos="l" depth="3" NCoef="0" IVar="-1" Cut="0.0000000000000000e+00" cType="1" res="2.3429112043231726e-03" rms="3.0936688184738159e-01" purity="4.3006059527397156e-01" nType="-99"/>
            <Node pos="r" depth="3" NCoef="0" IVar="-1" Cut="0.0000000000000000e+00" cType="1" res="2.6314912363886833e-02" rms="3.3038011193275452e-01" purity="4.8340353369712830e-01" nType="-99"/>
          </Node>
        </Node>
        <Node pos="r" depth="1" NCoef="0" IVar="10" Cut="1.9999911785125732e+00" cType="1" res="-1.5353471972048283e-03" rms="3.0073499679565430e-01" purity="5.4228591918945312e-01" nType="0">
          <Node pos="l" depth="2" NCoef="0" IVar="8" Cut="1.7331974506378174e+00" cType="1" res="-2.7531753294169903e-03" rms="2.9904362559318542e-01" purity="5.5210256576538086e-01" nType="0">
            <Node pos="l" depth="3" NCoef="0" IVar="-1" Cut="0.0000000000000000e+00" cType="1" res="-4.0801716968417168e-03" rms="2.9923537373542786e-01" purity="5.7132732868194580e-01" nType="-99"/>
            <Node pos="r" depth="3" NCoef="0" IVar="-1" Cut="0.0000000000000000e+00" cType="1" res="2.1804984658956528e-02" rms="2.9468429088592529e-01" purity="1.8291114270687103e-01" nType="-99"/>
          </Node>
          <Node pos="r" depth="2" NCoef="0" IVar="-1" Cut="0.0000000000000000e+00" cType="1" res="2.0402038469910622e-02" rms="3.2750198245048523e-01" purity="3.7515541911125183e-01" nType="-99"/>
        </Node>
      </Node>
    </BinaryTree>
    <BinaryTree type="DecisionTree" boostWeight="1.0000000000000000e+00" itree="137">
      <Node pos="s" depth="0" NCoef="0" IVar="7" Cut="-1.2751729786396027e-01" cType="1" res="9.2610629508271813e-04" rms="2.9973977804183960e-01" purity="5.0216615200042725e-01" nType="0">
        <Node pos="l" depth="1" NCoef="0" IVar="1" Cut="1.3997995605468750e+03" cType="1" res="-3.1778586562722921e-03" rms="2.9908743500709534e-01" purity="4.7340556979179382e-01" nType="0">
          <Node pos="l" depth="2" NCoef="0" IVar="10" Cut="-1.3304643332958221e-01" cType="1" res="-9.6597578376531601e-03" rms="2.8658863902091980e-01" purity="1.4487393200397491e-01" nType="0">
            <Node pos="l" depth="3" NCoef="0" IVar="-1" Cut="0.0000000000000000e+00" cType="1" res="-2.3167317733168602e-02" rms="2.6974725723266602e-01" purity="1.2240114063024521e-01" nType="-99"/>
            <Node pos="r" depth="3" NCoef="0" IVar="-1" Cut="0.0000000000000000e+00" cType="1" res="7.4301310814917088e-04" rms="3.0314880609512329e-01" purity="1.6879734396934509e-01" nType="-99"/>
          </Node>
          <Node pos="r" depth="2" NCoef="0" IVar="4" Cut="3.3719552612304688e+02" cType="1" res="3.3180909231305122e-03" rms="3.1097447872161865e-01" purity="8.0264937877655029e-01" nType="0">
            <Node pos="l" depth="3" NCoef="0" IVar="-1" Cut="0.0000000000000000e+00" cType="1" res="9.6647897735238075e-03" rms="3.3600038290023804e-01" purity="7.6677638292312622e-01" nType="-99"/>
            <Node pos="r" depth="3" NCoef="0" IVar="-1" Cut="0.0000000000000000e+00" cType="1" res="-1.0578429326415062e-02" rms="2.7089202404022217e-01" purity="8.5388565063476562e-01" nType="-99"/>
          </Node>
        </Node>
        <Node pos="r" depth="1" NCoef="0" IVar="7" Cut="1.8239508867263794e+00" cType="1" res="4.0603433735668659e-03" rms="3.0019921064376831e-01" purity="5.2413088083267212e-01" nType="0">
          <Node pos="l" depth="2" NCoef="0" IVar="9" Cut="1.3316248357295990e-01" cType="1" res="5.5444645695388317e-03" rms="3.0648320913314819e-01" purity="5.5079698562622070e-01" nType="0">
            <Node pos="l" depth="3" NCoef="0" IVar="-1" Cut="0.0000000000000000e+00" cType="1" res="1.0112572461366653e-02" rms="3.0867332220077515e-01" purity="5.7171505689620972e-01" nType="-99"/>
            <Node pos="r" depth="3" NCoef="0" IVar="-1" Cut="0.0000000000000000e+00" cType="1" res="1.3045184314250946e-03" rms="3.0408403277397156e-01" purity="5.2861684560775757e-01" nType="-99"/>
          </Node>
          <Node pos="r" depth="2" NCoef="0" IVar="-1" Cut="0.0000000000000000e+00" cType="1" res="-5.9958226978778839e-02" rms="1.3971716165542603e-01" purity="3.5769101232290268e-02" nType="-99"/>
        </Node>
      </Node>
    </BinaryTree>
    <BinaryTree type="DecisionTree" boostWeight="1.0000000000000000e+00" itree="138">
      <Node pos="s" depth="0" NCoef="0" IVar="8" Cut="1.4666432142257690e+00" cType="1" res="1.7587530601304024e-04" rms="3.0074536800384521e-01" purity="4.9915388226509094e-01" nType="0">
        <Node pos="l" depth="1" NCoef="0" IVar="10" Cut="2.2666633129119873e+00" cType="1" res="1.7341988859698176e-03" rms="3.0377176403999329e-01" purity="5.2820587158203125e-01" nType="0">
          <Node pos="l" depth="2" NCoef="0" IVar="8" Cut="2.4760043621063232e-01" cType="1" res="2.4411983322352171e-03" rms="3.0369219183921814e-01" purity="5.3403943777084351e-01" nType="0">
            <Node pos="l" depth="3" NCoef="0" IVar="-1" Cut="0.0000000000000000e+00" cType="1" res="5.9414361603558064e-03" rms="3.0177509784698486e-01" purity="5.3012436628341675e-01" nType="-99"/>
            <Node pos="r" depth="3" NCoef="0" IVar="-1" Cut="0.0000000000000000e+00" cType="1" res="-3.2551058102399111e-03" rms="3.0720552802085876e-01" purity="5.4143476486206055e-01" nType="-99"/>
          </Node>
          <Node pos="r" depth="2" NCoef="0" IVar="-1" Cut="0.0000000000000000e+00" cType="1" res="-2.5920089334249496e-02" rms="3.0552485585212708e-01" purity="3.2127386331558228e-01" nType="-99"/>
        </Node>
        <Node pos="r" depth="1" NCoef="0" IVar="4" Cut="1.5704849243164062e+02" cType="1" res="-1.7370620742440224e-02" rms="2.6365235447883606e-01" purity="1.7203299701213837e-01" nType="0">
          <Node pos="l" depth="2" NCoef="0" IVar="-1" Cut="0.0000000000000000e+00" cType="1" res="2.7234659064561129e-03" rms="2.0171968638896942e-01" purity="6.3544176518917084e-02" nType="-99"/>
          <Node pos="r" depth="2" NCoef="0" IVar="-1" Cut="0.0000000000000000e+00" cType="1" res="-2.9861254617571831e-02" rms="2.9855188727378845e-01" purity="2.4741375446319580e-01" nType="-99"/>
        </Node>
      </Node>
    </BinaryTree>
    <BinaryTree type="DecisionTree" boostWeight="1.0000000000000000e+00" itree="139">
      <Node pos="s" depth="0" NCoef="0" IVar="1" Cut="1.4296353759765625e+03" cType="1" res="-9.0563815319910645e-04" rms="2.9958233237266541e-01" purity="4.9669867753982544e-01" nType="0">
        <Node pos="l" depth="1" NCoef="0" IVar="2" Cut="6.2054194509983063e-02" cType="1" res="-4.5109894126653671e-03" rms="3.0356574058532715e-01" purity="1.6902193427085876e-01" nType="0">
          <Node pos="l" depth="2" NCoef="0" IVar="1" Cut="1.3396883544921875e+03" cType="1" res="-6.5172032918781042e-04" rms="2.7254471182823181e-01" purity="1.1381823569536209e-01" nType="0">
            <Node pos="l" depth="3" NCoef="0" IVar="-1" Cut="0.0000000000000000e+00" cType="1" res="-5.5252909660339355e-03" rms="2.5264257192611694e-01" purity="8.5160367190837860e-02" nType="-99"/>
            <Node pos="r" depth="3" NCoef="0" IVar="-1" Cut="0.0000000000000000e+00" cType="1" res="1.5349116176366806e-02" rms="4.0449783205986023e-01" purity="3.6080136895179749e-01" nType="-99"/>
          </Node>
          <Node pos="r" depth="2" NCoef="0" IVar="1" Cut="1.1597891845703125e+03" cType="1" res="-1.9489251077175140e-02" rms="4.0153640508651733e-01" purity="3.8327383995056152e-01" nType="0">
            <Node pos="l" depth="3" NCoef="0" IVar="-1" Cut="0.0000000000000000e+00" cType="1" res="1.3277597026899457e-03" rms="3.5269254446029663e-01" purity="1.7497427761554718e-01" nType="-99"/>
            <Node pos="r" depth="3" NCoef="0" IVar="-1" Cut="0.0000000000000000e+00" cType="1" res="-2.0859928801655769e-02" rms="4.4438743591308594e-01" purity="5.9334254264831543e-01" nType="-99"/>
          </Node>
        </Node>
        <Node pos="r" depth="1" NCoef="0" IVar="0" Cut="4.5300604248046875e+02" cType="1" res="2.7683107182383537e-03" rms="2.9542261362075806e-01" purity="8.3060991764068604e-01" nType="0">
          <Node pos="l" depth="2" NCoef="0" IVar="2" Cut="2.1316746249794960e-02" cType="1" res="1.6811024397611618e-02" rms="3.8987445831298828e-01" purity="6.3658267259597778e-01" nType="0">
            <Node pos="l" depth="3" NCoef="0" IVar="-1" Cut="0.0000000000000000e+00" cType="1" res="4.0381651371717453e-02" rms="4.1370326280593872e-01" purity="3.7475278973579407e-01" nType="-99"/>
            <Node pos="r" depth="3" NCoef="0" IVar="-1" Cut="0.0000000000000000e+00" cType="1" res="-2.9331729747354984e-03" rms="3.7668460607528687e-01" purity="7.5559169054031372e-01" nType="-99"/>
          </Node>
          <Node pos="r" depth="2" NCoef="0" IVar="3" Cut="8.2443359375000000e+02" cType="1" res="-5.9850391699001193e-04" rms="2.6776319742202759e-01" purity="8.7712895870208740e-01" nType="0">
            <Node pos="l" depth="3" NCoef="0" IVar="-1" Cut="0.0000000000000000e+00" cType="1" res="1.3103979872539639e-03" rms="2.6459735631942749e-01" purity="8.8054442405700684e-01" nType="-99"/>
            <Node pos="r" depth="3" NCoef="0" IVar="-1" Cut="0.0000000000000000e+00" cType="1" res="-1.8739962950348854e-02" rms="2.9830288887023926e-01" purity="8.4153509140014648e-01" nType="-99"/>
          </Node>
        </Node>
      </Node>
    </BinaryTree>
    <BinaryTree type="DecisionTree" boostWeight="1.0000000000000000e+00" itree="140">
      <Node pos="s" depth="0" NCoef="0" IVar="9" Cut="-4.0000647306442261e-01" cType="1" res="-4.7665744205005467e-04" rms="2.9890796542167664e-01" purity="5.0010603666305542e-01" nType="0">
        <Node pos="l" depth="1" NCoef="0" IVar="2" Cut="8.2004763185977936e-02" cType="1" res="5.6613460183143616e-03" rms="3.0407643318176270e-01" purity="4.7567251324653625e-01" nType="0">
          <Node pos="l" depth="2" NCoef="0" IVar="10" Cut="9.3335694074630737e-01" cType="1" res="6.0879741795361042e-04" rms="3.0895340442657471e-01" purity="3.6821237206459045e-01" nType="0">
            <Node pos="l" depth="3" NCoef="0" IVar="-1" Cut="0.0000000000000000e+00" cType="1" res="5.9756953269243240e-03" rms="3.1052583456039429e-01" purity="3.8140180706977844e-01" nType="-99"/>
            <Node pos="r" depth="3" NCoef="0" IVar="-1" Cut="0.0000000000000000e+00" cType="1" res="-1.9879464060068130e-02" rms="3.0209064483642578e-01" purity="3.1752234697341919e-01" nType="-99"/>
          </Node>
          <Node pos="r" depth="2" NCoef="0" IVar="-1" Cut="0.0000000000000000e+00" cType="1" res="2.4262838065624237e-02" rms="2.8791949152946472e-01" purity="8.0785620212554932e-01" nType="-99"/>
        </Node>
        <Node pos="r" depth="1" NCoef="0" IVar="6" Cut="1.5527264404296875e+02" cType="1" res="-4.0827114135026932e-03" rms="2.9577001929283142e-01" purity="5.1446068286895752e-01" nType="0">
          <Node pos="l" depth="2" NCoef="0" IVar="9" Cut="2.0380814075469971e+00" cType="1" res="-6.3377032056450844e-03" rms="3.1142655014991760e-01" purity="4.1690760850906372e-01" nType="0">
            <Node pos="l" depth="3" NCoef="0" IVar="-1" Cut="0.0000000000000000e+00" cType="1" res="-4.9763582646846771e-03" rms="3.1482043862342834e-01" purity="4.3683189153671265e-01" nType="-99"/>
            <Node pos="r" depth="3" NCoef="0" IVar="-1" Cut="0.0000000000000000e+00" cType="1" res="-3.3687632530927658e-02" rms="2.5937634706497192e-01" purity="1.4194875955581665e-01" nType="-99"/>
          </Node>
          <Node pos="r" depth="2" NCoef="0" IVar="4" Cut="3.2147653198242188e+02" cType="1" res="5.5229556746780872e-03" rms="2.1649564802646637e-01" purity="9.3001091480255127e-01" nType="0">
            <Node pos="l" depth="3" NCoef="0" IVar="-1" Cut="0.0000000000000000e+00" cType="1" res="1.2741761282086372e-02" rms="2.5779920816421509e-01" purity="8.9316463470458984e-01" nType="-99"/>
            <Node pos="r" depth="3" NCoef="0" IVar="-1" Cut="0.0000000000000000e+00" cType="1" res="6.9176638498902321e-03" rms="1.7465622723102570e-01" purity="9.6075016260147095e-01" nType="-99"/>
          </Node>
        </Node>
      </Node>
    </BinaryTree>
    <BinaryTree type="DecisionTree" boostWeight="1.0000000000000000e+00" itree="141">
      <Node pos="s" depth="0" NCoef="0" IVar="9" Cut="-6.6667610406875610e-01" cType="1" res="1.2071765959262848e-03" rms="3.0156114697456360e-01" purity="4.9812284111976624e-01" nType="0">
        <Node pos="l" depth="1" NCoef="0" IVar="8" Cut="1.1997447013854980e+00" cType="1" res="-5.1491912454366684e-03" rms="3.0248722434043884e-01" purity="4.2198160290718079e-01" nType="0">
          <Node pos="l" depth="2" NCoef="0" IVar="10" Cut="-6.6637277603149414e-01" cType="1" res="-2.1156421862542629e-03" rms="3.0685973167419434e-01" purity="4.5169675350189209e-01" nType="0">
            <Node pos="l" depth="3" NCoef="0" IVar="-1" Cut="0.0000000000000000e+00" cType="1" res="-1.4117512851953506e-02" rms="2.9639083147048950e-01" purity="3.7992519140243530e-01" nType="-99"/>
            <Node pos="r" depth="3" NCoef="0" IVar="-1" Cut="0.0000000000000000e+00" cType="1" res="3.7081150803714991e-03" rms="3.1231632828712463e-01" purity="4.9110376834869385e-01" nType="-99"/>
          </Node>
          <Node pos="r" depth="2" NCoef="0" IVar="-1" Cut="0.0000000000000000e+00" cType="1" res="-3.4870095551013947e-02" rms="2.6582595705986023e-01" purity="1.9631229341030121e-01" nType="-99"/>
        </Node>
        <Node pos="r" depth="1" NCoef="0" IVar="7" Cut="-1.4474570751190186e+00" cType="1" res="3.6280429922044277e-03" rms="3.0117243528366089e-01" purity="5.2712172269821167e-01" nType="0">
          <Node pos="l" depth="2" NCoef="0" IVar="-1" Cut="0.0000000000000000e+00" cType="1" res="3.6549206823110580e-02" rms="2.7189123630523682e-01" purity="1.6207353770732880e-01" nType="-99"/>
          <Node pos="r" depth="2" NCoef="0" IVar="9" Cut="8.1903636455535889e-01" cType="1" res="2.4505560286343098e-03" rms="3.0269974470138550e-01" purity="5.4774999618530273e-01" nType="0">
            <Node pos="l" depth="3" NCoef="0" IVar="-1" Cut="0.0000000000000000e+00" cType="1" res="6.1661140061914921e-03" rms="3.0185526609420776e-01" purity="6.0184186697006226e-01" nType="-99"/>
            <Node pos="r" depth="3" NCoef="0" IVar="-1" Cut="0.0000000000000000e+00" cType="1" res="-4.2288475669920444e-03" rms="3.0429747700691223e-01" purity="4.3847256898880005e-01" nType="-99"/>
          </Node>
        </Node>
      </Node>
    </BinaryTree>
    <BinaryTree type="DecisionTree" boostWeight="1.0000000000000000e+00" itree="142">
      <Node pos="s" depth="0" NCoef="0" IVar="10" Cut="-1.4666302204132080e+00" cType="1" res="2.0272131077945232e-03" rms="3.0263918638229370e-01" purity="5.0045722723007202e-01" nType="0">
        <Node pos="l" depth="1" NCoef="0" IVar="3" Cut="3.3679031372070312e+02" cType="1" res="1.7855916172266006e-02" rms="3.1113597750663757e-01" purity="4.1580507159233093e-01" nType="0">
          <Node pos="l" depth="2" NCoef="0" IVar="-1" Cut="0.0000000000000000e+00" cType="1" res="3.7156924605369568e-02" rms="3.1877079606056213e-01" purity="2.4406249821186066e-01" nType="-99"/>
          <Node pos="r" depth="2" NCoef="0" IVar="7" Cut="2.1560488641262054e-01" cType="1" res="7.2706849314272404e-03" rms="3.0545100569725037e-01" purity="5.3101640939712524e-01" nType="0">
            <Node pos="l" depth="3" NCoef="0" IVar="-1" Cut="0.0000000000000000e+00" cType="1" res="-2.7792882174253464e-03" rms="2.9692342877388000e-01" purity="5.5096042156219482e-01" nType="-99"/>
            <Node pos="r" depth="3" NCoef="0" IVar="-1" Cut="0.0000000000000000e+00" cType="1" res="2.4971878156065941e-02" rms="3.1907823681831360e-01" purity="4.9614983797073364e-01" nType="-99"/>
          </Node>
        </Node>
        <Node pos="r" depth="1" NCoef="0" IVar="3" Cut="4.4893930053710938e+02" cType="1" res="-2.7036629035137594e-04" rms="3.0131682753562927e-01" purity="5.1274472475051880e-01" nType="0">
          <Node pos="l" depth="2" NCoef="0" IVar="0" Cut="4.1331225585937500e+02" cType="1" res="2.4152067489922047e-03" rms="3.0711385607719421e-01" purity="3.8717505335807800e-01" nType="0">
            <Node pos="l" depth="3" NCoef="0" IVar="-1" Cut="0.0000000000000000e+00" cType="1" res="1.0704242624342442e-02" rms="2.9801195859909058e-01" purity="1.9528244435787201e-01" nType="-99"/>
            <Node pos="r" depth="3" NCoef="0" IVar="-1" Cut="0.0000000000000000e+00" cType="1" res="-5.5633718147873878e-03" rms="3.1755024194717407e-01" purity="6.1848068237304688e-01" nType="-99"/>
          </Node>
          <Node pos="r" depth="2" NCoef="0" IVar="7" Cut="-6.2126147747039795e-01" cType="1" res="-4.6141557395458221e-03" rms="2.9164430499076843e-01" purity="7.1584773063659668e-01" nType="0">
            <Node pos="l" depth="3" NCoef="0" IVar="-1" Cut="0.0000000000000000e+00" cType="1" res="-2.5154041126370430e-02" rms="3.0032786726951599e-01" purity="5.5976450443267822e-01" nType="-99"/>
            <Node pos="r" depth="3" NCoef="0" IVar="-1" Cut="0.0000000000000000e+00" cType="1" res="-4.9966940423473716e-04" rms="2.8949517011642456e-01" purity="7.5085061788558960e-01" nType="-99"/>
          </Node>
        </Node>
      </Node>
    </BinaryTree>
    <BinaryTree type="DecisionTree" boostWeight="1.0000000000000000e+00" itree="143">
      <Node pos="s" depth="0" NCoef="0" IVar="10" Cut="-1.7333300113677979e+00" cType="1" res="1.0664694709703326e-03" rms="3.0298125743865967e-01" purity="4.9820962548255920e-01" nType="0">
        <Node pos="l" depth="1" NCoef="0" IVar="7" Cut="-7.5439848005771637e-02" cType="1" res="1.7725275829434395e-02" rms="3.0995035171508789e-01" purity="3.7842470407485962e-01" nType="0">
          <Node pos="l" depth="2" NCoef="0" IVar="-1" Cut="0.0000000000000000e+00" cType="1" res="3.0464418232440948e-02" rms="3.1019815802574158e-01" purity="3.6599430441856384e-01" nType="-99"/>
          <Node pos="r" depth="2" NCoef="0" IVar="-1" Cut="0.0000000000000000e+00" cType="1" res="7.6707098633050919e-03" rms="3.0934393405914307e-01" purity="3.9212954044342041e-01" nType="-99"/>
        </Node>
        <Node pos="r" depth="1" NCoef="0" IVar="9" Cut="1.9999843835830688e+00" cType="1" res="-5.2032369421795011e-04" rms="3.0226117372512817e-01" purity="5.0961941480636597e-01" nType="0">
          <Node pos="l" depth="2" NCoef="0" IVar="9" Cut="6.2847024202346802e-01" cType="1" res="2.0101107656955719e-04" rms="3.0386617779731750e-01" purity="5.2352827787399292e-01" nType="0">
            <Node pos="l" depth="3" NCoef="0" IVar="-1" Cut="0.0000000000000000e+00" cType="1" res="-2.5449066888540983e-03" rms="2.9915618896484375e-01" purity="5.3603279590606689e-01" nType="-99"/>
            <Node pos="r" depth="3" NCoef="0" IVar="-1" Cut="0.0000000000000000e+00" cType="1" res="7.3055052198469639e-03" rms="3.1625673174858093e-01" purity="4.8942580819129944e-01" nType="-99"/>
          </Node>
          <Node pos="r" depth="2" NCoef="0" IVar="-1" Cut="0.0000000000000000e+00" cType="1" res="-2.3382529616355896e-02" rms="2.6083916425704956e-01" purity="1.8048468232154846e-01" nType="-99"/>
        </Node>
      </Node>
    </BinaryTree>
    <BinaryTree type="DecisionTree" boostWeight="1.0000000000000000e+00" itree="144">
      <Node pos="s" depth="0" NCoef="0" IVar="8" Cut="1.2000366449356079e+00" cType="1" res="2.7215506415814161e-03" rms="3.0242612957954407e-01" purity="5.0117284059524536e-01" nType="0">
        <Node pos="l" depth="1" NCoef="0" IVar="10" Cut="1.3335433602333069e-01" cType="1" res="1.4170143986120820e-03" rms="3.0286955833435059e-01" purity="5.3461533784866333e-01" nType="0">
          <Node pos="l" depth="2" NCoef="0" IVar="9" Cut="-1.4666904211044312e+00" cType="1" res="4.5582163147628307e-03" rms="3.0434721708297729e-01" purity="5.3160417079925537e-01" nType="0">
            <Node pos="l" depth="3" NCoef="0" IVar="-1" Cut="0.0000000000000000e+00" cType="1" res="2.4250356480479240e-02" rms="3.1057047843933105e-01" purity="3.2660531997680664e-01" nType="-99"/>
            <Node pos="r" depth="3" NCoef="0" IVar="-1" Cut="0.0000000000000000e+00" cType="1" res="2.4453829973936081e-03" rms="3.0346834659576416e-01" purity="5.5770140886306763e-01" nType="-99"/>
          </Node>
          <Node pos="r" depth="2" NCoef="0" IVar="8" Cut="2.4771639704704285e-01" cType="1" res="-2.4058327544480562e-03" rms="3.0101722478866577e-01" purity="5.3827983140945435e-01" nType="0">
            <Node pos="l" depth="3" NCoef="0" IVar="-1" Cut="0.0000000000000000e+00" cType="1" res="2.5338979903608561e-03" rms="3.0252090096473694e-01" purity="5.4171508550643921e-01" nType="-99"/>
            <Node pos="r" depth="3" NCoef="0" IVar="-1" Cut="0.0000000000000000e+00" cType="1" res="-1.2466346845030785e-02" rms="2.9784041643142700e-01" purity="5.3156125545501709e-01" nType="-99"/>
          </Node>
        </Node>
        <Node pos="r" depth="1" NCoef="0" IVar="4" Cut="2.5344320678710938e+02" cType="1" res="1.1545781977474689e-02" rms="2.9926022887229919e-01" purity="2.7495932579040527e-01" nType="0">
          <Node pos="l" depth="2" NCoef="0" IVar="6" Cut="8.6820495605468750e+01" cType="1" res="1.9477237015962601e-02" rms="2.9073339700698853e-01" purity="1.7954273521900177e-01" nType="0">
            <Node pos="l" depth="3" NCoef="0" IVar="-1" Cut="0.0000000000000000e+00" cType="1" res="5.5713258683681488e-02" rms="2.7266865968704224e-01" purity="1.2291926145553589e-01" nType="-99"/>
            <Node pos="r" depth="3" NCoef="0" IVar="-1" Cut="0.0000000000000000e+00" cType="1" res="-1.0034738108515739e-02" rms="3.3130866289138794e-01" purity="3.2771724462509155e-01" nType="-99"/>
          </Node>
          <Node pos="r" depth="2" NCoef="0" IVar="-1" Cut="0.0000000000000000e+00" cType="1" res="-9.7562884911894798e-03" rms="3.2140135765075684e-01" purity="5.4885786771774292e-01" nType="-99"/>
        </Node>
      </Node>
    </BinaryTree>
    <BinaryTree type="DecisionTree" boostWeight="1.0000000000000000e+00" itree="145">
      <Node pos="s" depth="0" NCoef="0" IVar="4" Cut="2.3760939025878906e+02" cType="1" res="-3.6727028782479465e-04" rms="3.0000931024551392e-01" purity="5.0215423107147217e-01" nType="0">
        <Node pos="l" depth="1" NCoef="0" IVar="0" Cut="5.4229675292968750e+02" cType="1" res="3.7444424815475941e-03" rms="3.0509370565414429e-01" purity="2.4856196343898773e-01" nType="0">
          <Node pos="l" depth="2" NCoef="0" IVar="0" Cut="4.8459759521484375e+02" cType="1" res="8.7300280574709177e-04" rms="2.8926050662994385e-01" purity="1.5944333374500275e-01" nType="0">
            <Node pos="l" depth="3" NCoef="0" IVar="-1" Cut="0.0000000000000000e+00" cType="1" res="-2.9253987595438957e-03" rms="2.7837219834327698e-01" purity="1.3375216722488403e-01" nType="-99"/>
            <Node pos="r" depth="3" NCoef="0" IVar="-1" Cut="0.0000000000000000e+00" cType="1" res="2.1407799795269966e-02" rms="3.7450349330902100e-01" purity="3.9860934019088745e-01" nType="-99"/>
          </Node>
          <Node pos="r" depth="2" NCoef="0" IVar="5" Cut="1.1230843353271484e+02" cType="1" res="1.7493724822998047e-02" rms="3.7136766314506531e-01" purity="6.7528772354125977e-01" nType="0">
            <Node pos="l" depth="3" NCoef="0" IVar="-1" Cut="0.0000000000000000e+00" cType="1" res="2.1863117814064026e-02" rms="4.2864683270454407e-01" purity="4.2743146419525146e-01" nType="-99"/>
            <Node pos="r" depth="3" NCoef="0" IVar="-1" Cut="0.0000000000000000e+00" cType="1" res="6.4187212847173214e-03" rms="3.3794993162155151e-01" purity="8.0193954706192017e-01" nType="-99"/>
          </Node>
        </Node>
        <Node pos="r" depth="1" NCoef="0" IVar="1" Cut="1.5434296875000000e+03" cType="1" res="-4.7791516408324242e-03" rms="2.9439225792884827e-01" purity="7.7425956726074219e-01" nType="0">
          <Node pos="l" depth="2" NCoef="0" IVar="5" Cut="1.2515641784667969e+02" cType="1" res="-1.7789678648114204e-02" rms="3.9190745353698730e-01" purity="4.2515188455581665e-01" nType="0">
            <Node pos="l" depth="3" NCoef="0" IVar="-1" Cut="0.0000000000000000e+00" cType="1" res="-2.8101939707994461e-02" rms="3.5884842276573181e-01" purity="2.2923858463764191e-01" nType="-99"/>
            <Node pos="r" depth="3" NCoef="0" IVar="-1" Cut="0.0000000000000000e+00" cType="1" res="-4.2597646825015545e-03" rms="4.0806481242179871e-01" purity="5.2986848354339600e-01" nType="-99"/>
          </Node>
          <Node pos="r" depth="2" NCoef="0" IVar="0" Cut="4.3644158935546875e+02" cType="1" res="-5.4864754201844335e-04" rms="2.5462254881858826e-01" purity="8.8777542114257812e-01" nType="0">
            <Node pos="l" depth="3" NCoef="0" IVar="-1" Cut="0.0000000000000000e+00" cType="1" res="-1.3701669871807098e-02" rms="3.6931148171424866e-01" purity="6.7462891340255737e-01" nType="-99"/>
            <Node pos="r" depth="3" NCoef="0" IVar="-1" Cut="0.0000000000000000e+00" cType="1" res="3.8615376688539982e-03" rms="2.3198466002941132e-01" purity="9.2042130231857300e-01" nType="-99"/>
          </Node>
        </Node>
      </Node>
    </BinaryTree>
    <BinaryTree type="DecisionTree" boostWeight="1.0000000000000000e+00" itree="146">
      <Node pos="s" depth="0" NCoef="0" IVar="8" Cut="-1.3332949578762054e-01" cType="1" res="1.4431474264711142e-03" rms="3.0185836553573608e-01" purity="5.0175899267196655e-01" nType="0">
        <Node pos="l" depth="1" NCoef="0" IVar="9" Cut="-1.2000867128372192e+00" cType="1" res="-5.5241067893803120e-03" rms="3.0048695206642151e-01" purity="4.8327359557151794e-01" nType="0">
          <Node pos="l" depth="2" NCoef="0" IVar="5" Cut="1.3859098815917969e+02" cType="1" res="8.6152413859963417e-03" rms="3.0455189943313599e-01" purity="3.4198662638664246e-01" nType="0">
            <Node pos="l" depth="3" NCoef="0" IVar="-1" Cut="0.0000000000000000e+00" cType="1" res="-5.0951605662703514e-03" rms="2.6489365100860596e-01" purity="1.6069296002388000e-01" nType="-99"/>
            <Node pos="r" depth="3" NCoef="0" IVar="-1" Cut="0.0000000000000000e+00" cType="1" res="2.3778792470693588e-02" rms="3.5626134276390076e-01" purity="6.2116163969039917e-01" nType="-99"/>
          </Node>
          <Node pos="r" depth="2" NCoef="0" IVar="7" Cut="-9.1658997535705566e-01" cType="1" res="-8.5024079307913780e-03" rms="2.9953861236572266e-01" purity="5.1303416490554810e-01" nType="0">
            <Node pos="l" depth="3" NCoef="0" IVar="-1" Cut="0.0000000000000000e+00" cType="1" res="-2.8942856937646866e-02" rms="2.6418477296829224e-01" purity="2.5604432821273804e-01" nType="-99"/>
            <Node pos="r" depth="3" NCoef="0" IVar="-1" Cut="0.0000000000000000e+00" cType="1" res="-6.1773997731506824e-03" rms="3.0541741847991943e-01" purity="5.5954194068908691e-01" nType="-99"/>
          </Node>
        </Node>
        <Node pos="r" depth="1" NCoef="0" IVar="5" Cut="9.2050216674804688e+01" cType="1" res="7.0716701447963715e-03" rms="3.0284467339515686e-01" purity="5.1669245958328247e-01" nType="0">
          <Node pos="l" depth="2" NCoef="0" IVar="8" Cut="5.6506931781768799e-01" cType="1" res="-6.2361233867704868e-03" rms="2.3843167722225189e-01" purity="1.0214975476264954e-01" nType="0">
            <Node pos="l" depth="3" NCoef="0" IVar="-1" Cut="0.0000000000000000e+00" cType="1" res="-3.9458505809307098e-02" rms="2.3207694292068481e-01" purity="1.2085539847612381e-01" nType="-99"/>
            <Node pos="r" depth="3" NCoef="0" IVar="-1" Cut="0.0000000000000000e+00" cType="1" res="1.1977626942098141e-02" rms="2.4097535014152527e-01" purity="9.1703228652477264e-02" nType="-99"/>
          </Node>
          <Node pos="r" depth="2" NCoef="0" IVar="0" Cut="4.3904742431640625e+02" cType="1" res="1.0619467124342918e-02" rms="3.1772631406784058e-01" purity="6.2720763683319092e-01" nType="0">
            <Node pos="l" depth="3" NCoef="0" IVar="-1" Cut="0.0000000000000000e+00" cType="1" res="1.7654031515121460e-02" rms="3.5852625966072083e-01" purity="3.4148102998733521e-01" nType="-99"/>
            <Node pos="r" depth="3" NCoef="0" IVar="-1" Cut="0.0000000000000000e+00" cType="1" res="3.6237360909581184e-03" rms="2.8575578331947327e-01" purity="8.2553595304489136e-01" nType="-99"/>
          </Node>
        </Node>
      </Node>
    </BinaryTree>
    <BinaryTree type="DecisionTree" boostWeight="1.0000000000000000e+00" itree="147">
      <Node pos="s" depth="0" NCoef="0" IVar="1" Cut="1.4400653076171875e+03" cType="1" res="2.3262819013325498e-05" rms="3.0151849985122681e-01" purity="4.9842295050621033e-01" nType="0">
        <Node pos="l" depth="1" NCoef="0" IVar="1" Cut="1.3181484375000000e+03" cType="1" res="3.4998222254216671e-03" rms="3.1097152829170227e-01" purity="1.8614265322685242e-01" nType="0">
          <Node pos="l" depth="2" NCoef="0" IVar="3" Cut="2.2426245117187500e+02" cType="1" res="-8.4403308574110270e-04" rms="2.8549906611442566e-01" purity="1.3059958815574646e-01" nType="0">
            <Node pos="l" depth="3" NCoef="0" IVar="-1" Cut="0.0000000000000000e+00" cType="1" res="-3.4928366541862488e-02" rms="2.4353492259979248e-01" purity="7.6108656823635101e-02" nType="-99"/>
            <Node pos="r" depth="3" NCoef="0" IVar="-1" Cut="0.0000000000000000e+00" cType="1" res="2.5619429070502520e-03" rms="2.9036718606948853e-01" purity="1.3767428696155548e-01" nType="-99"/>
          </Node>
          <Node pos="r" depth="2" NCoef="0" IVar="1" Cut="1.3645927734375000e+03" cType="1" res="2.6214037090539932e-02" rms="4.1897091269493103e-01" purity="4.7657984495162964e-01" nType="0">
            <Node pos="l" depth="3" NCoef="0" IVar="-1" Cut="0.0000000000000000e+00" cType="1" res="2.6525394991040230e-02" rms="4.3493309617042542e-01" purity="4.4257432222366333e-01" nType="-99"/>
            <Node pos="r" depth="3" NCoef="0" IVar="-1" Cut="0.0000000000000000e+00" cType="1" res="8.5994321852922440e-03" rms="4.0765962004661560e-01" purity="4.9899217486381531e-01" nType="-99"/>
          </Node>
        </Node>
        <Node pos="r" depth="1" NCoef="0" IVar="7" Cut="9.6460407972335815e-01" cType="1" res="-3.6757327616214752e-03" rms="2.9107820987701416e-01" purity="8.3068346977233887e-01" nType="0">
          <Node pos="l" depth="2" NCoef="0" IVar="10" Cut="1.7333844900131226e+00" cType="1" res="-2.2963080555200577e-03" rms="2.8655299544334412e-01" purity="8.4982955455780029e-01" nType="0">
            <Node pos="l" depth="3" NCoef="0" IVar="-1" Cut="0.0000000000000000e+00" cType="1" res="-1.2535830028355122e-03" rms="2.8312754631042480e-01" purity="8.5558736324310303e-01" nType="-99"/>
            <Node pos="r" depth="3" NCoef="0" IVar="-1" Cut="0.0000000000000000e+00" cType="1" res="-2.2234573960304260e-02" rms="3.3717951178550720e-01" purity="7.5525689125061035e-01" nType="-99"/>
          </Node>
          <Node pos="r" depth="2" NCoef="0" IVar="-1" Cut="0.0000000000000000e+00" cType="1" res="-1.5336493030190468e-02" rms="3.3550745248794556e-01" purity="6.2501609325408936e-01" nType="-99"/>
        </Node>
      </Node>
    </BinaryTree>
    <BinaryTree type="DecisionTree" boostWeight="1.0000000000000000e+00" itree="148">
      <Node pos="s" depth="0" NCoef="0" IVar="10" Cut="-1.3333073258399963e-01" cType="1" res="1.0133226169273257e-03" rms="3.0208441615104675e-01" purity="5.0157403945922852e-01" nType="0">
        <Node pos="l" depth="1" NCoef="0" IVar="8" Cut="1.3333795964717865e-01" cType="1" res="-4.4651543721556664e-03" rms="2.9870828986167908e-01" purity="4.8628339171409607e-01" nType="0">
          <Node pos="l" depth="2" NCoef="0" IVar="5" Cut="1.3277261352539062e+02" cType="1" res="-9.5020364969968796e-03" rms="2.8944119811058044e-01" purity="4.7714611887931824e-01" nType="0">
            <Node pos="l" depth="3" NCoef="0" IVar="-1" Cut="0.0000000000000000e+00" cType="1" res="-2.0595788955688477e-02" rms="2.6768454909324646e-01" purity="1.6421592235565186e-01" nType="-99"/>
            <Node pos="r" depth="3" NCoef="0" IVar="-1" Cut="0.0000000000000000e+00" cType="1" res="-4.1907569393515587e-03" rms="3.0611225962638855e-01" purity="7.3521286249160767e-01" nType="-99"/>
          </Node>
          <Node pos="r" depth="2" NCoef="0" IVar="7" Cut="-1.0696822404861450e-01" cType="1" res="2.8377231210470200e-03" rms="3.1151089072227478e-01" purity="4.9953129887580872e-01" nType="0">
            <Node pos="l" depth="3" NCoef="0" IVar="-1" Cut="0.0000000000000000e+00" cType="1" res="1.4363628812134266e-02" rms="3.1396260857582092e-01" purity="4.9210017919540405e-01" nType="-99"/>
            <Node pos="r" depth="3" NCoef="0" IVar="-1" Cut="0.0000000000000000e+00" cType="1" res="-7.2725466452538967e-03" rms="3.0895793437957764e-01" purity="5.0628101825714111e-01" nType="-99"/>
          </Node>
        </Node>
        <Node pos="r" depth="1" NCoef="0" IVar="6" Cut="1.0769292449951172e+02" cType="1" res="5.4967477917671204e-03" rms="3.0474624037742615e-01" purity="5.1408749818801880e-01" nType="0">
          <Node pos="l" depth="2" NCoef="0" IVar="5" Cut="1.8672883605957031e+02" cType="1" res="9.8327575251460075e-03" rms="3.2015296816825867e-01" purity="3.2553473114967346e-01" nType="0">
            <Node pos="l" depth="3" NCoef="0" IVar="-1" Cut="0.0000000000000000e+00" cType="1" res="1.4849865809082985e-02" rms="3.2009118795394897e-01" purity="2.6130849123001099e-01" nType="-99"/>
            <Node pos="r" depth="3" NCoef="0" IVar="-1" Cut="0.0000000000000000e+00" cType="1" res="-1.6443751752376556e-02" rms="3.1915751099586487e-01" purity="7.3238462209701538e-01" nType="-99"/>
          </Node>
          <Node pos="r" depth="2" NCoef="0" IVar="7" Cut="4.6037414669990540e-01" cType="1" res="-1.6376627609133720e-03" rms="2.7739363908767700e-01" purity="8.2432949542999268e-01" nType="0">
            <Node pos="l" depth="3" NCoef="0" IVar="-1" Cut="0.0000000000000000e+00" cType="1" res="5.5534127168357372e-03" rms="2.6760873198509216e-01" purity="8.5216641426086426e-01" nType="-99"/>
            <Node pos="r" depth="3" NCoef="0" IVar="-1" Cut="0.0000000000000000e+00" cType="1" res="-1.8645349889993668e-02" rms="3.0125588178634644e-01" purity="7.5051045417785645e-01" nType="-99"/>
          </Node>
        </Node>
      </Node>
    </BinaryTree>
    <BinaryTree type="DecisionTree" boostWeight="1.0000000000000000e+00" itree="149">
      <Node pos="s" depth="0" NCoef="0" IVar="8" Cut="1.1999464035034180e+00" cType="1" res="1.6857219161465764e-03" rms="2.9957556724548340e-01" purity="5.0335979461669922e-01" nType="0">
        <Node pos="l" depth="1" NCoef="0" IVar="10" Cut="-1.4666607379913330e+00" cType="1" res="2.0514409698080271e-04" rms="2.9919165372848511e-01" purity="5.3610175848007202e-01" nType="0">
          <Node pos="l" depth="2" NCoef="0" IVar="6" Cut="8.9034515380859375e+01" cType="1" res="-9.7420653328299522e-03" rms="3.0283594131469727e-01" purity="4.0810224413871765e-01" nType="0">
            <Node pos="l" depth="3" NCoef="0" IVar="-1" Cut="0.0000000000000000e+00" cType="1" res="-1.1765572708100080e-03" rms="2.9267874360084534e-01" purity="2.5628352165222168e-01" nType="-99"/>
            <Node pos="r" depth="3" NCoef="0" IVar="-1" Cut="0.0000000000000000e+00" cType="1" res="-2.1554077044129372e-02" rms="3.1766158342361450e-01" purity="6.4674752950668335e-01" nType="-99"/>
          </Node>
          <Node pos="r" depth="2" NCoef="0" IVar="9" Cut="1.9999754428863525e+00" cType="1" res="1.5623224899172783e-03" rms="2.9866531491279602e-01" purity="5.5356580018997192e-01" nType="0">
            <Node pos="l" depth="3" NCoef="0" IVar="-1" Cut="0.0000000000000000e+00" cType="1" res="9.9505844991654158e-04" rms="2.9828137159347534e-01" purity="5.6491488218307495e-01" nType="-99"/>
            <Node pos="r" depth="3" NCoef="0" IVar="-1" Cut="0.0000000000000000e+00" cType="1" res="2.0951258018612862e-02" rms="3.0790320038795471e-01" purity="2.6089945435523987e-01" nType="-99"/>
          </Node>
        </Node>
        <Node pos="r" depth="1" NCoef="0" IVar="6" Cut="9.4335693359375000e+01" cType="1" res="1.1647759936749935e-02" rms="3.0195733904838562e-01" purity="2.8305643796920776e-01" nType="0">
          <Node pos="l" depth="2" NCoef="0" IVar="4" Cut="1.8619015502929688e+02" cType="1" res="3.1957156024873257e-03" rms="2.7391418814659119e-01" purity="1.4296185970306396e-01" nType="0">
            <Node pos="l" depth="3" NCoef="0" IVar="-1" Cut="0.0000000000000000e+00" cType="1" res="2.1871108561754227e-02" rms="2.4327743053436279e-01" purity="9.2055305838584900e-02" nType="-99"/>
            <Node pos="r" depth="3" NCoef="0" IVar="-1" Cut="0.0000000000000000e+00" cType="1" res="-1.0983233340084553e-02" rms="3.1989261507987976e-01" purity="2.3179826140403748e-01" nType="-99"/>
          </Node>
          <Node pos="r" depth="2" NCoef="0" IVar="-1" Cut="0.0000000000000000e+00" cType="1" res="2.3384965956211090e-02" rms="3.5274666547775269e-01" purity="5.7551127672195435e-01" nType="-99"/>
        </Node>
      </Node>
    </BinaryTree>
    <BinaryTree type="DecisionTree" boostWeight="1.0000000000000000e+00" itree="150">
      <Node pos="s" depth="0" NCoef="0" IVar="9" Cut="-2.0000004768371582e+00" cType="1" res="-2.0063053816556931e-03" rms="2.9867535829544067e-01" purity="4.9917423725128174e-01" nType="0">
        <Node pos="l" depth="1" NCoef="0" IVar="-1" Cut="0.0000000000000000e+00" cType="1" res="-3.1173361465334892e-02" rms="2.6080003380775452e-01" purity="1.8884468078613281e-01" nType="-99"/>
        <Node pos="r" depth="1" NCoef="0" IVar="9" Cut="-4.0000215172767639e-01" cType="1" res="-1.0524136014282703e-03" rms="3.0009874701499939e-01" purity="5.1199173927307129e-01" nType="0">
          <Node pos="l" depth="2" NCoef="0" IVar="8" Cut="1.3332317769527435e-01" cType="1" res="5.8506582863628864e-03" rms="3.1074064970016479e-01" purity="5.0049883127212524e-01" nType="0">
            <Node pos="l" depth="3" NCoef="0" IVar="-1" Cut="0.0000000000000000e+00" cType="1" res="-3.3073606900870800e-03" rms="2.9854556918144226e-01" purity="4.9325904250144958e-01" nType="-99"/>
            <Node pos="r" depth="3" NCoef="0" IVar="-1" Cut="0.0000000000000000e+00" cType="1" res="1.9311077892780304e-02" rms="3.2744917273521423e-01" purity="5.1116997003555298e-01" nType="-99"/>
          </Node>
          <Node pos="r" depth="2" NCoef="0" IVar="1" Cut="1.3887587890625000e+03" cType="1" res="-4.6099508181214333e-03" rms="2.9440101981163025e-01" purity="5.1791459321975708e-01" nType="0">
            <Node pos="l" depth="3" NCoef="0" IVar="-1" Cut="0.0000000000000000e+00" cType="1" res="-1.2359245680272579e-02" rms="2.9422640800476074e-01" purity="1.5274909138679504e-01" nType="-99"/>
            <Node pos="r" depth="3" NCoef="0" IVar="-1" Cut="0.0000000000000000e+00" cType="1" res="1.4867644058540463e-03" rms="2.9441836476325989e-01" purity="8.2565414905548096e-01" nType="-99"/>
          </Node>
        </Node>
      </Node>
    </BinaryTree>
    <BinaryTree type="DecisionTree" boostWeight="1.0000000000000000e+00" itree="151">
      <Node pos="s" depth="0" NCoef="0" IVar="3" Cut="3.3679031372070312e+02" cType="1" res="1.1285968357697129e-03" rms="3.0354946851730347e-01" purity="4.9605557322502136e-01" nType="0">
        <Node pos="l" depth="1" NCoef="0" IVar="7" Cut="-3.8563767075538635e-01" cType="1" res="9.0003404766321182e-03" rms="3.1126928329467773e-01" purity="2.5866895914077759e-01" nType="0">
          <Node pos="l" depth="2" NCoef="0" IVar="4" Cut="1.3320541381835938e+02" cType="1" res="2.2953251376748085e-02" rms="3.1038159132003784e-01" purity="2.3480941355228424e-01" nType="0">
            <Node pos="l" depth="3" NCoef="0" IVar="-1" Cut="0.0000000000000000e+00" cType="1" res="-4.6806437894701958e-03" rms="1.7124006152153015e-01" purity="3.3986572176218033e-02" nType="-99"/>
            <Node pos="r" depth="3" NCoef="0" IVar="-1" Cut="0.0000000000000000e+00" cType="1" res="3.1315315514802933e-02" rms="3.4812504053115845e-01" purity="3.1021568179130554e-01" nType="-99"/>
          </Node>
          <Node pos="r" depth="2" NCoef="0" IVar="2" Cut="1.9544525071978569e-02" cType="1" res="8.9257827494293451e-04" rms="3.1149697303771973e-01" purity="2.7253329753875732e-01" nType="0">
            <Node pos="l" depth="3" NCoef="0" IVar="-1" Cut="0.0000000000000000e+00" cType="1" res="-2.6346048340201378e-02" rms="2.0652793347835541e-01" purity="7.1550823748111725e-02" nType="-99"/>
            <Node pos="r" depth="3" NCoef="0" IVar="-1" Cut="0.0000000000000000e+00" cType="1" res="7.3366123251616955e-03" rms="3.5186466574668884e-01" purity="3.7214881181716919e-01" nType="-99"/>
          </Node>
        </Node>
        <Node pos="r" depth="1" NCoef="0" IVar="7" Cut="1.2207425832748413e+00" cType="1" res="-3.1743505969643593e-03" rms="2.9915785789489746e-01" purity="6.2581872940063477e-01" nType="0">
          <Node pos="l" depth="2" NCoef="0" IVar="8" Cut="3.9998084306716919e-01" cType="1" res="-1.9273002399131656e-03" rms="3.0129843950271606e-01" purity="6.5633791685104370e-01" nType="0">
            <Node pos="l" depth="3" NCoef="0" IVar="-1" Cut="0.0000000000000000e+00" cType="1" res="1.5265053370967507e-03" rms="2.9681161046028137e-01" purity="6.8647253513336182e-01" nType="-99"/>
            <Node pos="r" depth="3" NCoef="0" IVar="-1" Cut="0.0000000000000000e+00" cType="1" res="-9.0850144624710083e-03" rms="3.1018435955047607e-01" purity="5.9456741809844971e-01" nType="-99"/>
          </Node>
          <Node pos="r" depth="2" NCoef="0" IVar="-1" Cut="0.0000000000000000e+00" cType="1" res="-2.4363262578845024e-02" rms="2.6812794804573059e-01" purity="2.1504044532775879e-01" nType="-99"/>
        </Node>
      </Node>
    </BinaryTree>
    <BinaryTree type="DecisionTree" boostWeight="1.0000000000000000e+00" itree="152">
      <Node pos="s" depth="0" NCoef="0" IVar="5" Cut="1.4132994079589844e+02" cType="1" res="2.8106784448027611e-03" rms="3.0323314666748047e-01" purity="5.0450289249420166e-01" nType="0">
        <Node pos="l" depth="1" NCoef="0" IVar="8" Cut="-1.3340979814529419e-01" cType="1" res="8.0060595646500587e-03" rms="3.0372175574302673e-01" purity="2.3244184255599976e-01" nType="0">
          <Node pos="l" depth="2" NCoef="0" IVar="7" Cut="-3.7152549624443054e-01" cType="1" res="1.5808422118425369e-02" rms="3.0789545178413391e-01" purity="2.3197661340236664e-01" nType="0">
            <Node pos="l" depth="3" NCoef="0" IVar="-1" Cut="0.0000000000000000e+00" cType="1" res="-3.1461822800338268e-03" rms="2.7144783735275269e-01" purity="1.6350862383842468e-01" nType="-99"/>
            <Node pos="r" depth="3" NCoef="0" IVar="-1" Cut="0.0000000000000000e+00" cType="1" res="2.8052661567926407e-02" rms="3.2856285572052002e-01" purity="2.7575626969337463e-01" nType="-99"/>
          </Node>
          <Node pos="r" depth="2" NCoef="0" IVar="10" Cut="1.4666470289230347e+00" cType="1" res="1.3961340300738811e-03" rms="2.9998177289962769e-01" purity="2.3283594846725464e-01" nType="0">
            <Node pos="l" depth="3" NCoef="0" IVar="-1" Cut="0.0000000000000000e+00" cType="1" res="-2.6488262228667736e-03" rms="2.9948067665100098e-01" purity="2.3853066563606262e-01" nType="-99"/>
            <Node pos="r" depth="3" NCoef="0" IVar="-1" Cut="0.0000000000000000e+00" cType="1" res="2.4937663227319717e-02" rms="3.0171799659729004e-01" purity="2.0455783605575562e-01" nType="-99"/>
          </Node>
        </Node>
        <Node pos="r" depth="1" NCoef="0" IVar="7" Cut="-1.1480082273483276e+00" cType="1" res="-2.2263422142714262e-03" rms="3.0267351865768433e-01" purity="7.6827126741409302e-01" nType="0">
          <Node pos="l" depth="2" NCoef="0" IVar="-1" Cut="0.0000000000000000e+00" cType="1" res="1.5585366636514664e-02" rms="3.6967623233795166e-01" purity="4.6843740344047546e-01" nType="-99"/>
          <Node pos="r" depth="2" NCoef="0" IVar="9" Cut="-9.3337321281433105e-01" cType="1" res="-4.0122331120073795e-03" rms="2.9671120643615723e-01" purity="7.9176473617553711e-01" nType="0">
            <Node pos="l" depth="3" NCoef="0" IVar="-1" Cut="0.0000000000000000e+00" cType="1" res="-1.9294096156954765e-02" rms="3.2403197884559631e-01" purity="7.0375609397888184e-01" nType="-99"/>
            <Node pos="r" depth="3" NCoef="0" IVar="-1" Cut="0.0000000000000000e+00" cType="1" res="-1.1287312954664230e-03" rms="2.9105100035667419e-01" purity="8.0873239040374756e-01" nType="-99"/>
          </Node>
        </Node>
      </Node>
    </BinaryTree>
    <BinaryTree type="DecisionTree" boostWeight="1.0000000000000000e+00" itree="153">
      <Node pos="s" depth="0" NCoef="0" IVar="10" Cut="-1.7331213951110840e+00" cType="1" res="-9.8674790933728218e-04" rms="3.0246683955192566e-01" purity="4.9968579411506653e-01" nType="0">
        <Node pos="l" depth="1" NCoef="0" IVar="1" Cut="1.2795386962890625e+03" cType="1" res="1.4982225373387337e-02" rms="3.1780749559402466e-01" purity="3.6706167459487915e-01" nType="0">
          <Node pos="l" depth="2" NCoef="0" IVar="-1" Cut="0.0000000000000000e+00" cType="1" res="4.4770244508981705e-02" rms="2.8893291950225830e-01" purity="1.2319529056549072e-01" nType="-99"/>
          <Node pos="r" depth="2" NCoef="0" IVar="-1" Cut="0.0000000000000000e+00" cType="1" res="-2.0036841742694378e-03" rms="3.4747055172920227e-01" purity="6.4965653419494629e-01" nType="-99"/>
        </Node>
        <Node pos="r" depth="1" NCoef="0" IVar="2" Cut="4.2633209377527237e-02" cType="1" res="-2.4592571426182985e-03" rms="3.0097022652626038e-01" purity="5.1191508769989014e-01" nType="0">
          <Node pos="l" depth="2" NCoef="0" IVar="2" Cut="2.4361632764339447e-02" cType="1" res="2.0033244509249926e-03" rms="3.0386492609977722e-01" purity="3.3747836947441101e-01" nType="0">
            <Node pos="l" depth="3" NCoef="0" IVar="-1" Cut="0.0000000000000000e+00" cType="1" res="-2.8954709414392710e-03" rms="2.8922885656356812e-01" purity="2.7058380842208862e-01" nType="-99"/>
            <Node pos="r" depth="3" NCoef="0" IVar="-1" Cut="0.0000000000000000e+00" cType="1" res="1.2416113168001175e-02" rms="3.3665993809700012e-01" purity="5.0066900253295898e-01" nType="-99"/>
          </Node>
          <Node pos="r" depth="2" NCoef="0" IVar="1" Cut="1.7490888671875000e+03" cType="1" res="-7.9553676769137383e-03" rms="2.9727435111999512e-01" purity="7.2675120830535889e-01" nType="0">
            <Node pos="l" depth="3" NCoef="0" IVar="-1" Cut="0.0000000000000000e+00" cType="1" res="-1.3820139691233635e-02" rms="3.7002915143966675e-01" purity="5.3076344728469849e-01" nType="-99"/>
            <Node pos="r" depth="3" NCoef="0" IVar="-1" Cut="0.0000000000000000e+00" cType="1" res="1.5401124954223633e-02" rms="1.6826792061328888e-01" purity="9.6795088052749634e-01" nType="-99"/>
          </Node>
        </Node>
      </Node>
    </BinaryTree>
    <BinaryTree type="DecisionTree" boostWeight="1.0000000000000000e+00" itree="154">
      <Node pos="s" depth="0" NCoef="0" IVar="8" Cut="1.9998961687088013e+00" cType="1" res="3.7920990143902600e-04" rms="3.0004552006721497e-01" purity="5.0019210577011108e-01" nType="0">
        <Node pos="l" depth="1" NCoef="0" IVar="5" Cut="1.0560948944091797e+02" cType="1" res="9.6273305825889111e-04" rms="3.0261781811714172e-01" purity="5.1401609182357788e-01" nType="0">
          <Node pos="l" depth="2" NCoef="0" IVar="8" Cut="-1.6571687459945679e+00" cType="1" res="-3.5471259616315365e-03" rms="2.6464527845382690e-01" purity="1.3320389389991760e-01" nType="0">
            <Node pos="l" depth="3" NCoef="0" IVar="-1" Cut="0.0000000000000000e+00" cType="1" res="6.1288923025131226e-02" rms="2.2450177371501923e-01" purity="6.5971769392490387e-02" nType="-99"/>
            <Node pos="r" depth="3" NCoef="0" IVar="-1" Cut="0.0000000000000000e+00" cType="1" res="-8.5600707679986954e-03" rms="2.6891523599624634e-01" purity="1.4129441976547241e-01" nType="-99"/>
          </Node>
          <Node pos="r" depth="2" NCoef="0" IVar="7" Cut="-6.3224053382873535e-01" cType="1" res="2.8624222613871098e-03" rms="3.1723627448081970e-01" purity="6.7442572116851807e-01" nType="0">
            <Node pos="l" depth="3" NCoef="0" IVar="-1" Cut="0.0000000000000000e+00" cType="1" res="-4.2302375659346581e-03" rms="3.3472096920013428e-01" purity="5.2704638242721558e-01" nType="-99"/>
            <Node pos="r" depth="3" NCoef="0" IVar="-1" Cut="0.0000000000000000e+00" cType="1" res="4.9143116921186447e-03" rms="3.1245917081832886e-01" purity="7.1307551860809326e-01" nType="-99"/>
          </Node>
        </Node>
        <Node pos="r" depth="1" NCoef="0" IVar="-1" Cut="0.0000000000000000e+00" cType="1" res="-3.1960833817720413e-02" rms="2.0490641891956329e-01" purity="7.4765473604202271e-02" nType="-99"/>
      </Node>
    </BinaryTree>
    <BinaryTree type="DecisionTree" boostWeight="1.0000000000000000e+00" itree="155">
      <Node pos="s" depth="0" NCoef="0" IVar="7" Cut="1.3846547901630402e-01" cType="1" res="1.8006587633863091e-03" rms="3.0258134007453918e-01" purity="5.0615710020065308e-01" nType="0">
        <Node pos="l" depth="1" NCoef="0" IVar="9" Cut="-1.4666277170181274e+00" cType="1" res="5.3125414997339249e-03" rms="3.0599486827850342e-01" purity="5.2416330575942993e-01" nType="0">
          <Node pos="l" depth="2" NCoef="0" IVar="1" Cut="1.2674411621093750e+03" cType="1" res="2.2842932492494583e-02" rms="3.1636753678321838e-01" purity="3.4062299132347107e-01" nType="0">
            <Node pos="l" depth="3" NCoef="0" IVar="-1" Cut="0.0000000000000000e+00" cType="1" res="1.5513262711465359e-02" rms="2.6068034768104553e-01" purity="8.5083700716495514e-02" nType="-99"/>
            <Node pos="r" depth="3" NCoef="0" IVar="-1" Cut="0.0000000000000000e+00" cType="1" res="2.9006455093622208e-02" rms="3.7184482812881470e-01" purity="6.4829212427139282e-01" nType="-99"/>
          </Node>
          <Node pos="r" depth="2" NCoef="0" IVar="3" Cut="3.3679031372070312e+02" cType="1" res="3.0978985596448183e-03" rms="3.0458757281303406e-01" purity="5.4735022783279419e-01" nType="0">
            <Node pos="l" depth="3" NCoef="0" IVar="-1" Cut="0.0000000000000000e+00" cType="1" res="1.0060623288154602e-02" rms="3.2082810997962952e-01" purity="2.9903280735015869e-01" nType="-99"/>
            <Node pos="r" depth="3" NCoef="0" IVar="-1" Cut="0.0000000000000000e+00" cType="1" res="-1.9526769756339490e-04" rms="2.9621142148971558e-01" purity="6.6958856582641602e-01" nType="-99"/>
          </Node>
        </Node>
        <Node pos="r" depth="1" NCoef="0" IVar="10" Cut="1.2000106573104858e+00" cType="1" res="-2.6723537594079971e-03" rms="2.9811713099479675e-01" purity="4.8322308063507080e-01" nType="0">
          <Node pos="l" depth="2" NCoef="0" IVar="7" Cut="2.6519089937210083e-01" cType="1" res="-5.6100711226463318e-03" rms="2.9706302285194397e-01" purity="5.0281310081481934e-01" nType="0">
            <Node pos="l" depth="3" NCoef="0" IVar="-1" Cut="0.0000000000000000e+00" cType="1" res="1.1183722876012325e-02" rms="3.1184169650077820e-01" purity="6.6239279508590698e-01" nType="-99"/>
            <Node pos="r" depth="3" NCoef="0" IVar="-1" Cut="0.0000000000000000e+00" cType="1" res="-9.0097226202487946e-03" rms="2.9458263516426086e-01" purity="4.7759142518043518e-01" nType="-99"/>
          </Node>
          <Node pos="r" depth="2" NCoef="0" IVar="8" Cut="3.9961978793144226e-01" cType="1" res="8.8691823184490204e-03" rms="3.0194628238677979e-01" purity="4.0625888109207153e-01" nType="0">
            <Node pos="l" depth="3" NCoef="0" IVar="-1" Cut="0.0000000000000000e+00" cType="1" res="2.3501954972743988e-02" rms="3.1153020262718201e-01" purity="4.8742732405662537e-01" nType="-99"/>
            <Node pos="r" depth="3" NCoef="0" IVar="-1" Cut="0.0000000000000000e+00" cType="1" res="-1.0337458923459053e-02" rms="2.8800505399703979e-01" purity="3.0046850442886353e-01" nType="-99"/>
          </Node>
        </Node>
      </Node>
    </BinaryTree>
    <BinaryTree type="DecisionTree" boostWeight="1.0000000000000000e+00" itree="156">
      <Node pos="s" depth="0" NCoef="0" IVar="4" Cut="2.4185580444335938e+02" cType="1" res="3.7483312189579010e-04" rms="3.0181530117988586e-01" purity="4.9900847673416138e-01" nType="0">
        <Node pos="l" depth="1" NCoef="0" IVar="4" Cut="2.3280017089843750e+02" cType="1" res="3.2934998162090778e-03" rms="3.0713289976119995e-01" purity="2.5479283928871155e-01" nType="0">
          <Node pos="l" depth="2" NCoef="0" IVar="10" Cut="1.9999785423278809e+00" cType="1" res="1.4742090133950114e-03" rms="3.0298596620559692e-01" purity="2.3645482957363129e-01" nType="0">
            <Node pos="l" depth="3" NCoef="0" IVar="-1" Cut="0.0000000000000000e+00" cType="1" res="-3.8598396349698305e-04" rms="3.0266335606575012e-01" purity="2.4038612842559814e-01" nType="-99"/>
            <Node pos="r" depth="3" NCoef="0" IVar="-1" Cut="0.0000000000000000e+00" cType="1" res="3.5498015582561493e-02" rms="3.0632272362709045e-01" purity="1.8119950592517853e-01" nType="-99"/>
          </Node>
          <Node pos="r" depth="2" NCoef="0" IVar="-1" Cut="0.0000000000000000e+00" cType="1" res="2.8250120580196381e-02" rms="3.7161841988563538e-01" purity="5.7999914884567261e-01" nType="-99"/>
        </Node>
        <Node pos="r" depth="1" NCoef="0" IVar="1" Cut="1.5611123046875000e+03" cType="1" res="-2.9654202517122030e-03" rms="2.9557687044143677e-01" purity="7.7849978208541870e-01" nType="0">
          <Node pos="l" depth="2" NCoef="0" IVar="1" Cut="1.3221326904296875e+03" cType="1" res="-1.3404618017375469e-02" rms="3.9360639452934265e-01" purity="4.4243401288986206e-01" nType="0">
            <Node pos="l" depth="3" NCoef="0" IVar="-1" Cut="0.0000000000000000e+00" cType="1" res="-2.5670692324638367e-02" rms="3.6039239168167114e-01" purity="2.2356979548931122e-01" nType="-99"/>
            <Node pos="r" depth="3" NCoef="0" IVar="-1" Cut="0.0000000000000000e+00" cType="1" res="-7.1993807796388865e-04" rms="4.0973991155624390e-01" purity="5.5947417020797729e-01" nType="-99"/>
          </Node>
          <Node pos="r" depth="2" NCoef="0" IVar="7" Cut="7.0171171426773071e-01" cType="1" res="5.0748343346640468e-04" rms="2.5463986396789551e-01" purity="8.9030188322067261e-01" nType="0">
            <Node pos="l" depth="3" NCoef="0" IVar="-1" Cut="0.0000000000000000e+00" cType="1" res="-3.4980545751750469e-03" rms="2.4553216993808746e-01" purity="9.0388429164886475e-01" nType="-99"/>
            <Node pos="r" depth="3" NCoef="0" IVar="-1" Cut="0.0000000000000000e+00" cType="1" res="1.5275442041456699e-02" rms="2.9986470937728882e-01" purity="8.1479096412658691e-01" nType="-99"/>
          </Node>
        </Node>
      </Node>
    </BinaryTree>
    <BinaryTree type="DecisionTree" boostWeight="1.0000000000000000e+00" itree="157">
      <Node pos="s" depth="0" NCoef="0" IVar="9" Cut="-1.7333276271820068e+00" cType="1" res="1.5399671974591911e-04" rms="3.0225300788879395e-01" purity="5.0089359283447266e-01" nType="0">
        <Node pos="l" depth="1" NCoef="0" IVar="1" Cut="1.2795850830078125e+03" cType="1" res="-1.5218872576951981e-02" rms="2.7862593531608582e-01" purity="2.4540813267230988e-01" nType="0">
          <Node pos="l" depth="2" NCoef="0" IVar="-1" Cut="0.0000000000000000e+00" cType="1" res="-2.2308670450001955e-03" rms="2.2692325711250305e-01" purity="6.2783978879451752e-02" nType="-99"/>
          <Node pos="r" depth="2" NCoef="0" IVar="-1" Cut="0.0000000000000000e+00" cType="1" res="-2.8168840333819389e-02" rms="3.4240135550498962e-01" purity="5.2758288383483887e-01" nType="-99"/>
        </Node>
        <Node pos="r" depth="1" NCoef="0" IVar="10" Cut="9.3333071470260620e-01" cType="1" res="1.2469479115679860e-03" rms="3.0383324623107910e-01" purity="5.1905763149261475e-01" nType="0">
          <Node pos="l" depth="2" NCoef="0" IVar="10" Cut="2.2222584486007690e-01" cType="1" res="3.2910781446844339e-03" rms="3.0380520224571228e-01" purity="5.3867155313491821e-01" nType="0">
            <Node pos="l" depth="3" NCoef="0" IVar="-1" Cut="0.0000000000000000e+00" cType="1" res="1.9375086412765086e-04" rms="3.0312204360961914e-01" purity="5.2666437625885010e-01" nType="-99"/>
            <Node pos="r" depth="3" NCoef="0" IVar="-1" Cut="0.0000000000000000e+00" cType="1" res="1.3070067390799522e-02" rms="3.0548289418220520e-01" purity="5.7107424736022949e-01" nType="-99"/>
          </Node>
          <Node pos="r" depth="2" NCoef="0" IVar="9" Cut="-6.5396714210510254e-01" cType="1" res="-5.4307715035974979e-03" rms="3.0382892489433289e-01" purity="4.5498329401016235e-01" nType="0">
            <Node pos="l" depth="3" NCoef="0" IVar="-1" Cut="0.0000000000000000e+00" cType="1" res="-2.7177300304174423e-02" rms="2.9788023233413696e-01" purity="4.2353415489196777e-01" nType="-99"/>
            <Node pos="r" depth="3" NCoef="0" IVar="-1" Cut="0.0000000000000000e+00" cType="1" res="-5.3265248425304890e-04" rms="3.0502673983573914e-01" purity="4.6250161528587341e-01" nType="-99"/>
          </Node>
        </Node>
      </Node>
    </BinaryTree>
    <BinaryTree type="DecisionTree" boostWeight="1.0000000000000000e+00" itree="158">
      <Node pos="s" depth="0" NCoef="0" IVar="2" Cut="6.3949689269065857e-02" cType="1" res="1.1039478704333305e-03" rms="3.0244913697242737e-01" purity="5.0148737430572510e-01" nType="0">
        <Node pos="l" depth="1" NCoef="0" IVar="2" Cut="5.4813288152217865e-02" cType="1" res="-1.6191018512472510e-03" rms="3.0692964792251587e-01" purity="3.6768242716789246e-01" nType="0">
          <Node pos="l" depth="2" NCoef="0" IVar="8" Cut="-1.4665938615798950e+00" cType="1" res="-4.8510040505789220e-04" rms="3.0542695522308350e-01" purity="3.5178390145301819e-01" nType="0">
            <Node pos="l" depth="3" NCoef="0" IVar="-1" Cut="0.0000000000000000e+00" cType="1" res="-1.7240466549992561e-02" rms="2.6120772957801819e-01" purity="1.5385402739048004e-01" nType="-99"/>
            <Node pos="r" depth="3" NCoef="0" IVar="-1" Cut="0.0000000000000000e+00" cType="1" res="1.3351114466786385e-03" rms="3.1097921729087830e-01" purity="3.7901982665061951e-01" nType="-99"/>
          </Node>
          <Node pos="r" depth="2" NCoef="0" IVar="-1" Cut="0.0000000000000000e+00" cType="1" res="-1.6717744991183281e-02" rms="3.2672965526580811e-01" purity="5.8907449245452881e-01" nType="-99"/>
        </Node>
        <Node pos="r" depth="1" NCoef="0" IVar="9" Cut="-9.3299531936645508e-01" cType="1" res="6.7023965530097485e-03" rms="2.9294282197952271e-01" purity="7.7658331394195557e-01" nType="0">
          <Node pos="l" depth="2" NCoef="0" IVar="-1" Cut="0.0000000000000000e+00" cType="1" res="1.8300283700227737e-02" rms="3.1892049312591553e-01" purity="7.2699135541915894e-01" nType="-99"/>
          <Node pos="r" depth="2" NCoef="0" IVar="3" Cut="2.9665850830078125e+02" cType="1" res="3.8701025769114494e-03" rms="2.8660649061203003e-01" purity="7.8790605068206787e-01" nType="0">
            <Node pos="l" depth="3" NCoef="0" IVar="-1" Cut="0.0000000000000000e+00" cType="1" res="-3.5960841923952103e-03" rms="3.6278608441352844e-01" purity="4.7498825192451477e-01" nType="-99"/>
            <Node pos="r" depth="3" NCoef="0" IVar="-1" Cut="0.0000000000000000e+00" cType="1" res="8.8358074426651001e-03" rms="2.6243504881858826e-01" purity="8.7168782949447632e-01" nType="-99"/>
          </Node>
        </Node>
      </Node>
    </BinaryTree>
    <BinaryTree type="DecisionTree" boostWeight="1.0000000000000000e+00" itree="159">
      <Node pos="s" depth="0" NCoef="0" IVar="10" Cut="1.9999972581863403e+00" cType="1" res="6.7669036798179150e-04" rms="3.0393213033676147e-01" purity="5.0173324346542358e-01" nType="0">
        <Node pos="l" depth="1" NCoef="0" IVar="5" Cut="1.6113958740234375e+02" cType="1" res="1.9996471237391233e-03" rms="3.0459937453269958e-01" purity="5.1251643896102905e-01" nType="0">
          <Node pos="l" depth="2" NCoef="0" IVar="7" Cut="-1.4475042819976807e+00" cType="1" res="6.9308150559663773e-03" rms="3.2002550363540649e-01" purity="2.7629190683364868e-01" nType="0">
            <Node pos="l" depth="3" NCoef="0" IVar="-1" Cut="0.0000000000000000e+00" cType="1" res="-4.1641879826784134e-02" rms="1.5832486748695374e-01" purity="3.4704931080341339e-02" nType="-99"/>
            <Node pos="r" depth="3" NCoef="0" IVar="-1" Cut="0.0000000000000000e+00" cType="1" res="8.8995341211557388e-03" rms="3.3080548048019409e-01" purity="2.9837268590927124e-01" nType="-99"/>
          </Node>
          <Node pos="r" depth="2" NCoef="0" IVar="0" Cut="6.0599151611328125e+02" cType="1" res="-4.4521605595946312e-03" rms="2.8302022814750671e-01" purity="8.2158619165420532e-01" nType="0">
            <Node pos="l" depth="3" NCoef="0" IVar="-1" Cut="0.0000000000000000e+00" cType="1" res="-9.0301427990198135e-03" rms="3.4917670488357544e-01" purity="7.0016199350357056e-01" nType="-99"/>
            <Node pos="r" depth="3" NCoef="0" IVar="-1" Cut="0.0000000000000000e+00" cType="1" res="8.2721691578626633e-03" rms="1.7803342640399933e-01" purity="9.6182650327682495e-01" nType="-99"/>
          </Node>
        </Node>
        <Node pos="r" depth="1" NCoef="0" IVar="8" Cut="1.3414254784584045e-01" cType="1" res="-2.3544548079371452e-02" rms="2.9038262367248535e-01" purity="3.0431115627288818e-01" nType="0">
          <Node pos="l" depth="2" NCoef="0" IVar="-1" Cut="0.0000000000000000e+00" cType="1" res="-3.5691633820533752e-02" rms="2.7876546978950500e-01" purity="3.3003947138786316e-01" nType="-99"/>
          <Node pos="r" depth="2" NCoef="0" IVar="-1" Cut="0.0000000000000000e+00" cType="1" res="-1.5170830301940441e-02" rms="3.0162209272384644e-01" purity="2.7775239944458008e-01" nType="-99"/>
        </Node>
      </Node>
    </BinaryTree>
    <BinaryTree type="DecisionTree" boostWeight="1.0000000000000000e+00" itree="160">
      <Node pos="s" depth="0" NCoef="0" IVar="10" Cut="-9.3330436944961548e-01" cType="1" res="-1.8249010900035501e-03" rms="3.0214825272560120e-01" purity="5.0049477815628052e-01" nType="0">
        <Node pos="l" depth="1" NCoef="0" IVar="6" Cut="8.1792190551757812e+01" cType="1" res="5.0520701333880424e-03" rms="3.0718985199928284e-01" purity="4.5541235804557800e-01" nType="0">
          <Node pos="l" depth="2" NCoef="0" IVar="6" Cut="6.9680679321289062e+01" cType="1" res="1.4232000336050987e-02" rms="2.9786273837089539e-01" purity="2.4870811402797699e-01" nType="0">
            <Node pos="l" depth="3" NCoef="0" IVar="-1" Cut="0.0000000000000000e+00" cType="1" res="3.4672992769628763e-03" rms="2.7680239081382751e-01" purity="2.0072530210018158e-01" nType="-99"/>
            <Node pos="r" depth="3" NCoef="0" IVar="-1" Cut="0.0000000000000000e+00" cType="1" res="3.9534941315650940e-02" rms="3.4059104323387146e-01" purity="3.6100858449935913e-01" nType="-99"/>
          </Node>
          <Node pos="r" depth="2" NCoef="0" IVar="5" Cut="1.5850456237792969e+02" cType="1" res="-4.1727302595973015e-03" rms="3.1601709127426147e-01" purity="6.6312694549560547e-01" nType="0">
            <Node pos="l" depth="3" NCoef="0" IVar="-1" Cut="0.0000000000000000e+00" cType="1" res="-1.5430435538291931e-02" rms="3.4871649742126465e-01" purity="4.0208864212036133e-01" nType="-99"/>
            <Node pos="r" depth="3" NCoef="0" IVar="-1" Cut="0.0000000000000000e+00" cType="1" res="5.0833798013627529e-03" rms="2.9525682330131531e-01" purity="8.1312292814254761e-01" nType="-99"/>
          </Node>
        </Node>
        <Node pos="r" depth="1" NCoef="0" IVar="10" Cut="-7.5547772645950317e-01" cType="1" res="-3.9673796854913235e-03" rms="3.0052813887596130e-01" purity="5.1453989744186401e-01" nType="0">
          <Node pos="l" depth="2" NCoef="0" IVar="-1" Cut="0.0000000000000000e+00" cType="1" res="-2.1417675539851189e-02" rms="2.9887706041336060e-01" purity="4.9664229154586792e-01" nType="-99"/>
          <Node pos="r" depth="2" NCoef="0" IVar="9" Cut="1.9998052120208740e+00" cType="1" res="-3.0550004448741674e-03" rms="3.0060607194900513e-01" purity="5.1564580202102661e-01" nType="0">
            <Node pos="l" depth="3" NCoef="0" IVar="-1" Cut="0.0000000000000000e+00" cType="1" res="-4.3115043081343174e-03" rms="3.0093666911125183e-01" purity="5.2844506502151489e-01" nType="-99"/>
            <Node pos="r" depth="3" NCoef="0" IVar="-1" Cut="0.0000000000000000e+00" cType="1" res="1.9235188141465187e-02" rms="2.9249528050422668e-01" purity="2.3006722331047058e-01" nType="-99"/>
          </Node>
        </Node>
      </Node>
    </BinaryTree>
    <BinaryTree type="DecisionTree" boostWeight="1.0000000000000000e+00" itree="161">
      <Node pos="s" depth="0" NCoef="0" IVar="10" Cut="2.2666873931884766e+00" cType="1" res="-1.4930518809705973e-03" rms="3.0019766092300415e-01" purity="4.9702119827270508e-01" nType="0">
        <Node pos="l" depth="1" NCoef="0" IVar="10" Cut="5.7785892486572266e-01" cType="1" res="-8.9542852947488427e-04" rms="3.0081284046173096e-01" purity="5.0332438945770264e-01" nType="0">
          <Node pos="l" depth="2" NCoef="0" IVar="7" Cut="1.4528886973857880e-01" cType="1" res="-3.3172869589179754e-03" rms="2.9889535903930664e-01" purity="5.0678837299346924e-01" nType="0">
            <Node pos="l" depth="3" NCoef="0" IVar="-1" Cut="0.0000000000000000e+00" cType="1" res="-9.2627359554171562e-03" rms="2.9723539948463440e-01" purity="5.0840348005294800e-01" nType="-99"/>
            <Node pos="r" depth="3" NCoef="0" IVar="-1" Cut="0.0000000000000000e+00" cType="1" res="4.0083643980324268e-03" rms="3.0106282234191895e-01" purity="5.0452977418899536e-01" nType="-99"/>
          </Node>
          <Node pos="r" depth="2" NCoef="0" IVar="1" Cut="1.0614884033203125e+03" cType="1" res="4.4306917116045952e-03" rms="3.0491963028907776e-01" purity="4.9570629000663757e-01" nType="0">
            <Node pos="l" depth="3" NCoef="0" IVar="-1" Cut="0.0000000000000000e+00" cType="1" res="-3.1654559075832367e-02" rms="1.7321999371051788e-01" purity="3.4825570881366730e-02" nType="-99"/>
            <Node pos="r" depth="3" NCoef="0" IVar="-1" Cut="0.0000000000000000e+00" cType="1" res="8.6411712691187859e-03" rms="3.3204916119575500e-01" purity="6.2300467491149902e-01" nType="-99"/>
          </Node>
        </Node>
        <Node pos="r" depth="1" NCoef="0" IVar="-1" Cut="0.0000000000000000e+00" cType="1" res="-2.5688368827104568e-02" rms="2.7723497152328491e-01" purity="2.7850276231765747e-01" nType="-99"/>
      </Node>
    </BinaryTree>
    <BinaryTree type="DecisionTree" boostWeight="1.0000000000000000e+00" itree="162">
      <Node pos="s" depth="0" NCoef="0" IVar="9" Cut="-1.4666810035705566e+00" cType="1" res="2.1682013757526875e-03" rms="3.0535292625427246e-01" purity="4.9989175796508789e-01" nType="0">
        <Node pos="l" depth="1" NCoef="0" IVar="8" Cut="3.9977762103080750e-01" cType="1" res="1.5809303149580956e-02" rms="3.1571319699287415e-01" purity="3.1113764643669128e-01" nType="0">
          <Node pos="l" depth="2" NCoef="0" IVar="10" Cut="1.3330325484275818e-01" cType="1" res="2.7369312942028046e-02" rms="3.2106301188468933e-01" purity="3.3945950865745544e-01" nType="0">
            <Node pos="l" depth="3" NCoef="0" IVar="-1" Cut="0.0000000000000000e+00" cType="1" res="1.5921872109174728e-02" rms="2.9773008823394775e-01" purity="3.1471052765846252e-01" nType="-99"/>
            <Node pos="r" depth="3" NCoef="0" IVar="-1" Cut="0.0000000000000000e+00" cType="1" res="4.9330607056617737e-02" rms="3.5482174158096313e-01" purity="3.7997397780418396e-01" nType="-99"/>
          </Node>
          <Node pos="r" depth="2" NCoef="0" IVar="-1" Cut="0.0000000000000000e+00" cType="1" res="-1.2296243570744991e-02" rms="3.0121496319770813e-01" purity="2.4535152316093445e-01" nType="-99"/>
        </Node>
        <Node pos="r" depth="1" NCoef="0" IVar="10" Cut="-1.4666107892990112e+00" cType="1" res="6.3926848815754056e-04" rms="3.0413159728050232e-01" purity="5.2104789018630981e-01" nType="0">
          <Node pos="l" depth="2" NCoef="0" IVar="5" Cut="1.4005253601074219e+02" cType="1" res="-1.0698664933443069e-02" rms="2.9948249459266663e-01" purity="4.2990842461585999e-01" nType="0">
            <Node pos="l" depth="3" NCoef="0" IVar="-1" Cut="0.0000000000000000e+00" cType="1" res="-2.4010496214032173e-02" rms="2.7501752972602844e-01" purity="1.9841338694095612e-01" nType="-99"/>
            <Node pos="r" depth="3" NCoef="0" IVar="-1" Cut="0.0000000000000000e+00" cType="1" res="1.3490272685885429e-03" rms="3.2668915390968323e-01" purity="7.1490055322647095e-01" nType="-99"/>
          </Node>
          <Node pos="r" depth="2" NCoef="0" IVar="10" Cut="-1.0602533817291260e+00" cType="1" res="2.1450687199831009e-03" rms="3.0471196770668030e-01" purity="5.3315216302871704e-01" nType="0">
            <Node pos="l" depth="3" NCoef="0" IVar="-1" Cut="0.0000000000000000e+00" cType="1" res="2.6254199445247650e-02" rms="3.3254450559616089e-01" purity="5.3616786003112793e-01" nType="-99"/>
            <Node pos="r" depth="3" NCoef="0" IVar="-1" Cut="0.0000000000000000e+00" cType="1" res="-2.0963475981261581e-04" rms="3.0160507559776306e-01" purity="5.3284174203872681e-01" nType="-99"/>
          </Node>
        </Node>
      </Node>
    </BinaryTree>
    <BinaryTree type="DecisionTree" boostWeight="1.0000000000000000e+00" itree="163">
      <Node pos="s" depth="0" NCoef="0" IVar="4" Cut="1.4500955200195312e+02" cType="1" res="-5.4652086691930890e-04" rms="3.0106040835380554e-01" purity="5.0096184015274048e-01" nType="0">
        <Node pos="l" depth="1" NCoef="0" IVar="5" Cut="9.0677581787109375e+01" cType="1" res="7.0910314098000526e-03" rms="2.4417234957218170e-01" purity="9.0180672705173492e-02" nType="0">
          <Node pos="l" depth="2" NCoef="0" IVar="7" Cut="-9.1672700643539429e-01" cType="1" res="-3.0236321035772562e-03" rms="1.8423974514007568e-01" purity="4.4464383274316788e-02" nType="0">
            <Node pos="l" depth="3" NCoef="0" IVar="-1" Cut="0.0000000000000000e+00" cType="1" res="7.4441082775592804e-02" rms="1.7551937699317932e-01" purity="3.5802084952592850e-02" nType="-99"/>
            <Node pos="r" depth="3" NCoef="0" IVar="-1" Cut="0.0000000000000000e+00" cType="1" res="-1.9385714083909988e-02" rms="1.8645742535591125e-01" purity="4.7065716236829758e-02" nType="-99"/>
          </Node>
          <Node pos="r" depth="2" NCoef="0" IVar="5" Cut="1.0099448394775391e+02" cType="1" res="2.2360876202583313e-02" rms="3.1304103136062622e-01" purity="1.5919736027717590e-01" nType="0">
            <Node pos="l" depth="3" NCoef="0" IVar="-1" Cut="0.0000000000000000e+00" cType="1" res="7.1161106228828430e-02" rms="3.1932666897773743e-01" purity="1.4270454645156860e-01" nType="-99"/>
            <Node pos="r" depth="3" NCoef="0" IVar="-1" Cut="0.0000000000000000e+00" cType="1" res="7.0969816297292709e-03" rms="3.0820596218109131e-01" purity="1.6890715062618256e-01" nType="-99"/>
          </Node>
        </Node>
        <Node pos="r" depth="1" NCoef="0" IVar="9" Cut="3.9989349246025085e-01" cType="1" res="-2.4503383319824934e-03" rms="3.1360945105552673e-01" purity="6.0335743427276611e-01" nType="0">
          <Node pos="l" depth="2" NCoef="0" IVar="10" Cut="9.3332129716873169e-01" cType="1" res="1.4207967324182391e-03" rms="3.1200543045997620e-01" purity="6.2481051683425903e-01" nType="0">
            <Node pos="l" depth="3" NCoef="0" IVar="-1" Cut="0.0000000000000000e+00" cType="1" res="-1.8943247850984335e-03" rms="3.0877989530563354e-01" purity="6.2853854894638062e-01" nType="-99"/>
            <Node pos="r" depth="3" NCoef="0" IVar="-1" Cut="0.0000000000000000e+00" cType="1" res="1.2444231659173965e-02" rms="3.2304847240447998e-01" purity="6.1143052577972412e-01" nType="-99"/>
          </Node>
          <Node pos="r" depth="2" NCoef="0" IVar="10" Cut="6.6663020849227905e-01" cType="1" res="-9.5153721049427986e-03" rms="3.1639385223388672e-01" purity="5.6420439481735229e-01" nType="0">
            <Node pos="l" depth="3" NCoef="0" IVar="-1" Cut="0.0000000000000000e+00" cType="1" res="-3.9410106837749481e-03" rms="3.1545987725257874e-01" purity="6.0535329580307007e-01" nType="-99"/>
            <Node pos="r" depth="3" NCoef="0" IVar="-1" Cut="0.0000000000000000e+00" cType="1" res="-2.0518140867352486e-02" rms="3.1799271702766418e-01" purity="4.7965657711029053e-01" nType="-99"/>
          </Node>
        </Node>
      </Node>
    </BinaryTree>
    <BinaryTree type="DecisionTree" boostWeight="1.0000000000000000e+00" itree="164">
      <Node pos="s" depth="0" NCoef="0" IVar="8" Cut="-3.9993786811828613e-01" cType="1" res="1.6650237375870347e-04" rms="3.0065616965293884e-01" purity="4.9846068024635315e-01" nType="0">
        <Node pos="l" depth="1" NCoef="0" IVar="10" Cut="4.0002459287643433e-01" cType="1" res="-5.1811016164720058e-03" rms="2.9776859283447266e-01" purity="4.4453737139701843e-01" nType="0">
          <Node pos="l" depth="2" NCoef="0" IVar="7" Cut="4.1066208481788635e-01" cType="1" res="1.5587263624183834e-04" rms="3.0126526951789856e-01" purity="4.3514189124107361e-01" nType="0">
            <Node pos="l" depth="3" NCoef="0" IVar="-1" Cut="0.0000000000000000e+00" cType="1" res="6.7304773256182671e-03" rms="3.0623623728752136e-01" purity="4.6127530932426453e-01" nType="-99"/>
            <Node pos="r" depth="3" NCoef="0" IVar="-1" Cut="0.0000000000000000e+00" cType="1" res="-1.7763029783964157e-02" rms="2.8687658905982971e-01" purity="3.6491900682449341e-01" nType="-99"/>
          </Node>
          <Node pos="r" depth="2" NCoef="0" IVar="6" Cut="1.1043259429931641e+02" cType="1" res="-1.5405397862195969e-02" rms="2.9067894816398621e-01" purity="4.6253669261932373e-01" nType="0">
            <Node pos="l" depth="3" NCoef="0" IVar="-1" Cut="0.0000000000000000e+00" cType="1" res="-2.3374816402792931e-02" rms="2.9651117324829102e-01" purity="2.6999241113662720e-01" nType="-99"/>
            <Node pos="r" depth="3" NCoef="0" IVar="-1" Cut="0.0000000000000000e+00" cType="1" res="-2.0186947658658028e-03" rms="2.7900269627571106e-01" purity="8.2014775276184082e-01" nType="-99"/>
          </Node>
        </Node>
        <Node pos="r" depth="1" NCoef="0" IVar="4" Cut="2.1931210327148438e+02" cType="1" res="3.0097207054495811e-03" rms="3.0214163661003113e-01" purity="5.2713066339492798e-01" nType="0">
          <Node pos="l" depth="2" NCoef="0" IVar="9" Cut="-6.6671532392501831e-01" cType="1" res="-2.1680721547454596e-03" rms="3.0295079946517944e-01" purity="2.1371454000473022e-01" nType="0">
            <Node pos="l" depth="3" NCoef="0" IVar="-1" Cut="0.0000000000000000e+00" cType="1" res="1.4672963880002499e-02" rms="3.1168076395988464e-01" purity="2.2875754535198212e-01" nType="-99"/>
            <Node pos="r" depth="3" NCoef="0" IVar="-1" Cut="0.0000000000000000e+00" cType="1" res="-9.4527509063482285e-03" rms="2.9899749159812927e-01" purity="2.0743635296821594e-01" nType="-99"/>
          </Node>
          <Node pos="r" depth="2" NCoef="0" IVar="7" Cut="6.9718521833419800e-01" cType="1" res="6.9778799079358578e-03" rms="3.0145987868309021e-01" purity="7.6732671260833740e-01" nType="0">
            <Node pos="l" depth="3" NCoef="0" IVar="-1" Cut="0.0000000000000000e+00" cType="1" res="1.3682643184438348e-03" rms="2.9035991430282593e-01" purity="7.9308408498764038e-01" nType="-99"/>
            <Node pos="r" depth="3" NCoef="0" IVar="-1" Cut="0.0000000000000000e+00" cType="1" res="2.8944060206413269e-02" rms="3.4682986140251160e-01" purity="6.4857196807861328e-01" nType="-99"/>
          </Node>
        </Node>
      </Node>
    </BinaryTree>
    <BinaryTree type="DecisionTree" boostWeight="1.0000000000000000e+00" itree="165">
      <Node pos="s" depth="0" NCoef="0" IVar="10" Cut="2.0000028610229492e+00" cType="1" res="1.9390371744520962e-04" rms="3.0224883556365967e-01" purity="4.9918845295906067e-01" nType="0">
        <Node pos="l" depth="1" NCoef="0" IVar="9" Cut="-1.2000291347503662e+00" cType="1" res="1.0167959844693542e-03" rms="3.0279788374900818e-01" purity="5.0888049602508545e-01" nType="0">
          <Node pos="l" depth="2" NCoef="0" IVar="0" Cut="4.1629348754882812e+02" cType="1" res="-6.6050007008016109e-03" rms="3.0891162157058716e-01" purity="3.4582993388175964e-01" nType="0">
            <Node pos="l" depth="3" NCoef="0" IVar="-1" Cut="0.0000000000000000e+00" cType="1" res="6.9963824935257435e-03" rms="2.8187680244445801e-01" purity="1.4270879328250885e-01" nType="-99"/>
            <Node pos="r" depth="3" NCoef="0" IVar="-1" Cut="0.0000000000000000e+00" cType="1" res="-1.7204105854034424e-02" rms="3.3492094278335571e-01" purity="5.6277918815612793e-01" nType="-99"/>
          </Node>
          <Node pos="r" depth="2" NCoef="0" IVar="9" Cut="-6.2860363721847534e-01" cType="1" res="2.3271893151104450e-03" rms="3.0171489715576172e-01" purity="5.3691327571868896e-01" nType="0">
            <Node pos="l" depth="3" NCoef="0" IVar="-1" Cut="0.0000000000000000e+00" cType="1" res="1.5997033566236496e-02" rms="3.1743314862251282e-01" purity="5.5650502443313599e-01" nType="-99"/>
            <Node pos="r" depth="3" NCoef="0" IVar="-1" Cut="0.0000000000000000e+00" cType="1" res="-5.1532831275835633e-04" rms="2.9817402362823486e-01" purity="5.3272622823715210e-01" nType="-99"/>
          </Node>
        </Node>
        <Node pos="r" depth="1" NCoef="0" IVar="10" Cut="2.3047735691070557e+00" cType="1" res="-1.5164700336754322e-02" rms="2.9138556122779846e-01" purity="3.1829428672790527e-01" nType="0">
          <Node pos="l" depth="2" NCoef="0" IVar="-1" Cut="0.0000000000000000e+00" cType="1" res="-1.8824970349669456e-02" rms="2.9640564322471619e-01" purity="3.5238611698150635e-01" nType="-99"/>
          <Node pos="r" depth="2" NCoef="0" IVar="-1" Cut="0.0000000000000000e+00" cType="1" res="-1.4266150072216988e-02" rms="2.8610450029373169e-01" purity="2.8321555256843567e-01" nType="-99"/>
        </Node>
      </Node>
    </BinaryTree>
    <BinaryTree type="DecisionTree" boostWeight="1.0000000000000000e+00" itree="166">
      <Node pos="s" depth="0" NCoef="0" IVar="9" Cut="-9.3333190679550171e-01" cType="1" res="3.0324989929795265e-03" rms="3.0175238847732544e-01" purity="5.0624763965606689e-01" nType="0">
        <Node pos="l" depth="1" NCoef="0" IVar="0" Cut="4.2371420288085938e+02" cType="1" res="-7.1667814627289772e-03" rms="2.9908299446105957e-01" purity="3.8739266991615295e-01" nType="0">
          <Node pos="l" depth="2" NCoef="0" IVar="2" Cut="1.9308559596538544e-02" cType="1" res="-1.7277099192142487e-02" rms="2.6778700947761536e-01" purity="1.3558165729045868e-01" nType="0">
            <Node pos="l" depth="3" NCoef="0" IVar="-1" Cut="0.0000000000000000e+00" cType="1" res="-3.5494137555360794e-03" rms="1.9609703123569489e-01" purity="5.8863684535026550e-02" nType="-99"/>
            <Node pos="r" depth="3" NCoef="0" IVar="-1" Cut="0.0000000000000000e+00" cType="1" res="-2.8483960777521133e-02" rms="3.2080718874931335e-01" purity="2.0863708853721619e-01" nType="-99"/>
          </Node>
          <Node pos="r" depth="2" NCoef="0" IVar="2" Cut="3.9190135896205902e-02" cType="1" res="2.8641729149967432e-03" rms="3.2687932252883911e-01" purity="6.3722699880599976e-01" nType="0">
            <Node pos="l" depth="3" NCoef="0" IVar="-1" Cut="0.0000000000000000e+00" cType="1" res="-7.0949885994195938e-03" rms="3.4561017155647278e-01" purity="4.3408301472663879e-01" nType="-99"/>
            <Node pos="r" depth="3" NCoef="0" IVar="-1" Cut="0.0000000000000000e+00" cType="1" res="1.4460576698184013e-02" rms="3.0800953507423401e-01" purity="8.2665985822677612e-01" nType="-99"/>
          </Node>
        </Node>
        <Node pos="r" depth="1" NCoef="0" IVar="7" Cut="-1.4474570751190186e+00" cType="1" res="5.6931972503662109e-03" rms="3.0238831043243408e-01" purity="5.3725349903106689e-01" nType="0">
          <Node pos="l" depth="2" NCoef="0" IVar="-1" Cut="0.0000000000000000e+00" cType="1" res="-2.3578863590955734e-02" rms="2.2667405009269714e-01" purity="1.1490202695131302e-01" nType="-99"/>
          <Node pos="r" depth="2" NCoef="0" IVar="6" Cut="1.0679296875000000e+02" cType="1" res="6.8022259511053562e-03" rms="3.0590611696243286e-01" purity="5.6006824970245361e-01" nType="0">
            <Node pos="l" depth="3" NCoef="0" IVar="-1" Cut="0.0000000000000000e+00" cType="1" res="1.0144561529159546e-02" rms="3.2678395509719849e-01" purity="3.6103388667106628e-01" nType="-99"/>
            <Node pos="r" depth="3" NCoef="0" IVar="-1" Cut="0.0000000000000000e+00" cType="1" res="1.9280661363154650e-03" rms="2.7266162633895874e-01" purity="8.4915465116500854e-01" nType="-99"/>
          </Node>
        </Node>
      </Node>
    </BinaryTree>
    <BinaryTree type="DecisionTree" boostWeight="1.0000000000000000e+00" itree="167">
      <Node pos="s" depth="0" NCoef="0" IVar="4" Cut="1.3803755187988281e+02" cType="1" res="-1.2158864410594106e-03" rms="2.9881355166435242e-01" purity="5.0269782543182373e-01" nType="0">
        <Node pos="l" depth="1" NCoef="0" IVar="4" Cut="1.2145375061035156e+02" cType="1" res="-8.0631775781512260e-03" rms="2.1072027087211609e-01" purity="6.6475860774517059e-02" nType="0">
          <Node pos="l" depth="2" NCoef="0" IVar="8" Cut="6.6659396886825562e-01" cType="1" res="-1.7650641500949860e-02" rms="1.7470160126686096e-01" purity="3.6760769784450531e-02" nType="0">
            <Node pos="l" depth="3" NCoef="0" IVar="-1" Cut="0.0000000000000000e+00" cType="1" res="-6.0161087661981583e-02" rms="1.5773977339267731e-01" purity="2.8865100815892220e-02" nType="-99"/>
            <Node pos="r" depth="3" NCoef="0" IVar="-1" Cut="0.0000000000000000e+00" cType="1" res="-2.8787327464669943e-03" rms="2.0385141670703888e-01" purity="5.2777517586946487e-02" nType="-99"/>
          </Node>
          <Node pos="r" depth="2" NCoef="0" IVar="9" Cut="1.3342821598052979e-01" cType="1" res="1.3111669570207596e-02" rms="2.7278608083724976e-01" purity="1.3210453093051910e-01" nType="0">
            <Node pos="l" depth="3" NCoef="0" IVar="-1" Cut="0.0000000000000000e+00" cType="1" res="-5.8749248273670673e-03" rms="2.5506538152694702e-01" purity="1.0048598051071167e-01" nType="-99"/>
            <Node pos="r" depth="3" NCoef="0" IVar="-1" Cut="0.0000000000000000e+00" cType="1" res="4.0651697665452957e-02" rms="2.9008397459983826e-01" purity="1.6733287274837494e-01" nType="-99"/>
          </Node>
        </Node>
        <Node pos="r" depth="1" NCoef="0" IVar="4" Cut="2.2095681762695312e+02" cType="1" res="2.2028275998309255e-04" rms="3.1415325403213501e-01" purity="5.9419220685958862e-01" nType="0">
          <Node pos="l" depth="2" NCoef="0" IVar="5" Cut="1.7185487365722656e+02" cType="1" res="5.1418333314359188e-03" rms="3.3763206005096436e-01" purity="2.9889371991157532e-01" nType="0">
            <Node pos="l" depth="3" NCoef="0" IVar="-1" Cut="0.0000000000000000e+00" cType="1" res="7.4151851003989577e-04" rms="3.3249205350875854e-01" purity="2.4922446906566620e-01" nType="-99"/>
            <Node pos="r" depth="3" NCoef="0" IVar="-1" Cut="0.0000000000000000e+00" cType="1" res="2.5147652253508568e-02" rms="3.6906376481056213e-01" purity="6.3338297605514526e-01" nType="-99"/>
          </Node>
          <Node pos="r" depth="2" NCoef="0" IVar="8" Cut="-1.4666506052017212e+00" cType="1" res="-2.4194107390940189e-03" rms="3.0077302455902100e-01" purity="7.5257676839828491e-01" nType="0">
            <Node pos="l" depth="3" NCoef="0" IVar="-1" Cut="0.0000000000000000e+00" cType="1" res="-1.7288342118263245e-02" rms="3.3823561668395996e-01" purity="3.9973646402359009e-01" nType="-99"/>
            <Node pos="r" depth="3" NCoef="0" IVar="-1" Cut="0.0000000000000000e+00" cType="1" res="-1.7001199303194880e-03" rms="2.9879131913185120e-01" purity="7.6983320713043213e-01" nType="-99"/>
          </Node>
        </Node>
      </Node>
    </BinaryTree>
    <BinaryTree type="DecisionTree" boostWeight="1.0000000000000000e+00" itree="168">
      <Node pos="s" depth="0" NCoef="0" IVar="10" Cut="1.7333319187164307e+00" cType="1" res="-2.7189878746867180e-03" rms="2.9726472496986389e-01" purity="4.9735265970230103e-01" nType="0">
        <Node pos="l" depth="1" NCoef="0" IVar="5" Cut="1.4134199523925781e+02" cType="1" res="-3.9672921411693096e-03" rms="2.9519772529602051e-01" purity="5.0965404510498047e-01" nType="0">
          <Node pos="l" depth="2" NCoef="0" IVar="8" Cut="-3.9994025230407715e-01" cType="1" res="-8.8076032698154449e-03" rms="2.9300206899642944e-01" purity="2.1680723130702972e-01" nType="0">
            <Node pos="l" depth="3" NCoef="0" IVar="-1" Cut="0.0000000000000000e+00" cType="1" res="1.2250466970726848e-03" rms="2.9166182875633240e-01" purity="2.0086064934730530e-01" nType="-99"/>
            <Node pos="r" depth="3" NCoef="0" IVar="-1" Cut="0.0000000000000000e+00" cType="1" res="-1.6209524124860764e-02" rms="2.9367610812187195e-01" purity="2.2689807415008545e-01" nType="-99"/>
          </Node>
          <Node pos="r" depth="2" NCoef="0" IVar="3" Cut="3.2476861572265625e+02" cType="1" res="4.4661431456916034e-04" rms="2.9711708426475525e-01" purity="7.7670264244079590e-01" nType="0">
            <Node pos="l" depth="3" NCoef="0" IVar="-1" Cut="0.0000000000000000e+00" cType="1" res="8.2246093079447746e-03" rms="3.6452436447143555e-01" purity="5.6351101398468018e-01" nType="-99"/>
            <Node pos="r" depth="3" NCoef="0" IVar="-1" Cut="0.0000000000000000e+00" cType="1" res="-2.7629050891846418e-03" rms="2.7783873677253723e-01" purity="8.2952034473419189e-01" nType="-99"/>
          </Node>
        </Node>
        <Node pos="r" depth="1" NCoef="0" IVar="8" Cut="1.3372655212879181e-01" cType="1" res="1.0880692861974239e-02" rms="3.1860017776489258e-01" purity="3.6333477497100830e-01" nType="0">
          <Node pos="l" depth="2" NCoef="0" IVar="-1" Cut="0.0000000000000000e+00" cType="1" res="-5.7445052079856396e-03" rms="3.0848580598831177e-01" purity="3.7482815980911255e-01" nType="-99"/>
          <Node pos="r" depth="2" NCoef="0" IVar="-1" Cut="0.0000000000000000e+00" cType="1" res="2.8037136420607567e-02" rms="3.2692727446556091e-01" purity="3.5273036360740662e-01" nType="-99"/>
        </Node>
      </Node>
    </BinaryTree>
    <BinaryTree type="DecisionTree" boostWeight="1.0000000000000000e+00" itree="169">
      <Node pos="s" depth="0" NCoef="0" IVar="7" Cut="4.1072693467140198e-01" cType="1" res="-1.4294349821284413e-03" rms="3.0034095048904419e-01" purity="4.9962154030799866e-01" nType="0">
        <Node pos="l" depth="1" NCoef="0" IVar="7" Cut="-6.5109825134277344e-01" cType="1" res="-4.7412328422069550e-03" rms="2.9863280057907104e-01" purity="5.3749960660934448e-01" nType="0">
          <Node pos="l" depth="2" NCoef="0" IVar="7" Cut="-1.7634826898574829e+00" cType="1" res="3.7236264906823635e-03" rms="2.9866015911102295e-01" purity="3.4563335776329041e-01" nType="0">
            <Node pos="l" depth="3" NCoef="0" IVar="-1" Cut="0.0000000000000000e+00" cType="1" res="-4.7984603792428970e-02" rms="1.6704739630222321e-01" purity="5.1920589059591293e-02" nType="-99"/>
            <Node pos="r" depth="3" NCoef="0" IVar="-1" Cut="0.0000000000000000e+00" cType="1" res="8.1718182191252708e-03" rms="3.1374505162239075e-01" purity="3.9044785499572754e-01" nType="-99"/>
          </Node>
          <Node pos="r" depth="2" NCoef="0" IVar="1" Cut="1.7444438476562500e+03" cType="1" res="-9.0999789535999298e-03" rms="2.9852512478828430e-01" purity="6.3629591464996338e-01" nType="0">
            <Node pos="l" depth="3" NCoef="0" IVar="-1" Cut="0.0000000000000000e+00" cType="1" res="-1.3068748638033867e-02" rms="3.4865930676460266e-01" purity="4.1273209452629089e-01" nType="-99"/>
            <Node pos="r" depth="3" NCoef="0" IVar="-1" Cut="0.0000000000000000e+00" cType="1" res="1.7762042116373777e-03" rms="2.1128413081169128e-01" purity="9.4157797098159790e-01" nType="-99"/>
          </Node>
        </Node>
        <Node pos="r" depth="1" NCoef="0" IVar="9" Cut="-1.3348840177059174e-01" cType="1" res="5.4639158770442009e-03" rms="3.0374976992607117e-01" purity="4.2078003287315369e-01" nType="0">
          <Node pos="l" depth="2" NCoef="0" IVar="6" Cut="9.9536209106445312e+01" cType="1" res="1.3718008063733578e-02" rms="3.1298577785491943e-01" purity="4.2842212319374084e-01" nType="0">
            <Node pos="l" depth="3" NCoef="0" IVar="-1" Cut="0.0000000000000000e+00" cType="1" res="2.6227168738842010e-02" rms="3.1237411499023438e-01" purity="2.4528621137142181e-01" nType="-99"/>
            <Node pos="r" depth="3" NCoef="0" IVar="-1" Cut="0.0000000000000000e+00" cType="1" res="-9.7797450143843889e-04" rms="3.1342458724975586e-01" purity="7.2690826654434204e-01" nType="-99"/>
          </Node>
          <Node pos="r" depth="2" NCoef="0" IVar="10" Cut="-6.6654342412948608e-01" cType="1" res="-1.8973239639308304e-04" rms="2.9712569713592529e-01" purity="4.1554561257362366e-01" nType="0">
            <Node pos="l" depth="3" NCoef="0" IVar="-1" Cut="0.0000000000000000e+00" cType="1" res="1.9040234386920929e-02" rms="3.1194323301315308e-01" purity="4.2714339494705200e-01" nType="-99"/>
            <Node pos="r" depth="3" NCoef="0" IVar="-1" Cut="0.0000000000000000e+00" cType="1" res="-7.2274939157068729e-03" rms="2.9189255833625793e-01" purity="4.1176515817642212e-01" nType="-99"/>
          </Node>
        </Node>
      </Node>
    </BinaryTree>
    <BinaryTree type="DecisionTree" boostWeight="1.0000000000000000e+00" itree="170">
      <Node pos="s" depth="0" NCoef="0" IVar="10" Cut="-1.7333339452743530e+00" cType="1" res="1.8257440533488989e-03" rms="3.0324697494506836e-01" purity="5.0264066457748413e-01" nType="0">
        <Node pos="l" depth="1" NCoef="0" IVar="8" Cut="-1.3451193273067474e-01" cType="1" res="-1.7272643744945526e-02" rms="2.9080948233604431e-01" purity="3.5148197412490845e-01" nType="0">
          <Node pos="l" depth="2" NCoef="0" IVar="-1" Cut="0.0000000000000000e+00" cType="1" res="-7.2809588164091110e-03" rms="2.9378417134284973e-01" purity="3.3094388246536255e-01" nType="-99"/>
          <Node pos="r" depth="2" NCoef="0" IVar="-1" Cut="0.0000000000000000e+00" cType="1" res="-3.1507275998592377e-02" rms="2.8702089190483093e-01" purity="3.7419337034225464e-01" nType="-99"/>
        </Node>
        <Node pos="r" depth="1" NCoef="0" IVar="7" Cut="1.3856101036071777e-01" cType="1" res="3.5311533138155937e-03" rms="3.0427458882331848e-01" purity="5.1613849401473999e-01" nType="0">
          <Node pos="l" depth="2" NCoef="0" IVar="8" Cut="-1.4666166305541992e+00" cType="1" res="7.7144489623606205e-03" rms="3.0811223387718201e-01" purity="5.3942614793777466e-01" nType="0">
            <Node pos="l" depth="3" NCoef="0" IVar="-1" Cut="0.0000000000000000e+00" cType="1" res="4.4448681175708771e-02" rms="3.1810975074768066e-01" purity="2.7484646439552307e-01" nType="-99"/>
            <Node pos="r" depth="3" NCoef="0" IVar="-1" Cut="0.0000000000000000e+00" cType="1" res="5.4683894850313663e-03" rms="3.0702117085456848e-01" purity="5.6410777568817139e-01" nType="-99"/>
          </Node>
          <Node pos="r" depth="2" NCoef="0" IVar="8" Cut="-1.1999919414520264e+00" cType="1" res="-1.7251302488148212e-03" rms="2.9929998517036438e-01" purity="4.8687770962715149e-01" nType="0">
            <Node pos="l" depth="3" NCoef="0" IVar="-1" Cut="0.0000000000000000e+00" cType="1" res="-2.2952733561396599e-02" rms="2.8494751453399658e-01" purity="2.1738581359386444e-01" nType="-99"/>
            <Node pos="r" depth="3" NCoef="0" IVar="-1" Cut="0.0000000000000000e+00" cType="1" res="5.6235631927847862e-04" rms="3.0097219347953796e-01" purity="5.2057427167892456e-01" nType="-99"/>
          </Node>
        </Node>
      </Node>
    </BinaryTree>
    <BinaryTree type="DecisionTree" boostWeight="1.0000000000000000e+00" itree="171">
      <Node pos="s" depth="0" NCoef="0" IVar="10" Cut="1.9999910593032837e+00" cType="1" res="-1.0915646562352777e-03" rms="2.9880762100219727e-01" purity="4.9965324997901917e-01" nType="0">
        <Node pos="l" depth="1" NCoef="0" IVar="10" Cut="1.7140284180641174e-01" cType="1" res="-2.1321724634617567e-03" rms="2.9767978191375732e-01" purity="5.0874894857406616e-01" nType="0">
          <Node pos="l" depth="2" NCoef="0" IVar="8" Cut="1.3320875167846680e-01" cType="1" res="1.6319433925673366e-03" rms="3.0182054638862610e-01" purity="5.0273483991622925e-01" nType="0">
            <Node pos="l" depth="3" NCoef="0" IVar="-1" Cut="0.0000000000000000e+00" cType="1" res="-5.3984024561941624e-03" rms="2.9477843642234802e-01" purity="4.9567687511444092e-01" nType="-99"/>
            <Node pos="r" depth="3" NCoef="0" IVar="-1" Cut="0.0000000000000000e+00" cType="1" res="1.1541842482984066e-02" rms="3.1120094656944275e-01" purity="5.1263266801834106e-01" nType="-99"/>
          </Node>
          <Node pos="r" depth="2" NCoef="0" IVar="1" Cut="1.3357927246093750e+03" cType="1" res="-7.2676488198339939e-03" rms="2.9185742139816284e-01" purity="5.1695406436920166e-01" nType="0">
            <Node pos="l" depth="3" NCoef="0" IVar="-1" Cut="0.0000000000000000e+00" cType="1" res="-1.8394149839878082e-02" rms="2.7963092923164368e-01" purity="1.2577062845230103e-01" nType="-99"/>
            <Node pos="r" depth="3" NCoef="0" IVar="-1" Cut="0.0000000000000000e+00" cType="1" res="-1.0045267408713698e-03" rms="3.0034765601158142e-01" purity="8.0381631851196289e-01" nType="-99"/>
          </Node>
        </Node>
        <Node pos="r" depth="1" NCoef="0" IVar="7" Cut="2.0147384703159332e-01" cType="1" res="1.6789171844720840e-02" rms="3.1702935695648193e-01" purity="3.4336277842521667e-01" nType="0">
          <Node pos="l" depth="2" NCoef="0" IVar="-1" Cut="0.0000000000000000e+00" cType="1" res="-1.3011504895985126e-02" rms="2.9680585861206055e-01" purity="3.5036098957061768e-01" nType="-99"/>
          <Node pos="r" depth="2" NCoef="0" IVar="-1" Cut="0.0000000000000000e+00" cType="1" res="5.5895496159791946e-02" rms="3.3518469333648682e-01" purity="3.3559855818748474e-01" nType="-99"/>
        </Node>
      </Node>
    </BinaryTree>
    <BinaryTree type="DecisionTree" boostWeight="1.0000000000000000e+00" itree="172">
      <Node pos="s" depth="0" NCoef="0" IVar="9" Cut="3.9998623728752136e-01" cType="1" res="-6.8089703563600779e-04" rms="2.9873436689376831e-01" purity="5.0134432315826416e-01" nType="0">
        <Node pos="l" depth="1" NCoef="0" IVar="9" Cut="-1.8857136964797974e+00" cType="1" res="-4.4005466625094414e-03" rms="2.9377374053001404e-01" purity="5.1912415027618408e-01" nType="0">
          <Node pos="l" depth="2" NCoef="0" IVar="-1" Cut="0.0000000000000000e+00" cType="1" res="-2.3401595652103424e-02" rms="2.6871433854103088e-01" purity="2.0530803501605988e-01" nType="-99"/>
          <Node pos="r" depth="2" NCoef="0" IVar="8" Cut="-1.4666064977645874e+00" cType="1" res="-3.2215153332799673e-03" rms="2.9576146602630615e-01" purity="5.4561102390289307e-01" nType="0">
            <Node pos="l" depth="3" NCoef="0" IVar="-1" Cut="0.0000000000000000e+00" cType="1" res="1.3568435795605183e-02" rms="2.9562968015670776e-01" purity="2.4044509232044220e-01" nType="-99"/>
            <Node pos="r" depth="3" NCoef="0" IVar="-1" Cut="0.0000000000000000e+00" cType="1" res="-5.0383675843477249e-03" rms="2.9573917388916016e-01" purity="5.7307302951812744e-01" nType="-99"/>
          </Node>
        </Node>
        <Node pos="r" depth="1" NCoef="0" IVar="8" Cut="-1.1999703645706177e+00" cType="1" res="5.7071587070822716e-03" rms="3.0696153640747070e-01" purity="4.7080951929092407e-01" nType="0">
          <Node pos="l" depth="2" NCoef="0" IVar="-1" Cut="0.0000000000000000e+00" cType="1" res="-1.7666796222329140e-02" rms="2.8672313690185547e-01" purity="2.2563499212265015e-01" nType="-99"/>
          <Node pos="r" depth="2" NCoef="0" IVar="8" Cut="-4.3810763955116272e-01" cType="1" res="8.2207201048731804e-03" rms="3.0923458933830261e-01" purity="5.0058078765869141e-01" nType="0">
            <Node pos="l" depth="3" NCoef="0" IVar="-1" Cut="0.0000000000000000e+00" cType="1" res="2.4913677945733070e-02" rms="3.3250883221626282e-01" purity="5.4704242944717407e-01" nType="-99"/>
            <Node pos="r" depth="3" NCoef="0" IVar="-1" Cut="0.0000000000000000e+00" cType="1" res="4.4414871372282505e-03" rms="3.0245867371559143e-01" purity="4.8795017600059509e-01" nType="-99"/>
          </Node>
        </Node>
      </Node>
    </BinaryTree>
    <BinaryTree type="DecisionTree" boostWeight="1.0000000000000000e+00" itree="173">
      <Node pos="s" depth="0" NCoef="0" IVar="8" Cut="-1.7331806421279907e+00" cType="1" res="1.4906334690749645e-03" rms="3.0065345764160156e-01" purity="5.0211840867996216e-01" nType="0">
        <Node pos="l" depth="1" NCoef="0" IVar="10" Cut="-4.0036568045616150e-01" cType="1" res="1.7695410177111626e-02" rms="2.8201782703399658e-01" purity="1.6341245174407959e-01" nType="0">
          <Node pos="l" depth="2" NCoef="0" IVar="-1" Cut="0.0000000000000000e+00" cType="1" res="3.6686394363641739e-02" rms="2.7608922123908997e-01" purity="1.4223298430442810e-01" nType="-99"/>
          <Node pos="r" depth="2" NCoef="0" IVar="-1" Cut="0.0000000000000000e+00" cType="1" res="1.6612324863672256e-02" rms="2.8722205758094788e-01" purity="1.8272066116333008e-01" nType="-99"/>
        </Node>
        <Node pos="r" depth="1" NCoef="0" IVar="4" Cut="1.4498309326171875e+02" cType="1" res="5.5358285317197442e-04" rms="3.0166923999786377e-01" purity="5.2170425653457642e-01" nType="0">
          <Node pos="l" depth="2" NCoef="0" IVar="9" Cut="9.3327850103378296e-01" cType="1" res="-8.1528481096029282e-03" rms="2.2455732524394989e-01" purity="7.5429417192935944e-02" nType="0">
            <Node pos="l" depth="3" NCoef="0" IVar="-1" Cut="0.0000000000000000e+00" cType="1" res="-3.0015427619218826e-02" rms="2.1286591887474060e-01" purity="6.7689947783946991e-02" nType="-99"/>
            <Node pos="r" depth="3" NCoef="0" IVar="-1" Cut="0.0000000000000000e+00" cType="1" res="2.6864532381296158e-02" rms="2.5084531307220459e-01" purity="9.5413327217102051e-02" nType="-99"/>
          </Node>
          <Node pos="r" depth="2" NCoef="0" IVar="1" Cut="1.1200831298828125e+03" cType="1" res="2.5482480414211750e-03" rms="3.1666952371597290e-01" purity="6.2394696474075317e-01" nType="0">
            <Node pos="l" depth="3" NCoef="0" IVar="-1" Cut="0.0000000000000000e+00" cType="1" res="2.3611089214682579e-02" rms="2.8866493701934814e-01" purity="1.0695749521255493e-01" nType="-99"/>
            <Node pos="r" depth="3" NCoef="0" IVar="-1" Cut="0.0000000000000000e+00" cType="1" res="4.9178717745235190e-05" rms="3.2111454010009766e-01" purity="7.1171563863754272e-01" nType="-99"/>
          </Node>
        </Node>
      </Node>
    </BinaryTree>
    <BinaryTree type="DecisionTree" boostWeight="1.0000000000000000e+00" itree="174">
      <Node pos="s" depth="0" NCoef="0" IVar="10" Cut="1.2000055313110352e+00" cType="1" res="8.6294132051989436e-04" rms="3.0167412757873535e-01" purity="5.0276476144790649e-01" nType="0">
        <Node pos="l" depth="1" NCoef="0" IVar="10" Cut="5.7159133255481720e-02" cType="1" res="2.5771006476134062e-03" rms="3.0071175098419189e-01" purity="5.2039891481399536e-01" nType="0">
          <Node pos="l" depth="2" NCoef="0" IVar="9" Cut="-1.7333431243896484e+00" cType="1" res="-2.6786862872540951e-04" rms="3.0087468028068542e-01" purity="4.9959316849708557e-01" nType="0">
            <Node pos="l" depth="3" NCoef="0" IVar="-1" Cut="0.0000000000000000e+00" cType="1" res="1.9507806748151779e-02" rms="2.9184225201606750e-01" purity="2.3101906478404999e-01" nType="-99"/>
            <Node pos="r" depth="3" NCoef="0" IVar="-1" Cut="0.0000000000000000e+00" cType="1" res="-1.7132917419075966e-03" rms="3.0154615640640259e-01" purity="5.2103108167648315e-01" nType="-99"/>
          </Node>
          <Node pos="r" depth="2" NCoef="0" IVar="8" Cut="1.3331982493400574e-01" cType="1" res="7.2206063196063042e-03" rms="3.0038771033287048e-01" purity="5.5435776710510254e-01" nType="0">
            <Node pos="l" depth="3" NCoef="0" IVar="-1" Cut="0.0000000000000000e+00" cType="1" res="1.6722673550248146e-02" rms="3.0212917923927307e-01" purity="5.9959369897842407e-01" nType="-99"/>
            <Node pos="r" depth="3" NCoef="0" IVar="-1" Cut="0.0000000000000000e+00" cType="1" res="-1.4912144979462028e-03" rms="2.9814019799232483e-01" purity="5.0226402282714844e-01" nType="-99"/>
          </Node>
        </Node>
        <Node pos="r" depth="1" NCoef="0" IVar="9" Cut="-6.6668951511383057e-01" cType="1" res="-7.4035646393895149e-03" rms="3.0613806843757629e-01" purity="4.1772404313087463e-01" nType="0">
          <Node pos="l" depth="2" NCoef="0" IVar="-1" Cut="0.0000000000000000e+00" cType="1" res="1.0539852082729340e-02" rms="3.3085155487060547e-01" purity="3.8399156928062439e-01" nType="-99"/>
          <Node pos="r" depth="2" NCoef="0" IVar="7" Cut="2.1864843368530273e-01" cType="1" res="-1.3182407245039940e-02" rms="2.9707461595535278e-01" purity="4.2915642261505127e-01" nType="0">
            <Node pos="l" depth="3" NCoef="0" IVar="-1" Cut="0.0000000000000000e+00" cType="1" res="-2.5648370385169983e-02" rms="3.0311995744705200e-01" purity="4.6058437228202820e-01" nType="-99"/>
            <Node pos="r" depth="3" NCoef="0" IVar="-1" Cut="0.0000000000000000e+00" cType="1" res="-2.7609469834715128e-03" rms="2.9025903344154358e-01" purity="3.9645826816558838e-01" nType="-99"/>
          </Node>
        </Node>
      </Node>
    </BinaryTree>
    <BinaryTree type="DecisionTree" boostWeight="1.0000000000000000e+00" itree="175">
      <Node pos="s" depth="0" NCoef="0" IVar="8" Cut="9.3325442075729370e-01" cType="1" res="1.0262400610372424e-04" rms="2.9946798086166382e-01" purity="5.0267493724822998e-01" nType="0">
        <Node pos="l" depth="1" NCoef="0" IVar="8" Cut="7.5547832250595093e-01" cType="1" res="2.3787259124219418e-03" rms="3.0097579956054688e-01" purity="5.4229992628097534e-01" nType="0">
          <Node pos="l" depth="2" NCoef="0" IVar="9" Cut="1.7333110570907593e+00" cType="1" res="1.0914220474660397e-03" rms="2.9959803819656372e-01" purity="5.4187369346618652e-01" nType="0">
            <Node pos="l" depth="3" NCoef="0" IVar="-1" Cut="0.0000000000000000e+00" cType="1" res="-5.6878425311879255e-06" rms="2.9793497920036316e-01" purity="5.5559802055358887e-01" nType="-99"/>
            <Node pos="r" depth="3" NCoef="0" IVar="-1" Cut="0.0000000000000000e+00" cType="1" res="1.9101625308394432e-02" rms="3.2404160499572754e-01" purity="3.2701128721237183e-01" nType="-99"/>
          </Node>
          <Node pos="r" depth="2" NCoef="0" IVar="-1" Cut="0.0000000000000000e+00" cType="1" res="2.2474065423011780e-02" rms="3.2071134448051453e-01" purity="5.4883366823196411e-01" nType="-99"/>
        </Node>
        <Node pos="r" depth="1" NCoef="0" IVar="7" Cut="6.8407303094863892e-01" cType="1" res="-1.0088385082781315e-02" rms="2.9240447282791138e-01" purity="3.2525828480720520e-01" nType="0">
          <Node pos="l" depth="2" NCoef="0" IVar="7" Cut="-4.6109005808830261e-01" cType="1" res="-3.8442253135144711e-03" rms="3.0789062380790710e-01" purity="3.8573703169822693e-01" nType="0">
            <Node pos="l" depth="3" NCoef="0" IVar="-1" Cut="0.0000000000000000e+00" cType="1" res="-2.1405700594186783e-02" rms="2.8052285313606262e-01" purity="2.3571830987930298e-01" nType="-99"/>
            <Node pos="r" depth="3" NCoef="0" IVar="-1" Cut="0.0000000000000000e+00" cType="1" res="4.9512190744280815e-03" rms="3.2471558451652527e-01" purity="4.8674064874649048e-01" nType="-99"/>
          </Node>
          <Node pos="r" depth="2" NCoef="0" IVar="9" Cut="3.9935475587844849e-01" cType="1" res="-2.6157125830650330e-02" rms="2.4742433428764343e-01" purity="1.6962218284606934e-01" nType="0">
            <Node pos="l" depth="3" NCoef="0" IVar="-1" Cut="0.0000000000000000e+00" cType="1" res="-2.8585327789187431e-02" rms="2.7087411284446716e-01" purity="2.0139811933040619e-01" nType="-99"/>
            <Node pos="r" depth="3" NCoef="0" IVar="-1" Cut="0.0000000000000000e+00" cType="1" res="-4.3527148663997650e-02" rms="2.2139601409435272e-01" purity="1.3775949180126190e-01" nType="-99"/>
          </Node>
        </Node>
      </Node>
    </BinaryTree>
    <BinaryTree type="DecisionTree" boostWeight="1.0000000000000000e+00" itree="176">
      <Node pos="s" depth="0" NCoef="0" IVar="0" Cut="6.0413482666015625e+02" cType="1" res="7.0933609094936401e-05" rms="3.0211707949638367e-01" purity="4.9505177140235901e-01" nType="0">
        <Node pos="l" depth="1" NCoef="0" IVar="5" Cut="1.5818536376953125e+02" cType="1" res="2.4581605102866888e-03" rms="3.1887948513031006e-01" purity="3.4761282801628113e-01" nType="0">
          <Node pos="l" depth="2" NCoef="0" IVar="6" Cut="6.5408378601074219e+01" cType="1" res="6.8780663423240185e-03" rms="3.0222305655479431e-01" purity="1.8243840336799622e-01" nType="0">
            <Node pos="l" depth="3" NCoef="0" IVar="-1" Cut="0.0000000000000000e+00" cType="1" res="-3.7916961591690779e-03" rms="2.3339606821537018e-01" purity="8.0264911055564880e-02" nType="-99"/>
            <Node pos="r" depth="3" NCoef="0" IVar="-1" Cut="0.0000000000000000e+00" cType="1" res="1.1683199554681778e-02" rms="3.4380465745925903e-01" purity="2.5717714428901672e-01" nType="-99"/>
          </Node>
          <Node pos="r" depth="2" NCoef="0" IVar="7" Cut="6.8825221061706543e-01" cType="1" res="-6.5666148439049721e-03" rms="3.5026624798774719e-01" purity="6.8487387895584106e-01" nType="0">
            <Node pos="l" depth="3" NCoef="0" IVar="-1" Cut="0.0000000000000000e+00" cType="1" res="-2.0508510060608387e-03" rms="3.4468257427215576e-01" purity="7.2408086061477661e-01" nType="-99"/>
            <Node pos="r" depth="3" NCoef="0" IVar="-1" Cut="0.0000000000000000e+00" cType="1" res="-1.7731044441461563e-02" rms="3.7328651547431946e-01" purity="5.1250284910202026e-01" nType="-99"/>
          </Node>
        </Node>
        <Node pos="r" depth="1" NCoef="0" IVar="5" Cut="1.8708871459960938e+02" cType="1" res="-6.3745621591806412e-03" rms="2.5122201442718506e-01" purity="8.9313578605651855e-01" nType="0">
          <Node pos="l" depth="2" NCoef="0" IVar="4" Cut="2.1325311279296875e+02" cType="1" res="-1.6153523698449135e-02" rms="3.3165112137794495e-01" purity="7.9161828756332397e-01" nType="0">
            <Node pos="l" depth="3" NCoef="0" IVar="-1" Cut="0.0000000000000000e+00" cType="1" res="-2.2342702373862267e-02" rms="3.8310420513153076e-01" purity="6.3040912151336670e-01" nType="-99"/>
            <Node pos="r" depth="3" NCoef="0" IVar="-1" Cut="0.0000000000000000e+00" cType="1" res="-1.0788736864924431e-02" rms="3.0449289083480835e-01" purity="8.6663866043090820e-01" nType="-99"/>
          </Node>
          <Node pos="r" depth="2" NCoef="0" IVar="3" Cut="6.4058093261718750e+02" cType="1" res="6.5797049319371581e-04" rms="1.7111569643020630e-01" purity="9.6614193916320801e-01" nType="0">
            <Node pos="l" depth="3" NCoef="0" IVar="-1" Cut="0.0000000000000000e+00" cType="1" res="9.6850935369729996e-03" rms="1.5945510566234589e-01" purity="9.7083109617233276e-01" nType="-99"/>
            <Node pos="r" depth="3" NCoef="0" IVar="-1" Cut="0.0000000000000000e+00" cType="1" res="-1.2702808715403080e-02" rms="1.9730091094970703e-01" purity="9.5436251163482666e-01" nType="-99"/>
          </Node>
        </Node>
      </Node>
    </BinaryTree>
    <BinaryTree type="DecisionTree" boostWeight="1.0000000000000000e+00" itree="177">
      <Node pos="s" depth="0" NCoef="0" IVar="8" Cut="3.9998456835746765e-01" cType="1" res="-2.4267213302664459e-04" rms="3.0263361334800720e-01" purity="4.9633228778839111e-01" nType="0">
        <Node pos="l" depth="1" NCoef="0" IVar="5" Cut="2.1476385498046875e+02" cType="1" res="-3.2586888410151005e-03" rms="3.0016404390335083e-01" purity="5.2240175008773804e-01" nType="0">
          <Node pos="l" depth="2" NCoef="0" IVar="5" Cut="8.9262527465820312e+01" cType="1" res="-5.7723587378859520e-03" rms="3.1976857781410217e-01" purity="3.8887825608253479e-01" nType="0">
            <Node pos="l" depth="3" NCoef="0" IVar="-1" Cut="0.0000000000000000e+00" cType="1" res="6.9875358603894711e-03" rms="2.4931564927101135e-01" purity="1.0813175886869431e-01" nType="-99"/>
            <Node pos="r" depth="3" NCoef="0" IVar="-1" Cut="0.0000000000000000e+00" cType="1" res="-7.9354699701070786e-03" rms="3.4092116355895996e-01" purity="4.8705965280532837e-01" nType="-99"/>
          </Node>
          <Node pos="r" depth="2" NCoef="0" IVar="8" Cut="-6.6623467206954956e-01" cType="1" res="4.0127462707459927e-03" rms="2.3424392938613892e-01" purity="9.0865272283554077e-01" nType="0">
            <Node pos="l" depth="3" NCoef="0" IVar="-1" Cut="0.0000000000000000e+00" cType="1" res="-1.2715901248157024e-02" rms="2.8163418173789978e-01" purity="8.4119606018066406e-01" nType="-99"/>
            <Node pos="r" depth="3" NCoef="0" IVar="-1" Cut="0.0000000000000000e+00" cType="1" res="1.7494035884737968e-02" rms="2.1391868591308594e-01" purity="9.3351984024047852e-01" nType="-99"/>
          </Node>
        </Node>
        <Node pos="r" depth="1" NCoef="0" IVar="9" Cut="1.7333230972290039e+00" cType="1" res="5.3119431249797344e-03" rms="3.0705237388610840e-01" purity="4.4832003116607666e-01" nType="0">
          <Node pos="l" depth="2" NCoef="0" IVar="7" Cut="-1.1580803394317627e+00" cType="1" res="3.8486607372760773e-03" rms="3.0829656124114990e-01" purity="4.6859285235404968e-01" nType="0">
            <Node pos="l" depth="3" NCoef="0" IVar="-1" Cut="0.0000000000000000e+00" cType="1" res="-1.6796650364995003e-02" rms="2.4433724582195282e-01" purity="1.4834448695182800e-01" nType="-99"/>
            <Node pos="r" depth="3" NCoef="0" IVar="-1" Cut="0.0000000000000000e+00" cType="1" res="5.7786526158452034e-03" rms="3.1454464793205261e-01" purity="5.0411409139633179e-01" nType="-99"/>
          </Node>
          <Node pos="r" depth="2" NCoef="0" IVar="-1" Cut="0.0000000000000000e+00" cType="1" res="2.7833707630634308e-02" rms="2.9229328036308289e-01" purity="2.2179870307445526e-01" nType="-99"/>
        </Node>
      </Node>
    </BinaryTree>
    <BinaryTree type="DecisionTree" boostWeight="1.0000000000000000e+00" itree="178">
      <Node pos="s" depth="0" NCoef="0" IVar="10" Cut="-1.9999936819076538e+00" cType="1" res="1.7697741277515888e-03" rms="2.9969459772109985e-01" purity="5.0298744440078735e-01" nType="0">
        <Node pos="l" depth="1" NCoef="0" IVar="8" Cut="-1.3413600623607635e-01" cType="1" res="-1.8449019640684128e-02" rms="2.8804096579551697e-01" purity="2.9329970479011536e-01" nType="0">
          <Node pos="l" depth="2" NCoef="0" IVar="-1" Cut="0.0000000000000000e+00" cType="1" res="-3.1843356788158417e-02" rms="2.7725395560264587e-01" purity="2.5161778926849365e-01" nType="-99"/>
          <Node pos="r" depth="2" NCoef="0" IVar="-1" Cut="0.0000000000000000e+00" cType="1" res="-1.1323550716042519e-02" rms="2.9801920056343079e-01" purity="3.3424207568168640e-01" nType="-99"/>
        </Node>
        <Node pos="r" depth="1" NCoef="0" IVar="10" Cut="1.2000079154968262e+00" cType="1" res="2.8384651523083448e-03" rms="3.0026009678840637e-01" purity="5.1407074928283691e-01" nType="0">
          <Node pos="l" depth="2" NCoef="0" IVar="3" Cut="4.6587182617187500e+02" cType="1" res="4.6196463517844677e-03" rms="3.0038207769393921e-01" purity="5.3557801246643066e-01" nType="0">
            <Node pos="l" depth="3" NCoef="0" IVar="-1" Cut="0.0000000000000000e+00" cType="1" res="8.2314368337392807e-03" rms="3.1020173430442810e-01" purity="4.1956534981727600e-01" nType="-99"/>
            <Node pos="r" depth="3" NCoef="0" IVar="-1" Cut="0.0000000000000000e+00" cType="1" res="-1.1838950449600816e-03" rms="2.8175821900367737e-01" purity="7.4440860748291016e-01" nType="-99"/>
          </Node>
          <Node pos="r" depth="2" NCoef="0" IVar="6" Cut="7.3934226989746094e+01" cType="1" res="-5.0147958099842072e-03" rms="2.9959541559219360e-01" purity="4.1924503445625305e-01" nType="0">
            <Node pos="l" depth="3" NCoef="0" IVar="-1" Cut="0.0000000000000000e+00" cType="1" res="1.2135507538914680e-02" rms="2.7659371495246887e-01" purity="2.1408723294734955e-01" nType="-99"/>
            <Node pos="r" depth="3" NCoef="0" IVar="-1" Cut="0.0000000000000000e+00" cType="1" res="-1.5980053693056107e-02" rms="3.1606024503707886e-01" purity="5.8067482709884644e-01" nType="-99"/>
          </Node>
        </Node>
      </Node>
    </BinaryTree>
    <BinaryTree type="DecisionTree" boostWeight="1.0000000000000000e+00" itree="179">
      <Node pos="s" depth="0" NCoef="0" IVar="9" Cut="1.9999843835830688e+00" cType="1" res="-4.7734458348713815e-04" rms="3.0212134122848511e-01" purity="4.9823746085166931e-01" nType="0">
        <Node pos="l" depth="1" NCoef="0" IVar="9" Cut="-2.8573706746101379e-01" cType="1" res="3.7328954203985631e-04" rms="3.0309280753135681e-01" purity="5.1113545894622803e-01" nType="0">
          <Node pos="l" depth="2" NCoef="0" IVar="9" Cut="-1.4830077886581421e+00" cType="1" res="-4.7666826285421848e-03" rms="3.0181446671485901e-01" purity="4.6740269660949707e-01" nType="0">
            <Node pos="l" depth="3" NCoef="0" IVar="-1" Cut="0.0000000000000000e+00" cType="1" res="8.4064984694123268e-03" rms="3.0731999874114990e-01" purity="2.8733247518539429e-01" nType="-99"/>
            <Node pos="r" depth="3" NCoef="0" IVar="-1" Cut="0.0000000000000000e+00" cType="1" res="-9.6481060609221458e-03" rms="2.9987385869026184e-01" purity="5.2663516998291016e-01" nType="-99"/>
          </Node>
          <Node pos="r" depth="2" NCoef="0" IVar="10" Cut="-1.4666663408279419e+00" cType="1" res="3.9801178500056267e-03" rms="3.0393475294113159e-01" purity="5.4182362556457520e-01" nType="0">
            <Node pos="l" depth="3" NCoef="0" IVar="-1" Cut="0.0000000000000000e+00" cType="1" res="1.9523739814758301e-02" rms="3.2842490077018738e-01" purity="4.7347661852836609e-01" nType="-99"/>
            <Node pos="r" depth="3" NCoef="0" IVar="-1" Cut="0.0000000000000000e+00" cType="1" res="2.2135896142572165e-03" rms="3.0062490701675415e-01" purity="5.5049717426300049e-01" nType="-99"/>
          </Node>
        </Node>
        <Node pos="r" depth="1" NCoef="0" IVar="-1" Cut="0.0000000000000000e+00" cType="1" res="-2.5841062888503075e-02" rms="2.7675381302833557e-01" purity="1.8579626083374023e-01" nType="-99"/>
      </Node>
    </BinaryTree>
    <BinaryTree type="DecisionTree" boostWeight="1.0000000000000000e+00" itree="180">
      <Node pos="s" depth="0" NCoef="0" IVar="10" Cut="-6.6666048765182495e-01" cType="1" res="-3.1374006066471338e-03" rms="2.9967424273490906e-01" purity="4.9585703015327454e-01" nType="0">
        <Node pos="l" depth="1" NCoef="0" IVar="10" Cut="-1.5809440612792969e+00" cType="1" res="-8.1682568415999413e-03" rms="2.9598951339721680e-01" purity="4.5672100782394409e-01" nType="0">
          <Node pos="l" depth="2" NCoef="0" IVar="7" Cut="4.0905880928039551e-01" cType="1" res="2.9039285145699978e-03" rms="3.0179592967033386e-01" purity="3.7704110145568848e-01" nType="0">
            <Node pos="l" depth="3" NCoef="0" IVar="-1" Cut="0.0000000000000000e+00" cType="1" res="1.2581038288772106e-02" rms="3.0978897213935852e-01" purity="4.0964546799659729e-01" nType="-99"/>
            <Node pos="r" depth="3" NCoef="0" IVar="-1" Cut="0.0000000000000000e+00" cType="1" res="-2.2308535873889923e-02" rms="2.7889275550842285e-01" purity="2.9313334822654724e-01" nType="-99"/>
          </Node>
          <Node pos="r" depth="2" NCoef="0" IVar="10" Cut="-1.1891086101531982e+00" cType="1" res="-1.4210114255547523e-02" rms="2.9259586334228516e-01" purity="5.0020068883895874e-01" nType="0">
            <Node pos="l" depth="3" NCoef="0" IVar="-1" Cut="0.0000000000000000e+00" cType="1" res="-3.3596314489841461e-02" rms="2.8560459613800049e-01" purity="4.6532127261161804e-01" nType="-99"/>
            <Node pos="r" depth="3" NCoef="0" IVar="-1" Cut="0.0000000000000000e+00" cType="1" res="-6.2202326953411102e-03" rms="2.9586836695671082e-01" purity="5.1865249872207642e-01" nType="-99"/>
          </Node>
        </Node>
        <Node pos="r" depth="1" NCoef="0" IVar="10" Cut="-1.7141905426979065e-01" cType="1" res="-9.5574033912271261e-04" rms="3.0123203992843628e-01" purity="5.1282858848571777e-01" nType="0">
          <Node pos="l" depth="2" NCoef="0" IVar="8" Cut="1.3227380812168121e-01" cType="1" res="7.6183546334505081e-03" rms="3.0686801671981812e-01" purity="5.3639346361160278e-01" nType="0">
            <Node pos="l" depth="3" NCoef="0" IVar="-1" Cut="0.0000000000000000e+00" cType="1" res="-7.6257893815636635e-03" rms="2.9754710197448730e-01" purity="5.1278662681579590e-01" nType="-99"/>
            <Node pos="r" depth="3" NCoef="0" IVar="-1" Cut="0.0000000000000000e+00" cType="1" res="2.6034977287054062e-02" rms="3.1704777479171753e-01" purity="5.6533950567245483e-01" nType="-99"/>
          </Node>
          <Node pos="r" depth="2" NCoef="0" IVar="7" Cut="4.0449738502502441e-01" cType="1" res="-3.1659044325351715e-03" rms="2.9972228407859802e-01" purity="5.0675421953201294e-01" nType="0">
            <Node pos="l" depth="3" NCoef="0" IVar="-1" Cut="0.0000000000000000e+00" cType="1" res="-7.6706125400960445e-03" rms="2.9855021834373474e-01" purity="5.5908071994781494e-01" nType="-99"/>
            <Node pos="r" depth="3" NCoef="0" IVar="-1" Cut="0.0000000000000000e+00" cType="1" res="4.0033268742263317e-03" rms="3.0173414945602417e-01" purity="4.1124072670936584e-01" nType="-99"/>
          </Node>
        </Node>
      </Node>
    </BinaryTree>
    <BinaryTree type="DecisionTree" boostWeight="1.0000000000000000e+00" itree="181">
      <Node pos="s" depth="0" NCoef="0" IVar="9" Cut="-2.0000019073486328e+00" cType="1" res="1.2415567180141807e-03" rms="2.9815310239791870e-01" purity="5.0607949495315552e-01" nType="0">
        <Node pos="l" depth="1" NCoef="0" IVar="-1" Cut="0.0000000000000000e+00" cType="1" res="2.4338822811841965e-02" rms="3.1086385250091553e-01" purity="2.3005574941635132e-01" nType="-99"/>
        <Node pos="r" depth="1" NCoef="0" IVar="10" Cut="1.9999994039535522e+00" cType="1" res="4.5704259537160397e-04" rms="2.9758363962173462e-01" purity="5.1762950420379639e-01" nType="0">
          <Node pos="l" depth="2" NCoef="0" IVar="4" Cut="1.4556855773925781e+02" cType="1" res="1.1465660063549876e-03" rms="2.9794117808341980e-01" purity="5.2813911437988281e-01" nType="0">
            <Node pos="l" depth="3" NCoef="0" IVar="-1" Cut="0.0000000000000000e+00" cType="1" res="-1.1916006915271282e-02" rms="2.1916601061820984e-01" purity="7.8030005097389221e-02" nType="-99"/>
            <Node pos="r" depth="3" NCoef="0" IVar="-1" Cut="0.0000000000000000e+00" cType="1" res="2.9706901405006647e-03" rms="3.1309267878532410e-01" purity="6.3062423467636108e-01" nType="-99"/>
          </Node>
          <Node pos="r" depth="2" NCoef="0" IVar="9" Cut="2.8543165326118469e-01" cType="1" res="-1.2055343016982079e-02" rms="2.9073548316955566e-01" purity="3.2691887021064758e-01" nType="0">
            <Node pos="l" depth="3" NCoef="0" IVar="-1" Cut="0.0000000000000000e+00" cType="1" res="-3.8699079304933548e-02" rms="2.8610974550247192e-01" purity="3.4857457876205444e-01" nType="-99"/>
            <Node pos="r" depth="3" NCoef="0" IVar="-1" Cut="0.0000000000000000e+00" cType="1" res="1.3158591464161873e-02" rms="2.9324415326118469e-01" purity="3.0566912889480591e-01" nType="-99"/>
          </Node>
        </Node>
      </Node>
    </BinaryTree>
    <BinaryTree type="DecisionTree" boostWeight="1.0000000000000000e+00" itree="182">
      <Node pos="s" depth="0" NCoef="0" IVar="8" Cut="1.4665392637252808e+00" cType="1" res="3.2920411322265863e-03" rms="3.0340349674224854e-01" purity="5.0308036804199219e-01" nType="0">
        <Node pos="l" depth="1" NCoef="0" IVar="10" Cut="2.0000028610229492e+00" cType="1" res="4.5437039807438850e-03" rms="3.0637627840042114e-01" purity="5.3155738115310669e-01" nType="0">
          <Node pos="l" depth="2" NCoef="0" IVar="8" Cut="8.5702502727508545e-01" cType="1" res="3.3697152975946665e-03" rms="3.0413728952407837e-01" purity="5.3917831182479858e-01" nType="0">
            <Node pos="l" depth="3" NCoef="0" IVar="-1" Cut="0.0000000000000000e+00" cType="1" res="1.9695525988936424e-03" rms="3.0032250285148621e-01" purity="5.4799640178680420e-01" nType="-99"/>
            <Node pos="r" depth="3" NCoef="0" IVar="-1" Cut="0.0000000000000000e+00" cType="1" res="1.3551766984164715e-02" rms="3.2736873626708984e-01" purity="4.8260447382926941e-01" nType="-99"/>
          </Node>
          <Node pos="r" depth="2" NCoef="0" IVar="-1" Cut="0.0000000000000000e+00" cType="1" res="2.8352523222565651e-02" rms="3.4569415450096130e-01" purity="3.8565647602081299e-01" nType="-99"/>
        </Node>
        <Node pos="r" depth="1" NCoef="0" IVar="9" Cut="-4.0029579401016235e-01" cType="1" res="-1.0580009780824184e-02" rms="2.6786848902702332e-01" purity="1.8747319281101227e-01" nType="0">
          <Node pos="l" depth="2" NCoef="0" IVar="-1" Cut="0.0000000000000000e+00" cType="1" res="-3.5200998187065125e-02" rms="2.5437462329864502e-01" purity="1.5754500031471252e-01" nType="-99"/>
          <Node pos="r" depth="2" NCoef="0" IVar="8" Cut="1.8474941253662109e+00" cType="1" res="-3.0561108142137527e-03" rms="2.7351015806198120e-01" purity="2.0120865106582642e-01" nType="0">
            <Node pos="l" depth="3" NCoef="0" IVar="-1" Cut="0.0000000000000000e+00" cType="1" res="-2.0233096554875374e-02" rms="2.7583858370780945e-01" purity="2.6378402113914490e-01" nType="-99"/>
            <Node pos="r" depth="3" NCoef="0" IVar="-1" Cut="0.0000000000000000e+00" cType="1" res="1.9023651257157326e-02" rms="2.7049228549003601e-01" purity="1.4374423027038574e-01" nType="-99"/>
          </Node>
        </Node>
      </Node>
    </BinaryTree>
    <BinaryTree type="DecisionTree" boostWeight="1.0000000000000000e+00" itree="183">
      <Node pos="s" depth="0" NCoef="0" IVar="7" Cut="4.0456292033195496e-01" cType="1" res="1.5280077932402492e-03" rms="3.0086404085159302e-01" purity="4.9973917007446289e-01" nType="0">
        <Node pos="l" depth="1" NCoef="0" IVar="5" Cut="1.4368092346191406e+02" cType="1" res="3.9466866292059422e-03" rms="3.0258452892303467e-01" purity="5.4148000478744507e-01" nType="0">
          <Node pos="l" depth="2" NCoef="0" IVar="2" Cut="8.2004852592945099e-02" cType="1" res="9.3440320342779160e-03" rms="3.1358906626701355e-01" purity="2.6126334071159363e-01" nType="0">
            <Node pos="l" depth="3" NCoef="0" IVar="-1" Cut="0.0000000000000000e+00" cType="1" res="1.5068572014570236e-02" rms="3.0594387650489807e-01" purity="2.2986555099487305e-01" nType="-99"/>
            <Node pos="r" depth="3" NCoef="0" IVar="-1" Cut="0.0000000000000000e+00" cType="1" res="-1.1613939888775349e-02" rms="3.5679054260253906e-01" purity="4.5826709270477295e-01" nType="-99"/>
          </Node>
          <Node pos="r" depth="2" NCoef="0" IVar="10" Cut="-1.3333377242088318e-01" cType="1" res="-1.0036358144134283e-03" rms="2.9203951358795166e-01" purity="7.9848831892013550e-01" nType="0">
            <Node pos="l" depth="3" NCoef="0" IVar="-1" Cut="0.0000000000000000e+00" cType="1" res="-8.7677575647830963e-03" rms="2.9736328125000000e-01" purity="7.7876108884811401e-01" nType="-99"/>
            <Node pos="r" depth="3" NCoef="0" IVar="-1" Cut="0.0000000000000000e+00" cType="1" res="5.4896501824259758e-03" rms="2.8734526038169861e-01" purity="8.1514447927474976e-01" nType="-99"/>
          </Node>
        </Node>
        <Node pos="r" depth="1" NCoef="0" IVar="9" Cut="3.9975175261497498e-01" cType="1" res="-3.6927277687937021e-03" rms="2.9704922437667847e-01" purity="4.0964129567146301e-01" nType="0">
          <Node pos="l" depth="2" NCoef="0" IVar="4" Cut="2.6129702758789062e+02" cType="1" res="-1.0850001126527786e-02" rms="2.8974342346191406e-01" purity="4.3542331457138062e-01" nType="0">
            <Node pos="l" depth="3" NCoef="0" IVar="-1" Cut="0.0000000000000000e+00" cType="1" res="-1.9218456000089645e-02" rms="2.8476428985595703e-01" purity="2.2899734973907471e-01" nType="-99"/>
            <Node pos="r" depth="3" NCoef="0" IVar="-1" Cut="0.0000000000000000e+00" cType="1" res="-1.3277904363349080e-03" rms="2.9709911346435547e-01" purity="7.5797384977340698e-01" nType="-99"/>
          </Node>
          <Node pos="r" depth="2" NCoef="0" IVar="8" Cut="1.3323454558849335e-01" cType="1" res="5.9897634200751781e-03" rms="3.0638977885246277e-01" purity="3.7476292252540588e-01" nType="0">
            <Node pos="l" depth="3" NCoef="0" IVar="-1" Cut="0.0000000000000000e+00" cType="1" res="1.9139872863888741e-02" rms="3.2395035028457642e-01" purity="4.2552685737609863e-01" nType="-99"/>
            <Node pos="r" depth="3" NCoef="0" IVar="-1" Cut="0.0000000000000000e+00" cType="1" res="-5.5312053300440311e-03" rms="2.8866219520568848e-01" purity="3.2747599482536316e-01" nType="-99"/>
          </Node>
        </Node>
      </Node>
    </BinaryTree>
    <BinaryTree type="DecisionTree" boostWeight="1.0000000000000000e+00" itree="184">
      <Node pos="s" depth="0" NCoef="0" IVar="10" Cut="1.3337591290473938e-01" cType="1" res="7.2182522853836417e-04" rms="3.0295428633689880e-01" purity="5.0357222557067871e-01" nType="0">
        <Node pos="l" depth="1" NCoef="0" IVar="1" Cut="1.6922147216796875e+03" cType="1" res="4.8635085113346577e-03" rms="3.0572858452796936e-01" purity="5.0914281606674194e-01" nType="0">
          <Node pos="l" depth="2" NCoef="0" IVar="1" Cut="1.1823554687500000e+03" cType="1" res="7.8543992713093758e-03" rms="3.3284506201744080e-01" purity="3.0196261405944824e-01" nType="0">
            <Node pos="l" depth="3" NCoef="0" IVar="-1" Cut="0.0000000000000000e+00" cType="1" res="1.1518683750182390e-03" rms="2.5160536170005798e-01" purity="7.9287409782409668e-02" nType="-99"/>
            <Node pos="r" depth="3" NCoef="0" IVar="-1" Cut="0.0000000000000000e+00" cType="1" res="9.7322063520550728e-03" rms="3.9500448107719421e-01" purity="5.1458853483200073e-01" nType="-99"/>
          </Node>
          <Node pos="r" depth="2" NCoef="0" IVar="0" Cut="6.7189288330078125e+02" cType="1" res="-8.2937331171706319e-04" rms="2.4588896334171295e-01" purity="9.0349084138870239e-01" nType="0">
            <Node pos="l" depth="3" NCoef="0" IVar="-1" Cut="0.0000000000000000e+00" cType="1" res="-1.0283738374710083e-02" rms="2.9120409488677979e-01" purity="8.5021734237670898e-01" nType="-99"/>
            <Node pos="r" depth="3" NCoef="0" IVar="-1" Cut="0.0000000000000000e+00" cType="1" res="9.9603701382875443e-03" rms="2.0766097307205200e-01" purity="9.4128537178039551e-01" nType="-99"/>
          </Node>
        </Node>
        <Node pos="r" depth="1" NCoef="0" IVar="9" Cut="-3.9989802241325378e-01" cType="1" res="-4.1527892462909222e-03" rms="2.9958274960517883e-01" purity="4.9701583385467529e-01" nType="0">
          <Node pos="l" depth="2" NCoef="0" IVar="10" Cut="1.1491452455520630e+00" cType="1" res="5.6247585453093052e-03" rms="3.0749714374542236e-01" purity="4.9885991215705872e-01" nType="0">
            <Node pos="l" depth="3" NCoef="0" IVar="-1" Cut="0.0000000000000000e+00" cType="1" res="-2.0777352619916201e-03" rms="2.9890322685241699e-01" purity="5.4125368595123291e-01" nType="-99"/>
            <Node pos="r" depth="3" NCoef="0" IVar="-1" Cut="0.0000000000000000e+00" cType="1" res="1.7806451767683029e-02" rms="3.1956458091735840e-01" purity="4.3558806180953979e-01" nType="-99"/>
          </Node>
          <Node pos="r" depth="2" NCoef="0" IVar="8" Cut="-3.9911061525344849e-01" cType="1" res="-9.1290883719921112e-03" rms="2.9534906148910522e-01" purity="4.9607726931571960e-01" nType="0">
            <Node pos="l" depth="3" NCoef="0" IVar="-1" Cut="0.0000000000000000e+00" cType="1" res="-2.3137517273426056e-02" rms="2.9829648137092590e-01" purity="4.6783643960952759e-01" nType="-99"/>
            <Node pos="r" depth="3" NCoef="0" IVar="-1" Cut="0.0000000000000000e+00" cType="1" res="-4.8226444050669670e-03" rms="2.9397261142730713e-01" purity="5.0782191753387451e-01" nType="-99"/>
          </Node>
        </Node>
      </Node>
    </BinaryTree>
    <BinaryTree type="DecisionTree" boostWeight="1.0000000000000000e+00" itree="185">
      <Node pos="s" depth="0" NCoef="0" IVar="10" Cut="2.2666566371917725e+00" cType="1" res="1.6834796042530797e-05" rms="2.9925948381423950e-01" purity="5.0174570083618164e-01" nType="0">
        <Node pos="l" depth="1" NCoef="0" IVar="1" Cut="1.1148236083984375e+03" cType="1" res="-7.9409230966120958e-04" rms="2.9839795827865601e-01" purity="5.0746798515319824e-01" nType="0">
          <Node pos="l" depth="2" NCoef="0" IVar="1" Cut="1.0698497314453125e+03" cType="1" res="-8.0286208540201187e-03" rms="2.0654645562171936e-01" purity="4.9393132328987122e-02" nType="0">
            <Node pos="l" depth="3" NCoef="0" IVar="-1" Cut="0.0000000000000000e+00" cType="1" res="-1.1205839924514294e-02" rms="1.9306306540966034e-01" purity="4.2966306209564209e-02" nType="-99"/>
            <Node pos="r" depth="3" NCoef="0" IVar="-1" Cut="0.0000000000000000e+00" cType="1" res="-3.0312055721879005e-02" rms="2.6905095577239990e-01" purity="8.5328675806522369e-02" nType="-99"/>
          </Node>
          <Node pos="r" depth="2" NCoef="0" IVar="0" Cut="6.0599176025390625e+02" cType="1" res="1.7730729887261987e-03" rms="3.2476767897605896e-01" purity="6.7001539468765259e-01" nType="0">
            <Node pos="l" depth="3" NCoef="0" IVar="-1" Cut="0.0000000000000000e+00" cType="1" res="5.1288451068103313e-03" rms="3.6518207192420959e-01" purity="5.3361052274703979e-01" nType="-99"/>
            <Node pos="r" depth="3" NCoef="0" IVar="-1" Cut="0.0000000000000000e+00" cType="1" res="-1.1623744852840900e-02" rms="2.4208723008632660e-01" purity="8.9873433113098145e-01" nType="-99"/>
          </Node>
        </Node>
        <Node pos="r" depth="1" NCoef="0" IVar="-1" Cut="0.0000000000000000e+00" cType="1" res="2.8942424803972244e-02" rms="3.2502722740173340e-01" purity="3.1494146585464478e-01" nType="-99"/>
      </Node>
    </BinaryTree>
    <BinaryTree type="DecisionTree" boostWeight="1.0000000000000000e+00" itree="186">
      <Node pos="s" depth="0" NCoef="0" IVar="4" Cut="1.4697917175292969e+02" cType="1" res="-2.7138541918247938e-03" rms="2.9919075965881348e-01" purity="5.0118452310562134e-01" nType="0">
        <Node pos="l" depth="1" NCoef="0" IVar="6" Cut="7.6946922302246094e+01" cType="1" res="4.7751409001648426e-03" rms="2.3571558296680450e-01" purity="8.2065857946872711e-02" nType="0">
          <Node pos="l" depth="2" NCoef="0" IVar="9" Cut="-6.6673713922500610e-01" cType="1" res="-1.2729640584439039e-03" rms="1.9768750667572021e-01" purity="4.8956256359815598e-02" nType="0">
            <Node pos="l" depth="3" NCoef="0" IVar="-1" Cut="0.0000000000000000e+00" cType="1" res="-3.1840801239013672e-02" rms="1.6253761947154999e-01" purity="3.3408727496862411e-02" nType="-99"/>
            <Node pos="r" depth="3" NCoef="0" IVar="-1" Cut="0.0000000000000000e+00" cType="1" res="8.6702527478337288e-03" rms="2.1239128708839417e-01" purity="5.6450881063938141e-02" nType="-99"/>
          </Node>
          <Node pos="r" depth="2" NCoef="0" IVar="-1" Cut="0.0000000000000000e+00" cType="1" res="2.5377690792083740e-02" rms="3.2542055845260620e-01" purity="1.8411162495613098e-01" nType="-99"/>
        </Node>
        <Node pos="r" depth="1" NCoef="0" IVar="0" Cut="5.7809313964843750e+02" cType="1" res="-4.6236612834036350e-03" rms="3.1329819560050964e-01" purity="6.0806614160537720e-01" nType="0">
          <Node pos="l" depth="2" NCoef="0" IVar="3" Cut="4.1047021484375000e+02" cType="1" res="-7.6785814017057419e-03" rms="3.4734687209129333e-01" purity="4.3028822541236877e-01" nType="0">
            <Node pos="l" depth="3" NCoef="0" IVar="-1" Cut="0.0000000000000000e+00" cType="1" res="-1.0686203604564071e-03" rms="3.4941229224205017e-01" purity="3.5847419500350952e-01" nType="-99"/>
            <Node pos="r" depth="3" NCoef="0" IVar="-1" Cut="0.0000000000000000e+00" cType="1" res="-1.4688723720610142e-02" rms="3.4381371736526489e-01" purity="5.4387015104293823e-01" nType="-99"/>
          </Node>
          <Node pos="r" depth="2" NCoef="0" IVar="9" Cut="6.6658037900924683e-01" cType="1" res="5.2747043082490563e-04" rms="2.4532525241374969e-01" purity="9.0783089399337769e-01" nType="0">
            <Node pos="l" depth="3" NCoef="0" IVar="-1" Cut="0.0000000000000000e+00" cType="1" res="6.2183551490306854e-03" rms="2.4149970710277557e-01" purity="9.1445070505142212e-01" nType="-99"/>
            <Node pos="r" depth="3" NCoef="0" IVar="-1" Cut="0.0000000000000000e+00" cType="1" res="-1.4041661284863949e-02" rms="2.5644260644912720e-01" purity="8.8756555318832397e-01" nType="-99"/>
          </Node>
        </Node>
      </Node>
    </BinaryTree>
    <BinaryTree type="DecisionTree" boostWeight="1.0000000000000000e+00" itree="187">
      <Node pos="s" depth="0" NCoef="0" IVar="8" Cut="-9.3326526880264282e-01" cType="1" res="1.7817221814766526e-03" rms="3.0061584711074829e-01" purity="5.0518411397933960e-01" nType="0">
        <Node pos="l" depth="1" NCoef="0" IVar="4" Cut="3.1969638061523438e+02" cType="1" res="1.0513341985642910e-02" rms="3.0800884962081909e-01" purity="3.5291805863380432e-01" nType="0">
          <Node pos="l" depth="2" NCoef="0" IVar="3" Cut="3.5190435791015625e+02" cType="1" res="1.6313208267092705e-02" rms="3.0749067664146423e-01" purity="2.8860825300216675e-01" nType="0">
            <Node pos="l" depth="3" NCoef="0" IVar="-1" Cut="0.0000000000000000e+00" cType="1" res="-8.0791802611202002e-04" rms="2.8503707051277161e-01" purity="1.8178032338619232e-01" nType="-99"/>
            <Node pos="r" depth="3" NCoef="0" IVar="-1" Cut="0.0000000000000000e+00" cType="1" res="3.4631326794624329e-02" rms="3.3151498436927795e-01" purity="4.1804581880569458e-01" nType="-99"/>
          </Node>
          <Node pos="r" depth="2" NCoef="0" IVar="-1" Cut="0.0000000000000000e+00" cType="1" res="-2.3319477215409279e-02" rms="3.0888527631759644e-01" purity="7.1452355384826660e-01" nType="-99"/>
        </Node>
        <Node pos="r" depth="1" NCoef="0" IVar="9" Cut="1.1999830007553101e+00" cType="1" res="-2.8234583442099392e-04" rms="2.9880422353744507e-01" purity="5.4117834568023682e-01" nType="0">
          <Node pos="l" depth="2" NCoef="0" IVar="4" Cut="2.3893113708496094e+02" cType="1" res="-2.2982810623943806e-03" rms="2.9565751552581787e-01" purity="5.6855380535125732e-01" nType="0">
            <Node pos="l" depth="3" NCoef="0" IVar="-1" Cut="0.0000000000000000e+00" cType="1" res="-6.6768242977559566e-03" rms="3.1080058217048645e-01" purity="2.7940979599952698e-01" nType="-99"/>
            <Node pos="r" depth="3" NCoef="0" IVar="-1" Cut="0.0000000000000000e+00" cType="1" res="1.7568599432706833e-03" rms="2.8195562958717346e-01" purity="8.1678807735443115e-01" nType="-99"/>
          </Node>
          <Node pos="r" depth="2" NCoef="0" IVar="9" Cut="1.8095141649246216e+00" cType="1" res="1.0878527536988258e-02" rms="3.1542521715164185e-01" purity="3.8961845636367798e-01" nType="0">
            <Node pos="l" depth="3" NCoef="0" IVar="-1" Cut="0.0000000000000000e+00" cType="1" res="2.3581078276038170e-02" rms="3.3194714784622192e-01" purity="4.6707504987716675e-01" nType="-99"/>
            <Node pos="r" depth="3" NCoef="0" IVar="-1" Cut="0.0000000000000000e+00" cType="1" res="-1.2222818098962307e-02" rms="2.8451594710350037e-01" purity="2.6051303744316101e-01" nType="-99"/>
          </Node>
        </Node>
      </Node>
    </BinaryTree>
    <BinaryTree type="DecisionTree" boostWeight="1.0000000000000000e+00" itree="188">
      <Node pos="s" depth="0" NCoef="0" IVar="8" Cut="-9.3336862325668335e-01" cType="1" res="-9.8733289632946253e-04" rms="2.9606360197067261e-01" purity="5.0455600023269653e-01" nType="0">
        <Node pos="l" depth="1" NCoef="0" IVar="4" Cut="3.1896450805664062e+02" cType="1" res="7.3420386761426926e-03" rms="3.0283263325691223e-01" purity="3.5642921924591064e-01" nType="0">
          <Node pos="l" depth="2" NCoef="0" IVar="0" Cut="4.5207394409179688e+02" cType="1" res="1.1355147697031498e-02" rms="3.0059546232223511e-01" purity="2.9286718368530273e-01" nType="0">
            <Node pos="l" depth="3" NCoef="0" IVar="-1" Cut="0.0000000000000000e+00" cType="1" res="2.0654359832406044e-03" rms="2.6563420891761780e-01" purity="1.3015499711036682e-01" nType="-99"/>
            <Node pos="r" depth="3" NCoef="0" IVar="-1" Cut="0.0000000000000000e+00" cType="1" res="2.4270102381706238e-02" rms="3.5620340704917908e-01" purity="5.9734725952148438e-01" nType="-99"/>
          </Node>
          <Node pos="r" depth="2" NCoef="0" IVar="-1" Cut="0.0000000000000000e+00" cType="1" res="-1.5706539154052734e-02" rms="3.1423845887184143e-01" purity="7.1643644571304321e-01" nType="-99"/>
        </Node>
        <Node pos="r" depth="1" NCoef="0" IVar="1" Cut="1.6877062988281250e+03" cType="1" res="-2.9104305431246758e-03" rms="2.9444515705108643e-01" purity="5.3875577449798584e-01" nType="0">
          <Node pos="l" depth="2" NCoef="0" IVar="1" Cut="1.5186168212890625e+03" cType="1" res="-6.1209276318550110e-03" rms="3.2497543096542358e-01" purity="3.1005638837814331e-01" nType="0">
            <Node pos="l" depth="3" NCoef="0" IVar="-1" Cut="0.0000000000000000e+00" cType="1" res="-9.0474151074886322e-03" rms="3.1969988346099854e-01" purity="2.2674463689327240e-01" nType="-99"/>
            <Node pos="r" depth="3" NCoef="0" IVar="-1" Cut="0.0000000000000000e+00" cType="1" res="9.0054683387279510e-03" rms="3.5050141811370850e-01" purity="7.4144178628921509e-01" nType="-99"/>
          </Node>
          <Node pos="r" depth="2" NCoef="0" IVar="10" Cut="-6.6643595695495605e-01" cType="1" res="2.3737875744700432e-03" rms="2.3564162850379944e-01" purity="9.1517633199691772e-01" nType="0">
            <Node pos="l" depth="3" NCoef="0" IVar="-1" Cut="0.0000000000000000e+00" cType="1" res="-8.9029856026172638e-03" rms="2.4147385358810425e-01" purity="9.0474581718444824e-01" nType="-99"/>
            <Node pos="r" depth="3" NCoef="0" IVar="-1" Cut="0.0000000000000000e+00" cType="1" res="9.1807311400771141e-03" rms="2.3339614272117615e-01" purity="9.1901272535324097e-01" nType="-99"/>
          </Node>
        </Node>
      </Node>
    </BinaryTree>
    <BinaryTree type="DecisionTree" boostWeight="1.0000000000000000e+00" itree="189">
      <Node pos="s" depth="0" NCoef="0" IVar="9" Cut="-2.0000112056732178e+00" cType="1" res="-1.2255714973434806e-03" rms="3.0003750324249268e-01" purity="4.9768438935279846e-01" nType="0">
        <Node pos="l" depth="1" NCoef="0" IVar="-1" Cut="0.0000000000000000e+00" cType="1" res="-3.2951261848211288e-02" rms="2.6503276824951172e-01" purity="1.9008038938045502e-01" nType="-99"/>
        <Node pos="r" depth="1" NCoef="0" IVar="7" Cut="-3.7110897898674011e-01" cType="1" res="-2.5644223205745220e-04" rms="3.0132806301116943e-01" purity="5.1012915372848511e-01" nType="0">
          <Node pos="l" depth="2" NCoef="0" IVar="3" Cut="4.5039923095703125e+02" cType="1" res="-5.7411086745560169e-03" rms="3.0013811588287354e-01" purity="4.2933189868927002e-01" nType="0">
            <Node pos="l" depth="3" NCoef="0" IVar="-1" Cut="0.0000000000000000e+00" cType="1" res="-1.5708182763773948e-04" rms="3.0111470818519592e-01" purity="3.3082619309425354e-01" nType="-99"/>
            <Node pos="r" depth="3" NCoef="0" IVar="-1" Cut="0.0000000000000000e+00" cType="1" res="-1.9039895385503769e-02" rms="2.9783463478088379e-01" purity="6.2830656766891479e-01" nType="-99"/>
          </Node>
          <Node pos="r" depth="2" NCoef="0" IVar="8" Cut="-1.3332162797451019e-01" cType="1" res="2.4605011567473412e-03" rms="3.0187886953353882e-01" purity="5.5015373229980469e-01" nType="0">
            <Node pos="l" depth="3" NCoef="0" IVar="-1" Cut="0.0000000000000000e+00" cType="1" res="8.5709616541862488e-03" rms="3.0762127041816711e-01" purity="5.4439747333526611e-01" nType="-99"/>
            <Node pos="r" depth="3" NCoef="0" IVar="-1" Cut="0.0000000000000000e+00" cType="1" res="-2.0796889439225197e-03" rms="2.9733625054359436e-01" purity="5.5455976724624634e-01" nType="-99"/>
          </Node>
        </Node>
      </Node>
    </BinaryTree>
    <BinaryTree type="DecisionTree" boostWeight="1.0000000000000000e+00" itree="190">
      <Node pos="s" depth="0" NCoef="0" IVar="5" Cut="1.5985702514648438e+02" cType="1" res="-1.0474415030330420e-03" rms="2.9864743351936340e-01" purity="5.0069260597229004e-01" nType="0">
        <Node pos="l" depth="1" NCoef="0" IVar="8" Cut="-4.0006798505783081e-01" cType="1" res="-3.9959624409675598e-03" rms="3.0483511090278625e-01" purity="2.6034563779830933e-01" nType="0">
          <Node pos="l" depth="2" NCoef="0" IVar="3" Cut="4.5040298461914062e+02" cType="1" res="4.6888198703527451e-03" rms="3.0236518383026123e-01" purity="2.4741441011428833e-01" nType="0">
            <Node pos="l" depth="3" NCoef="0" IVar="-1" Cut="0.0000000000000000e+00" cType="1" res="-1.9590053707361221e-03" rms="2.8394272923469543e-01" purity="1.7200502753257751e-01" nType="-99"/>
            <Node pos="r" depth="3" NCoef="0" IVar="-1" Cut="0.0000000000000000e+00" cType="1" res="1.8516238778829575e-02" rms="3.4834232926368713e-01" purity="4.5923218131065369e-01" nType="-99"/>
          </Node>
          <Node pos="r" depth="2" NCoef="0" IVar="8" Cut="1.7331976890563965e+00" cType="1" res="-9.4159860163927078e-03" rms="3.0624166131019592e-01" purity="2.6841577887535095e-01" nType="0">
            <Node pos="l" depth="3" NCoef="0" IVar="-1" Cut="0.0000000000000000e+00" cType="1" res="-1.2806012295186520e-02" rms="3.1342017650604248e-01" purity="2.9189869761466980e-01" nType="-99"/>
            <Node pos="r" depth="3" NCoef="0" IVar="-1" Cut="0.0000000000000000e+00" cType="1" res="2.8248297050595284e-02" rms="2.4864302575588226e-01" purity="1.0344395786523819e-01" nType="-99"/>
          </Node>
        </Node>
        <Node pos="r" depth="1" NCoef="0" IVar="2" Cut="2.0090391859412193e-02" cType="1" res="2.8059163596481085e-03" rms="2.9031705856323242e-01" purity="8.1479686498641968e-01" nType="0">
          <Node pos="l" depth="2" NCoef="0" IVar="2" Cut="8.6105130612850189e-03" cType="1" res="1.2173242866992950e-02" rms="3.5003662109375000e-01" purity="5.8038300275802612e-01" nType="0">
            <Node pos="l" depth="3" NCoef="0" IVar="-1" Cut="0.0000000000000000e+00" cType="1" res="2.3992806673049927e-02" rms="3.4273231029510498e-01" purity="5.2369374036788940e-01" nType="-99"/>
            <Node pos="r" depth="3" NCoef="0" IVar="-1" Cut="0.0000000000000000e+00" cType="1" res="-6.1642657965421677e-04" rms="3.5487812757492065e-01" purity="6.2298190593719482e-01" nType="-99"/>
          </Node>
          <Node pos="r" depth="2" NCoef="0" IVar="7" Cut="4.2545178532600403e-01" cType="1" res="7.6312990859150887e-04" rms="2.7553787827491760e-01" purity="8.6591678857803345e-01" nType="0">
            <Node pos="l" depth="3" NCoef="0" IVar="-1" Cut="0.0000000000000000e+00" cType="1" res="-3.2446277327835560e-03" rms="2.6761326193809509e-01" purity="8.7522810697555542e-01" nType="-99"/>
            <Node pos="r" depth="3" NCoef="0" IVar="-1" Cut="0.0000000000000000e+00" cType="1" res="1.0237539187073708e-02" rms="2.9533466696739197e-01" purity="8.4126883745193481e-01" nType="-99"/>
          </Node>
        </Node>
      </Node>
    </BinaryTree>
    <BinaryTree type="DecisionTree" boostWeight="1.0000000000000000e+00" itree="191">
      <Node pos="s" depth="0" NCoef="0" IVar="10" Cut="-4.0000000596046448e-01" cType="1" res="1.5435731038451195e-03" rms="3.0166813731193542e-01" purity="5.0287014245986938e-01" nType="0">
        <Node pos="l" depth="1" NCoef="0" IVar="9" Cut="-1.2000223398208618e+00" cType="1" res="7.3465383611619473e-03" rms="3.0655756592750549e-01" purity="4.8914343118667603e-01" nType="0">
          <Node pos="l" depth="2" NCoef="0" IVar="2" Cut="1.7536224797368050e-02" cType="1" res="2.5711620226502419e-02" rms="3.1774902343750000e-01" purity="3.1142479181289673e-01" nType="0">
            <Node pos="l" depth="3" NCoef="0" IVar="-1" Cut="0.0000000000000000e+00" cType="1" res="1.7864832654595375e-02" rms="2.6394158601760864e-01" purity="1.1261365562677383e-01" nType="-99"/>
            <Node pos="r" depth="3" NCoef="0" IVar="-1" Cut="0.0000000000000000e+00" cType="1" res="3.2128509134054184e-02" rms="3.4923124313354492e-01" purity="4.4647097587585449e-01" nType="-99"/>
          </Node>
          <Node pos="r" depth="2" NCoef="0" IVar="9" Cut="1.3330395519733429e-01" cType="1" res="3.4257352817803621e-03" rms="3.0397126078605652e-01" purity="5.2708500623703003e-01" nType="0">
            <Node pos="l" depth="3" NCoef="0" IVar="-1" Cut="0.0000000000000000e+00" cType="1" res="-7.8554898500442505e-03" rms="2.9994639754295349e-01" purity="5.2290242910385132e-01" nType="-99"/>
            <Node pos="r" depth="3" NCoef="0" IVar="-1" Cut="0.0000000000000000e+00" cType="1" res="1.4113775454461575e-02" rms="3.0732613801956177e-01" purity="5.3094929456710815e-01" nType="-99"/>
          </Node>
        </Node>
        <Node pos="r" depth="1" NCoef="0" IVar="10" Cut="1.1238036155700684e+00" cType="1" res="-2.0087873563170433e-03" rms="2.9857984185218811e-01" purity="5.1127314567565918e-01" nType="0">
          <Node pos="l" depth="2" NCoef="0" IVar="6" Cut="1.3320114135742188e+02" cType="1" res="-5.4351300932466984e-03" rms="2.9593193531036377e-01" purity="5.4530346393585205e-01" nType="0">
            <Node pos="l" depth="3" NCoef="0" IVar="-1" Cut="0.0000000000000000e+00" cType="1" res="-1.0504630394279957e-02" rms="3.2147747278213501e-01" purity="3.7840044498443604e-01" nType="-99"/>
            <Node pos="r" depth="3" NCoef="0" IVar="-1" Cut="0.0000000000000000e+00" cType="1" res="1.0401947423815727e-02" rms="2.2977395355701447e-01" purity="9.1129446029663086e-01" nType="-99"/>
          </Node>
          <Node pos="r" depth="2" NCoef="0" IVar="6" Cut="1.2428393554687500e+02" cType="1" res="5.4102949798107147e-03" rms="3.0410215258598328e-01" purity="4.3758708238601685e-01" nType="0">
            <Node pos="l" depth="3" NCoef="0" IVar="-1" Cut="0.0000000000000000e+00" cType="1" res="1.1804008856415749e-02" rms="3.0852609872817993e-01" purity="3.4081158041954041e-01" nType="-99"/>
            <Node pos="r" depth="3" NCoef="0" IVar="-1" Cut="0.0000000000000000e+00" cType="1" res="-2.1878140047192574e-02" rms="2.8502753376960754e-01" purity="8.1578600406646729e-01" nType="-99"/>
          </Node>
        </Node>
      </Node>
    </BinaryTree>
    <BinaryTree type="DecisionTree" boostWeight="1.0000000000000000e+00" itree="192">
      <Node pos="s" depth="0" NCoef="0" IVar="10" Cut="-2.2666587829589844e+00" cType="1" res="2.5423010811209679e-03" rms="3.0014860630035400e-01" purity="5.0383943319320679e-01" nType="0">
        <Node pos="l" depth="1" NCoef="0" IVar="-1" Cut="0.0000000000000000e+00" cType="1" res="-2.5023616850376129e-02" rms="2.7786636352539062e-01" purity="2.6643165946006775e-01" nType="-99"/>
        <Node pos="r" depth="1" NCoef="0" IVar="4" Cut="2.4148234558105469e+02" cType="1" res="3.2474896870553493e-03" rms="3.0077269673347473e-01" purity="5.1106292009353638e-01" nType="0">
          <Node pos="l" depth="2" NCoef="0" IVar="5" Cut="1.5932316589355469e+02" cType="1" res="6.7276111803948879e-03" rms="3.1028616428375244e-01" purity="2.6059350371360779e-01" nType="0">
            <Node pos="l" depth="3" NCoef="0" IVar="-1" Cut="0.0000000000000000e+00" cType="1" res="4.7367471270263195e-03" rms="2.9727545380592346e-01" purity="1.7945846915245056e-01" nType="-99"/>
            <Node pos="r" depth="3" NCoef="0" IVar="-1" Cut="0.0000000000000000e+00" cType="1" res="1.4510791748762131e-02" rms="3.6408019065856934e-01" purity="6.3486140966415405e-01" nType="-99"/>
          </Node>
          <Node pos="r" depth="2" NCoef="0" IVar="9" Cut="1.1999393701553345e+00" cType="1" res="-5.3700892021879554e-04" rms="2.9002586007118225e-01" purity="7.8343874216079712e-01" nType="0">
            <Node pos="l" depth="3" NCoef="0" IVar="-1" Cut="0.0000000000000000e+00" cType="1" res="2.0966948941349983e-03" rms="2.8429409861564636e-01" purity="8.0193400382995605e-01" nType="-99"/>
            <Node pos="r" depth="3" NCoef="0" IVar="-1" Cut="0.0000000000000000e+00" cType="1" res="-1.7129532992839813e-02" rms="3.3254331350326538e-01" purity="6.3254469633102417e-01" nType="-99"/>
          </Node>
        </Node>
      </Node>
    </BinaryTree>
    <BinaryTree type="DecisionTree" boostWeight="1.0000000000000000e+00" itree="193">
      <Node pos="s" depth="0" NCoef="0" IVar="10" Cut="-9.3332868814468384e-01" cType="1" res="5.5432505905628204e-04" rms="2.9936784505844116e-01" purity="5.0171929597854614e-01" nType="0">
        <Node pos="l" depth="1" NCoef="0" IVar="10" Cut="-1.6444439888000488e+00" cType="1" res="-6.4672031439840794e-03" rms="2.9410097002983093e-01" purity="4.4543367624282837e-01" nType="0">
          <Node pos="l" depth="2" NCoef="0" IVar="2" Cut="3.7199486047029495e-02" cType="1" res="4.5007560402154922e-03" rms="2.9834240674972534e-01" purity="3.8480469584465027e-01" nType="0">
            <Node pos="l" depth="3" NCoef="0" IVar="-1" Cut="0.0000000000000000e+00" cType="1" res="-1.3170958496630192e-02" rms="2.7141806483268738e-01" purity="1.7077203094959259e-01" nType="-99"/>
            <Node pos="r" depth="3" NCoef="0" IVar="-1" Cut="0.0000000000000000e+00" cType="1" res="1.8814524635672569e-02" rms="3.2501947879791260e-01" purity="6.2393492460250854e-01" nType="-99"/>
          </Node>
          <Node pos="r" depth="2" NCoef="0" IVar="5" Cut="1.3517434692382812e+02" cType="1" res="-1.4021431095898151e-02" rms="2.9090332984924316e-01" purity="4.8719212412834167e-01" nType="0">
            <Node pos="l" depth="3" NCoef="0" IVar="-1" Cut="0.0000000000000000e+00" cType="1" res="-3.2357081770896912e-02" rms="2.7153277397155762e-01" purity="1.8203219771385193e-01" nType="-99"/>
            <Node pos="r" depth="3" NCoef="0" IVar="-1" Cut="0.0000000000000000e+00" cType="1" res="-3.4491189289838076e-03" rms="3.0577960610389709e-01" purity="7.4289041757583618e-01" nType="-99"/>
          </Node>
        </Node>
        <Node pos="r" depth="1" NCoef="0" IVar="7" Cut="6.7038083076477051e-01" cType="1" res="2.7284559328109026e-03" rms="3.0094677209854126e-01" purity="5.1914739608764648e-01" nType="0">
          <Node pos="l" depth="2" NCoef="0" IVar="6" Cut="1.2018179321289062e+02" cType="1" res="4.6632857993245125e-03" rms="3.0483511090278625e-01" purity="5.7108575105667114e-01" nType="0">
            <Node pos="l" depth="3" NCoef="0" IVar="-1" Cut="0.0000000000000000e+00" cType="1" res="7.3853433132171631e-03" rms="3.3114880323410034e-01" purity="4.0032690763473511e-01" nType="-99"/>
            <Node pos="r" depth="3" NCoef="0" IVar="-1" Cut="0.0000000000000000e+00" cType="1" res="-2.0094264764338732e-03" rms="2.4880716204643250e-01" purity="8.8704532384872437e-01" nType="-99"/>
          </Node>
          <Node pos="r" depth="2" NCoef="0" IVar="9" Cut="-1.3379187881946564e-01" cType="1" res="-3.5097403451800346e-03" rms="2.8796440362930298e-01" purity="3.5168999433517456e-01" nType="0">
            <Node pos="l" depth="3" NCoef="0" IVar="-1" Cut="0.0000000000000000e+00" cType="1" res="8.0999433994293213e-03" rms="2.9944136738777161e-01" purity="3.6591058969497681e-01" nType="-99"/>
            <Node pos="r" depth="3" NCoef="0" IVar="-1" Cut="0.0000000000000000e+00" cType="1" res="-1.2740704230964184e-02" rms="2.8027504682540894e-01" purity="3.4272778034210205e-01" nType="-99"/>
          </Node>
        </Node>
      </Node>
    </BinaryTree>
    <BinaryTree type="DecisionTree" boostWeight="1.0000000000000000e+00" itree="194">
      <Node pos="s" depth="0" NCoef="0" IVar="10" Cut="-1.7333281040191650e+00" cType="1" res="1.1516095837578177e-03" rms="3.0136892199516296e-01" purity="5.0132644176483154e-01" nType="0">
        <Node pos="l" depth="1" NCoef="0" IVar="7" Cut="1.6017112135887146e-01" cType="1" res="2.0131465047597885e-02" rms="3.1847614049911499e-01" purity="3.8388812541961670e-01" nType="0">
          <Node pos="l" depth="2" NCoef="0" IVar="-1" Cut="0.0000000000000000e+00" cType="1" res="1.3205206952989101e-02" rms="3.0898672342300415e-01" purity="3.8729321956634521e-01" nType="-99"/>
          <Node pos="r" depth="2" NCoef="0" IVar="-1" Cut="0.0000000000000000e+00" cType="1" res="3.3130716532468796e-02" rms="3.3190467953681946e-01" purity="3.7876284122467041e-01" nType="-99"/>
        </Node>
        <Node pos="r" depth="1" NCoef="0" IVar="0" Cut="4.3904391479492188e+02" cType="1" res="-6.1582092894241214e-04" rms="2.9966500401496887e-01" purity="5.1226246356964111e-01" nType="0">
          <Node pos="l" depth="2" NCoef="0" IVar="0" Cut="3.9269543457031250e+02" cType="1" res="4.6638115309178829e-03" rms="3.0765846371650696e-01" purity="2.4024552106857300e-01" nType="0">
            <Node pos="l" depth="3" NCoef="0" IVar="-1" Cut="0.0000000000000000e+00" cType="1" res="-1.4868977013975382e-03" rms="2.9216530919075012e-01" purity="1.9454444944858551e-01" nType="-99"/>
            <Node pos="r" depth="3" NCoef="0" IVar="-1" Cut="0.0000000000000000e+00" cType="1" res="1.8889173865318298e-02" rms="3.4863355755805969e-01" purity="3.7451741099357605e-01" nType="-99"/>
          </Node>
          <Node pos="r" depth="2" NCoef="0" IVar="1" Cut="1.4795933837890625e+03" cType="1" res="-5.3700557909905910e-03" rms="2.9219841957092285e-01" purity="7.5720995664596558e-01" nType="0">
            <Node pos="l" depth="3" NCoef="0" IVar="-1" Cut="0.0000000000000000e+00" cType="1" res="-1.0721075348556042e-02" rms="3.7863096594810486e-01" purity="3.4725913405418396e-01" nType="-99"/>
            <Node pos="r" depth="3" NCoef="0" IVar="-1" Cut="0.0000000000000000e+00" cType="1" res="-3.2680812291800976e-03" rms="2.5843557715415955e-01" purity="8.8836067914962769e-01" nType="-99"/>
          </Node>
        </Node>
      </Node>
    </BinaryTree>
    <BinaryTree type="DecisionTree" boostWeight="1.0000000000000000e+00" itree="195">
      <Node pos="s" depth="0" NCoef="0" IVar="3" Cut="7.8387420654296875e+02" cType="1" res="2.3200486321002245e-03" rms="3.0247133970260620e-01" purity="5.0158905982971191e-01" nType="0">
        <Node pos="l" depth="1" NCoef="0" IVar="8" Cut="-1.7332614660263062e+00" cType="1" res="3.5463375970721245e-03" rms="3.0309775471687317e-01" purity="4.8673686385154724e-01" nType="0">
          <Node pos="l" depth="2" NCoef="0" IVar="8" Cut="-2.0888082981109619e+00" cType="1" res="-1.4763946644961834e-02" rms="2.4948444962501526e-01" purity="1.3414171338081360e-01" nType="0">
            <Node pos="l" depth="3" NCoef="0" IVar="-1" Cut="0.0000000000000000e+00" cType="1" res="-3.7446733564138412e-02" rms="2.1775290369987488e-01" purity="7.1218997240066528e-02" nType="-99"/>
            <Node pos="r" depth="3" NCoef="0" IVar="-1" Cut="0.0000000000000000e+00" cType="1" res="-1.0731493122875690e-02" rms="2.7565386891365051e-01" purity="1.9278708100318909e-01" nType="-99"/>
          </Node>
          <Node pos="r" depth="2" NCoef="0" IVar="0" Cut="4.6158255004882812e+02" cType="1" res="4.6276040375232697e-03" rms="3.0593585968017578e-01" purity="5.0755846500396729e-01" nType="0">
            <Node pos="l" depth="3" NCoef="0" IVar="-1" Cut="0.0000000000000000e+00" cType="1" res="8.2267075777053833e-03" rms="3.1836849451065063e-01" purity="2.6784279942512512e-01" nType="-99"/>
            <Node pos="r" depth="3" NCoef="0" IVar="-1" Cut="0.0000000000000000e+00" cType="1" res="6.1068497598171234e-04" rms="2.9064020514488220e-01" purity="7.8840512037277222e-01" nType="-99"/>
          </Node>
        </Node>
        <Node pos="r" depth="1" NCoef="0" IVar="-1" Cut="0.0000000000000000e+00" cType="1" res="-2.6767848059535027e-02" rms="2.8784227371215820e-01" purity="8.1264460086822510e-01" nType="-99"/>
      </Node>
    </BinaryTree>
    <BinaryTree type="DecisionTree" boostWeight="1.0000000000000000e+00" itree="196">
      <Node pos="s" depth="0" NCoef="0" IVar="8" Cut="-6.6670817136764526e-01" cType="1" res="-2.1970353554934263e-03" rms="3.0098998546600342e-01" purity="4.9523058533668518e-01" nType="0">
        <Node pos="l" depth="1" NCoef="0" IVar="7" Cut="9.4957345724105835e-01" cType="1" res="-1.0884369723498821e-02" rms="2.9921424388885498e-01" purity="3.8481065630912781e-01" nType="0">
          <Node pos="l" depth="2" NCoef="0" IVar="5" Cut="8.9364402770996094e+01" cType="1" res="-1.4051739126443863e-02" rms="3.0345949530601501e-01" purity="4.1962689161300659e-01" nType="0">
            <Node pos="l" depth="3" NCoef="0" IVar="-1" Cut="0.0000000000000000e+00" cType="1" res="-3.5045885015279055e-03" rms="2.3122303187847137e-01" purity="8.6956247687339783e-02" nType="-99"/>
            <Node pos="r" depth="3" NCoef="0" IVar="-1" Cut="0.0000000000000000e+00" cType="1" res="-1.7025316134095192e-02" rms="3.2279187440872192e-01" purity="5.2443265914916992e-01" nType="-99"/>
          </Node>
          <Node pos="r" depth="2" NCoef="0" IVar="-1" Cut="0.0000000000000000e+00" cType="1" res="8.4095075726509094e-03" rms="2.7479210495948792e-01" purity="1.9867761433124542e-01" nType="-99"/>
        </Node>
        <Node pos="r" depth="1" NCoef="0" IVar="8" Cut="1.1491227149963379e+00" cType="1" res="8.1129925092682242e-04" rms="3.0154412984848022e-01" purity="5.3346788883209229e-01" nType="0">
          <Node pos="l" depth="2" NCoef="0" IVar="10" Cut="-9.3316704034805298e-01" cType="1" res="-1.4362630899995565e-03" rms="3.0204245448112488e-01" purity="5.8887499570846558e-01" nType="0">
            <Node pos="l" depth="3" NCoef="0" IVar="-1" Cut="0.0000000000000000e+00" cType="1" res="7.2374385781586170e-03" rms="3.1653615832328796e-01" purity="5.5770450830459595e-01" nType="-99"/>
            <Node pos="r" depth="3" NCoef="0" IVar="-1" Cut="0.0000000000000000e+00" cType="1" res="-4.3102502822875977e-03" rms="2.9772824048995972e-01" purity="5.9778016805648804e-01" nType="-99"/>
          </Node>
          <Node pos="r" depth="2" NCoef="0" IVar="8" Cut="2.0138111114501953e+00" cType="1" res="1.0252488777041435e-02" rms="2.9925742745399475e-01" purity="3.0072292685508728e-01" nType="0">
            <Node pos="l" depth="3" NCoef="0" IVar="-1" Cut="0.0000000000000000e+00" cType="1" res="1.6977984458208084e-02" rms="3.1986537575721741e-01" purity="3.5914784669876099e-01" nType="-99"/>
            <Node pos="r" depth="3" NCoef="0" IVar="-1" Cut="0.0000000000000000e+00" cType="1" res="-2.3475885391235352e-02" rms="2.0457103848457336e-01" purity="8.5458338260650635e-02" nType="-99"/>
          </Node>
        </Node>
      </Node>
    </BinaryTree>
    <BinaryTree type="DecisionTree" boostWeight="1.0000000000000000e+00" itree="197">
      <Node pos="s" depth="0" NCoef="0" IVar="9" Cut="-6.6666960716247559e-01" cType="1" res="-2.8307759203016758e-03" rms="2.9843485355377197e-01" purity="4.9350643157958984e-01" nType="0">
        <Node pos="l" depth="1" NCoef="0" IVar="6" Cut="7.2119194030761719e+01" cType="1" res="-9.7529357299208641e-03" rms="2.9917728900909424e-01" purity="4.1722410917282104e-01" nType="0">
          <Node pos="l" depth="2" NCoef="0" IVar="9" Cut="-1.2762022018432617e+00" cType="1" res="3.4797374974004924e-04" rms="2.7554360032081604e-01" purity="1.6430841386318207e-01" nType="0">
            <Node pos="l" depth="3" NCoef="0" IVar="-1" Cut="0.0000000000000000e+00" cType="1" res="1.4561471529304981e-02" rms="2.6576462388038635e-01" purity="1.3603398203849792e-01" nType="-99"/>
            <Node pos="r" depth="3" NCoef="0" IVar="-1" Cut="0.0000000000000000e+00" cType="1" res="-1.3107342645525932e-02" rms="2.8644657135009766e-01" purity="1.9820764660835266e-01" nType="-99"/>
          </Node>
          <Node pos="r" depth="2" NCoef="0" IVar="0" Cut="4.2371759033203125e+02" cType="1" res="-1.6035975888371468e-02" rms="3.1281456351280212e-01" purity="5.7454460859298706e-01" nType="0">
            <Node pos="l" depth="3" NCoef="0" IVar="-1" Cut="0.0000000000000000e+00" cType="1" res="-2.8576666489243507e-02" rms="3.1836318969726562e-01" purity="2.4153627455234528e-01" nType="-99"/>
            <Node pos="r" depth="3" NCoef="0" IVar="-1" Cut="0.0000000000000000e+00" cType="1" res="-5.3904643282294273e-03" rms="3.0881813168525696e-01" purity="7.8051823377609253e-01" nType="-99"/>
          </Node>
        </Node>
        <Node pos="r" depth="1" NCoef="0" IVar="4" Cut="2.3910603332519531e+02" cType="1" res="-1.7602404113858938e-04" rms="2.9810699820518494e-01" purity="5.2276182174682617e-01" nType="0">
          <Node pos="l" depth="2" NCoef="0" IVar="8" Cut="1.4666143655776978e+00" cType="1" res="-4.9702171236276627e-03" rms="3.0485132336616516e-01" purity="2.4934233725070953e-01" nType="0">
            <Node pos="l" depth="3" NCoef="0" IVar="-1" Cut="0.0000000000000000e+00" cType="1" res="-8.3281602710485458e-03" rms="3.0963063240051270e-01" purity="2.6571664214134216e-01" nType="-99"/>
            <Node pos="r" depth="3" NCoef="0" IVar="-1" Cut="0.0000000000000000e+00" cType="1" res="2.3518946021795273e-02" rms="2.7128252387046814e-01" purity="1.4431168138980865e-01" nType="-99"/>
          </Node>
          <Node pos="r" depth="2" NCoef="0" IVar="10" Cut="1.7333195209503174e+00" cType="1" res="4.5896442607045174e-03" rms="2.9116982221603394e-01" purity="7.9455453157424927e-01" nType="0">
            <Node pos="l" depth="3" NCoef="0" IVar="-1" Cut="0.0000000000000000e+00" cType="1" res="3.0186609365046024e-03" rms="2.8623971343040466e-01" purity="8.0192470550537109e-01" nType="-99"/>
            <Node pos="r" depth="3" NCoef="0" IVar="-1" Cut="0.0000000000000000e+00" cType="1" res="2.7379473671317101e-02" rms="3.4645658731460571e-01" purity="7.0133972167968750e-01" nType="-99"/>
          </Node>
        </Node>
      </Node>
    </BinaryTree>
    <BinaryTree type="DecisionTree" boostWeight="1.0000000000000000e+00" itree="198">
      <Node pos="s" depth="0" NCoef="0" IVar="10" Cut="-1.1999946832656860e+00" cType="1" res="-9.6943002426996827e-04" rms="2.9946622252464294e-01" purity="4.9909403920173645e-01" nType="0">
        <Node pos="l" depth="1" NCoef="0" IVar="10" Cut="-2.1904690265655518e+00" cType="1" res="-9.7502432763576508e-03" rms="3.0266040563583374e-01" purity="4.1278928518295288e-01" nType="0">
          <Node pos="l" depth="2" NCoef="0" IVar="-1" Cut="0.0000000000000000e+00" cType="1" res="1.7428368330001831e-02" rms="3.2151201367378235e-01" purity="3.1177148222923279e-01" nType="-99"/>
          <Node pos="r" depth="2" NCoef="0" IVar="3" Cut="3.2446969604492188e+02" cType="1" res="-1.6667164862155914e-02" rms="2.9703342914581299e-01" purity="4.3981319665908813e-01" nType="0">
            <Node pos="l" depth="3" NCoef="0" IVar="-1" Cut="0.0000000000000000e+00" cType="1" res="-4.2730771005153656e-02" rms="2.7975779771804810e-01" purity="1.7576001584529877e-01" nType="-99"/>
            <Node pos="r" depth="3" NCoef="0" IVar="-1" Cut="0.0000000000000000e+00" cType="1" res="-7.3221144266426563e-03" rms="3.0435222387313843e-01" purity="5.6454110145568848e-01" nType="-99"/>
          </Node>
        </Node>
        <Node pos="r" depth="1" NCoef="0" IVar="8" Cut="1.4665392637252808e+00" cType="1" res="8.2076853141188622e-04" rms="2.9877915978431702e-01" purity="5.1668947935104370e-01" nType="0">
          <Node pos="l" depth="2" NCoef="0" IVar="8" Cut="2.4752226471900940e-01" cType="1" res="-2.9190230998210609e-04" rms="2.9883921146392822e-01" purity="5.4529422521591187e-01" nType="0">
            <Node pos="l" depth="3" NCoef="0" IVar="-1" Cut="0.0000000000000000e+00" cType="1" res="3.4358026459813118e-03" rms="2.9588386416435242e-01" purity="5.4903560876846313e-01" nType="-99"/>
            <Node pos="r" depth="3" NCoef="0" IVar="-1" Cut="0.0000000000000000e+00" cType="1" res="-6.9381911307573318e-03" rms="3.0408331751823425e-01" purity="5.3843939304351807e-01" nType="-99"/>
          </Node>
          <Node pos="r" depth="2" NCoef="0" IVar="9" Cut="4.0000018477439880e-01" cType="1" res="1.2554882094264030e-02" rms="2.9789206385612488e-01" purity="2.1502703428268433e-01" nType="0">
            <Node pos="l" depth="3" NCoef="0" IVar="-1" Cut="0.0000000000000000e+00" cType="1" res="-1.9062760984525084e-03" rms="2.8703612089157104e-01" purity="2.1466144919395447e-01" nType="-99"/>
            <Node pos="r" depth="3" NCoef="0" IVar="-1" Cut="0.0000000000000000e+00" cType="1" res="3.7656653672456741e-02" rms="3.0931511521339417e-01" purity="2.1545574069023132e-01" nType="-99"/>
          </Node>
        </Node>
      </Node>
    </BinaryTree>
    <BinaryTree type="DecisionTree" boostWeight="1.0000000000000000e+00" itree="199">
      <Node pos="s" depth="0" NCoef="0" IVar="9" Cut="-2.0000057220458984e+00" cType="1" res="1.4815340982750058e-03" rms="3.0210965871810913e-01" purity="4.9818441271781921e-01" nType="0">
        <Node pos="l" depth="1" NCoef="0" IVar="-1" Cut="0.0000000000000000e+00" cType="1" res="-2.3165624588727951e-02" rms="2.7294528484344482e-01" purity="1.9163917005062103e-01" nType="-99"/>
        <Node pos="r" depth="1" NCoef="0" IVar="7" Cut="9.4151616096496582e-01" cType="1" res="2.2658002562820911e-03" rms="3.0318376421928406e-01" purity="5.1036238670349121e-01" nType="0">
          <Node pos="l" depth="2" NCoef="0" IVar="4" Cut="2.4185580444335938e+02" cType="1" res="3.8308287039399147e-03" rms="3.0725571513175964e-01" purity="5.5551809072494507e-01" nType="0">
            <Node pos="l" depth="3" NCoef="0" IVar="-1" Cut="0.0000000000000000e+00" cType="1" res="7.8782727941870689e-03" rms="3.2463473081588745e-01" purity="2.9790955781936646e-01" nType="-99"/>
            <Node pos="r" depth="3" NCoef="0" IVar="-1" Cut="0.0000000000000000e+00" cType="1" res="-3.5205759922973812e-04" rms="2.8910294175148010e-01" purity="8.0865901708602905e-01" nType="-99"/>
          </Node>
          <Node pos="r" depth="2" NCoef="0" IVar="1" Cut="1.6770034179687500e+03" cType="1" res="-6.6128629259765148e-03" rms="2.7879384160041809e-01" purity="2.5418648123741150e-01" nType="0">
            <Node pos="l" depth="3" NCoef="0" IVar="-1" Cut="0.0000000000000000e+00" cType="1" res="-3.0933578964322805e-03" rms="2.7351769804954529e-01" purity="1.4493119716644287e-01" nType="-99"/>
            <Node pos="r" depth="3" NCoef="0" IVar="-1" Cut="0.0000000000000000e+00" cType="1" res="-2.7393469586968422e-02" rms="3.0168497562408447e-01" purity="7.7091979980468750e-01" nType="-99"/>
          </Node>
        </Node>
      </Node>
    </BinaryTree>
    <BinaryTree type="DecisionTree" boostWeight="1.0000000000000000e+00" itree="200">
      <Node pos="s" depth="0" NCoef="0" IVar="10" Cut="-9.3332630395889282e-01" cType="1" res="9.2164834495633841e-04" rms="3.0265074968338013e-01" purity="4.9639213085174561e-01" nType="0">
        <Node pos="l" depth="1" NCoef="0" IVar="8" Cut="6.6660457849502563e-01" cType="1" res="9.7720324993133545e-03" rms="3.1452578306198120e-01" purity="4.5050999522209167e-01" nType="0">
          <Node pos="l" depth="2" NCoef="0" IVar="8" Cut="-1.3141958713531494e+00" cType="1" res="2.5434014387428761e-03" rms="3.0706882476806641e-01" purity="4.6956527233123779e-01" nType="0">
            <Node pos="l" depth="3" NCoef="0" IVar="-1" Cut="0.0000000000000000e+00" cType="1" res="3.1155256554484367e-02" rms="3.0671155452728271e-01" purity="2.2196392714977264e-01" nType="-99"/>
            <Node pos="r" depth="3" NCoef="0" IVar="-1" Cut="0.0000000000000000e+00" cType="1" res="-3.0677486211061478e-03" rms="3.0690327286720276e-01" purity="5.2792853116989136e-01" nType="-99"/>
          </Node>
          <Node pos="r" depth="2" NCoef="0" IVar="10" Cut="-1.4666858911514282e+00" cType="1" res="3.4140620380640030e-02" rms="3.3731627464294434e-01" purity="3.8627219200134277e-01" nType="0">
            <Node pos="l" depth="3" NCoef="0" IVar="-1" Cut="0.0000000000000000e+00" cType="1" res="-6.1273486353456974e-03" rms="2.9976561665534973e-01" purity="2.9499721527099609e-01" nType="-99"/>
            <Node pos="r" depth="3" NCoef="0" IVar="-1" Cut="0.0000000000000000e+00" cType="1" res="7.0958860218524933e-02" rms="3.6799910664558411e-01" purity="4.8176521062850952e-01" nType="-99"/>
          </Node>
        </Node>
        <Node pos="r" depth="1" NCoef="0" IVar="7" Cut="-3.9375680685043335e-01" cType="1" res="-1.8002826254814863e-03" rms="2.9885107278823853e-01" purity="5.1050311326980591e-01" nType="0">
          <Node pos="l" depth="2" NCoef="0" IVar="8" Cut="6.6649597883224487e-01" cType="1" res="-1.2503832578659058e-02" rms="2.9429450631141663e-01" purity="4.1996270418167114e-01" nType="0">
            <Node pos="l" depth="3" NCoef="0" IVar="-1" Cut="0.0000000000000000e+00" cType="1" res="-7.5038694776594639e-03" rms="3.0020925402641296e-01" purity="4.6329271793365479e-01" nType="-99"/>
            <Node pos="r" depth="3" NCoef="0" IVar="-1" Cut="0.0000000000000000e+00" cType="1" res="-3.3419903367757797e-02" rms="2.7574086189270020e-01" purity="2.9420819878578186e-01" nType="-99"/>
          </Node>
          <Node pos="r" depth="2" NCoef="0" IVar="10" Cut="1.3335554301738739e-01" cType="1" res="2.7047349140048027e-03" rms="3.0063429474830627e-01" purity="5.4861068725585938e-01" nType="0">
            <Node pos="l" depth="3" NCoef="0" IVar="-1" Cut="0.0000000000000000e+00" cType="1" res="1.1235840618610382e-02" rms="3.1089183688163757e-01" purity="5.9437006711959839e-01" nType="-99"/>
            <Node pos="r" depth="3" NCoef="0" IVar="-1" Cut="0.0000000000000000e+00" cType="1" res="-2.0245127379894257e-03" rms="2.9414626955986023e-01" purity="5.2085334062576294e-01" nType="-99"/>
          </Node>
        </Node>
      </Node>
    </BinaryTree>
    <BinaryTree type="DecisionTree" boostWeight="1.0000000000000000e+00" itree="201">
      <Node pos="s" depth="0" NCoef="0" IVar="5" Cut="1.0559147644042969e+02" cType="1" res="-8.6815928807482123e-04" rms="2.9801070690155029e-01" purity="5.0547218322753906e-01" nType="0">
        <Node pos="l" depth="1" NCoef="0" IVar="5" Cut="9.7655166625976562e+01" cType="1" res="4.3670865707099438e-03" rms="2.6702433824539185e-01" purity="1.3580165803432465e-01" nType="0">
          <Node pos="l" depth="2" NCoef="0" IVar="10" Cut="1.4666594266891479e+00" cType="1" res="4.7544270637445152e-04" rms="2.4947792291641235e-01" purity="1.1770718544721603e-01" nType="0">
            <Node pos="l" depth="3" NCoef="0" IVar="-1" Cut="0.0000000000000000e+00" cType="1" res="-6.3379704952239990e-03" rms="2.4450835585594177e-01" purity="1.1199533194303513e-01" nType="-99"/>
            <Node pos="r" depth="3" NCoef="0" IVar="-1" Cut="0.0000000000000000e+00" cType="1" res="3.6004435271024704e-02" rms="2.7286720275878906e-01" purity="1.4760164916515350e-01" nType="-99"/>
          </Node>
          <Node pos="r" depth="2" NCoef="0" IVar="-1" Cut="0.0000000000000000e+00" cType="1" res="2.5255113840103149e-02" rms="3.4529465436935425e-01" purity="2.3251582682132721e-01" nType="-99"/>
        </Node>
        <Node pos="r" depth="1" NCoef="0" IVar="1" Cut="1.3486768798828125e+03" cType="1" res="-3.1070548575371504e-03" rms="3.1029218435287476e-01" purity="6.6356480121612549e-01" nType="0">
          <Node pos="l" depth="2" NCoef="0" IVar="1" Cut="1.0352067871093750e+03" cType="1" res="-1.8921630457043648e-02" rms="3.5461750626564026e-01" purity="2.2266173362731934e-01" nType="0">
            <Node pos="l" depth="3" NCoef="0" IVar="-1" Cut="0.0000000000000000e+00" cType="1" res="2.3303588852286339e-02" rms="2.6521629095077515e-01" purity="8.5463315248489380e-02" nType="-99"/>
            <Node pos="r" depth="3" NCoef="0" IVar="-1" Cut="0.0000000000000000e+00" cType="1" res="-1.9157564267516136e-02" rms="3.7595272064208984e-01" purity="2.6227203011512756e-01" nType="-99"/>
          </Node>
          <Node pos="r" depth="2" NCoef="0" IVar="7" Cut="-1.1480082273483276e+00" cType="1" res="2.9859140049666166e-03" rms="2.9119202494621277e-01" purity="8.3343398571014404e-01" nType="0">
            <Node pos="l" depth="3" NCoef="0" IVar="-1" Cut="0.0000000000000000e+00" cType="1" res="2.6852043345570564e-02" rms="3.6874863505363464e-01" purity="5.8802127838134766e-01" nType="-99"/>
            <Node pos="r" depth="3" NCoef="0" IVar="-1" Cut="0.0000000000000000e+00" cType="1" res="9.5239421352744102e-04" rms="2.8540769219398499e-01" purity="8.4904426336288452e-01" nType="-99"/>
          </Node>
        </Node>
      </Node>
    </BinaryTree>
    <BinaryTree type="DecisionTree" boostWeight="1.0000000000000000e+00" itree="202">
      <Node pos="s" depth="0" NCoef="0" IVar="9" Cut="-1.7333347797393799e+00" cType="1" res="-2.0014389883726835e-03" rms="3.0229875445365906e-01" purity="4.9819141626358032e-01" nType="0">
        <Node pos="l" depth="1" NCoef="0" IVar="4" Cut="1.6766621398925781e+02" cType="1" res="1.7477968707680702e-02" rms="3.1868848204612732e-01" purity="2.6151239871978760e-01" nType="0">
          <Node pos="l" depth="2" NCoef="0" IVar="-1" Cut="0.0000000000000000e+00" cType="1" res="9.7356110811233521e-02" rms="2.8739523887634277e-01" purity="1.0883186012506485e-01" nType="-99"/>
          <Node pos="r" depth="2" NCoef="0" IVar="-1" Cut="0.0000000000000000e+00" cType="1" res="-2.7281872462481260e-03" rms="3.3901005983352661e-01" purity="3.7702587246894836e-01" nType="-99"/>
        </Node>
        <Node pos="r" depth="1" NCoef="0" IVar="7" Cut="1.4691886901855469e+00" cType="1" res="-3.4022196196019650e-03" rms="3.0103722214698792e-01" purity="5.1521128416061401e-01" nType="0">
          <Node pos="l" depth="2" NCoef="0" IVar="9" Cut="-6.3560237176716328e-03" cType="1" res="-4.3007717467844486e-03" rms="3.0424723029136658e-01" purity="5.4096162319183350e-01" nType="0">
            <Node pos="l" depth="3" NCoef="0" IVar="-1" Cut="0.0000000000000000e+00" cType="1" res="-9.1219600290060043e-03" rms="2.9844614863395691e-01" purity="5.5611687898635864e-01" nType="-99"/>
            <Node pos="r" depth="3" NCoef="0" IVar="-1" Cut="0.0000000000000000e+00" cType="1" res="-8.6390785872936249e-04" rms="3.0913236737251282e-01" purity="5.2785873413085938e-01" nType="-99"/>
          </Node>
          <Node pos="r" depth="2" NCoef="0" IVar="5" Cut="1.0249486541748047e+02" cType="1" res="1.0503416880965233e-02" rms="2.4565975368022919e-01" purity="1.1670840531587601e-01" nType="0">
            <Node pos="l" depth="3" NCoef="0" IVar="-1" Cut="0.0000000000000000e+00" cType="1" res="-1.0790048167109489e-02" rms="1.3310635089874268e-01" purity="1.9312104210257530e-02" nType="-99"/>
            <Node pos="r" depth="3" NCoef="0" IVar="-1" Cut="0.0000000000000000e+00" cType="1" res="2.4618133902549744e-02" rms="3.0774086713790894e-01" purity="1.9573023915290833e-01" nType="-99"/>
          </Node>
        </Node>
      </Node>
    </BinaryTree>
    <BinaryTree type="DecisionTree" boostWeight="1.0000000000000000e+00" itree="203">
      <Node pos="s" depth="0" NCoef="0" IVar="9" Cut="3.9998450875282288e-01" cType="1" res="-4.1542117833159864e-04" rms="3.0022439360618591e-01" purity="5.0157243013381958e-01" nType="0">
        <Node pos="l" depth="1" NCoef="0" IVar="10" Cut="-1.9997642040252686e+00" cType="1" res="3.2467385753989220e-03" rms="2.9959306120872498e-01" purity="5.2256155014038086e-01" nType="0">
          <Node pos="l" depth="2" NCoef="0" IVar="-1" Cut="0.0000000000000000e+00" cType="1" res="-1.4471467584371567e-02" rms="2.8821614384651184e-01" purity="3.0615922808647156e-01" nType="-99"/>
          <Node pos="r" depth="2" NCoef="0" IVar="10" Cut="7.4296075105667114e-01" cType="1" res="4.1764988563954830e-03" rms="3.0020731687545776e-01" purity="5.3499835729598999e-01" nType="0">
            <Node pos="l" depth="3" NCoef="0" IVar="-1" Cut="0.0000000000000000e+00" cType="1" res="1.9230436300858855e-03" rms="2.9824745655059814e-01" purity="5.4124432802200317e-01" nType="-99"/>
            <Node pos="r" depth="3" NCoef="0" IVar="-1" Cut="0.0000000000000000e+00" cType="1" res="1.1326055042445660e-02" rms="3.0495873093605042e-01" purity="5.1940196752548218e-01" nType="-99"/>
          </Node>
        </Node>
        <Node pos="r" depth="1" NCoef="0" IVar="4" Cut="1.4518180847167969e+02" cType="1" res="-6.8416236899793148e-03" rms="3.0122146010398865e-01" purity="4.6474146842956543e-01" nType="0">
          <Node pos="l" depth="2" NCoef="0" IVar="7" Cut="-1.2084776163101196e-01" cType="1" res="4.8905657604336739e-03" rms="2.4363180994987488e-01" purity="8.7501317262649536e-02" nType="0">
            <Node pos="l" depth="3" NCoef="0" IVar="-1" Cut="0.0000000000000000e+00" cType="1" res="-1.8452370539307594e-02" rms="2.2068059444427490e-01" purity="6.8908944725990295e-02" nType="-99"/>
            <Node pos="r" depth="3" NCoef="0" IVar="-1" Cut="0.0000000000000000e+00" cType="1" res="2.5319047272205353e-02" rms="2.5690427422523499e-01" purity="9.9510192871093750e-02" nType="-99"/>
          </Node>
          <Node pos="r" depth="2" NCoef="0" IVar="8" Cut="4.0037727355957031e-01" cType="1" res="-1.0129671543836594e-02" rms="3.1540277600288391e-01" purity="5.7046633958816528e-01" nType="0">
            <Node pos="l" depth="3" NCoef="0" IVar="-1" Cut="0.0000000000000000e+00" cType="1" res="-3.7829473149031401e-03" rms="3.2011470198631287e-01" purity="6.1935710906982422e-01" nType="-99"/>
            <Node pos="r" depth="3" NCoef="0" IVar="-1" Cut="0.0000000000000000e+00" cType="1" res="-2.0638333633542061e-02" rms="3.0710890889167786e-01" purity="4.8908376693725586e-01" nType="-99"/>
          </Node>
        </Node>
      </Node>
    </BinaryTree>
    <BinaryTree type="DecisionTree" boostWeight="1.0000000000000000e+00" itree="204">
      <Node pos="s" depth="0" NCoef="0" IVar="9" Cut="-4.0000647306442261e-01" cType="1" res="4.7365887439809740e-04" rms="3.0074402689933777e-01" purity="4.9852716922760010e-01" nType="0">
        <Node pos="l" depth="1" NCoef="0" IVar="9" Cut="-1.5428613424301147e+00" cType="1" res="5.9846108779311180e-03" rms="3.0497875809669495e-01" purity="4.6485912799835205e-01" nType="0">
          <Node pos="l" depth="2" NCoef="0" IVar="10" Cut="1.3342882692813873e-01" cType="1" res="-1.1103486642241478e-02" rms="2.9027932882308960e-01" purity="2.5930663943290710e-01" nType="0">
            <Node pos="l" depth="3" NCoef="0" IVar="-1" Cut="0.0000000000000000e+00" cType="1" res="-1.2300390517339110e-03" rms="2.8694596886634827e-01" purity="2.6250591874122620e-01" nType="-99"/>
            <Node pos="r" depth="3" NCoef="0" IVar="-1" Cut="0.0000000000000000e+00" cType="1" res="-2.8377881273627281e-02" rms="2.9464432597160339e-01" purity="2.5440678000450134e-01" nType="-99"/>
          </Node>
          <Node pos="r" depth="2" NCoef="0" IVar="1" Cut="1.3997946777343750e+03" cType="1" res="1.1539023369550705e-02" rms="3.0940333008766174e-01" purity="5.3167307376861572e-01" nType="0">
            <Node pos="l" depth="3" NCoef="0" IVar="-1" Cut="0.0000000000000000e+00" cType="1" res="2.0354993641376495e-02" rms="3.2034379243850708e-01" purity="2.0777423679828644e-01" nType="-99"/>
            <Node pos="r" depth="3" NCoef="0" IVar="-1" Cut="0.0000000000000000e+00" cType="1" res="4.2140460573136806e-03" rms="2.9885330796241760e-01" purity="8.2737052440643311e-01" nType="-99"/>
          </Node>
        </Node>
        <Node pos="r" depth="1" NCoef="0" IVar="7" Cut="1.3846547901630402e-01" cType="1" res="-2.6658740825951099e-03" rms="2.9825913906097412e-01" purity="5.1770752668380737e-01" nType="0">
          <Node pos="l" depth="2" NCoef="0" IVar="9" Cut="-2.4757847189903259e-01" cType="1" res="1.3424744829535484e-03" rms="3.0371648073196411e-01" purity="5.4454070329666138e-01" nType="0">
            <Node pos="l" depth="3" NCoef="0" IVar="-1" Cut="0.0000000000000000e+00" cType="1" res="-3.2744955271482468e-02" rms="2.6240286231040955e-01" purity="5.7203096151351929e-01" nType="-99"/>
            <Node pos="r" depth="3" NCoef="0" IVar="-1" Cut="0.0000000000000000e+00" cType="1" res="4.0926905348896980e-03" rms="3.0703657865524292e-01" purity="5.4207336902618408e-01" nType="-99"/>
          </Node>
          <Node pos="r" depth="2" NCoef="0" IVar="7" Cut="6.4531785249710083e-01" cType="1" res="-7.3031117208302021e-03" rms="2.9174959659576416e-01" purity="4.8666432499885559e-01" nType="0">
            <Node pos="l" depth="3" NCoef="0" IVar="-1" Cut="0.0000000000000000e+00" cType="1" res="-1.9355237483978271e-02" rms="2.8242146968841553e-01" purity="6.3552588224411011e-01" nType="-99"/>
            <Node pos="r" depth="3" NCoef="0" IVar="-1" Cut="0.0000000000000000e+00" cType="1" res="1.2030137004330754e-03" rms="2.9906502366065979e-01" purity="3.6227104067802429e-01" nType="-99"/>
          </Node>
        </Node>
      </Node>
    </BinaryTree>
    <BinaryTree type="DecisionTree" boostWeight="1.0000000000000000e+00" itree="205">
      <Node pos="s" depth="0" NCoef="0" IVar="9" Cut="-9.3333774805068970e-01" cType="1" res="3.1028562225401402e-03" rms="3.0217996239662170e-01" purity="5.0047653913497925e-01" nType="0">
        <Node pos="l" depth="1" NCoef="0" IVar="10" Cut="-1.1995186805725098e+00" cType="1" res="1.2394942343235016e-02" rms="3.1275498867034912e-01" purity="4.0198323130607605e-01" nType="0">
          <Node pos="l" depth="2" NCoef="0" IVar="-1" Cut="0.0000000000000000e+00" cType="1" res="3.7410769611597061e-02" rms="3.2695478200912476e-01" purity="3.2608526945114136e-01" nType="-99"/>
          <Node pos="r" depth="2" NCoef="0" IVar="4" Cut="1.2790616607666016e+02" cType="1" res="6.3279732130467892e-03" rms="3.0836629867553711e-01" purity="4.2335981130599976e-01" nType="0">
            <Node pos="l" depth="3" NCoef="0" IVar="-1" Cut="0.0000000000000000e+00" cType="1" res="-2.6933442801237106e-02" rms="1.8609869480133057e-01" purity="4.6072933822870255e-02" nType="-99"/>
            <Node pos="r" depth="3" NCoef="0" IVar="-1" Cut="0.0000000000000000e+00" cType="1" res="9.4213420525193214e-03" rms="3.2823517918586731e-01" purity="5.0278300046920776e-01" nType="-99"/>
          </Node>
        </Node>
        <Node pos="r" depth="1" NCoef="0" IVar="10" Cut="-3.9978924393653870e-01" cType="1" res="5.7734420988708735e-04" rms="2.9919129610061646e-01" purity="5.2724623680114746e-01" nType="0">
          <Node pos="l" depth="2" NCoef="0" IVar="9" Cut="1.3777172565460205e+00" cType="1" res="-5.9994990006089211e-03" rms="2.9863840341567993e-01" purity="5.1363629102706909e-01" nType="0">
            <Node pos="l" depth="3" NCoef="0" IVar="-1" Cut="0.0000000000000000e+00" cType="1" res="-2.4222310166805983e-03" rms="2.9983937740325928e-01" purity="5.4585826396942139e-01" nType="-99"/>
            <Node pos="r" depth="3" NCoef="0" IVar="-1" Cut="0.0000000000000000e+00" cType="1" res="-3.3380314707756042e-02" rms="2.8940099477767944e-01" purity="3.0217602849006653e-01" nType="-99"/>
          </Node>
          <Node pos="r" depth="2" NCoef="0" IVar="5" Cut="1.6113958740234375e+02" cType="1" res="4.2478181421756744e-03" rms="2.9943662881851196e-01" purity="5.3484183549880981e-01" nType="0">
            <Node pos="l" depth="3" NCoef="0" IVar="-1" Cut="0.0000000000000000e+00" cType="1" res="1.0274996981024742e-02" rms="3.1759172677993774e-01" purity="2.8589373826980591e-01" nType="-99"/>
            <Node pos="r" depth="3" NCoef="0" IVar="-1" Cut="0.0000000000000000e+00" cType="1" res="-3.6612749099731445e-03" rms="2.7592229843139648e-01" purity="8.3346384763717651e-01" nType="-99"/>
          </Node>
        </Node>
      </Node>
    </BinaryTree>
    <BinaryTree type="DecisionTree" boostWeight="1.0000000000000000e+00" itree="206">
      <Node pos="s" depth="0" NCoef="0" IVar="9" Cut="-1.9999942779541016e+00" cType="1" res="-1.6640126705169678e-03" rms="2.9901921749114990e-01" purity="4.9397754669189453e-01" nType="0">
        <Node pos="l" depth="1" NCoef="0" IVar="-1" Cut="0.0000000000000000e+00" cType="1" res="-2.4807052686810493e-02" rms="2.6242622733116150e-01" purity="1.8664133548736572e-01" nType="-99"/>
        <Node pos="r" depth="1" NCoef="0" IVar="10" Cut="1.9999967813491821e+00" cType="1" res="-9.1846298892050982e-04" rms="3.0042544007301331e-01" purity="5.0679492950439453e-01" nType="0">
          <Node pos="l" depth="2" NCoef="0" IVar="10" Cut="1.5428453683853149e+00" cType="1" res="-1.4468208246398717e-04" rms="3.0032464861869812e-01" purity="5.1701843738555908e-01" nType="0">
            <Node pos="l" depth="3" NCoef="0" IVar="-1" Cut="0.0000000000000000e+00" cType="1" res="-1.1950450716540217e-03" rms="2.9949036240577698e-01" purity="5.2074080705642700e-01" nType="-99"/>
            <Node pos="r" depth="3" NCoef="0" IVar="-1" Cut="0.0000000000000000e+00" cType="1" res="1.4166751876473427e-02" rms="3.1173685193061829e-01" purity="4.6361783146858215e-01" nType="-99"/>
          </Node>
          <Node pos="r" depth="2" NCoef="0" IVar="-1" Cut="0.0000000000000000e+00" cType="1" res="-1.6097359359264374e-02" rms="3.0190935730934143e-01" purity="3.2044094800949097e-01" nType="-99"/>
        </Node>
      </Node>
    </BinaryTree>
    <BinaryTree type="DecisionTree" boostWeight="1.0000000000000000e+00" itree="207">
      <Node pos="s" depth="0" NCoef="0" IVar="8" Cut="-1.9999976158142090e+00" cType="1" res="1.0710199130699039e-03" rms="2.9988056421279907e-01" purity="5.0322502851486206e-01" nType="0">
        <Node pos="l" depth="1" NCoef="0" IVar="-1" Cut="0.0000000000000000e+00" cType="1" res="-3.6051355302333832e-02" rms="2.1474282443523407e-01" purity="8.8388331234455109e-02" nType="-99"/>
        <Node pos="r" depth="1" NCoef="0" IVar="0" Cut="4.5299465942382812e+02" cType="1" res="1.8005227902904153e-03" rms="3.0225482583045959e-01" purity="5.1691859960556030e-01" nType="0">
          <Node pos="l" depth="2" NCoef="0" IVar="0" Cut="3.4371258544921875e+02" cType="1" res="5.3886948153376579e-03" rms="3.1407067179679871e-01" purity="2.5445899367332458e-01" nType="0">
            <Node pos="l" depth="3" NCoef="0" IVar="-1" Cut="0.0000000000000000e+00" cType="1" res="-1.0350383818149567e-02" rms="2.7326127886772156e-01" purity="1.4376521110534668e-01" nType="-99"/>
            <Node pos="r" depth="3" NCoef="0" IVar="-1" Cut="0.0000000000000000e+00" cType="1" res="1.2394934892654419e-02" rms="3.3589029312133789e-01" purity="3.2078275084495544e-01" nType="-99"/>
          </Node>
          <Node pos="r" depth="2" NCoef="0" IVar="1" Cut="1.8054945068359375e+03" cType="1" res="-1.7851023003458977e-03" rms="2.8992241621017456e-01" purity="7.7919197082519531e-01" nType="0">
            <Node pos="l" depth="3" NCoef="0" IVar="-1" Cut="0.0000000000000000e+00" cType="1" res="-6.7496285773813725e-03" rms="3.6124452948570251e-01" purity="5.8782607316970825e-01" nType="-99"/>
            <Node pos="r" depth="3" NCoef="0" IVar="-1" Cut="0.0000000000000000e+00" cType="1" res="7.6662995852530003e-03" rms="2.1487368643283844e-01" purity="9.3500304222106934e-01" nType="-99"/>
          </Node>
        </Node>
      </Node>
    </BinaryTree>
    <BinaryTree type="DecisionTree" boostWeight="1.0000000000000000e+00" itree="208">
      <Node pos="s" depth="0" NCoef="0" IVar="10" Cut="-2.2666585445404053e+00" cType="1" res="1.3680304400622845e-03" rms="3.0164912343025208e-01" purity="4.9969467520713806e-01" nType="0">
        <Node pos="l" depth="1" NCoef="0" IVar="-1" Cut="0.0000000000000000e+00" cType="1" res="-2.9290203005075455e-02" rms="2.7083146572113037e-01" purity="2.5902307033538818e-01" nType="-99"/>
        <Node pos="r" depth="1" NCoef="0" IVar="10" Cut="1.3523608446121216e+00" cType="1" res="2.1142696496099234e-03" rms="3.0245077610015869e-01" purity="5.0657433271408081e-01" nType="0">
          <Node pos="l" depth="2" NCoef="0" IVar="1" Cut="1.4400631103515625e+03" cType="1" res="3.9877663366496563e-03" rms="3.0293741822242737e-01" purity="5.2628940343856812e-01" nType="0">
            <Node pos="l" depth="3" NCoef="0" IVar="-1" Cut="0.0000000000000000e+00" cType="1" res="1.0117765516042709e-02" rms="3.2327318191528320e-01" purity="2.0486286282539368e-01" nType="-99"/>
            <Node pos="r" depth="3" NCoef="0" IVar="-1" Cut="0.0000000000000000e+00" cType="1" res="-2.4603044148534536e-03" rms="2.8133583068847656e-01" purity="8.4303647279739380e-01" nType="-99"/>
          </Node>
          <Node pos="r" depth="2" NCoef="0" IVar="8" Cut="-6.6611045598983765e-01" cType="1" res="-8.6842216551303864e-03" rms="2.9940202832221985e-01" purity="3.9294028282165527e-01" nType="0">
            <Node pos="l" depth="3" NCoef="0" IVar="-1" Cut="0.0000000000000000e+00" cType="1" res="-2.7941595762968063e-02" rms="2.9831239581108093e-01" purity="3.0517947673797607e-01" nType="-99"/>
            <Node pos="r" depth="3" NCoef="0" IVar="-1" Cut="0.0000000000000000e+00" cType="1" res="-3.6270953714847565e-03" rms="2.9953086376190186e-01" purity="4.1935464739799500e-01" nType="-99"/>
          </Node>
        </Node>
      </Node>
    </BinaryTree>
    <BinaryTree type="DecisionTree" boostWeight="1.0000000000000000e+00" itree="209">
      <Node pos="s" depth="0" NCoef="0" IVar="9" Cut="6.6665613651275635e-01" cType="1" res="1.0535818291828036e-03" rms="3.0012726783752441e-01" purity="5.0455021858215332e-01" nType="0">
        <Node pos="l" depth="1" NCoef="0" IVar="1" Cut="1.4400571289062500e+03" cType="1" res="-1.8133282428607345e-03" rms="2.9407626390457153e-01" purity="5.2624917030334473e-01" nType="0">
          <Node pos="l" depth="2" NCoef="0" IVar="5" Cut="1.6265704345703125e+02" cType="1" res="-6.2236790545284748e-03" rms="3.0571651458740234e-01" purity="1.8864686787128448e-01" nType="0">
            <Node pos="l" depth="3" NCoef="0" IVar="-1" Cut="0.0000000000000000e+00" cType="1" res="-1.2478387914597988e-02" rms="2.8423660993576050e-01" purity="1.3434490561485291e-01" nType="-99"/>
            <Node pos="r" depth="3" NCoef="0" IVar="-1" Cut="0.0000000000000000e+00" cType="1" res="1.1261584237217903e-02" rms="4.0612596273422241e-01" purity="4.9816334247589111e-01" nType="-99"/>
          </Node>
          <Node pos="r" depth="2" NCoef="0" IVar="7" Cut="1.0060800313949585e+00" cType="1" res="2.3843818344175816e-03" rms="2.8248819708824158e-01" purity="8.4757429361343384e-01" nType="0">
            <Node pos="l" depth="3" NCoef="0" IVar="-1" Cut="0.0000000000000000e+00" cType="1" res="1.3449608813971281e-03" rms="2.7641981840133667e-01" purity="8.6268824338912964e-01" nType="-99"/>
            <Node pos="r" depth="3" NCoef="0" IVar="-1" Cut="0.0000000000000000e+00" cType="1" res="1.5482796356081963e-02" rms="3.4846383333206177e-01" purity="6.6075164079666138e-01" nType="-99"/>
          </Node>
        </Node>
        <Node pos="r" depth="1" NCoef="0" IVar="0" Cut="4.2253054809570312e+02" cType="1" res="8.2594137638807297e-03" rms="3.1470775604248047e-01" purity="4.5001110434532166e-01" nType="0">
          <Node pos="l" depth="2" NCoef="0" IVar="9" Cut="1.0729924440383911e+00" cType="1" res="1.9038261845707893e-02" rms="3.1759861111640930e-01" purity="1.9785241782665253e-01" nType="0">
            <Node pos="l" depth="3" NCoef="0" IVar="-1" Cut="0.0000000000000000e+00" cType="1" res="4.4899873435497284e-02" rms="3.5767871141433716e-01" purity="2.8453135490417480e-01" nType="-99"/>
            <Node pos="r" depth="3" NCoef="0" IVar="-1" Cut="0.0000000000000000e+00" cType="1" res="6.4225932583212852e-03" rms="2.9406684637069702e-01" purity="1.5357978641986847e-01" nType="-99"/>
          </Node>
          <Node pos="r" depth="2" NCoef="0" IVar="9" Cut="1.4793661832809448e+00" cType="1" res="-1.4301388291642070e-03" rms="3.1176826357841492e-01" purity="6.7668700218200684e-01" nType="0">
            <Node pos="l" depth="3" NCoef="0" IVar="-1" Cut="0.0000000000000000e+00" cType="1" res="-9.8602240905165672e-03" rms="2.9391247034072876e-01" purity="7.3659807443618774e-01" nType="-99"/>
            <Node pos="r" depth="3" NCoef="0" IVar="-1" Cut="0.0000000000000000e+00" cType="1" res="1.2825177051126957e-02" rms="3.4840065240859985e-01" purity="5.4037231206893921e-01" nType="-99"/>
          </Node>
        </Node>
      </Node>
    </BinaryTree>
    <BinaryTree type="DecisionTree" boostWeight="1.0000000000000000e+00" itree="210">
      <Node pos="s" depth="0" NCoef="0" IVar="4" Cut="2.3230856323242188e+02" cType="1" res="-1.2465842301025987e-03" rms="3.0363965034484863e-01" purity="4.9310693144798279e-01" nType="0">
        <Node pos="l" depth="1" NCoef="0" IVar="4" Cut="1.8930450439453125e+02" cType="1" res="3.0639593023806810e-03" rms="3.0701649188995361e-01" purity="2.3166739940643311e-01" nType="0">
          <Node pos="l" depth="2" NCoef="0" IVar="8" Cut="-1.1999130249023438e+00" cType="1" res="-1.6499734483659267e-03" rms="2.7452516555786133e-01" purity="1.4635236561298370e-01" nType="0">
            <Node pos="l" depth="3" NCoef="0" IVar="-1" Cut="0.0000000000000000e+00" cType="1" res="2.5713073089718819e-02" rms="2.5905242562294006e-01" purity="1.1650628596544266e-01" nType="-99"/>
            <Node pos="r" depth="3" NCoef="0" IVar="-1" Cut="0.0000000000000000e+00" cType="1" res="-7.2052720934152603e-03" rms="2.7793604135513306e-01" purity="1.5348133444786072e-01" nType="-99"/>
          </Node>
          <Node pos="r" depth="2" NCoef="0" IVar="5" Cut="1.6270140075683594e+02" cType="1" res="1.4113079756498337e-02" rms="3.7198609113693237e-01" purity="4.3163970112800598e-01" nType="0">
            <Node pos="l" depth="3" NCoef="0" IVar="-1" Cut="0.0000000000000000e+00" cType="1" res="2.2116431966423988e-02" rms="3.7357833981513977e-01" purity="3.2913342118263245e-01" nType="-99"/>
            <Node pos="r" depth="3" NCoef="0" IVar="-1" Cut="0.0000000000000000e+00" cType="1" res="-7.3839034885168076e-03" rms="3.6790987849235535e-01" purity="6.1348176002502441e-01" nType="-99"/>
          </Node>
        </Node>
        <Node pos="r" depth="1" NCoef="0" IVar="9" Cut="6.6660457849502563e-01" cType="1" res="-5.6383954361081123e-03" rms="3.0009642243385315e-01" purity="7.5947546958923340e-01" nType="0">
          <Node pos="l" depth="2" NCoef="0" IVar="9" Cut="-6.5400832891464233e-01" cType="1" res="-1.9234884530305862e-03" rms="2.9407399892807007e-01" purity="7.7875828742980957e-01" nType="0">
            <Node pos="l" depth="3" NCoef="0" IVar="-1" Cut="0.0000000000000000e+00" cType="1" res="-1.1288632638752460e-02" rms="3.1994473934173584e-01" purity="6.9770228862762451e-01" nType="-99"/>
            <Node pos="r" depth="3" NCoef="0" IVar="-1" Cut="0.0000000000000000e+00" cType="1" res="3.3608227968215942e-03" rms="2.8018176555633545e-01" purity="8.1913721561431885e-01" nType="-99"/>
          </Node>
          <Node pos="r" depth="2" NCoef="0" IVar="0" Cut="6.3299218750000000e+02" cType="1" res="-1.6959387809038162e-02" rms="3.1747829914093018e-01" purity="7.0071196556091309e-01" nType="0">
            <Node pos="l" depth="3" NCoef="0" IVar="-1" Cut="0.0000000000000000e+00" cType="1" res="-2.3623492568731308e-02" rms="3.6233723163604736e-01" purity="5.5469512939453125e-01" nType="-99"/>
            <Node pos="r" depth="3" NCoef="0" IVar="-1" Cut="0.0000000000000000e+00" cType="1" res="7.4126129038631916e-03" rms="2.2733977437019348e-01" purity="9.3248820304870605e-01" nType="-99"/>
          </Node>
        </Node>
      </Node>
    </BinaryTree>
    <BinaryTree type="DecisionTree" boostWeight="1.0000000000000000e+00" itree="211">
      <Node pos="s" depth="0" NCoef="0" IVar="8" Cut="-1.4666053056716919e+00" cType="1" res="5.3072080481797457e-04" rms="3.0113512277603149e-01" purity="4.9976873397827148e-01" nType="0">
        <Node pos="l" depth="1" NCoef="0" IVar="4" Cut="2.1882635498046875e+02" cType="1" res="-1.1996239423751831e-02" rms="2.6913812756538391e-01" purity="1.9352811574935913e-01" nType="0">
          <Node pos="l" depth="2" NCoef="0" IVar="4" Cut="1.3937861633300781e+02" cType="1" res="-1.0418992023915052e-03" rms="2.4477285146713257e-01" purity="1.0773727297782898e-01" nType="0">
            <Node pos="l" depth="3" NCoef="0" IVar="-1" Cut="0.0000000000000000e+00" cType="1" res="1.9920604303479195e-02" rms="2.0015768706798553e-01" purity="5.2624084055423737e-02" nType="-99"/>
            <Node pos="r" depth="3" NCoef="0" IVar="-1" Cut="0.0000000000000000e+00" cType="1" res="-8.8808443397283554e-03" rms="2.7506589889526367e-01" purity="1.5170899033546448e-01" nType="-99"/>
          </Node>
          <Node pos="r" depth="2" NCoef="0" IVar="-1" Cut="0.0000000000000000e+00" cType="1" res="-2.9609052464365959e-02" rms="3.1528621912002563e-01" purity="3.8420021533966064e-01" nType="-99"/>
        </Node>
        <Node pos="r" depth="1" NCoef="0" IVar="10" Cut="-1.7333238124847412e+00" cType="1" res="1.6607480356469750e-03" rms="3.0383047461509705e-01" purity="5.2739399671554565e-01" nType="0">
          <Node pos="l" depth="2" NCoef="0" IVar="10" Cut="-1.9872953891754150e+00" cType="1" res="-1.2209330685436726e-02" rms="2.9402115941047668e-01" purity="3.9413934946060181e-01" nType="0">
            <Node pos="l" depth="3" NCoef="0" IVar="-1" Cut="0.0000000000000000e+00" cType="1" res="-1.0987215209752321e-03" rms="2.9660505056381226e-01" purity="3.7173944711685181e-01" nType="-99"/>
            <Node pos="r" depth="3" NCoef="0" IVar="-1" Cut="0.0000000000000000e+00" cType="1" res="-3.2802358269691467e-02" rms="2.8834855556488037e-01" purity="4.3368428945541382e-01" nType="-99"/>
          </Node>
          <Node pos="r" depth="2" NCoef="0" IVar="2" Cut="2.0562212914228439e-02" cType="1" res="2.8602334205061197e-03" rms="3.0463427305221558e-01" purity="5.3891789913177490e-01" nType="0">
            <Node pos="l" depth="3" NCoef="0" IVar="-1" Cut="0.0000000000000000e+00" cType="1" res="1.0112431831657887e-02" rms="2.9885593056678772e-01" purity="2.8131231665611267e-01" nType="-99"/>
            <Node pos="r" depth="3" NCoef="0" IVar="-1" Cut="0.0000000000000000e+00" cType="1" res="-3.6314748285803944e-05" rms="3.0737361311912537e-01" purity="6.6465014219284058e-01" nType="-99"/>
          </Node>
        </Node>
      </Node>
    </BinaryTree>
    <BinaryTree type="DecisionTree" boostWeight="1.0000000000000000e+00" itree="212">
      <Node pos="s" depth="0" NCoef="0" IVar="10" Cut="2.2666671276092529e+00" cType="1" res="-9.2451437376439571e-04" rms="2.9805690050125122e-01" purity="4.9982404708862305e-01" nType="0">
        <Node pos="l" depth="1" NCoef="0" IVar="9" Cut="-4.0004032850265503e-01" cType="1" res="-1.1421728413552046e-04" rms="2.9880008101463318e-01" purity="5.0669264793395996e-01" nType="0">
          <Node pos="l" depth="2" NCoef="0" IVar="6" Cut="1.1043253326416016e+02" cType="1" res="5.4879751987755299e-03" rms="3.0537942051887512e-01" purity="4.7649043798446655e-01" nType="0">
            <Node pos="l" depth="3" NCoef="0" IVar="-1" Cut="0.0000000000000000e+00" cType="1" res="1.0388061404228210e-02" rms="3.1565043330192566e-01" purity="3.1228128075599670e-01" nType="-99"/>
            <Node pos="r" depth="3" NCoef="0" IVar="-1" Cut="0.0000000000000000e+00" cType="1" res="-4.8059010878205299e-03" rms="2.8286939859390259e-01" purity="8.1401991844177246e-01" nType="-99"/>
          </Node>
          <Node pos="r" depth="2" NCoef="0" IVar="1" Cut="1.4296384277343750e+03" cType="1" res="-3.3344146795570850e-03" rms="2.9490360617637634e-01" purity="5.2405321598052979e-01" nType="0">
            <Node pos="l" depth="3" NCoef="0" IVar="-1" Cut="0.0000000000000000e+00" cType="1" res="-9.3164378777146339e-03" rms="3.0623030662536621e-01" purity="1.7623379826545715e-01" nType="-99"/>
            <Node pos="r" depth="3" NCoef="0" IVar="-1" Cut="0.0000000000000000e+00" cType="1" res="2.4448707699775696e-03" rms="2.8399124741554260e-01" purity="8.4368300437927246e-01" nType="-99"/>
          </Node>
        </Node>
        <Node pos="r" depth="1" NCoef="0" IVar="-1" Cut="0.0000000000000000e+00" cType="1" res="-3.4565154463052750e-02" rms="2.6911017298698425e-01" purity="2.5850278139114380e-01" nType="-99"/>
      </Node>
    </BinaryTree>
    <BinaryTree type="DecisionTree" boostWeight="1.0000000000000000e+00" itree="213">
      <Node pos="s" depth="0" NCoef="0" IVar="8" Cut="1.4666694402694702e+00" cType="1" res="-7.0263355155475438e-05" rms="3.0061054229736328e-01" purity="4.9884119629859924e-01" nType="0">
        <Node pos="l" depth="1" NCoef="0" IVar="8" Cut="1.2634980678558350e+00" cType="1" res="1.1510377516970038e-03" rms="3.0323573946952820e-01" purity="5.2793091535568237e-01" nType="0">
          <Node pos="l" depth="2" NCoef="0" IVar="9" Cut="9.3331837654113770e-01" cType="1" res="1.1375837493687868e-04" rms="3.0169668793678284e-01" purity="5.3160482645034790e-01" nType="0">
            <Node pos="l" depth="3" NCoef="0" IVar="-1" Cut="0.0000000000000000e+00" cType="1" res="-1.7114019719883800e-03" rms="2.9739543795585632e-01" purity="5.5230879783630371e-01" nType="-99"/>
            <Node pos="r" depth="3" NCoef="0" IVar="-1" Cut="0.0000000000000000e+00" cType="1" res="6.6159279085695744e-03" rms="3.1769171357154846e-01" purity="4.5159810781478882e-01" nType="-99"/>
          </Node>
          <Node pos="r" depth="2" NCoef="0" IVar="-1" Cut="0.0000000000000000e+00" cType="1" res="2.8168650344014168e-02" rms="3.4024575352668762e-01" purity="4.3087950348854065e-01" nType="-99"/>
        </Node>
        <Node pos="r" depth="1" NCoef="0" IVar="2" Cut="2.2039743140339851e-02" cType="1" res="-1.3416131027042866e-02" rms="2.6990675926208496e-01" purity="1.8096096813678741e-01" nType="0">
          <Node pos="l" depth="2" NCoef="0" IVar="9" Cut="3.9960768818855286e-01" cType="1" res="-2.4673121515661478e-04" rms="2.5240576267242432e-01" purity="1.1561324447393417e-01" nType="0">
            <Node pos="l" depth="3" NCoef="0" IVar="-1" Cut="0.0000000000000000e+00" cType="1" res="-1.5450341627001762e-02" rms="2.4572288990020752e-01" purity="1.0465478897094727e-01" nType="-99"/>
            <Node pos="r" depth="3" NCoef="0" IVar="-1" Cut="0.0000000000000000e+00" cType="1" res="1.4225875027477741e-02" rms="2.5873228907585144e-01" purity="1.2691159546375275e-01" nType="-99"/>
          </Node>
          <Node pos="r" depth="2" NCoef="0" IVar="-1" Cut="0.0000000000000000e+00" cType="1" res="-3.6787074059247971e-02" rms="3.0175298452377319e-01" purity="3.1928738951683044e-01" nType="-99"/>
        </Node>
      </Node>
    </BinaryTree>
    <BinaryTree type="DecisionTree" boostWeight="1.0000000000000000e+00" itree="214">
      <Node pos="s" depth="0" NCoef="0" IVar="7" Cut="9.4138282537460327e-01" cType="1" res="1.4918221859261394e-03" rms="3.0272397398948669e-01" purity="5.0103014707565308e-01" nType="0">
        <Node pos="l" depth="1" NCoef="0" IVar="7" Cut="-1.3590791225433350e+00" cType="1" res="-4.9914000555872917e-04" rms="3.0512592196464539e-01" purity="5.4306280612945557e-01" nType="0">
          <Node pos="l" depth="2" NCoef="0" IVar="3" Cut="3.5728948974609375e+02" cType="1" res="1.1749578639864922e-02" rms="2.5467681884765625e-01" purity="1.4181624352931976e-01" nType="0">
            <Node pos="l" depth="3" NCoef="0" IVar="-1" Cut="0.0000000000000000e+00" cType="1" res="4.2325444519519806e-02" rms="2.5346046686172485e-01" purity="1.2966015934944153e-01" nType="-99"/>
            <Node pos="r" depth="3" NCoef="0" IVar="-1" Cut="0.0000000000000000e+00" cType="1" res="-1.0904136113822460e-02" rms="2.5557026267051697e-01" purity="1.6260950267314911e-01" nType="-99"/>
          </Node>
          <Node pos="r" depth="2" NCoef="0" IVar="7" Cut="-4.4541735202074051e-02" cType="1" res="-1.6547866398468614e-03" rms="3.0943641066551208e-01" purity="5.8091980218887329e-01" nType="0">
            <Node pos="l" depth="3" NCoef="0" IVar="-1" Cut="0.0000000000000000e+00" cType="1" res="-5.6164059787988663e-03" rms="3.1190019845962524e-01" purity="5.5271476507186890e-01" nType="-99"/>
            <Node pos="r" depth="3" NCoef="0" IVar="-1" Cut="0.0000000000000000e+00" cType="1" res="2.3967570159584284e-03" rms="3.0669412016868591e-01" purity="6.1150026321411133e-01" nType="-99"/>
          </Node>
        </Node>
        <Node pos="r" depth="1" NCoef="0" IVar="0" Cut="4.8807629394531250e+02" cType="1" res="1.2310250662267208e-02" rms="2.8908446431159973e-01" purity="2.7263438701629639e-01" nType="0">
          <Node pos="l" depth="2" NCoef="0" IVar="1" Cut="1.2380944824218750e+03" cType="1" res="2.8750617057085037e-03" rms="2.6857736706733704e-01" purity="1.2247705459594727e-01" nType="0">
            <Node pos="l" depth="3" NCoef="0" IVar="-1" Cut="0.0000000000000000e+00" cType="1" res="2.8136055916547775e-02" rms="2.2606939077377319e-01" purity="6.4078815281391144e-02" nType="-99"/>
            <Node pos="r" depth="3" NCoef="0" IVar="-1" Cut="0.0000000000000000e+00" cType="1" res="-1.6252214089035988e-02" rms="3.5584983229637146e-01" purity="2.7612188458442688e-01" nType="-99"/>
          </Node>
          <Node pos="r" depth="2" NCoef="0" IVar="-1" Cut="0.0000000000000000e+00" cType="1" res="3.1862016767263412e-02" rms="3.3466023206710815e-01" purity="6.5652400255203247e-01" nType="-99"/>
        </Node>
      </Node>
    </BinaryTree>
    <BinaryTree type="DecisionTree" boostWeight="1.0000000000000000e+00" itree="215">
      <Node pos="s" depth="0" NCoef="0" IVar="8" Cut="3.9982631802558899e-01" cType="1" res="1.6993792960420251e-03" rms="3.0103728175163269e-01" purity="5.0409895181655884e-01" nType="0">
        <Node pos="l" depth="1" NCoef="0" IVar="10" Cut="-1.3332885503768921e-01" cType="1" res="4.0563791990280151e-03" rms="3.0031713843345642e-01" purity="5.3391611576080322e-01" nType="0">
          <Node pos="l" depth="2" NCoef="0" IVar="6" Cut="7.3144226074218750e+01" cType="1" res="-1.8855786183848977e-03" rms="2.9857882857322693e-01" purity="5.0089299678802490e-01" nType="0">
            <Node pos="l" depth="3" NCoef="0" IVar="-1" Cut="0.0000000000000000e+00" cType="1" res="1.0576225817203522e-02" rms="2.9223099350929260e-01" purity="2.2822237014770508e-01" nType="-99"/>
            <Node pos="r" depth="3" NCoef="0" IVar="-1" Cut="0.0000000000000000e+00" cType="1" res="-8.3492258563637733e-03" rms="3.0193015933036804e-01" purity="6.5422827005386353e-01" nType="-99"/>
          </Node>
          <Node pos="r" depth="2" NCoef="0" IVar="8" Cut="2.4742962419986725e-01" cType="1" res="9.4053009524941444e-03" rms="3.0177333950996399e-01" purity="5.6364327669143677e-01" nType="0">
            <Node pos="l" depth="3" NCoef="0" IVar="-1" Cut="0.0000000000000000e+00" cType="1" res="1.2242482043802738e-02" rms="3.0350995063781738e-01" purity="5.5862557888031006e-01" nType="-99"/>
            <Node pos="r" depth="3" NCoef="0" IVar="-1" Cut="0.0000000000000000e+00" cType="1" res="-1.0650272481143475e-02" rms="2.8244039416313171e-01" purity="6.1570322513580322e-01" nType="-99"/>
          </Node>
        </Node>
        <Node pos="r" depth="1" NCoef="0" IVar="7" Cut="6.8795835971832275e-01" cType="1" res="-2.7328096330165863e-03" rms="3.0233711004257202e-01" purity="4.4802972674369812e-01" nType="0">
          <Node pos="l" depth="2" NCoef="0" IVar="10" Cut="-6.6653174161911011e-01" cType="1" res="1.2830834602937102e-03" rms="3.1245315074920654e-01" purity="5.0730204582214355e-01" nType="0">
            <Node pos="l" depth="3" NCoef="0" IVar="-1" Cut="0.0000000000000000e+00" cType="1" res="1.4061540365219116e-02" rms="3.2304006814956665e-01" purity="5.0339698791503906e-01" nType="-99"/>
            <Node pos="r" depth="3" NCoef="0" IVar="-1" Cut="0.0000000000000000e+00" cType="1" res="-4.0033054538071156e-03" rms="3.0796205997467041e-01" purity="5.0886780023574829e-01" nType="-99"/>
          </Node>
          <Node pos="r" depth="2" NCoef="0" IVar="9" Cut="-1.3398401439189911e-01" cType="1" res="-1.4819472096860409e-02" rms="2.6924896240234375e-01" purity="2.6963743567466736e-01" nType="0">
            <Node pos="l" depth="3" NCoef="0" IVar="-1" Cut="0.0000000000000000e+00" cType="1" res="-2.8331782668828964e-03" rms="2.8938347101211548e-01" purity="3.1256207823753357e-01" nType="-99"/>
            <Node pos="r" depth="3" NCoef="0" IVar="-1" Cut="0.0000000000000000e+00" cType="1" res="-2.8795862570405006e-02" rms="2.5721433758735657e-01" purity="2.4596290290355682e-01" nType="-99"/>
          </Node>
        </Node>
      </Node>
    </BinaryTree>
    <BinaryTree type="DecisionTree" boostWeight="1.0000000000000000e+00" itree="216">
      <Node pos="s" depth="0" NCoef="0" IVar="0" Cut="6.0413476562500000e+02" cType="1" res="2.2115057799965143e-03" rms="3.0349719524383545e-01" purity="4.9852693080902100e-01" nType="0">
        <Node pos="l" depth="1" NCoef="0" IVar="0" Cut="4.8827301025390625e+02" cType="1" res="4.6188416890799999e-03" rms="3.2217648625373840e-01" purity="3.5042330622673035e-01" nType="0">
          <Node pos="l" depth="2" NCoef="0" IVar="9" Cut="1.1999329328536987e+00" cType="1" res="2.2638472728431225e-03" rms="3.1563621759414673e-01" purity="2.6687207818031311e-01" nType="0">
            <Node pos="l" depth="3" NCoef="0" IVar="-1" Cut="0.0000000000000000e+00" cType="1" res="5.7568564079701900e-03" rms="3.2275068759918213e-01" purity="2.8956833481788635e-01" nType="-99"/>
            <Node pos="r" depth="3" NCoef="0" IVar="-1" Cut="0.0000000000000000e+00" cType="1" res="-1.8293743953108788e-02" rms="2.7761870622634888e-01" purity="1.5601198375225067e-01" nType="-99"/>
          </Node>
          <Node pos="r" depth="2" NCoef="0" IVar="5" Cut="1.1312564849853516e+02" cType="1" res="1.3569748029112816e-02" rms="3.4576213359832764e-01" purity="6.6798633337020874e-01" nType="0">
            <Node pos="l" depth="3" NCoef="0" IVar="-1" Cut="0.0000000000000000e+00" cType="1" res="-4.8112333752214909e-03" rms="3.6747193336486816e-01" purity="2.6560693979263306e-01" nType="-99"/>
            <Node pos="r" depth="3" NCoef="0" IVar="-1" Cut="0.0000000000000000e+00" cType="1" res="1.7842862755060196e-02" rms="3.3805915713310242e-01" purity="8.0020618438720703e-01" nType="-99"/>
          </Node>
        </Node>
        <Node pos="r" depth="1" NCoef="0" IVar="6" Cut="1.0410985565185547e+02" cType="1" res="-4.2360117658972740e-03" rms="2.4647922813892365e-01" purity="8.9518988132476807e-01" nType="0">
          <Node pos="l" depth="2" NCoef="0" IVar="7" Cut="-1.0095401108264923e-01" cType="1" res="-1.6943547874689102e-02" rms="3.3299496769905090e-01" purity="7.8292381763458252e-01" nType="0">
            <Node pos="l" depth="3" NCoef="0" IVar="-1" Cut="0.0000000000000000e+00" cType="1" res="-2.7873026207089424e-02" rms="3.4642440080642700e-01" purity="7.5034886598587036e-01" nType="-99"/>
            <Node pos="r" depth="3" NCoef="0" IVar="-1" Cut="0.0000000000000000e+00" cType="1" res="-7.1687935851514339e-03" rms="3.2292088866233826e-01" purity="8.0568569898605347e-01" nType="-99"/>
          </Node>
          <Node pos="r" depth="2" NCoef="0" IVar="5" Cut="1.9079621887207031e+02" cType="1" res="3.4091395791620016e-03" rms="1.7445586621761322e-01" purity="9.6273165941238403e-01" nType="0">
            <Node pos="l" depth="3" NCoef="0" IVar="-1" Cut="0.0000000000000000e+00" cType="1" res="-7.2274403646588326e-04" rms="2.3540820181369781e-01" purity="9.2565870285034180e-01" nType="-99"/>
            <Node pos="r" depth="3" NCoef="0" IVar="-1" Cut="0.0000000000000000e+00" cType="1" res="2.0066577941179276e-02" rms="1.4249151945114136e-01" purity="9.7775346040725708e-01" nType="-99"/>
          </Node>
        </Node>
      </Node>
    </BinaryTree>
    <BinaryTree type="DecisionTree" boostWeight="1.0000000000000000e+00" itree="217">
      <Node pos="s" depth="0" NCoef="0" IVar="10" Cut="-1.1999943256378174e+00" cType="1" res="-1.0783675825223327e-03" rms="3.0170911550521851e-01" purity="4.9649795889854431e-01" nType="0">
        <Node pos="l" depth="1" NCoef="0" IVar="8" Cut="-9.3288379907608032e-01" cType="1" res="1.2460533529520035e-02" rms="3.0792748928070068e-01" purity="4.4518372416496277e-01" nType="0">
          <Node pos="l" depth="2" NCoef="0" IVar="-1" Cut="0.0000000000000000e+00" cType="1" res="-1.6109133139252663e-02" rms="2.8178873658180237e-01" purity="2.3390287160873413e-01" nType="-99"/>
          <Node pos="r" depth="2" NCoef="0" IVar="4" Cut="2.3859925842285156e+02" cType="1" res="2.0416883751749992e-02" rms="3.1515663862228394e-01" purity="5.1059406995773315e-01" nType="0">
            <Node pos="l" depth="3" NCoef="0" IVar="-1" Cut="0.0000000000000000e+00" cType="1" res="3.3054176717996597e-02" rms="3.3057168126106262e-01" purity="2.8371986746788025e-01" nType="-99"/>
            <Node pos="r" depth="3" NCoef="0" IVar="-1" Cut="0.0000000000000000e+00" cType="1" res="5.7010590098798275e-03" rms="2.9576605558395386e-01" purity="7.7084714174270630e-01" nType="-99"/>
          </Node>
        </Node>
        <Node pos="r" depth="1" NCoef="0" IVar="10" Cut="1.8476238250732422e+00" cType="1" res="-4.0028225630521774e-03" rms="3.0026885867118835e-01" purity="5.0758200883865356e-01" nType="0">
          <Node pos="l" depth="2" NCoef="0" IVar="7" Cut="1.4692332744598389e+00" cType="1" res="-5.4824170656502247e-03" rms="2.9791507124900818e-01" purity="5.2140384912490845e-01" nType="0">
            <Node pos="l" depth="3" NCoef="0" IVar="-1" Cut="0.0000000000000000e+00" cType="1" res="-6.9554350338876247e-03" rms="3.0118909478187561e-01" purity="5.4604029655456543e-01" nType="-99"/>
            <Node pos="r" depth="3" NCoef="0" IVar="-1" Cut="0.0000000000000000e+00" cType="1" res="1.3798489235341549e-02" rms="2.4074698984622955e-01" purity="1.3710914552211761e-01" nType="-99"/>
          </Node>
          <Node pos="r" depth="2" NCoef="0" IVar="6" Cut="6.7256492614746094e+01" cType="1" res="1.1998942121863365e-02" rms="3.2420513033866882e-01" purity="3.5809949040412903e-01" nType="0">
            <Node pos="l" depth="3" NCoef="0" IVar="-1" Cut="0.0000000000000000e+00" cType="1" res="3.9721935987472534e-02" rms="2.9259017109870911e-01" purity="2.1043045818805695e-01" nType="-99"/>
            <Node pos="r" depth="3" NCoef="0" IVar="-1" Cut="0.0000000000000000e+00" cType="1" res="-7.2539207758381963e-04" rms="3.4436526894569397e-01" purity="4.6313822269439697e-01" nType="-99"/>
          </Node>
        </Node>
      </Node>
    </BinaryTree>
    <BinaryTree type="DecisionTree" boostWeight="1.0000000000000000e+00" itree="218">
      <Node pos="s" depth="0" NCoef="0" IVar="10" Cut="2.2666714191436768e+00" cType="1" res="-3.1404709443449974e-04" rms="2.9964113235473633e-01" purity="5.0230050086975098e-01" nType="0">
        <Node pos="l" depth="1" NCoef="0" IVar="2" Cut="8.0622322857379913e-02" cType="1" res="-1.1036274954676628e-03" rms="2.9906052350997925e-01" purity="5.0773119926452637e-01" nType="0">
          <Node pos="l" depth="2" NCoef="0" IVar="2" Cut="2.6874193921685219e-02" cType="1" res="-3.8563206326216459e-03" rms="3.0389872193336487e-01" purity="4.0159374475479126e-01" nType="0">
            <Node pos="l" depth="3" NCoef="0" IVar="-1" Cut="0.0000000000000000e+00" cType="1" res="-8.1818066537380219e-03" rms="2.8340408205986023e-01" purity="2.6702278852462769e-01" nType="-99"/>
            <Node pos="r" depth="3" NCoef="0" IVar="-1" Cut="0.0000000000000000e+00" cType="1" res="2.2742887085769325e-04" rms="3.2824712991714478e-01" purity="5.7400965690612793e-01" nType="-99"/>
          </Node>
          <Node pos="r" depth="2" NCoef="0" IVar="6" Cut="7.7055725097656250e+01" cType="1" res="6.6575249657034874e-03" rms="2.8483426570892334e-01" purity="8.0698323249816895e-01" nType="0">
            <Node pos="l" depth="3" NCoef="0" IVar="-1" Cut="0.0000000000000000e+00" cType="1" res="2.0235536620020866e-02" rms="3.7444972991943359e-01" purity="4.9630779027938843e-01" nType="-99"/>
            <Node pos="r" depth="3" NCoef="0" IVar="-1" Cut="0.0000000000000000e+00" cType="1" res="3.6878818646073341e-03" rms="2.6244086027145386e-01" purity="8.7092387676239014e-01" nType="-99"/>
          </Node>
        </Node>
        <Node pos="r" depth="1" NCoef="0" IVar="-1" Cut="0.0000000000000000e+00" cType="1" res="2.5981968268752098e-02" rms="3.1639179587364197e-01" purity="3.3109235763549805e-01" nType="-99"/>
      </Node>
    </BinaryTree>
    <BinaryTree type="DecisionTree" boostWeight="1.0000000000000000e+00" itree="219">
      <Node pos="s" depth="0" NCoef="0" IVar="9" Cut="-2.0000004768371582e+00" cType="1" res="2.1221216593403369e-04" rms="2.9977223277091980e-01" purity="5.0059878826141357e-01" nType="0">
        <Node pos="l" depth="1" NCoef="0" IVar="-1" Cut="0.0000000000000000e+00" cType="1" res="2.6241812855005264e-02" rms="3.0318775773048401e-01" purity="2.3687355220317841e-01" nType="-99"/>
        <Node pos="r" depth="1" NCoef="0" IVar="10" Cut="-2.2666587829589844e+00" cType="1" res="-7.2284054476767778e-04" rms="2.9958480596542358e-01" purity="5.1236271858215332e-01" nType="0">
          <Node pos="l" depth="2" NCoef="0" IVar="-1" Cut="0.0000000000000000e+00" cType="1" res="-2.6019409298896790e-02" rms="2.7938777208328247e-01" purity="2.6892659068107605e-01" nType="-99"/>
          <Node pos="r" depth="2" NCoef="0" IVar="5" Cut="9.5686653137207031e+01" cType="1" res="-1.1252380500081927e-04" rms="3.0011084675788879e-01" purity="5.1921343803405762e-01" nType="0">
            <Node pos="l" depth="3" NCoef="0" IVar="-1" Cut="0.0000000000000000e+00" cType="1" res="-8.9297946542501450e-03" rms="2.4200806021690369e-01" purity="1.1267438530921936e-01" nType="-99"/>
            <Node pos="r" depth="3" NCoef="0" IVar="-1" Cut="0.0000000000000000e+00" cType="1" res="1.5624581137672067e-03" rms="3.1537175178527832e-01" purity="6.4059656858444214e-01" nType="-99"/>
          </Node>
        </Node>
      </Node>
    </BinaryTree>
    <BinaryTree type="DecisionTree" boostWeight="1.0000000000000000e+00" itree="220">
      <Node pos="s" depth="0" NCoef="0" IVar="7" Cut="-3.6803272366523743e-01" cType="1" res="1.9509521371219307e-04" rms="3.0129444599151611e-01" purity="4.9815100431442261e-01" nType="0">
        <Node pos="l" depth="1" NCoef="0" IVar="7" Cut="-1.4993681907653809e+00" cType="1" res="5.7718898169696331e-03" rms="3.0014210939407349e-01" purity="4.2972892522811890e-01" nType="0">
          <Node pos="l" depth="2" NCoef="0" IVar="10" Cut="-3.9959663152694702e-01" cType="1" res="-1.4569384977221489e-02" rms="2.0719744265079498e-01" purity="8.1761337816715240e-02" nType="0">
            <Node pos="l" depth="3" NCoef="0" IVar="-1" Cut="0.0000000000000000e+00" cType="1" res="-1.1728140525519848e-02" rms="2.1943522989749908e-01" purity="7.1427978575229645e-02" nType="-99"/>
            <Node pos="r" depth="3" NCoef="0" IVar="-1" Cut="0.0000000000000000e+00" cType="1" res="-3.9840143173933029e-02" rms="1.9514748454093933e-01" purity="9.1098479926586151e-02" nType="-99"/>
          </Node>
          <Node pos="r" depth="2" NCoef="0" IVar="9" Cut="1.3318638503551483e-01" cType="1" res="9.6840225160121918e-03" rms="3.1473699212074280e-01" purity="4.9665176868438721e-01" nType="0">
            <Node pos="l" depth="3" NCoef="0" IVar="-1" Cut="0.0000000000000000e+00" cType="1" res="2.3337828461080790e-03" rms="3.0542063713073730e-01" purity="4.8553237318992615e-01" nType="-99"/>
            <Node pos="r" depth="3" NCoef="0" IVar="-1" Cut="0.0000000000000000e+00" cType="1" res="2.0507669076323509e-02" rms="3.2751384377479553e-01" purity="5.1282531023025513e-01" nType="-99"/>
          </Node>
        </Node>
        <Node pos="r" depth="1" NCoef="0" IVar="8" Cut="-3.9989331364631653e-01" cType="1" res="-2.6329867541790009e-03" rms="3.0183777213096619e-01" purity="5.3284895420074463e-01" nType="0">
          <Node pos="l" depth="2" NCoef="0" IVar="6" Cut="7.4058174133300781e+01" cType="1" res="-9.1131012886762619e-03" rms="3.0414322018623352e-01" purity="4.8136651515960693e-01" nType="0">
            <Node pos="l" depth="3" NCoef="0" IVar="-1" Cut="0.0000000000000000e+00" cType="1" res="-2.5708915665745735e-02" rms="2.7200779318809509e-01" purity="1.8207527697086334e-01" nType="-99"/>
            <Node pos="r" depth="3" NCoef="0" IVar="-1" Cut="0.0000000000000000e+00" cType="1" res="-2.3628689814358950e-03" rms="3.2055035233497620e-01" purity="6.4911168813705444e-01" nType="-99"/>
          </Node>
          <Node pos="r" depth="2" NCoef="0" IVar="9" Cut="3.9972653985023499e-01" cType="1" res="5.3942616796121001e-04" rms="3.0065172910690308e-01" purity="5.5805277824401855e-01" nType="0">
            <Node pos="l" depth="3" NCoef="0" IVar="-1" Cut="0.0000000000000000e+00" cType="1" res="4.5209531672298908e-03" rms="3.0162110924720764e-01" purity="5.9686362743377686e-01" nType="-99"/>
            <Node pos="r" depth="3" NCoef="0" IVar="-1" Cut="0.0000000000000000e+00" cType="1" res="-5.2083176560699940e-03" rms="2.9914355278015137e-01" purity="5.0090074539184570e-01" nType="-99"/>
          </Node>
        </Node>
      </Node>
    </BinaryTree>
    <BinaryTree type="DecisionTree" boostWeight="1.0000000000000000e+00" itree="221">
      <Node pos="s" depth="0" NCoef="0" IVar="9" Cut="-1.2000455856323242e+00" cType="1" res="2.4548491928726435e-03" rms="3.0021277070045471e-01" purity="5.0303184986114502e-01" nType="0">
        <Node pos="l" depth="1" NCoef="0" IVar="10" Cut="-1.1998246908187866e+00" cType="1" res="-8.7681747972965240e-03" rms="2.9404637217521667e-01" purity="3.3417770266532898e-01" nType="0">
          <Node pos="l" depth="2" NCoef="0" IVar="-1" Cut="0.0000000000000000e+00" cType="1" res="-3.5366017371416092e-02" rms="2.6601722836494446e-01" purity="2.1066972613334656e-01" nType="-99"/>
          <Node pos="r" depth="2" NCoef="0" IVar="8" Cut="6.6648137569427490e-01" cType="1" res="-2.9978391248732805e-03" rms="3.0101621150970459e-01" purity="3.6802673339843750e-01" nType="0">
            <Node pos="l" depth="3" NCoef="0" IVar="-1" Cut="0.0000000000000000e+00" cType="1" res="4.1927322745323181e-03" rms="3.0474153161048889e-01" purity="4.0561833977699280e-01" nType="-99"/>
            <Node pos="r" depth="3" NCoef="0" IVar="-1" Cut="0.0000000000000000e+00" cType="1" res="-2.7914285659790039e-02" rms="2.8762340545654297e-01" purity="2.4758182466030121e-01" nType="-99"/>
          </Node>
        </Node>
        <Node pos="r" depth="1" NCoef="0" IVar="10" Cut="-1.1999546289443970e+00" cType="1" res="4.3867030180990696e-03" rms="3.0121931433677673e-01" purity="5.3209728002548218e-01" nType="0">
          <Node pos="l" depth="2" NCoef="0" IVar="2" Cut="2.0141970366239548e-02" cType="1" res="1.8179770559072495e-02" rms="3.1508803367614746e-01" purity="4.9485522508621216e-01" nType="0">
            <Node pos="l" depth="3" NCoef="0" IVar="-1" Cut="0.0000000000000000e+00" cType="1" res="1.0087721748277545e-03" rms="2.6593071222305298e-01" purity="1.9451515376567841e-01" nType="-99"/>
            <Node pos="r" depth="3" NCoef="0" IVar="-1" Cut="0.0000000000000000e+00" cType="1" res="2.5039840489625931e-02" rms="3.3518227934837341e-01" purity="6.3442224264144897e-01" nType="-99"/>
          </Node>
          <Node pos="r" depth="2" NCoef="0" IVar="9" Cut="-5.7259421795606613e-02" cType="1" res="1.5548339579254389e-03" rms="2.9821318387985229e-01" purity="5.3974348306655884e-01" nType="0">
            <Node pos="l" depth="3" NCoef="0" IVar="-1" Cut="0.0000000000000000e+00" cType="1" res="7.2838398627936840e-03" rms="2.9902026057243347e-01" purity="5.8981609344482422e-01" nType="-99"/>
            <Node pos="r" depth="3" NCoef="0" IVar="-1" Cut="0.0000000000000000e+00" cType="1" res="-1.8124949419870973e-03" rms="2.9765245318412781e-01" purity="5.0771290063858032e-01" nType="-99"/>
          </Node>
        </Node>
      </Node>
    </BinaryTree>
    <BinaryTree type="DecisionTree" boostWeight="1.0000000000000000e+00" itree="222">
      <Node pos="s" depth="0" NCoef="0" IVar="8" Cut="-1.1999408006668091e+00" cType="1" res="-1.2577376328408718e-03" rms="3.0047670006752014e-01" purity="5.0011587142944336e-01" nType="0">
        <Node pos="l" depth="1" NCoef="0" IVar="8" Cut="-1.5047034025192261e+00" cType="1" res="9.5114214345812798e-03" rms="3.0386665463447571e-01" purity="2.8658190369606018e-01" nType="0">
          <Node pos="l" depth="2" NCoef="0" IVar="2" Cut="1.0823090560734272e-02" cType="1" res="2.3394166782964021e-04" rms="2.8034657239913940e-01" purity="1.9557598233222961e-01" nType="0">
            <Node pos="l" depth="3" NCoef="0" IVar="-1" Cut="0.0000000000000000e+00" cType="1" res="2.9815044254064560e-02" rms="2.5165465474128723e-01" purity="1.0558404773473740e-01" nType="-99"/>
            <Node pos="r" depth="3" NCoef="0" IVar="-1" Cut="0.0000000000000000e+00" cType="1" res="-1.4040830545127392e-02" rms="3.0189263820648193e-01" purity="2.7204728126525879e-01" nType="-99"/>
          </Node>
          <Node pos="r" depth="2" NCoef="0" IVar="-1" Cut="0.0000000000000000e+00" cType="1" res="2.2780803963541985e-02" rms="3.3589589595794678e-01" purity="4.2446851730346680e-01" nType="-99"/>
        </Node>
        <Node pos="r" depth="1" NCoef="0" IVar="8" Cut="5.1431095600128174e-01" cType="1" res="-2.8422602917999029e-03" rms="2.9994204640388489e-01" purity="5.3153419494628906e-01" nType="0">
          <Node pos="l" depth="2" NCoef="0" IVar="4" Cut="2.4026669311523438e+02" cType="1" res="-6.2873139977455139e-03" rms="2.9608300328254700e-01" purity="5.8976805210113525e-01" nType="0">
            <Node pos="l" depth="3" NCoef="0" IVar="-1" Cut="0.0000000000000000e+00" cType="1" res="-1.4161289669573307e-02" rms="3.1370267271995544e-01" purity="2.8681641817092896e-01" nType="-99"/>
            <Node pos="r" depth="3" NCoef="0" IVar="-1" Cut="0.0000000000000000e+00" cType="1" res="4.4972481555305421e-04" rms="2.8094854950904846e-01" purity="8.3322042226791382e-01" nType="-99"/>
          </Node>
          <Node pos="r" depth="2" NCoef="0" IVar="4" Cut="2.8033541870117188e+02" cType="1" res="3.4504279028624296e-03" rms="3.0676576495170593e-01" purity="4.2516514658927917e-01" nType="0">
            <Node pos="l" depth="3" NCoef="0" IVar="-1" Cut="0.0000000000000000e+00" cType="1" res="1.0225992649793625e-02" rms="3.0953231453895569e-01" purity="2.9273456335067749e-01" nType="-99"/>
            <Node pos="r" depth="3" NCoef="0" IVar="-1" Cut="0.0000000000000000e+00" cType="1" res="-1.2902916409075260e-02" rms="2.9941612482070923e-01" purity="7.4656653404235840e-01" nType="-99"/>
          </Node>
        </Node>
      </Node>
    </BinaryTree>
    <BinaryTree type="DecisionTree" boostWeight="1.0000000000000000e+00" itree="223">
      <Node pos="s" depth="0" NCoef="0" IVar="7" Cut="-6.5987056493759155e-01" cType="1" res="-2.4557110737077892e-04" rms="3.0053722858428955e-01" purity="4.9972817301750183e-01" nType="0">
        <Node pos="l" depth="1" NCoef="0" IVar="0" Cut="6.4161444091796875e+02" cType="1" res="-7.4789230711758137e-03" rms="2.9018607735633850e-01" purity="3.2704502344131470e-01" nType="0">
          <Node pos="l" depth="2" NCoef="0" IVar="5" Cut="1.1314004516601562e+02" cType="1" res="-1.1223038658499718e-02" rms="2.9076138138771057e-01" purity="2.3001725971698761e-01" nType="0">
            <Node pos="l" depth="3" NCoef="0" IVar="-1" Cut="0.0000000000000000e+00" cType="1" res="1.5296990750357509e-03" rms="2.1243819594383240e-01" purity="6.4122647047042847e-02" nType="-99"/>
            <Node pos="r" depth="3" NCoef="0" IVar="-1" Cut="0.0000000000000000e+00" cType="1" res="-1.8409177660942078e-02" rms="3.4943118691444397e-01" purity="3.8924649357795715e-01" nType="-99"/>
          </Node>
          <Node pos="r" depth="2" NCoef="0" IVar="-1" Cut="0.0000000000000000e+00" cType="1" res="1.5498677268624306e-02" rms="2.8619959950447083e-01" purity="8.5265856981277466e-01" nType="-99"/>
        </Node>
        <Node pos="r" depth="1" NCoef="0" IVar="9" Cut="1.1998661756515503e+00" cType="1" res="1.8363689305260777e-03" rms="3.0341914296150208e-01" purity="5.4943072795867920e-01" nType="0">
          <Node pos="l" depth="2" NCoef="0" IVar="7" Cut="1.3168145418167114e+00" cType="1" res="-2.1506169287022203e-04" rms="3.0081453919410706e-01" purity="5.7709467411041260e-01" nType="0">
            <Node pos="l" depth="3" NCoef="0" IVar="-1" Cut="0.0000000000000000e+00" cType="1" res="1.5935042174533010e-03" rms="3.0585116147994995e-01" purity="6.2087023258209229e-01" nType="-99"/>
            <Node pos="r" depth="3" NCoef="0" IVar="-1" Cut="0.0000000000000000e+00" cType="1" res="-2.5487372651696205e-02" rms="2.4440534412860870e-01" purity="1.4104774594306946e-01" nType="-99"/>
          </Node>
          <Node pos="r" depth="2" NCoef="0" IVar="4" Cut="2.8932836914062500e+02" cType="1" res="1.3396498747169971e-02" rms="3.1744986772537231e-01" purity="3.9353981614112854e-01" nType="0">
            <Node pos="l" depth="3" NCoef="0" IVar="-1" Cut="0.0000000000000000e+00" cType="1" res="2.0974803715944290e-02" rms="3.1602859497070312e-01" purity="2.9264408349990845e-01" nType="-99"/>
            <Node pos="r" depth="3" NCoef="0" IVar="-1" Cut="0.0000000000000000e+00" cType="1" res="-7.6585300266742706e-03" rms="3.2118949294090271e-01" purity="7.2601753473281860e-01" nType="-99"/>
          </Node>
        </Node>
      </Node>
    </BinaryTree>
    <BinaryTree type="DecisionTree" boostWeight="1.0000000000000000e+00" itree="224">
      <Node pos="s" depth="0" NCoef="0" IVar="8" Cut="-9.3329501152038574e-01" cType="1" res="5.7158456183969975e-04" rms="2.9914033412933350e-01" purity="4.9897488951683044e-01" nType="0">
        <Node pos="l" depth="1" NCoef="0" IVar="4" Cut="2.5825738525390625e+02" cType="1" res="-7.9358341172337532e-03" rms="2.9546603560447693e-01" purity="3.3147692680358887e-01" nType="0">
          <Node pos="l" depth="2" NCoef="0" IVar="6" Cut="9.7617462158203125e+01" cType="1" res="-2.4473643861711025e-03" rms="2.8552401065826416e-01" purity="2.1287600696086884e-01" nType="0">
            <Node pos="l" depth="3" NCoef="0" IVar="-1" Cut="0.0000000000000000e+00" cType="1" res="-1.2931029312312603e-02" rms="2.5213953852653503e-01" purity="1.1865601688623428e-01" nType="-99"/>
            <Node pos="r" depth="3" NCoef="0" IVar="-1" Cut="0.0000000000000000e+00" cType="1" res="1.4235457405447960e-02" rms="3.7235918641090393e-01" purity="5.1583552360534668e-01" nType="-99"/>
          </Node>
          <Node pos="r" depth="2" NCoef="0" IVar="9" Cut="-1.3329428434371948e-01" cType="1" res="-2.2028837352991104e-02" rms="3.1914898753166199e-01" purity="6.3601410388946533e-01" nType="0">
            <Node pos="l" depth="3" NCoef="0" IVar="-1" Cut="0.0000000000000000e+00" cType="1" res="-2.0391663536429405e-02" rms="3.1144604086875916e-01" purity="6.2072372436523438e-01" nType="-99"/>
            <Node pos="r" depth="3" NCoef="0" IVar="-1" Cut="0.0000000000000000e+00" cType="1" res="-2.2042127326130867e-02" rms="3.2684352993965149e-01" purity="6.5166378021240234e-01" nType="-99"/>
          </Node>
        </Node>
        <Node pos="r" depth="1" NCoef="0" IVar="10" Cut="9.3333321809768677e-01" cType="1" res="2.5020707398653030e-03" rms="2.9993423819541931e-01" purity="5.3698313236236572e-01" nType="0">
          <Node pos="l" depth="2" NCoef="0" IVar="2" Cut="2.0562430843710899e-02" cType="1" res="5.2661816589534283e-03" rms="3.0379331111907959e-01" purity="5.5924004316329956e-01" nType="0">
            <Node pos="l" depth="3" NCoef="0" IVar="-1" Cut="0.0000000000000000e+00" cType="1" res="1.8360733985900879e-02" rms="3.0589586496353149e-01" purity="3.1236287951469421e-01" nType="-99"/>
            <Node pos="r" depth="3" NCoef="0" IVar="-1" Cut="0.0000000000000000e+00" cType="1" res="1.2066669296473265e-04" rms="3.0266383290290833e-01" purity="6.7513316869735718e-01" nType="-99"/>
          </Node>
          <Node pos="r" depth="2" NCoef="0" IVar="0" Cut="4.2644464111328125e+02" cType="1" res="-6.1278846114873886e-03" rms="2.8738155961036682e-01" purity="4.6749398112297058e-01" nType="0">
            <Node pos="l" depth="3" NCoef="0" IVar="-1" Cut="0.0000000000000000e+00" cType="1" res="-1.9751943647861481e-02" rms="2.7614539861679077e-01" purity="1.8270173668861389e-01" nType="-99"/>
            <Node pos="r" depth="3" NCoef="0" IVar="-1" Cut="0.0000000000000000e+00" cType="1" res="3.6193360574543476e-03" rms="2.9650977253913879e-01" purity="7.1585863828659058e-01" nType="-99"/>
          </Node>
        </Node>
      </Node>
    </BinaryTree>
    <BinaryTree type="DecisionTree" boostWeight="1.0000000000000000e+00" itree="225">
      <Node pos="s" depth="0" NCoef="0" IVar="8" Cut="1.7333329916000366e+00" cType="1" res="9.1737223556265235e-04" rms="2.9852819442749023e-01" purity="5.0331729650497437e-01" nType="0">
        <Node pos="l" depth="1" NCoef="0" IVar="5" Cut="1.3967532348632812e+02" cType="1" res="1.8107086652889848e-03" rms="3.0128663778305054e-01" purity="5.2435433864593506e-01" nType="0">
          <Node pos="l" depth="2" NCoef="0" IVar="6" Cut="7.9826423645019531e+01" cType="1" res="-2.2123430389910936e-03" rms="3.0372557044029236e-01" purity="2.2272111475467682e-01" nType="0">
            <Node pos="l" depth="3" NCoef="0" IVar="-1" Cut="0.0000000000000000e+00" cType="1" res="4.0852790698409081e-03" rms="2.8216758370399475e-01" purity="1.5905632078647614e-01" nType="-99"/>
            <Node pos="r" depth="3" NCoef="0" IVar="-1" Cut="0.0000000000000000e+00" cType="1" res="-1.1490229517221451e-02" rms="3.4850707650184631e-01" purity="3.7106546759605408e-01" nType="-99"/>
          </Node>
          <Node pos="r" depth="2" NCoef="0" IVar="2" Cut="6.3986323773860931e-02" cType="1" res="5.2584726363420486e-03" rms="2.9913759231567383e-01" purity="7.8285461664199829e-01" nType="0">
            <Node pos="l" depth="3" NCoef="0" IVar="-1" Cut="0.0000000000000000e+00" cType="1" res="8.5302852094173431e-03" rms="3.3457139134407043e-01" purity="6.7801237106323242e-01" nType="-99"/>
            <Node pos="r" depth="3" NCoef="0" IVar="-1" Cut="0.0000000000000000e+00" cType="1" res="5.6903209770098329e-04" rms="2.5486743450164795e-01" purity="8.9715415239334106e-01" nType="-99"/>
          </Node>
        </Node>
        <Node pos="r" depth="1" NCoef="0" IVar="8" Cut="2.0888888835906982e+00" cType="1" res="-1.5101226046681404e-02" rms="2.4326914548873901e-01" purity="1.2609758973121643e-01" nType="0">
          <Node pos="l" depth="2" NCoef="0" IVar="-1" Cut="0.0000000000000000e+00" cType="1" res="-1.8551601096987724e-02" rms="2.8209963440895081e-01" purity="1.7546951770782471e-01" nType="-99"/>
          <Node pos="r" depth="2" NCoef="0" IVar="-1" Cut="0.0000000000000000e+00" cType="1" res="-2.7440859004855156e-02" rms="1.9606588780879974e-01" purity="7.5908720493316650e-02" nType="-99"/>
        </Node>
      </Node>
    </BinaryTree>
    <BinaryTree type="DecisionTree" boostWeight="1.0000000000000000e+00" itree="226">
      <Node pos="s" depth="0" NCoef="0" IVar="9" Cut="-1.3334080576896667e-01" cType="1" res="-3.7370021454989910e-03" rms="2.9701271653175354e-01" purity="4.9613946676254272e-01" nType="0">
        <Node pos="l" depth="1" NCoef="0" IVar="4" Cut="1.4677491760253906e+02" cType="1" res="1.7053791088983417e-03" rms="3.0149036645889282e-01" purity="4.9043717980384827e-01" nType="0">
          <Node pos="l" depth="2" NCoef="0" IVar="9" Cut="-1.4031773805618286e+00" cType="1" res="-1.1882204562425613e-02" rms="2.0645095407962799e-01" purity="5.9100374579429626e-02" nType="0">
            <Node pos="l" depth="3" NCoef="0" IVar="-1" Cut="0.0000000000000000e+00" cType="1" res="1.2470829300582409e-02" rms="2.2060495615005493e-01" purity="6.9155924022197723e-02" nType="-99"/>
            <Node pos="r" depth="3" NCoef="0" IVar="-1" Cut="0.0000000000000000e+00" cType="1" res="-4.1609462350606918e-02" rms="1.9733829796314240e-01" purity="5.3428806364536285e-02" nType="-99"/>
          </Node>
          <Node pos="r" depth="2" NCoef="0" IVar="5" Cut="1.3511802673339844e+02" cType="1" res="5.1831454038619995e-03" rms="3.2123672962188721e-01" purity="6.0083860158920288e-01" nType="0">
            <Node pos="l" depth="3" NCoef="0" IVar="-1" Cut="0.0000000000000000e+00" cType="1" res="1.4108664356172085e-02" rms="3.5177266597747803e-01" purity="3.0891096591949463e-01" nType="-99"/>
            <Node pos="r" depth="3" NCoef="0" IVar="-1" Cut="0.0000000000000000e+00" cType="1" res="-3.5760831087827682e-04" rms="3.0433768033981323e-01" purity="7.4972599744796753e-01" nType="-99"/>
          </Node>
        </Node>
        <Node pos="r" depth="1" NCoef="0" IVar="1" Cut="1.9896199951171875e+03" cType="1" res="-8.2735307514667511e-03" rms="2.9315090179443359e-01" purity="5.0089263916015625e-01" nType="0">
          <Node pos="l" depth="2" NCoef="0" IVar="5" Cut="8.9855865478515625e+01" cType="1" res="-1.1748906224966049e-02" rms="3.1586283445358276e-01" purity="3.7433055043220520e-01" nType="0">
            <Node pos="l" depth="3" NCoef="0" IVar="-1" Cut="0.0000000000000000e+00" cType="1" res="-1.4822713565081358e-03" rms="2.3746840655803680e-01" purity="8.8481962680816650e-02" nType="-99"/>
            <Node pos="r" depth="3" NCoef="0" IVar="-1" Cut="0.0000000000000000e+00" cType="1" res="-1.3321844860911369e-02" rms="3.3848723769187927e-01" purity="4.7224712371826172e-01" nType="-99"/>
          </Node>
          <Node pos="r" depth="2" NCoef="0" IVar="7" Cut="-2.5457671284675598e-01" cType="1" res="3.9796130731701851e-03" rms="1.9229580461978912e-01" purity="9.4711297750473022e-01" nType="0">
            <Node pos="l" depth="3" NCoef="0" IVar="-1" Cut="0.0000000000000000e+00" cType="1" res="-1.1225673370063305e-02" rms="2.0630122721195221e-01" purity="9.3292742967605591e-01" nType="-99"/>
            <Node pos="r" depth="3" NCoef="0" IVar="-1" Cut="0.0000000000000000e+00" cType="1" res="1.9054055213928223e-02" rms="1.8544930219650269e-01" purity="9.5354819297790527e-01" nType="-99"/>
          </Node>
        </Node>
      </Node>
    </BinaryTree>
    <BinaryTree type="DecisionTree" boostWeight="1.0000000000000000e+00" itree="227">
      <Node pos="s" depth="0" NCoef="0" IVar="9" Cut="-1.4666872024536133e+00" cType="1" res="2.6054700720123947e-04" rms="2.9993104934692383e-01" purity="5.0303047895431519e-01" nType="0">
        <Node pos="l" depth="1" NCoef="0" IVar="9" Cut="-1.9746167659759521e+00" cType="1" res="-1.2271036393940449e-02" rms="2.9649636149406433e-01" purity="2.8237125277519226e-01" nType="0">
          <Node pos="l" depth="2" NCoef="0" IVar="-1" Cut="0.0000000000000000e+00" cType="1" res="1.0267153847962618e-03" rms="2.9840537905693054e-01" purity="2.1828661859035492e-01" nType="-99"/>
          <Node pos="r" depth="2" NCoef="0" IVar="8" Cut="-1.3345789909362793e-01" cType="1" res="-2.2075107321143150e-02" rms="2.9467985033988953e-01" purity="3.3029064536094666e-01" nType="0">
            <Node pos="l" depth="3" NCoef="0" IVar="-1" Cut="0.0000000000000000e+00" cType="1" res="-1.3098356314003468e-02" rms="2.9253122210502625e-01" purity="3.2094010710716248e-01" nType="-99"/>
            <Node pos="r" depth="3" NCoef="0" IVar="-1" Cut="0.0000000000000000e+00" cType="1" res="-3.2315842807292938e-02" rms="2.9657647013664246e-01" purity="3.4023439884185791e-01" nType="-99"/>
          </Node>
        </Node>
        <Node pos="r" depth="1" NCoef="0" IVar="9" Cut="3.6185845732688904e-01" cType="1" res="1.6209033783525229e-03" rms="3.0027005076408386e-01" purity="5.2698391675949097e-01" nType="0">
          <Node pos="l" depth="2" NCoef="0" IVar="2" Cut="4.2633395642042160e-02" cType="1" res="-1.6847649822011590e-03" rms="2.9582947492599487e-01" purity="5.6404387950897217e-01" nType="0">
            <Node pos="l" depth="3" NCoef="0" IVar="-1" Cut="0.0000000000000000e+00" cType="1" res="-7.4040293693542480e-03" rms="2.9785472154617310e-01" purity="3.7838160991668701e-01" nType="-99"/>
            <Node pos="r" depth="3" NCoef="0" IVar="-1" Cut="0.0000000000000000e+00" cType="1" res="4.5390198938548565e-03" rms="2.9352825880050659e-01" purity="7.6438176631927490e-01" nType="-99"/>
          </Node>
          <Node pos="r" depth="2" NCoef="0" IVar="1" Cut="1.0943895263671875e+03" cType="1" res="6.1805848963558674e-03" rms="3.0623102188110352e-01" purity="4.7586512565612793e-01" nType="0">
            <Node pos="l" depth="3" NCoef="0" IVar="-1" Cut="0.0000000000000000e+00" cType="1" res="-1.0021694935858250e-02" rms="2.0251904428005219e-01" purity="4.7805361449718475e-02" nType="-99"/>
            <Node pos="r" depth="3" NCoef="0" IVar="-1" Cut="0.0000000000000000e+00" cType="1" res="9.3032158911228180e-03" rms="3.3570164442062378e-01" purity="6.2980604171752930e-01" nType="-99"/>
          </Node>
        </Node>
      </Node>
    </BinaryTree>
    <BinaryTree type="DecisionTree" boostWeight="1.0000000000000000e+00" itree="228">
      <Node pos="s" depth="0" NCoef="0" IVar="7" Cut="-3.8567748665809631e-01" cType="1" res="-4.9765367293730378e-04" rms="3.0032137036323547e-01" purity="4.9717459082603455e-01" nType="0">
        <Node pos="l" depth="1" NCoef="0" IVar="3" Cut="4.5449499511718750e+02" cType="1" res="5.5499356240034103e-03" rms="3.0376684665679932e-01" purity="4.2506286501884460e-01" nType="0">
          <Node pos="l" depth="2" NCoef="0" IVar="10" Cut="-6.6638678312301636e-01" cType="1" res="1.0268678888678551e-02" rms="3.0570194125175476e-01" purity="3.2760438323020935e-01" nType="0">
            <Node pos="l" depth="3" NCoef="0" IVar="-1" Cut="0.0000000000000000e+00" cType="1" res="-4.4053574674762785e-04" rms="2.9266631603240967e-01" purity="2.7562364935874939e-01" nType="-99"/>
            <Node pos="r" depth="3" NCoef="0" IVar="-1" Cut="0.0000000000000000e+00" cType="1" res="1.7701826989650726e-02" rms="3.1258091330528259e-01" purity="3.5660174489021301e-01" nType="-99"/>
          </Node>
          <Node pos="r" depth="2" NCoef="0" IVar="7" Cut="-1.0343813896179199e+00" cType="1" res="-4.4517838396131992e-03" rms="2.9937818646430969e-01" purity="6.3163316249847412e-01" nType="0">
            <Node pos="l" depth="3" NCoef="0" IVar="-1" Cut="0.0000000000000000e+00" cType="1" res="-3.5008002072572708e-02" rms="2.8294214606285095e-01" purity="3.1535935401916504e-01" nType="-99"/>
            <Node pos="r" depth="3" NCoef="0" IVar="-1" Cut="0.0000000000000000e+00" cType="1" res="5.0149438902735710e-03" rms="3.0408564209938049e-01" purity="7.3663502931594849e-01" nType="-99"/>
          </Node>
        </Node>
        <Node pos="r" depth="1" NCoef="0" IVar="9" Cut="-1.7333745956420898e+00" cType="1" res="-3.5074071492999792e-03" rms="2.9854613542556763e-01" purity="5.3306305408477783e-01" nType="0">
          <Node pos="l" depth="2" NCoef="0" IVar="-1" Cut="0.0000000000000000e+00" cType="1" res="-2.3811420425772667e-02" rms="2.9253435134887695e-01" purity="2.6413252949714661e-01" nType="-99"/>
          <Node pos="r" depth="2" NCoef="0" IVar="9" Cut="-8.6990880966186523e-01" cType="1" res="-2.4036786053329706e-03" rms="2.9886236786842346e-01" purity="5.4900795221328735e-01" nType="0">
            <Node pos="l" depth="3" NCoef="0" IVar="-1" Cut="0.0000000000000000e+00" cType="1" res="1.0781629942357540e-02" rms="3.2115510106086731e-01" purity="5.2478492259979248e-01" nType="-99"/>
            <Node pos="r" depth="3" NCoef="0" IVar="-1" Cut="0.0000000000000000e+00" cType="1" res="-5.3436802700161934e-03" rms="2.9462179541587830e-01" purity="5.5335682630538940e-01" nType="-99"/>
          </Node>
        </Node>
      </Node>
    </BinaryTree>
    <BinaryTree type="DecisionTree" boostWeight="1.0000000000000000e+00" itree="229">
      <Node pos="s" depth="0" NCoef="0" IVar="4" Cut="2.3760939025878906e+02" cType="1" res="-9.4307970721274614e-04" rms="2.9863366484642029e-01" purity="4.9840345978736877e-01" nType="0">
        <Node pos="l" depth="1" NCoef="0" IVar="7" Cut="6.8511205911636353e-01" cType="1" res="-4.4946721754968166e-03" rms="3.0092743039131165e-01" purity="2.3845671117305756e-01" nType="0">
          <Node pos="l" depth="2" NCoef="0" IVar="5" Cut="1.2122354888916016e+02" cType="1" res="-8.9022526517510414e-03" rms="3.0911213159561157e-01" purity="2.6657584309577942e-01" nType="0">
            <Node pos="l" depth="3" NCoef="0" IVar="-1" Cut="0.0000000000000000e+00" cType="1" res="-6.1316549545153975e-04" rms="2.7361091971397400e-01" purity="1.2568293511867523e-01" nType="-99"/>
            <Node pos="r" depth="3" NCoef="0" IVar="-1" Cut="0.0000000000000000e+00" cType="1" res="-1.6619091853499413e-02" rms="3.5750380158424377e-01" purity="4.8824343085289001e-01" nType="-99"/>
          </Node>
          <Node pos="r" depth="2" NCoef="0" IVar="7" Cut="9.8721331357955933e-01" cType="1" res="7.2974562644958496e-03" rms="2.7750304341316223e-01" purity="1.6322630643844604e-01" nType="0">
            <Node pos="l" depth="3" NCoef="0" IVar="-1" Cut="0.0000000000000000e+00" cType="1" res="2.3987149819731712e-02" rms="3.3575546741485596e-01" purity="2.8195756673812866e-01" nType="-99"/>
            <Node pos="r" depth="3" NCoef="0" IVar="-1" Cut="0.0000000000000000e+00" cType="1" res="-8.2161504542455077e-04" rms="2.4612040817737579e-01" purity="1.0925727337598801e-01" nType="-99"/>
          </Node>
        </Node>
        <Node pos="r" depth="1" NCoef="0" IVar="7" Cut="4.3119853734970093e-01" cType="1" res="2.8495232108980417e-03" rms="2.9611760377883911e-01" purity="7.7599012851715088e-01" nType="0">
          <Node pos="l" depth="2" NCoef="0" IVar="8" Cut="9.3305063247680664e-01" cType="1" res="6.2280399724841118e-03" rms="2.9119685292243958e-01" purity="8.0121773481369019e-01" nType="0">
            <Node pos="l" depth="3" NCoef="0" IVar="-1" Cut="0.0000000000000000e+00" cType="1" res="1.1112008243799210e-02" rms="2.8707146644592285e-01" purity="8.2558560371398926e-01" nType="-99"/>
            <Node pos="r" depth="3" NCoef="0" IVar="-1" Cut="0.0000000000000000e+00" cType="1" res="-1.2256900779902935e-02" rms="3.1609690189361572e-01" purity="6.4267730712890625e-01" nType="-99"/>
          </Node>
          <Node pos="r" depth="2" NCoef="0" IVar="9" Cut="-6.6672915220260620e-01" cType="1" res="-5.9019122272729874e-03" rms="3.0832704901695251e-01" purity="7.1064263582229614e-01" nType="0">
            <Node pos="l" depth="3" NCoef="0" IVar="-1" Cut="0.0000000000000000e+00" cType="1" res="-2.9709048569202423e-02" rms="3.3082622289657593e-01" purity="5.9953624010086060e-01" nType="-99"/>
            <Node pos="r" depth="3" NCoef="0" IVar="-1" Cut="0.0000000000000000e+00" cType="1" res="1.0294624371454120e-03" rms="3.0167150497436523e-01" purity="7.4028635025024414e-01" nType="-99"/>
          </Node>
        </Node>
      </Node>
    </BinaryTree>
    <BinaryTree type="DecisionTree" boostWeight="1.0000000000000000e+00" itree="230">
      <Node pos="s" depth="0" NCoef="0" IVar="0" Cut="4.5299456787109375e+02" cType="1" res="2.7928499039262533e-03" rms="3.0296453833580017e-01" purity="5.0319725275039673e-01" nType="0">
        <Node pos="l" depth="1" NCoef="0" IVar="4" Cut="2.5957781982421875e+02" cType="1" res="7.0820143446326256e-03" rms="3.1435623764991760e-01" purity="2.4045619368553162e-01" nType="0">
          <Node pos="l" depth="2" NCoef="0" IVar="8" Cut="3.9994907379150391e-01" cType="1" res="4.0443120524287224e-03" rms="2.8857541084289551e-01" purity="1.4389048516750336e-01" nType="0">
            <Node pos="l" depth="3" NCoef="0" IVar="-1" Cut="0.0000000000000000e+00" cType="1" res="-2.4441287387162447e-03" rms="2.8789862990379333e-01" purity="1.4335931837558746e-01" nType="-99"/>
            <Node pos="r" depth="3" NCoef="0" IVar="-1" Cut="0.0000000000000000e+00" cType="1" res="1.7827885225415230e-02" rms="2.8938201069831848e-01" purity="1.4472444355487823e-01" nType="-99"/>
          </Node>
          <Node pos="r" depth="2" NCoef="0" IVar="5" Cut="1.4318960571289062e+02" cType="1" res="1.6681704670190811e-02" rms="3.8447454571723938e-01" purity="5.4562133550643921e-01" nType="0">
            <Node pos="l" depth="3" NCoef="0" IVar="-1" Cut="0.0000000000000000e+00" cType="1" res="3.7461165338754654e-02" rms="3.9963349699974060e-01" purity="3.2524174451828003e-01" nType="-99"/>
            <Node pos="r" depth="3" NCoef="0" IVar="-1" Cut="0.0000000000000000e+00" cType="1" res="-1.1926102160941809e-04" rms="3.7605115771293640e-01" purity="6.4777427911758423e-01" nType="-99"/>
          </Node>
        </Node>
        <Node pos="r" depth="1" NCoef="0" IVar="8" Cut="1.4663368463516235e+00" cType="1" res="-1.6204687999561429e-03" rms="2.9071155190467834e-01" purity="7.7354359626770020e-01" nType="0">
          <Node pos="l" depth="2" NCoef="0" IVar="8" Cut="1.0600090026855469e+00" cType="1" res="-3.8229622878134251e-03" rms="2.8608277440071106e-01" purity="7.8939968347549438e-01" nType="0">
            <Node pos="l" depth="3" NCoef="0" IVar="-1" Cut="0.0000000000000000e+00" cType="1" res="-2.6840378995984793e-03" rms="2.8460115194320679e-01" purity="7.9556769132614136e-01" nType="-99"/>
            <Node pos="r" depth="3" NCoef="0" IVar="-1" Cut="0.0000000000000000e+00" cType="1" res="-2.6531619951128960e-02" rms="3.0431136488914490e-01" purity="7.0705121755599976e-01" nType="-99"/>
          </Node>
          <Node pos="r" depth="2" NCoef="0" IVar="-1" Cut="0.0000000000000000e+00" cType="1" res="2.9224656522274017e-02" rms="3.6052453517913818e-01" purity="4.9407342076301575e-01" nType="-99"/>
        </Node>
      </Node>
    </BinaryTree>
    <BinaryTree type="DecisionTree" boostWeight="1.0000000000000000e+00" itree="231">
      <Node pos="s" depth="0" NCoef="0" IVar="8" Cut="3.9982864260673523e-01" cType="1" res="-9.4095426902640611e-05" rms="3.0097708106040955e-01" purity="4.9779698252677917e-01" nType="0">
        <Node pos="l" depth="1" NCoef="0" IVar="6" Cut="7.7676254272460938e+01" cType="1" res="3.0357511714100838e-03" rms="3.0222004652023315e-01" purity="5.2825337648391724e-01" nType="0">
          <Node pos="l" depth="2" NCoef="0" IVar="8" Cut="-2.0966708660125732e-01" cType="1" res="8.6902724578976631e-03" rms="2.9975455999374390e-01" purity="2.5135332345962524e-01" nType="0">
            <Node pos="l" depth="3" NCoef="0" IVar="-1" Cut="0.0000000000000000e+00" cType="1" res="1.8082663416862488e-02" rms="2.9822847247123718e-01" purity="2.2797459363937378e-01" nType="-99"/>
            <Node pos="r" depth="3" NCoef="0" IVar="-1" Cut="0.0000000000000000e+00" cType="1" res="-6.1944262124598026e-03" rms="3.0277955532073975e-01" purity="3.0588594079017639e-01" nType="-99"/>
          </Node>
          <Node pos="r" depth="2" NCoef="0" IVar="7" Cut="-1.1924291849136353e+00" cType="1" res="-6.4109289087355137e-04" rms="3.0375602841377258e-01" purity="7.0830732583999634e-01" nType="0">
            <Node pos="l" depth="3" NCoef="0" IVar="-1" Cut="0.0000000000000000e+00" cType="1" res="2.7220658957958221e-02" rms="3.5188204050064087e-01" purity="3.7780061364173889e-01" nType="-99"/>
            <Node pos="r" depth="3" NCoef="0" IVar="-1" Cut="0.0000000000000000e+00" cType="1" res="-3.3699746709316969e-03" rms="2.9924109578132629e-01" purity="7.3604494333267212e-01" nType="-99"/>
          </Node>
        </Node>
        <Node pos="r" depth="1" NCoef="0" IVar="8" Cut="8.5695683956146240e-01" cType="1" res="-5.9899725019931793e-03" rms="2.9853242635726929e-01" purity="4.4042438268661499e-01" nType="0">
          <Node pos="l" depth="2" NCoef="0" IVar="7" Cut="-3.6049848794937134e-01" cType="1" res="-1.5512345358729362e-02" rms="2.9654297232627869e-01" purity="5.6266236305236816e-01" nType="0">
            <Node pos="l" depth="3" NCoef="0" IVar="-1" Cut="0.0000000000000000e+00" cType="1" res="5.2674845792353153e-03" rms="3.1086894869804382e-01" purity="5.3459268808364868e-01" nType="-99"/>
            <Node pos="r" depth="3" NCoef="0" IVar="-1" Cut="0.0000000000000000e+00" cType="1" res="-2.8779277577996254e-02" rms="2.8916567564010620e-01" purity="5.7568639516830444e-01" nType="-99"/>
          </Node>
          <Node pos="r" depth="2" NCoef="0" IVar="6" Cut="7.7220474243164062e+01" cType="1" res="5.1888241432607174e-04" rms="2.9971069097518921e-01" purity="3.5687071084976196e-01" nType="0">
            <Node pos="l" depth="3" NCoef="0" IVar="-1" Cut="0.0000000000000000e+00" cType="1" res="-1.4594384469091892e-02" rms="2.6226076483726501e-01" purity="1.2556774914264679e-01" nType="-99"/>
            <Node pos="r" depth="3" NCoef="0" IVar="-1" Cut="0.0000000000000000e+00" cType="1" res="9.2058060690760612e-03" rms="3.2876360416412354e-01" purity="5.5970448255538940e-01" nType="-99"/>
          </Node>
        </Node>
      </Node>
    </BinaryTree>
    <BinaryTree type="DecisionTree" boostWeight="1.0000000000000000e+00" itree="232">
      <Node pos="s" depth="0" NCoef="0" IVar="9" Cut="-9.3336319923400879e-01" cType="1" res="1.8614727305248380e-03" rms="3.0022561550140381e-01" purity="5.0118815898895264e-01" nType="0">
        <Node pos="l" depth="1" NCoef="0" IVar="9" Cut="-1.2889254093170166e+00" cType="1" res="-5.3440555930137634e-03" rms="2.9993930459022522e-01" purity="3.8549911975860596e-01" nType="0">
          <Node pos="l" depth="2" NCoef="0" IVar="7" Cut="-1.0758800804615021e-01" cType="1" res="2.2899061441421509e-03" rms="3.0285766720771790e-01" purity="3.3721131086349487e-01" nType="0">
            <Node pos="l" depth="3" NCoef="0" IVar="-1" Cut="0.0000000000000000e+00" cType="1" res="1.7974685877561569e-02" rms="3.0934056639671326e-01" purity="3.3977741003036499e-01" nType="-99"/>
            <Node pos="r" depth="3" NCoef="0" IVar="-1" Cut="0.0000000000000000e+00" cType="1" res="-1.3334833085536957e-02" rms="2.9483121633529663e-01" purity="3.3438929915428162e-01" nType="-99"/>
          </Node>
          <Node pos="r" depth="2" NCoef="0" IVar="1" Cut="1.3458684082031250e+03" cType="1" res="-1.8634628504514694e-02" rms="2.9431745409965515e-01" purity="4.6956723928451538e-01" nType="0">
            <Node pos="l" depth="3" NCoef="0" IVar="-1" Cut="0.0000000000000000e+00" cType="1" res="-4.2241837829351425e-02" rms="2.6189953088760376e-01" purity="1.1323459446430206e-01" nType="-99"/>
            <Node pos="r" depth="3" NCoef="0" IVar="-1" Cut="0.0000000000000000e+00" cType="1" res="-2.7955302502959967e-03" rms="3.1903555989265442e-01" purity="7.7991074323654175e-01" nType="-99"/>
          </Node>
        </Node>
        <Node pos="r" depth="1" NCoef="0" IVar="3" Cut="3.5189874267578125e+02" cType="1" res="3.7577468901872635e-03" rms="3.0027216672897339e-01" purity="5.3163397312164307e-01" nType="0">
          <Node pos="l" depth="2" NCoef="0" IVar="2" Cut="6.2696546316146851e-02" cType="1" res="9.7408397123217583e-03" rms="3.1297987699508667e-01" purity="3.0938190221786499e-01" nType="0">
            <Node pos="l" depth="3" NCoef="0" IVar="-1" Cut="0.0000000000000000e+00" cType="1" res="1.5221920330077410e-03" rms="2.8597751259803772e-01" purity="1.6731506586074829e-01" nType="-99"/>
            <Node pos="r" depth="3" NCoef="0" IVar="-1" Cut="0.0000000000000000e+00" cType="1" res="2.1756965667009354e-02" rms="3.6117914319038391e-01" purity="5.9876865148544312e-01" nType="-99"/>
          </Node>
          <Node pos="r" depth="2" NCoef="0" IVar="7" Cut="-1.0972889661788940e+00" cType="1" res="1.1890853056684136e-04" rms="2.9221352934837341e-01" purity="6.6680479049682617e-01" nType="0">
            <Node pos="l" depth="3" NCoef="0" IVar="-1" Cut="0.0000000000000000e+00" cType="1" res="1.9180780276656151e-02" rms="3.0161955952644348e-01" purity="3.4913930296897888e-01" nType="-99"/>
            <Node pos="r" depth="3" NCoef="0" IVar="-1" Cut="0.0000000000000000e+00" cType="1" res="-1.6337089473381639e-03" rms="2.9131770133972168e-01" purity="6.9490635395050049e-01" nType="-99"/>
          </Node>
        </Node>
      </Node>
    </BinaryTree>
    <BinaryTree type="DecisionTree" boostWeight="1.0000000000000000e+00" itree="233">
      <Node pos="s" depth="0" NCoef="0" IVar="9" Cut="1.7332569360733032e+00" cType="1" res="-5.5802066344767809e-04" rms="2.9906243085861206e-01" purity="5.0334775447845459e-01" nType="0">
        <Node pos="l" depth="1" NCoef="0" IVar="5" Cut="2.1668768310546875e+02" cType="1" res="-1.6762368613854051e-03" rms="2.9877808690071106e-01" purity="5.2059334516525269e-01" nType="0">
          <Node pos="l" depth="2" NCoef="0" IVar="3" Cut="3.5189852905273438e+02" cType="1" res="-3.9987340569496155e-03" rms="3.1698289513587952e-01" purity="3.8925850391387939e-01" nType="0">
            <Node pos="l" depth="3" NCoef="0" IVar="-1" Cut="0.0000000000000000e+00" cType="1" res="-9.3656061217188835e-03" rms="3.0137202143669128e-01" purity="2.3880249261856079e-01" nType="-99"/>
            <Node pos="r" depth="3" NCoef="0" IVar="-1" Cut="0.0000000000000000e+00" cType="1" res="2.3007978597888723e-05" rms="3.2978859543800354e-01" purity="5.1889562606811523e-01" nType="-99"/>
          </Node>
          <Node pos="r" depth="2" NCoef="0" IVar="1" Cut="1.6301453857421875e+03" cType="1" res="5.1615126430988312e-03" rms="2.3707059025764465e-01" purity="9.0726095438003540e-01" nType="0">
            <Node pos="l" depth="3" NCoef="0" IVar="-1" Cut="0.0000000000000000e+00" cType="1" res="1.5749400481581688e-02" rms="3.6706426739692688e-01" purity="7.2071737051010132e-01" nType="-99"/>
            <Node pos="r" depth="3" NCoef="0" IVar="-1" Cut="0.0000000000000000e+00" cType="1" res="4.4271158985793591e-03" rms="2.0296023786067963e-01" purity="9.4275873899459839e-01" nType="-99"/>
          </Node>
        </Node>
        <Node pos="r" depth="1" NCoef="0" IVar="9" Cut="2.1903920173645020e+00" cType="1" res="1.4532954432070255e-02" rms="3.0246949195861816e-01" purity="2.7060872316360474e-01" nType="0">
          <Node pos="l" depth="2" NCoef="0" IVar="-1" Cut="0.0000000000000000e+00" cType="1" res="2.4892982095479965e-02" rms="3.1728678941726685e-01" purity="3.2917475700378418e-01" nType="-99"/>
          <Node pos="r" depth="2" NCoef="0" IVar="-1" Cut="0.0000000000000000e+00" cType="1" res="1.7826992552727461e-03" rms="2.7885812520980835e-01" purity="1.8493403494358063e-01" nType="-99"/>
        </Node>
      </Node>
    </BinaryTree>
    <BinaryTree type="DecisionTree" boostWeight="1.0000000000000000e+00" itree="234">
      <Node pos="s" depth="0" NCoef="0" IVar="10" Cut="2.2666556835174561e+00" cType="1" res="-1.4669462107121944e-03" rms="2.9733225703239441e-01" purity="4.9744582176208496e-01" nType="0">
        <Node pos="l" depth="1" NCoef="0" IVar="9" Cut="6.6655105352401733e-01" cType="1" res="-4.6446500346064568e-04" rms="2.9802858829498291e-01" purity="5.0433903932571411e-01" nType="0">
          <Node pos="l" depth="2" NCoef="0" IVar="6" Cut="7.7955299377441406e+01" cType="1" res="2.1997005678713322e-03" rms="2.9550975561141968e-01" purity="5.3033572435379028e-01" nType="0">
            <Node pos="l" depth="3" NCoef="0" IVar="-1" Cut="0.0000000000000000e+00" cType="1" res="8.6346957832574844e-03" rms="2.9038727283477783e-01" purity="2.5150668621063232e-01" nType="-99"/>
            <Node pos="r" depth="3" NCoef="0" IVar="-1" Cut="0.0000000000000000e+00" cType="1" res="-1.2316580396145582e-03" rms="2.9869702458381653e-01" purity="7.0891815423965454e-01" nType="-99"/>
          </Node>
          <Node pos="r" depth="2" NCoef="0" IVar="3" Cut="3.2477624511718750e+02" cType="1" res="-7.4247601442039013e-03" rms="3.0440089106559753e-01" purity="4.3642109632492065e-01" nType="0">
            <Node pos="l" depth="3" NCoef="0" IVar="-1" Cut="0.0000000000000000e+00" cType="1" res="1.1611704248934984e-03" rms="2.9977396130561829e-01" purity="2.2811885178089142e-01" nType="-99"/>
            <Node pos="r" depth="3" NCoef="0" IVar="-1" Cut="0.0000000000000000e+00" cType="1" res="-1.2615715153515339e-02" rms="3.0679228901863098e-01" purity="5.4977792501449585e-01" nType="-99"/>
          </Node>
        </Node>
        <Node pos="r" depth="1" NCoef="0" IVar="-1" Cut="0.0000000000000000e+00" cType="1" res="-4.1162956506013870e-02" rms="2.6960021257400513e-01" purity="2.5694820284843445e-01" nType="-99"/>
      </Node>
    </BinaryTree>
    <BinaryTree type="DecisionTree" boostWeight="1.0000000000000000e+00" itree="235">
      <Node pos="s" depth="0" NCoef="0" IVar="7" Cut="-3.7102395296096802e-01" cType="1" res="9.4399595400318503e-04" rms="3.0038794875144958e-01" purity="5.0234913825988770e-01" nType="0">
        <Node pos="l" depth="1" NCoef="0" IVar="3" Cut="4.6587319946289062e+02" cType="1" res="-5.4157567210495472e-03" rms="2.9655250906944275e-01" purity="4.2557215690612793e-01" nType="0">
          <Node pos="l" depth="2" NCoef="0" IVar="5" Cut="1.4549935913085938e+02" cType="1" res="-9.7165387123823166e-03" rms="2.9591536521911621e-01" purity="3.2454735040664673e-01" nType="0">
            <Node pos="l" depth="3" NCoef="0" IVar="-1" Cut="0.0000000000000000e+00" cType="1" res="-3.2317007426172495e-03" rms="2.7155765891075134e-01" purity="1.3227672874927521e-01" nType="-99"/>
            <Node pos="r" depth="3" NCoef="0" IVar="-1" Cut="0.0000000000000000e+00" cType="1" res="-1.9747983664274216e-02" rms="3.3186328411102295e-01" purity="6.4177644252777100e-01" nType="-99"/>
          </Node>
          <Node pos="r" depth="2" NCoef="0" IVar="4" Cut="2.9511401367187500e+02" cType="1" res="4.1099921800196171e-03" rms="2.9773774743080139e-01" purity="6.4933085441589355e-01" nType="0">
            <Node pos="l" depth="3" NCoef="0" IVar="-1" Cut="0.0000000000000000e+00" cType="1" res="1.1904917657375336e-02" rms="3.1765589118003845e-01" purity="4.6704748272895813e-01" nType="-99"/>
            <Node pos="r" depth="3" NCoef="0" IVar="-1" Cut="0.0000000000000000e+00" cType="1" res="-4.1145049035549164e-03" rms="2.7958869934082031e-01" purity="8.0335032939910889e-01" nType="-99"/>
          </Node>
        </Node>
        <Node pos="r" depth="1" NCoef="0" IVar="7" Cut="1.5918816328048706e+00" cType="1" res="4.1425083763897419e-03" rms="3.0224794149398804e-01" purity="5.4096263647079468e-01" nType="0">
          <Node pos="l" depth="2" NCoef="0" IVar="2" Cut="6.3986033201217651e-02" cType="1" res="5.7054711505770683e-03" rms="3.0985364317893982e-01" purity="5.7720100879669189e-01" nType="0">
            <Node pos="l" depth="3" NCoef="0" IVar="-1" Cut="0.0000000000000000e+00" cType="1" res="9.8627107217907906e-03" rms="3.2335525751113892e-01" purity="4.5261380076408386e-01" nType="-99"/>
            <Node pos="r" depth="3" NCoef="0" IVar="-1" Cut="0.0000000000000000e+00" cType="1" res="-1.2369845062494278e-03" rms="2.8643748164176941e-01" purity="7.7960968017578125e-01" nType="-99"/>
          </Node>
          <Node pos="r" depth="2" NCoef="0" IVar="-1" Cut="0.0000000000000000e+00" cType="1" res="-3.5296324640512466e-02" rms="1.7563617229461670e-01" purity="7.3394581675529480e-02" nType="-99"/>
        </Node>
      </Node>
    </BinaryTree>
    <BinaryTree type="DecisionTree" boostWeight="1.0000000000000000e+00" itree="236">
      <Node pos="s" depth="0" NCoef="0" IVar="10" Cut="9.3333321809768677e-01" cType="1" res="4.0969918482005596e-03" rms="3.0344215035438538e-01" purity="5.0439095497131348e-01" nType="0">
        <Node pos="l" depth="1" NCoef="0" IVar="0" Cut="4.5299810791015625e+02" cType="1" res="1.5651136636734009e-03" rms="3.0236548185348511e-01" purity="5.1824682950973511e-01" nType="0">
          <Node pos="l" depth="2" NCoef="0" IVar="4" Cut="3.2713757324218750e+02" cType="1" res="5.3820153698325157e-03" rms="3.1176576018333435e-01" purity="2.5767716765403748e-01" nType="0">
            <Node pos="l" depth="3" NCoef="0" IVar="-1" Cut="0.0000000000000000e+00" cType="1" res="2.1023773588240147e-03" rms="3.0176454782485962e-01" purity="2.0682141184806824e-01" nType="-99"/>
            <Node pos="r" depth="3" NCoef="0" IVar="-1" Cut="0.0000000000000000e+00" cType="1" res="2.0962789654731750e-02" rms="3.7692943215370178e-01" purity="6.3583117723464966e-01" nType="-99"/>
          </Node>
          <Node pos="r" depth="2" NCoef="0" IVar="10" Cut="-1.3334347307682037e-01" cType="1" res="-2.2359576541930437e-03" rms="2.9265487194061279e-01" purity="7.7773576974868774e-01" nType="0">
            <Node pos="l" depth="3" NCoef="0" IVar="-1" Cut="0.0000000000000000e+00" cType="1" res="-9.1688353568315506e-03" rms="2.9780614376068115e-01" purity="7.5530523061752319e-01" nType="-99"/>
            <Node pos="r" depth="3" NCoef="0" IVar="-1" Cut="0.0000000000000000e+00" cType="1" res="6.6834865137934685e-03" rms="2.8558844327926636e-01" purity="8.0712866783142090e-01" nType="-99"/>
          </Node>
        </Node>
        <Node pos="r" depth="1" NCoef="0" IVar="10" Cut="1.9999977350234985e+00" cType="1" res="1.2031114660203457e-02" rms="3.0665621161460876e-01" purity="4.6097090840339661e-01" nType="0">
          <Node pos="l" depth="2" NCoef="0" IVar="2" Cut="2.0041165873408318e-02" cType="1" res="1.6498828306794167e-02" rms="3.0877879261970520e-01" purity="4.9514108896255493e-01" nType="0">
            <Node pos="l" depth="3" NCoef="0" IVar="-1" Cut="0.0000000000000000e+00" cType="1" res="5.7407072745263577e-03" rms="2.7530068159103394e-01" purity="1.9317688047885895e-01" nType="-99"/>
            <Node pos="r" depth="3" NCoef="0" IVar="-1" Cut="0.0000000000000000e+00" cType="1" res="2.2553086280822754e-02" rms="3.2396212220191956e-01" purity="6.4520049095153809e-01" nType="-99"/>
          </Node>
          <Node pos="r" depth="2" NCoef="0" IVar="10" Cut="2.3047735691070557e+00" cType="1" res="-4.5745773240923882e-03" rms="2.9804822802543640e-01" purity="3.3396652340888977e-01" nType="0">
            <Node pos="l" depth="3" NCoef="0" IVar="-1" Cut="0.0000000000000000e+00" cType="1" res="1.7359672347083688e-03" rms="3.1351086497306824e-01" purity="3.7496796250343323e-01" nType="-99"/>
            <Node pos="r" depth="3" NCoef="0" IVar="-1" Cut="0.0000000000000000e+00" cType="1" res="-1.1795314960181713e-02" rms="2.8147146105766296e-01" purity="2.9265376925468445e-01" nType="-99"/>
          </Node>
        </Node>
      </Node>
    </BinaryTree>
    <BinaryTree type="DecisionTree" boostWeight="1.0000000000000000e+00" itree="237">
      <Node pos="s" depth="0" NCoef="0" IVar="10" Cut="-6.6664081811904907e-01" cType="1" res="-1.2469328939914703e-03" rms="2.9989230632781982e-01" purity="4.9777293205261230e-01" nType="0">
        <Node pos="l" depth="1" NCoef="0" IVar="8" Cut="1.1999526023864746e+00" cType="1" res="4.9796430394053459e-03" rms="3.0384731292724609e-01" purity="4.6958398818969727e-01" nType="0">
          <Node pos="l" depth="2" NCoef="0" IVar="8" Cut="5.7121805846691132e-02" cType="1" res="7.6400656253099442e-03" rms="3.0577844381332397e-01" purity="4.9613434076309204e-01" nType="0">
            <Node pos="l" depth="3" NCoef="0" IVar="-1" Cut="0.0000000000000000e+00" cType="1" res="3.1389488140121102e-04" rms="2.9964479804039001e-01" purity="4.4050306081771851e-01" nType="-99"/>
            <Node pos="r" depth="3" NCoef="0" IVar="-1" Cut="0.0000000000000000e+00" cType="1" res="2.0578220486640930e-02" rms="3.1548282504081726e-01" purity="5.9013777971267700e-01" nType="-99"/>
          </Node>
          <Node pos="r" depth="2" NCoef="0" IVar="-1" Cut="0.0000000000000000e+00" cType="1" res="-1.8916616216301918e-02" rms="2.8673607110977173e-01" purity="2.5354251265525818e-01" nType="-99"/>
        </Node>
        <Node pos="r" depth="1" NCoef="0" IVar="7" Cut="6.8564897775650024e-01" cType="1" res="-3.9996206760406494e-03" rms="2.9808565974235535e-01" purity="5.1023489236831665e-01" nType="0">
          <Node pos="l" depth="2" NCoef="0" IVar="4" Cut="2.4204983520507812e+02" cType="1" res="-7.0344922132790089e-03" rms="2.9824474453926086e-01" purity="5.6181794404983521e-01" nType="0">
            <Node pos="l" depth="3" NCoef="0" IVar="-1" Cut="0.0000000000000000e+00" cType="1" res="-1.3002574443817139e-02" rms="3.1328105926513672e-01" purity="2.8051674365997314e-01" nType="-99"/>
            <Node pos="r" depth="3" NCoef="0" IVar="-1" Cut="0.0000000000000000e+00" cType="1" res="-1.8460361752659082e-03" rms="2.8380420804023743e-01" purity="8.1696307659149170e-01" nType="-99"/>
          </Node>
          <Node pos="r" depth="2" NCoef="0" IVar="1" Cut="1.7604880371093750e+03" cType="1" res="5.6217266246676445e-03" rms="2.9737615585327148e-01" purity="3.4670293331146240e-01" nType="0">
            <Node pos="l" depth="3" NCoef="0" IVar="-1" Cut="0.0000000000000000e+00" cType="1" res="1.3200064189732075e-02" rms="3.0400151014328003e-01" purity="2.2941590845584869e-01" nType="-99"/>
            <Node pos="r" depth="3" NCoef="0" IVar="-1" Cut="0.0000000000000000e+00" cType="1" res="-2.9303973540663719e-02" rms="2.6533922553062439e-01" purity="8.5192531347274780e-01" nType="-99"/>
          </Node>
        </Node>
      </Node>
    </BinaryTree>
    <BinaryTree type="DecisionTree" boostWeight="1.0000000000000000e+00" itree="238">
      <Node pos="s" depth="0" NCoef="0" IVar="0" Cut="4.5206753540039062e+02" cType="1" res="-1.0235102381557226e-03" rms="3.0068156123161316e-01" purity="4.9757963418960571e-01" nType="0">
        <Node pos="l" depth="1" NCoef="0" IVar="5" Cut="2.0639442443847656e+02" cType="1" res="-4.0121427737176418e-03" rms="3.0510982871055603e-01" purity="2.3162275552749634e-01" nType="0">
          <Node pos="l" depth="2" NCoef="0" IVar="5" Cut="1.3194635009765625e+02" cType="1" res="-1.2644198723137379e-03" rms="2.9430156946182251e-01" purity="1.7160236835479736e-01" nType="0">
            <Node pos="l" depth="3" NCoef="0" IVar="-1" Cut="0.0000000000000000e+00" cType="1" res="-1.4578171074390411e-02" rms="2.3657865822315216e-01" purity="7.7166192233562469e-02" nType="-99"/>
            <Node pos="r" depth="3" NCoef="0" IVar="-1" Cut="0.0000000000000000e+00" cType="1" res="1.0786828584969044e-02" rms="3.9325472712516785e-01" purity="3.8263052701950073e-01" nType="-99"/>
          </Node>
          <Node pos="r" depth="2" NCoef="0" IVar="1" Cut="1.5808544921875000e+03" cType="1" res="-2.4003518745303154e-02" rms="3.7386247515678406e-01" purity="6.6830801963806152e-01" nType="0">
            <Node pos="l" depth="3" NCoef="0" IVar="-1" Cut="0.0000000000000000e+00" cType="1" res="-2.4353764951229095e-02" rms="4.0176221728324890e-01" purity="5.4657340049743652e-01" nType="-99"/>
            <Node pos="r" depth="3" NCoef="0" IVar="-1" Cut="0.0000000000000000e+00" cType="1" res="-8.7663605809211731e-03" rms="3.4529244899749756e-01" purity="7.8161352872848511e-01" nType="-99"/>
          </Node>
        </Node>
        <Node pos="r" depth="1" NCoef="0" IVar="8" Cut="1.4664801359176636e+00" cType="1" res="2.0487089641392231e-03" rms="2.9602894186973572e-01" purity="7.7097481489181519e-01" nType="0">
          <Node pos="l" depth="2" NCoef="0" IVar="8" Cut="-1.3777360916137695e+00" cType="1" res="2.9896880732849240e-04" rms="2.9125398397445679e-01" purity="7.8638678789138794e-01" nType="0">
            <Node pos="l" depth="3" NCoef="0" IVar="-1" Cut="0.0000000000000000e+00" cType="1" res="1.7253566533327103e-02" rms="3.7204062938690186e-01" purity="5.0378471612930298e-01" nType="-99"/>
            <Node pos="r" depth="3" NCoef="0" IVar="-1" Cut="0.0000000000000000e+00" cType="1" res="-1.5615759184584022e-03" rms="2.8440552949905396e-01" purity="8.0699086189270020e-01" nType="-99"/>
          </Node>
          <Node pos="r" depth="2" NCoef="0" IVar="-1" Cut="0.0000000000000000e+00" cType="1" res="2.5066003203392029e-02" rms="3.7075147032737732e-01" purity="4.9130114912986755e-01" nType="-99"/>
        </Node>
      </Node>
    </BinaryTree>
    <BinaryTree type="DecisionTree" boostWeight="1.0000000000000000e+00" itree="239">
      <Node pos="s" depth="0" NCoef="0" IVar="9" Cut="1.9999876022338867e+00" cType="1" res="3.4625912085175514e-03" rms="3.0161750316619873e-01" purity="5.0470405817031860e-01" nType="0">
        <Node pos="l" depth="1" NCoef="0" IVar="9" Cut="-1.4285582304000854e+00" cType="1" res="2.4685887619853020e-03" rms="3.0089321732521057e-01" purity="5.1648634672164917e-01" nType="0">
          <Node pos="l" depth="2" NCoef="0" IVar="9" Cut="-1.7550927400588989e+00" cType="1" res="-9.1045526787638664e-03" rms="2.9560822248458862e-01" purity="2.9099893569946289e-01" nType="0">
            <Node pos="l" depth="3" NCoef="0" IVar="-1" Cut="0.0000000000000000e+00" cType="1" res="-1.6854160930961370e-03" rms="2.9448840022087097e-01" purity="2.4472557008266449e-01" nType="-99"/>
            <Node pos="r" depth="3" NCoef="0" IVar="-1" Cut="0.0000000000000000e+00" cType="1" res="-2.2092785686254501e-02" rms="2.9696193337440491e-01" purity="3.6389860510826111e-01" nType="-99"/>
          </Node>
          <Node pos="r" depth="2" NCoef="0" IVar="9" Cut="-1.2652916908264160e+00" cType="1" res="3.9036348462104797e-03" rms="3.0151113867759705e-01" purity="5.4444628953933716e-01" nType="0">
            <Node pos="l" depth="3" NCoef="0" IVar="-1" Cut="0.0000000000000000e+00" cType="1" res="2.8204401955008507e-02" rms="3.3534005284309387e-01" purity="4.7655558586120605e-01" nType="-99"/>
            <Node pos="r" depth="3" NCoef="0" IVar="-1" Cut="0.0000000000000000e+00" cType="1" res="3.4135386813431978e-03" rms="3.0027812719345093e-01" purity="5.4672110080718994e-01" nType="-99"/>
          </Node>
        </Node>
        <Node pos="r" depth="1" NCoef="0" IVar="-1" Cut="0.0000000000000000e+00" cType="1" res="3.1711548566818237e-02" rms="3.1711161136627197e-01" purity="2.3084254562854767e-01" nType="-99"/>
      </Node>
    </BinaryTree>
    <BinaryTree type="DecisionTree" boostWeight="1.0000000000000000e+00" itree="240">
      <Node pos="s" depth="0" NCoef="0" IVar="8" Cut="-6.6659843921661377e-01" cType="1" res="-1.3359187869355083e-03" rms="2.9775446653366089e-01" purity="5.0050675868988037e-01" nType="0">
        <Node pos="l" depth="1" NCoef="0" IVar="8" Cut="-1.0729327201843262e+00" cType="1" res="-7.1355118416249752e-03" rms="2.9712700843811035e-01" purity="3.8556498289108276e-01" nType="0">
          <Node pos="l" depth="2" NCoef="0" IVar="10" Cut="-1.3300001621246338e-01" cType="1" res="-2.6906482526101172e-04" rms="2.9578411579132080e-01" purity="3.0481806397438049e-01" nType="0">
            <Node pos="l" depth="3" NCoef="0" IVar="-1" Cut="0.0000000000000000e+00" cType="1" res="1.1897147633135319e-02" rms="2.9527381062507629e-01" purity="2.9082733392715454e-01" nType="-99"/>
            <Node pos="r" depth="3" NCoef="0" IVar="-1" Cut="0.0000000000000000e+00" cType="1" res="-1.3457149267196655e-02" rms="2.9587537050247192e-01" purity="3.2083377242088318e-01" nType="-99"/>
          </Node>
          <Node pos="r" depth="2" NCoef="0" IVar="4" Cut="2.2624673461914062e+02" cType="1" res="-1.7573527991771698e-02" rms="2.9885482788085938e-01" purity="5.0831228494644165e-01" nType="0">
            <Node pos="l" depth="3" NCoef="0" IVar="-1" Cut="0.0000000000000000e+00" cType="1" res="-3.7984855473041534e-02" rms="2.8126537799835205e-01" purity="1.9679871201515198e-01" nType="-99"/>
            <Node pos="r" depth="3" NCoef="0" IVar="-1" Cut="0.0000000000000000e+00" cType="1" res="-3.1665016431361437e-03" rms="3.1196483969688416e-01" purity="7.6705139875411987e-01" nType="-99"/>
          </Node>
        </Node>
        <Node pos="r" depth="1" NCoef="0" IVar="10" Cut="1.1999992132186890e+00" cType="1" res="6.4316182397305965e-04" rms="2.9794245958328247e-01" purity="5.3973007202148438e-01" nType="0">
          <Node pos="l" depth="2" NCoef="0" IVar="7" Cut="9.3644547462463379e-01" cType="1" res="-2.2148678544908762e-03" rms="2.9532340168952942e-01" purity="5.5893439054489136e-01" nType="0">
            <Node pos="l" depth="3" NCoef="0" IVar="-1" Cut="0.0000000000000000e+00" cType="1" res="-5.5710832384647802e-05" rms="2.9785925149917603e-01" purity="6.0180777311325073e-01" nType="-99"/>
            <Node pos="r" depth="3" NCoef="0" IVar="-1" Cut="0.0000000000000000e+00" cType="1" res="-1.8962886184453964e-02" rms="2.7805042266845703e-01" purity="2.8304722905158997e-01" nType="-99"/>
          </Node>
          <Node pos="r" depth="2" NCoef="0" IVar="8" Cut="1.3142561912536621e+00" cType="1" res="1.3265489600598812e-02" rms="3.0892813205718994e-01" purity="4.5491516590118408e-01" nType="0">
            <Node pos="l" depth="3" NCoef="0" IVar="-1" Cut="0.0000000000000000e+00" cType="1" res="2.0711943507194519e-02" rms="3.2353666424751282e-01" purity="5.3109848499298096e-01" nType="-99"/>
            <Node pos="r" depth="3" NCoef="0" IVar="-1" Cut="0.0000000000000000e+00" cType="1" res="-2.2935563698410988e-02" rms="2.3770646750926971e-01" purity="1.4227333664894104e-01" nType="-99"/>
          </Node>
        </Node>
      </Node>
    </BinaryTree>
    <BinaryTree type="DecisionTree" boostWeight="1.0000000000000000e+00" itree="241">
      <Node pos="s" depth="0" NCoef="0" IVar="4" Cut="1.4608894348144531e+02" cType="1" res="-2.6273375842720270e-03" rms="2.9878827929496765e-01" purity="4.9910128116607666e-01" nType="0">
        <Node pos="l" depth="1" NCoef="0" IVar="4" Cut="1.0079578399658203e+02" cType="1" res="7.5968448072671890e-03" rms="2.4194994568824768e-01" purity="8.6747184395790100e-02" nType="0">
          <Node pos="l" depth="2" NCoef="0" IVar="5" Cut="6.9268569946289062e+01" cType="1" res="-9.1453325003385544e-03" rms="1.4831262826919556e-01" purity="2.5065679103136063e-02" nType="0">
            <Node pos="l" depth="3" NCoef="0" IVar="-1" Cut="0.0000000000000000e+00" cType="1" res="-1.3628196029458195e-05" rms="1.4998060464859009e-01" purity="2.3959543555974960e-02" nType="-99"/>
            <Node pos="r" depth="3" NCoef="0" IVar="-1" Cut="0.0000000000000000e+00" cType="1" res="-4.6667139977216721e-02" rms="1.4658345282077789e-01" purity="2.5937462225556374e-02" nType="-99"/>
          </Node>
          <Node pos="r" depth="2" NCoef="0" IVar="5" Cut="8.6646354675292969e+01" cType="1" res="1.4783174730837345e-02" rms="2.7212756872177124e-01" purity="1.1322305351495743e-01" nType="0">
            <Node pos="l" depth="3" NCoef="0" IVar="-1" Cut="0.0000000000000000e+00" cType="1" res="7.4782252311706543e-02" rms="2.4483151733875275e-01" purity="7.7096708118915558e-02" nType="-99"/>
            <Node pos="r" depth="3" NCoef="0" IVar="-1" Cut="0.0000000000000000e+00" cType="1" res="6.6772787831723690e-03" rms="2.8844031691551208e-01" purity="1.3720256090164185e-01" nType="-99"/>
          </Node>
        </Node>
        <Node pos="r" depth="1" NCoef="0" IVar="2" Cut="1.4921560883522034e-01" cType="1" res="-5.2077746950089931e-03" rms="3.1144562363624573e-01" purity="6.0317349433898926e-01" nType="0">
          <Node pos="l" depth="2" NCoef="0" IVar="10" Cut="-1.4664850234985352e+00" cType="1" res="-7.1788006462156773e-03" rms="3.1875082850456238e-01" purity="5.6603538990020752e-01" nType="0">
            <Node pos="l" depth="3" NCoef="0" IVar="-1" Cut="0.0000000000000000e+00" cType="1" res="6.0721547342836857e-03" rms="3.3628335595130920e-01" purity="4.7704970836639404e-01" nType="-99"/>
            <Node pos="r" depth="3" NCoef="0" IVar="-1" Cut="0.0000000000000000e+00" cType="1" res="-8.9516872540116310e-03" rms="3.1620651483535767e-01" purity="5.7831549644470215e-01" nType="-99"/>
          </Node>
          <Node pos="r" depth="2" NCoef="0" IVar="-1" Cut="0.0000000000000000e+00" cType="1" res="1.5572985634207726e-02" rms="2.4658298492431641e-01" purity="8.9300680160522461e-01" nType="-99"/>
        </Node>
      </Node>
    </BinaryTree>
    <BinaryTree type="DecisionTree" boostWeight="1.0000000000000000e+00" itree="242">
      <Node pos="s" depth="0" NCoef="0" IVar="3" Cut="3.3293576049804688e+02" cType="1" res="-1.0790440865093842e-04" rms="3.0268803238868713e-01" purity="4.9432474374771118e-01" nType="0">
        <Node pos="l" depth="1" NCoef="0" IVar="10" Cut="-1.4664586782455444e+00" cType="1" res="8.1055322661995888e-03" rms="3.0905488133430481e-01" purity="2.6402863860130310e-01" nType="0">
          <Node pos="l" depth="2" NCoef="0" IVar="-1" Cut="0.0000000000000000e+00" cType="1" res="-2.1153554320335388e-02" rms="2.8003290295600891e-01" purity="1.7732320725917816e-01" nType="-99"/>
          <Node pos="r" depth="2" NCoef="0" IVar="2" Cut="2.0917570218443871e-02" cType="1" res="1.2322477996349335e-02" rms="3.1325203180313110e-01" purity="2.7792781591415405e-01" nType="0">
            <Node pos="l" depth="3" NCoef="0" IVar="-1" Cut="0.0000000000000000e+00" cType="1" res="-4.8768771812319756e-03" rms="2.2363664209842682e-01" purity="8.0984897911548615e-02" nType="-99"/>
            <Node pos="r" depth="3" NCoef="0" IVar="-1" Cut="0.0000000000000000e+00" cType="1" res="1.8112812191247940e-02" rms="3.5476046800613403e-01" purity="3.9225864410400391e-01" nType="-99"/>
          </Node>
        </Node>
        <Node pos="r" depth="1" NCoef="0" IVar="5" Cut="1.6119079589843750e+02" cType="1" res="-4.4888099655508995e-03" rms="2.9914444684982300e-01" purity="6.1716073751449585e-01" nType="0">
          <Node pos="l" depth="2" NCoef="0" IVar="3" Cut="5.8615313720703125e+02" cType="1" res="-9.7928307950496674e-03" rms="3.2752788066864014e-01" purity="3.4916624426841736e-01" nType="0">
            <Node pos="l" depth="3" NCoef="0" IVar="-1" Cut="0.0000000000000000e+00" cType="1" res="-5.7175052352249622e-03" rms="3.2102274894714355e-01" purity="3.0163168907165527e-01" nType="-99"/>
            <Node pos="r" depth="3" NCoef="0" IVar="-1" Cut="0.0000000000000000e+00" cType="1" res="-1.9444961100816727e-02" rms="3.5201182961463928e-01" purity="5.4006224870681763e-01" nType="-99"/>
          </Node>
          <Node pos="r" depth="2" NCoef="0" IVar="9" Cut="1.1996967792510986e+00" cType="1" res="1.8080868176184595e-04" rms="2.7162691950798035e-01" purity="8.5310113430023193e-01" nType="0">
            <Node pos="l" depth="3" NCoef="0" IVar="-1" Cut="0.0000000000000000e+00" cType="1" res="3.4347067121416330e-03" rms="2.6613488793373108e-01" purity="8.6517387628555298e-01" nType="-99"/>
            <Node pos="r" depth="3" NCoef="0" IVar="-1" Cut="0.0000000000000000e+00" cType="1" res="-2.3013422265648842e-02" rms="3.2177180051803589e-01" purity="7.2893959283828735e-01" nType="-99"/>
          </Node>
        </Node>
      </Node>
    </BinaryTree>
    <BinaryTree type="DecisionTree" boostWeight="1.0000000000000000e+00" itree="243">
      <Node pos="s" depth="0" NCoef="0" IVar="2" Cut="8.5266172885894775e-02" cType="1" res="1.0725128231570125e-03" rms="2.9921454191207886e-01" purity="5.0238174200057983e-01" nType="0">
        <Node pos="l" depth="1" NCoef="0" IVar="7" Cut="-1.1919130086898804e+00" cType="1" res="3.5440218634903431e-03" rms="3.0504670739173889e-01" purity="4.1128048300743103e-01" nType="0">
          <Node pos="l" depth="2" NCoef="0" IVar="9" Cut="-1.3277631998062134e-01" cType="1" res="-6.5444037318229675e-03" rms="2.4481922388076782e-01" purity="1.5805268287658691e-01" nType="0">
            <Node pos="l" depth="3" NCoef="0" IVar="-1" Cut="0.0000000000000000e+00" cType="1" res="3.5526289138942957e-03" rms="2.4802459776401520e-01" purity="1.5570460259914398e-01" nType="-99"/>
            <Node pos="r" depth="3" NCoef="0" IVar="-1" Cut="0.0000000000000000e+00" cType="1" res="-2.3315817117691040e-02" rms="2.4062354862689972e-01" purity="1.6078941524028778e-01" nType="-99"/>
          </Node>
          <Node pos="r" depth="2" NCoef="0" IVar="2" Cut="4.4663265347480774e-02" cType="1" res="4.9466420896351337e-03" rms="3.1247678399085999e-01" purity="4.4648742675781250e-01" nType="0">
            <Node pos="l" depth="3" NCoef="0" IVar="-1" Cut="0.0000000000000000e+00" cType="1" res="7.7629033476114273e-03" rms="3.1046110391616821e-01" purity="3.7378919124603271e-01" nType="-99"/>
            <Node pos="r" depth="3" NCoef="0" IVar="-1" Cut="0.0000000000000000e+00" cType="1" res="-1.3061836361885071e-03" rms="3.1755647063255310e-01" purity="6.3494420051574707e-01" nType="-99"/>
          </Node>
        </Node>
        <Node pos="r" depth="1" NCoef="0" IVar="0" Cut="4.0009851074218750e+02" cType="1" res="-7.0603764615952969e-03" rms="2.7900955080986023e-01" purity="8.0216491222381592e-01" nType="0">
          <Node pos="l" depth="2" NCoef="0" IVar="-1" Cut="0.0000000000000000e+00" cType="1" res="-1.9394068047404289e-02" rms="3.8130173087120056e-01" purity="4.5414510369300842e-01" nType="-99"/>
          <Node pos="r" depth="2" NCoef="0" IVar="2" Cut="1.1894465237855911e-01" cType="1" res="-7.3323282413184643e-04" rms="2.4039651453495026e-01" purity="9.0459436178207397e-01" nType="0">
            <Node pos="l" depth="3" NCoef="0" IVar="-1" Cut="0.0000000000000000e+00" cType="1" res="9.2390486970543861e-03" rms="2.6913586258888245e-01" purity="8.7488132715225220e-01" nType="-99"/>
            <Node pos="r" depth="3" NCoef="0" IVar="-1" Cut="0.0000000000000000e+00" cType="1" res="-1.1222382076084614e-02" rms="2.2068382799625397e-01" purity="9.2291742563247681e-01" nType="-99"/>
          </Node>
        </Node>
      </Node>
    </BinaryTree>
    <BinaryTree type="DecisionTree" boostWeight="1.0000000000000000e+00" itree="244">
      <Node pos="s" depth="0" NCoef="0" IVar="6" Cut="8.5090972900390625e+01" cType="1" res="5.2866258192807436e-04" rms="2.9808264970779419e-01" purity="4.9880445003509521e-01" nType="0">
        <Node pos="l" depth="1" NCoef="0" IVar="2" Cut="8.3667784929275513e-02" cType="1" res="-4.2681819759309292e-03" rms="2.9559436440467834e-01" purity="2.3543778061866760e-01" nType="0">
          <Node pos="l" depth="2" NCoef="0" IVar="10" Cut="1.3333696126937866e-01" cType="1" res="-2.2776303812861443e-03" rms="2.8726300597190857e-01" purity="2.0437258481979370e-01" nType="0">
            <Node pos="l" depth="3" NCoef="0" IVar="-1" Cut="0.0000000000000000e+00" cType="1" res="4.1941897943615913e-03" rms="2.9437112808227539e-01" purity="2.1385815739631653e-01" nType="-99"/>
            <Node pos="r" depth="3" NCoef="0" IVar="-1" Cut="0.0000000000000000e+00" cType="1" res="-1.1322381906211376e-02" rms="2.7864152193069458e-01" purity="1.9337376952171326e-01" nType="-99"/>
          </Node>
          <Node pos="r" depth="2" NCoef="0" IVar="-1" Cut="0.0000000000000000e+00" cType="1" res="-1.6205314546823502e-02" rms="3.5549265146255493e-01" purity="4.8678991198539734e-01" nType="-99"/>
        </Node>
        <Node pos="r" depth="1" NCoef="0" IVar="2" Cut="2.0685326308012009e-02" cType="1" res="4.7404961660504341e-03" rms="3.0018728971481323e-01" purity="7.3005163669586182e-01" nType="0">
          <Node pos="l" depth="2" NCoef="0" IVar="10" Cut="-6.6657775640487671e-01" cType="1" res="-5.0776423886418343e-03" rms="3.2621148228645325e-01" purity="4.4092431664466858e-01" nType="0">
            <Node pos="l" depth="3" NCoef="0" IVar="-1" Cut="0.0000000000000000e+00" cType="1" res="-2.0041797310113907e-02" rms="3.1735810637474060e-01" purity="3.4372812509536743e-01" nType="-99"/>
            <Node pos="r" depth="3" NCoef="0" IVar="-1" Cut="0.0000000000000000e+00" cType="1" res="1.4190261717885733e-03" rms="3.2930800318717957e-01" purity="4.7825732827186584e-01" nType="-99"/>
          </Node>
          <Node pos="r" depth="2" NCoef="0" IVar="10" Cut="6.6638785600662231e-01" cType="1" res="7.1828989312052727e-03" rms="2.9330396652221680e-01" purity="8.0197614431381226e-01" nType="0">
            <Node pos="l" depth="3" NCoef="0" IVar="-1" Cut="0.0000000000000000e+00" cType="1" res="4.2391172610223293e-03" rms="2.8638532757759094e-01" purity="8.0761408805847168e-01" nType="-99"/>
            <Node pos="r" depth="3" NCoef="0" IVar="-1" Cut="0.0000000000000000e+00" cType="1" res="1.6980985179543495e-02" rms="3.0959072709083557e-01" purity="7.8801983594894409e-01" nType="-99"/>
          </Node>
        </Node>
      </Node>
    </BinaryTree>
    <BinaryTree type="DecisionTree" boostWeight="1.0000000000000000e+00" itree="245">
      <Node pos="s" depth="0" NCoef="0" IVar="7" Cut="-3.9356622099876404e-01" cType="1" res="-3.3739247010089457e-04" rms="3.0091696977615356e-01" purity="4.9832826852798462e-01" nType="0">
        <Node pos="l" depth="1" NCoef="0" IVar="9" Cut="-6.6667890548706055e-01" cType="1" res="5.8025573380291462e-03" rms="3.0492779612541199e-01" purity="4.2347744107246399e-01" nType="0">
          <Node pos="l" depth="2" NCoef="0" IVar="9" Cut="-9.7143453359603882e-01" cType="1" res="-5.0582666881382465e-03" rms="2.9456403851509094e-01" purity="3.3891478180885315e-01" nType="0">
            <Node pos="l" depth="3" NCoef="0" IVar="-1" Cut="0.0000000000000000e+00" cType="1" res="3.0976170673966408e-03" rms="2.9559540748596191e-01" purity="3.1240719556808472e-01" nType="-99"/>
            <Node pos="r" depth="3" NCoef="0" IVar="-1" Cut="0.0000000000000000e+00" cType="1" res="-2.9829801991581917e-02" rms="2.9058179259300232e-01" purity="4.1308471560478210e-01" nType="-99"/>
          </Node>
          <Node pos="r" depth="2" NCoef="0" IVar="3" Cut="5.7559783935546875e+02" cType="1" res="1.1124655604362488e-02" rms="3.0974081158638000e-01" purity="4.6491542458534241e-01" nType="0">
            <Node pos="l" depth="3" NCoef="0" IVar="-1" Cut="0.0000000000000000e+00" cType="1" res="1.6226684674620628e-02" rms="3.1321027874946594e-01" purity="4.1873443126678467e-01" nType="-99"/>
            <Node pos="r" depth="3" NCoef="0" IVar="-1" Cut="0.0000000000000000e+00" cType="1" res="-9.7520351409912109e-03" rms="2.8941342234611511e-01" purity="7.1477824449539185e-01" nType="-99"/>
          </Node>
        </Node>
        <Node pos="r" depth="1" NCoef="0" IVar="1" Cut="1.7444495849609375e+03" cType="1" res="-3.3509817440062761e-03" rms="2.9888254404067993e-01" purity="5.3506630659103394e-01" nType="0">
          <Node pos="l" depth="2" NCoef="0" IVar="3" Cut="4.1797238159179688e+02" cType="1" res="-6.7816032096743584e-03" rms="3.3002281188964844e-01" purity="3.3159929513931274e-01" nType="0">
            <Node pos="l" depth="3" NCoef="0" IVar="-1" Cut="0.0000000000000000e+00" cType="1" res="-2.7279553469270468e-03" rms="3.1838613748550415e-01" purity="3.0993092060089111e-01" nType="-99"/>
            <Node pos="r" depth="3" NCoef="0" IVar="-1" Cut="0.0000000000000000e+00" cType="1" res="-1.3620823621749878e-02" rms="3.6044299602508545e-01" purity="3.9240559935569763e-01" nType="-99"/>
          </Node>
          <Node pos="r" depth="2" NCoef="0" IVar="9" Cut="9.3315452337265015e-01" cType="1" res="3.1990462448447943e-03" rms="2.2775746881961823e-01" purity="9.2354249954223633e-01" nType="0">
            <Node pos="l" depth="3" NCoef="0" IVar="-1" Cut="0.0000000000000000e+00" cType="1" res="1.6250221524387598e-03" rms="2.2051209211349487e-01" purity="9.2877542972564697e-01" nType="-99"/>
            <Node pos="r" depth="3" NCoef="0" IVar="-1" Cut="0.0000000000000000e+00" cType="1" res="2.0020766183733940e-02" rms="2.5993418693542480e-01" purity="8.9799511432647705e-01" nType="-99"/>
          </Node>
        </Node>
      </Node>
    </BinaryTree>
    <BinaryTree type="DecisionTree" boostWeight="1.0000000000000000e+00" itree="246">
      <Node pos="s" depth="0" NCoef="0" IVar="5" Cut="1.0560662841796875e+02" cType="1" res="3.1447171932086349e-04" rms="3.0089884996414185e-01" purity="4.9918672442436218e-01" nType="0">
        <Node pos="l" depth="1" NCoef="0" IVar="0" Cut="4.5206823730468750e+02" cType="1" res="7.1676345542073250e-03" rms="2.7124390006065369e-01" purity="1.3926972448825836e-01" nType="0">
          <Node pos="l" depth="2" NCoef="0" IVar="2" Cut="3.7930276244878769e-02" cType="1" res="8.1632361980155110e-04" rms="2.1434600651264191e-01" purity="5.7767745107412338e-02" nType="0">
            <Node pos="l" depth="3" NCoef="0" IVar="-1" Cut="0.0000000000000000e+00" cType="1" res="-1.1401941068470478e-02" rms="1.7489197850227356e-01" purity="3.5576041787862778e-02" nType="-99"/>
            <Node pos="r" depth="3" NCoef="0" IVar="-1" Cut="0.0000000000000000e+00" cType="1" res="1.8583958968520164e-02" rms="3.0253860354423523e-01" purity="1.2402456253767014e-01" nType="-99"/>
          </Node>
          <Node pos="r" depth="2" NCoef="0" IVar="2" Cut="2.0446207374334335e-02" cType="1" res="2.4117307737469673e-02" rms="3.8329058885574341e-01" purity="3.5677319765090942e-01" nType="0">
            <Node pos="l" depth="3" NCoef="0" IVar="-1" Cut="0.0000000000000000e+00" cType="1" res="3.3414497971534729e-02" rms="3.6236166954040527e-01" purity="2.8029930591583252e-01" nType="-99"/>
            <Node pos="r" depth="3" NCoef="0" IVar="-1" Cut="0.0000000000000000e+00" cType="1" res="1.4386449474841356e-03" rms="4.1093197464942932e-01" purity="4.6832054853439331e-01" nType="-99"/>
          </Node>
        </Node>
        <Node pos="r" depth="1" NCoef="0" IVar="8" Cut="-1.7332954406738281e+00" cType="1" res="-2.6821645442396402e-03" rms="3.1293702125549316e-01" purity="6.5656524896621704e-01" nType="0">
          <Node pos="l" depth="2" NCoef="0" IVar="-1" Cut="0.0000000000000000e+00" cType="1" res="-2.5185531005263329e-02" rms="3.0125528573989868e-01" purity="2.1205310523509979e-01" nType="-99"/>
          <Node pos="r" depth="2" NCoef="0" IVar="4" Cut="2.8139520263671875e+02" cType="1" res="-1.8519252771511674e-03" rms="3.1334391236305237e-01" purity="6.7351597547531128e-01" nType="0">
            <Node pos="l" depth="3" NCoef="0" IVar="-1" Cut="0.0000000000000000e+00" cType="1" res="-4.7285663895308971e-03" rms="3.5172715783119202e-01" purity="4.9745589494705200e-01" nType="-99"/>
            <Node pos="r" depth="3" NCoef="0" IVar="-1" Cut="0.0000000000000000e+00" cType="1" res="3.3863265998661518e-03" rms="2.6587644219398499e-01" purity="8.6289334297180176e-01" nType="-99"/>
          </Node>
        </Node>
      </Node>
    </BinaryTree>
    <BinaryTree type="DecisionTree" boostWeight="1.0000000000000000e+00" itree="247">
      <Node pos="s" depth="0" NCoef="0" IVar="9" Cut="-1.4666824340820312e+00" cType="1" res="2.4864084552973509e-03" rms="3.0119851231575012e-01" purity="4.9981716275215149e-01" nType="0">
        <Node pos="l" depth="1" NCoef="0" IVar="3" Cut="3.1429077148437500e+02" cType="1" res="1.2637612409889698e-02" rms="3.0398279428482056e-01" purity="3.0043232440948486e-01" nType="0">
          <Node pos="l" depth="2" NCoef="0" IVar="-1" Cut="0.0000000000000000e+00" cType="1" res="-3.3459730911999941e-03" rms="2.5749820470809937e-01" purity="1.2613700330257416e-01" nType="-99"/>
          <Node pos="r" depth="2" NCoef="0" IVar="5" Cut="1.3429727172851562e+02" cType="1" res="2.1800506860017776e-02" rms="3.2904723286628723e-01" purity="4.0785843133926392e-01" nType="0">
            <Node pos="l" depth="3" NCoef="0" IVar="-1" Cut="0.0000000000000000e+00" cType="1" res="3.8806837052106857e-02" rms="3.1826159358024597e-01" purity="2.6928657293319702e-01" nType="-99"/>
            <Node pos="r" depth="3" NCoef="0" IVar="-1" Cut="0.0000000000000000e+00" cType="1" res="-3.8518750807270408e-04" rms="3.4359794855117798e-01" purity="6.1843067407608032e-01" nType="-99"/>
          </Node>
        </Node>
        <Node pos="r" depth="1" NCoef="0" IVar="10" Cut="-3.9999672770500183e-01" cType="1" res="1.3253143988549709e-03" rms="3.0085659027099609e-01" purity="5.2262276411056519e-01" nType="0">
          <Node pos="l" depth="2" NCoef="0" IVar="0" Cut="4.1904309082031250e+02" cType="1" res="5.1855687052011490e-03" rms="3.0634701251983643e-01" purity="5.1544106006622314e-01" nType="0">
            <Node pos="l" depth="3" NCoef="0" IVar="-1" Cut="0.0000000000000000e+00" cType="1" res="1.2850779108703136e-02" rms="3.1384035944938660e-01" purity="2.3757609724998474e-01" nType="-99"/>
            <Node pos="r" depth="3" NCoef="0" IVar="-1" Cut="0.0000000000000000e+00" cType="1" res="-2.4123978801071644e-04" rms="3.0039754509925842e-01" purity="7.2724306583404541e-01" nType="-99"/>
          </Node>
          <Node pos="r" depth="2" NCoef="0" IVar="1" Cut="1.1200372314453125e+03" cType="1" res="-9.5414975658059120e-04" rms="2.9754340648651123e-01" purity="5.2686351537704468e-01" nType="0">
            <Node pos="l" depth="3" NCoef="0" IVar="-1" Cut="0.0000000000000000e+00" cType="1" res="1.3932767324149609e-02" rms="2.3686473071575165e-01" purity="6.9432519376277924e-02" nType="-99"/>
            <Node pos="r" depth="3" NCoef="0" IVar="-1" Cut="0.0000000000000000e+00" cType="1" res="-3.7536288145929575e-03" rms="3.1571567058563232e-01" purity="6.8451285362243652e-01" nType="-99"/>
          </Node>
        </Node>
      </Node>
    </BinaryTree>
    <BinaryTree type="DecisionTree" boostWeight="1.0000000000000000e+00" itree="248">
      <Node pos="s" depth="0" NCoef="0" IVar="3" Cut="3.3679177856445312e+02" cType="1" res="-1.2911261292174459e-03" rms="2.9817298054695129e-01" purity="4.9721944332122803e-01" nType="0">
        <Node pos="l" depth="1" NCoef="0" IVar="3" Cut="2.3908436584472656e+02" cType="1" res="4.6090967953205109e-03" rms="3.0524814128875732e-01" purity="2.6763406395912170e-01" nType="0">
          <Node pos="l" depth="2" NCoef="0" IVar="5" Cut="1.0236219787597656e+02" cType="1" res="-7.6455897651612759e-03" rms="2.7313390374183655e-01" purity="1.3345214724540710e-01" nType="0">
            <Node pos="l" depth="3" NCoef="0" IVar="-1" Cut="0.0000000000000000e+00" cType="1" res="2.1213570609688759e-02" rms="2.1471662819385529e-01" purity="5.5025037378072739e-02" nType="-99"/>
            <Node pos="r" depth="3" NCoef="0" IVar="-1" Cut="0.0000000000000000e+00" cType="1" res="-2.0263455808162689e-02" rms="3.1523188948631287e-01" purity="2.0281375944614410e-01" nType="-99"/>
          </Node>
          <Node pos="r" depth="2" NCoef="0" IVar="5" Cut="1.0359674072265625e+02" cType="1" res="8.6925243958830833e-03" rms="3.1511729955673218e-01" purity="3.1234529614448547e-01" nType="0">
            <Node pos="l" depth="3" NCoef="0" IVar="-1" Cut="0.0000000000000000e+00" cType="1" res="-5.4937135428190231e-03" rms="2.2505582869052887e-01" purity="6.7506127059459686e-02" nType="-99"/>
            <Node pos="r" depth="3" NCoef="0" IVar="-1" Cut="0.0000000000000000e+00" cType="1" res="1.3146439567208290e-02" rms="3.6264720559120178e-01" purity="4.7521540522575378e-01" nType="-99"/>
          </Node>
        </Node>
        <Node pos="r" depth="1" NCoef="0" IVar="0" Cut="4.2644326782226562e+02" cType="1" res="-4.5248274691402912e-03" rms="2.9417297244071960e-01" purity="6.2304699420928955e-01" nType="0">
          <Node pos="l" depth="2" NCoef="0" IVar="9" Cut="1.4665013551712036e+00" cType="1" res="-1.6729481518268585e-02" rms="3.1429067254066467e-01" purity="2.7155399322509766e-01" nType="0">
            <Node pos="l" depth="3" NCoef="0" IVar="-1" Cut="0.0000000000000000e+00" cType="1" res="-1.8102126196026802e-02" rms="3.1747272610664368e-01" purity="2.8678521513938904e-01" nType="-99"/>
            <Node pos="r" depth="3" NCoef="0" IVar="-1" Cut="0.0000000000000000e+00" cType="1" res="4.1670687496662140e-03" rms="2.9053854942321777e-01" purity="1.6632233560085297e-01" nType="-99"/>
          </Node>
          <Node pos="r" depth="2" NCoef="0" IVar="7" Cut="9.7761505842208862e-01" cType="1" res="1.1761072091758251e-03" rms="2.8410878777503967e-01" purity="7.8723341226577759e-01" nType="0">
            <Node pos="l" depth="3" NCoef="0" IVar="-1" Cut="0.0000000000000000e+00" cType="1" res="3.6565780173987150e-03" rms="2.8017869591712952e-01" purity="8.1156706809997559e-01" nType="-99"/>
            <Node pos="r" depth="3" NCoef="0" IVar="-1" Cut="0.0000000000000000e+00" cType="1" res="-1.7475919798016548e-02" rms="3.2526186108589172e-01" purity="5.0735890865325928e-01" nType="-99"/>
          </Node>
        </Node>
      </Node>
    </BinaryTree>
    <BinaryTree type="DecisionTree" boostWeight="1.0000000000000000e+00" itree="249">
      <Node pos="s" depth="0" NCoef="0" IVar="6" Cut="1.0769292449951172e+02" cType="1" res="-2.4703138042241335e-03" rms="2.9937124252319336e-01" purity="4.9323579668998718e-01" nType="0">
        <Node pos="l" depth="1" NCoef="0" IVar="4" Cut="2.4130744934082031e+02" cType="1" res="-6.0929902829229832e-03" rms="3.0802211165428162e-01" purity="2.9690191149711609e-01" nType="0">
          <Node pos="l" depth="2" NCoef="0" IVar="9" Cut="-4.0000414848327637e-01" cType="1" res="-2.1910129580646753e-03" rms="2.8593343496322632e-01" purity="1.6648659110069275e-01" nType="0">
            <Node pos="l" depth="3" NCoef="0" IVar="-1" Cut="0.0000000000000000e+00" cType="1" res="9.8916823044419289e-03" rms="2.9207879304885864e-01" purity="1.7443318665027618e-01" nType="-99"/>
            <Node pos="r" depth="3" NCoef="0" IVar="-1" Cut="0.0000000000000000e+00" cType="1" res="-1.0373485274612904e-02" rms="2.8171145915985107e-01" purity="1.6137832403182983e-01" nType="-99"/>
          </Node>
          <Node pos="r" depth="2" NCoef="0" IVar="5" Cut="1.8721452331542969e+02" cType="1" res="-1.4957648701965809e-02" rms="3.5294511914253235e-01" purity="5.9318435192108154e-01" nType="0">
            <Node pos="l" depth="3" NCoef="0" IVar="-1" Cut="0.0000000000000000e+00" cType="1" res="-1.9348364323377609e-02" rms="3.5976421833038330e-01" purity="4.9432232975959778e-01" nType="-99"/>
            <Node pos="r" depth="3" NCoef="0" IVar="-1" Cut="0.0000000000000000e+00" cType="1" res="2.5237214285880327e-03" rms="3.4025722742080688e-01" purity="7.6206904649734497e-01" nType="-99"/>
          </Node>
        </Node>
        <Node pos="r" depth="1" NCoef="0" IVar="1" Cut="1.4408970947265625e+03" cType="1" res="3.5493832547217607e-03" rms="2.8431302309036255e-01" purity="8.1947821378707886e-01" nType="0">
          <Node pos="l" depth="2" NCoef="0" IVar="7" Cut="-8.7414436042308807e-02" cType="1" res="1.9508365541696548e-02" rms="4.1061314940452576e-01" purity="4.7689285874366760e-01" nType="0">
            <Node pos="l" depth="3" NCoef="0" IVar="-1" Cut="0.0000000000000000e+00" cType="1" res="2.0596364513039589e-02" rms="4.1894194483757019e-01" purity="4.8091867566108704e-01" nType="-99"/>
            <Node pos="r" depth="3" NCoef="0" IVar="-1" Cut="0.0000000000000000e+00" cType="1" res="3.3050458878278732e-03" rms="4.0203851461410522e-01" purity="4.7306951880455017e-01" nType="-99"/>
          </Node>
          <Node pos="r" depth="2" NCoef="0" IVar="2" Cut="4.0956184267997742e-02" cType="1" res="-3.5181391285732388e-04" rms="2.4351812899112701e-01" purity="9.0322369337081909e-01" nType="0">
            <Node pos="l" depth="3" NCoef="0" IVar="-1" Cut="0.0000000000000000e+00" cType="1" res="-7.3763248510658741e-03" rms="3.0648589134216309e-01" purity="8.0068361759185791e-01" nType="-99"/>
            <Node pos="r" depth="3" NCoef="0" IVar="-1" Cut="0.0000000000000000e+00" cType="1" res="5.2268807776272297e-03" rms="2.1228083968162537e-01" purity="9.4530284404754639e-01" nType="-99"/>
          </Node>
        </Node>
      </Node>
    </BinaryTree>
    <BinaryTree type="DecisionTree" boostWeight="1.0000000000000000e+00" itree="250">
      <Node pos="s" depth="0" NCoef="0" IVar="7" Cut="9.4164842367172241e-01" cType="1" res="4.6408193884417415e-04" rms="3.0096447467803955e-01" purity="4.9646237492561340e-01" nType="0">
        <Node pos="l" depth="1" NCoef="0" IVar="7" Cut="7.6467609405517578e-01" cType="1" res="-1.8938592402264476e-03" rms="3.0249178409576416e-01" purity="5.3796708583831787e-01" nType="0">
          <Node pos="l" depth="2" NCoef="0" IVar="8" Cut="1.7333317995071411e+00" cType="1" res="-8.1552547635510564e-04" rms="3.0288121104240417e-01" purity="5.4079717397689819e-01" nType="0">
            <Node pos="l" depth="3" NCoef="0" IVar="-1" Cut="0.0000000000000000e+00" cType="1" res="3.0288752168416977e-04" rms="3.0532768368721008e-01" purity="5.6134229898452759e-01" nType="-99"/>
            <Node pos="r" depth="3" NCoef="0" IVar="-1" Cut="0.0000000000000000e+00" cType="1" res="-3.0219051986932755e-02" rms="2.4951030313968658e-01" purity="1.4037352800369263e-01" nType="-99"/>
          </Node>
          <Node pos="r" depth="2" NCoef="0" IVar="-1" Cut="0.0000000000000000e+00" cType="1" res="-2.1889613941311836e-02" rms="2.9472297430038452e-01" purity="4.8704135417938232e-01" nType="-99"/>
        </Node>
        <Node pos="r" depth="1" NCoef="0" IVar="7" Cut="1.1186324357986450e+00" cType="1" res="1.3349423184990883e-02" rms="2.9214143753051758e-01" purity="2.6965320110321045e-01" nType="0">
          <Node pos="l" depth="2" NCoef="0" IVar="-1" Cut="0.0000000000000000e+00" cType="1" res="3.8826100528240204e-02" rms="3.4442681074142456e-01" purity="4.6070617437362671e-01" nType="-99"/>
          <Node pos="r" depth="2" NCoef="0" IVar="3" Cut="3.0579110717773438e+02" cType="1" res="4.2000985704362392e-03" rms="2.7107983827590942e-01" purity="2.0342741906642914e-01" nType="0">
            <Node pos="l" depth="3" NCoef="0" IVar="-1" Cut="0.0000000000000000e+00" cType="1" res="3.5496912896633148e-02" rms="2.6665157079696655e-01" purity="1.2642610073089600e-01" nType="-99"/>
            <Node pos="r" depth="3" NCoef="0" IVar="-1" Cut="0.0000000000000000e+00" cType="1" res="-8.7479064241051674e-03" rms="2.7346128225326538e-01" purity="2.5542271137237549e-01" nType="-99"/>
          </Node>
        </Node>
      </Node>
    </BinaryTree>
    <BinaryTree type="DecisionTree" boostWeight="1.0000000000000000e+00" itree="251">
      <Node pos="s" depth="0" NCoef="0" IVar="5" Cut="1.8696928405761719e+02" cType="1" res="-4.9037393182516098e-05" rms="2.9916393756866455e-01" purity="4.9844408035278320e-01" nType="0">
        <Node pos="l" depth="1" NCoef="0" IVar="5" Cut="1.7392892456054688e+02" cType="1" res="2.2913969587534666e-03" rms="3.1607797741889954e-01" purity="3.2171431183815002e-01" nType="0">
          <Node pos="l" depth="2" NCoef="0" IVar="8" Cut="-1.1999347209930420e+00" cType="1" res="4.1732823592610657e-04" rms="3.1318628787994385e-01" purity="2.9163530468940735e-01" nType="0">
            <Node pos="l" depth="3" NCoef="0" IVar="-1" Cut="0.0000000000000000e+00" cType="1" res="-1.1726186610758305e-02" rms="2.6650762557983398e-01" purity="1.5389433503150940e-01" nType="-99"/>
            <Node pos="r" depth="3" NCoef="0" IVar="-1" Cut="0.0000000000000000e+00" cType="1" res="2.1633829455822706e-03" rms="3.2128617167472839e-01" purity="3.1789785623550415e-01" nType="-99"/>
          </Node>
          <Node pos="r" depth="2" NCoef="0" IVar="-1" Cut="0.0000000000000000e+00" cType="1" res="2.1962458267807961e-02" rms="3.4959235787391663e-01" purity="7.0043116807937622e-01" nType="-99"/>
        </Node>
        <Node pos="r" depth="1" NCoef="0" IVar="0" Cut="4.5299490356445312e+02" cType="1" res="-4.8562549054622650e-03" rms="2.6094150543212891e-01" purity="8.6144441366195679e-01" nType="0">
          <Node pos="l" depth="2" NCoef="0" IVar="3" Cut="3.6496279907226562e+02" cType="1" res="-1.7276095226407051e-02" rms="3.7428164482116699e-01" purity="6.3177603483200073e-01" nType="0">
            <Node pos="l" depth="3" NCoef="0" IVar="-1" Cut="0.0000000000000000e+00" cType="1" res="-2.3540807887911797e-02" rms="3.8111296296119690e-01" purity="5.5195182561874390e-01" nType="-99"/>
            <Node pos="r" depth="3" NCoef="0" IVar="-1" Cut="0.0000000000000000e+00" cType="1" res="-4.6252151951193810e-03" rms="3.6943393945693970e-01" purity="6.8281280994415283e-01" nType="-99"/>
          </Node>
          <Node pos="r" depth="2" NCoef="0" IVar="10" Cut="-1.3310113549232483e-01" cType="1" res="-5.6162872351706028e-04" rms="2.0766142010688782e-01" purity="9.4086086750030518e-01" nType="0">
            <Node pos="l" depth="3" NCoef="0" IVar="-1" Cut="0.0000000000000000e+00" cType="1" res="-1.2326695956289768e-02" rms="2.1566291153430939e-01" purity="9.3536460399627686e-01" nType="-99"/>
            <Node pos="r" depth="3" NCoef="0" IVar="-1" Cut="0.0000000000000000e+00" cType="1" res="7.8722173348069191e-03" rms="2.0102751255035400e-01" purity="9.4520241022109985e-01" nType="-99"/>
          </Node>
        </Node>
      </Node>
    </BinaryTree>
    <BinaryTree type="DecisionTree" boostWeight="1.0000000000000000e+00" itree="252">
      <Node pos="s" depth="0" NCoef="0" IVar="7" Cut="-9.2586350440979004e-01" cType="1" res="-1.4716307632625103e-03" rms="2.9822945594787598e-01" purity="4.9966952204704285e-01" nType="0">
        <Node pos="l" depth="1" NCoef="0" IVar="9" Cut="6.6663122177124023e-01" cType="1" res="-1.1451697908341885e-02" rms="2.6496109366416931e-01" purity="2.4109290540218353e-01" nType="0">
          <Node pos="l" depth="2" NCoef="0" IVar="10" Cut="6.6683381795883179e-01" cType="1" res="-5.2660065703094006e-03" rms="2.6581838726997375e-01" purity="2.6247540116310120e-01" nType="0">
            <Node pos="l" depth="3" NCoef="0" IVar="-1" Cut="0.0000000000000000e+00" cType="1" res="-1.4548725448548794e-02" rms="2.5669646263122559e-01" purity="2.5065121054649353e-01" nType="-99"/>
            <Node pos="r" depth="3" NCoef="0" IVar="-1" Cut="0.0000000000000000e+00" cType="1" res="1.4288465492427349e-02" rms="2.9008251428604126e-01" purity="2.9688253998756409e-01" nType="-99"/>
          </Node>
          <Node pos="r" depth="2" NCoef="0" IVar="-1" Cut="0.0000000000000000e+00" cType="1" res="-4.0983416140079498e-02" rms="2.6145619153976440e-01" purity="1.7633181810379028e-01" nType="-99"/>
        </Node>
        <Node pos="r" depth="1" NCoef="0" IVar="8" Cut="-1.3327915966510773e-01" cType="1" res="2.6358108152635396e-04" rms="3.0360850691795349e-01" purity="5.4462766647338867e-01" nType="0">
          <Node pos="l" depth="2" NCoef="0" IVar="3" Cut="3.5190020751953125e+02" cType="1" res="5.8826799504458904e-03" rms="3.0858358740806580e-01" purity="5.4238909482955933e-01" nType="0">
            <Node pos="l" depth="3" NCoef="0" IVar="-1" Cut="0.0000000000000000e+00" cType="1" res="1.3678016141057014e-02" rms="3.2991206645965576e-01" purity="3.1837999820709229e-01" nType="-99"/>
            <Node pos="r" depth="3" NCoef="0" IVar="-1" Cut="0.0000000000000000e+00" cType="1" res="1.7277159495279193e-03" rms="2.9562932252883911e-01" purity="6.7029237747192383e-01" nType="-99"/>
          </Node>
          <Node pos="r" depth="2" NCoef="0" IVar="10" Cut="1.3334456086158752e-01" cType="1" res="-4.2765811085700989e-03" rms="2.9945138096809387e-01" purity="5.4643630981445312e-01" nType="0">
            <Node pos="l" depth="3" NCoef="0" IVar="-1" Cut="0.0000000000000000e+00" cType="1" res="-1.0589179582893848e-02" rms="3.0278131365776062e-01" purity="5.7284593582153320e-01" nType="-99"/>
            <Node pos="r" depth="3" NCoef="0" IVar="-1" Cut="0.0000000000000000e+00" cType="1" res="1.2516212882474065e-03" rms="2.9611003398895264e-01" purity="5.2100354433059692e-01" nType="-99"/>
          </Node>
        </Node>
      </Node>
    </BinaryTree>
    <BinaryTree type="DecisionTree" boostWeight="1.0000000000000000e+00" itree="253">
      <Node pos="s" depth="0" NCoef="0" IVar="10" Cut="-2.2666232585906982e+00" cType="1" res="-5.7536124950274825e-04" rms="2.9956400394439697e-01" purity="4.9866402149200439e-01" nType="0">
        <Node pos="l" depth="1" NCoef="0" IVar="-1" Cut="0.0000000000000000e+00" cType="1" res="-3.3224821090698242e-02" rms="2.6855894923210144e-01" purity="2.5689429044723511e-01" nType="-99"/>
        <Node pos="r" depth="1" NCoef="0" IVar="7" Cut="-3.8582983613014221e-01" cType="1" res="1.9490341946948320e-04" rms="3.0036920309066772e-01" purity="5.0558686256408691e-01" nType="0">
          <Node pos="l" depth="2" NCoef="0" IVar="8" Cut="-1.3343569636344910e-01" cType="1" res="6.6385818645358086e-03" rms="3.0471518635749817e-01" purity="4.3575060367584229e-01" nType="0">
            <Node pos="l" depth="3" NCoef="0" IVar="-1" Cut="0.0000000000000000e+00" cType="1" res="-3.8850095588713884e-03" rms="2.9775363206863403e-01" purity="4.0680167078971863e-01" nType="-99"/>
            <Node pos="r" depth="3" NCoef="0" IVar="-1" Cut="0.0000000000000000e+00" cType="1" res="1.7548274248838425e-02" rms="3.1078308820724487e-01" purity="4.6280047297477722e-01" nType="-99"/>
          </Node>
          <Node pos="r" depth="2" NCoef="0" IVar="9" Cut="-1.7334003448486328e+00" cType="1" res="-3.0076238326728344e-03" rms="2.9813387989997864e-01" purity="5.4029560089111328e-01" nType="0">
            <Node pos="l" depth="3" NCoef="0" IVar="-1" Cut="0.0000000000000000e+00" cType="1" res="-2.2657454013824463e-02" rms="2.8827002644538879e-01" purity="2.7340787649154663e-01" nType="-99"/>
            <Node pos="r" depth="3" NCoef="0" IVar="-1" Cut="0.0000000000000000e+00" cType="1" res="-2.1174733992666006e-03" rms="2.9867950081825256e-01" purity="5.5628710985183716e-01" nType="-99"/>
          </Node>
        </Node>
      </Node>
    </BinaryTree>
    <BinaryTree type="DecisionTree" boostWeight="1.0000000000000000e+00" itree="254">
      <Node pos="s" depth="0" NCoef="0" IVar="3" Cut="3.4596862792968750e+02" cType="1" res="-8.3134113810956478e-04" rms="2.9712992906570435e-01" purity="4.9921908974647522e-01" nType="0">
        <Node pos="l" depth="1" NCoef="0" IVar="5" Cut="1.8731436157226562e+02" cType="1" res="-8.4181614220142365e-03" rms="2.9337510466575623e-01" purity="2.6891559362411499e-01" nType="0">
          <Node pos="l" depth="2" NCoef="0" IVar="1" Cut="1.1165797119140625e+03" cType="1" res="-1.1306347325444221e-02" rms="2.8659200668334961e-01" purity="1.8233253061771393e-01" nType="0">
            <Node pos="l" depth="3" NCoef="0" IVar="-1" Cut="0.0000000000000000e+00" cType="1" res="-8.8151022791862488e-03" rms="2.2137288749217987e-01" purity="5.7896628975868225e-02" nType="-99"/>
            <Node pos="r" depth="3" NCoef="0" IVar="-1" Cut="0.0000000000000000e+00" cType="1" res="-1.6231890767812729e-02" rms="3.9083227515220642e-01" purity="4.4868260622024536e-01" nType="-99"/>
          </Node>
          <Node pos="r" depth="2" NCoef="0" IVar="-1" Cut="0.0000000000000000e+00" cType="1" res="6.9265351630747318e-03" rms="3.2777926325798035e-01" purity="7.4583625793457031e-01" nType="-99"/>
        </Node>
        <Node pos="r" depth="1" NCoef="0" IVar="7" Cut="-1.3919994831085205e+00" cType="1" res="3.7203233223408461e-03" rms="2.9926773905754089e-01" purity="6.3738822937011719e-01" nType="0">
          <Node pos="l" depth="2" NCoef="0" IVar="-1" Cut="0.0000000000000000e+00" cType="1" res="-3.4657724201679230e-02" rms="2.1926061809062958e-01" purity="1.3747327029705048e-01" nType="-99"/>
          <Node pos="r" depth="2" NCoef="0" IVar="8" Cut="-1.1997708082199097e+00" cType="1" res="4.8518902622163296e-03" rms="3.0229064822196960e-01" purity="6.5966296195983887e-01" nType="0">
            <Node pos="l" depth="3" NCoef="0" IVar="-1" Cut="0.0000000000000000e+00" cType="1" res="1.8007416278123856e-02" rms="3.2959437370300293e-01" purity="4.2795085906982422e-01" nType="-99"/>
            <Node pos="r" depth="3" NCoef="0" IVar="-1" Cut="0.0000000000000000e+00" cType="1" res="3.4622296225279570e-03" rms="2.9880794882774353e-01" purity="6.8737959861755371e-01" nType="-99"/>
          </Node>
        </Node>
      </Node>
    </BinaryTree>
    <BinaryTree type="DecisionTree" boostWeight="1.0000000000000000e+00" itree="255">
      <Node pos="s" depth="0" NCoef="0" IVar="9" Cut="1.9999754428863525e+00" cType="1" res="2.6819025515578687e-04" rms="2.9912731051445007e-01" purity="4.9897894263267517e-01" nType="0">
        <Node pos="l" depth="1" NCoef="0" IVar="7" Cut="6.7096471786499023e-01" cType="1" res="9.1920210979878902e-04" rms="3.0042755603790283e-01" purity="5.1194280385971069e-01" nType="0">
          <Node pos="l" depth="2" NCoef="0" IVar="9" Cut="-7.4281114339828491e-01" cType="1" res="2.7293905150145292e-03" rms="3.0388310551643372e-01" purity="5.5797475576400757e-01" nType="0">
            <Node pos="l" depth="3" NCoef="0" IVar="-1" Cut="0.0000000000000000e+00" cType="1" res="-2.1886869799345732e-03" rms="3.0609199404716492e-01" purity="4.5129901170730591e-01" nType="-99"/>
            <Node pos="r" depth="3" NCoef="0" IVar="-1" Cut="0.0000000000000000e+00" cType="1" res="5.0339070148766041e-03" rms="3.0302125215530396e-01" purity="5.9844863414764404e-01" nType="-99"/>
          </Node>
          <Node pos="r" depth="2" NCoef="0" IVar="10" Cut="-6.6680365800857544e-01" cType="1" res="-5.3842286579310894e-03" rms="2.8798264265060425e-01" purity="3.5165053606033325e-01" nType="0">
            <Node pos="l" depth="3" NCoef="0" IVar="-1" Cut="0.0000000000000000e+00" cType="1" res="-2.4912085384130478e-02" rms="2.7173829078674316e-01" purity="2.9373282194137573e-01" nType="-99"/>
            <Node pos="r" depth="3" NCoef="0" IVar="-1" Cut="0.0000000000000000e+00" cType="1" res="-1.2879335554316640e-04" rms="2.9306179285049438e-01" purity="3.7115249037742615e-01" nType="-99"/>
          </Node>
        </Node>
        <Node pos="r" depth="1" NCoef="0" IVar="-1" Cut="0.0000000000000000e+00" cType="1" res="-1.9608920440077782e-02" rms="2.6538255810737610e-01" purity="1.8646514415740967e-01" nType="-99"/>
      </Node>
    </BinaryTree>
    <BinaryTree type="DecisionTree" boostWeight="1.0000000000000000e+00" itree="256">
      <Node pos="s" depth="0" NCoef="0" IVar="10" Cut="-1.9999375343322754e+00" cType="1" res="7.2284013731405139e-04" rms="2.9874590039253235e-01" purity="4.9747475981712341e-01" nType="0">
        <Node pos="l" depth="1" NCoef="0" IVar="8" Cut="-1.3409516215324402e-01" cType="1" res="1.8077574670314789e-02" rms="3.1411957740783691e-01" purity="3.4225156903266907e-01" nType="0">
          <Node pos="l" depth="2" NCoef="0" IVar="-1" Cut="0.0000000000000000e+00" cType="1" res="3.5271245986223221e-02" rms="3.1440344452857971e-01" purity="3.3961606025695801e-01" nType="-99"/>
          <Node pos="r" depth="2" NCoef="0" IVar="-1" Cut="0.0000000000000000e+00" cType="1" res="4.6940869651734829e-03" rms="3.1323882937431335e-01" purity="3.4509515762329102e-01" nType="-99"/>
        </Node>
        <Node pos="r" depth="1" NCoef="0" IVar="8" Cut="-9.3333888053894043e-01" cType="1" res="-2.3559106921311468e-04" rms="2.9784429073333740e-01" purity="5.0604712963104248e-01" nType="0">
          <Node pos="l" depth="2" NCoef="0" IVar="10" Cut="-1.0856325626373291e+00" cType="1" res="8.1618390977382660e-03" rms="3.0570358037948608e-01" purity="3.5891601443290710e-01" nType="0">
            <Node pos="l" depth="3" NCoef="0" IVar="-1" Cut="0.0000000000000000e+00" cType="1" res="-1.7982095479965210e-02" rms="2.7029001712799072e-01" purity="2.8464344143867493e-01" nType="-99"/>
            <Node pos="r" depth="3" NCoef="0" IVar="-1" Cut="0.0000000000000000e+00" cType="1" res="1.5186366625130177e-02" rms="3.1346425414085388e-01" purity="3.7702202796936035e-01" nType="-99"/>
          </Node>
          <Node pos="r" depth="2" NCoef="0" IVar="10" Cut="1.4285613298416138e+00" cType="1" res="-2.1393946371972561e-03" rms="2.9600033164024353e-01" purity="5.3940361738204956e-01" nType="0">
            <Node pos="l" depth="3" NCoef="0" IVar="-1" Cut="0.0000000000000000e+00" cType="1" res="-5.8257865021005273e-04" rms="2.9565310478210449e-01" purity="5.6090939044952393e-01" nType="-99"/>
            <Node pos="r" depth="3" NCoef="0" IVar="-1" Cut="0.0000000000000000e+00" cType="1" res="-1.3608486391603947e-02" rms="2.9795792698860168e-01" purity="4.0516790747642517e-01" nType="-99"/>
          </Node>
        </Node>
      </Node>
    </BinaryTree>
    <BinaryTree type="DecisionTree" boostWeight="1.0000000000000000e+00" itree="257">
      <Node pos="s" depth="0" NCoef="0" IVar="10" Cut="-2.2666554450988770e+00" cType="1" res="-9.4345392426475883e-04" rms="3.0027088522911072e-01" purity="4.9564391374588013e-01" nType="0">
        <Node pos="l" depth="1" NCoef="0" IVar="-1" Cut="0.0000000000000000e+00" cType="1" res="4.3946556746959686e-02" rms="3.3132302761077881e-01" purity="3.3085933327674866e-01" nType="-99"/>
        <Node pos="r" depth="1" NCoef="0" IVar="2" Cut="8.3595342934131622e-02" cType="1" res="-2.1283852402120829e-03" rms="2.9923075437545776e-01" purity="5.0046825408935547e-01" nType="0">
          <Node pos="l" depth="2" NCoef="0" IVar="2" Cut="7.9615628346800804e-03" cType="1" res="1.3661129924003035e-04" rms="3.0625593662261963e-01" purity="4.0493249893188477e-01" nType="0">
            <Node pos="l" depth="3" NCoef="0" IVar="-1" Cut="0.0000000000000000e+00" cType="1" res="-1.4353323727846146e-02" rms="2.4613456428050995e-01" purity="1.6510646045207977e-01" nType="-99"/>
            <Node pos="r" depth="3" NCoef="0" IVar="-1" Cut="0.0000000000000000e+00" cType="1" res="2.9412056319415569e-03" rms="3.2106631994247437e-01" purity="4.7228446602821350e-01" nType="-99"/>
          </Node>
          <Node pos="r" depth="2" NCoef="0" IVar="6" Cut="7.8397705078125000e+01" cType="1" res="-9.2759458348155022e-03" rms="2.7576929330825806e-01" purity="8.0194699764251709e-01" nType="0">
            <Node pos="l" depth="3" NCoef="0" IVar="-1" Cut="0.0000000000000000e+00" cType="1" res="-3.0896784737706184e-02" rms="3.4663379192352295e-01" purity="4.3967908620834351e-01" nType="-99"/>
            <Node pos="r" depth="3" NCoef="0" IVar="-1" Cut="0.0000000000000000e+00" cType="1" res="-4.7221747227013111e-03" rms="2.5868588685989380e-01" purity="8.7513560056686401e-01" nType="-99"/>
          </Node>
        </Node>
      </Node>
    </BinaryTree>
    <BinaryTree type="DecisionTree" boostWeight="1.0000000000000000e+00" itree="258">
      <Node pos="s" depth="0" NCoef="0" IVar="9" Cut="9.3331617116928101e-01" cType="1" res="1.9723440054804087e-03" rms="3.0245268344879150e-01" purity="5.0000834465026855e-01" nType="0">
        <Node pos="l" depth="1" NCoef="0" IVar="3" Cut="3.5190039062500000e+02" cType="1" res="-3.9836205542087555e-04" rms="2.9863545298576355e-01" purity="5.2490192651748657e-01" nType="0">
          <Node pos="l" depth="2" NCoef="0" IVar="7" Cut="6.7071783542633057e-01" cType="1" res="-6.0151936486363411e-03" rms="3.0391100049018860e-01" purity="2.8954496979713440e-01" nType="0">
            <Node pos="l" depth="3" NCoef="0" IVar="-1" Cut="0.0000000000000000e+00" cType="1" res="-1.1572116985917091e-02" rms="3.0776983499526978e-01" purity="3.0709686875343323e-01" nType="-99"/>
            <Node pos="r" depth="3" NCoef="0" IVar="-1" Cut="0.0000000000000000e+00" cType="1" res="8.8121807202696800e-03" rms="2.9269805550575256e-01" purity="2.4162533879280090e-01" nType="-99"/>
          </Node>
          <Node pos="r" depth="2" NCoef="0" IVar="0" Cut="4.5206744384765625e+02" cType="1" res="2.9546872247010469e-03" rms="2.9539030790328979e-01" purity="6.6540163755416870e-01" nType="0">
            <Node pos="l" depth="3" NCoef="0" IVar="-1" Cut="0.0000000000000000e+00" cType="1" res="9.6973078325390816e-03" rms="3.3849519491195679e-01" purity="3.5712608695030212e-01" nType="-99"/>
            <Node pos="r" depth="3" NCoef="0" IVar="-1" Cut="0.0000000000000000e+00" cType="1" res="-1.8770341994240880e-03" rms="2.6967972517013550e-01" purity="8.2870745658874512e-01" nType="-99"/>
          </Node>
        </Node>
        <Node pos="r" depth="1" NCoef="0" IVar="10" Cut="-1.1999946832656860e+00" cType="1" res="1.0565598495304585e-02" rms="3.1575369834899902e-01" purity="4.0977504849433899e-01" nType="0">
          <Node pos="l" depth="2" NCoef="0" IVar="-1" Cut="0.0000000000000000e+00" cType="1" res="-2.4167818948626518e-02" rms="2.9065179824829102e-01" purity="3.4327122569084167e-01" nType="-99"/>
          <Node pos="r" depth="2" NCoef="0" IVar="5" Cut="1.7242164611816406e+02" cType="1" res="1.6485342755913734e-02" rms="3.1954136490821838e-01" purity="4.2132273316383362e-01" nType="0">
            <Node pos="l" depth="3" NCoef="0" IVar="-1" Cut="0.0000000000000000e+00" cType="1" res="2.7568550780415535e-02" rms="3.2568532228469849e-01" purity="2.7462646365165710e-01" nType="-99"/>
            <Node pos="r" depth="3" NCoef="0" IVar="-1" Cut="0.0000000000000000e+00" cType="1" res="-6.0693966224789619e-03" rms="3.0316933989524841e-01" purity="7.7359414100646973e-01" nType="-99"/>
          </Node>
        </Node>
      </Node>
    </BinaryTree>
    <BinaryTree type="DecisionTree" boostWeight="1.0000000000000000e+00" itree="259">
      <Node pos="s" depth="0" NCoef="0" IVar="8" Cut="3.9998450875282288e-01" cType="1" res="-6.0568698245333508e-05" rms="2.9931375384330750e-01" purity="4.9616533517837524e-01" nType="0">
        <Node pos="l" depth="1" NCoef="0" IVar="7" Cut="-1.2023095786571503e-01" cType="1" res="-3.6657289601862431e-03" rms="2.9552656412124634e-01" purity="5.2059966325759888e-01" nType="0">
          <Node pos="l" depth="2" NCoef="0" IVar="4" Cut="3.3772540283203125e+02" cType="1" res="-1.0533760301768780e-02" rms="2.8853166103363037e-01" purity="4.8690646886825562e-01" nType="0">
            <Node pos="l" depth="3" NCoef="0" IVar="-1" Cut="0.0000000000000000e+00" cType="1" res="-1.5646534040570259e-02" rms="2.9652208089828491e-01" purity="3.7175369262695312e-01" nType="-99"/>
            <Node pos="r" depth="3" NCoef="0" IVar="-1" Cut="0.0000000000000000e+00" cType="1" res="4.5766490511596203e-03" rms="2.5956174731254578e-01" purity="8.7211579084396362e-01" nType="-99"/>
          </Node>
          <Node pos="r" depth="2" NCoef="0" IVar="3" Cut="4.9194741821289062e+02" cType="1" res="2.0744695793837309e-03" rms="3.0112805962562561e-01" purity="5.4875993728637695e-01" nType="0">
            <Node pos="l" depth="3" NCoef="0" IVar="-1" Cut="0.0000000000000000e+00" cType="1" res="8.3191376179456711e-03" rms="3.1111076474189758e-01" purity="4.5465117692947388e-01" nType="-99"/>
            <Node pos="r" depth="3" NCoef="0" IVar="-1" Cut="0.0000000000000000e+00" cType="1" res="-1.3072492554783821e-02" rms="2.7776968479156494e-01" purity="7.5341600179672241e-01" nType="-99"/>
          </Node>
        </Node>
        <Node pos="r" depth="1" NCoef="0" IVar="7" Cut="1.4778376817703247e+00" cType="1" res="6.5417289733886719e-03" rms="3.0601784586906433e-01" purity="4.5141762495040894e-01" nType="0">
          <Node pos="l" depth="2" NCoef="0" IVar="7" Cut="8.7366962432861328e-01" cType="1" res="5.2838223055005074e-03" rms="3.1000766158103943e-01" purity="4.7770506143569946e-01" nType="0">
            <Node pos="l" depth="3" NCoef="0" IVar="-1" Cut="0.0000000000000000e+00" cType="1" res="8.3337957039475441e-03" rms="3.1078851222991943e-01" purity="5.0720673799514771e-01" nType="-99"/>
            <Node pos="r" depth="3" NCoef="0" IVar="-1" Cut="0.0000000000000000e+00" cType="1" res="-1.2555948458611965e-02" rms="3.0442249774932861e-01" purity="2.8890636563301086e-01" nType="-99"/>
          </Node>
          <Node pos="r" depth="2" NCoef="0" IVar="-1" Cut="0.0000000000000000e+00" cType="1" res="4.6926293522119522e-02" rms="2.4754770100116730e-01" purity="1.0834039002656937e-01" nType="-99"/>
        </Node>
      </Node>
    </BinaryTree>
    <BinaryTree type="DecisionTree" boostWeight="1.0000000000000000e+00" itree="260">
      <Node pos="s" depth="0" NCoef="0" IVar="10" Cut="2.2666633129119873e+00" cType="1" res="-1.4898987501510419e-05" rms="2.9717376828193665e-01" purity="5.0403171777725220e-01" nType="0">
        <Node pos="l" depth="1" NCoef="0" IVar="9" Cut="6.6661298274993896e-01" cType="1" res="-9.7450782777741551e-04" rms="2.9613071680068970e-01" purity="5.0956916809082031e-01" nType="0">
          <Node pos="l" depth="2" NCoef="0" IVar="3" Cut="4.9193734741210938e+02" cType="1" res="1.7695815768092871e-03" rms="2.9517918825149536e-01" purity="5.3878080844879150e-01" nType="0">
            <Node pos="l" depth="3" NCoef="0" IVar="-1" Cut="0.0000000000000000e+00" cType="1" res="-1.6195831121876836e-03" rms="3.0010604858398438e-01" purity="4.3089947104454041e-01" nType="-99"/>
            <Node pos="r" depth="3" NCoef="0" IVar="-1" Cut="0.0000000000000000e+00" cType="1" res="1.0250689461827278e-02" rms="2.8439515829086304e-01" purity="7.6615715026855469e-01" nType="-99"/>
          </Node>
          <Node pos="r" depth="2" NCoef="0" IVar="8" Cut="-1.1994841098785400e+00" cType="1" res="-8.1964218989014626e-03" rms="2.9850000143051147e-01" purity="4.3268972635269165e-01" nType="0">
            <Node pos="l" depth="3" NCoef="0" IVar="-1" Cut="0.0000000000000000e+00" cType="1" res="-3.5519618541002274e-02" rms="2.7422398328781128e-01" purity="1.8133188784122467e-01" nType="-99"/>
            <Node pos="r" depth="3" NCoef="0" IVar="-1" Cut="0.0000000000000000e+00" cType="1" res="-6.0137072578072548e-03" rms="3.0123499035835266e-01" purity="4.6347638964653015e-01" nType="-99"/>
          </Node>
        </Node>
        <Node pos="r" depth="1" NCoef="0" IVar="-1" Cut="0.0000000000000000e+00" cType="1" res="3.4657482057809830e-02" rms="3.2791200280189514e-01" purity="3.2302772998809814e-01" nType="-99"/>
      </Node>
    </BinaryTree>
    <BinaryTree type="DecisionTree" boostWeight="1.0000000000000000e+00" itree="261">
      <Node pos="s" depth="0" NCoef="0" IVar="9" Cut="-6.6678768396377563e-01" cType="1" res="1.1810553405666724e-04" rms="2.9906222224235535e-01" purity="4.9809634685516357e-01" nType="0">
        <Node pos="l" depth="1" NCoef="0" IVar="0" Cut="5.5563537597656250e+02" cType="1" res="4.7492873854935169e-03" rms="3.0891230702400208e-01" purity="4.3171578645706177e-01" nType="0">
          <Node pos="l" depth="2" NCoef="0" IVar="0" Cut="3.2434918212890625e+02" cType="1" res="1.0171722620725632e-02" rms="3.1600439548492432e-01" purity="2.8323185443878174e-01" nType="0">
            <Node pos="l" depth="3" NCoef="0" IVar="-1" Cut="0.0000000000000000e+00" cType="1" res="-2.0973743870854378e-02" rms="2.3736377060413361e-01" purity="9.4670504331588745e-02" nType="-99"/>
            <Node pos="r" depth="3" NCoef="0" IVar="-1" Cut="0.0000000000000000e+00" cType="1" res="1.4750044792890549e-02" rms="3.3029168844223022e-01" purity="3.2388734817504883e-01" nType="-99"/>
          </Node>
          <Node pos="r" depth="2" NCoef="0" IVar="6" Cut="9.9522834777832031e+01" cType="1" res="-9.6344426274299622e-03" rms="2.8876557946205139e-01" purity="8.2558906078338623e-01" nType="0">
            <Node pos="l" depth="3" NCoef="0" IVar="-1" Cut="0.0000000000000000e+00" cType="1" res="-2.6108635589480400e-02" rms="3.6198395490646362e-01" purity="6.6418361663818359e-01" nType="-99"/>
            <Node pos="r" depth="3" NCoef="0" IVar="-1" Cut="0.0000000000000000e+00" cType="1" res="1.1321672238409519e-02" rms="2.2413001954555511e-01" purity="9.3585038185119629e-01" nType="-99"/>
          </Node>
        </Node>
        <Node pos="r" depth="1" NCoef="0" IVar="9" Cut="-5.0171381235122681e-01" cType="1" res="-1.7027831636369228e-03" rms="2.9507941007614136e-01" purity="5.2419584989547729e-01" nType="0">
          <Node pos="l" depth="2" NCoef="0" IVar="-1" Cut="0.0000000000000000e+00" cType="1" res="-2.3849964141845703e-02" rms="2.8840726613998413e-01" purity="5.6045711040496826e-01" nType="-99"/>
          <Node pos="r" depth="2" NCoef="0" IVar="10" Cut="-1.1996726989746094e+00" cType="1" res="-2.3605537717230618e-04" rms="2.9551553726196289e-01" purity="5.2150660753250122e-01" nType="0">
            <Node pos="l" depth="3" NCoef="0" IVar="-1" Cut="0.0000000000000000e+00" cType="1" res="8.7175108492374420e-03" rms="3.0314221978187561e-01" purity="4.9103659391403198e-01" nType="-99"/>
            <Node pos="r" depth="3" NCoef="0" IVar="-1" Cut="0.0000000000000000e+00" cType="1" res="-2.1474631503224373e-03" rms="2.9395005106925964e-01" purity="5.2755707502365112e-01" nType="-99"/>
          </Node>
        </Node>
      </Node>
    </BinaryTree>
    <BinaryTree type="DecisionTree" boostWeight="1.0000000000000000e+00" itree="262">
      <Node pos="s" depth="0" NCoef="0" IVar="10" Cut="-1.9999938011169434e+00" cType="1" res="-7.6829321915283799e-04" rms="2.9793885350227356e-01" purity="4.9915832281112671e-01" nType="0">
        <Node pos="l" depth="1" NCoef="0" IVar="-1" Cut="0.0000000000000000e+00" cType="1" res="-1.7062755301594734e-02" rms="2.9492324590682983e-01" purity="3.2041147351264954e-01" nType="-99"/>
        <Node pos="r" depth="1" NCoef="0" IVar="10" Cut="2.1142792701721191e+00" cType="1" res="-1.5309329910451197e-06" rms="2.9807481169700623e-01" purity="5.0844871997833252e-01" nType="0">
          <Node pos="l" depth="2" NCoef="0" IVar="4" Cut="2.4044160461425781e+02" cType="1" res="5.8084976626560092e-04" rms="2.9835703969001770e-01" purity="5.1782232522964478e-01" nType="0">
            <Node pos="l" depth="3" NCoef="0" IVar="-1" Cut="0.0000000000000000e+00" cType="1" res="-2.7981060557067394e-03" rms="3.0687448382377625e-01" purity="2.5020828843116760e-01" nType="-99"/>
            <Node pos="r" depth="3" NCoef="0" IVar="-1" Cut="0.0000000000000000e+00" cType="1" res="4.5541441068053246e-03" rms="2.8934633731842041e-01" purity="7.9162824153900146e-01" nType="-99"/>
          </Node>
          <Node pos="r" depth="2" NCoef="0" IVar="-1" Cut="0.0000000000000000e+00" cType="1" res="-1.4061811380088329e-02" rms="2.9143521189689636e-01" purity="3.0023559927940369e-01" nType="-99"/>
        </Node>
      </Node>
    </BinaryTree>
    <BinaryTree type="DecisionTree" boostWeight="1.0000000000000000e+00" itree="263">
      <Node pos="s" depth="0" NCoef="0" IVar="9" Cut="1.4666540622711182e+00" cType="1" res="1.8498697318136692e-03" rms="2.9985001683235168e-01" purity="5.0166642665863037e-01" nType="0">
        <Node pos="l" depth="1" NCoef="0" IVar="9" Cut="4.5078256726264954e-01" cType="1" res="2.9840066563338041e-03" rms="3.0066341161727905e-01" purity="5.2624928951263428e-01" nType="0">
          <Node pos="l" depth="2" NCoef="0" IVar="1" Cut="1.1200350341796875e+03" cType="1" res="-1.1227839422645047e-04" rms="2.9924455285072327e-01" purity="5.1946961879730225e-01" nType="0">
            <Node pos="l" depth="3" NCoef="0" IVar="-1" Cut="0.0000000000000000e+00" cType="1" res="1.7954165115952492e-02" rms="2.3704440891742706e-01" purity="6.8582661449909210e-02" nType="-99"/>
            <Node pos="r" depth="3" NCoef="0" IVar="-1" Cut="0.0000000000000000e+00" cType="1" res="-3.2985580619424582e-03" rms="3.1838491559028625e-01" purity="6.7980629205703735e-01" nType="-99"/>
          </Node>
          <Node pos="r" depth="2" NCoef="0" IVar="2" Cut="4.1124202311038971e-02" cType="1" res="1.0942381806671619e-02" rms="3.0413535237312317e-01" purity="5.4367500543594360e-01" nType="0">
            <Node pos="l" depth="3" NCoef="0" IVar="-1" Cut="0.0000000000000000e+00" cType="1" res="2.1830620244145393e-02" rms="3.1634828448295593e-01" purity="3.6463874578475952e-01" nType="-99"/>
            <Node pos="r" depth="3" NCoef="0" IVar="-1" Cut="0.0000000000000000e+00" cType="1" res="-2.7774996124207973e-04" rms="2.8948932886123657e-01" purity="7.4348199367523193e-01" nType="-99"/>
          </Node>
        </Node>
        <Node pos="r" depth="1" NCoef="0" IVar="3" Cut="3.1927029418945312e+02" cType="1" res="-8.2958508282899857e-03" rms="2.9227712750434875e-01" purity="2.8175455331802368e-01" nType="0">
          <Node pos="l" depth="2" NCoef="0" IVar="-1" Cut="0.0000000000000000e+00" cType="1" res="-3.5584617406129837e-02" rms="2.4076296389102936e-01" purity="1.0640503466129303e-01" nType="-99"/>
          <Node pos="r" depth="2" NCoef="0" IVar="7" Cut="1.8996977806091309e-01" cType="1" res="1.6506023239344358e-03" rms="3.1963911652565002e-01" purity="3.9032632112503052e-01" nType="0">
            <Node pos="l" depth="3" NCoef="0" IVar="-1" Cut="0.0000000000000000e+00" cType="1" res="-9.0797441080212593e-03" rms="3.2360997796058655e-01" purity="4.0088018774986267e-01" nType="-99"/>
            <Node pos="r" depth="3" NCoef="0" IVar="-1" Cut="0.0000000000000000e+00" cType="1" res="1.5171381644904613e-02" rms="3.1437879800796509e-01" purity="3.7798619270324707e-01" nType="-99"/>
          </Node>
        </Node>
      </Node>
    </BinaryTree>
    <BinaryTree type="DecisionTree" boostWeight="1.0000000000000000e+00" itree="264">
      <Node pos="s" depth="0" NCoef="0" IVar="8" Cut="1.1999169588088989e+00" cType="1" res="2.9630062635987997e-04" rms="2.9820692539215088e-01" purity="4.9940839409828186e-01" nType="0">
        <Node pos="l" depth="1" NCoef="0" IVar="7" Cut="1.4692332744598389e+00" cType="1" res="1.8555594142526388e-03" rms="3.0041238665580750e-01" purity="5.3423494100570679e-01" nType="0">
          <Node pos="l" depth="2" NCoef="0" IVar="7" Cut="-1.3690606355667114e+00" cType="1" res="9.2788285110145807e-04" rms="3.0299901962280273e-01" purity="5.5772769451141357e-01" nType="0">
            <Node pos="l" depth="3" NCoef="0" IVar="-1" Cut="0.0000000000000000e+00" cType="1" res="2.6134401559829712e-02" rms="2.5334903597831726e-01" purity="1.7351281642913818e-01" nType="-99"/>
            <Node pos="r" depth="3" NCoef="0" IVar="-1" Cut="0.0000000000000000e+00" cType="1" res="-3.7866560160182416e-04" rms="3.0658739805221558e-01" purity="5.8846396207809448e-01" nType="-99"/>
          </Node>
          <Node pos="r" depth="2" NCoef="0" IVar="9" Cut="1.3316248357295990e-01" cType="1" res="1.7067112028598785e-02" rms="2.5378933548927307e-01" purity="1.4901314675807953e-01" nType="0">
            <Node pos="l" depth="3" NCoef="0" IVar="-1" Cut="0.0000000000000000e+00" cType="1" res="2.1444687619805336e-02" rms="2.6087868213653564e-01" purity="1.4618991315364838e-01" nType="-99"/>
            <Node pos="r" depth="3" NCoef="0" IVar="-1" Cut="0.0000000000000000e+00" cType="1" res="3.4638654440641403e-02" rms="2.4648293852806091e-01" purity="1.5181580185890198e-01" nType="-99"/>
          </Node>
        </Node>
        <Node pos="r" depth="1" NCoef="0" IVar="9" Cut="-1.3332894444465637e-01" cType="1" res="-1.0637873783707619e-02" rms="2.8201544284820557e-01" purity="2.5519016385078430e-01" nType="0">
          <Node pos="l" depth="2" NCoef="0" IVar="-1" Cut="0.0000000000000000e+00" cType="1" res="-3.3617008477449417e-02" rms="2.6831051707267761e-01" purity="2.4458546936511993e-01" nType="-99"/>
          <Node pos="r" depth="2" NCoef="0" IVar="10" Cut="4.0034267306327820e-01" cType="1" res="3.6927472683601081e-04" rms="2.9000431299209595e-01" purity="2.6204922795295715e-01" nType="0">
            <Node pos="l" depth="3" NCoef="0" IVar="-1" Cut="0.0000000000000000e+00" cType="1" res="1.3113051652908325e-02" rms="3.1137755513191223e-01" purity="3.2317626476287842e-01" nType="-99"/>
            <Node pos="r" depth="3" NCoef="0" IVar="-1" Cut="0.0000000000000000e+00" cType="1" res="-1.6395477578043938e-02" rms="2.6309791207313538e-01" purity="1.9287312030792236e-01" nType="-99"/>
          </Node>
        </Node>
      </Node>
    </BinaryTree>
    <BinaryTree type="DecisionTree" boostWeight="1.0000000000000000e+00" itree="265">
      <Node pos="s" depth="0" NCoef="0" IVar="0" Cut="4.5299465942382812e+02" cType="1" res="2.7407877496443689e-04" rms="2.9760664701461792e-01" purity="4.9732455611228943e-01" nType="0">
        <Node pos="l" depth="1" NCoef="0" IVar="9" Cut="1.1999462842941284e+00" cType="1" res="-4.4278539717197418e-03" rms="3.0060383677482605e-01" purity="2.2825342416763306e-01" nType="0">
          <Node pos="l" depth="2" NCoef="0" IVar="9" Cut="-5.1431316137313843e-01" cType="1" res="-6.2235970981419086e-03" rms="3.0393511056900024e-01" purity="2.4371214210987091e-01" nType="0">
            <Node pos="l" depth="3" NCoef="0" IVar="-1" Cut="0.0000000000000000e+00" cType="1" res="2.1552163525484502e-04" rms="2.9329225420951843e-01" purity="2.1024325489997864e-01" nType="-99"/>
            <Node pos="r" depth="3" NCoef="0" IVar="-1" Cut="0.0000000000000000e+00" cType="1" res="-1.0917058214545250e-02" rms="3.1150209903717041e-01" purity="2.6851356029510498e-01" nType="-99"/>
          </Node>
          <Node pos="r" depth="2" NCoef="0" IVar="5" Cut="1.1004457855224609e+02" cType="1" res="3.9274105802178383e-03" rms="2.8444266319274902e-01" purity="1.5632687509059906e-01" nType="0">
            <Node pos="l" depth="3" NCoef="0" IVar="-1" Cut="0.0000000000000000e+00" cType="1" res="-1.5294261276721954e-02" rms="1.9655112922191620e-01" purity="4.6987481415271759e-02" nType="-99"/>
            <Node pos="r" depth="3" NCoef="0" IVar="-1" Cut="0.0000000000000000e+00" cType="1" res="1.3389592058956623e-02" rms="3.6169293522834778e-01" purity="2.8619101643562317e-01" nType="-99"/>
          </Node>
        </Node>
        <Node pos="r" depth="1" NCoef="0" IVar="8" Cut="-1.4665461778640747e+00" cType="1" res="5.0762346945703030e-03" rms="2.9443657398223877e-01" purity="7.7213096618652344e-01" nType="0">
          <Node pos="l" depth="2" NCoef="0" IVar="-1" Cut="0.0000000000000000e+00" cType="1" res="2.3739010095596313e-02" rms="3.5980761051177979e-01" purity="5.0701886415481567e-01" nType="-99"/>
          <Node pos="r" depth="2" NCoef="0" IVar="2" Cut="2.1328758448362350e-02" cType="1" res="3.5478298086673021e-03" rms="2.9003384709358215e-01" purity="7.8782284259796143e-01" nType="0">
            <Node pos="l" depth="3" NCoef="0" IVar="-1" Cut="0.0000000000000000e+00" cType="1" res="1.1784721165895462e-02" rms="3.4688672423362732e-01" purity="5.5897516012191772e-01" nType="-99"/>
            <Node pos="r" depth="3" NCoef="0" IVar="-1" Cut="0.0000000000000000e+00" cType="1" res="-3.8360749022103846e-04" rms="2.6692870259284973e-01" purity="8.6879903078079224e-01" nType="-99"/>
          </Node>
        </Node>
      </Node>
    </BinaryTree>
    <BinaryTree type="DecisionTree" boostWeight="1.0000000000000000e+00" itree="266">
      <Node pos="s" depth="0" NCoef="0" IVar="4" Cut="1.4608894348144531e+02" cType="1" res="2.6338146999478340e-03" rms="3.0121058225631714e-01" purity="4.9988102912902832e-01" nType="0">
        <Node pos="l" depth="1" NCoef="0" IVar="10" Cut="-1.3329979777336121e-01" cType="1" res="-7.2841127403080463e-03" rms="2.1628488600254059e-01" purity="7.2439707815647125e-02" nType="0">
          <Node pos="l" depth="2" NCoef="0" IVar="0" Cut="4.1327676391601562e+02" cType="1" res="-1.6027998179197311e-02" rms="1.9918446242809296e-01" purity="5.9139166027307510e-02" nType="0">
            <Node pos="l" depth="3" NCoef="0" IVar="-1" Cut="0.0000000000000000e+00" cType="1" res="-2.6104388758540154e-02" rms="1.5675218403339386e-01" purity="2.7296805754303932e-02" nType="-99"/>
            <Node pos="r" depth="3" NCoef="0" IVar="-1" Cut="0.0000000000000000e+00" cType="1" res="-3.4135151654481888e-02" rms="2.6552948355674744e-01" purity="1.2493123859167099e-01" nType="-99"/>
          </Node>
          <Node pos="r" depth="2" NCoef="0" IVar="4" Cut="1.1911921691894531e+02" cType="1" res="-1.4164394815452397e-04" rms="2.2906151413917542e-01" purity="8.3304286003112793e-02" nType="0">
            <Node pos="l" depth="3" NCoef="0" IVar="-1" Cut="0.0000000000000000e+00" cType="1" res="-2.6184653863310814e-02" rms="1.7337097227573395e-01" purity="4.0005162358283997e-02" nType="-99"/>
            <Node pos="r" depth="3" NCoef="0" IVar="-1" Cut="0.0000000000000000e+00" cType="1" res="1.6029985621571541e-02" rms="2.8314676880836487e-01" purity="1.3736891746520996e-01" nType="-99"/>
          </Node>
        </Node>
        <Node pos="r" depth="1" NCoef="0" IVar="7" Cut="-1.4247038364410400e+00" cType="1" res="5.0971582531929016e-03" rms="3.1876787543296814e-01" purity="6.0604584217071533e-01" nType="0">
          <Node pos="l" depth="2" NCoef="0" IVar="-1" Cut="0.0000000000000000e+00" cType="1" res="3.8940016180276871e-02" rms="3.0365180969238281e-01" purity="1.9423337280750275e-01" nType="-99"/>
          <Node pos="r" depth="2" NCoef="0" IVar="9" Cut="-9.3340748548507690e-01" cType="1" res="3.6633743438869715e-03" rms="3.1953889131546021e-01" purity="6.2927180528640747e-01" nType="0">
            <Node pos="l" depth="3" NCoef="0" IVar="-1" Cut="0.0000000000000000e+00" cType="1" res="1.2959133833646774e-02" rms="3.4425541758537292e-01" purity="5.3662747144699097e-01" nType="-99"/>
            <Node pos="r" depth="3" NCoef="0" IVar="-1" Cut="0.0000000000000000e+00" cType="1" res="1.0207837913185358e-03" rms="3.1319376826286316e-01" purity="6.5173661708831787e-01" nType="-99"/>
          </Node>
        </Node>
      </Node>
    </BinaryTree>
    <BinaryTree type="DecisionTree" boostWeight="1.0000000000000000e+00" itree="267">
      <Node pos="s" depth="0" NCoef="0" IVar="10" Cut="-1.4666579961776733e+00" cType="1" res="-1.9566205446608365e-04" rms="3.0109268426895142e-01" purity="5.0217467546463013e-01" nType="0">
        <Node pos="l" depth="1" NCoef="0" IVar="5" Cut="1.4008833312988281e+02" cType="1" res="1.2755368836224079e-02" rms="3.1210505962371826e-01" purity="4.1947963833808899e-01" nType="0">
          <Node pos="l" depth="2" NCoef="0" IVar="5" Cut="8.4476631164550781e+01" cType="1" res="2.3511355742812157e-02" rms="3.0310440063476562e-01" purity="2.2510220110416412e-01" nType="0">
            <Node pos="l" depth="3" NCoef="0" IVar="-1" Cut="0.0000000000000000e+00" cType="1" res="-9.6823228523135185e-03" rms="1.9970047473907471e-01" purity="8.5767343640327454e-02" nType="-99"/>
            <Node pos="r" depth="3" NCoef="0" IVar="-1" Cut="0.0000000000000000e+00" cType="1" res="3.9199024438858032e-02" rms="3.4930422902107239e-01" purity="3.0790570378303528e-01" nType="-99"/>
          </Node>
          <Node pos="r" depth="2" NCoef="0" IVar="-1" Cut="0.0000000000000000e+00" cType="1" res="-1.7896257340908051e-03" rms="3.2335653901100159e-01" purity="6.8347120285034180e-01" nType="-99"/>
        </Node>
        <Node pos="r" depth="1" NCoef="0" IVar="4" Cut="2.2934397888183594e+02" cType="1" res="-2.0965384319424629e-03" rms="2.9939511418342590e-01" purity="5.1431214809417725e-01" nType="0">
          <Node pos="l" depth="2" NCoef="0" IVar="9" Cut="1.4665942192077637e+00" cType="1" res="1.0902227368205786e-03" rms="3.0510318279266357e-01" purity="2.3131102323532104e-01" nType="0">
            <Node pos="l" depth="3" NCoef="0" IVar="-1" Cut="0.0000000000000000e+00" cType="1" res="-1.9040713086724281e-03" rms="3.0769634246826172e-01" purity="2.4085837602615356e-01" nType="-99"/>
            <Node pos="r" depth="3" NCoef="0" IVar="-1" Cut="0.0000000000000000e+00" cType="1" res="2.4428591132164001e-02" rms="2.8816279768943787e-01" purity="1.7311006784439087e-01" nType="-99"/>
          </Node>
          <Node pos="r" depth="2" NCoef="0" IVar="9" Cut="1.1999728679656982e+00" cType="1" res="-4.9593574367463589e-03" rms="2.9414343833923340e-01" purity="7.6854550838470459e-01" nType="0">
            <Node pos="l" depth="3" NCoef="0" IVar="-1" Cut="0.0000000000000000e+00" cType="1" res="-2.4981936439871788e-03" rms="2.9039099812507629e-01" purity="7.8936302661895752e-01" nType="-99"/>
            <Node pos="r" depth="3" NCoef="0" IVar="-1" Cut="0.0000000000000000e+00" cType="1" res="-2.5686407461762428e-02" rms="3.2181900739669800e-01" purity="6.0108631849288940e-01" nType="-99"/>
          </Node>
        </Node>
      </Node>
    </BinaryTree>
    <BinaryTree type="DecisionTree" boostWeight="1.0000000000000000e+00" itree="268">
      <Node pos="s" depth="0" NCoef="0" IVar="5" Cut="1.5985702514648438e+02" cType="1" res="1.0131540475413203e-03" rms="3.0083498358726501e-01" purity="5.0084978342056274e-01" nType="0">
        <Node pos="l" depth="1" NCoef="0" IVar="4" Cut="2.3176020812988281e+02" cType="1" res="4.5513375662267208e-03" rms="3.1004795432090759e-01" purity="2.6903095841407776e-01" nType="0">
          <Node pos="l" depth="2" NCoef="0" IVar="7" Cut="9.4954448938369751e-01" cType="1" res="1.2901803711429238e-03" rms="2.8845250606536865e-01" purity="1.7050111293792725e-01" nType="0">
            <Node pos="l" depth="3" NCoef="0" IVar="-1" Cut="0.0000000000000000e+00" cType="1" res="4.2025819420814514e-03" rms="3.0496117472648621e-01" purity="1.9643686711788177e-01" nType="-99"/>
            <Node pos="r" depth="3" NCoef="0" IVar="-1" Cut="0.0000000000000000e+00" cType="1" res="-1.5953322872519493e-02" rms="2.1426986157894135e-01" purity="7.2087779641151428e-02" nType="-99"/>
          </Node>
          <Node pos="r" depth="2" NCoef="0" IVar="6" Cut="6.0438915252685547e+01" cType="1" res="1.3969903811812401e-02" rms="3.6515575647354126e-01" purity="5.5359536409378052e-01" nType="0">
            <Node pos="l" depth="3" NCoef="0" IVar="-1" Cut="0.0000000000000000e+00" cType="1" res="-1.1667580343782902e-02" rms="3.4989735484123230e-01" purity="3.3672851324081421e-01" nType="-99"/>
            <Node pos="r" depth="3" NCoef="0" IVar="-1" Cut="0.0000000000000000e+00" cType="1" res="1.6166156157851219e-02" rms="3.6850500106811523e-01" purity="6.0753196477890015e-01" nType="-99"/>
          </Node>
        </Node>
        <Node pos="r" depth="1" NCoef="0" IVar="2" Cut="8.2739397883415222e-02" cType="1" res="-3.6979559808969498e-03" rms="2.8804343938827515e-01" purity="8.0951786041259766e-01" nType="0">
          <Node pos="l" depth="2" NCoef="0" IVar="9" Cut="-6.6660171747207642e-01" cType="1" res="-8.9377369731664658e-03" rms="3.2365193963050842e-01" purity="7.2582870721817017e-01" nType="0">
            <Node pos="l" depth="3" NCoef="0" IVar="-1" Cut="0.0000000000000000e+00" cType="1" res="-2.0265510305762291e-02" rms="3.4036967158317566e-01" purity="6.4112335443496704e-01" nType="-99"/>
            <Node pos="r" depth="3" NCoef="0" IVar="-1" Cut="0.0000000000000000e+00" cType="1" res="-4.4189621694386005e-03" rms="3.1791564822196960e-01" purity="7.5324553251266479e-01" nType="-99"/>
          </Node>
          <Node pos="r" depth="2" NCoef="0" IVar="2" Cut="1.1623236536979675e-01" cType="1" res="3.9494805969297886e-03" rms="2.2600975632667542e-01" purity="9.3166166543960571e-01" nType="0">
            <Node pos="l" depth="3" NCoef="0" IVar="-1" Cut="0.0000000000000000e+00" cType="1" res="1.6394037753343582e-02" rms="2.4666304886341095e-01" purity="9.1630083322525024e-01" nType="-99"/>
            <Node pos="r" depth="3" NCoef="0" IVar="-1" Cut="0.0000000000000000e+00" cType="1" res="-8.7942193204071373e-05" rms="2.1271918714046478e-01" purity="9.4076949357986450e-01" nType="-99"/>
          </Node>
        </Node>
      </Node>
    </BinaryTree>
    <BinaryTree type="DecisionTree" boostWeight="1.0000000000000000e+00" itree="269">
      <Node pos="s" depth="0" NCoef="0" IVar="6" Cut="1.2018177795410156e+02" cType="1" res="-1.5599113248754293e-04" rms="2.9790425300598145e-01" purity="5.0010150671005249e-01" nType="0">
        <Node pos="l" depth="1" NCoef="0" IVar="10" Cut="1.9999910593032837e+00" cType="1" res="-2.0069871097803116e-03" rms="3.0962887406349182e-01" purity="3.4216243028640747e-01" nType="0">
          <Node pos="l" depth="2" NCoef="0" IVar="9" Cut="6.6660910844802856e-01" cType="1" res="-3.3094128593802452e-03" rms="3.0940407514572144e-01" purity="3.4687915444374084e-01" nType="0">
            <Node pos="l" depth="3" NCoef="0" IVar="-1" Cut="0.0000000000000000e+00" cType="1" res="-8.7924412218853831e-04" rms="3.1211522221565247e-01" purity="3.6572563648223877e-01" nType="-99"/>
            <Node pos="r" depth="3" NCoef="0" IVar="-1" Cut="0.0000000000000000e+00" cType="1" res="-9.4963954761624336e-03" rms="3.0268239974975586e-01" purity="3.0141046643257141e-01" nType="-99"/>
          </Node>
          <Node pos="r" depth="2" NCoef="0" IVar="-1" Cut="0.0000000000000000e+00" cType="1" res="1.7411984503269196e-02" rms="3.1215977668762207e-01" purity="2.7708789706230164e-01" nType="-99"/>
        </Node>
        <Node pos="r" depth="1" NCoef="0" IVar="1" Cut="1.4938577880859375e+03" cType="1" res="4.0283259004354477e-03" rms="2.6947990059852600e-01" purity="8.5713475942611694e-01" nType="0">
          <Node pos="l" depth="2" NCoef="0" IVar="-1" Cut="0.0000000000000000e+00" cType="1" res="1.1441336013376713e-02" rms="4.1606679558753967e-01" purity="5.5633854866027832e-01" nType="-99"/>
          <Node pos="r" depth="2" NCoef="0" IVar="9" Cut="-3.9999225735664368e-01" cType="1" res="8.5440842667594552e-04" rms="2.2542975842952728e-01" purity="9.2222023010253906e-01" nType="0">
            <Node pos="l" depth="3" NCoef="0" IVar="-1" Cut="0.0000000000000000e+00" cType="1" res="-8.5962107405066490e-03" rms="2.3885002732276917e-01" purity="9.0810728073120117e-01" nType="-99"/>
            <Node pos="r" depth="3" NCoef="0" IVar="-1" Cut="0.0000000000000000e+00" cType="1" res="6.9867647252976894e-03" rms="2.1877455711364746e-01" purity="9.2886531352996826e-01" nType="-99"/>
          </Node>
        </Node>
      </Node>
    </BinaryTree>
    <BinaryTree type="DecisionTree" boostWeight="1.0000000000000000e+00" itree="270">
      <Node pos="s" depth="0" NCoef="0" IVar="4" Cut="2.3788761901855469e+02" cType="1" res="3.0091952066868544e-03" rms="2.9943835735321045e-01" purity="5.0256884098052979e-01" nType="0">
        <Node pos="l" depth="1" NCoef="0" IVar="0" Cut="4.2781579589843750e+02" cType="1" res="6.5730330534279346e-03" rms="3.0608958005905151e-01" purity="2.5028663873672485e-01" nType="0">
          <Node pos="l" depth="2" NCoef="0" IVar="2" Cut="4.1797824203968048e-02" cType="1" res="1.8446244066581130e-03" rms="2.6349714398384094e-01" purity="1.1341389268636703e-01" nType="0">
            <Node pos="l" depth="3" NCoef="0" IVar="-1" Cut="0.0000000000000000e+00" cType="1" res="-6.9850264117121696e-03" rms="2.0295013487339020e-01" purity="5.0166431814432144e-02" nType="-99"/>
            <Node pos="r" depth="3" NCoef="0" IVar="-1" Cut="0.0000000000000000e+00" cType="1" res="1.0010089725255966e-02" rms="3.6355450749397278e-01" purity="2.5431194901466370e-01" nType="-99"/>
          </Node>
          <Node pos="r" depth="2" NCoef="0" IVar="9" Cut="-9.3342620134353638e-01" cType="1" res="1.4372111298143864e-02" rms="3.6552417278289795e-01" purity="4.7604575753211975e-01" nType="0">
            <Node pos="l" depth="3" NCoef="0" IVar="-1" Cut="0.0000000000000000e+00" cType="1" res="2.9619207605719566e-02" rms="3.7632951140403748e-01" purity="4.4887235760688782e-01" nType="-99"/>
            <Node pos="r" depth="3" NCoef="0" IVar="-1" Cut="0.0000000000000000e+00" cType="1" res="5.0182510167360306e-03" rms="3.6153593659400940e-01" purity="4.8502424359321594e-01" nType="-99"/>
          </Node>
        </Node>
        <Node pos="r" depth="1" NCoef="0" IVar="8" Cut="9.3305063247680664e-01" cType="1" res="-8.3840137813240290e-04" rms="2.9203876852989197e-01" purity="7.7493816614151001e-01" nType="0">
          <Node pos="l" depth="2" NCoef="0" IVar="2" Cut="2.1318247541785240e-02" cType="1" res="9.8161015193909407e-04" rms="2.8761619329452515e-01" purity="8.0087536573410034e-01" nType="0">
            <Node pos="l" depth="3" NCoef="0" IVar="-1" Cut="0.0000000000000000e+00" cType="1" res="1.1830439791083336e-02" rms="3.4514698386192322e-01" purity="5.7599538564682007e-01" nType="-99"/>
            <Node pos="r" depth="3" NCoef="0" IVar="-1" Cut="0.0000000000000000e+00" cType="1" res="-4.5247613452374935e-03" rms="2.6673215627670288e-01" purity="8.7193530797958374e-01" nType="-99"/>
          </Node>
          <Node pos="r" depth="2" NCoef="0" IVar="10" Cut="4.0035945177078247e-01" cType="1" res="-1.2563380412757397e-02" rms="3.1881496310234070e-01" purity="6.0784411430358887e-01" nType="0">
            <Node pos="l" depth="3" NCoef="0" IVar="-1" Cut="0.0000000000000000e+00" cType="1" res="-2.4621628224849701e-02" rms="3.0924507975578308e-01" purity="6.2062084674835205e-01" nType="-99"/>
            <Node pos="r" depth="3" NCoef="0" IVar="-1" Cut="0.0000000000000000e+00" cType="1" res="4.2789550498127937e-03" rms="3.3063861727714539e-01" purity="5.9041690826416016e-01" nType="-99"/>
          </Node>
        </Node>
      </Node>
    </BinaryTree>
    <BinaryTree type="DecisionTree" boostWeight="1.0000000000000000e+00" itree="271">
      <Node pos="s" depth="0" NCoef="0" IVar="3" Cut="3.3679031372070312e+02" cType="1" res="1.2472169473767281e-03" rms="2.9939395189285278e-01" purity="4.9747392535209656e-01" nType="0">
        <Node pos="l" depth="1" NCoef="0" IVar="4" Cut="1.8686238098144531e+02" cType="1" res="7.2349635884165764e-03" rms="3.0282840132713318e-01" purity="2.6778477430343628e-01" nType="0">
          <Node pos="l" depth="2" NCoef="0" IVar="1" Cut="1.1254731445312500e+03" cType="1" res="-1.0614721104502678e-03" rms="2.4732053279876709e-01" purity="9.7994498908519745e-02" nType="0">
            <Node pos="l" depth="3" NCoef="0" IVar="-1" Cut="0.0000000000000000e+00" cType="1" res="7.1459421887993813e-03" rms="2.1827046573162079e-01" purity="5.8733541518449783e-02" nType="-99"/>
            <Node pos="r" depth="3" NCoef="0" IVar="-1" Cut="0.0000000000000000e+00" cType="1" res="-1.8183255568146706e-02" rms="3.8781234622001648e-01" purity="3.5992971062660217e-01" nType="-99"/>
          </Node>
          <Node pos="r" depth="2" NCoef="0" IVar="10" Cut="1.3322933018207550e-01" cType="1" res="1.7686080187559128e-02" rms="3.6052414774894714e-01" purity="4.8167163133621216e-01" nType="0">
            <Node pos="l" depth="3" NCoef="0" IVar="-1" Cut="0.0000000000000000e+00" cType="1" res="2.3791434243321419e-02" rms="3.6348825693130493e-01" purity="4.9794840812683105e-01" nType="-99"/>
            <Node pos="r" depth="3" NCoef="0" IVar="-1" Cut="0.0000000000000000e+00" cType="1" res="2.6868116110563278e-03" rms="3.5643944144248962e-01" purity="4.6236035227775574e-01" nType="-99"/>
          </Node>
        </Node>
        <Node pos="r" depth="1" NCoef="0" IVar="9" Cut="-1.2000063657760620e+00" cType="1" res="-2.0767729729413986e-03" rms="2.9741823673248291e-01" purity="6.2498170137405396e-01" nType="0">
          <Node pos="l" depth="2" NCoef="0" IVar="9" Cut="-1.8857212066650391e+00" cType="1" res="-1.7192153260111809e-02" rms="3.2087141275405884e-01" purity="4.4016331434249878e-01" nType="0">
            <Node pos="l" depth="3" NCoef="0" IVar="-1" Cut="0.0000000000000000e+00" cType="1" res="-3.1200895085930824e-02" rms="3.0688208341598511e-01" purity="2.9943493008613586e-01" nType="-99"/>
            <Node pos="r" depth="3" NCoef="0" IVar="-1" Cut="0.0000000000000000e+00" cType="1" res="-9.6166767179965973e-03" rms="3.2705754041671753e-01" purity="5.0684255361557007e-01" nType="-99"/>
          </Node>
          <Node pos="r" depth="2" NCoef="0" IVar="8" Cut="1.1999844312667847e+00" cType="1" res="1.1138300760649145e-04" rms="2.9380357265472412e-01" purity="6.5173667669296265e-01" nType="0">
            <Node pos="l" depth="3" NCoef="0" IVar="-1" Cut="0.0000000000000000e+00" cType="1" res="-2.1994258277118206e-03" rms="2.9012557864189148e-01" purity="6.8243175745010376e-01" nType="-99"/>
            <Node pos="r" depth="3" NCoef="0" IVar="-1" Cut="0.0000000000000000e+00" cType="1" res="1.5068523585796356e-02" rms="3.2079929113388062e-01" purity="4.1069808602333069e-01" nType="-99"/>
          </Node>
        </Node>
      </Node>
    </BinaryTree>
    <BinaryTree type="DecisionTree" boostWeight="1.0000000000000000e+00" itree="272">
      <Node pos="s" depth="0" NCoef="0" IVar="8" Cut="-3.9993152022361755e-01" cType="1" res="-2.7337730862200260e-03" rms="2.9588305950164795e-01" purity="5.0173836946487427e-01" nType="0">
        <Node pos="l" depth="1" NCoef="0" IVar="8" Cut="-8.5705304145812988e-01" cType="1" res="3.7998647894710302e-03" rms="3.0420777201652527e-01" purity="4.5247367024421692e-01" nType="0">
          <Node pos="l" depth="2" NCoef="0" IVar="10" Cut="-1.4665076732635498e+00" cType="1" res="-3.0279338825494051e-03" rms="2.9869771003723145e-01" purity="3.5603302717208862e-01" nType="0">
            <Node pos="l" depth="3" NCoef="0" IVar="-1" Cut="0.0000000000000000e+00" cType="1" res="-2.7607090771198273e-02" rms="2.6657125353813171e-01" purity="2.1680656075477600e-01" nType="-99"/>
            <Node pos="r" depth="3" NCoef="0" IVar="-1" Cut="0.0000000000000000e+00" cType="1" res="5.9000693727284670e-04" rms="3.0425861477851868e-01" purity="3.8235554099082947e-01" nType="-99"/>
          </Node>
          <Node pos="r" depth="2" NCoef="0" IVar="10" Cut="-1.2001191377639771e+00" cType="1" res="1.3347115367650986e-02" rms="3.1149837374687195e-01" purity="5.8732575178146362e-01" nType="0">
            <Node pos="l" depth="3" NCoef="0" IVar="-1" Cut="0.0000000000000000e+00" cType="1" res="4.8335105180740356e-02" rms="3.3237260580062866e-01" purity="5.7374310493469238e-01" nType="-99"/>
            <Node pos="r" depth="3" NCoef="0" IVar="-1" Cut="0.0000000000000000e+00" cType="1" res="4.8557929694652557e-03" rms="3.0542734265327454e-01" purity="5.9071207046508789e-01" nType="-99"/>
          </Node>
        </Node>
        <Node pos="r" depth="1" NCoef="0" IVar="0" Cut="5.7808782958984375e+02" cType="1" res="-6.2600350938737392e-03" rms="2.9123044013977051e-01" purity="5.2832698822021484e-01" nType="0">
          <Node pos="l" depth="2" NCoef="0" IVar="0" Cut="3.3972692871093750e+02" cType="1" res="-1.0081686079502106e-02" rms="3.1128370761871338e-01" purity="3.5028725862503052e-01" nType="0">
            <Node pos="l" depth="3" NCoef="0" IVar="-1" Cut="0.0000000000000000e+00" cType="1" res="-2.7798777446150780e-02" rms="2.6044312119483948e-01" purity="1.2376984208822250e-01" nType="-99"/>
            <Node pos="r" depth="3" NCoef="0" IVar="-1" Cut="0.0000000000000000e+00" cType="1" res="-5.7100015692412853e-03" rms="3.2602968811988831e-01" purity="4.2399871349334717e-01" nType="-99"/>
          </Node>
          <Node pos="r" depth="2" NCoef="0" IVar="9" Cut="9.3337965011596680e-01" cType="1" res="1.6639654058963060e-03" rms="2.4427419900894165e-01" purity="8.9748346805572510e-01" nType="0">
            <Node pos="l" depth="3" NCoef="0" IVar="-1" Cut="0.0000000000000000e+00" cType="1" res="-1.7955524381250143e-03" rms="2.3457123339176178e-01" purity="9.0643405914306641e-01" nType="-99"/>
            <Node pos="r" depth="3" NCoef="0" IVar="-1" Cut="0.0000000000000000e+00" cType="1" res="1.6290953382849693e-02" rms="2.8227996826171875e-01" purity="8.5861873626708984e-01" nType="-99"/>
          </Node>
        </Node>
      </Node>
    </BinaryTree>
    <BinaryTree type="DecisionTree" boostWeight="1.0000000000000000e+00" itree="273">
      <Node pos="s" depth="0" NCoef="0" IVar="9" Cut="-1.4666684865951538e+00" cType="1" res="1.1146604083478451e-03" rms="2.9820549488067627e-01" purity="5.0421339273452759e-01" nType="0">
        <Node pos="l" depth="1" NCoef="0" IVar="9" Cut="-2.1015861034393311e+00" cType="1" res="1.6881953924894333e-02" rms="3.0923703312873840e-01" purity="3.1932190060615540e-01" nType="0">
          <Node pos="l" depth="2" NCoef="0" IVar="-1" Cut="0.0000000000000000e+00" cType="1" res="-1.3144654221832752e-02" rms="2.8317567706108093e-01" purity="1.8883372843265533e-01" nType="-99"/>
          <Node pos="r" depth="2" NCoef="0" IVar="6" Cut="9.0245979309082031e+01" cType="1" res="2.9398556798696518e-02" rms="3.1955122947692871e-01" purity="3.7838506698608398e-01" nType="0">
            <Node pos="l" depth="3" NCoef="0" IVar="-1" Cut="0.0000000000000000e+00" cType="1" res="1.6956852748990059e-02" rms="2.8636917471885681e-01" purity="2.2686731815338135e-01" nType="-99"/>
            <Node pos="r" depth="3" NCoef="0" IVar="-1" Cut="0.0000000000000000e+00" cType="1" res="4.3489053845405579e-02" rms="3.6506807804107666e-01" purity="6.2033462524414062e-01" nType="-99"/>
          </Node>
        </Node>
        <Node pos="r" depth="1" NCoef="0" IVar="8" Cut="-9.3333888053894043e-01" cType="1" res="-6.9303723284974694e-04" rms="2.9686105251312256e-01" purity="5.2541095018386841e-01" nType="0">
          <Node pos="l" depth="2" NCoef="0" IVar="6" Cut="1.2552432250976562e+02" cType="1" res="-1.2244610115885735e-02" rms="2.9307994246482849e-01" purity="3.5518905520439148e-01" nType="0">
            <Node pos="l" depth="3" NCoef="0" IVar="-1" Cut="0.0000000000000000e+00" cType="1" res="-2.0412951707839966e-02" rms="2.8714984655380249e-01" purity="2.2542700171470642e-01" nType="-99"/>
            <Node pos="r" depth="3" NCoef="0" IVar="-1" Cut="0.0000000000000000e+00" cType="1" res="1.0239924304187298e-02" rms="3.1167981028556824e-01" purity="8.0174666643142700e-01" nType="-99"/>
          </Node>
          <Node pos="r" depth="2" NCoef="0" IVar="8" Cut="-7.5553625822067261e-01" cType="1" res="1.7649877117946744e-03" rms="2.9760155081748962e-01" purity="5.6163191795349121e-01" nType="0">
            <Node pos="l" depth="3" NCoef="0" IVar="-1" Cut="0.0000000000000000e+00" cType="1" res="2.6918638497591019e-02" rms="3.2067990303039551e-01" purity="5.8654075860977173e-01" nType="-99"/>
            <Node pos="r" depth="3" NCoef="0" IVar="-1" Cut="0.0000000000000000e+00" cType="1" res="1.6277661779895425e-04" rms="2.9598012566566467e-01" purity="5.6002759933471680e-01" nType="-99"/>
          </Node>
        </Node>
      </Node>
    </BinaryTree>
    <BinaryTree type="DecisionTree" boostWeight="1.0000000000000000e+00" itree="274">
      <Node pos="s" depth="0" NCoef="0" IVar="8" Cut="-1.3327567279338837e-01" cType="1" res="-3.6396487848833203e-04" rms="2.9753342270851135e-01" purity="4.9816480278968811e-01" nType="0">
        <Node pos="l" depth="1" NCoef="0" IVar="9" Cut="3.9994689822196960e-01" cType="1" res="-4.8776119947433472e-03" rms="2.9576715826988220e-01" purity="4.7925180196762085e-01" nType="0">
          <Node pos="l" depth="2" NCoef="0" IVar="5" Cut="1.4117332458496094e+02" cType="1" res="-9.4612110406160355e-03" rms="2.8887450695037842e-01" purity="4.8096600174903870e-01" nType="0">
            <Node pos="l" depth="3" NCoef="0" IVar="-1" Cut="0.0000000000000000e+00" cType="1" res="-2.0004196092486382e-02" rms="2.7478781342506409e-01" purity="1.9693678617477417e-01" nType="-99"/>
            <Node pos="r" depth="3" NCoef="0" IVar="-1" Cut="0.0000000000000000e+00" cType="1" res="-2.1494755055755377e-03" rms="3.0196049809455872e-01" purity="7.6160913705825806e-01" nType="-99"/>
          </Node>
          <Node pos="r" depth="2" NCoef="0" IVar="7" Cut="1.3856101036071777e-01" cType="1" res="4.4107120484113693e-03" rms="3.0905553698539734e-01" purity="4.7577801346778870e-01" nType="0">
            <Node pos="l" depth="3" NCoef="0" IVar="-1" Cut="0.0000000000000000e+00" cType="1" res="1.4387238770723343e-02" rms="3.2023328542709351e-01" purity="4.9961858987808228e-01" nType="-99"/>
            <Node pos="r" depth="3" NCoef="0" IVar="-1" Cut="0.0000000000000000e+00" cType="1" res="-7.4120643548667431e-03" rms="2.9532322287559509e-01" purity="4.4842323660850525e-01" nType="-99"/>
          </Node>
        </Node>
        <Node pos="r" depth="1" NCoef="0" IVar="9" Cut="-1.1999970674514771e+00" cType="1" res="3.3137530554085970e-03" rms="2.9891446232795715e-01" purity="5.1357513666152954e-01" nType="0">
          <Node pos="l" depth="2" NCoef="0" IVar="8" Cut="7.0442378520965576e-01" cType="1" res="-9.2331683263182640e-03" rms="2.9879739880561829e-01" purity="3.4766998887062073e-01" nType="0">
            <Node pos="l" depth="3" NCoef="0" IVar="-1" Cut="0.0000000000000000e+00" cType="1" res="3.1330196652561426e-03" rms="3.1858137249946594e-01" purity="4.6107485890388489e-01" nType="-99"/>
            <Node pos="r" depth="3" NCoef="0" IVar="-1" Cut="0.0000000000000000e+00" cType="1" res="-2.8621839359402657e-02" rms="2.7291294932365417e-01" purity="2.1396715939044952e-01" nType="-99"/>
          </Node>
          <Node pos="r" depth="2" NCoef="0" IVar="9" Cut="-2.4761526286602020e-01" cType="1" res="5.1282378844916821e-03" rms="2.9888778924942017e-01" purity="5.3756767511367798e-01" nType="0">
            <Node pos="l" depth="3" NCoef="0" IVar="-1" Cut="0.0000000000000000e+00" cType="1" res="1.8834564834833145e-02" rms="3.1261688470840454e-01" purity="5.8965516090393066e-01" nType="-99"/>
            <Node pos="r" depth="3" NCoef="0" IVar="-1" Cut="0.0000000000000000e+00" cType="1" res="2.2810696464148350e-05" rms="2.9282504320144653e-01" purity="5.1586073637008667e-01" nType="-99"/>
          </Node>
        </Node>
      </Node>
    </BinaryTree>
    <BinaryTree type="DecisionTree" boostWeight="1.0000000000000000e+00" itree="275">
      <Node pos="s" depth="0" NCoef="0" IVar="7" Cut="6.7077612876892090e-01" cType="1" res="-5.6184973800554872e-04" rms="2.9889750480651855e-01" purity="4.9817827343940735e-01" nType="0">
        <Node pos="l" depth="1" NCoef="0" IVar="3" Cut="3.5189874267578125e+02" cType="1" res="-3.0097940471023321e-03" rms="2.9919350147247314e-01" purity="5.4221433401107788e-01" nType="0">
          <Node pos="l" depth="2" NCoef="0" IVar="4" Cut="1.5144900512695312e+02" cType="1" res="-9.0310508385300636e-03" rms="3.0340805649757385e-01" purity="2.9822850227355957e-01" nType="0">
            <Node pos="l" depth="3" NCoef="0" IVar="-1" Cut="0.0000000000000000e+00" cType="1" res="5.0478582270443439e-03" rms="2.2362804412841797e-01" purity="6.8338669836521149e-02" nType="-99"/>
            <Node pos="r" depth="3" NCoef="0" IVar="-1" Cut="0.0000000000000000e+00" cType="1" res="-1.2897491455078125e-02" rms="3.3757895231246948e-01" purity="4.1856110095977783e-01" nType="-99"/>
          </Node>
          <Node pos="r" depth="2" NCoef="0" IVar="7" Cut="5.1075088977813721e-01" cType="1" res="4.7237638500519097e-04" rms="2.9667305946350098e-01" purity="6.8331456184387207e-01" nType="0">
            <Node pos="l" depth="3" NCoef="0" IVar="-1" Cut="0.0000000000000000e+00" cType="1" res="-1.0648354655131698e-03" rms="2.9445174336433411e-01" purity="6.7939096689224243e-01" nType="-99"/>
            <Node pos="r" depth="3" NCoef="0" IVar="-1" Cut="0.0000000000000000e+00" cType="1" res="1.8627414479851723e-02" rms="3.2175835967063904e-01" purity="7.3059415817260742e-01" nType="-99"/>
          </Node>
        </Node>
        <Node pos="r" depth="1" NCoef="0" IVar="9" Cut="-1.2000919580459595e+00" cType="1" res="7.6273791491985321e-03" rms="2.9775899648666382e-01" purity="3.5086220502853394e-01" nType="0">
          <Node pos="l" depth="2" NCoef="0" IVar="-1" Cut="0.0000000000000000e+00" cType="1" res="-2.5031916797161102e-02" rms="2.5970381498336792e-01" purity="1.9254483282566071e-01" nType="-99"/>
          <Node pos="r" depth="2" NCoef="0" IVar="9" Cut="1.2759557962417603e+00" cType="1" res="1.1756313033401966e-02" rms="3.0305716395378113e-01" purity="3.7556055188179016e-01" nType="0">
            <Node pos="l" depth="3" NCoef="0" IVar="-1" Cut="0.0000000000000000e+00" cType="1" res="1.9583754241466522e-02" rms="3.1365641951560974e-01" purity="4.2352512478828430e-01" nType="-99"/>
            <Node pos="r" depth="3" NCoef="0" IVar="-1" Cut="0.0000000000000000e+00" cType="1" res="-1.9096933305263519e-02" rms="2.5533217191696167e-01" purity="1.8601676821708679e-01" nType="-99"/>
          </Node>
        </Node>
      </Node>
    </BinaryTree>
    <BinaryTree type="DecisionTree" boostWeight="1.0000000000000000e+00" itree="276">
      <Node pos="s" depth="0" NCoef="0" IVar="9" Cut="-1.4666659832000732e+00" cType="1" res="3.1126744579523802e-04" rms="2.9834339022636414e-01" purity="4.9833309650421143e-01" nType="0">
        <Node pos="l" depth="1" NCoef="0" IVar="10" Cut="6.6701734066009521e-01" cType="1" res="-1.2602808885276318e-02" rms="2.8480142354965210e-01" purity="2.8079742193222046e-01" nType="0">
          <Node pos="l" depth="2" NCoef="0" IVar="10" Cut="-6.5339291095733643e-01" cType="1" res="-1.9420517608523369e-02" rms="2.7579674124717712e-01" purity="2.7488532662391663e-01" nType="0">
            <Node pos="l" depth="3" NCoef="0" IVar="-1" Cut="0.0000000000000000e+00" cType="1" res="-1.0571978986263275e-02" rms="2.7333116531372070e-01" purity="2.3418436944484711e-01" nType="-99"/>
            <Node pos="r" depth="3" NCoef="0" IVar="-1" Cut="0.0000000000000000e+00" cType="1" res="-3.4698486328125000e-02" rms="2.7802899479866028e-01" purity="3.2006713747978210e-01" nType="-99"/>
          </Node>
          <Node pos="r" depth="2" NCoef="0" IVar="-1" Cut="0.0000000000000000e+00" cType="1" res="6.8482221104204655e-03" rms="3.0736795067787170e-01" purity="2.9700663685798645e-01" nType="-99"/>
        </Node>
        <Node pos="r" depth="1" NCoef="0" IVar="10" Cut="9.3328374624252319e-01" cType="1" res="1.7174560343846679e-03" rms="2.9974743723869324e-01" purity="5.2202010154724121e-01" nType="0">
          <Node pos="l" depth="2" NCoef="0" IVar="8" Cut="-9.3326419591903687e-01" cType="1" res="4.0266839787364006e-03" rms="3.0012488365173340e-01" purity="5.4326152801513672e-01" nType="0">
            <Node pos="l" depth="3" NCoef="0" IVar="-1" Cut="0.0000000000000000e+00" cType="1" res="1.4166812412440777e-02" rms="3.1138092279434204e-01" purity="3.8982945680618286e-01" nType="-99"/>
            <Node pos="r" depth="3" NCoef="0" IVar="-1" Cut="0.0000000000000000e+00" cType="1" res="2.2622544784098864e-03" rms="2.9746344685554504e-01" purity="5.7822239398956299e-01" nType="-99"/>
          </Node>
          <Node pos="r" depth="2" NCoef="0" IVar="2" Cut="6.2750950455665588e-02" cType="1" res="-5.8008623309433460e-03" rms="2.9839146137237549e-01" purity="4.5286282896995544e-01" nType="0">
            <Node pos="l" depth="3" NCoef="0" IVar="-1" Cut="0.0000000000000000e+00" cType="1" res="-1.0324944014428183e-05" rms="2.9551717638969421e-01" purity="3.1733870506286621e-01" nType="-99"/>
            <Node pos="r" depth="3" NCoef="0" IVar="-1" Cut="0.0000000000000000e+00" cType="1" res="-1.9615162163972855e-02" rms="3.0387115478515625e-01" purity="7.3161149024963379e-01" nType="-99"/>
          </Node>
        </Node>
      </Node>
    </BinaryTree>
    <BinaryTree type="DecisionTree" boostWeight="1.0000000000000000e+00" itree="277">
      <Node pos="s" depth="0" NCoef="0" IVar="8" Cut="-4.0006798505783081e-01" cType="1" res="-2.8666879516094923e-03" rms="2.9458320140838623e-01" purity="4.9766510725021362e-01" nType="0">
        <Node pos="l" depth="1" NCoef="0" IVar="3" Cut="3.5190020751953125e+02" cType="1" res="-8.3267251029610634e-03" rms="2.9224544763565063e-01" purity="4.3901658058166504e-01" nType="0">
          <Node pos="l" depth="2" NCoef="0" IVar="1" Cut="1.0003508911132812e+03" cType="1" res="-1.5474819578230381e-02" rms="2.7832993865013123e-01" purity="2.2445508837699890e-01" nType="0">
            <Node pos="l" depth="3" NCoef="0" IVar="-1" Cut="0.0000000000000000e+00" cType="1" res="3.8502372335642576e-03" rms="1.7179691791534424e-01" purity="3.1520884484052658e-02" nType="-99"/>
            <Node pos="r" depth="3" NCoef="0" IVar="-1" Cut="0.0000000000000000e+00" cType="1" res="-2.1900584921240807e-02" rms="3.3100399374961853e-01" purity="3.5484012961387634e-01" nType="-99"/>
          </Node>
          <Node pos="r" depth="2" NCoef="0" IVar="10" Cut="-4.0005752444267273e-01" cType="1" res="-3.3261112403124571e-03" rms="3.0149820446968079e-01" purity="5.8911800384521484e-01" nType="0">
            <Node pos="l" depth="3" NCoef="0" IVar="-1" Cut="0.0000000000000000e+00" cType="1" res="8.7931323796510696e-03" rms="3.0801603198051453e-01" purity="5.6606870889663696e-01" nType="-99"/>
            <Node pos="r" depth="3" NCoef="0" IVar="-1" Cut="0.0000000000000000e+00" cType="1" res="-1.2999593280255795e-02" rms="2.9639342427253723e-01" purity="6.0584801435470581e-01" nType="-99"/>
          </Node>
        </Node>
        <Node pos="r" depth="1" NCoef="0" IVar="5" Cut="1.0496535491943359e+02" cType="1" res="3.0526163754984736e-05" rms="2.9577523469924927e-01" purity="5.2878528833389282e-01" nType="0">
          <Node pos="l" depth="2" NCoef="0" IVar="8" Cut="5.7061016559600830e-02" cType="1" res="5.3232768550515175e-03" rms="2.7470132708549500e-01" purity="1.4401581883430481e-01" nType="0">
            <Node pos="l" depth="3" NCoef="0" IVar="-1" Cut="0.0000000000000000e+00" cType="1" res="-2.0699258893728256e-02" rms="2.6400440931320190e-01" purity="1.6620218753814697e-01" nType="-99"/>
            <Node pos="r" depth="3" NCoef="0" IVar="-1" Cut="0.0000000000000000e+00" cType="1" res="1.6577867791056633e-02" rms="2.7729177474975586e-01" purity="1.3784462213516235e-01" nType="-99"/>
          </Node>
          <Node pos="r" depth="2" NCoef="0" IVar="7" Cut="-6.6012459993362427e-01" cType="1" res="-2.0791983697563410e-03" rms="3.0374246835708618e-01" purity="6.8215686082839966e-01" nType="0">
            <Node pos="l" depth="3" NCoef="0" IVar="-1" Cut="0.0000000000000000e+00" cType="1" res="-1.6434570774435997e-02" rms="3.1909698247909546e-01" purity="5.1086038351058960e-01" nType="-99"/>
            <Node pos="r" depth="3" NCoef="0" IVar="-1" Cut="0.0000000000000000e+00" cType="1" res="1.3368425425142050e-03" rms="3.0013766884803772e-01" purity="7.2006076574325562e-01" nType="-99"/>
          </Node>
        </Node>
      </Node>
    </BinaryTree>
    <BinaryTree type="DecisionTree" boostWeight="1.0000000000000000e+00" itree="278">
      <Node pos="s" depth="0" NCoef="0" IVar="2" Cut="2.1328777074813843e-02" cType="1" res="5.3452802821993828e-03" rms="3.0087435245513916e-01" purity="5.0258451700210571e-01" nType="0">
        <Node pos="l" depth="1" NCoef="0" IVar="3" Cut="6.5569635009765625e+02" cType="1" res="-9.8453112877905369e-04" rms="2.8061616420745850e-01" purity="2.3998875916004181e-01" nType="0">
          <Node pos="l" depth="2" NCoef="0" IVar="1" Cut="1.2475787353515625e+03" cType="1" res="1.1774377198889852e-03" rms="2.7052220702171326e-01" purity="1.9499866664409637e-01" nType="0">
            <Node pos="l" depth="3" NCoef="0" IVar="-1" Cut="0.0000000000000000e+00" cType="1" res="-1.4860443770885468e-02" rms="1.8366822600364685e-01" purity="3.8942988961935043e-02" nType="-99"/>
            <Node pos="r" depth="3" NCoef="0" IVar="-1" Cut="0.0000000000000000e+00" cType="1" res="9.0716369450092316e-03" rms="3.6469087004661560e-01" purity="4.3235373497009277e-01" nType="-99"/>
          </Node>
          <Node pos="r" depth="2" NCoef="0" IVar="-1" Cut="0.0000000000000000e+00" cType="1" res="-1.4312800019979477e-02" rms="3.4922820329666138e-01" purity="5.9208440780639648e-01" nType="-99"/>
        </Node>
        <Node pos="r" depth="1" NCoef="0" IVar="1" Cut="1.3751572265625000e+03" cType="1" res="8.8691385462880135e-03" rms="3.1152629852294922e-01" purity="6.4877378940582275e-01" nType="0">
          <Node pos="l" depth="2" NCoef="0" IVar="1" Cut="9.9172338867187500e+02" cType="1" res="2.1864954382181168e-02" rms="3.6740431189537048e-01" purity="2.6181575655937195e-01" nType="0">
            <Node pos="l" depth="3" NCoef="0" IVar="-1" Cut="0.0000000000000000e+00" cType="1" res="5.8989222161471844e-03" rms="2.1926368772983551e-01" purity="5.3692530840635300e-02" nType="-99"/>
            <Node pos="r" depth="3" NCoef="0" IVar="-1" Cut="0.0000000000000000e+00" cType="1" res="1.8651612102985382e-02" rms="4.1102185845375061e-01" purity="3.4360283613204956e-01" nType="-99"/>
          </Node>
          <Node pos="r" depth="2" NCoef="0" IVar="1" Cut="1.6353466796875000e+03" cType="1" res="8.7045913096517324e-04" rms="2.7116602659225464e-01" purity="8.8693910837173462e-01" nType="0">
            <Node pos="l" depth="3" NCoef="0" IVar="-1" Cut="0.0000000000000000e+00" cType="1" res="-5.8824368752539158e-03" rms="3.8439169526100159e-01" purity="7.3537063598632812e-01" nType="-99"/>
            <Node pos="r" depth="3" NCoef="0" IVar="-1" Cut="0.0000000000000000e+00" cType="1" res="8.4071010351181030e-03" rms="2.1748268604278564e-01" purity="9.4041794538497925e-01" nType="-99"/>
          </Node>
        </Node>
      </Node>
    </BinaryTree>
    <BinaryTree type="DecisionTree" boostWeight="1.0000000000000000e+00" itree="279">
      <Node pos="s" depth="0" NCoef="0" IVar="7" Cut="1.3846547901630402e-01" cType="1" res="-2.7581558097153902e-03" rms="2.9561150074005127e-01" purity="5.0162059068679810e-01" nType="0">
        <Node pos="l" depth="1" NCoef="0" IVar="10" Cut="-4.0000030398368835e-01" cType="1" res="1.0283087613061070e-03" rms="2.9939207434654236e-01" purity="5.2241468429565430e-01" nType="0">
          <Node pos="l" depth="2" NCoef="0" IVar="10" Cut="-1.3142933845520020e+00" cType="1" res="-7.3374020867049694e-03" rms="2.9268184304237366e-01" purity="4.8323431611061096e-01" nType="0">
            <Node pos="l" depth="3" NCoef="0" IVar="-1" Cut="0.0000000000000000e+00" cType="1" res="2.2979772184044123e-03" rms="2.9665490984916687e-01" purity="4.3371734023094177e-01" nType="-99"/>
            <Node pos="r" depth="3" NCoef="0" IVar="-1" Cut="0.0000000000000000e+00" cType="1" res="-1.6142711043357849e-02" rms="2.8973257541656494e-01" purity="5.1737296581268311e-01" nType="-99"/>
          </Node>
          <Node pos="r" depth="2" NCoef="0" IVar="10" Cut="1.2761893272399902e+00" cType="1" res="6.7479643039405346e-03" rms="3.0376201868057251e-01" purity="5.4920244216918945e-01" nType="0">
            <Node pos="l" depth="3" NCoef="0" IVar="-1" Cut="0.0000000000000000e+00" cType="1" res="1.2814830057322979e-02" rms="3.0197033286094666e-01" purity="5.8443975448608398e-01" nType="-99"/>
            <Node pos="r" depth="3" NCoef="0" IVar="-1" Cut="0.0000000000000000e+00" cType="1" res="-9.3274433165788651e-03" rms="3.0914160609245300e-01" purity="4.3211993575096130e-01" nType="-99"/>
          </Node>
        </Node>
        <Node pos="r" depth="1" NCoef="0" IVar="5" Cut="1.9056925964355469e+02" cType="1" res="-7.5953351333737373e-03" rms="2.9063859581947327e-01" purity="4.7505626082420349e-01" nType="0">
          <Node pos="l" depth="2" NCoef="0" IVar="6" Cut="8.3209030151367188e+01" cType="1" res="-1.1595739983022213e-02" rms="3.0444970726966858e-01" purity="2.9737108945846558e-01" nType="0">
            <Node pos="l" depth="3" NCoef="0" IVar="-1" Cut="0.0000000000000000e+00" cType="1" res="-8.5246320813894272e-03" rms="2.7385857701301575e-01" purity="1.6731478273868561e-01" nType="-99"/>
            <Node pos="r" depth="3" NCoef="0" IVar="-1" Cut="0.0000000000000000e+00" cType="1" res="-1.5498849563300610e-02" rms="3.4665441513061523e-01" purity="5.0009489059448242e-01" nType="-99"/>
          </Node>
          <Node pos="r" depth="2" NCoef="0" IVar="7" Cut="8.9837235212326050e-01" cType="1" res="1.1591437505558133e-03" rms="2.5762960314750671e-01" purity="8.6390215158462524e-01" nType="0">
            <Node pos="l" depth="3" NCoef="0" IVar="-1" Cut="0.0000000000000000e+00" cType="1" res="9.6022374927997589e-03" rms="2.3256261646747589e-01" purity="9.1339945793151855e-01" nType="-99"/>
            <Node pos="r" depth="3" NCoef="0" IVar="-1" Cut="0.0000000000000000e+00" cType="1" res="-1.3039713725447655e-02" rms="3.2594895362854004e-01" purity="7.0212560892105103e-01" nType="-99"/>
          </Node>
        </Node>
      </Node>
    </BinaryTree>
    <BinaryTree type="DecisionTree" boostWeight="1.0000000000000000e+00" itree="280">
      <Node pos="s" depth="0" NCoef="0" IVar="9" Cut="-1.4666624069213867e+00" cType="1" res="2.7801159303635359e-03" rms="2.9941153526306152e-01" purity="5.0440979003906250e-01" nType="0">
        <Node pos="l" depth="1" NCoef="0" IVar="8" Cut="-1.3345789909362793e-01" cType="1" res="1.5470793470740318e-02" rms="3.0423414707183838e-01" purity="3.1077390909194946e-01" nType="0">
          <Node pos="l" depth="2" NCoef="0" IVar="8" Cut="-1.0222507715225220e+00" cType="1" res="2.4878257885575294e-02" rms="3.0157205462455750e-01" purity="3.1595423817634583e-01" nType="0">
            <Node pos="l" depth="3" NCoef="0" IVar="-1" Cut="0.0000000000000000e+00" cType="1" res="1.7391169443726540e-02" rms="2.7376437187194824e-01" purity="2.1336285769939423e-01" nType="-99"/>
            <Node pos="r" depth="3" NCoef="0" IVar="-1" Cut="0.0000000000000000e+00" cType="1" res="3.7270620465278625e-02" rms="3.2453909516334534e-01" purity="4.0965050458908081e-01" nType="-99"/>
          </Node>
          <Node pos="r" depth="2" NCoef="0" IVar="-1" Cut="0.0000000000000000e+00" cType="1" res="5.1693618297576904e-03" rms="3.0688923597335815e-01" purity="3.0486837029457092e-01" nType="-99"/>
        </Node>
        <Node pos="r" depth="1" NCoef="0" IVar="10" Cut="2.2666559219360352e+00" cType="1" res="1.3230809709057212e-03" rms="2.9881834983825684e-01" purity="5.2664136886596680e-01" nType="0">
          <Node pos="l" depth="2" NCoef="0" IVar="3" Cut="3.5190130615234375e+02" cType="1" res="6.2944513047114015e-04" rms="2.9796990752220154e-01" purity="5.3299212455749512e-01" nType="0">
            <Node pos="l" depth="3" NCoef="0" IVar="-1" Cut="0.0000000000000000e+00" cType="1" res="6.0206116177141666e-03" rms="3.1078666448593140e-01" purity="3.1178146600723267e-01" nType="-99"/>
            <Node pos="r" depth="3" NCoef="0" IVar="-1" Cut="0.0000000000000000e+00" cType="1" res="-2.8396227862685919e-03" rms="2.8983452916145325e-01" purity="6.6787356138229370e-01" nType="-99"/>
          </Node>
          <Node pos="r" depth="2" NCoef="0" IVar="-1" Cut="0.0000000000000000e+00" cType="1" res="2.6737589389085770e-02" rms="3.2449629902839661e-01" purity="3.1926465034484863e-01" nType="-99"/>
        </Node>
      </Node>
    </BinaryTree>
    <BinaryTree type="DecisionTree" boostWeight="1.0000000000000000e+00" itree="281">
      <Node pos="s" depth="0" NCoef="0" IVar="10" Cut="6.6666722297668457e-01" cType="1" res="1.1595822870731354e-03" rms="2.9857125878334045e-01" purity="5.0066441297531128e-01" nType="0">
        <Node pos="l" depth="1" NCoef="0" IVar="6" Cut="1.4537658691406250e+02" cType="1" res="-1.3528709532693028e-03" rms="2.9585826396942139e-01" purity="5.1205390691757202e-01" nType="0">
          <Node pos="l" depth="2" NCoef="0" IVar="6" Cut="7.7250488281250000e+01" cType="1" res="-4.2833304032683372e-03" rms="3.1073230504989624e-01" purity="3.9454582333564758e-01" nType="0">
            <Node pos="l" depth="3" NCoef="0" IVar="-1" Cut="0.0000000000000000e+00" cType="1" res="2.4871660862118006e-03" rms="2.9163312911987305e-01" purity="2.2462706267833710e-01" nType="-99"/>
            <Node pos="r" depth="3" NCoef="0" IVar="-1" Cut="0.0000000000000000e+00" cType="1" res="-9.3723507598042488e-03" rms="3.2835206389427185e-01" purity="5.6204020977020264e-01" nType="-99"/>
          </Node>
          <Node pos="r" depth="2" NCoef="0" IVar="2" Cut="4.0181819349527359e-02" cType="1" res="8.7721105664968491e-03" rms="2.3712146282196045e-01" purity="9.1805410385131836e-01" nType="0">
            <Node pos="l" depth="3" NCoef="0" IVar="-1" Cut="0.0000000000000000e+00" cType="1" res="2.7099717408418655e-02" rms="3.0885025858879089e-01" purity="8.3603900671005249e-01" nType="-99"/>
            <Node pos="r" depth="3" NCoef="0" IVar="-1" Cut="0.0000000000000000e+00" cType="1" res="7.1162828244268894e-03" rms="2.0568095147609711e-01" purity="9.4694346189498901e-01" nType="-99"/>
          </Node>
        </Node>
        <Node pos="r" depth="1" NCoef="0" IVar="1" Cut="1.4002580566406250e+03" cType="1" res="6.8547641858458519e-03" rms="3.0455482006072998e-01" purity="4.7484681010246277e-01" nType="0">
          <Node pos="l" depth="2" NCoef="0" IVar="10" Cut="9.7143501043319702e-01" cType="1" res="1.4924890361726284e-02" rms="3.0842369794845581e-01" purity="1.7303131520748138e-01" nType="0">
            <Node pos="l" depth="3" NCoef="0" IVar="-1" Cut="0.0000000000000000e+00" cType="1" res="4.1438717395067215e-02" rms="3.4590706229209900e-01" purity="2.1577924489974976e-01" nType="-99"/>
            <Node pos="r" depth="3" NCoef="0" IVar="-1" Cut="0.0000000000000000e+00" cType="1" res="8.5803717374801636e-03" rms="2.9581499099731445e-01" purity="1.6018398106098175e-01" nType="-99"/>
          </Node>
          <Node pos="r" depth="2" NCoef="0" IVar="7" Cut="4.5796051621437073e-01" cType="1" res="-1.9405685598030686e-03" rms="3.0003440380096436e-01" purity="8.0378437042236328e-01" nType="0">
            <Node pos="l" depth="3" NCoef="0" IVar="-1" Cut="0.0000000000000000e+00" cType="1" res="4.0758196264505386e-03" rms="2.9102301597595215e-01" purity="8.3670973777770996e-01" nType="-99"/>
            <Node pos="r" depth="3" NCoef="0" IVar="-1" Cut="0.0000000000000000e+00" cType="1" res="-1.5370044857263565e-02" rms="3.2181212306022644e-01" purity="7.1834367513656616e-01" nType="-99"/>
          </Node>
        </Node>
      </Node>
    </BinaryTree>
    <BinaryTree type="DecisionTree" boostWeight="1.0000000000000000e+00" itree="282">
      <Node pos="s" depth="0" NCoef="0" IVar="2" Cut="1.4641845226287842e-01" cType="1" res="-1.3801552122458816e-03" rms="2.9688635468482971e-01" purity="4.9899151921272278e-01" nType="0">
        <Node pos="l" depth="1" NCoef="0" IVar="7" Cut="9.3656581640243530e-01" cType="1" res="-2.8111706487834454e-03" rms="3.0059158802032471e-01" purity="4.6053752303123474e-01" nType="0">
          <Node pos="l" depth="2" NCoef="0" IVar="5" Cut="1.4132994079589844e+02" cType="1" res="-4.8032212071120739e-03" rms="3.0335232615470886e-01" purity="5.0211328268051147e-01" nType="0">
            <Node pos="l" depth="3" NCoef="0" IVar="-1" Cut="0.0000000000000000e+00" cType="1" res="-9.6897063776850700e-03" rms="3.0019181966781616e-01" purity="2.2638048231601715e-01" nType="-99"/>
            <Node pos="r" depth="3" NCoef="0" IVar="-1" Cut="0.0000000000000000e+00" cType="1" res="-7.4648740701377392e-04" rms="3.0635413527488708e-01" purity="7.7161151170730591e-01" nType="-99"/>
          </Node>
          <Node pos="r" depth="2" NCoef="0" IVar="10" Cut="3.9978808164596558e-01" cType="1" res="6.9386982358992100e-03" rms="2.8649654984474182e-01" purity="2.5704976916313171e-01" nType="0">
            <Node pos="l" depth="3" NCoef="0" IVar="-1" Cut="0.0000000000000000e+00" cType="1" res="2.6179462671279907e-02" rms="3.0040398240089417e-01" purity="3.0027475953102112e-01" nType="-99"/>
            <Node pos="r" depth="3" NCoef="0" IVar="-1" Cut="0.0000000000000000e+00" cType="1" res="-1.5114555135369301e-02" rms="2.6809483766555786e-01" purity="2.0626559853553772e-01" nType="-99"/>
          </Node>
        </Node>
        <Node pos="r" depth="1" NCoef="0" IVar="-1" Cut="0.0000000000000000e+00" cType="1" res="1.7936229705810547e-02" rms="2.5839057564735413e-01" purity="8.6669886112213135e-01" nType="-99"/>
      </Node>
    </BinaryTree>
    <BinaryTree type="DecisionTree" boostWeight="1.0000000000000000e+00" itree="283">
      <Node pos="s" depth="0" NCoef="0" IVar="8" Cut="-1.7332779169082642e+00" cType="1" res="-1.1450363090261817e-03" rms="2.9743292927742004e-01" purity="5.0140720605850220e-01" nType="0">
        <Node pos="l" depth="1" NCoef="0" IVar="6" Cut="7.0126632690429688e+01" cType="1" res="1.3743366114795208e-02" rms="2.7204799652099609e-01" purity="1.5725341439247131e-01" nType="0">
          <Node pos="l" depth="2" NCoef="0" IVar="-1" Cut="0.0000000000000000e+00" cType="1" res="8.5780126973986626e-03" rms="2.0780089497566223e-01" purity="5.3163845092058182e-02" nType="-99"/>
          <Node pos="r" depth="2" NCoef="0" IVar="-1" Cut="0.0000000000000000e+00" cType="1" res="2.4654919281601906e-02" rms="3.1802344322204590e-01" purity="2.4948458373546600e-01" nType="-99"/>
        </Node>
        <Node pos="r" depth="1" NCoef="0" IVar="1" Cut="1.3918016357421875e+03" cType="1" res="-2.0002771634608507e-03" rms="2.9880309104919434e-01" purity="5.2117657661437988e-01" nType="0">
          <Node pos="l" depth="2" NCoef="0" IVar="0" Cut="4.5424566650390625e+02" cType="1" res="-6.5333028323948383e-03" rms="3.0301469564437866e-01" purity="1.6595448553562164e-01" nType="0">
            <Node pos="l" depth="3" NCoef="0" IVar="-1" Cut="0.0000000000000000e+00" cType="1" res="-1.7283292254433036e-03" rms="2.8700268268585205e-01" purity="1.4397636055946350e-01" nType="-99"/>
            <Node pos="r" depth="3" NCoef="0" IVar="-1" Cut="0.0000000000000000e+00" cType="1" res="-2.2000741213560104e-02" rms="3.7197169661521912e-01" purity="2.7602058649063110e-01" nType="-99"/>
          </Node>
          <Node pos="r" depth="2" NCoef="0" IVar="5" Cut="1.5999516296386719e+02" cType="1" res="1.8771112663671374e-03" rms="2.9509773850440979e-01" purity="8.2502090930938721e-01" nType="0">
            <Node pos="l" depth="3" NCoef="0" IVar="-1" Cut="0.0000000000000000e+00" cType="1" res="1.0427371598780155e-02" rms="3.7477687001228333e-01" purity="6.7016613483428955e-01" nType="-99"/>
            <Node pos="r" depth="3" NCoef="0" IVar="-1" Cut="0.0000000000000000e+00" cType="1" res="-4.6890801750123501e-03" rms="2.5650453567504883e-01" purity="8.8653028011322021e-01" nType="-99"/>
          </Node>
        </Node>
      </Node>
    </BinaryTree>
    <BinaryTree type="DecisionTree" boostWeight="1.0000000000000000e+00" itree="284">
      <Node pos="s" depth="0" NCoef="0" IVar="3" Cut="3.4596902465820312e+02" cType="1" res="-2.0545610459521413e-04" rms="2.9842951893806458e-01" purity="5.0183057785034180e-01" nType="0">
        <Node pos="l" depth="1" NCoef="0" IVar="5" Cut="1.0518659973144531e+02" cType="1" res="-4.8377192579209805e-03" rms="3.0118680000305176e-01" purity="2.6673758029937744e-01" nType="0">
          <Node pos="l" depth="2" NCoef="0" IVar="3" Cut="3.0426348876953125e+02" cType="1" res="8.7381517514586449e-03" rms="2.3631462454795837e-01" purity="7.7054850757122040e-02" nType="0">
            <Node pos="l" depth="3" NCoef="0" IVar="-1" Cut="0.0000000000000000e+00" cType="1" res="5.6161577813327312e-03" rms="2.2236204147338867e-01" purity="6.1411168426275253e-02" nType="-99"/>
            <Node pos="r" depth="3" NCoef="0" IVar="-1" Cut="0.0000000000000000e+00" cType="1" res="4.2480461299419403e-02" rms="2.7078241109848022e-01" purity="1.2074412405490875e-01" nType="-99"/>
          </Node>
          <Node pos="r" depth="2" NCoef="0" IVar="8" Cut="-9.3325084447860718e-01" cType="1" res="-1.5197057276964188e-02" rms="3.4215921163558960e-01" purity="4.1147881746292114e-01" nType="0">
            <Node pos="l" depth="3" NCoef="0" IVar="-1" Cut="0.0000000000000000e+00" cType="1" res="1.3611029135063291e-03" rms="3.3952856063842773e-01" purity="3.1545767188072205e-01" nType="-99"/>
            <Node pos="r" depth="3" NCoef="0" IVar="-1" Cut="0.0000000000000000e+00" cType="1" res="-1.6376491636037827e-02" rms="3.4273207187652588e-01" purity="4.3768566846847534e-01" nType="-99"/>
          </Node>
        </Node>
        <Node pos="r" depth="1" NCoef="0" IVar="1" Cut="1.7157279052734375e+03" cType="1" res="2.5553766172379255e-03" rms="2.9673960804939270e-01" purity="6.4194625616073608e-01" nType="0">
          <Node pos="l" depth="2" NCoef="0" IVar="5" Cut="1.2023990631103516e+02" cType="1" res="7.2410348802804947e-03" rms="3.4385848045349121e-01" purity="3.7982720136642456e-01" nType="0">
            <Node pos="l" depth="3" NCoef="0" IVar="-1" Cut="0.0000000000000000e+00" cType="1" res="-5.0585120916366577e-03" rms="3.0419543385505676e-01" purity="1.7244090139865875e-01" nType="-99"/>
            <Node pos="r" depth="3" NCoef="0" IVar="-1" Cut="0.0000000000000000e+00" cType="1" res="1.3042982667684555e-02" rms="3.7791523337364197e-01" purity="5.8034354448318481e-01" nType="-99"/>
          </Node>
          <Node pos="r" depth="2" NCoef="0" IVar="2" Cut="2.1328879520297050e-02" cType="1" res="-2.1647473331540823e-03" rms="2.4000775814056396e-01" purity="9.0599322319030762e-01" nType="0">
            <Node pos="l" depth="3" NCoef="0" IVar="-1" Cut="0.0000000000000000e+00" cType="1" res="-1.4532641507685184e-02" rms="3.4962114691734314e-01" purity="7.3515319824218750e-01" nType="-99"/>
            <Node pos="r" depth="3" NCoef="0" IVar="-1" Cut="0.0000000000000000e+00" cType="1" res="3.7919485475867987e-03" rms="2.0304580032825470e-01" purity="9.4909256696701050e-01" nType="-99"/>
          </Node>
        </Node>
      </Node>
    </BinaryTree>
    <BinaryTree type="DecisionTree" boostWeight="1.0000000000000000e+00" itree="285">
      <Node pos="s" depth="0" NCoef="0" IVar="7" Cut="1.2070914506912231e+00" cType="1" res="2.9141391860321164e-04" rms="2.9921311140060425e-01" purity="5.0132119655609131e-01" nType="0">
        <Node pos="l" depth="1" NCoef="0" IVar="2" Cut="2.0917329937219620e-02" cType="1" res="1.4388874405995011e-03" rms="3.0423715710639954e-01" purity="5.3702718019485474e-01" nType="0">
          <Node pos="l" depth="2" NCoef="0" IVar="9" Cut="1.4665856361389160e+00" cType="1" res="7.2433925233781338e-03" rms="2.9865884780883789e-01" purity="2.8795626759529114e-01" nType="0">
            <Node pos="l" depth="3" NCoef="0" IVar="-1" Cut="0.0000000000000000e+00" cType="1" res="1.1665660887956619e-02" rms="3.0470934510231018e-01" purity="3.0824321508407593e-01" nType="-99"/>
            <Node pos="r" depth="3" NCoef="0" IVar="-1" Cut="0.0000000000000000e+00" cType="1" res="-2.4585884064435959e-02" rms="2.4571825563907623e-01" purity="1.3174280524253845e-01" nType="-99"/>
          </Node>
          <Node pos="r" depth="2" NCoef="0" IVar="6" Cut="8.1792190551757812e+01" cType="1" res="-1.2786167208105326e-03" rms="3.0677616596221924e-01" purity="6.5363514423370361e-01" nType="0">
            <Node pos="l" depth="3" NCoef="0" IVar="-1" Cut="0.0000000000000000e+00" cType="1" res="-6.8266741000115871e-03" rms="3.2909911870956421e-01" purity="3.4165850281715393e-01" nType="-99"/>
            <Node pos="r" depth="3" NCoef="0" IVar="-1" Cut="0.0000000000000000e+00" cType="1" res="1.7796056345105171e-03" rms="2.9591888189315796e-01" purity="7.9689711332321167e-01" nType="-99"/>
          </Node>
        </Node>
        <Node pos="r" depth="1" NCoef="0" IVar="9" Cut="1.3304302096366882e-01" cType="1" res="-1.0527193546295166e-02" rms="2.4660713970661163e-01" purity="1.6467791795730591e-01" nType="0">
          <Node pos="l" depth="2" NCoef="0" IVar="-1" Cut="0.0000000000000000e+00" cType="1" res="-3.0656661838293076e-02" rms="2.4249923229217529e-01" purity="1.6795744001865387e-01" nType="-99"/>
          <Node pos="r" depth="2" NCoef="0" IVar="-1" Cut="0.0000000000000000e+00" cType="1" res="-1.0494990274310112e-03" rms="2.4987086653709412e-01" purity="1.6170047223567963e-01" nType="-99"/>
        </Node>
      </Node>
    </BinaryTree>
    <BinaryTree type="DecisionTree" boostWeight="1.0000000000000000e+00" itree="286">
      <Node pos="s" depth="0" NCoef="0" IVar="8" Cut="3.9993080496788025e-01" cType="1" res="5.0013698637485504e-04" rms="2.9879519343376160e-01" purity="4.9834913015365601e-01" nType="0">
        <Node pos="l" depth="1" NCoef="0" IVar="5" Cut="2.3266233825683594e+02" cType="1" res="-2.0367165561765432e-03" rms="2.9536667466163635e-01" purity="5.2383053302764893e-01" nType="0">
          <Node pos="l" depth="2" NCoef="0" IVar="6" Cut="1.1919543457031250e+02" cType="1" res="-4.1674994863569736e-03" rms="3.1286329030990601e-01" purity="4.1615799069404602e-01" nType="0">
            <Node pos="l" depth="3" NCoef="0" IVar="-1" Cut="0.0000000000000000e+00" cType="1" res="-1.7323408974334598e-03" rms="3.1379804015159607e-01" purity="3.1491240859031677e-01" nType="-99"/>
            <Node pos="r" depth="3" NCoef="0" IVar="-1" Cut="0.0000000000000000e+00" cType="1" res="-1.4134075492620468e-02" rms="3.0925044417381287e-01" purity="7.8716558218002319e-01" nType="-99"/>
          </Node>
          <Node pos="r" depth="2" NCoef="0" IVar="3" Cut="4.8627133178710938e+02" cType="1" res="5.8968868106603622e-03" rms="2.1803224086761475e-01" purity="9.2473059892654419e-01" nType="0">
            <Node pos="l" depth="3" NCoef="0" IVar="-1" Cut="0.0000000000000000e+00" cType="1" res="2.3401428014039993e-02" rms="2.3976336419582367e-01" purity="9.0657734870910645e-01" nType="-99"/>
            <Node pos="r" depth="3" NCoef="0" IVar="-1" Cut="0.0000000000000000e+00" cType="1" res="-4.5342142693698406e-03" rms="1.9700765609741211e-01" purity="9.4041615724563599e-01" nType="-99"/>
          </Node>
        </Node>
        <Node pos="r" depth="1" NCoef="0" IVar="9" Cut="-1.1997226476669312e+00" cType="1" res="5.1794094033539295e-03" rms="3.0496272444725037e-01" purity="4.5134830474853516e-01" nType="0">
          <Node pos="l" depth="2" NCoef="0" IVar="-1" Cut="0.0000000000000000e+00" cType="1" res="-1.7707530409097672e-02" rms="2.8653723001480103e-01" purity="2.7006760239601135e-01" nType="-99"/>
          <Node pos="r" depth="2" NCoef="0" IVar="7" Cut="-9.4896018505096436e-02" cType="1" res="8.1854630261659622e-03" rms="3.0741423368453979e-01" purity="4.7751083970069885e-01" nType="0">
            <Node pos="l" depth="3" NCoef="0" IVar="-1" Cut="0.0000000000000000e+00" cType="1" res="1.6124866902828217e-02" rms="3.1339979171752930e-01" purity="4.8245850205421448e-01" nType="-99"/>
            <Node pos="r" depth="3" NCoef="0" IVar="-1" Cut="0.0000000000000000e+00" cType="1" res="3.3167183864861727e-03" rms="3.0284091830253601e-01" purity="4.7388002276420593e-01" nType="-99"/>
          </Node>
        </Node>
      </Node>
    </BinaryTree>
    <BinaryTree type="DecisionTree" boostWeight="1.0000000000000000e+00" itree="287">
      <Node pos="s" depth="0" NCoef="0" IVar="10" Cut="-1.3332885503768921e-01" cType="1" res="-7.1727047907188535e-04" rms="2.9715803265571594e-01" purity="4.9962294101715088e-01" nType="0">
        <Node pos="l" depth="1" NCoef="0" IVar="2" Cut="2.0562252029776573e-02" cType="1" res="3.3262446522712708e-03" rms="2.9888546466827393e-01" purity="4.9407830834388733e-01" nType="0">
          <Node pos="l" depth="2" NCoef="0" IVar="1" Cut="1.3549157714843750e+03" cType="1" res="1.2785421684384346e-02" rms="2.9028260707855225e-01" purity="2.3948113620281219e-01" nType="0">
            <Node pos="l" depth="3" NCoef="0" IVar="-1" Cut="0.0000000000000000e+00" cType="1" res="4.9949954263865948e-03" rms="2.1310067176818848e-01" purity="5.6414555758237839e-02" nType="-99"/>
            <Node pos="r" depth="3" NCoef="0" IVar="-1" Cut="0.0000000000000000e+00" cType="1" res="2.2208269685506821e-02" rms="3.8690310716629028e-01" purity="5.5018001794815063e-01" nType="-99"/>
          </Node>
          <Node pos="r" depth="2" NCoef="0" IVar="8" Cut="-1.3900777697563171e-01" cType="1" res="-1.9394666887819767e-03" rms="3.0344113707542419e-01" purity="6.3580685853958130e-01" nType="0">
            <Node pos="l" depth="3" NCoef="0" IVar="-1" Cut="0.0000000000000000e+00" cType="1" res="-1.0130004957318306e-02" rms="3.0232545733451843e-01" purity="6.0155659914016724e-01" nType="-99"/>
            <Node pos="r" depth="3" NCoef="0" IVar="-1" Cut="0.0000000000000000e+00" cType="1" res="4.7940290533006191e-03" rms="3.0423507094383240e-01" purity="6.6493016481399536e-01" nType="-99"/>
          </Node>
        </Node>
        <Node pos="r" depth="1" NCoef="0" IVar="7" Cut="-1.1392942667007446e+00" cType="1" res="-4.1168374009430408e-03" rms="2.9565510153770447e-01" purity="5.0428456068038940e-01" nType="0">
          <Node pos="l" depth="2" NCoef="0" IVar="-1" Cut="0.0000000000000000e+00" cType="1" res="-3.4594897180795670e-02" rms="2.4801111221313477e-01" purity="1.8505395948886871e-01" nType="-99"/>
          <Node pos="r" depth="2" NCoef="0" IVar="9" Cut="3.9999428391456604e-01" cType="1" res="-2.0384658128023148e-03" rms="2.9987648129463196e-01" purity="5.3585916757583618e-01" nType="0">
            <Node pos="l" depth="3" NCoef="0" IVar="-1" Cut="0.0000000000000000e+00" cType="1" res="1.7551794881001115e-03" rms="3.0124083161354065e-01" purity="5.7855498790740967e-01" nType="-99"/>
            <Node pos="r" depth="3" NCoef="0" IVar="-1" Cut="0.0000000000000000e+00" cType="1" res="-8.3778388798236847e-03" rms="2.9766038060188293e-01" purity="4.6959862112998962e-01" nType="-99"/>
          </Node>
        </Node>
      </Node>
    </BinaryTree>
    <BinaryTree type="DecisionTree" boostWeight="1.0000000000000000e+00" itree="288">
      <Node pos="s" depth="0" NCoef="0" IVar="0" Cut="4.2762579345703125e+02" cType="1" res="1.9854137208312750e-03" rms="2.9861029982566833e-01" purity="5.0367528200149536e-01" nType="0">
        <Node pos="l" depth="1" NCoef="0" IVar="0" Cut="3.4254156494140625e+02" cType="1" res="-3.2149420585483313e-03" rms="2.9556512832641602e-01" purity="2.0881107449531555e-01" nType="0">
          <Node pos="l" depth="2" NCoef="0" IVar="0" Cut="3.3443832397460938e+02" cType="1" res="6.1107743531465530e-03" rms="2.7887356281280518e-01" purity="1.5043473243713379e-01" nType="0">
            <Node pos="l" depth="3" NCoef="0" IVar="-1" Cut="0.0000000000000000e+00" cType="1" res="-5.2965315262554213e-06" rms="2.7185913920402527e-01" purity="1.3996979594230652e-01" nType="-99"/>
            <Node pos="r" depth="3" NCoef="0" IVar="-1" Cut="0.0000000000000000e+00" cType="1" res="4.3170526623725891e-02" rms="3.0807539820671082e-01" purity="1.9957551360130310e-01" nType="-99"/>
          </Node>
          <Node pos="r" depth="2" NCoef="0" IVar="7" Cut="-3.5423180460929871e-01" cType="1" res="-1.0130345821380615e-02" rms="3.0717509984970093e-01" purity="2.5209954380989075e-01" nType="0">
            <Node pos="l" depth="3" NCoef="0" IVar="-1" Cut="0.0000000000000000e+00" cType="1" res="1.1655366979539394e-03" rms="2.9632613062858582e-01" purity="2.2350974380970001e-01" nType="-99"/>
            <Node pos="r" depth="3" NCoef="0" IVar="-1" Cut="0.0000000000000000e+00" cType="1" res="-1.6130140051245689e-02" rms="3.1327399611473083e-01" purity="2.6914256811141968e-01" nType="-99"/>
          </Node>
        </Node>
        <Node pos="r" depth="1" NCoef="0" IVar="1" Cut="1.4287963867187500e+03" cType="1" res="6.1695231124758720e-03" rms="3.0097281932830811e-01" purity="7.4091756343841553e-01" nType="0">
          <Node pos="l" depth="2" NCoef="0" IVar="10" Cut="-1.3333073258399963e-01" cType="1" res="2.0259972661733627e-02" rms="3.7765648961067200e-01" purity="3.2492163777351379e-01" nType="0">
            <Node pos="l" depth="3" NCoef="0" IVar="-1" Cut="0.0000000000000000e+00" cType="1" res="2.2673690691590309e-03" rms="3.6048525571823120e-01" purity="2.9611453413963318e-01" nType="-99"/>
            <Node pos="r" depth="3" NCoef="0" IVar="-1" Cut="0.0000000000000000e+00" cType="1" res="2.4586340412497520e-02" rms="3.9030382037162781e-01" purity="3.4796696901321411e-01" nType="-99"/>
          </Node>
          <Node pos="r" depth="2" NCoef="0" IVar="5" Cut="1.4381336975097656e+02" cType="1" res="1.7096304800361395e-03" rms="2.7208516001701355e-01" purity="8.7258803844451904e-01" nType="0">
            <Node pos="l" depth="3" NCoef="0" IVar="-1" Cut="0.0000000000000000e+00" cType="1" res="8.3743371069431305e-03" rms="3.7866029143333435e-01" purity="6.9715678691864014e-01" nType="-99"/>
            <Node pos="r" depth="3" NCoef="0" IVar="-1" Cut="0.0000000000000000e+00" cType="1" res="-1.9200104288756847e-03" rms="2.3505423963069916e-01" purity="9.2000097036361694e-01" nType="-99"/>
          </Node>
        </Node>
      </Node>
    </BinaryTree>
    <BinaryTree type="DecisionTree" boostWeight="1.0000000000000000e+00" itree="289">
      <Node pos="s" depth="0" NCoef="0" IVar="8" Cut="-9.3325084447860718e-01" cType="1" res="-1.4386950351763517e-04" rms="3.0038461089134216e-01" purity="4.9764570593833923e-01" nType="0">
        <Node pos="l" depth="1" NCoef="0" IVar="8" Cut="-1.2888025045394897e+00" cType="1" res="1.1586969718337059e-02" rms="3.0802795290946960e-01" purity="3.5828402638435364e-01" nType="0">
          <Node pos="l" depth="2" NCoef="0" IVar="3" Cut="4.2856488037109375e+02" cType="1" res="1.3492112047970295e-03" rms="2.8820222616195679e-01" purity="2.5387880206108093e-01" nType="0">
            <Node pos="l" depth="3" NCoef="0" IVar="-1" Cut="0.0000000000000000e+00" cType="1" res="1.2416330166161060e-02" rms="2.7692317962646484e-01" purity="1.9017782807350159e-01" nType="-99"/>
            <Node pos="r" depth="3" NCoef="0" IVar="-1" Cut="0.0000000000000000e+00" cType="1" res="-1.6397967934608459e-02" rms="3.1296271085739136e-01" purity="4.0765666961669922e-01" nType="-99"/>
          </Node>
          <Node pos="r" depth="2" NCoef="0" IVar="0" Cut="5.3582092285156250e+02" cType="1" res="2.6087943464517593e-02" rms="3.3356490731239319e-01" purity="5.0616574287414551e-01" nType="0">
            <Node pos="l" depth="3" NCoef="0" IVar="-1" Cut="0.0000000000000000e+00" cType="1" res="3.3192615956068039e-02" rms="3.5761809349060059e-01" purity="3.2728597521781921e-01" nType="-99"/>
            <Node pos="r" depth="3" NCoef="0" IVar="-1" Cut="0.0000000000000000e+00" cType="1" res="8.8696694001555443e-03" rms="2.8127709031105042e-01" purity="8.4634894132614136e-01" nType="-99"/>
          </Node>
        </Node>
        <Node pos="r" depth="1" NCoef="0" IVar="7" Cut="-1.4475585222244263e+00" cType="1" res="-2.9635569080710411e-03" rms="2.9844954609870911e-01" purity="5.3114342689514160e-01" nType="0">
          <Node pos="l" depth="2" NCoef="0" IVar="-1" Cut="0.0000000000000000e+00" cType="1" res="1.9013335928320885e-02" rms="2.4621295928955078e-01" purity="1.5353536605834961e-01" nType="-99"/>
          <Node pos="r" depth="2" NCoef="0" IVar="1" Cut="1.0959053955078125e+03" cType="1" res="-3.8483273237943649e-03" rms="3.0118036270141602e-01" purity="5.5306559801101685e-01" nType="0">
            <Node pos="l" depth="3" NCoef="0" IVar="-1" Cut="0.0000000000000000e+00" cType="1" res="4.2879641987383366e-03" rms="2.3106980323791504e-01" purity="6.4655169844627380e-02" nType="-99"/>
            <Node pos="r" depth="3" NCoef="0" IVar="-1" Cut="0.0000000000000000e+00" cType="1" res="-5.5569824762642384e-03" rms="3.1821450591087341e-01" purity="6.9133758544921875e-01" nType="-99"/>
          </Node>
        </Node>
      </Node>
    </BinaryTree>
    <BinaryTree type="DecisionTree" boostWeight="1.0000000000000000e+00" itree="290">
      <Node pos="s" depth="0" NCoef="0" IVar="2" Cut="2.1316805854439735e-02" cType="1" res="6.2470172997564077e-04" rms="2.9742297530174255e-01" purity="5.0342512130737305e-01" nType="0">
        <Node pos="l" depth="1" NCoef="0" IVar="7" Cut="-1.1919130086898804e+00" cType="1" res="-5.3990846499800682e-03" rms="2.7811703085899353e-01" purity="2.3934756219387054e-01" nType="0">
          <Node pos="l" depth="2" NCoef="0" IVar="5" Cut="1.1837882995605469e+02" cType="1" res="8.0640818923711777e-03" rms="2.3489372432231903e-01" purity="1.0068462789058685e-01" nType="0">
            <Node pos="l" depth="3" NCoef="0" IVar="-1" Cut="0.0000000000000000e+00" cType="1" res="-3.1748365610837936e-02" rms="1.4327360689640045e-01" purity="2.5575065985321999e-02" nType="-99"/>
            <Node pos="r" depth="3" NCoef="0" IVar="-1" Cut="0.0000000000000000e+00" cType="1" res="3.8167379796504974e-02" rms="3.3648252487182617e-01" purity="2.2942593693733215e-01" nType="-99"/>
          </Node>
          <Node pos="r" depth="2" NCoef="0" IVar="2" Cut="1.7256438732147217e-02" cType="1" res="-8.6629409343004227e-03" rms="2.8752410411834717e-01" purity="2.7296343445777893e-01" nType="0">
            <Node pos="l" depth="3" NCoef="0" IVar="-1" Cut="0.0000000000000000e+00" cType="1" res="-6.1512915417551994e-03" rms="2.8508755564689636e-01" purity="2.5602743029594421e-01" nType="-99"/>
            <Node pos="r" depth="3" NCoef="0" IVar="-1" Cut="0.0000000000000000e+00" cType="1" res="-2.9457837343215942e-02" rms="3.0030438303947449e-01" purity="3.6962661147117615e-01" nType="-99"/>
          </Node>
        </Node>
        <Node pos="r" depth="1" NCoef="0" IVar="7" Cut="-8.9053708314895630e-01" cType="1" res="3.9475136436522007e-03" rms="3.0750375986099243e-01" purity="6.4909434318542480e-01" nType="0">
          <Node pos="l" depth="2" NCoef="0" IVar="4" Cut="2.4471473693847656e+02" cType="1" res="2.2325320169329643e-02" rms="3.3661574125289917e-01" purity="4.9449843168258667e-01" nType="0">
            <Node pos="l" depth="3" NCoef="0" IVar="-1" Cut="0.0000000000000000e+00" cType="1" res="9.9959019571542740e-03" rms="3.3577704429626465e-01" purity="2.6594150066375732e-01" nType="-99"/>
            <Node pos="r" depth="3" NCoef="0" IVar="-1" Cut="0.0000000000000000e+00" cType="1" res="3.2570585608482361e-02" rms="3.3706697821617126e-01" purity="7.8026032447814941e-01" nType="-99"/>
          </Node>
          <Node pos="r" depth="2" NCoef="0" IVar="4" Cut="1.4122540283203125e+02" cType="1" res="1.7693408299237490e-03" rms="3.0379486083984375e-01" purity="6.6741734743118286e-01" nType="0">
            <Node pos="l" depth="3" NCoef="0" IVar="-1" Cut="0.0000000000000000e+00" cType="1" res="1.7713414505124092e-02" rms="2.8952223062515259e-01" purity="1.3463190197944641e-01" nType="-99"/>
            <Node pos="r" depth="3" NCoef="0" IVar="-1" Cut="0.0000000000000000e+00" cType="1" res="1.8513787654228508e-04" rms="3.0561238527297974e-01" purity="7.3846215009689331e-01" nType="-99"/>
          </Node>
        </Node>
      </Node>
    </BinaryTree>
    <BinaryTree type="DecisionTree" boostWeight="1.0000000000000000e+00" itree="291">
      <Node pos="s" depth="0" NCoef="0" IVar="9" Cut="1.4666531085968018e+00" cType="1" res="8.7767827790230513e-04" rms="2.9846736788749695e-01" purity="5.0250154733657837e-01" nType="0">
        <Node pos="l" depth="1" NCoef="0" IVar="2" Cut="4.1834004223346710e-02" cType="1" res="-6.3079618848860264e-04" rms="2.9805347323417664e-01" purity="5.2528280019760132e-01" nType="0">
          <Node pos="l" depth="2" NCoef="0" IVar="7" Cut="-6.5140306949615479e-01" cType="1" res="3.1531318090856075e-03" rms="3.0209395289421082e-01" purity="3.4451919794082642e-01" nType="0">
            <Node pos="l" depth="3" NCoef="0" IVar="-1" Cut="0.0000000000000000e+00" cType="1" res="-5.1838378421962261e-03" rms="2.7593532204627991e-01" purity="2.2960497438907623e-01" nType="-99"/>
            <Node pos="r" depth="3" NCoef="0" IVar="-1" Cut="0.0000000000000000e+00" cType="1" res="6.5201628021895885e-03" rms="3.1228297948837280e-01" purity="3.9233219623565674e-01" nType="-99"/>
          </Node>
          <Node pos="r" depth="2" NCoef="0" IVar="7" Cut="-3.4513306617736816e-01" cType="1" res="-5.0038555637001991e-03" rms="2.9325380921363831e-01" purity="7.3419010639190674e-01" nType="0">
            <Node pos="l" depth="3" NCoef="0" IVar="-1" Cut="0.0000000000000000e+00" cType="1" res="8.2440879195928574e-03" rms="3.1216400861740112e-01" purity="7.1670508384704590e-01" nType="-99"/>
            <Node pos="r" depth="3" NCoef="0" IVar="-1" Cut="0.0000000000000000e+00" cType="1" res="-1.2515677139163017e-02" rms="2.8461694717407227e-01" purity="7.4166470766067505e-01" nType="-99"/>
          </Node>
        </Node>
        <Node pos="r" depth="1" NCoef="0" IVar="4" Cut="2.1543988037109375e+02" cType="1" res="1.3811157085001469e-02" rms="3.0168327689170837e-01" purity="3.0717760324478149e-01" nType="0">
          <Node pos="l" depth="2" NCoef="0" IVar="9" Cut="2.0382053852081299e+00" cType="1" res="4.2008701711893082e-04" rms="2.5529745221138000e-01" purity="1.3359363377094269e-01" nType="0">
            <Node pos="l" depth="3" NCoef="0" IVar="-1" Cut="0.0000000000000000e+00" cType="1" res="1.1231776326894760e-02" rms="2.8811097145080566e-01" purity="1.7018124461174011e-01" nType="-99"/>
            <Node pos="r" depth="3" NCoef="0" IVar="-1" Cut="0.0000000000000000e+00" cType="1" res="-2.1824352443218231e-02" rms="1.9931235909461975e-01" purity="8.1897951662540436e-02" nType="-99"/>
          </Node>
          <Node pos="r" depth="2" NCoef="0" IVar="-1" Cut="0.0000000000000000e+00" cType="1" res="2.6565397158265114e-02" rms="3.5825270414352417e-01" purity="5.6237620115280151e-01" nType="-99"/>
        </Node>
      </Node>
    </BinaryTree>
    <BinaryTree type="DecisionTree" boostWeight="1.0000000000000000e+00" itree="292">
      <Node pos="s" depth="0" NCoef="0" IVar="7" Cut="-3.9365124702453613e-01" cType="1" res="-1.5424806624650955e-03" rms="2.9846075177192688e-01" purity="4.9989831447601318e-01" nType="0">
        <Node pos="l" depth="1" NCoef="0" IVar="8" Cut="6.6649389266967773e-01" cType="1" res="-7.9520624130964279e-03" rms="2.9323199391365051e-01" purity="4.1662341356277466e-01" nType="0">
          <Node pos="l" depth="2" NCoef="0" IVar="4" Cut="2.9579498291015625e+02" cType="1" res="-2.8774696402251720e-03" rms="2.9879939556121826e-01" purity="4.5161485671997070e-01" nType="0">
            <Node pos="l" depth="3" NCoef="0" IVar="-1" Cut="0.0000000000000000e+00" cType="1" res="-8.2663223147392273e-03" rms="3.0196991562843323e-01" purity="2.9144164919853210e-01" nType="-99"/>
            <Node pos="r" depth="3" NCoef="0" IVar="-1" Cut="0.0000000000000000e+00" cType="1" res="1.0042029432952404e-02" rms="2.9099377989768982e-01" purity="8.2412117719650269e-01" nType="-99"/>
          </Node>
          <Node pos="r" depth="2" NCoef="0" IVar="6" Cut="7.7220420837402344e+01" cType="1" res="-2.3865951225161552e-02" rms="2.7443495392799377e-01" purity="3.0689054727554321e-01" nType="0">
            <Node pos="l" depth="3" NCoef="0" IVar="-1" Cut="0.0000000000000000e+00" cType="1" res="-9.1415764763951302e-03" rms="2.4187928438186646e-01" purity="1.2730626761913300e-01" nType="-99"/>
            <Node pos="r" depth="3" NCoef="0" IVar="-1" Cut="0.0000000000000000e+00" cType="1" res="-3.9557583630084991e-02" rms="3.0135014653205872e-01" purity="4.7874194383621216e-01" nType="-99"/>
          </Node>
        </Node>
        <Node pos="r" depth="1" NCoef="0" IVar="10" Cut="-1.7333281040191650e+00" cType="1" res="1.5693057794123888e-03" rms="3.0091729760169983e-01" purity="5.4032742977142334e-01" nType="0">
          <Node pos="l" depth="2" NCoef="0" IVar="-1" Cut="0.0000000000000000e+00" cType="1" res="-1.8583657220005989e-02" rms="2.9361209273338318e-01" purity="3.8641226291656494e-01" nType="-99"/>
          <Node pos="r" depth="2" NCoef="0" IVar="6" Cut="1.1358453369140625e+02" cType="1" res="3.0806043650954962e-03" rms="3.0145001411437988e-01" purity="5.5278080701828003e-01" nType="0">
            <Node pos="l" depth="3" NCoef="0" IVar="-1" Cut="0.0000000000000000e+00" cType="1" res="6.1294604092836380e-03" rms="3.2196384668350220e-01" purity="3.7469410896301270e-01" nType="-99"/>
            <Node pos="r" depth="3" NCoef="0" IVar="-1" Cut="0.0000000000000000e+00" cType="1" res="-3.5469478461891413e-03" rms="2.6203665137290955e-01" purity="8.6138987541198730e-01" nType="-99"/>
          </Node>
        </Node>
      </Node>
    </BinaryTree>
    <BinaryTree type="DecisionTree" boostWeight="1.0000000000000000e+00" itree="293">
      <Node pos="s" depth="0" NCoef="0" IVar="10" Cut="1.7333250045776367e+00" cType="1" res="2.0666779018938541e-03" rms="2.9948994517326355e-01" purity="4.9855533242225647e-01" nType="0">
        <Node pos="l" depth="1" NCoef="0" IVar="5" Cut="2.1668768310546875e+02" cType="1" res="3.4789866767823696e-03" rms="2.9922410845756531e-01" purity="5.1306402683258057e-01" nType="0">
          <Node pos="l" depth="2" NCoef="0" IVar="9" Cut="-9.3333536386489868e-01" cType="1" res="5.5545344948768616e-03" rms="3.1715407967567444e-01" purity="3.8957774639129639e-01" nType="0">
            <Node pos="l" depth="3" NCoef="0" IVar="-1" Cut="0.0000000000000000e+00" cType="1" res="1.4370531775057316e-02" rms="3.1247678399085999e-01" purity="3.3469894528388977e-01" nType="-99"/>
            <Node pos="r" depth="3" NCoef="0" IVar="-1" Cut="0.0000000000000000e+00" cType="1" res="2.9629657510668039e-03" rms="3.1857359409332275e-01" purity="4.0689668059349060e-01" nType="-99"/>
          </Node>
          <Node pos="r" depth="2" NCoef="0" IVar="6" Cut="1.0591062164306641e+02" cType="1" res="-3.0467968899756670e-03" rms="2.3394697904586792e-01" purity="9.0132015943527222e-01" nType="0">
            <Node pos="l" depth="3" NCoef="0" IVar="-1" Cut="0.0000000000000000e+00" cType="1" res="-2.2079816088080406e-02" rms="3.1195285916328430e-01" purity="7.6682025194168091e-01" nType="-99"/>
            <Node pos="r" depth="3" NCoef="0" IVar="-1" Cut="0.0000000000000000e+00" cType="1" res="3.7007741630077362e-03" rms="2.0944617688655853e-01" purity="9.3528383970260620e-01" nType="-99"/>
          </Node>
        </Node>
        <Node pos="r" depth="1" NCoef="0" IVar="1" Cut="1.3132445068359375e+03" cType="1" res="-1.3797827996313572e-02" rms="3.0200663208961487e-01" purity="3.3557945489883423e-01" nType="0">
          <Node pos="l" depth="2" NCoef="0" IVar="-1" Cut="0.0000000000000000e+00" cType="1" res="1.9736106041818857e-03" rms="2.6060017943382263e-01" purity="1.1415754258632660e-01" nType="-99"/>
          <Node pos="r" depth="2" NCoef="0" IVar="-1" Cut="0.0000000000000000e+00" cType="1" res="-2.9910955578088760e-02" rms="3.4939268231391907e-01" purity="6.3606864213943481e-01" nType="-99"/>
        </Node>
      </Node>
    </BinaryTree>
    <BinaryTree type="DecisionTree" boostWeight="1.0000000000000000e+00" itree="294">
      <Node pos="s" depth="0" NCoef="0" IVar="2" Cut="8.2248196005821228e-02" cType="1" res="1.1348115513101220e-03" rms="2.9838344454765320e-01" purity="5.0143539905548096e-01" nType="0">
        <Node pos="l" depth="1" NCoef="0" IVar="10" Cut="1.9999972581863403e+00" cType="1" res="-1.1103202123194933e-03" rms="3.0491498112678528e-01" purity="3.9710065722465515e-01" nType="0">
          <Node pos="l" depth="2" NCoef="0" IVar="10" Cut="1.5428152084350586e+00" cType="1" res="-5.7953406212618575e-05" rms="3.0606502294540405e-01" purity="4.0685880184173584e-01" nType="0">
            <Node pos="l" depth="3" NCoef="0" IVar="-1" Cut="0.0000000000000000e+00" cType="1" res="-1.6081599751487374e-03" rms="3.0522570013999939e-01" purity="4.1052421927452087e-01" nType="-99"/>
            <Node pos="r" depth="3" NCoef="0" IVar="-1" Cut="0.0000000000000000e+00" cType="1" res="2.2229041904211044e-02" rms="3.1735974550247192e-01" purity="3.5318341851234436e-01" nType="-99"/>
          </Node>
          <Node pos="r" depth="2" NCoef="0" IVar="-1" Cut="0.0000000000000000e+00" cType="1" res="-2.2333899512887001e-02" rms="2.8342899680137634e-01" purity="2.2651405632495880e-01" nType="-99"/>
        </Node>
        <Node pos="r" depth="1" NCoef="0" IVar="4" Cut="2.4626454162597656e+02" cType="1" res="7.7612120658159256e-03" rms="2.7810746431350708e-01" purity="8.0937469005584717e-01" nType="0">
          <Node pos="l" depth="2" NCoef="0" IVar="-1" Cut="0.0000000000000000e+00" cType="1" res="1.2560458853840828e-02" rms="3.6383983492851257e-01" purity="5.9413307905197144e-01" nType="-99"/>
          <Node pos="r" depth="2" NCoef="0" IVar="7" Cut="-7.1327202022075653e-02" cType="1" res="2.3255872074514627e-03" rms="2.1316212415695190e-01" purity="9.3384063243865967e-01" nType="0">
            <Node pos="l" depth="3" NCoef="0" IVar="-1" Cut="0.0000000000000000e+00" cType="1" res="-7.9310582950711250e-03" rms="2.2108341753482819e-01" purity="9.3188709020614624e-01" nType="-99"/>
            <Node pos="r" depth="3" NCoef="0" IVar="-1" Cut="0.0000000000000000e+00" cType="1" res="1.4025504700839520e-02" rms="2.0651960372924805e-01" purity="9.3539404869079590e-01" nType="-99"/>
          </Node>
        </Node>
      </Node>
    </BinaryTree>
    <BinaryTree type="DecisionTree" boostWeight="1.0000000000000000e+00" itree="295">
      <Node pos="s" depth="0" NCoef="0" IVar="10" Cut="-1.9999907016754150e+00" cType="1" res="3.2178326509892941e-03" rms="3.0200582742691040e-01" purity="5.0183361768722534e-01" nType="0">
        <Node pos="l" depth="1" NCoef="0" IVar="9" Cut="-1.3334776461124420e-01" cType="1" res="-1.2661152519285679e-02" rms="2.8191372752189636e-01" purity="3.2667598128318787e-01" nType="0">
          <Node pos="l" depth="2" NCoef="0" IVar="-1" Cut="0.0000000000000000e+00" cType="1" res="-1.2861578725278378e-03" rms="2.8831815719604492e-01" purity="3.0466324090957642e-01" nType="-99"/>
          <Node pos="r" depth="2" NCoef="0" IVar="-1" Cut="0.0000000000000000e+00" cType="1" res="-2.7391012758016586e-02" rms="2.7434957027435303e-01" purity="3.5025173425674438e-01" nType="-99"/>
        </Node>
        <Node pos="r" depth="1" NCoef="0" IVar="1" Cut="1.4400661621093750e+03" cType="1" res="4.0823938325047493e-03" rms="3.0303764343261719e-01" purity="5.1137042045593262e-01" nType="0">
          <Node pos="l" depth="2" NCoef="0" IVar="1" Cut="1.1047985839843750e+03" cType="1" res="7.7164089307188988e-03" rms="3.1639418005943298e-01" purity="1.9670584797859192e-01" nType="0">
            <Node pos="l" depth="3" NCoef="0" IVar="-1" Cut="0.0000000000000000e+00" cType="1" res="-1.7416907940059900e-03" rms="2.1717320382595062e-01" purity="5.5561169981956482e-02" nType="-99"/>
            <Node pos="r" depth="3" NCoef="0" IVar="-1" Cut="0.0000000000000000e+00" cType="1" res="1.1032577604055405e-02" rms="3.8997349143028259e-01" purity="3.3565360307693481e-01" nType="-99"/>
          </Node>
          <Node pos="r" depth="2" NCoef="0" IVar="9" Cut="1.4663975238800049e+00" cType="1" res="3.1138991471379995e-04" rms="2.8847625851631165e-01" purity="8.3789670467376709e-01" nType="0">
            <Node pos="l" depth="3" NCoef="0" IVar="-1" Cut="0.0000000000000000e+00" cType="1" res="-1.3495893217623234e-03" rms="2.8186145424842834e-01" purity="8.4765189886093140e-01" nType="-99"/>
            <Node pos="r" depth="3" NCoef="0" IVar="-1" Cut="0.0000000000000000e+00" cType="1" res="1.5263535082340240e-02" rms="3.6726406216621399e-01" purity="7.0327889919281006e-01" nType="-99"/>
          </Node>
        </Node>
      </Node>
    </BinaryTree>
    <BinaryTree type="DecisionTree" boostWeight="1.0000000000000000e+00" itree="296">
      <Node pos="s" depth="0" NCoef="0" IVar="5" Cut="1.4369297790527344e+02" cType="1" res="-2.9551016632467508e-03" rms="2.9475584626197815e-01" purity="4.9682030081748962e-01" nType="0">
        <Node pos="l" depth="1" NCoef="0" IVar="2" Cut="8.3667799830436707e-02" cType="1" res="-7.7790706418454647e-03" rms="2.9143789410591125e-01" purity="2.1695631742477417e-01" nType="0">
          <Node pos="l" depth="2" NCoef="0" IVar="7" Cut="6.7077326774597168e-01" cType="1" res="-5.6731933727860451e-03" rms="2.8109318017959595e-01" purity="1.8594205379486084e-01" nType="0">
            <Node pos="l" depth="3" NCoef="0" IVar="-1" Cut="0.0000000000000000e+00" cType="1" res="-1.0489858686923981e-02" rms="2.8993719816207886e-01" purity="2.0968760550022125e-01" nType="-99"/>
            <Node pos="r" depth="3" NCoef="0" IVar="-1" Cut="0.0000000000000000e+00" cType="1" res="5.0008408725261688e-03" rms="2.5813552737236023e-01" purity="1.2827156484127045e-01" nType="-99"/>
          </Node>
          <Node pos="r" depth="2" NCoef="0" IVar="-1" Cut="0.0000000000000000e+00" cType="1" res="-1.7144290730357170e-02" rms="3.6031594872474670e-01" purity="4.5356136560440063e-01" nType="-99"/>
        </Node>
        <Node pos="r" depth="1" NCoef="0" IVar="1" Cut="1.4882336425781250e+03" cType="1" res="1.8504009349271655e-03" rms="2.9794675111770630e-01" purity="7.7561295032501221e-01" nType="0">
          <Node pos="l" depth="2" NCoef="0" IVar="2" Cut="2.0157368853688240e-02" cType="1" res="9.2402016744017601e-03" rms="4.0137103199958801e-01" purity="4.4691362977027893e-01" nType="0">
            <Node pos="l" depth="3" NCoef="0" IVar="-1" Cut="0.0000000000000000e+00" cType="1" res="2.5614654645323753e-02" rms="3.6451885104179382e-01" purity="2.3513446748256683e-01" nType="-99"/>
            <Node pos="r" depth="3" NCoef="0" IVar="-1" Cut="0.0000000000000000e+00" cType="1" res="-2.4956814013421535e-04" rms="4.1627535223960876e-01" purity="5.4064083099365234e-01" nType="-99"/>
          </Node>
          <Node pos="r" depth="2" NCoef="0" IVar="8" Cut="-1.1999039649963379e+00" cType="1" res="-8.0997799523174763e-04" rms="2.5041469931602478e-01" purity="8.9394700527191162e-01" nType="0">
            <Node pos="l" depth="3" NCoef="0" IVar="-1" Cut="0.0000000000000000e+00" cType="1" res="-2.1796716377139091e-02" rms="3.1382262706756592e-01" purity="7.6759815216064453e-01" nType="-99"/>
            <Node pos="r" depth="3" NCoef="0" IVar="-1" Cut="0.0000000000000000e+00" cType="1" res="1.1860434897243977e-03" rms="2.4497200548648834e-01" purity="9.0334743261337280e-01" nType="-99"/>
          </Node>
        </Node>
      </Node>
    </BinaryTree>
    <BinaryTree type="DecisionTree" boostWeight="1.0000000000000000e+00" itree="297">
      <Node pos="s" depth="0" NCoef="0" IVar="7" Cut="9.4154334068298340e-01" cType="1" res="-4.9186561955139041e-04" rms="2.9829332232475281e-01" purity="4.9839979410171509e-01" nType="0">
        <Node pos="l" depth="1" NCoef="0" IVar="8" Cut="9.3326693773269653e-01" cType="1" res="-1.7291083931922913e-03" rms="2.9993352293968201e-01" purity="5.4202318191528320e-01" nType="0">
          <Node pos="l" depth="2" NCoef="0" IVar="8" Cut="5.7773011922836304e-01" cType="1" res="-2.6683910982683301e-04" rms="3.0034935474395752e-01" purity="5.7691526412963867e-01" nType="0">
            <Node pos="l" depth="3" NCoef="0" IVar="-1" Cut="0.0000000000000000e+00" cType="1" res="-2.1949366200715303e-03" rms="2.9810124635696411e-01" purity="5.7092571258544922e-01" nType="-99"/>
            <Node pos="r" depth="3" NCoef="0" IVar="-1" Cut="0.0000000000000000e+00" cType="1" res="1.1451774276793003e-02" rms="3.1497186422348022e-01" purity="6.1764341592788696e-01" nType="-99"/>
          </Node>
          <Node pos="r" depth="2" NCoef="0" IVar="0" Cut="4.0612564086914062e+02" cType="1" res="-8.5456352680921555e-03" rms="2.9789263010025024e-01" purity="3.7937018275260925e-01" nType="0">
            <Node pos="l" depth="3" NCoef="0" IVar="-1" Cut="0.0000000000000000e+00" cType="1" res="-2.3315399885177612e-02" rms="2.5917091965675354e-01" purity="1.1459143459796906e-01" nType="-99"/>
            <Node pos="r" depth="3" NCoef="0" IVar="-1" Cut="0.0000000000000000e+00" cType="1" res="-1.1334990849718451e-03" rms="3.2585990428924561e-01" purity="5.9496563673019409e-01" nType="-99"/>
          </Node>
        </Node>
        <Node pos="r" depth="1" NCoef="0" IVar="0" Cut="5.7068750000000000e+02" cType="1" res="6.3539524562656879e-03" rms="2.8895410895347595e-01" purity="2.5702574849128723e-01" nType="0">
          <Node pos="l" depth="2" NCoef="0" IVar="0" Cut="3.9023776245117188e+02" cType="1" res="1.8240213394165039e-03" rms="2.7848404645919800e-01" purity="1.5719774365425110e-01" nType="0">
            <Node pos="l" depth="3" NCoef="0" IVar="-1" Cut="0.0000000000000000e+00" cType="1" res="2.1981537342071533e-02" rms="2.4974334239959717e-01" purity="1.0388774424791336e-01" nType="-99"/>
            <Node pos="r" depth="3" NCoef="0" IVar="-1" Cut="0.0000000000000000e+00" cType="1" res="-1.4531850814819336e-02" rms="3.1649637222290039e-01" purity="2.3824501037597656e-01" nType="-99"/>
          </Node>
          <Node pos="r" depth="2" NCoef="0" IVar="-1" Cut="0.0000000000000000e+00" cType="1" res="2.4782450869679451e-02" rms="3.3475390076637268e-01" purity="7.4701297283172607e-01" nType="-99"/>
        </Node>
      </Node>
    </BinaryTree>
    <BinaryTree type="DecisionTree" boostWeight="1.0000000000000000e+00" itree="298">
      <Node pos="s" depth="0" NCoef="0" IVar="9" Cut="-4.0000864863395691e-01" cType="1" res="-3.4908871748484671e-04" rms="2.9735153913497925e-01" purity="4.9876496195793152e-01" nType="0">
        <Node pos="l" depth="1" NCoef="0" IVar="8" Cut="1.1996513605117798e+00" cType="1" res="-5.2421418949961662e-03" rms="2.9884618520736694e-01" purity="4.5719316601753235e-01" nType="0">
          <Node pos="l" depth="2" NCoef="0" IVar="1" Cut="1.6996918945312500e+03" cType="1" res="-7.3333648033440113e-03" rms="2.9870882630348206e-01" purity="4.8363724350929260e-01" nType="0">
            <Node pos="l" depth="3" NCoef="0" IVar="-1" Cut="0.0000000000000000e+00" cType="1" res="-1.0978570207953453e-02" rms="3.1794601678848267e-01" purity="2.8202036023139954e-01" nType="-99"/>
            <Node pos="r" depth="3" NCoef="0" IVar="-1" Cut="0.0000000000000000e+00" cType="1" res="2.4971964303404093e-03" rms="2.5429293513298035e-01" purity="8.9908742904663086e-01" nType="-99"/>
          </Node>
          <Node pos="r" depth="2" NCoef="0" IVar="-1" Cut="0.0000000000000000e+00" cType="1" res="1.2949060648679733e-02" rms="2.9941403865814209e-01" purity="2.5177842378616333e-01" nType="-99"/>
        </Node>
        <Node pos="r" depth="1" NCoef="0" IVar="2" Cut="4.2657293379306793e-02" cType="1" res="2.4057258851826191e-03" rms="2.9647120833396912e-01" purity="5.2217012643814087e-01" nType="0">
          <Node pos="l" depth="2" NCoef="0" IVar="7" Cut="-3.8570252060890198e-01" cType="1" res="-1.6019300092011690e-03" rms="2.9746252298355103e-01" purity="3.3932533860206604e-01" nType="0">
            <Node pos="l" depth="3" NCoef="0" IVar="-1" Cut="0.0000000000000000e+00" cType="1" res="-1.2004815973341465e-02" rms="2.8620299696922302e-01" purity="2.7391353249549866e-01" nType="-99"/>
            <Node pos="r" depth="3" NCoef="0" IVar="-1" Cut="0.0000000000000000e+00" cType="1" res="2.9909792356193066e-03" rms="3.0274000763893127e-01" purity="3.7141385674476624e-01" nType="-99"/>
          </Node>
          <Node pos="r" depth="2" NCoef="0" IVar="6" Cut="1.0535228729248047e+02" cType="1" res="7.0859245024621487e-03" rms="2.9524046182632446e-01" purity="7.3569887876510620e-01" nType="0">
            <Node pos="l" depth="3" NCoef="0" IVar="-1" Cut="0.0000000000000000e+00" cType="1" res="1.0631266050040722e-02" rms="3.5056832432746887e-01" purity="5.1511794328689575e-01" nType="-99"/>
            <Node pos="r" depth="3" NCoef="0" IVar="-1" Cut="0.0000000000000000e+00" cType="1" res="4.3077860027551651e-03" rms="2.4704290926456451e-01" purity="8.9677727222442627e-01" nType="-99"/>
          </Node>
        </Node>
      </Node>
    </BinaryTree>
    <BinaryTree type="DecisionTree" boostWeight="1.0000000000000000e+00" itree="299">
      <Node pos="s" depth="0" NCoef="0" IVar="9" Cut="-1.4666659832000732e+00" cType="1" res="2.3437351919710636e-03" rms="3.0018681287765503e-01" purity="5.0413727760314941e-01" nType="0">
        <Node pos="l" depth="1" NCoef="0" IVar="1" Cut="1.2675358886718750e+03" cType="1" res="1.1803152039647102e-02" rms="3.0103477835655212e-01" purity="3.1967842578887939e-01" nType="0">
          <Node pos="l" depth="2" NCoef="0" IVar="-1" Cut="0.0000000000000000e+00" cType="1" res="-5.2698249928653240e-03" rms="2.3687201738357544e-01" purity="6.6776432096958160e-02" nType="-99"/>
          <Node pos="r" depth="2" NCoef="0" IVar="-1" Cut="0.0000000000000000e+00" cType="1" res="2.1934151649475098e-02" rms="3.6160364747047424e-01" purity="6.1781960725784302e-01" nType="-99"/>
        </Node>
        <Node pos="r" depth="1" NCoef="0" IVar="0" Cut="4.5299490356445312e+02" cType="1" res="1.2485033366829157e-03" rms="3.0006924271583557e-01" purity="5.2549427747726440e-01" nType="0">
          <Node pos="l" depth="2" NCoef="0" IVar="0" Cut="4.2385086059570312e+02" cType="1" res="4.5706508681178093e-03" rms="3.1442889571189880e-01" purity="2.6063671708106995e-01" nType="0">
            <Node pos="l" depth="3" NCoef="0" IVar="-1" Cut="0.0000000000000000e+00" cType="1" res="8.0680120736360550e-03" rms="3.1067118048667908e-01" purity="2.3523093760013580e-01" nType="-99"/>
            <Node pos="r" depth="3" NCoef="0" IVar="-1" Cut="0.0000000000000000e+00" cType="1" res="-1.3172416947782040e-02" rms="3.3778193593025208e-01" purity="4.3041786551475525e-01" nType="-99"/>
          </Node>
          <Node pos="r" depth="2" NCoef="0" IVar="0" Cut="5.9870642089843750e+02" cType="1" res="-2.0281998440623283e-03" rms="2.8516072034835815e-01" purity="7.8672885894775391e-01" nType="0">
            <Node pos="l" depth="3" NCoef="0" IVar="-1" Cut="0.0000000000000000e+00" cType="1" res="-7.8060426749289036e-03" rms="3.3483174443244934e-01" purity="6.1850720643997192e-01" nType="-99"/>
            <Node pos="r" depth="3" NCoef="0" IVar="-1" Cut="0.0000000000000000e+00" cType="1" res="4.6828519552946091e-03" rms="2.4450200796127319e-01" purity="9.0406113862991333e-01" nType="-99"/>
          </Node>
        </Node>
      </Node>
    </BinaryTree>
    <BinaryTree type="DecisionTree" boostWeight="1.0000000000000000e+00" itree="300">
      <Node pos="s" depth="0" NCoef="0" IVar="7" Cut="6.7080944776535034e-01" cType="1" res="-5.5448053171858191e-04" rms="2.9697266221046448e-01" purity="4.9989917874336243e-01" nType="0">
        <Node pos="l" depth="1" NCoef="0" IVar="10" Cut="-3.9984980225563049e-01" cType="1" res="2.6906370185315609e-03" rms="3.0161887407302856e-01" purity="5.5023819208145142e-01" nType="0">
          <Node pos="l" depth="2" NCoef="0" IVar="5" Cut="2.2016926574707031e+02" cType="1" res="8.2967318594455719e-03" rms="3.0654114484786987e-01" purity="5.2558225393295288e-01" nType="0">
            <Node pos="l" depth="3" NCoef="0" IVar="-1" Cut="0.0000000000000000e+00" cType="1" res="1.1820279993116856e-02" rms="3.2638663053512573e-01" purity="4.1083151102066040e-01" nType="-99"/>
            <Node pos="r" depth="3" NCoef="0" IVar="-1" Cut="0.0000000000000000e+00" cType="1" res="-7.8421905636787415e-03" rms="2.2714881598949432e-01" purity="9.1080343723297119e-01" nType="-99"/>
          </Node>
          <Node pos="r" depth="2" NCoef="0" IVar="10" Cut="-9.5091156661510468e-02" cType="1" res="-9.8292331676930189e-04" rms="2.9829224944114685e-01" purity="5.6639462709426880e-01" nType="0">
            <Node pos="l" depth="3" NCoef="0" IVar="-1" Cut="0.0000000000000000e+00" cType="1" res="-1.7430765554308891e-02" rms="2.8517824411392212e-01" purity="5.5368518829345703e-01" nType="-99"/>
            <Node pos="r" depth="3" NCoef="0" IVar="-1" Cut="0.0000000000000000e+00" cType="1" res="1.5244715614244342e-03" rms="3.0036911368370056e-01" purity="5.6852388381958008e-01" nType="-99"/>
          </Node>
        </Node>
        <Node pos="r" depth="1" NCoef="0" IVar="5" Cut="1.6799552917480469e+02" cType="1" res="-1.1740883812308311e-02" rms="2.8007885813713074e-01" purity="3.2637333869934082e-01" nType="0">
          <Node pos="l" depth="2" NCoef="0" IVar="10" Cut="-4.0000489354133606e-01" cType="1" res="-1.6831537708640099e-02" rms="2.6336276531219482e-01" purity="1.5152359008789062e-01" nType="0">
            <Node pos="l" depth="3" NCoef="0" IVar="-1" Cut="0.0000000000000000e+00" cType="1" res="-2.7818405069410801e-03" rms="2.7741250395774841e-01" purity="1.7823250591754913e-01" nType="-99"/>
            <Node pos="r" depth="3" NCoef="0" IVar="-1" Cut="0.0000000000000000e+00" cType="1" res="-3.2436363399028778e-02" rms="2.5570592284202576e-01" purity="1.3811747729778290e-01" nType="-99"/>
          </Node>
          <Node pos="r" depth="2" NCoef="0" IVar="2" Cut="3.0913647264242172e-02" cType="1" res="-4.2743349331431091e-04" rms="3.1376320123672485e-01" purity="7.1495866775512695e-01" nType="0">
            <Node pos="l" depth="3" NCoef="0" IVar="-1" Cut="0.0000000000000000e+00" cType="1" res="-1.1807795614004135e-02" rms="3.2907050848007202e-01" purity="5.2205353975296021e-01" nType="-99"/>
            <Node pos="r" depth="3" NCoef="0" IVar="-1" Cut="0.0000000000000000e+00" cType="1" res="8.9404694736003876e-03" rms="3.0345955491065979e-01" purity="8.3570992946624756e-01" nType="-99"/>
          </Node>
        </Node>
      </Node>
    </BinaryTree>
    <BinaryTree type="DecisionTree" boostWeight="1.0000000000000000e+00" itree="301">
      <Node pos="s" depth="0" NCoef="0" IVar="7" Cut="1.4692428112030029e+00" cType="1" res="-3.7469202652573586e-04" rms="2.9899495840072632e-01" purity="5.0252515077590942e-01" nType="0">
        <Node pos="l" depth="1" NCoef="0" IVar="7" Cut="-1.7748328447341919e+00" cType="1" res="-1.6026113880798221e-03" rms="3.0205470323562622e-01" purity="5.2694725990295410e-01" nType="0">
          <Node pos="l" depth="2" NCoef="0" IVar="-1" Cut="0.0000000000000000e+00" cType="1" res="-6.4044490456581116e-02" rms="1.5128402411937714e-01" purity="4.6662822365760803e-02" nType="-99"/>
          <Node pos="r" depth="2" NCoef="0" IVar="9" Cut="-1.9999313354492188e+00" cType="1" res="-8.1591669004410505e-04" rms="3.0564594268798828e-01" purity="5.4242193698883057e-01" nType="0">
            <Node pos="l" depth="3" NCoef="0" IVar="-1" Cut="0.0000000000000000e+00" cType="1" res="2.4446269497275352e-02" rms="3.2115235924720764e-01" purity="2.6703605055809021e-01" nType="-99"/>
            <Node pos="r" depth="3" NCoef="0" IVar="-1" Cut="0.0000000000000000e+00" cType="1" res="-1.8550280947238207e-03" rms="3.0497217178344727e-01" purity="5.5345672369003296e-01" nType="-99"/>
          </Node>
        </Node>
        <Node pos="r" depth="1" NCoef="0" IVar="2" Cut="8.1082182005047798e-03" cType="1" res="1.8055133521556854e-02" rms="2.4785740673542023e-01" purity="1.3597467541694641e-01" nType="0">
          <Node pos="l" depth="2" NCoef="0" IVar="-1" Cut="0.0000000000000000e+00" cType="1" res="-2.1810067817568779e-02" rms="1.4719241857528687e-01" purity="3.7715442478656769e-02" nType="-99"/>
          <Node pos="r" depth="2" NCoef="0" IVar="-1" Cut="0.0000000000000000e+00" cType="1" res="5.6518785655498505e-02" rms="3.2539072632789612e-01" purity="2.4960604310035706e-01" nType="-99"/>
        </Node>
      </Node>
    </BinaryTree>
    <BinaryTree type="DecisionTree" boostWeight="1.0000000000000000e+00" itree="302">
      <Node pos="s" depth="0" NCoef="0" IVar="7" Cut="-1.1820021867752075e+00" cType="1" res="-8.5675955051556230e-04" rms="2.9804411530494690e-01" purity="4.9955213069915771e-01" nType="0">
        <Node pos="l" depth="1" NCoef="0" IVar="8" Cut="-1.3344165682792664e-01" cType="1" res="-1.2920874170958996e-02" rms="2.3801554739475250e-01" purity="1.6474668681621552e-01" nType="0">
          <Node pos="l" depth="2" NCoef="0" IVar="-1" Cut="0.0000000000000000e+00" cType="1" res="-3.3553164452314377e-02" rms="2.2719699144363403e-01" purity="1.5106558799743652e-01" nType="-99"/>
          <Node pos="r" depth="2" NCoef="0" IVar="-1" Cut="0.0000000000000000e+00" cType="1" res="-5.6206355802714825e-03" rms="2.4801217019557953e-01" purity="1.7840011417865753e-01" nType="-99"/>
        </Node>
        <Node pos="r" depth="1" NCoef="0" IVar="8" Cut="-6.6671001911163330e-01" cType="1" res="4.3907228973694146e-04" rms="3.0375877022743225e-01" purity="5.3551429510116577e-01" nType="0">
          <Node pos="l" depth="2" NCoef="0" IVar="6" Cut="7.7498489379882812e+01" cType="1" res="-5.7248668745160103e-03" rms="3.0750873684883118e-01" purity="4.2540711164474487e-01" nType="0">
            <Node pos="l" depth="3" NCoef="0" IVar="-1" Cut="0.0000000000000000e+00" cType="1" res="3.4147833939641714e-03" rms="2.8710338473320007e-01" purity="1.9822491705417633e-01" nType="-99"/>
            <Node pos="r" depth="3" NCoef="0" IVar="-1" Cut="0.0000000000000000e+00" cType="1" res="-1.1863688938319683e-02" rms="3.2271307706832886e-01" purity="6.0679644346237183e-01" nType="-99"/>
          </Node>
          <Node pos="r" depth="2" NCoef="0" IVar="7" Cut="-9.9239075183868408e-01" cType="1" res="2.4689207784831524e-03" rms="3.0248621106147766e-01" purity="5.7177376747131348e-01" nType="0">
            <Node pos="l" depth="3" NCoef="0" IVar="-1" Cut="0.0000000000000000e+00" cType="1" res="2.5863550603389740e-02" rms="3.2758751511573792e-01" purity="4.6376469731330872e-01" nType="-99"/>
            <Node pos="r" depth="3" NCoef="0" IVar="-1" Cut="0.0000000000000000e+00" cType="1" res="1.7146031605079770e-03" rms="3.0139499902725220e-01" purity="5.7612347602844238e-01" nType="-99"/>
          </Node>
        </Node>
      </Node>
    </BinaryTree>
    <BinaryTree type="DecisionTree" boostWeight="1.0000000000000000e+00" itree="303">
      <Node pos="s" depth="0" NCoef="0" IVar="9" Cut="-1.4666715860366821e+00" cType="1" res="1.8916653061751276e-04" rms="2.9803562164306641e-01" purity="5.0192463397979736e-01" nType="0">
        <Node pos="l" depth="1" NCoef="0" IVar="7" Cut="-6.3744074106216431e-01" cType="1" res="-1.3387915678322315e-02" rms="2.8084120154380798e-01" purity="2.8470855951309204e-01" nType="0">
          <Node pos="l" depth="2" NCoef="0" IVar="-1" Cut="0.0000000000000000e+00" cType="1" res="-4.2042933404445648e-02" rms="2.3522524535655975e-01" purity="1.5684962272644043e-01" nType="-99"/>
          <Node pos="r" depth="2" NCoef="0" IVar="8" Cut="-1.3432930409908295e-01" cType="1" res="-6.0745975933969021e-03" rms="2.9871273040771484e-01" purity="3.4190383553504944e-01" nType="0">
            <Node pos="l" depth="3" NCoef="0" IVar="-1" Cut="0.0000000000000000e+00" cType="1" res="-2.1365163847804070e-02" rms="2.8139239549636841e-01" purity="3.1341338157653809e-01" nType="-99"/>
            <Node pos="r" depth="3" NCoef="0" IVar="-1" Cut="0.0000000000000000e+00" cType="1" res="6.8111307919025421e-03" rms="3.1335774064064026e-01" purity="3.6828643083572388e-01" nType="-99"/>
          </Node>
        </Node>
        <Node pos="r" depth="1" NCoef="0" IVar="9" Cut="5.6508463621139526e-01" cType="1" res="1.6837946604937315e-03" rms="2.9983064532279968e-01" purity="5.2583676576614380e-01" nType="0">
          <Node pos="l" depth="2" NCoef="0" IVar="10" Cut="-1.9999207258224487e+00" cType="1" res="-1.0896595194935799e-03" rms="2.9501476883888245e-01" purity="5.6345427036285400e-01" nType="0">
            <Node pos="l" depth="3" NCoef="0" IVar="-1" Cut="0.0000000000000000e+00" cType="1" res="2.5950163602828979e-02" rms="3.2124909758567810e-01" purity="4.0337333083152771e-01" nType="-99"/>
            <Node pos="r" depth="3" NCoef="0" IVar="-1" Cut="0.0000000000000000e+00" cType="1" res="-2.8979345224797726e-03" rms="2.9342365264892578e-01" purity="5.7232695817947388e-01" nType="-99"/>
          </Node>
          <Node pos="r" depth="2" NCoef="0" IVar="2" Cut="4.1834916919469833e-02" cType="1" res="6.8515148013830185e-03" rms="3.0853709578514099e-01" purity="4.5574492216110229e-01" nType="0">
            <Node pos="l" depth="3" NCoef="0" IVar="-1" Cut="0.0000000000000000e+00" cType="1" res="1.4596655964851379e-02" rms="3.0903917551040649e-01" purity="2.8635382652282715e-01" nType="-99"/>
            <Node pos="r" depth="3" NCoef="0" IVar="-1" Cut="0.0000000000000000e+00" cType="1" res="-1.1447706492617726e-03" rms="3.0768308043479919e-01" purity="6.8259191513061523e-01" nType="-99"/>
          </Node>
        </Node>
      </Node>
    </BinaryTree>
    <BinaryTree type="DecisionTree" boostWeight="1.0000000000000000e+00" itree="304">
      <Node pos="s" depth="0" NCoef="0" IVar="3" Cut="3.4596862792968750e+02" cType="1" res="-2.8772361474693753e-05" rms="2.9887229204177856e-01" purity="4.9937859177589417e-01" nType="0">
        <Node pos="l" depth="1" NCoef="0" IVar="7" Cut="4.0415725111961365e-01" cType="1" res="4.2972355149686337e-03" rms="3.0526569485664368e-01" purity="2.7693277597427368e-01" nType="0">
          <Node pos="l" depth="2" NCoef="0" IVar="5" Cut="1.5732543945312500e+02" cType="1" res="9.7715798765420914e-03" rms="3.1805008649826050e-01" purity="3.0393674969673157e-01" nType="0">
            <Node pos="l" depth="3" NCoef="0" IVar="-1" Cut="0.0000000000000000e+00" cType="1" res="1.8792595714330673e-02" rms="3.0357819795608521e-01" purity="1.7298446595668793e-01" nType="-99"/>
            <Node pos="r" depth="3" NCoef="0" IVar="-1" Cut="0.0000000000000000e+00" cType="1" res="-4.7952244058251381e-03" rms="3.5370722413063049e-01" purity="6.5750116109848022e-01" nType="-99"/>
          </Node>
          <Node pos="r" depth="2" NCoef="0" IVar="4" Cut="2.1922558593750000e+02" cType="1" res="-5.2842246368527412e-03" rms="2.8123953938484192e-01" purity="2.2966912388801575e-01" nType="0">
            <Node pos="l" depth="3" NCoef="0" IVar="-1" Cut="0.0000000000000000e+00" cType="1" res="-1.8303515389561653e-02" rms="2.4560235440731049e-01" purity="1.1391132324934006e-01" nType="-99"/>
            <Node pos="r" depth="3" NCoef="0" IVar="-1" Cut="0.0000000000000000e+00" cType="1" res="1.1487931944429874e-02" rms="3.6030694842338562e-01" purity="5.4563009738922119e-01" nType="-99"/>
          </Node>
        </Node>
        <Node pos="r" depth="1" NCoef="0" IVar="7" Cut="1.2205666303634644e+00" cType="1" res="-2.6483722031116486e-03" rms="2.9490256309509277e-01" purity="6.3407993316650391e-01" nType="0">
          <Node pos="l" depth="2" NCoef="0" IVar="7" Cut="-4.7101578116416931e-01" cType="1" res="-1.2075764825567603e-03" rms="2.9816678166389465e-01" purity="6.6425025463104248e-01" nType="0">
            <Node pos="l" depth="3" NCoef="0" IVar="-1" Cut="0.0000000000000000e+00" cType="1" res="-9.4192940741777420e-03" rms="3.0425763130187988e-01" purity="5.1898294687271118e-01" nType="-99"/>
            <Node pos="r" depth="3" NCoef="0" IVar="-1" Cut="0.0000000000000000e+00" cType="1" res="1.9310823408886790e-03" rms="2.9569745063781738e-01" purity="7.2111397981643677e-01" nType="-99"/>
          </Node>
          <Node pos="r" depth="2" NCoef="0" IVar="-1" Cut="0.0000000000000000e+00" cType="1" res="-2.9439549893140793e-02" rms="2.4482272565364838e-01" purity="2.1939256787300110e-01" nType="-99"/>
        </Node>
      </Node>
    </BinaryTree>
    <BinaryTree type="DecisionTree" boostWeight="1.0000000000000000e+00" itree="305">
      <Node pos="s" depth="0" NCoef="0" IVar="9" Cut="-1.4666624069213867e+00" cType="1" res="1.5897735720500350e-03" rms="2.9901298880577087e-01" purity="5.0360542535781860e-01" nType="0">
        <Node pos="l" depth="1" NCoef="0" IVar="9" Cut="-2.1015849113464355e+00" cType="1" res="1.7260372638702393e-02" rms="3.1212753057479858e-01" purity="3.1218436360359192e-01" nType="0">
          <Node pos="l" depth="2" NCoef="0" IVar="-1" Cut="0.0000000000000000e+00" cType="1" res="-4.3007344938814640e-03" rms="2.6914864778518677e-01" purity="2.0818686485290527e-01" nType="-99"/>
          <Node pos="r" depth="2" NCoef="0" IVar="10" Cut="-6.6662114858627319e-01" cType="1" res="2.7125274762511253e-02" rms="3.3022558689117432e-01" purity="3.6183199286460876e-01" nType="0">
            <Node pos="l" depth="3" NCoef="0" IVar="-1" Cut="0.0000000000000000e+00" cType="1" res="4.3520517647266388e-02" rms="3.2702422142028809e-01" purity="3.3193758130073547e-01" nType="-99"/>
            <Node pos="r" depth="3" NCoef="0" IVar="-1" Cut="0.0000000000000000e+00" cType="1" res="1.8924903124570847e-02" rms="3.3194205164909363e-01" purity="3.8044622540473938e-01" nType="-99"/>
          </Node>
        </Node>
        <Node pos="r" depth="1" NCoef="0" IVar="9" Cut="-1.0602854490280151e+00" cType="1" res="-2.1904688037466258e-04" rms="2.9740881919860840e-01" purity="5.2570068836212158e-01" nType="0">
          <Node pos="l" depth="2" NCoef="0" IVar="4" Cut="2.8033044433593750e+02" cType="1" res="-1.4934162609279156e-02" rms="2.9874211549758911e-01" purity="4.5210859179496765e-01" nType="0">
            <Node pos="l" depth="3" NCoef="0" IVar="-1" Cut="0.0000000000000000e+00" cType="1" res="-2.2460643202066422e-02" rms="2.9700943827629089e-01" purity="2.8431239724159241e-01" nType="-99"/>
            <Node pos="r" depth="3" NCoef="0" IVar="-1" Cut="0.0000000000000000e+00" cType="1" res="-2.9972908087074757e-03" rms="3.0185312032699585e-01" purity="7.9294967651367188e-01" nType="-99"/>
          </Node>
          <Node pos="r" depth="2" NCoef="0" IVar="9" Cut="-3.2497742772102356e-01" cType="1" res="1.1472784681245685e-03" rms="2.9724776744842529e-01" purity="5.3253382444381714e-01" nType="0">
            <Node pos="l" depth="3" NCoef="0" IVar="-1" Cut="0.0000000000000000e+00" cType="1" res="9.1353571042418480e-03" rms="3.0507591366767883e-01" purity="5.7283312082290649e-01" nType="-99"/>
            <Node pos="r" depth="3" NCoef="0" IVar="-1" Cut="0.0000000000000000e+00" cType="1" res="-1.5585725195705891e-03" rms="2.9439350962638855e-01" purity="5.1830738782882690e-01" nType="-99"/>
          </Node>
        </Node>
      </Node>
    </BinaryTree>
    <BinaryTree type="DecisionTree" boostWeight="1.0000000000000000e+00" itree="306">
      <Node pos="s" depth="0" NCoef="0" IVar="10" Cut="-6.6664063930511475e-01" cType="1" res="1.8124391790479422e-03" rms="2.9972600936889648e-01" purity="5.0047385692596436e-01" nType="0">
        <Node pos="l" depth="1" NCoef="0" IVar="0" Cut="4.5299603271484375e+02" cType="1" res="-5.4160063154995441e-03" rms="2.9777801036834717e-01" purity="4.6104583144187927e-01" nType="0">
          <Node pos="l" depth="2" NCoef="0" IVar="6" Cut="9.2036117553710938e+01" cType="1" res="-1.0878764092922211e-02" rms="2.9368299245834351e-01" purity="2.0307272672653198e-01" nType="0">
            <Node pos="l" depth="3" NCoef="0" IVar="-1" Cut="0.0000000000000000e+00" cType="1" res="-5.9708813205361366e-03" rms="2.5659602880477905e-01" purity="1.0795579105615616e-01" nType="-99"/>
            <Node pos="r" depth="3" NCoef="0" IVar="-1" Cut="0.0000000000000000e+00" cType="1" res="-1.8993759527802467e-02" rms="3.6559420824050903e-01" purity="4.2567643523216248e-01" nType="-99"/>
          </Node>
          <Node pos="r" depth="2" NCoef="0" IVar="2" Cut="3.8305066525936127e-02" cType="1" res="6.5645278664305806e-04" rms="3.0214908719062805e-01" purity="7.4781137704849243e-01" nType="0">
            <Node pos="l" depth="3" NCoef="0" IVar="-1" Cut="0.0000000000000000e+00" cType="1" res="-8.4802750498056412e-03" rms="3.4978511929512024e-01" purity="5.4120373725891113e-01" nType="-99"/>
            <Node pos="r" depth="3" NCoef="0" IVar="-1" Cut="0.0000000000000000e+00" cType="1" res="1.1184635572135448e-02" rms="2.6542302966117859e-01" purity="8.8559871912002563e-01" nType="-99"/>
          </Node>
        </Node>
        <Node pos="r" depth="1" NCoef="0" IVar="6" Cut="7.7676231384277344e+01" cType="1" res="4.9123414792120457e-03" rms="3.0050423741340637e-01" purity="5.1738244295120239e-01" nType="0">
          <Node pos="l" depth="2" NCoef="0" IVar="6" Cut="5.7907367706298828e+01" cType="1" res="1.0638639330863953e-02" rms="2.9799035191535950e-01" purity="2.3553082346916199e-01" nType="0">
            <Node pos="l" depth="3" NCoef="0" IVar="-1" Cut="0.0000000000000000e+00" cType="1" res="-1.2709847651422024e-02" rms="2.5308209657669067e-01" purity="1.5574756264686584e-01" nType="-99"/>
            <Node pos="r" depth="3" NCoef="0" IVar="-1" Cut="0.0000000000000000e+00" cType="1" res="2.2719776257872581e-02" rms="3.1891408562660217e-01" purity="2.7815794944763184e-01" nType="-99"/>
          </Node>
          <Node pos="r" depth="2" NCoef="0" IVar="9" Cut="-6.6734164953231812e-01" cType="1" res="1.1807860573753715e-03" rms="3.0207276344299316e-01" purity="7.0105177164077759e-01" nType="0">
            <Node pos="l" depth="3" NCoef="0" IVar="-1" Cut="0.0000000000000000e+00" cType="1" res="1.0146426968276501e-02" rms="3.2853576540946960e-01" purity="6.5733581781387329e-01" nType="-99"/>
            <Node pos="r" depth="3" NCoef="0" IVar="-1" Cut="0.0000000000000000e+00" cType="1" res="-1.9795361440628767e-03" rms="2.9290002584457397e-01" purity="7.1525681018829346e-01" nType="-99"/>
          </Node>
        </Node>
      </Node>
    </BinaryTree>
    <BinaryTree type="DecisionTree" boostWeight="1.0000000000000000e+00" itree="307">
      <Node pos="s" depth="0" NCoef="0" IVar="7" Cut="-9.2584401369094849e-01" cType="1" res="3.0169789679348469e-03" rms="2.9941979050636292e-01" purity="5.0342357158660889e-01" nType="0">
        <Node pos="l" depth="1" NCoef="0" IVar="3" Cut="3.9962521362304688e+02" cType="1" res="1.3293005526065826e-02" rms="2.8453710675239563e-01" purity="2.6420173048973083e-01" nType="0">
          <Node pos="l" depth="2" NCoef="0" IVar="8" Cut="-6.6670531034469604e-01" cType="1" res="1.8620336428284645e-02" rms="2.7974396944046021e-01" purity="2.0598360896110535e-01" nType="0">
            <Node pos="l" depth="3" NCoef="0" IVar="-1" Cut="0.0000000000000000e+00" cType="1" res="3.6826373543590307e-03" rms="2.3044618964195251e-01" purity="1.3878199458122253e-01" nType="-99"/>
            <Node pos="r" depth="3" NCoef="0" IVar="-1" Cut="0.0000000000000000e+00" cType="1" res="3.6367733031511307e-02" rms="3.0365645885467529e-01" purity="2.4389445781707764e-01" nType="-99"/>
          </Node>
          <Node pos="r" depth="2" NCoef="0" IVar="7" Cut="-1.2512595653533936e+00" cType="1" res="2.5514150038361549e-03" rms="2.9367032647132874e-01" purity="3.8158798217773438e-01" nType="0">
            <Node pos="l" depth="3" NCoef="0" IVar="-1" Cut="0.0000000000000000e+00" cType="1" res="-2.9886770062148571e-03" rms="2.7120685577392578e-01" purity="2.2572880983352661e-01" nType="-99"/>
            <Node pos="r" depth="3" NCoef="0" IVar="-1" Cut="0.0000000000000000e+00" cType="1" res="6.8339132703840733e-03" rms="3.1438973546028137e-01" purity="5.3692770004272461e-01" nType="-99"/>
          </Node>
        </Node>
        <Node pos="r" depth="1" NCoef="0" IVar="7" Cut="3.1600490212440491e-01" cType="1" res="1.1887572472915053e-03" rms="3.0195412039756775e-01" purity="5.4598385095596313e-01" nType="0">
          <Node pos="l" depth="2" NCoef="0" IVar="7" Cut="1.9773368537425995e-01" cType="1" res="-2.5765886530280113e-03" rms="3.0325853824615479e-01" purity="6.1999297142028809e-01" nType="0">
            <Node pos="l" depth="3" NCoef="0" IVar="-1" Cut="0.0000000000000000e+00" cType="1" res="-1.8783682025969028e-04" rms="3.0636963248252869e-01" purity="6.1967200040817261e-01" nType="-99"/>
            <Node pos="r" depth="3" NCoef="0" IVar="-1" Cut="0.0000000000000000e+00" cType="1" res="-2.7681699022650719e-02" rms="2.7242469787597656e-01" purity="6.2290787696838379e-01" nType="-99"/>
          </Node>
          <Node pos="r" depth="2" NCoef="0" IVar="1" Cut="1.4400661621093750e+03" cType="1" res="6.1881965957581997e-03" rms="3.0014044046401978e-01" purity="4.4771826267242432e-01" nType="0">
            <Node pos="l" depth="3" NCoef="0" IVar="-1" Cut="0.0000000000000000e+00" cType="1" res="1.4207116328179836e-02" rms="3.0071860551834106e-01" purity="1.7725490033626556e-01" nType="-99"/>
            <Node pos="r" depth="3" NCoef="0" IVar="-1" Cut="0.0000000000000000e+00" cType="1" res="-2.6467018760740757e-03" rms="2.9916903376579285e-01" purity="8.0015349388122559e-01" nType="-99"/>
          </Node>
        </Node>
      </Node>
    </BinaryTree>
    <BinaryTree type="DecisionTree" boostWeight="1.0000000000000000e+00" itree="308">
      <Node pos="s" depth="0" NCoef="0" IVar="10" Cut="-1.7333281040191650e+00" cType="1" res="-3.7026605568826199e-03" rms="2.9791656136512756e-01" purity="4.9601602554321289e-01" nType="0">
        <Node pos="l" depth="1" NCoef="0" IVar="6" Cut="7.0842704772949219e+01" cType="1" res="7.9396627843379974e-03" rms="3.0825850367546082e-01" purity="3.8712397217750549e-01" nType="0">
          <Node pos="l" depth="2" NCoef="0" IVar="-1" Cut="0.0000000000000000e+00" cType="1" res="2.9236914590001106e-02" rms="2.8231170773506165e-01" purity="2.2819910943508148e-01" nType="-99"/>
          <Node pos="r" depth="2" NCoef="0" IVar="-1" Cut="0.0000000000000000e+00" cType="1" res="-4.5953672379255295e-03" rms="3.2737770676612854e-01" purity="5.1691424846649170e-01" nType="-99"/>
        </Node>
        <Node pos="r" depth="1" NCoef="0" IVar="9" Cut="1.3331934809684753e-01" cType="1" res="-4.8090256750583649e-03" rms="2.9689127206802368e-01" purity="5.0636404752731323e-01" nType="0">
          <Node pos="l" depth="2" NCoef="0" IVar="2" Cut="2.1329186856746674e-02" cType="1" res="-1.3157966313883662e-03" rms="2.9916837811470032e-01" purity="5.2293765544891357e-01" nType="0">
            <Node pos="l" depth="3" NCoef="0" IVar="-1" Cut="0.0000000000000000e+00" cType="1" res="9.9975531920790672e-03" rms="2.8735217452049255e-01" purity="2.9070633649826050e-01" nType="-99"/>
            <Node pos="r" depth="3" NCoef="0" IVar="-1" Cut="0.0000000000000000e+00" cType="1" res="-7.4472543783485889e-03" rms="3.0567941069602966e-01" purity="6.5772968530654907e-01" nType="-99"/>
          </Node>
          <Node pos="r" depth="2" NCoef="0" IVar="6" Cut="8.1792213439941406e+01" cType="1" res="-9.0000154450535774e-03" rms="2.9408133029937744e-01" purity="4.8647984862327576e-01" nType="0">
            <Node pos="l" depth="3" NCoef="0" IVar="-1" Cut="0.0000000000000000e+00" cType="1" res="-1.8513971939682961e-02" rms="2.8283402323722839e-01" purity="2.0728485286235809e-01" nType="-99"/>
            <Node pos="r" depth="3" NCoef="0" IVar="-1" Cut="0.0000000000000000e+00" cType="1" res="-3.6908944603055716e-03" rms="3.0240720510482788e-01" purity="7.0320701599121094e-01" nType="-99"/>
          </Node>
        </Node>
      </Node>
    </BinaryTree>
    <BinaryTree type="DecisionTree" boostWeight="1.0000000000000000e+00" itree="309">
      <Node pos="s" depth="0" NCoef="0" IVar="8" Cut="-9.3337017297744751e-01" cType="1" res="-2.5527693796902895e-03" rms="2.9547899961471558e-01" purity="4.9591332674026489e-01" nType="0">
        <Node pos="l" depth="1" NCoef="0" IVar="7" Cut="-8.6799550056457520e-01" cType="1" res="-1.0694955475628376e-02" rms="2.9639869928359985e-01" purity="3.1871539354324341e-01" nType="0">
          <Node pos="l" depth="2" NCoef="0" IVar="-1" Cut="0.0000000000000000e+00" cType="1" res="1.8663270398974419e-02" rms="2.5942865014076233e-01" purity="1.9613972306251526e-01" nType="-99"/>
          <Node pos="r" depth="2" NCoef="0" IVar="8" Cut="-1.2000341415405273e+00" cType="1" res="-1.7927363514900208e-02" rms="3.0665254592895508e-01" purity="3.5691416263580322e-01" nType="0">
            <Node pos="l" depth="3" NCoef="0" IVar="-1" Cut="0.0000000000000000e+00" cType="1" res="-1.1751626618206501e-02" rms="3.0185005068778992e-01" purity="2.9409092664718628e-01" nType="-99"/>
            <Node pos="r" depth="3" NCoef="0" IVar="-1" Cut="0.0000000000000000e+00" cType="1" res="-3.2312076538801193e-02" rms="3.1627985835075378e-01" purity="4.9242758750915527e-01" nType="-99"/>
          </Node>
        </Node>
        <Node pos="r" depth="1" NCoef="0" IVar="8" Cut="-5.7782113552093506e-01" cType="1" res="-7.0801132824271917e-04" rms="2.9523903131484985e-01" purity="5.3606063127517700e-01" nType="0">
          <Node pos="l" depth="2" NCoef="0" IVar="4" Cut="2.2623675537109375e+02" cType="1" res="1.3100751675665379e-02" rms="3.1568720936775208e-01" purity="5.5701279640197754e-01" nType="0">
            <Node pos="l" depth="3" NCoef="0" IVar="-1" Cut="0.0000000000000000e+00" cType="1" res="3.3896867185831070e-02" rms="3.3561009168624878e-01" purity="2.7154943346977234e-01" nType="-99"/>
            <Node pos="r" depth="3" NCoef="0" IVar="-1" Cut="0.0000000000000000e+00" cType="1" res="-3.1181597150862217e-03" rms="2.9763817787170410e-01" purity="7.8797692060470581e-01" nType="-99"/>
          </Node>
          <Node pos="r" depth="2" NCoef="0" IVar="10" Cut="-6.6666269302368164e-01" cType="1" res="-2.6903122197836637e-03" rms="2.9213261604309082e-01" purity="5.3305292129516602e-01" nType="0">
            <Node pos="l" depth="3" NCoef="0" IVar="-1" Cut="0.0000000000000000e+00" cType="1" res="-1.0621631518006325e-02" rms="2.9363536834716797e-01" purity="5.1638478040695190e-01" nType="-99"/>
            <Node pos="r" depth="3" NCoef="0" IVar="-1" Cut="0.0000000000000000e+00" cType="1" res="-2.6801999410963617e-05" rms="2.9150632023811340e-01" purity="5.3949081897735596e-01" nType="-99"/>
          </Node>
        </Node>
      </Node>
    </BinaryTree>
    <BinaryTree type="DecisionTree" boostWeight="1.0000000000000000e+00" itree="310">
      <Node pos="s" depth="0" NCoef="0" IVar="9" Cut="1.7333102226257324e+00" cType="1" res="-1.2154342839494348e-03" rms="2.9992738366127014e-01" purity="4.9503758549690247e-01" nType="0">
        <Node pos="l" depth="1" NCoef="0" IVar="8" Cut="-1.7333507537841797e+00" cType="1" res="-2.3151016794145107e-03" rms="2.9922470450401306e-01" purity="5.1209074258804321e-01" nType="0">
          <Node pos="l" depth="2" NCoef="0" IVar="-1" Cut="0.0000000000000000e+00" cType="1" res="2.0162940025329590e-02" rms="2.7938896417617798e-01" purity="1.6409189999103546e-01" nType="-99"/>
          <Node pos="r" depth="2" NCoef="0" IVar="8" Cut="-1.3015809059143066e+00" cType="1" res="-3.2773034181445837e-03" rms="3.0030071735382080e-01" purity="5.3216540813446045e-01" nType="0">
            <Node pos="l" depth="3" NCoef="0" IVar="-1" Cut="0.0000000000000000e+00" cType="1" res="-2.1911077201366425e-02" rms="3.0837294459342957e-01" purity="3.0574870109558105e-01" nType="-99"/>
            <Node pos="r" depth="3" NCoef="0" IVar="-1" Cut="0.0000000000000000e+00" cType="1" res="-2.4338553193956614e-03" rms="2.9978099465370178e-01" purity="5.4556661844253540e-01" nType="-99"/>
          </Node>
        </Node>
        <Node pos="r" depth="1" NCoef="0" IVar="4" Cut="1.9387631225585938e+02" cType="1" res="1.3956186361610889e-02" rms="3.0906000733375549e-01" purity="2.5976270437240601e-01" nType="0">
          <Node pos="l" depth="2" NCoef="0" IVar="-1" Cut="0.0000000000000000e+00" cType="1" res="4.5050229877233505e-02" rms="2.7268531918525696e-01" purity="1.2437483668327332e-01" nType="-99"/>
          <Node pos="r" depth="2" NCoef="0" IVar="-1" Cut="0.0000000000000000e+00" cType="1" res="-2.6247135829180479e-03" rms="3.4952813386917114e-01" purity="4.3361693620681763e-01" nType="-99"/>
        </Node>
      </Node>
    </BinaryTree>
    <BinaryTree type="DecisionTree" boostWeight="1.0000000000000000e+00" itree="311">
      <Node pos="s" depth="0" NCoef="0" IVar="9" Cut="-1.1999884843826294e+00" cType="1" res="-6.6261395113542676e-04" rms="2.9804009199142456e-01" purity="4.9774381518363953e-01" nType="0">
        <Node pos="l" depth="1" NCoef="0" IVar="7" Cut="-6.3765537738800049e-01" cType="1" res="-9.2153856530785561e-03" rms="2.9584252834320068e-01" purity="3.2972016930580139e-01" nType="0">
          <Node pos="l" depth="2" NCoef="0" IVar="-1" Cut="0.0000000000000000e+00" cType="1" res="-3.1201651319861412e-02" rms="2.5803926587104797e-01" purity="1.9800075888633728e-01" nType="-99"/>
          <Node pos="r" depth="2" NCoef="0" IVar="5" Cut="1.2018761444091797e+02" cType="1" res="-2.8622024692595005e-03" rms="3.1106728315353394e-01" purity="3.8866841793060303e-01" nType="0">
            <Node pos="l" depth="3" NCoef="0" IVar="-1" Cut="0.0000000000000000e+00" cType="1" res="-1.8266070634126663e-02" rms="2.7254897356033325e-01" purity="1.4887513220310211e-01" nType="-99"/>
            <Node pos="r" depth="3" NCoef="0" IVar="-1" Cut="0.0000000000000000e+00" cType="1" res="6.6334242001175880e-03" rms="3.4185808897018433e-01" purity="6.0563784837722778e-01" nType="-99"/>
          </Node>
        </Node>
        <Node pos="r" depth="1" NCoef="0" IVar="8" Cut="-1.2000035047531128e+00" cType="1" res="7.8810856211930513e-04" rms="2.9838693141937256e-01" purity="5.2624398469924927e-01" nType="0">
          <Node pos="l" depth="2" NCoef="0" IVar="5" Cut="1.6683801269531250e+02" cType="1" res="9.7102988511323929e-03" rms="3.0126261711120605e-01" purity="3.1042018532752991e-01" nType="0">
            <Node pos="l" depth="3" NCoef="0" IVar="-1" Cut="0.0000000000000000e+00" cType="1" res="2.3205474019050598e-02" rms="2.9339757561683655e-01" purity="1.8789710104465485e-01" nType="-99"/>
            <Node pos="r" depth="3" NCoef="0" IVar="-1" Cut="0.0000000000000000e+00" cType="1" res="-1.4607462100684643e-02" rms="3.2100385427474976e-01" purity="6.5676522254943848e-01" nType="-99"/>
          </Node>
          <Node pos="r" depth="2" NCoef="0" IVar="8" Cut="1.2761775255203247e+00" cType="1" res="-4.3758569518104196e-04" rms="2.9796883463859558e-01" purity="5.5589300394058228e-01" nType="0">
            <Node pos="l" depth="3" NCoef="0" IVar="-1" Cut="0.0000000000000000e+00" cType="1" res="-2.2102298680692911e-03" rms="2.9651981592178345e-01" purity="5.9803593158721924e-01" nType="-99"/>
            <Node pos="r" depth="3" NCoef="0" IVar="-1" Cut="0.0000000000000000e+00" cType="1" res="1.1071938090026379e-02" rms="3.0728653073310852e-01" purity="2.7404126524925232e-01" nType="-99"/>
          </Node>
        </Node>
      </Node>
    </BinaryTree>
    <BinaryTree type="DecisionTree" boostWeight="1.0000000000000000e+00" itree="312">
      <Node pos="s" depth="0" NCoef="0" IVar="7" Cut="-1.4475853443145752e+00" cType="1" res="9.5116312149912119e-04" rms="2.9817926883697510e-01" purity="5.0100988149642944e-01" nType="0">
        <Node pos="l" depth="1" NCoef="0" IVar="0" Cut="3.7087896728515625e+02" cType="1" res="1.7159644514322281e-02" rms="2.4564176797866821e-01" purity="1.3676574826240540e-01" nType="0">
          <Node pos="l" depth="2" NCoef="0" IVar="-1" Cut="0.0000000000000000e+00" cType="1" res="-2.8085146099328995e-02" rms="1.5607024729251862e-01" purity="2.4993035942316055e-02" nType="-99"/>
          <Node pos="r" depth="2" NCoef="0" IVar="-1" Cut="0.0000000000000000e+00" cType="1" res="4.7813214361667633e-02" rms="3.0134120583534241e-01" purity="2.3455134034156799e-01" nType="-99"/>
        </Node>
        <Node pos="r" depth="1" NCoef="0" IVar="9" Cut="1.1999810934066772e+00" cType="1" res="-1.0015219595516101e-04" rms="3.0124059319496155e-01" purity="5.2463549375534058e-01" nType="0">
          <Node pos="l" depth="2" NCoef="0" IVar="10" Cut="-1.1999942064285278e+00" cType="1" res="1.4203338650986552e-03" rms="3.0098259449005127e-01" purity="5.5286026000976562e-01" nType="0">
            <Node pos="l" depth="3" NCoef="0" IVar="-1" Cut="0.0000000000000000e+00" cType="1" res="1.2160329148173332e-02" rms="3.1516242027282715e-01" purity="5.0181525945663452e-01" nType="-99"/>
            <Node pos="r" depth="3" NCoef="0" IVar="-1" Cut="0.0000000000000000e+00" cType="1" res="-8.9765974553301930e-04" rms="2.9777359962463379e-01" purity="5.6392306089401245e-01" nType="-99"/>
          </Node>
          <Node pos="r" depth="2" NCoef="0" IVar="10" Cut="-9.3332868814468384e-01" cType="1" res="-9.0342136099934578e-03" rms="3.0259793996810913e-01" purity="3.5879245400428772e-01" nType="0">
            <Node pos="l" depth="3" NCoef="0" IVar="-1" Cut="0.0000000000000000e+00" cType="1" res="-2.9061969369649887e-02" rms="3.0207121372222900e-01" purity="3.2437825202941895e-01" nType="-99"/>
            <Node pos="r" depth="3" NCoef="0" IVar="-1" Cut="0.0000000000000000e+00" cType="1" res="-4.5548845082521439e-03" rms="3.0254468321800232e-01" purity="3.6718669533729553e-01" nType="-99"/>
          </Node>
        </Node>
      </Node>
    </BinaryTree>
    <BinaryTree type="DecisionTree" boostWeight="1.0000000000000000e+00" itree="313">
      <Node pos="s" depth="0" NCoef="0" IVar="5" Cut="9.4353126525878906e+01" cType="1" res="4.1829718975350261e-04" rms="2.9582899808883667e-01" purity="5.0307667255401611e-01" nType="0">
        <Node pos="l" depth="1" NCoef="0" IVar="2" Cut="3.5877000540494919e-02" cType="1" res="-7.1769976057112217e-03" rms="2.3482428491115570e-01" purity="9.9534206092357635e-02" nType="0">
          <Node pos="l" depth="2" NCoef="0" IVar="2" Cut="2.3917604237794876e-02" cType="1" res="-2.6892716996371746e-03" rms="2.1884752810001373e-01" purity="8.5976958274841309e-02" nType="0">
            <Node pos="l" depth="3" NCoef="0" IVar="-1" Cut="0.0000000000000000e+00" cType="1" res="-1.6235223039984703e-02" rms="2.0056942105293274e-01" purity="7.4277818202972412e-02" nType="-99"/>
            <Node pos="r" depth="3" NCoef="0" IVar="-1" Cut="0.0000000000000000e+00" cType="1" res="3.4239478409290314e-02" rms="2.9640910029411316e-01" purity="1.4823129773139954e-01" nType="-99"/>
          </Node>
          <Node pos="r" depth="2" NCoef="0" IVar="6" Cut="6.2612541198730469e+01" cType="1" res="-2.2224213927984238e-02" rms="2.8133881092071533e-01" purity="1.4499124884605408e-01" nType="0">
            <Node pos="l" depth="3" NCoef="0" IVar="-1" Cut="0.0000000000000000e+00" cType="1" res="-3.0203366652131081e-02" rms="2.4786527454853058e-01" purity="9.9874675273895264e-02" nType="-99"/>
            <Node pos="r" depth="3" NCoef="0" IVar="-1" Cut="0.0000000000000000e+00" cType="1" res="-2.0838703960180283e-02" rms="3.0948388576507568e-01" purity="1.8734405934810638e-01" nType="-99"/>
          </Node>
        </Node>
        <Node pos="r" depth="1" NCoef="0" IVar="10" Cut="-9.3317967653274536e-01" cType="1" res="2.6727274525910616e-03" rms="3.1161084771156311e-01" purity="6.2285578250885010e-01" nType="0">
          <Node pos="l" depth="2" NCoef="0" IVar="9" Cut="-1.1998647451400757e+00" cType="1" res="-3.6941070575267076e-03" rms="3.1435385346412659e-01" purity="5.6817477941513062e-01" nType="0">
            <Node pos="l" depth="3" NCoef="0" IVar="-1" Cut="0.0000000000000000e+00" cType="1" res="-2.6727868244051933e-02" rms="3.1475183367729187e-01" purity="3.4336015582084656e-01" nType="-99"/>
            <Node pos="r" depth="3" NCoef="0" IVar="-1" Cut="0.0000000000000000e+00" cType="1" res="6.4617331372573972e-04" rms="3.1408783793449402e-01" purity="6.1048436164855957e-01" nType="-99"/>
          </Node>
          <Node pos="r" depth="2" NCoef="0" IVar="0" Cut="4.3640365600585938e+02" cType="1" res="4.5585473999381065e-03" rms="3.1076869368553162e-01" purity="6.3905197381973267e-01" nType="0">
            <Node pos="l" depth="3" NCoef="0" IVar="-1" Cut="0.0000000000000000e+00" cType="1" res="8.5218595340847969e-03" rms="3.5377493500709534e-01" purity="3.3574950695037842e-01" nType="-99"/>
            <Node pos="r" depth="3" NCoef="0" IVar="-1" Cut="0.0000000000000000e+00" cType="1" res="9.7468378953635693e-04" rms="2.8025278449058533e-01" purity="8.3006441593170166e-01" nType="-99"/>
          </Node>
        </Node>
      </Node>
    </BinaryTree>
    <BinaryTree type="DecisionTree" boostWeight="1.0000000000000000e+00" itree="314">
      <Node pos="s" depth="0" NCoef="0" IVar="7" Cut="1.3878574967384338e-01" cType="1" res="-3.5938149085268378e-04" rms="2.9939034581184387e-01" purity="4.9735701084136963e-01" nType="0">
        <Node pos="l" depth="1" NCoef="0" IVar="8" Cut="-1.3331538438796997e-01" cType="1" res="-4.3226508423686028e-03" rms="2.9877951741218567e-01" purity="5.1080608367919922e-01" nType="0">
          <Node pos="l" depth="2" NCoef="0" IVar="3" Cut="3.2486703491210938e+02" cType="1" res="2.7516724076122046e-03" rms="3.0226477980613708e-01" purity="4.9205324053764343e-01" nType="0">
            <Node pos="l" depth="3" NCoef="0" IVar="-1" Cut="0.0000000000000000e+00" cType="1" res="-1.2062776833772659e-02" rms="2.9207712411880493e-01" purity="2.2095634043216705e-01" nType="-99"/>
            <Node pos="r" depth="3" NCoef="0" IVar="-1" Cut="0.0000000000000000e+00" cType="1" res="9.9500734359025955e-03" rms="3.0695888400077820e-01" purity="6.2574994564056396e-01" nType="-99"/>
          </Node>
          <Node pos="r" depth="2" NCoef="0" IVar="10" Cut="1.3329641520977020e-01" cType="1" res="-1.0685780085623264e-02" rms="2.9546490311622620e-01" purity="5.2767366170883179e-01" nType="0">
            <Node pos="l" depth="3" NCoef="0" IVar="-1" Cut="0.0000000000000000e+00" cType="1" res="-2.0084800198674202e-02" rms="2.9638615250587463e-01" purity="5.2385330200195312e-01" nType="-99"/>
            <Node pos="r" depth="3" NCoef="0" IVar="-1" Cut="0.0000000000000000e+00" cType="1" res="-2.6020798832178116e-03" rms="2.9418739676475525e-01" purity="5.3202867507934570e-01" nType="-99"/>
          </Node>
        </Node>
        <Node pos="r" depth="1" NCoef="0" IVar="10" Cut="1.3333696126937866e-01" cType="1" res="4.6535162255167961e-03" rms="3.0008617043495178e-01" purity="4.8034611344337463e-01" nType="0">
          <Node pos="l" depth="2" NCoef="0" IVar="5" Cut="1.4375434875488281e+02" cType="1" res="1.0738523676991463e-02" rms="3.0888241529464722e-01" purity="5.0293391942977905e-01" nType="0">
            <Node pos="l" depth="3" NCoef="0" IVar="-1" Cut="0.0000000000000000e+00" cType="1" res="2.0535405725240707e-02" rms="3.1584513187408447e-01" purity="2.4228248000144958e-01" nType="-99"/>
            <Node pos="r" depth="3" NCoef="0" IVar="-1" Cut="0.0000000000000000e+00" cType="1" res="2.2252197377383709e-03" rms="3.0133497714996338e-01" purity="7.7001821994781494e-01" nType="-99"/>
          </Node>
          <Node pos="r" depth="2" NCoef="0" IVar="7" Cut="7.7227228879928589e-01" cType="1" res="-1.1537888785824180e-03" rms="2.9132536053657532e-01" purity="4.5878911018371582e-01" nType="0">
            <Node pos="l" depth="3" NCoef="0" IVar="-1" Cut="0.0000000000000000e+00" cType="1" res="5.8596306480467319e-03" rms="3.0193021893501282e-01" purity="6.0985082387924194e-01" nType="-99"/>
            <Node pos="r" depth="3" NCoef="0" IVar="-1" Cut="0.0000000000000000e+00" cType="1" res="-1.0999153368175030e-02" rms="2.7827113866806030e-01" purity="2.8290092945098877e-01" nType="-99"/>
          </Node>
        </Node>
      </Node>
    </BinaryTree>
    <BinaryTree type="DecisionTree" boostWeight="1.0000000000000000e+00" itree="315">
      <Node pos="s" depth="0" NCoef="0" IVar="9" Cut="6.6646677255630493e-01" cType="1" res="1.7113058129325509e-03" rms="2.9763376712799072e-01" purity="5.0505721569061279e-01" nType="0">
        <Node pos="l" depth="1" NCoef="0" IVar="8" Cut="1.4665715694427490e+00" cType="1" res="-3.9035294321365654e-04" rms="2.9320874810218811e-01" purity="5.2821129560470581e-01" nType="0">
          <Node pos="l" depth="2" NCoef="0" IVar="4" Cut="3.3475817871093750e+02" cType="1" res="6.5340258879587054e-04" rms="2.9517716169357300e-01" purity="5.5403435230255127e-01" nType="0">
            <Node pos="l" depth="3" NCoef="0" IVar="-1" Cut="0.0000000000000000e+00" cType="1" res="-1.8749551381915808e-03" rms="3.0968856811523438e-01" purity="4.3800705671310425e-01" nType="-99"/>
            <Node pos="r" depth="3" NCoef="0" IVar="-1" Cut="0.0000000000000000e+00" cType="1" res="1.1256815865635872e-02" rms="2.4979485571384430e-01" purity="8.8008749485015869e-01" nType="-99"/>
          </Node>
          <Node pos="r" depth="2" NCoef="0" IVar="9" Cut="-4.8887470364570618e-01" cType="1" res="-1.3983879238367081e-02" rms="2.6587325334548950e-01" purity="1.9189953804016113e-01" nType="0">
            <Node pos="l" depth="3" NCoef="0" IVar="-1" Cut="0.0000000000000000e+00" cType="1" res="1.4848718419671059e-03" rms="2.6575094461441040e-01" purity="1.6133560240268707e-01" nType="-99"/>
            <Node pos="r" depth="3" NCoef="0" IVar="-1" Cut="0.0000000000000000e+00" cType="1" res="-3.3041033893823624e-02" rms="2.6516705751419067e-01" purity="2.2191603481769562e-01" nType="-99"/>
          </Node>
        </Node>
        <Node pos="r" depth="1" NCoef="0" IVar="10" Cut="-6.6670966148376465e-01" cType="1" res="7.0004425942897797e-03" rms="3.0842590332031250e-01" purity="4.4678661227226257e-01" nType="0">
          <Node pos="l" depth="2" NCoef="0" IVar="9" Cut="1.2759447097778320e+00" cType="1" res="1.7688523977994919e-02" rms="3.1455087661743164e-01" purity="4.8318561911582947e-01" nType="0">
            <Node pos="l" depth="3" NCoef="0" IVar="-1" Cut="0.0000000000000000e+00" cType="1" res="3.3664070069789886e-02" rms="3.2629373669624329e-01" purity="5.9041815996170044e-01" nType="-99"/>
            <Node pos="r" depth="3" NCoef="0" IVar="-1" Cut="0.0000000000000000e+00" cType="1" res="5.8659425121732056e-05" rms="2.9871016740798950e-01" purity="3.5283502936363220e-01" nType="-99"/>
          </Node>
          <Node pos="r" depth="2" NCoef="0" IVar="5" Cut="9.0946723937988281e+01" cType="1" res="2.7879017870873213e-03" rms="3.0587556958198547e-01" purity="4.3244042992591858e-01" nType="0">
            <Node pos="l" depth="3" NCoef="0" IVar="-1" Cut="0.0000000000000000e+00" cType="1" res="-1.7642641440033913e-02" rms="2.2547739744186401e-01" purity="8.5840992629528046e-02" nType="-99"/>
            <Node pos="r" depth="3" NCoef="0" IVar="-1" Cut="0.0000000000000000e+00" cType="1" res="6.6089276224374771e-03" rms="3.2715916633605957e-01" purity="5.4229992628097534e-01" nType="-99"/>
          </Node>
        </Node>
      </Node>
    </BinaryTree>
    <BinaryTree type="DecisionTree" boostWeight="1.0000000000000000e+00" itree="316">
      <Node pos="s" depth="0" NCoef="0" IVar="9" Cut="-4.0000864863395691e-01" cType="1" res="-2.8177821077406406e-03" rms="2.9541859030723572e-01" purity="4.9857667088508606e-01" nType="0">
        <Node pos="l" depth="1" NCoef="0" IVar="10" Cut="6.6673612594604492e-01" cType="1" res="-8.6098369210958481e-03" rms="2.9478880763053894e-01" purity="4.6574306488037109e-01" nType="0">
          <Node pos="l" depth="2" NCoef="0" IVar="1" Cut="1.9995825195312500e+03" cType="1" res="-1.4288998208940029e-02" rms="2.8827813267707825e-01" purity="4.6208518743515015e-01" nType="0">
            <Node pos="l" depth="3" NCoef="0" IVar="-1" Cut="0.0000000000000000e+00" cType="1" res="-1.9253447651863098e-02" rms="3.0471453070640564e-01" purity="3.4436929225921631e-01" nType="-99"/>
            <Node pos="r" depth="3" NCoef="0" IVar="-1" Cut="0.0000000000000000e+00" cType="1" res="8.3149932324886322e-03" rms="2.0773707330226898e-01" purity="9.3958204984664917e-01" nType="-99"/>
          </Node>
          <Node pos="r" depth="2" NCoef="0" IVar="1" Cut="1.2728249511718750e+03" cType="1" res="6.3094408251345158e-03" rms="3.1075018644332886e-01" purity="4.7535240650177002e-01" nType="0">
            <Node pos="l" depth="3" NCoef="0" IVar="-1" Cut="0.0000000000000000e+00" cType="1" res="-1.3617756776511669e-02" rms="2.6609265804290771e-01" purity="1.0570140928030014e-01" nType="-99"/>
            <Node pos="r" depth="3" NCoef="0" IVar="-1" Cut="0.0000000000000000e+00" cType="1" res="1.7139259725809097e-02" rms="3.3906143903732300e-01" purity="7.4429726600646973e-01" nType="-99"/>
          </Node>
        </Node>
        <Node pos="r" depth="1" NCoef="0" IVar="2" Cut="2.0917152985930443e-02" cType="1" res="5.2658328786492348e-04" rms="2.9572996497154236e-01" purity="5.1753497123718262e-01" nType="0">
          <Node pos="l" depth="2" NCoef="0" IVar="5" Cut="1.7957386779785156e+02" cType="1" res="-5.2295601926743984e-03" rms="2.7558550238609314e-01" purity="2.5019836425781250e-01" nType="0">
            <Node pos="l" depth="3" NCoef="0" IVar="-1" Cut="0.0000000000000000e+00" cType="1" res="-1.2221926823258400e-02" rms="2.5870361924171448e-01" purity="1.5937429666519165e-01" nType="-99"/>
            <Node pos="r" depth="3" NCoef="0" IVar="-1" Cut="0.0000000000000000e+00" cType="1" res="1.0763498023152351e-02" rms="3.4212934970855713e-01" purity="6.6778838634490967e-01" nType="-99"/>
          </Node>
          <Node pos="r" depth="2" NCoef="0" IVar="9" Cut="1.7333137989044189e+00" cType="1" res="3.5702313762158155e-03" rms="3.0580204725265503e-01" purity="6.5889328718185425e-01" nType="0">
            <Node pos="l" depth="3" NCoef="0" IVar="-1" Cut="0.0000000000000000e+00" cType="1" res="5.6449351832270622e-03" rms="3.0431416630744934e-01" purity="6.8372285366058350e-01" nType="-99"/>
            <Node pos="r" depth="3" NCoef="0" IVar="-1" Cut="0.0000000000000000e+00" cType="1" res="-1.2990158982574940e-02" rms="3.2145488262176514e-01" purity="3.8056322932243347e-01" nType="-99"/>
          </Node>
        </Node>
      </Node>
    </BinaryTree>
    <BinaryTree type="DecisionTree" boostWeight="1.0000000000000000e+00" itree="317">
      <Node pos="s" depth="0" NCoef="0" IVar="7" Cut="-6.5973514318466187e-01" cType="1" res="1.7500669928267598e-03" rms="2.9878717660903931e-01" purity="4.9986985325813293e-01" nType="0">
        <Node pos="l" depth="1" NCoef="0" IVar="5" Cut="9.1161994934082031e+01" cType="1" res="1.0784622281789780e-02" rms="2.9366761445999146e-01" purity="3.6037459969520569e-01" nType="0">
          <Node pos="l" depth="2" NCoef="0" IVar="3" Cut="3.2441806030273438e+02" cType="1" res="-3.4209475852549076e-03" rms="1.9301505386829376e-01" purity="5.3969010710716248e-02" nType="0">
            <Node pos="l" depth="3" NCoef="0" IVar="-1" Cut="0.0000000000000000e+00" cType="1" res="2.8073200955986977e-02" rms="1.9041009247303009e-01" purity="4.1390798985958099e-02" nType="-99"/>
            <Node pos="r" depth="3" NCoef="0" IVar="-1" Cut="0.0000000000000000e+00" cType="1" res="-3.0284076929092407e-02" rms="1.9486065208911896e-01" purity="6.6209457814693451e-02" nType="-99"/>
          </Node>
          <Node pos="r" depth="2" NCoef="0" IVar="10" Cut="-3.9988654851913452e-01" cType="1" res="1.5893965959548950e-02" rms="3.2211926579475403e-01" purity="4.7058001160621643e-01" nType="0">
            <Node pos="l" depth="3" NCoef="0" IVar="-1" Cut="0.0000000000000000e+00" cType="1" res="5.5559547618031502e-03" rms="3.1403464078903198e-01" purity="4.2613744735717773e-01" nType="-99"/>
            <Node pos="r" depth="3" NCoef="0" IVar="-1" Cut="0.0000000000000000e+00" cType="1" res="2.2821964696049690e-02" rms="3.2761797308921814e-01" purity="5.0258684158325195e-01" nType="-99"/>
          </Node>
        </Node>
        <Node pos="r" depth="1" NCoef="0" IVar="8" Cut="1.1999784708023071e+00" cType="1" res="-1.0124169057235122e-03" rms="3.0028089880943298e-01" purity="5.4252314567565918e-01" nType="0">
          <Node pos="l" depth="2" NCoef="0" IVar="10" Cut="1.4666754007339478e+00" cType="1" res="-2.9825922101736069e-03" rms="2.9863324761390686e-01" purity="5.7593691349029541e-01" nType="0">
            <Node pos="l" depth="3" NCoef="0" IVar="-1" Cut="0.0000000000000000e+00" cType="1" res="-5.2497074939310551e-03" rms="2.9585641622543335e-01" purity="5.8685493469238281e-01" nType="-99"/>
            <Node pos="r" depth="3" NCoef="0" IVar="-1" Cut="0.0000000000000000e+00" cType="1" res="9.4057945534586906e-03" rms="3.1784424185752869e-01" purity="4.9643906950950623e-01" nType="-99"/>
          </Node>
          <Node pos="r" depth="2" NCoef="0" IVar="10" Cut="-6.6607844829559326e-01" cType="1" res="1.2353943660855293e-02" rms="3.1089937686920166e-01" purity="3.1583201885223389e-01" nType="0">
            <Node pos="l" depth="3" NCoef="0" IVar="-1" Cut="0.0000000000000000e+00" cType="1" res="3.3683616667985916e-02" rms="3.3286586403846741e-01" purity="3.5006207227706909e-01" nType="-99"/>
            <Node pos="r" depth="3" NCoef="0" IVar="-1" Cut="0.0000000000000000e+00" cType="1" res="5.8041396550834179e-03" rms="3.0270192027091980e-01" purity="3.0415749549865723e-01" nType="-99"/>
          </Node>
        </Node>
      </Node>
    </BinaryTree>
    <BinaryTree type="DecisionTree" boostWeight="1.0000000000000000e+00" itree="318">
      <Node pos="s" depth="0" NCoef="0" IVar="9" Cut="9.3332177400588989e-01" cType="1" res="-7.1940902853384614e-04" rms="2.9789850115776062e-01" purity="4.9734818935394287e-01" nType="0">
        <Node pos="l" depth="1" NCoef="0" IVar="8" Cut="1.1999126672744751e+00" cType="1" res="-2.5671273469924927e-03" rms="2.9364162683486938e-01" purity="5.2228271961212158e-01" nType="0">
          <Node pos="l" depth="2" NCoef="0" IVar="9" Cut="7.5553339719772339e-01" cType="1" res="-8.4395549492910504e-04" rms="2.9464340209960938e-01" purity="5.5388379096984863e-01" nType="0">
            <Node pos="l" depth="3" NCoef="0" IVar="-1" Cut="0.0000000000000000e+00" cType="1" res="8.6674874182790518e-05" rms="2.9429629445075989e-01" purity="5.5389708280563354e-01" nType="-99"/>
            <Node pos="r" depth="3" NCoef="0" IVar="-1" Cut="0.0000000000000000e+00" cType="1" res="-1.9454520195722580e-02" rms="3.0017459392547607e-01" purity="5.5365127325057983e-01" nType="-99"/>
          </Node>
          <Node pos="r" depth="2" NCoef="0" IVar="6" Cut="7.3105796813964844e+01" cType="1" res="-1.6202885657548904e-02" rms="2.8522378206253052e-01" purity="2.7221816778182983e-01" nType="0">
            <Node pos="l" depth="3" NCoef="0" IVar="-1" Cut="0.0000000000000000e+00" cType="1" res="-4.9248076975345612e-02" rms="2.0449924468994141e-01" purity="7.4761874973773956e-02" nType="-99"/>
            <Node pos="r" depth="3" NCoef="0" IVar="-1" Cut="0.0000000000000000e+00" cType="1" res="-5.4270019754767418e-03" rms="3.3639025688171387e-01" purity="4.3224495649337769e-01" nType="-99"/>
          </Node>
        </Node>
        <Node pos="r" depth="1" NCoef="0" IVar="10" Cut="1.3319814205169678e-01" cType="1" res="6.0284370556473732e-03" rms="3.1286039948463440e-01" purity="4.0628767013549805e-01" nType="0">
          <Node pos="l" depth="2" NCoef="0" IVar="1" Cut="1.6922392578125000e+03" cType="1" res="1.5308745205402374e-02" rms="3.2529258728027344e-01" purity="4.5060330629348755e-01" nType="0">
            <Node pos="l" depth="3" NCoef="0" IVar="-1" Cut="0.0000000000000000e+00" cType="1" res="2.3855494335293770e-02" rms="3.4434872865676880e-01" purity="2.9581400752067566e-01" nType="-99"/>
            <Node pos="r" depth="3" NCoef="0" IVar="-1" Cut="0.0000000000000000e+00" cType="1" res="-2.0666521042585373e-02" rms="2.6394799351692200e-01" purity="8.7466329336166382e-01" nType="-99"/>
          </Node>
          <Node pos="r" depth="2" NCoef="0" IVar="6" Cut="9.9661880493164062e+01" cType="1" res="-2.6754594873636961e-03" rms="3.0047333240509033e-01" purity="3.6472448706626892e-01" nType="0">
            <Node pos="l" depth="3" NCoef="0" IVar="-1" Cut="0.0000000000000000e+00" cType="1" res="8.5761062800884247e-03" rms="2.9623770713806152e-01" purity="2.1723341941833496e-01" nType="-99"/>
            <Node pos="r" depth="3" NCoef="0" IVar="-1" Cut="0.0000000000000000e+00" cType="1" res="-2.4134799838066101e-02" rms="3.0817738175392151e-01" purity="6.7474049329757690e-01" nType="-99"/>
          </Node>
        </Node>
      </Node>
    </BinaryTree>
    <BinaryTree type="DecisionTree" boostWeight="1.0000000000000000e+00" itree="319">
      <Node pos="s" depth="0" NCoef="0" IVar="4" Cut="3.3698907470703125e+02" cType="1" res="1.4954213984310627e-03" rms="2.9918783903121948e-01" purity="4.9801671504974365e-01" nType="0">
        <Node pos="l" depth="1" NCoef="0" IVar="4" Cut="1.7399792480468750e+02" cType="1" res="3.5401885397732258e-03" rms="3.0969500541687012e-01" purity="3.9639535546302795e-01" nType="0">
          <Node pos="l" depth="2" NCoef="0" IVar="8" Cut="-9.3329507112503052e-01" cType="1" res="-1.9543813541531563e-03" rms="2.5836434960365295e-01" purity="1.1639406532049179e-01" nType="0">
            <Node pos="l" depth="3" NCoef="0" IVar="-1" Cut="0.0000000000000000e+00" cType="1" res="2.2480780258774757e-02" rms="2.5497803092002869e-01" purity="1.1009825021028519e-01" nType="-99"/>
            <Node pos="r" depth="3" NCoef="0" IVar="-1" Cut="0.0000000000000000e+00" cType="1" res="-9.9795246496796608e-03" rms="2.5931331515312195e-01" purity="1.1854001879692078e-01" nType="-99"/>
          </Node>
          <Node pos="r" depth="2" NCoef="0" IVar="5" Cut="9.0984573364257812e+01" cType="1" res="6.9350427947938442e-03" rms="3.3748599886894226e-01" purity="5.6939589977264404e-01" nType="0">
            <Node pos="l" depth="3" NCoef="0" IVar="-1" Cut="0.0000000000000000e+00" cType="1" res="2.6414871215820312e-02" rms="3.2683244347572327e-01" purity="2.1147593855857849e-01" nType="-99"/>
            <Node pos="r" depth="3" NCoef="0" IVar="-1" Cut="0.0000000000000000e+00" cType="1" res="3.9475024677813053e-03" rms="3.3880949020385742e-01" purity="6.1712747812271118e-01" nType="-99"/>
          </Node>
        </Node>
        <Node pos="r" depth="1" NCoef="0" IVar="7" Cut="1.9655379652976990e-01" cType="1" res="-5.6959032081067562e-03" rms="2.5874090194702148e-01" purity="8.5541313886642456e-01" nType="0">
          <Node pos="l" depth="2" NCoef="0" IVar="2" Cut="1.8888652324676514e-02" cType="1" res="-1.1500321328639984e-02" rms="2.5927287340164185e-01" purity="8.5891729593276978e-01" nType="0">
            <Node pos="l" depth="3" NCoef="0" IVar="-1" Cut="0.0000000000000000e+00" cType="1" res="-3.1542498618364334e-02" rms="3.4889781475067139e-01" purity="6.0564345121383667e-01" nType="-99"/>
            <Node pos="r" depth="3" NCoef="0" IVar="-1" Cut="0.0000000000000000e+00" cType="1" res="-1.0608642362058163e-02" rms="2.3247085511684418e-01" purity="9.1928696632385254e-01" nType="-99"/>
          </Node>
          <Node pos="r" depth="2" NCoef="0" IVar="6" Cut="1.0121099090576172e+02" cType="1" res="3.1471468973904848e-03" rms="2.5767704844474792e-01" purity="8.5007452964782715e-01" nType="0">
            <Node pos="l" depth="3" NCoef="0" IVar="-1" Cut="0.0000000000000000e+00" cType="1" res="1.1765073053538799e-02" rms="3.3134925365447998e-01" purity="7.0848727226257324e-01" nType="-99"/>
            <Node pos="r" depth="3" NCoef="0" IVar="-1" Cut="0.0000000000000000e+00" cType="1" res="-5.4133492521941662e-03" rms="2.0736111700534821e-01" purity="9.2612040042877197e-01" nType="-99"/>
          </Node>
        </Node>
      </Node>
    </BinaryTree>
    <BinaryTree type="DecisionTree" boostWeight="1.0000000000000000e+00" itree="320">
      <Node pos="s" depth="0" NCoef="0" IVar="9" Cut="1.9999202489852905e+00" cType="1" res="-5.2951416000723839e-04" rms="2.9764199256896973e-01" purity="5.0051528215408325e-01" nType="0">
        <Node pos="l" depth="1" NCoef="0" IVar="10" Cut="1.7333378791809082e+00" cType="1" res="-1.3810492819175124e-03" rms="2.9764145612716675e-01" purity="5.1156109571456909e-01" nType="0">
          <Node pos="l" depth="2" NCoef="0" IVar="10" Cut="-1.9364465475082397e+00" cType="1" res="-3.0879775295034051e-04" rms="2.9724904894828796e-01" purity="5.2437669038772583e-01" nType="0">
            <Node pos="l" depth="3" NCoef="0" IVar="-1" Cut="0.0000000000000000e+00" cType="1" res="-1.7777483910322189e-02" rms="2.8568795323371887e-01" purity="3.2548367977142334e-01" nType="-99"/>
            <Node pos="r" depth="3" NCoef="0" IVar="-1" Cut="0.0000000000000000e+00" cType="1" res="8.8824302656576037e-04" rms="2.9799735546112061e-01" purity="5.3807324171066284e-01" nType="-99"/>
          </Node>
          <Node pos="r" depth="2" NCoef="0" IVar="7" Cut="-3.9195515215396881e-02" cType="1" res="-1.3754198327660561e-02" rms="3.0185714364051819e-01" purity="3.6367627978324890e-01" nType="0">
            <Node pos="l" depth="3" NCoef="0" IVar="-1" Cut="0.0000000000000000e+00" cType="1" res="-2.9647849500179291e-02" rms="2.8859779238700867e-01" purity="3.5955277085304260e-01" nType="-99"/>
            <Node pos="r" depth="3" NCoef="0" IVar="-1" Cut="0.0000000000000000e+00" cType="1" res="-2.8836214914917946e-03" rms="3.1128117442131042e-01" purity="3.6686655879020691e-01" nType="-99"/>
          </Node>
        </Node>
        <Node pos="r" depth="1" NCoef="0" IVar="-1" Cut="0.0000000000000000e+00" cType="1" res="2.3244861513376236e-02" rms="2.9697450995445251e-01" purity="2.4504163861274719e-01" nType="-99"/>
      </Node>
    </BinaryTree>
    <BinaryTree type="DecisionTree" boostWeight="1.0000000000000000e+00" itree="321">
      <Node pos="s" depth="0" NCoef="0" IVar="1" Cut="1.1148211669921875e+03" cType="1" res="-1.2761065736413002e-03" rms="2.9611659049987793e-01" purity="4.9897480010986328e-01" nType="0">
        <Node pos="l" depth="1" NCoef="0" IVar="9" Cut="1.3328680396080017e-01" cType="1" res="-8.3186719566583633e-03" rms="2.0265531539916992e-01" purity="4.7832261770963669e-02" nType="0">
          <Node pos="l" depth="2" NCoef="0" IVar="1" Cut="1.0398642578125000e+03" cType="1" res="-5.3766481869388372e-05" rms="2.1642239391803741e-01" purity="5.4854303598403931e-02" nType="0">
            <Node pos="l" depth="3" NCoef="0" IVar="-1" Cut="0.0000000000000000e+00" cType="1" res="1.6287472099065781e-02" rms="2.0027321577072144e-01" purity="4.6096131205558777e-02" nType="-99"/>
            <Node pos="r" depth="3" NCoef="0" IVar="-1" Cut="0.0000000000000000e+00" cType="1" res="-2.1978652104735374e-02" rms="2.5618410110473633e-01" purity="7.9809971153736115e-02" nType="-99"/>
          </Node>
          <Node pos="r" depth="2" NCoef="0" IVar="0" Cut="3.6367147827148438e+02" cType="1" res="-1.8213978037238121e-02" rms="1.8434171378612518e-01" purity="3.9425000548362732e-02" nType="0">
            <Node pos="l" depth="3" NCoef="0" IVar="-1" Cut="0.0000000000000000e+00" cType="1" res="-1.9522216171026230e-02" rms="1.8528141081333160e-01" purity="4.1822601109743118e-02" nType="-99"/>
            <Node pos="r" depth="3" NCoef="0" IVar="-1" Cut="0.0000000000000000e+00" cType="1" res="-5.6585516780614853e-02" rms="1.8194206058979034e-01" purity="3.5812117159366608e-02" nType="-99"/>
          </Node>
        </Node>
        <Node pos="r" depth="1" NCoef="0" IVar="7" Cut="4.4186800718307495e-01" cType="1" res="1.2609801487997174e-03" rms="3.2319360971450806e-01" purity="6.6149902343750000e-01" nType="0">
          <Node pos="l" depth="2" NCoef="0" IVar="7" Cut="-1.2048188447952271e+00" cType="1" res="3.9094891399145126e-03" rms="3.2000151276588440e-01" purity="6.9754528999328613e-01" nType="0">
            <Node pos="l" depth="3" NCoef="0" IVar="-1" Cut="0.0000000000000000e+00" cType="1" res="-1.1316483840346336e-02" rms="3.1028386950492859e-01" purity="2.7259117364883423e-01" nType="-99"/>
            <Node pos="r" depth="3" NCoef="0" IVar="-1" Cut="0.0000000000000000e+00" cType="1" res="5.4374756291508675e-03" rms="3.2096850872039795e-01" purity="7.4254322052001953e-01" nType="-99"/>
          </Node>
          <Node pos="r" depth="2" NCoef="0" IVar="5" Cut="9.3355819702148438e+01" cType="1" res="-5.5286809802055359e-03" rms="3.3113956451416016e-01" purity="5.6909179687500000e-01" nType="0">
            <Node pos="l" depth="3" NCoef="0" IVar="-1" Cut="0.0000000000000000e+00" cType="1" res="2.4482855573296547e-02" rms="3.3128958940505981e-01" purity="2.2475460171699524e-01" nType="-99"/>
            <Node pos="r" depth="3" NCoef="0" IVar="-1" Cut="0.0000000000000000e+00" cType="1" res="-8.7695810943841934e-03" rms="3.3090186119079590e-01" purity="6.1752933263778687e-01" nType="-99"/>
          </Node>
        </Node>
      </Node>
    </BinaryTree>
    <BinaryTree type="DecisionTree" boostWeight="1.0000000000000000e+00" itree="322">
      <Node pos="s" depth="0" NCoef="0" IVar="5" Cut="1.6113958740234375e+02" cType="1" res="2.5514797307550907e-03" rms="3.0141538381576538e-01" purity="4.9517232179641724e-01" nType="0">
        <Node pos="l" depth="1" NCoef="0" IVar="4" Cut="2.3176020812988281e+02" cType="1" res="5.2546677179634571e-03" rms="3.1064105033874512e-01" purity="2.6530730724334717e-01" nType="0">
          <Node pos="l" depth="2" NCoef="0" IVar="2" Cut="6.1503659933805466e-02" cType="1" res="1.4328422257676721e-03" rms="2.8685206174850464e-01" purity="1.6651512682437897e-01" nType="0">
            <Node pos="l" depth="3" NCoef="0" IVar="-1" Cut="0.0000000000000000e+00" cType="1" res="-4.3267691507935524e-03" rms="2.5658863782882690e-01" purity="1.1858762055635452e-01" nType="-99"/>
            <Node pos="r" depth="3" NCoef="0" IVar="-1" Cut="0.0000000000000000e+00" cType="1" res="1.4444693922996521e-02" rms="3.9053571224212646e-01" purity="3.7246048450469971e-01" nType="-99"/>
          </Node>
          <Node pos="r" depth="2" NCoef="0" IVar="0" Cut="5.5457250976562500e+02" cType="1" res="1.6404964029788971e-02" rms="3.7121424078941345e-01" purity="5.5353665351867676e-01" nType="0">
            <Node pos="l" depth="3" NCoef="0" IVar="-1" Cut="0.0000000000000000e+00" cType="1" res="2.2887943312525749e-02" rms="3.9460012316703796e-01" purity="3.8541159033775330e-01" nType="-99"/>
            <Node pos="r" depth="3" NCoef="0" IVar="-1" Cut="0.0000000000000000e+00" cType="1" res="-1.1180814355611801e-02" rms="3.2814872264862061e-01" purity="8.2464772462844849e-01" nType="-99"/>
          </Node>
        </Node>
        <Node pos="r" depth="1" NCoef="0" IVar="9" Cut="1.2000244855880737e+00" cType="1" res="-1.1592160444706678e-03" rms="2.8822946548461914e-01" purity="8.1071043014526367e-01" nType="0">
          <Node pos="l" depth="2" NCoef="0" IVar="7" Cut="4.2500302195549011e-01" cType="1" res="8.6225429549813271e-04" rms="2.8291535377502441e-01" purity="8.2743865251541138e-01" nType="0">
            <Node pos="l" depth="3" NCoef="0" IVar="-1" Cut="0.0000000000000000e+00" cType="1" res="6.3028796575963497e-03" rms="2.7408280968666077e-01" purity="8.4921735525131226e-01" nType="-99"/>
            <Node pos="r" depth="3" NCoef="0" IVar="-1" Cut="0.0000000000000000e+00" cType="1" res="-1.0747879743576050e-02" rms="3.0513048171997070e-01" purity="7.6891708374023438e-01" nType="-99"/>
          </Node>
          <Node pos="r" depth="2" NCoef="0" IVar="-1" Cut="0.0000000000000000e+00" cType="1" res="-1.7494330182671547e-02" rms="3.3132955431938171e-01" purity="6.6154450178146362e-01" nType="-99"/>
        </Node>
      </Node>
    </BinaryTree>
    <BinaryTree type="DecisionTree" boostWeight="1.0000000000000000e+00" itree="323">
      <Node pos="s" depth="0" NCoef="0" IVar="8" Cut="3.9990657567977905e-01" cType="1" res="-1.8865263555198908e-03" rms="3.0057975649833679e-01" purity="4.9465531110763550e-01" nType="0">
        <Node pos="l" depth="1" NCoef="0" IVar="0" Cut="4.5206744384765625e+02" cType="1" res="7.9099473077803850e-04" rms="3.0162021517753601e-01" purity="5.2553045749664307e-01" nType="0">
          <Node pos="l" depth="2" NCoef="0" IVar="0" Cut="3.7965393066406250e+02" cType="1" res="5.2360752597451210e-03" rms="3.1398457288742065e-01" purity="2.5821882486343384e-01" nType="0">
            <Node pos="l" depth="3" NCoef="0" IVar="-1" Cut="0.0000000000000000e+00" cType="1" res="2.8976649628020823e-04" rms="2.9349404573440552e-01" purity="1.8028193712234497e-01" nType="-99"/>
            <Node pos="r" depth="3" NCoef="0" IVar="-1" Cut="0.0000000000000000e+00" cType="1" res="1.1708692647516727e-02" rms="3.4483605623245239e-01" purity="3.8615784049034119e-01" nType="-99"/>
          </Node>
          <Node pos="r" depth="2" NCoef="0" IVar="9" Cut="6.6665375232696533e-01" cType="1" res="-3.5067836288362741e-03" rms="2.8909832239151001e-01" purity="7.8398376703262329e-01" nType="0">
            <Node pos="l" depth="3" NCoef="0" IVar="-1" Cut="0.0000000000000000e+00" cType="1" res="3.7398072890937328e-04" rms="2.8413563966751099e-01" purity="7.9851132631301880e-01" nType="-99"/>
            <Node pos="r" depth="3" NCoef="0" IVar="-1" Cut="0.0000000000000000e+00" cType="1" res="-1.7646590247750282e-02" rms="3.0480012297630310e-01" purity="7.3528587818145752e-01" nType="-99"/>
          </Node>
        </Node>
        <Node pos="r" depth="1" NCoef="0" IVar="4" Cut="1.3525169372558594e+02" cType="1" res="-6.9068982265889645e-03" rms="2.9855439066886902e-01" purity="4.3676427006721497e-01" nType="0">
          <Node pos="l" depth="2" NCoef="0" IVar="10" Cut="6.6661095619201660e-01" cType="1" res="4.6043782494962215e-03" rms="2.2619865834712982e-01" purity="7.0957452058792114e-02" nType="0">
            <Node pos="l" depth="3" NCoef="0" IVar="-1" Cut="0.0000000000000000e+00" cType="1" res="-1.2018734589219093e-02" rms="2.1834240853786469e-01" purity="6.5757557749748230e-02" nType="-99"/>
            <Node pos="r" depth="3" NCoef="0" IVar="-1" Cut="0.0000000000000000e+00" cType="1" res="5.2374448627233505e-02" rms="2.3697742819786072e-01" purity="7.9047910869121552e-02" nType="-99"/>
          </Node>
          <Node pos="r" depth="2" NCoef="0" IVar="1" Cut="1.8972076416015625e+03" cType="1" res="-9.5558948814868927e-03" rms="3.1278538703918457e-01" purity="5.2094441652297974e-01" nType="0">
            <Node pos="l" depth="3" NCoef="0" IVar="-1" Cut="0.0000000000000000e+00" cType="1" res="-1.1650742031633854e-02" rms="3.3600339293479919e-01" purity="3.8343933224678040e-01" nType="-99"/>
            <Node pos="r" depth="3" NCoef="0" IVar="-1" Cut="0.0000000000000000e+00" cType="1" res="2.8973806183785200e-03" rms="2.3234489560127258e-01" purity="9.1970819234848022e-01" nType="-99"/>
          </Node>
        </Node>
      </Node>
    </BinaryTree>
    <BinaryTree type="DecisionTree" boostWeight="1.0000000000000000e+00" itree="324">
      <Node pos="s" depth="0" NCoef="0" IVar="4" Cut="2.4026669311523438e+02" cType="1" res="2.3451615124940872e-03" rms="2.9995217919349670e-01" purity="5.0311535596847534e-01" nType="0">
        <Node pos="l" depth="1" NCoef="0" IVar="6" Cut="7.6253509521484375e+01" cType="1" res="7.7045890502631664e-03" rms="3.0886179208755493e-01" purity="2.5247967243194580e-01" nType="0">
          <Node pos="l" depth="2" NCoef="0" IVar="3" Cut="5.0379855346679688e+02" cType="1" res="2.9800094198435545e-03" rms="2.5634104013442993e-01" purity="1.1735357344150543e-01" nType="0">
            <Node pos="l" depth="3" NCoef="0" IVar="-1" Cut="0.0000000000000000e+00" cType="1" res="-4.8632430844008923e-03" rms="2.3707206547260284e-01" purity="8.8342517614364624e-02" nType="-99"/>
            <Node pos="r" depth="3" NCoef="0" IVar="-1" Cut="0.0000000000000000e+00" cType="1" res="3.7297531962394714e-02" rms="3.6460644006729126e-01" purity="3.2882168889045715e-01" nType="-99"/>
          </Node>
          <Node pos="r" depth="2" NCoef="0" IVar="3" Cut="4.5778875732421875e+02" cType="1" res="1.3441017828881741e-02" rms="3.6246106028556824e-01" purity="4.1654524207115173e-01" nType="0">
            <Node pos="l" depth="3" NCoef="0" IVar="-1" Cut="0.0000000000000000e+00" cType="1" res="1.6496565192937851e-02" rms="3.6664056777954102e-01" purity="3.8542655110359192e-01" nType="-99"/>
            <Node pos="r" depth="3" NCoef="0" IVar="-1" Cut="0.0000000000000000e+00" cType="1" res="-1.4123943634331226e-02" rms="3.4293639659881592e-01" purity="5.4548537731170654e-01" nType="-99"/>
          </Node>
        </Node>
        <Node pos="r" depth="1" NCoef="0" IVar="9" Cut="-1.4667971134185791e+00" cType="1" res="-3.5412809811532497e-03" rms="2.8973680734634399e-01" purity="7.7839708328247070e-01" nType="0">
          <Node pos="l" depth="2" NCoef="0" IVar="-1" Cut="0.0000000000000000e+00" cType="1" res="-3.6422993987798691e-02" rms="3.2680734992027283e-01" purity="5.5468088388442993e-01" nType="-99"/>
          <Node pos="r" depth="2" NCoef="0" IVar="0" Cut="4.5299456787109375e+02" cType="1" res="-9.9713588133454323e-04" rms="2.8682085871696472e-01" purity="7.9387396574020386e-01" nType="0">
            <Node pos="l" depth="3" NCoef="0" IVar="-1" Cut="0.0000000000000000e+00" cType="1" res="-8.1183379516005516e-03" rms="3.7190234661102295e-01" purity="5.1469099521636963e-01" nType="-99"/>
            <Node pos="r" depth="3" NCoef="0" IVar="-1" Cut="0.0000000000000000e+00" cType="1" res="5.4939943365752697e-03" rms="2.4364294111728668e-01" purity="9.0764915943145752e-01" nType="-99"/>
          </Node>
        </Node>
      </Node>
    </BinaryTree>
    <BinaryTree type="DecisionTree" boostWeight="1.0000000000000000e+00" itree="325">
      <Node pos="s" depth="0" NCoef="0" IVar="9" Cut="-1.9999911785125732e+00" cType="1" res="3.7485845386981964e-03" rms="3.0162057280540466e-01" purity="5.0189226865768433e-01" nType="0">
        <Node pos="l" depth="1" NCoef="0" IVar="-1" Cut="0.0000000000000000e+00" cType="1" res="3.5187561064958572e-02" rms="3.0902177095413208e-01" purity="2.3717841506004333e-01" nType="-99"/>
        <Node pos="r" depth="1" NCoef="0" IVar="9" Cut="2.1142749786376953e+00" cType="1" res="2.6607010513544083e-03" rms="3.0125012993812561e-01" purity="5.1329338550567627e-01" nType="0">
          <Node pos="l" depth="2" NCoef="0" IVar="10" Cut="2.0000114440917969e+00" cType="1" res="1.9554554019123316e-03" rms="3.0137687921524048e-01" purity="5.2343660593032837e-01" nType="0">
            <Node pos="l" depth="3" NCoef="0" IVar="-1" Cut="0.0000000000000000e+00" cType="1" res="1.1241931933909655e-03" rms="3.0005094408988953e-01" purity="5.3254985809326172e-01" nType="-99"/>
            <Node pos="r" depth="3" NCoef="0" IVar="-1" Cut="0.0000000000000000e+00" cType="1" res="2.0488496869802475e-02" rms="3.2509699463844299e-01" purity="3.4967321157455444e-01" nType="-99"/>
          </Node>
          <Node pos="r" depth="2" NCoef="0" IVar="-1" Cut="0.0000000000000000e+00" cType="1" res="2.7512876316905022e-02" rms="2.9695060849189758e-01" purity="2.2642052173614502e-01" nType="-99"/>
        </Node>
      </Node>
    </BinaryTree>
    <BinaryTree type="DecisionTree" boostWeight="1.0000000000000000e+00" itree="326">
      <Node pos="s" depth="0" NCoef="0" IVar="6" Cut="8.1792190551757812e+01" cType="1" res="3.7999436608515680e-04" rms="2.9891306161880493e-01" purity="4.9947392940521240e-01" nType="0">
        <Node pos="l" depth="1" NCoef="0" IVar="10" Cut="1.4666683673858643e+00" cType="1" res="-4.0444587357342243e-03" rms="2.8810447454452515e-01" purity="2.3115609586238861e-01" nType="0">
          <Node pos="l" depth="2" NCoef="0" IVar="4" Cut="2.4120411682128906e+02" cType="1" res="-7.0334714837372303e-03" rms="2.8811296820640564e-01" purity="2.2795720398426056e-01" nType="0">
            <Node pos="l" depth="3" NCoef="0" IVar="-1" Cut="0.0000000000000000e+00" cType="1" res="-4.2149228975176811e-03" rms="2.6189726591110229e-01" purity="1.2200561165809631e-01" nType="-99"/>
            <Node pos="r" depth="3" NCoef="0" IVar="-1" Cut="0.0000000000000000e+00" cType="1" res="-1.4291912317276001e-02" rms="3.5105621814727783e-01" purity="5.2486944198608398e-01" nType="-99"/>
          </Node>
          <Node pos="r" depth="2" NCoef="0" IVar="8" Cut="3.9969378709793091e-01" cType="1" res="1.2152917683124542e-02" rms="2.8751859068870544e-01" purity="2.4849079549312592e-01" nType="0">
            <Node pos="l" depth="3" NCoef="0" IVar="-1" Cut="0.0000000000000000e+00" cType="1" res="2.7206378057599068e-02" rms="3.0700823664665222e-01" purity="3.1174522638320923e-01" nType="-99"/>
            <Node pos="r" depth="3" NCoef="0" IVar="-1" Cut="0.0000000000000000e+00" cType="1" res="-6.9976281374692917e-03" rms="2.5770455598831177e-01" purity="1.6252791881561279e-01" nType="-99"/>
          </Node>
        </Node>
        <Node pos="r" depth="1" NCoef="0" IVar="10" Cut="1.7333214282989502e+00" cType="1" res="3.8872996810823679e-03" rms="3.0716577172279358e-01" purity="7.1217191219329834e-01" nType="0">
          <Node pos="l" depth="2" NCoef="0" IVar="0" Cut="4.5299490356445312e+02" cType="1" res="5.1671974360942841e-03" rms="3.0527055263519287e-01" purity="7.2154891490936279e-01" nType="0">
            <Node pos="l" depth="3" NCoef="0" IVar="-1" Cut="0.0000000000000000e+00" cType="1" res="8.5285436362028122e-03" rms="3.6855611205101013e-01" purity="4.5379820466041565e-01" nType="-99"/>
            <Node pos="r" depth="3" NCoef="0" IVar="-1" Cut="0.0000000000000000e+00" cType="1" res="1.6764393076300621e-03" rms="2.5823441147804260e-01" purity="8.8769805431365967e-01" nType="-99"/>
          </Node>
          <Node pos="r" depth="2" NCoef="0" IVar="-1" Cut="0.0000000000000000e+00" cType="1" res="-1.4569687657058239e-02" rms="3.3462113142013550e-01" purity="5.6641668081283569e-01" nType="-99"/>
        </Node>
      </Node>
    </BinaryTree>
    <BinaryTree type="DecisionTree" boostWeight="1.0000000000000000e+00" itree="327">
      <Node pos="s" depth="0" NCoef="0" IVar="8" Cut="-6.6670203208923340e-01" cType="1" res="5.2684098482131958e-03" rms="3.0221456289291382e-01" purity="5.0449240207672119e-01" nType="0">
        <Node pos="l" depth="1" NCoef="0" IVar="9" Cut="9.3312072753906250e-01" cType="1" res="-1.8339117523282766e-03" rms="3.0172950029373169e-01" purity="3.9488264918327332e-01" nType="0">
          <Node pos="l" depth="2" NCoef="0" IVar="9" Cut="-1.0223388671875000e+00" cType="1" res="1.2391393538564444e-03" rms="3.0186146497726440e-01" purity="4.1616487503051758e-01" nType="0">
            <Node pos="l" depth="3" NCoef="0" IVar="-1" Cut="0.0000000000000000e+00" cType="1" res="-1.8202099949121475e-02" rms="2.7806931734085083e-01" purity="2.5353983044624329e-01" nType="-99"/>
            <Node pos="r" depth="3" NCoef="0" IVar="-1" Cut="0.0000000000000000e+00" cType="1" res="8.2797436043620110e-03" rms="3.1078049540519714e-01" purity="4.8233276605606079e-01" nType="-99"/>
          </Node>
          <Node pos="r" depth="2" NCoef="0" IVar="-1" Cut="0.0000000000000000e+00" cType="1" res="-1.5853529796004295e-02" rms="3.0077785253524780e-01" purity="3.0142822861671448e-01" nType="-99"/>
        </Node>
        <Node pos="r" depth="1" NCoef="0" IVar="9" Cut="1.4663745164871216e+00" cType="1" res="7.7195931226015091e-03" rms="3.0234307050704956e-01" purity="5.4232144355773926e-01" nType="0">
          <Node pos="l" depth="2" NCoef="0" IVar="7" Cut="-1.1920669078826904e+00" cType="1" res="5.5089900270104408e-03" rms="2.9902181029319763e-01" purity="5.6662034988403320e-01" nType="0">
            <Node pos="l" depth="3" NCoef="0" IVar="-1" Cut="0.0000000000000000e+00" cType="1" res="-1.7413238063454628e-02" rms="2.5082319974899292e-01" purity="2.0149776339530945e-01" nType="-99"/>
            <Node pos="r" depth="3" NCoef="0" IVar="-1" Cut="0.0000000000000000e+00" cType="1" res="7.9570608213543892e-03" rms="3.0297625064849854e-01" purity="5.9988147020339966e-01" nType="-99"/>
          </Node>
          <Node pos="r" depth="2" NCoef="0" IVar="8" Cut="1.5864293277263641e-01" cType="1" res="2.6117172092199326e-02" rms="3.2810735702514648e-01" purity="3.4009519219398499e-01" nType="0">
            <Node pos="l" depth="3" NCoef="0" IVar="-1" Cut="0.0000000000000000e+00" cType="1" res="5.1626466214656830e-02" rms="3.6949750781059265e-01" purity="4.6796050667762756e-01" nType="-99"/>
            <Node pos="r" depth="3" NCoef="0" IVar="-1" Cut="0.0000000000000000e+00" cType="1" res="1.0014059953391552e-02" rms="3.0135077238082886e-01" purity="2.6917073130607605e-01" nType="-99"/>
          </Node>
        </Node>
      </Node>
    </BinaryTree>
    <BinaryTree type="DecisionTree" boostWeight="1.0000000000000000e+00" itree="328">
      <Node pos="s" depth="0" NCoef="0" IVar="10" Cut="-1.4666624069213867e+00" cType="1" res="-2.4480526335537434e-03" rms="2.9784721136093140e-01" purity="4.9639931321144104e-01" nType="0">
        <Node pos="l" depth="1" NCoef="0" IVar="8" Cut="-9.3308585882186890e-01" cType="1" res="-1.2481615878641605e-02" rms="2.9358148574829102e-01" purity="3.8590252399444580e-01" nType="0">
          <Node pos="l" depth="2" NCoef="0" IVar="-1" Cut="0.0000000000000000e+00" cType="1" res="-4.0003184229135513e-02" rms="2.3424871265888214e-01" purity="2.0381684601306915e-01" nType="-99"/>
          <Node pos="r" depth="2" NCoef="0" IVar="3" Cut="4.7358908081054688e+02" cType="1" res="-7.2347731329500675e-03" rms="3.1027308106422424e-01" purity="4.4515708088874817e-01" nType="0">
            <Node pos="l" depth="3" NCoef="0" IVar="-1" Cut="0.0000000000000000e+00" cType="1" res="-1.3129048980772495e-02" rms="3.0885592103004456e-01" purity="3.3836928009986877e-01" nType="-99"/>
            <Node pos="r" depth="3" NCoef="0" IVar="-1" Cut="0.0000000000000000e+00" cType="1" res="5.2361777052283287e-03" rms="3.1298679113388062e-01" purity="6.7815607786178589e-01" nType="-99"/>
          </Node>
        </Node>
        <Node pos="r" depth="1" NCoef="0" IVar="8" Cut="9.3317383527755737e-01" cType="1" res="-1.0644939029589295e-03" rms="2.9840415716171265e-01" purity="5.1163607835769653e-01" nType="0">
          <Node pos="l" depth="2" NCoef="0" IVar="9" Cut="1.7333375215530396e+00" cType="1" res="-2.4875637609511614e-03" rms="2.9644513130187988e-01" purity="5.5087566375732422e-01" nType="0">
            <Node pos="l" depth="3" NCoef="0" IVar="-1" Cut="0.0000000000000000e+00" cType="1" res="-1.5471597434952855e-03" rms="2.9647147655487061e-01" purity="5.6771093606948853e-01" nType="-99"/>
            <Node pos="r" depth="3" NCoef="0" IVar="-1" Cut="0.0000000000000000e+00" cType="1" res="-2.1685039624571800e-02" rms="2.9546296596527100e-01" purity="2.8109174966812134e-01" nType="-99"/>
          </Node>
          <Node pos="r" depth="2" NCoef="0" IVar="2" Cut="3.5758826881647110e-02" cType="1" res="5.0288657657802105e-03" rms="3.0657625198364258e-01" purity="3.4361818432807922e-01" nType="0">
            <Node pos="l" depth="3" NCoef="0" IVar="-1" Cut="0.0000000000000000e+00" cType="1" res="1.4358737505972385e-02" rms="2.9701131582260132e-01" purity="2.1691076457500458e-01" nType="-99"/>
            <Node pos="r" depth="3" NCoef="0" IVar="-1" Cut="0.0000000000000000e+00" cType="1" res="-7.2476011700928211e-03" rms="3.2438611984252930e-01" purity="5.9562176465988159e-01" nType="-99"/>
          </Node>
        </Node>
      </Node>
    </BinaryTree>
    <BinaryTree type="DecisionTree" boostWeight="1.0000000000000000e+00" itree="329">
      <Node pos="s" depth="0" NCoef="0" IVar="5" Cut="9.6916053771972656e+01" cType="1" res="1.2699747458100319e-03" rms="2.9920619726181030e-01" purity="5.0416481494903564e-01" nType="0">
        <Node pos="l" depth="1" NCoef="0" IVar="10" Cut="-3.9997324347496033e-01" cType="1" res="-5.1540830172598362e-03" rms="2.4405053257942200e-01" purity="1.0703301429748535e-01" nType="0">
          <Node pos="l" depth="2" NCoef="0" IVar="5" Cut="8.5767669677734375e+01" cType="1" res="7.8381486237049103e-03" rms="2.5755053758621216e-01" purity="1.1536330729722977e-01" nType="0">
            <Node pos="l" depth="3" NCoef="0" IVar="-1" Cut="0.0000000000000000e+00" cType="1" res="-6.9714430719614029e-03" rms="2.2153571248054504e-01" purity="8.1354558467864990e-02" nType="-99"/>
            <Node pos="r" depth="3" NCoef="0" IVar="-1" Cut="0.0000000000000000e+00" cType="1" res="4.2056605219841003e-02" rms="3.2599595189094543e-01" purity="1.9614461064338684e-01" nType="-99"/>
          </Node>
          <Node pos="r" depth="2" NCoef="0" IVar="1" Cut="1.0999040527343750e+03" cType="1" res="-1.3749307952821255e-02" rms="2.3429732024669647e-01" purity="1.0152197629213333e-01" nType="0">
            <Node pos="l" depth="3" NCoef="0" IVar="-1" Cut="0.0000000000000000e+00" cType="1" res="-7.9841250553727150e-03" rms="1.6570672392845154e-01" purity="2.9975267127156258e-02" nType="-99"/>
            <Node pos="r" depth="3" NCoef="0" IVar="-1" Cut="0.0000000000000000e+00" cType="1" res="-2.8882917016744614e-02" rms="3.1759434938430786e-01" purity="2.2294688224792480e-01" nType="-99"/>
          </Node>
        </Node>
        <Node pos="r" depth="1" NCoef="0" IVar="10" Cut="9.3341761827468872e-01" cType="1" res="3.3586863428354263e-03" rms="3.1503796577453613e-01" purity="6.3328778743743896e-01" nType="0">
          <Node pos="l" depth="2" NCoef="0" IVar="3" Cut="3.3999264526367188e+02" cType="1" res="4.2269990080967546e-04" rms="3.1196117401123047e-01" purity="6.4471423625946045e-01" nType="0">
            <Node pos="l" depth="3" NCoef="0" IVar="-1" Cut="0.0000000000000000e+00" cType="1" res="5.0308248028159142e-03" rms="3.4874820709228516e-01" purity="4.0759399533271790e-01" nType="-99"/>
            <Node pos="r" depth="3" NCoef="0" IVar="-1" Cut="0.0000000000000000e+00" cType="1" res="-2.1947240456938744e-03" rms="2.9444265365600586e-01" purity="7.4816983938217163e-01" nType="-99"/>
          </Node>
          <Node pos="r" depth="2" NCoef="0" IVar="6" Cut="7.3934226989746094e+01" cType="1" res="1.3291079550981522e-02" rms="3.2503446936607361e-01" purity="5.9463226795196533e-01" nType="0">
            <Node pos="l" depth="3" NCoef="0" IVar="-1" Cut="0.0000000000000000e+00" cType="1" res="4.2449869215488434e-02" rms="3.4447091817855835e-01" purity="4.0981158614158630e-01" nType="-99"/>
            <Node pos="r" depth="3" NCoef="0" IVar="-1" Cut="0.0000000000000000e+00" cType="1" res="2.0245302002876997e-03" rms="3.1742516160011292e-01" purity="6.5690881013870239e-01" nType="-99"/>
          </Node>
        </Node>
      </Node>
    </BinaryTree>
    <BinaryTree type="DecisionTree" boostWeight="1.0000000000000000e+00" itree="330">
      <Node pos="s" depth="0" NCoef="0" IVar="9" Cut="6.6660201549530029e-01" cType="1" res="1.9039816688746214e-03" rms="3.0218496918678284e-01" purity="4.9874114990234375e-01" nType="0">
        <Node pos="l" depth="1" NCoef="0" IVar="10" Cut="-1.9999593496322632e+00" cType="1" res="-2.0617054542526603e-04" rms="2.9811879992485046e-01" purity="5.2346849441528320e-01" nType="0">
          <Node pos="l" depth="2" NCoef="0" IVar="-1" Cut="0.0000000000000000e+00" cType="1" res="1.9028479233384132e-02" rms="3.1269764900207520e-01" purity="3.2441705465316772e-01" nType="-99"/>
          <Node pos="r" depth="2" NCoef="0" IVar="0" Cut="4.5299465942382812e+02" cType="1" res="-1.1872145114466548e-03" rms="2.9724562168121338e-01" purity="5.3468567132949829e-01" nType="0">
            <Node pos="l" depth="3" NCoef="0" IVar="-1" Cut="0.0000000000000000e+00" cType="1" res="-4.9702567048370838e-03" rms="3.0793428421020508e-01" purity="2.5719404220581055e-01" nType="-99"/>
            <Node pos="r" depth="3" NCoef="0" IVar="-1" Cut="0.0000000000000000e+00" cType="1" res="2.7523403987288475e-03" rms="2.8678286075592041e-01" purity="7.9579317569732666e-01" nType="-99"/>
          </Node>
        </Node>
        <Node pos="r" depth="1" NCoef="0" IVar="8" Cut="-6.6645044088363647e-01" cType="1" res="7.2765052318572998e-03" rms="3.1223434209823608e-01" purity="4.3578433990478516e-01" nType="0">
          <Node pos="l" depth="2" NCoef="0" IVar="9" Cut="1.1745512485504150e+00" cType="1" res="2.5384882465004921e-02" rms="3.3154097199440002e-01" purity="3.5995772480964661e-01" nType="0">
            <Node pos="l" depth="3" NCoef="0" IVar="-1" Cut="0.0000000000000000e+00" cType="1" res="3.9435695856809616e-02" rms="3.5843259096145630e-01" purity="4.6301761269569397e-01" nType="-99"/>
            <Node pos="r" depth="3" NCoef="0" IVar="-1" Cut="0.0000000000000000e+00" cType="1" res="1.3835513032972813e-02" rms="3.0823743343353271e-01" purity="2.7901941537857056e-01" nType="-99"/>
          </Node>
          <Node pos="r" depth="2" NCoef="0" IVar="10" Cut="9.3345075845718384e-01" cType="1" res="1.7604795284569263e-03" rms="3.0589851737022400e-01" purity="4.5888203382492065e-01" nType="0">
            <Node pos="l" depth="3" NCoef="0" IVar="-1" Cut="0.0000000000000000e+00" cType="1" res="7.7382475137710571e-03" rms="3.0975562334060669e-01" purity="5.0665122270584106e-01" nType="-99"/>
            <Node pos="r" depth="3" NCoef="0" IVar="-1" Cut="0.0000000000000000e+00" cType="1" res="-1.3194475322961807e-02" rms="2.9565620422363281e-01" purity="3.4024062752723694e-01" nType="-99"/>
          </Node>
        </Node>
      </Node>
    </BinaryTree>
    <BinaryTree type="DecisionTree" boostWeight="1.0000000000000000e+00" itree="331">
      <Node pos="s" depth="0" NCoef="0" IVar="4" Cut="1.4490078735351562e+02" cType="1" res="-6.3884502742439508e-04" rms="2.9963067173957825e-01" purity="4.9957209825515747e-01" nType="0">
        <Node pos="l" depth="1" NCoef="0" IVar="9" Cut="3.9983543753623962e-01" cType="1" res="8.7888482958078384e-03" rms="2.4070605635643005e-01" purity="8.9690625667572021e-02" nType="0">
          <Node pos="l" depth="2" NCoef="0" IVar="10" Cut="-3.9984729886054993e-01" cType="1" res="-1.9507344113662839e-03" rms="2.1795368194580078e-01" purity="7.2973094880580902e-02" nType="0">
            <Node pos="l" depth="3" NCoef="0" IVar="-1" Cut="0.0000000000000000e+00" cType="1" res="2.8198517858982086e-02" rms="2.3553010821342468e-01" purity="8.3852879703044891e-02" nType="-99"/>
            <Node pos="r" depth="3" NCoef="0" IVar="-1" Cut="0.0000000000000000e+00" cType="1" res="-2.5907963514328003e-02" rms="2.0258611440658569e-01" purity="6.4596757292747498e-02" nType="-99"/>
          </Node>
          <Node pos="r" depth="2" NCoef="0" IVar="2" Cut="1.6417756676673889e-02" cType="1" res="2.4616409093141556e-02" rms="2.6999714970588684e-01" purity="1.1432824283838272e-01" nType="0">
            <Node pos="l" depth="3" NCoef="0" IVar="-1" Cut="0.0000000000000000e+00" cType="1" res="2.1967059001326561e-03" rms="1.8511237204074860e-01" purity="4.6431288123130798e-02" nType="-99"/>
            <Node pos="r" depth="3" NCoef="0" IVar="-1" Cut="0.0000000000000000e+00" cType="1" res="5.7522371411323547e-02" rms="3.2839116454124451e-01" purity="1.7753976583480835e-01" nType="-99"/>
          </Node>
        </Node>
        <Node pos="r" depth="1" NCoef="0" IVar="10" Cut="1.2000402212142944e+00" cType="1" res="-2.9895692132413387e-03" rms="3.1255352497100830e-01" purity="6.0177290439605713e-01" nType="0">
          <Node pos="l" depth="2" NCoef="0" IVar="10" Cut="4.3816152215003967e-01" cType="1" res="-1.0864170035347342e-03" rms="3.1218260526657104e-01" purity="6.1715388298034668e-01" nType="0">
            <Node pos="l" depth="3" NCoef="0" IVar="-1" Cut="0.0000000000000000e+00" cType="1" res="-4.1188052855432034e-03" rms="3.1146532297134399e-01" purity="6.0702496767044067e-01" nType="-99"/>
            <Node pos="r" depth="3" NCoef="0" IVar="-1" Cut="0.0000000000000000e+00" cType="1" res="8.7604932487010956e-03" rms="3.1423041224479675e-01" purity="6.4880931377410889e-01" nType="-99"/>
          </Node>
          <Node pos="r" depth="2" NCoef="0" IVar="9" Cut="-1.3366328179836273e-01" cType="1" res="-1.2370204553008080e-02" rms="3.1420704722404480e-01" purity="5.2596020698547363e-01" nType="0">
            <Node pos="l" depth="3" NCoef="0" IVar="-1" Cut="0.0000000000000000e+00" cType="1" res="2.3842572700232267e-03" rms="3.2278412580490112e-01" purity="5.6911289691925049e-01" nType="-99"/>
            <Node pos="r" depth="3" NCoef="0" IVar="-1" Cut="0.0000000000000000e+00" cType="1" res="-2.2664064541459084e-02" rms="3.0768948793411255e-01" purity="4.9599945545196533e-01" nType="-99"/>
          </Node>
        </Node>
      </Node>
    </BinaryTree>
    <BinaryTree type="DecisionTree" boostWeight="1.0000000000000000e+00" itree="332">
      <Node pos="s" depth="0" NCoef="0" IVar="8" Cut="6.6664916276931763e-01" cType="1" res="-1.1754730949178338e-03" rms="2.9888656735420227e-01" purity="5.0213080644607544e-01" nType="0">
        <Node pos="l" depth="1" NCoef="0" IVar="9" Cut="9.3332844972610474e-01" cType="1" res="1.8218150362372398e-03" rms="3.0034455657005310e-01" purity="5.4196393489837646e-01" nType="0">
          <Node pos="l" depth="2" NCoef="0" IVar="2" Cut="2.0685097202658653e-02" cType="1" res="-5.3546007256954908e-04" rms="2.9563131928443909e-01" purity="5.5844396352767944e-01" nType="0">
            <Node pos="l" depth="3" NCoef="0" IVar="-1" Cut="0.0000000000000000e+00" cType="1" res="6.8406057544052601e-03" rms="2.8970003128051758e-01" purity="2.9224714636802673e-01" nType="-99"/>
            <Node pos="r" depth="3" NCoef="0" IVar="-1" Cut="0.0000000000000000e+00" cType="1" res="-3.8546223659068346e-03" rms="2.9827439785003662e-01" purity="6.8083941936492920e-01" nType="-99"/>
          </Node>
          <Node pos="r" depth="2" NCoef="0" IVar="8" Cut="-6.5391689538955688e-01" cType="1" res="1.1287083849310875e-02" rms="3.1839275360107422e-01" purity="4.7579091787338257e-01" nType="0">
            <Node pos="l" depth="3" NCoef="0" IVar="-1" Cut="0.0000000000000000e+00" cType="1" res="-4.8111248761415482e-03" rms="3.0715700984001160e-01" purity="3.1723555922508240e-01" nType="-99"/>
            <Node pos="r" depth="3" NCoef="0" IVar="-1" Cut="0.0000000000000000e+00" cType="1" res="1.9008638337254524e-02" rms="3.2352918386459351e-01" purity="5.5445575714111328e-01" nType="-99"/>
          </Node>
        </Node>
        <Node pos="r" depth="1" NCoef="0" IVar="7" Cut="-1.1602219343185425e+00" cType="1" res="-1.0048114694654942e-02" rms="2.9434952139854431e-01" purity="3.8421592116355896e-01" nType="0">
          <Node pos="l" depth="2" NCoef="0" IVar="-1" Cut="0.0000000000000000e+00" cType="1" res="2.0710205659270287e-02" rms="2.5439757108688354e-01" purity="1.4353860914707184e-01" nType="-99"/>
          <Node pos="r" depth="2" NCoef="0" IVar="8" Cut="9.7141456604003906e-01" cType="1" res="-1.2941149994730949e-02" rms="2.9878881573677063e-01" purity="4.1395783424377441e-01" nType="0">
            <Node pos="l" depth="3" NCoef="0" IVar="-1" Cut="0.0000000000000000e+00" cType="1" res="-2.9385792091488838e-02" rms="2.9399383068084717e-01" purity="5.5869251489639282e-01" nType="-99"/>
            <Node pos="r" depth="3" NCoef="0" IVar="-1" Cut="0.0000000000000000e+00" cType="1" res="-6.7627090029418468e-03" rms="3.0082646012306213e-01" purity="3.4438428282737732e-01" nType="-99"/>
          </Node>
        </Node>
      </Node>
    </BinaryTree>
    <BinaryTree type="DecisionTree" boostWeight="1.0000000000000000e+00" itree="333">
      <Node pos="s" depth="0" NCoef="0" IVar="9" Cut="-9.3331044912338257e-01" cType="1" res="-1.1984679149463773e-03" rms="2.9861137270927429e-01" purity="4.9858897924423218e-01" nType="0">
        <Node pos="l" depth="1" NCoef="0" IVar="7" Cut="-3.9430069923400879e-01" cType="1" res="8.0521646887063980e-03" rms="3.0650082230567932e-01" purity="4.0006494522094727e-01" nType="0">
          <Node pos="l" depth="2" NCoef="0" IVar="6" Cut="8.7948959350585938e+01" cType="1" res="1.8982399255037308e-02" rms="3.0419227480888367e-01" purity="3.2661804556846619e-01" nType="0">
            <Node pos="l" depth="3" NCoef="0" IVar="-1" Cut="0.0000000000000000e+00" cType="1" res="4.0750585496425629e-02" rms="2.8536620736122131e-01" purity="1.8676584959030151e-01" nType="-99"/>
            <Node pos="r" depth="3" NCoef="0" IVar="-1" Cut="0.0000000000000000e+00" cType="1" res="1.0525098768994212e-03" rms="3.3303862810134888e-01" purity="5.6456446647644043e-01" nType="-99"/>
          </Node>
          <Node pos="r" depth="2" NCoef="0" IVar="2" Cut="5.8785017579793930e-02" cType="1" res="9.5126806991174817e-04" rms="3.0778339505195618e-01" purity="4.4778022170066833e-01" nType="0">
            <Node pos="l" depth="3" NCoef="0" IVar="-1" Cut="0.0000000000000000e+00" cType="1" res="1.0159237310290337e-02" rms="3.0384355783462524e-01" purity="3.2258543372154236e-01" nType="-99"/>
            <Node pos="r" depth="3" NCoef="0" IVar="-1" Cut="0.0000000000000000e+00" cType="1" res="-1.5599801205098629e-02" rms="3.1468543410301208e-01" purity="6.9161492586135864e-01" nType="-99"/>
          </Node>
        </Node>
        <Node pos="r" depth="1" NCoef="0" IVar="8" Cut="6.6666263341903687e-01" cType="1" res="-3.6829018499702215e-03" rms="2.9640758037567139e-01" purity="5.2504944801330566e-01" nType="0">
          <Node pos="l" depth="2" NCoef="0" IVar="1" Cut="2.0801193847656250e+03" cType="1" res="-7.6481713913381100e-03" rms="2.9568037390708923e-01" purity="5.6122303009033203e-01" nType="0">
            <Node pos="l" depth="3" NCoef="0" IVar="-1" Cut="0.0000000000000000e+00" cType="1" res="-1.0278956964612007e-02" rms="3.2047411799430847e-01" purity="4.5368173718452454e-01" nType="-99"/>
            <Node pos="r" depth="3" NCoef="0" IVar="-1" Cut="0.0000000000000000e+00" cType="1" res="8.2311667501926422e-03" rms="1.7585805058479309e-01" purity="9.5796042680740356e-01" nType="-99"/>
          </Node>
          <Node pos="r" depth="2" NCoef="0" IVar="1" Cut="1.3485860595703125e+03" cType="1" res="6.7958338186144829e-03" rms="2.9806700348854065e-01" purity="4.2945599555969238e-01" nType="0">
            <Node pos="l" depth="3" NCoef="0" IVar="-1" Cut="0.0000000000000000e+00" cType="1" res="-8.5205407813191414e-03" rms="2.6607391238212585e-01" purity="1.1280491948127747e-01" nType="-99"/>
            <Node pos="r" depth="3" NCoef="0" IVar="-1" Cut="0.0000000000000000e+00" cType="1" res="1.8928656354546547e-02" rms="3.2697433233261108e-01" purity="7.5276154279708862e-01" nType="-99"/>
          </Node>
        </Node>
      </Node>
    </BinaryTree>
    <BinaryTree type="DecisionTree" boostWeight="1.0000000000000000e+00" itree="334">
      <Node pos="s" depth="0" NCoef="0" IVar="7" Cut="-1.1919130086898804e+00" cType="1" res="-1.7288928211200982e-04" rms="2.9983630776405334e-01" purity="4.9786332249641418e-01" nType="0">
        <Node pos="l" depth="1" NCoef="0" IVar="7" Cut="-1.5720847845077515e+00" cType="1" res="1.2209095060825348e-02" rms="2.7294731140136719e-01" purity="1.9244144856929779e-01" nType="0">
          <Node pos="l" depth="2" NCoef="0" IVar="-1" Cut="0.0000000000000000e+00" cType="1" res="-7.4308305047452450e-03" rms="2.1096521615982056e-01" purity="9.0255111455917358e-02" nType="-99"/>
          <Node pos="r" depth="2" NCoef="0" IVar="6" Cut="7.7221641540527344e+01" cType="1" res="2.6604637503623962e-02" rms="3.1819957494735718e-01" purity="2.8506353497505188e-01" nType="0">
            <Node pos="l" depth="3" NCoef="0" IVar="-1" Cut="0.0000000000000000e+00" cType="1" res="5.3656175732612610e-02" rms="2.6600641012191772e-01" purity="1.3077254593372345e-01" nType="-99"/>
            <Node pos="r" depth="3" NCoef="0" IVar="-1" Cut="0.0000000000000000e+00" cType="1" res="1.8381487578153610e-02" rms="3.6505714058876038e-01" purity="4.4732445478439331e-01" nType="-99"/>
          </Node>
        </Node>
        <Node pos="r" depth="1" NCoef="0" IVar="9" Cut="9.3334865570068359e-01" cType="1" res="-1.5376233495771885e-03" rms="3.0262288451194763e-01" purity="5.3152668476104736e-01" nType="0">
          <Node pos="l" depth="2" NCoef="0" IVar="1" Cut="1.4400612792968750e+03" cType="1" res="6.2020734185352921e-04" rms="3.0124643445014954e-01" purity="5.6433403491973877e-01" nType="0">
            <Node pos="l" depth="3" NCoef="0" IVar="-1" Cut="0.0000000000000000e+00" cType="1" res="5.4063494317233562e-03" rms="3.2850140333175659e-01" purity="2.2565485537052155e-01" nType="-99"/>
            <Node pos="r" depth="3" NCoef="0" IVar="-1" Cut="0.0000000000000000e+00" cType="1" res="-5.0806482322514057e-03" rms="2.7534854412078857e-01" purity="8.5813885927200317e-01" nType="-99"/>
          </Node>
          <Node pos="r" depth="2" NCoef="0" IVar="10" Cut="-9.3295961618423462e-01" cType="1" res="-9.7003132104873657e-03" rms="3.0763715505599976e-01" purity="4.0742248296737671e-01" nType="0">
            <Node pos="l" depth="3" NCoef="0" IVar="-1" Cut="0.0000000000000000e+00" cType="1" res="-3.1148741021752357e-02" rms="3.0923938751220703e-01" purity="3.8053435087203979e-01" nType="-99"/>
            <Node pos="r" depth="3" NCoef="0" IVar="-1" Cut="0.0000000000000000e+00" cType="1" res="-4.6993670985102654e-03" rms="3.0703711509704590e-01" purity="4.1369649767875671e-01" nType="-99"/>
          </Node>
        </Node>
      </Node>
    </BinaryTree>
    <BinaryTree type="DecisionTree" boostWeight="1.0000000000000000e+00" itree="335">
      <Node pos="s" depth="0" NCoef="0" IVar="10" Cut="-1.3330975174903870e-01" cType="1" res="-1.3378098374232650e-03" rms="2.9778692126274109e-01" purity="4.9502956867218018e-01" nType="0">
        <Node pos="l" depth="1" NCoef="0" IVar="8" Cut="-1.7332634925842285e+00" cType="1" res="-5.0169816240668297e-03" rms="2.9810228943824768e-01" purity="4.7746959328651428e-01" nType="0">
          <Node pos="l" depth="2" NCoef="0" IVar="-1" Cut="0.0000000000000000e+00" cType="1" res="2.9232654720544815e-02" rms="2.7750983834266663e-01" purity="1.5680153667926788e-01" nType="-99"/>
          <Node pos="r" depth="2" NCoef="0" IVar="6" Cut="1.4537651062011719e+02" cType="1" res="-6.7244609817862511e-03" rms="2.9938772320747375e-01" purity="4.9947571754455566e-01" nType="0">
            <Node pos="l" depth="3" NCoef="0" IVar="-1" Cut="0.0000000000000000e+00" cType="1" res="-9.0942662209272385e-03" rms="3.1389424204826355e-01" purity="3.8883221149444580e-01" nType="-99"/>
            <Node pos="r" depth="3" NCoef="0" IVar="-1" Cut="0.0000000000000000e+00" cType="1" res="4.2417943477630615e-03" rms="2.3792421817779541e-01" purity="9.0886270999908447e-01" nType="-99"/>
          </Node>
        </Node>
        <Node pos="r" depth="1" NCoef="0" IVar="7" Cut="-8.9639347791671753e-01" cType="1" res="1.7071054317057133e-03" rms="2.9749125242233276e-01" purity="5.0956231355667114e-01" nType="0">
          <Node pos="l" depth="2" NCoef="0" IVar="8" Cut="-1.3255171477794647e-01" cType="1" res="-1.3834264129400253e-02" rms="2.7561825513839722e-01" purity="2.5727418065071106e-01" nType="0">
            <Node pos="l" depth="3" NCoef="0" IVar="-1" Cut="0.0000000000000000e+00" cType="1" res="1.4543816214427352e-03" rms="2.8610250353813171e-01" purity="2.9676905274391174e-01" nType="-99"/>
            <Node pos="r" depth="3" NCoef="0" IVar="-1" Cut="0.0000000000000000e+00" cType="1" res="-3.5094901919364929e-02" rms="2.6474392414093018e-01" purity="2.2057849168777466e-01" nType="-99"/>
          </Node>
          <Node pos="r" depth="2" NCoef="0" IVar="9" Cut="1.7331811189651489e+00" cType="1" res="4.0653180330991745e-03" rms="3.0060100555419922e-01" purity="5.4784399271011353e-01" nType="0">
            <Node pos="l" depth="3" NCoef="0" IVar="-1" Cut="0.0000000000000000e+00" cType="1" res="6.0360226780176163e-03" rms="3.0221563577651978e-01" purity="5.7177019119262695e-01" nType="-99"/>
            <Node pos="r" depth="3" NCoef="0" IVar="-1" Cut="0.0000000000000000e+00" cType="1" res="-1.6769008710980415e-02" rms="2.7766561508178711e-01" purity="2.3110601305961609e-01" nType="-99"/>
          </Node>
        </Node>
      </Node>
    </BinaryTree>
    <BinaryTree type="DecisionTree" boostWeight="1.0000000000000000e+00" itree="336">
      <Node pos="s" depth="0" NCoef="0" IVar="10" Cut="-2.2666594982147217e+00" cType="1" res="-9.8569190595299006e-04" rms="2.9663991928100586e-01" purity="5.0103169679641724e-01" nType="0">
        <Node pos="l" depth="1" NCoef="0" IVar="-1" Cut="0.0000000000000000e+00" cType="1" res="2.6179244741797447e-02" rms="3.0515152215957642e-01" purity="3.4352272748947144e-01" nType="-99"/>
        <Node pos="r" depth="1" NCoef="0" IVar="5" Cut="1.8540545654296875e+02" cType="1" res="-1.7452939646318555e-03" rms="2.9633748531341553e-01" purity="5.0596189498901367e-01" nType="0">
          <Node pos="l" depth="2" NCoef="0" IVar="5" Cut="1.7251280212402344e+02" cType="1" res="-4.7159651294350624e-03" rms="3.1248489022254944e-01" purity="3.1531819701194763e-01" nType="0">
            <Node pos="l" depth="3" NCoef="0" IVar="-1" Cut="0.0000000000000000e+00" cType="1" res="-6.4318994991481304e-03" rms="3.0878639221191406e-01" purity="2.8658336400985718e-01" nType="-99"/>
            <Node pos="r" depth="3" NCoef="0" IVar="-1" Cut="0.0000000000000000e+00" cType="1" res="1.3398006558418274e-02" rms="3.5712969303131104e-01" purity="6.9503664970397949e-01" nType="-99"/>
          </Node>
          <Node pos="r" depth="2" NCoef="0" IVar="1" Cut="1.7293918457031250e+03" cType="1" res="3.8325123023241758e-03" rms="2.6326695084571838e-01" purity="8.6391937732696533e-01" nType="0">
            <Node pos="l" depth="3" NCoef="0" IVar="-1" Cut="0.0000000000000000e+00" cType="1" res="9.5609696581959724e-03" rms="3.6971664428710938e-01" purity="6.9116079807281494e-01" nType="-99"/>
            <Node pos="r" depth="3" NCoef="0" IVar="-1" Cut="0.0000000000000000e+00" cType="1" res="-1.3361629098653793e-03" rms="1.9344046711921692e-01" purity="9.4553077220916748e-01" nType="-99"/>
          </Node>
        </Node>
      </Node>
    </BinaryTree>
    <BinaryTree type="DecisionTree" boostWeight="1.0000000000000000e+00" itree="337">
      <Node pos="s" depth="0" NCoef="0" IVar="8" Cut="-1.3328702747821808e-01" cType="1" res="2.4517246056348085e-03" rms="3.0053129792213440e-01" purity="5.0177550315856934e-01" nType="0">
        <Node pos="l" depth="1" NCoef="0" IVar="7" Cut="9.3671518564224243e-01" cType="1" res="-2.8080807533115149e-03" rms="2.9771801829338074e-01" purity="4.8440483212471008e-01" nType="0">
          <Node pos="l" depth="2" NCoef="0" IVar="8" Cut="-7.6819312572479248e-01" cType="1" res="-5.3757173009216785e-03" rms="2.9943925142288208e-01" purity="5.2262777090072632e-01" nType="0">
            <Node pos="l" depth="3" NCoef="0" IVar="-1" Cut="0.0000000000000000e+00" cType="1" res="-1.2755263596773148e-02" rms="2.9740390181541443e-01" purity="3.9860743284225464e-01" nType="-99"/>
            <Node pos="r" depth="3" NCoef="0" IVar="-1" Cut="0.0000000000000000e+00" cType="1" res="1.2060599401593208e-03" rms="3.0121785402297974e-01" purity="6.4041155576705933e-01" nType="-99"/>
          </Node>
          <Node pos="r" depth="2" NCoef="0" IVar="2" Cut="1.3735573738813400e-02" cType="1" res="1.1776655912399292e-02" rms="2.8731074929237366e-01" purity="2.6729029417037964e-01" nType="0">
            <Node pos="l" depth="3" NCoef="0" IVar="-1" Cut="0.0000000000000000e+00" cType="1" res="-1.5867413952946663e-02" rms="2.0367485284805298e-01" purity="7.7709920704364777e-02" nType="-99"/>
            <Node pos="r" depth="3" NCoef="0" IVar="-1" Cut="0.0000000000000000e+00" cType="1" res="2.6802411302924156e-02" rms="3.4636175632476807e-01" purity="4.4326913356781006e-01" nType="-99"/>
          </Node>
        </Node>
        <Node pos="r" depth="1" NCoef="0" IVar="5" Cut="1.8541908264160156e+02" cType="1" res="6.6893561743199825e-03" rms="3.0271235108375549e-01" purity="5.1577043533325195e-01" nType="0">
          <Node pos="l" depth="2" NCoef="0" IVar="10" Cut="-6.6660988330841064e-01" cType="1" res="1.1789048090577126e-02" rms="3.2136625051498413e-01" purity="3.4113496541976929e-01" nType="0">
            <Node pos="l" depth="3" NCoef="0" IVar="-1" Cut="0.0000000000000000e+00" cType="1" res="2.5846611708402634e-02" rms="3.3441844582557678e-01" purity="3.6392951011657715e-01" nType="-99"/>
            <Node pos="r" depth="3" NCoef="0" IVar="-1" Cut="0.0000000000000000e+00" cType="1" res="5.8436435647308826e-03" rms="3.1569471955299377e-01" purity="3.3183571696281433e-01" nType="-99"/>
          </Node>
          <Node pos="r" depth="2" NCoef="0" IVar="4" Cut="2.5654412841796875e+02" cType="1" res="-3.4615336917340755e-03" rms="2.6135736703872681e-01" purity="8.6338073015213013e-01" nType="0">
            <Node pos="l" depth="3" NCoef="0" IVar="-1" Cut="0.0000000000000000e+00" cType="1" res="-1.6314746811985970e-02" rms="3.4640923142433167e-01" purity="7.1370917558670044e-01" nType="-99"/>
            <Node pos="r" depth="3" NCoef="0" IVar="-1" Cut="0.0000000000000000e+00" cType="1" res="-3.2892328454181552e-04" rms="2.3868139088153839e-01" purity="8.9603996276855469e-01" nType="-99"/>
          </Node>
        </Node>
      </Node>
    </BinaryTree>
    <BinaryTree type="DecisionTree" boostWeight="1.0000000000000000e+00" itree="338">
      <Node pos="s" depth="0" NCoef="0" IVar="8" Cut="-1.9999976158142090e+00" cType="1" res="2.7855394873768091e-03" rms="2.9992741346359253e-01" purity="5.0373262166976929e-01" nType="0">
        <Node pos="l" depth="1" NCoef="0" IVar="-1" Cut="0.0000000000000000e+00" cType="1" res="-2.7221502736210823e-02" rms="2.2243747115135193e-01" purity="7.9564087092876434e-02" nType="-99"/>
        <Node pos="r" depth="1" NCoef="0" IVar="8" Cut="5.1427823305130005e-01" cType="1" res="3.3536772243678570e-03" rms="3.0207818746566772e-01" purity="5.1740878820419312e-01" nType="0">
          <Node pos="l" depth="2" NCoef="0" IVar="7" Cut="9.4960731267929077e-01" cType="1" res="1.4595310203731060e-03" rms="2.9940059781074524e-01" purity="5.5893343687057495e-01" nType="0">
            <Node pos="l" depth="3" NCoef="0" IVar="-1" Cut="0.0000000000000000e+00" cType="1" res="3.3013229258358479e-03" rms="3.0144771933555603e-01" purity="5.9665578603744507e-01" nType="-99"/>
            <Node pos="r" depth="3" NCoef="0" IVar="-1" Cut="0.0000000000000000e+00" cType="1" res="-1.0485436767339706e-02" rms="2.8491058945655823e-01" purity="3.0335950851440430e-01" nType="-99"/>
          </Node>
          <Node pos="r" depth="2" NCoef="0" IVar="8" Cut="1.2761790752410889e+00" cType="1" res="7.3468065820634365e-03" rms="3.0760836601257324e-01" purity="4.2986899614334106e-01" nType="0">
            <Node pos="l" depth="3" NCoef="0" IVar="-1" Cut="0.0000000000000000e+00" cType="1" res="1.2877398170530796e-02" rms="3.1884950399398804e-01" purity="5.3682202100753784e-01" nType="-99"/>
            <Node pos="r" depth="3" NCoef="0" IVar="-1" Cut="0.0000000000000000e+00" cType="1" res="-1.7683960031718016e-03" rms="2.8651571273803711e-01" purity="2.4139916896820068e-01" nType="-99"/>
          </Node>
        </Node>
      </Node>
    </BinaryTree>
    <BinaryTree type="DecisionTree" boostWeight="1.0000000000000000e+00" itree="339">
      <Node pos="s" depth="0" NCoef="0" IVar="8" Cut="-9.3337017297744751e-01" cType="1" res="-1.1193255195394158e-03" rms="2.9845583438873291e-01" purity="5.0045752525329590e-01" nType="0">
        <Node pos="l" depth="1" NCoef="0" IVar="9" Cut="6.6646426916122437e-01" cType="1" res="6.9873244501650333e-03" rms="3.0380699038505554e-01" purity="3.4077537059783936e-01" nType="0">
          <Node pos="l" depth="2" NCoef="0" IVar="8" Cut="-1.6444690227508545e+00" cType="1" res="1.2899698689579964e-02" rms="3.0779898166656494e-01" purity="3.6274701356887817e-01" nType="0">
            <Node pos="l" depth="3" NCoef="0" IVar="-1" Cut="0.0000000000000000e+00" cType="1" res="-6.5736551769077778e-03" rms="2.6977193355560303e-01" purity="1.4732523262500763e-01" nType="-99"/>
            <Node pos="r" depth="3" NCoef="0" IVar="-1" Cut="0.0000000000000000e+00" cType="1" res="2.1317042410373688e-02" rms="3.2376557588577271e-01" purity="4.6375501155853271e-01" nType="-99"/>
          </Node>
          <Node pos="r" depth="2" NCoef="0" IVar="-1" Cut="0.0000000000000000e+00" cType="1" res="-1.3133347034454346e-02" rms="2.9014524817466736e-01" purity="2.7183666825294495e-01" nType="-99"/>
        </Node>
        <Node pos="r" depth="1" NCoef="0" IVar="7" Cut="6.7039948701858521e-01" cType="1" res="-2.9743425548076630e-03" rms="2.9718670248985291e-01" purity="5.3699707984924316e-01" nType="0">
          <Node pos="l" depth="2" NCoef="0" IVar="6" Cut="8.5090972900390625e+01" cType="1" res="-5.1315370947122574e-03" rms="2.9761749505996704e-01" purity="5.8303183317184448e-01" nType="0">
            <Node pos="l" depth="3" NCoef="0" IVar="-1" Cut="0.0000000000000000e+00" cType="1" res="-1.0236043483018875e-02" rms="3.0825200676918030e-01" purity="2.9994675517082214e-01" nType="-99"/>
            <Node pos="r" depth="3" NCoef="0" IVar="-1" Cut="0.0000000000000000e+00" cType="1" res="-1.8721317173913121e-03" rms="2.8965088725090027e-01" purity="7.8724610805511475e-01" nType="-99"/>
          </Node>
          <Node pos="r" depth="2" NCoef="0" IVar="7" Cut="9.7445273399353027e-01" cType="1" res="4.1757854633033276e-03" rms="2.9564175009727478e-01" purity="3.8441246747970581e-01" nType="0">
            <Node pos="l" depth="3" NCoef="0" IVar="-1" Cut="0.0000000000000000e+00" cType="1" res="1.7504326999187469e-02" rms="3.1874048709869385e-01" purity="5.6488645076751709e-01" nType="-99"/>
            <Node pos="r" depth="3" NCoef="0" IVar="-1" Cut="0.0000000000000000e+00" cType="1" res="-4.4560483656823635e-03" rms="2.8033313155174255e-01" purity="2.7431988716125488e-01" nType="-99"/>
          </Node>
        </Node>
      </Node>
    </BinaryTree>
    <BinaryTree type="DecisionTree" boostWeight="1.0000000000000000e+00" itree="340">
      <Node pos="s" depth="0" NCoef="0" IVar="10" Cut="-1.3332885503768921e-01" cType="1" res="8.0651801545172930e-04" rms="2.9995474219322205e-01" purity="4.9742183089256287e-01" nType="0">
        <Node pos="l" depth="1" NCoef="0" IVar="4" Cut="1.4031263732910156e+02" cType="1" res="4.4454107992351055e-03" rms="3.0260568857192993e-01" purity="4.8929804563522339e-01" nType="0">
          <Node pos="l" depth="2" NCoef="0" IVar="4" Cut="9.7916587829589844e+01" cType="1" res="-7.8133810311555862e-03" rms="2.0562584698200226e-01" purity="5.9833958745002747e-02" nType="0">
            <Node pos="l" depth="3" NCoef="0" IVar="-1" Cut="0.0000000000000000e+00" cType="1" res="5.9640247374773026e-02" rms="1.9963289797306061e-01" purity="4.5441932976245880e-02" nType="-99"/>
            <Node pos="r" depth="3" NCoef="0" IVar="-1" Cut="0.0000000000000000e+00" cType="1" res="-3.0924826860427856e-02" rms="2.0736452937126160e-01" purity="6.6120505332946777e-02" nType="-99"/>
          </Node>
          <Node pos="r" depth="2" NCoef="0" IVar="1" Cut="1.3754864501953125e+03" cType="1" res="7.1818395517766476e-03" rms="3.2020521163940430e-01" purity="5.8516377210617065e-01" nType="0">
            <Node pos="l" depth="3" NCoef="0" IVar="-1" Cut="0.0000000000000000e+00" cType="1" res="1.2305502779781818e-02" rms="3.5147196054458618e-01" purity="2.2087287902832031e-01" nType="-99"/>
            <Node pos="r" depth="3" NCoef="0" IVar="-1" Cut="0.0000000000000000e+00" cType="1" res="3.1499289907515049e-03" rms="2.9926884174346924e-01" purity="8.0931854248046875e-01" nType="-99"/>
          </Node>
        </Node>
        <Node pos="r" depth="1" NCoef="0" IVar="10" Cut="1.8222210407257080e+00" cType="1" res="-2.2495172452181578e-03" rms="2.9767581820487976e-01" purity="5.0424438714981079e-01" nType="0">
          <Node pos="l" depth="2" NCoef="0" IVar="0" Cut="6.0413696289062500e+02" cType="1" res="-4.2042639106512070e-03" rms="2.9484108090400696e-01" purity="5.2763098478317261e-01" nType="0">
            <Node pos="l" depth="3" NCoef="0" IVar="-1" Cut="0.0000000000000000e+00" cType="1" res="-7.4375825934112072e-03" rms="3.1645128130912781e-01" purity="3.6573815345764160e-01" nType="-99"/>
            <Node pos="r" depth="3" NCoef="0" IVar="-1" Cut="0.0000000000000000e+00" cType="1" res="5.9643262065947056e-03" rms="2.3629988729953766e-01" purity="9.0766990184783936e-01" nType="-99"/>
          </Node>
          <Node pos="r" depth="2" NCoef="0" IVar="9" Cut="6.6671937704086304e-01" cType="1" res="1.0308092460036278e-02" rms="3.1499031186103821e-01" purity="3.5400524735450745e-01" nType="0">
            <Node pos="l" depth="3" NCoef="0" IVar="-1" Cut="0.0000000000000000e+00" cType="1" res="-6.0562933795154095e-03" rms="3.0198252201080322e-01" purity="3.8620623946189880e-01" nType="-99"/>
            <Node pos="r" depth="3" NCoef="0" IVar="-1" Cut="0.0000000000000000e+00" cType="1" res="4.1653517633676529e-02" rms="3.3465075492858887e-01" purity="2.9779571294784546e-01" nType="-99"/>
          </Node>
        </Node>
      </Node>
    </BinaryTree>
    <BinaryTree type="DecisionTree" boostWeight="1.0000000000000000e+00" itree="341">
      <Node pos="s" depth="0" NCoef="0" IVar="4" Cut="2.4130744934082031e+02" cType="1" res="4.7727466153446585e-05" rms="2.9777926206588745e-01" purity="5.0142890214920044e-01" nType="0">
        <Node pos="l" depth="1" NCoef="0" IVar="6" Cut="1.0232012176513672e+02" cType="1" res="-3.9806719869375229e-03" rms="3.0277505517005920e-01" purity="2.4468734860420227e-01" nType="0">
          <Node pos="l" depth="2" NCoef="0" IVar="0" Cut="6.0413616943359375e+02" cType="1" res="-1.2558508024085313e-04" rms="2.8667023777961731e-01" purity="1.6144482791423798e-01" nType="0">
            <Node pos="l" depth="3" NCoef="0" IVar="-1" Cut="0.0000000000000000e+00" cType="1" res="2.4895695969462395e-03" rms="2.7446639537811279e-01" purity="1.2264858186244965e-01" nType="-99"/>
            <Node pos="r" depth="3" NCoef="0" IVar="-1" Cut="0.0000000000000000e+00" cType="1" res="-1.4283050782978535e-02" rms="3.9848920702934265e-01" purity="5.9860849380493164e-01" nType="-99"/>
          </Node>
          <Node pos="r" depth="2" NCoef="0" IVar="4" Cut="1.8271691894531250e+02" cType="1" res="-1.8522009253501892e-02" rms="3.5666835308074951e-01" purity="5.5867701768875122e-01" nType="0">
            <Node pos="l" depth="3" NCoef="0" IVar="-1" Cut="0.0000000000000000e+00" cType="1" res="-3.0167514458298683e-02" rms="3.4944295883178711e-01" purity="3.4410533308982849e-01" nType="-99"/>
            <Node pos="r" depth="3" NCoef="0" IVar="-1" Cut="0.0000000000000000e+00" cType="1" res="-6.7796423099935055e-03" rms="3.5950776934623718e-01" purity="6.5736281871795654e-01" nType="-99"/>
          </Node>
        </Node>
        <Node pos="r" depth="1" NCoef="0" IVar="5" Cut="9.5984130859375000e+01" cType="1" res="4.4891671277582645e-03" rms="2.9210785031318665e-01" purity="7.8449463844299316e-01" nType="0">
          <Node pos="l" depth="2" NCoef="0" IVar="-1" Cut="0.0000000000000000e+00" cType="1" res="1.9993128255009651e-02" rms="3.7183922529220581e-01" purity="3.8275760412216187e-01" nType="-99"/>
          <Node pos="r" depth="2" NCoef="0" IVar="8" Cut="1.1976158618927002e+00" cType="1" res="2.7533422689884901e-03" rms="2.8471580147743225e-01" purity="8.1654363870620728e-01" nType="0">
            <Node pos="l" depth="3" NCoef="0" IVar="-1" Cut="0.0000000000000000e+00" cType="1" res="1.5503456816077232e-03" rms="2.7921938896179199e-01" purity="8.3391916751861572e-01" nType="-99"/>
            <Node pos="r" depth="3" NCoef="0" IVar="-1" Cut="0.0000000000000000e+00" cType="1" res="1.7900420352816582e-02" rms="3.4312286972999573e-01" purity="6.0895180702209473e-01" nType="-99"/>
          </Node>
        </Node>
      </Node>
    </BinaryTree>
    <BinaryTree type="DecisionTree" boostWeight="1.0000000000000000e+00" itree="342">
      <Node pos="s" depth="0" NCoef="0" IVar="3" Cut="6.3790563964843750e+02" cType="1" res="-3.1483338680118322e-03" rms="2.9705330729484558e-01" purity="4.9477884173393250e-01" nType="0">
        <Node pos="l" depth="1" NCoef="0" IVar="10" Cut="-1.1999968290328979e+00" cType="1" res="-4.9150111153721809e-03" rms="2.9785487055778503e-01" purity="4.4961223006248474e-01" nType="0">
          <Node pos="l" depth="2" NCoef="0" IVar="4" Cut="1.6267195129394531e+02" cType="1" res="-1.3398013077676296e-02" rms="2.9398053884506226e-01" purity="3.7863671779632568e-01" nType="0">
            <Node pos="l" depth="3" NCoef="0" IVar="-1" Cut="0.0000000000000000e+00" cType="1" res="8.4165547741577029e-04" rms="2.4175010621547699e-01" purity="8.1556543707847595e-02" nType="-99"/>
            <Node pos="r" depth="3" NCoef="0" IVar="-1" Cut="0.0000000000000000e+00" cType="1" res="-1.8940042704343796e-02" rms="3.1658774614334106e-01" purity="5.2671056985855103e-01" nType="-99"/>
          </Node>
          <Node pos="r" depth="2" NCoef="0" IVar="7" Cut="1.4795022010803223e+00" cType="1" res="-3.0959481373429298e-03" rms="2.9864773154258728e-01" purity="4.6483194828033447e-01" nType="0">
            <Node pos="l" depth="3" NCoef="0" IVar="-1" Cut="0.0000000000000000e+00" cType="1" res="-2.4508314672857523e-03" rms="3.0477076768875122e-01" purity="4.9246612191200256e-01" nType="-99"/>
            <Node pos="r" depth="3" NCoef="0" IVar="-1" Cut="0.0000000000000000e+00" cType="1" res="-2.8373071923851967e-02" rms="1.9775801897048950e-01" purity="9.1240860521793365e-02" nType="-99"/>
          </Node>
        </Node>
        <Node pos="r" depth="1" NCoef="0" IVar="9" Cut="-6.6680073738098145e-01" cType="1" res="8.8232923299074173e-03" rms="2.9128161072731018e-01" purity="8.0084353685379028e-01" nType="0">
          <Node pos="l" depth="2" NCoef="0" IVar="-1" Cut="0.0000000000000000e+00" cType="1" res="2.6313645765185356e-02" rms="3.2944849133491516e-01" purity="7.5515037775039673e-01" nType="-99"/>
          <Node pos="r" depth="2" NCoef="0" IVar="3" Cut="7.6302563476562500e+02" cType="1" res="2.8975752647966146e-03" rms="2.7675363421440125e-01" purity="8.1649440526962280e-01" nType="0">
            <Node pos="l" depth="3" NCoef="0" IVar="-1" Cut="0.0000000000000000e+00" cType="1" res="1.4025683514773846e-02" rms="2.7763861417770386e-01" purity="7.9849910736083984e-01" nType="-99"/>
            <Node pos="r" depth="3" NCoef="0" IVar="-1" Cut="0.0000000000000000e+00" cType="1" res="-9.8047694191336632e-03" rms="2.7522814273834229e-01" purity="8.3963853120803833e-01" nType="-99"/>
          </Node>
        </Node>
      </Node>
    </BinaryTree>
    <BinaryTree type="DecisionTree" boostWeight="1.0000000000000000e+00" itree="343">
      <Node pos="s" depth="0" NCoef="0" IVar="9" Cut="1.7332587242126465e+00" cType="1" res="-1.2289211153984070e-03" rms="2.9778331518173218e-01" purity="5.0182038545608521e-01" nType="0">
        <Node pos="l" depth="1" NCoef="0" IVar="7" Cut="-6.5959882736206055e-01" cType="1" res="7.8432574809994549e-05" rms="2.9975283145904541e-01" purity="5.2056241035461426e-01" nType="0">
          <Node pos="l" depth="2" NCoef="0" IVar="9" Cut="-8.5712033510208130e-01" cType="1" res="7.7252886258065701e-03" rms="2.9575246572494507e-01" purity="3.6764046549797058e-01" nType="0">
            <Node pos="l" depth="3" NCoef="0" IVar="-1" Cut="0.0000000000000000e+00" cType="1" res="-5.5585508234798908e-03" rms="2.6783284544944763e-01" purity="2.5304001569747925e-01" nType="-99"/>
            <Node pos="r" depth="3" NCoef="0" IVar="-1" Cut="0.0000000000000000e+00" cType="1" res="1.4706552959978580e-02" rms="3.0760598182678223e-01" purity="4.2044803500175476e-01" nType="-99"/>
          </Node>
          <Node pos="r" depth="2" NCoef="0" IVar="9" Cut="8.6978173255920410e-01" cType="1" res="-2.1735399495810270e-03" rms="3.0088376998901367e-01" purity="5.6559747457504272e-01" nType="0">
            <Node pos="l" depth="3" NCoef="0" IVar="-1" Cut="0.0000000000000000e+00" cType="1" res="-4.8528150655329227e-03" rms="2.9530629515647888e-01" purity="5.7817673683166504e-01" nType="-99"/>
            <Node pos="r" depth="3" NCoef="0" IVar="-1" Cut="0.0000000000000000e+00" cType="1" res="7.5317132286727428e-03" rms="3.2527852058410645e-01" purity="5.0739085674285889e-01" nType="-99"/>
          </Node>
        </Node>
        <Node pos="r" depth="1" NCoef="0" IVar="8" Cut="4.0043562650680542e-01" cType="1" res="-1.9850468263030052e-02" rms="2.6747116446495056e-01" purity="2.3486432433128357e-01" nType="0">
          <Node pos="l" depth="2" NCoef="0" IVar="-1" Cut="0.0000000000000000e+00" cType="1" res="-3.4559067338705063e-02" rms="2.6895976066589355e-01" purity="2.6026850938796997e-01" nType="-99"/>
          <Node pos="r" depth="2" NCoef="0" IVar="-1" Cut="0.0000000000000000e+00" cType="1" res="-6.9150384515523911e-03" rms="2.6486286520957947e-01" purity="2.0237059891223907e-01" nType="-99"/>
        </Node>
      </Node>
    </BinaryTree>
    <BinaryTree type="DecisionTree" boostWeight="1.0000000000000000e+00" itree="344">
      <Node pos="s" depth="0" NCoef="0" IVar="8" Cut="1.7330702543258667e+00" cType="1" res="8.8306207908317447e-04" rms="3.0068841576576233e-01" purity="4.9952840805053711e-01" nType="0">
        <Node pos="l" depth="1" NCoef="0" IVar="2" Cut="2.0917329937219620e-02" cType="1" res="1.6585201956331730e-03" rms="3.0347543954849243e-01" purity="5.2021574974060059e-01" nType="0">
          <Node pos="l" depth="2" NCoef="0" IVar="10" Cut="-6.6666340827941895e-01" cType="1" res="6.4217760227620602e-03" rms="2.9389905929565430e-01" purity="2.6458489894866943e-01" nType="0">
            <Node pos="l" depth="3" NCoef="0" IVar="-1" Cut="0.0000000000000000e+00" cType="1" res="2.2542644292116165e-02" rms="2.9812839627265930e-01" purity="2.3969392478466034e-01" nType="-99"/>
            <Node pos="r" depth="3" NCoef="0" IVar="-1" Cut="0.0000000000000000e+00" cType="1" res="1.1405939003452659e-03" rms="2.9177343845367432e-01" purity="2.7601993083953857e-01" nType="-99"/>
          </Node>
          <Node pos="r" depth="2" NCoef="0" IVar="10" Cut="1.7333312034606934e+00" cType="1" res="-7.3400238761678338e-04" rms="3.0814552307128906e-01" purity="6.4861589670181274e-01" nType="0">
            <Node pos="l" depth="3" NCoef="0" IVar="-1" Cut="0.0000000000000000e+00" cType="1" res="-2.4902506265789270e-03" rms="3.0457913875579834e-01" purity="6.5798276662826538e-01" nType="-99"/>
            <Node pos="r" depth="3" NCoef="0" IVar="-1" Cut="0.0000000000000000e+00" cType="1" res="1.4643615111708641e-02" rms="3.4525507688522339e-01" purity="5.4317468404769897e-01" nType="-99"/>
          </Node>
        </Node>
        <Node pos="r" depth="1" NCoef="0" IVar="-1" Cut="0.0000000000000000e+00" cType="1" res="-2.2094380110502243e-02" rms="2.4283190071582794e-01" purity="1.1585880070924759e-01" nType="-99"/>
      </Node>
    </BinaryTree>
    <BinaryTree type="DecisionTree" boostWeight="1.0000000000000000e+00" itree="345">
      <Node pos="s" depth="0" NCoef="0" IVar="9" Cut="-1.3334080576896667e-01" cType="1" res="4.2096441029570997e-04" rms="2.9956987500190735e-01" purity="4.9567899107933044e-01" nType="0">
        <Node pos="l" depth="1" NCoef="0" IVar="10" Cut="6.6675519943237305e-01" cType="1" res="5.3818519227206707e-03" rms="3.0607572197914124e-01" purity="4.8915734887123108e-01" nType="0">
          <Node pos="l" depth="2" NCoef="0" IVar="6" Cut="1.2194168090820312e+02" cType="1" res="9.4105955213308334e-03" rms="3.0812916159629822e-01" purity="4.9339535832405090e-01" nType="0">
            <Node pos="l" depth="3" NCoef="0" IVar="-1" Cut="0.0000000000000000e+00" cType="1" res="1.5313636511564255e-02" rms="3.2133069634437561e-01" purity="3.4654062986373901e-01" nType="-99"/>
            <Node pos="r" depth="3" NCoef="0" IVar="-1" Cut="0.0000000000000000e+00" cType="1" res="-6.0967481695115566e-03" rms="2.7273222804069519e-01" purity="8.5202121734619141e-01" nType="-99"/>
          </Node>
          <Node pos="r" depth="2" NCoef="0" IVar="6" Cut="7.1139190673828125e+01" cType="1" res="-5.2861599251627922e-03" rms="3.0030953884124756e-01" purity="4.7793528437614441e-01" nType="0">
            <Node pos="l" depth="3" NCoef="0" IVar="-1" Cut="0.0000000000000000e+00" cType="1" res="-1.8936621025204659e-02" rms="2.6356706023216248e-01" purity="2.0218281447887421e-01" nType="-99"/>
            <Node pos="r" depth="3" NCoef="0" IVar="-1" Cut="0.0000000000000000e+00" cType="1" res="2.2112847364041954e-04" rms="3.1852477788925171e-01" purity="6.2910294532775879e-01" nType="-99"/>
          </Node>
        </Node>
        <Node pos="r" depth="1" NCoef="0" IVar="4" Cut="3.3154959106445312e+02" cType="1" res="-3.6919245030730963e-03" rms="2.9400354623794556e-01" purity="5.0108581781387329e-01" nType="0">
          <Node pos="l" depth="2" NCoef="0" IVar="9" Cut="1.2634909152984619e+00" cType="1" res="-6.9303610362112522e-03" rms="3.0580729246139526e-01" purity="3.8116833567619324e-01" nType="0">
            <Node pos="l" depth="3" NCoef="0" IVar="-1" Cut="0.0000000000000000e+00" cType="1" res="-1.1774030514061451e-02" rms="3.0694285035133362e-01" purity="4.2701968550682068e-01" nType="-99"/>
            <Node pos="r" depth="3" NCoef="0" IVar="-1" Cut="0.0000000000000000e+00" cType="1" res="4.2559150606393814e-03" rms="3.0267113447189331e-01" purity="2.6615318655967712e-01" nType="-99"/>
          </Node>
          <Node pos="r" depth="2" NCoef="0" IVar="0" Cut="4.5300125122070312e+02" cType="1" res="6.1613675206899643e-03" rms="2.5449436902999878e-01" purity="8.6594766378402710e-01" nType="0">
            <Node pos="l" depth="3" NCoef="0" IVar="-1" Cut="0.0000000000000000e+00" cType="1" res="1.5571548603475094e-02" rms="3.7359824776649475e-01" purity="6.2358796596527100e-01" nType="-99"/>
            <Node pos="r" depth="3" NCoef="0" IVar="-1" Cut="0.0000000000000000e+00" cType="1" res="3.9170561358332634e-03" rms="2.1018807590007782e-01" purity="9.3237930536270142e-01" nType="-99"/>
          </Node>
        </Node>
      </Node>
    </BinaryTree>
    <BinaryTree type="DecisionTree" boostWeight="1.0000000000000000e+00" itree="346">
      <Node pos="s" depth="0" NCoef="0" IVar="10" Cut="-1.7333281040191650e+00" cType="1" res="-2.0433799363672733e-04" rms="2.9640939831733704e-01" purity="5.0142151117324829e-01" nType="0">
        <Node pos="l" depth="1" NCoef="0" IVar="5" Cut="1.5140499877929688e+02" cType="1" res="-1.2714494951069355e-02" rms="2.8842332959175110e-01" purity="3.5212063789367676e-01" nType="0">
          <Node pos="l" depth="2" NCoef="0" IVar="5" Cut="9.3520500183105469e+01" cType="1" res="-2.2198652848601341e-02" rms="2.7073270082473755e-01" purity="1.6027478873729706e-01" nType="0">
            <Node pos="l" depth="3" NCoef="0" IVar="-1" Cut="0.0000000000000000e+00" cType="1" res="-1.7753733322024345e-02" rms="2.2148628532886505e-01" purity="9.7750641405582428e-02" nType="-99"/>
            <Node pos="r" depth="3" NCoef="0" IVar="-1" Cut="0.0000000000000000e+00" cType="1" res="-3.3069364726543427e-02" rms="3.1216064095497131e-01" purity="2.2332186996936798e-01" nType="-99"/>
          </Node>
          <Node pos="r" depth="2" NCoef="0" IVar="-1" Cut="0.0000000000000000e+00" cType="1" res="4.5859664678573608e-03" rms="3.1768539547920227e-01" purity="7.0522016286849976e-01" nType="-99"/>
        </Node>
        <Node pos="r" depth="1" NCoef="0" IVar="2" Cut="4.1369538754224777e-02" cType="1" res="9.3159783864393830e-04" rms="2.9709783196449280e-01" purity="5.1497817039489746e-01" nType="0">
          <Node pos="l" depth="2" NCoef="0" IVar="2" Cut="1.7729690298438072e-02" cType="1" res="-2.6283354964107275e-03" rms="2.9536899924278259e-01" purity="3.2859784364700317e-01" nType="0">
            <Node pos="l" depth="3" NCoef="0" IVar="-1" Cut="0.0000000000000000e+00" cType="1" res="4.1476269252598286e-03" rms="2.7896666526794434e-01" purity="2.4636030197143555e-01" nType="-99"/>
            <Node pos="r" depth="3" NCoef="0" IVar="-1" Cut="0.0000000000000000e+00" cType="1" res="-1.0650373995304108e-02" rms="3.1706881523132324e-01" purity="4.4566777348518372e-01" nType="-99"/>
          </Node>
          <Node pos="r" depth="2" NCoef="0" IVar="1" Cut="1.3113590087890625e+03" cType="1" res="5.0649330951273441e-03" rms="2.9903945326805115e-01" purity="7.3137897253036499e-01" nType="0">
            <Node pos="l" depth="3" NCoef="0" IVar="-1" Cut="0.0000000000000000e+00" cType="1" res="9.2576006427407265e-03" rms="3.8396698236465454e-01" purity="2.8171750903129578e-01" nType="-99"/>
            <Node pos="r" depth="3" NCoef="0" IVar="-1" Cut="0.0000000000000000e+00" cType="1" res="2.7494905516505241e-03" rms="2.5869864225387573e-01" purity="9.0551394224166870e-01" nType="-99"/>
          </Node>
        </Node>
      </Node>
    </BinaryTree>
    <BinaryTree type="DecisionTree" boostWeight="1.0000000000000000e+00" itree="347">
      <Node pos="s" depth="0" NCoef="0" IVar="6" Cut="7.8424407958984375e+01" cType="1" res="8.5645081708207726e-04" rms="2.9749280214309692e-01" purity="5.0078344345092773e-01" nType="0">
        <Node pos="l" depth="1" NCoef="0" IVar="6" Cut="7.3010124206542969e+01" cType="1" res="-4.4328807853162289e-03" rms="2.8785169124603271e-01" purity="2.1490210294723511e-01" nType="0">
          <Node pos="l" depth="2" NCoef="0" IVar="4" Cut="2.4185580444335938e+02" cType="1" res="-1.5782408881932497e-03" rms="2.8437617421150208e-01" purity="2.0303295552730560e-01" nType="0">
            <Node pos="l" depth="3" NCoef="0" IVar="-1" Cut="0.0000000000000000e+00" cType="1" res="5.4817763157188892e-03" rms="2.5572174787521362e-01" purity="1.1097478121519089e-01" nType="-99"/>
            <Node pos="r" depth="3" NCoef="0" IVar="-1" Cut="0.0000000000000000e+00" cType="1" res="-1.3722879812121391e-02" rms="3.6008447408676147e-01" purity="4.9529525637626648e-01" nType="-99"/>
          </Node>
          <Node pos="r" depth="2" NCoef="0" IVar="8" Cut="-1.3212272524833679e-01" cType="1" res="-2.2062821313738823e-02" rms="3.0786353349685669e-01" purity="2.8820466995239258e-01" nType="0">
            <Node pos="l" depth="3" NCoef="0" IVar="-1" Cut="0.0000000000000000e+00" cType="1" res="-6.8265624577179551e-04" rms="3.2166483998298645e-01" purity="2.9979875683784485e-01" nType="-99"/>
            <Node pos="r" depth="3" NCoef="0" IVar="-1" Cut="0.0000000000000000e+00" cType="1" res="-3.9622042328119278e-02" rms="2.9359081387519836e-01" purity="2.7778458595275879e-01" nType="-99"/>
          </Node>
        </Node>
        <Node pos="r" depth="1" NCoef="0" IVar="7" Cut="-1.0719166696071625e-01" cType="1" res="4.4492897577583790e-03" rms="3.0381473898887634e-01" purity="6.9497162103652954e-01" nType="0">
          <Node pos="l" depth="2" NCoef="0" IVar="9" Cut="-3.9978098869323730e-01" cType="1" res="-1.4734414871782064e-03" rms="3.0644771456718445e-01" purity="6.7764455080032349e-01" nType="0">
            <Node pos="l" depth="3" NCoef="0" IVar="-1" Cut="0.0000000000000000e+00" cType="1" res="-1.4502508565783501e-02" rms="3.1019616127014160e-01" purity="6.2739062309265137e-01" nType="-99"/>
            <Node pos="r" depth="3" NCoef="0" IVar="-1" Cut="0.0000000000000000e+00" cType="1" res="6.5666050650179386e-03" rms="3.0391719937324524e-01" purity="7.0783871412277222e-01" nType="-99"/>
          </Node>
          <Node pos="r" depth="2" NCoef="0" IVar="4" Cut="2.3562538146972656e+02" cType="1" res="9.0507594868540764e-03" rms="3.0167302489280701e-01" purity="7.0843333005905151e-01" nType="0">
            <Node pos="l" depth="3" NCoef="0" IVar="-1" Cut="0.0000000000000000e+00" cType="1" res="1.8575370311737061e-02" rms="3.6246225237846375e-01" purity="4.4370773434638977e-01" nType="-99"/>
            <Node pos="r" depth="3" NCoef="0" IVar="-1" Cut="0.0000000000000000e+00" cType="1" res="8.6018914589658380e-04" rms="2.6138049364089966e-01" purity="8.5589301586151123e-01" nType="-99"/>
          </Node>
        </Node>
      </Node>
    </BinaryTree>
    <BinaryTree type="DecisionTree" boostWeight="1.0000000000000000e+00" itree="348">
      <Node pos="s" depth="0" NCoef="0" IVar="9" Cut="-1.3333618640899658e-01" cType="1" res="9.6238245532731526e-06" rms="2.9630747437477112e-01" purity="5.0183421373367310e-01" nType="0">
        <Node pos="l" depth="1" NCoef="0" IVar="10" Cut="-1.9997859001159668e+00" cType="1" res="-3.8783443160355091e-03" rms="2.9443475604057312e-01" purity="4.9285784363746643e-01" nType="0">
          <Node pos="l" depth="2" NCoef="0" IVar="-1" Cut="0.0000000000000000e+00" cType="1" res="-2.9698450118303299e-02" rms="2.5750717520713806e-01" purity="2.9449021816253662e-01" nType="-99"/>
          <Node pos="r" depth="2" NCoef="0" IVar="10" Cut="-1.3140829801559448e+00" cType="1" res="-2.5972272269427776e-03" rms="2.9649093747138977e-01" purity="5.0496113300323486e-01" nType="0">
            <Node pos="l" depth="3" NCoef="0" IVar="-1" Cut="0.0000000000000000e+00" cType="1" res="1.2338827364146709e-02" rms="3.0581438541412354e-01" purity="4.3885719776153564e-01" nType="-99"/>
            <Node pos="r" depth="3" NCoef="0" IVar="-1" Cut="0.0000000000000000e+00" cType="1" res="-5.1291976124048233e-03" rms="2.9512298107147217e-01" purity="5.1411128044128418e-01" nType="-99"/>
          </Node>
        </Node>
        <Node pos="r" depth="1" NCoef="0" IVar="10" Cut="-1.3335736095905304e-01" cType="1" res="3.2186415046453476e-03" rms="2.9780605435371399e-01" purity="5.0924307107925415e-01" nType="0">
          <Node pos="l" depth="2" NCoef="0" IVar="1" Cut="1.5663010253906250e+03" cType="1" res="9.5134172588586807e-03" rms="3.0746111273765564e-01" purity="5.2492201328277588e-01" nType="0">
            <Node pos="l" depth="3" NCoef="0" IVar="-1" Cut="0.0000000000000000e+00" cType="1" res="1.6160907223820686e-02" rms="3.3770579099655151e-01" purity="2.7266871929168701e-01" nType="-99"/>
            <Node pos="r" depth="3" NCoef="0" IVar="-1" Cut="0.0000000000000000e+00" cType="1" res="-2.4608036037534475e-03" rms="2.5831645727157593e-01" purity="8.8159257173538208e-01" nType="-99"/>
          </Node>
          <Node pos="r" depth="2" NCoef="0" IVar="2" Cut="4.0179211646318436e-02" cType="1" res="-1.4551507774740458e-03" rms="2.9034143686294556e-01" purity="4.9760156869888306e-01" nType="0">
            <Node pos="l" depth="3" NCoef="0" IVar="-1" Cut="0.0000000000000000e+00" cType="1" res="-8.7856501340866089e-03" rms="2.8181362152099609e-01" purity="3.0556929111480713e-01" nType="-99"/>
            <Node pos="r" depth="3" NCoef="0" IVar="-1" Cut="0.0000000000000000e+00" cType="1" res="6.0152988880872726e-03" rms="2.9966166615486145e-01" purity="7.1744632720947266e-01" nType="-99"/>
          </Node>
        </Node>
      </Node>
    </BinaryTree>
    <BinaryTree type="DecisionTree" boostWeight="1.0000000000000000e+00" itree="349">
      <Node pos="s" depth="0" NCoef="0" IVar="9" Cut="9.3326550722122192e-01" cType="1" res="1.7798595363274217e-03" rms="2.9665440320968628e-01" purity="5.0525116920471191e-01" nType="0">
        <Node pos="l" depth="1" NCoef="0" IVar="8" Cut="-9.3331074714660645e-01" cType="1" res="4.5627709478139877e-03" rms="2.9640385508537292e-01" purity="5.3478991985321045e-01" nType="0">
          <Node pos="l" depth="2" NCoef="0" IVar="7" Cut="4.2589905858039856e-01" cType="1" res="1.2224494479596615e-02" rms="3.0204442143440247e-01" purity="3.7977209687232971e-01" nType="0">
            <Node pos="l" depth="3" NCoef="0" IVar="-1" Cut="0.0000000000000000e+00" cType="1" res="2.1128624677658081e-02" rms="3.0932277441024780e-01" purity="4.1902628540992737e-01" nType="-99"/>
            <Node pos="r" depth="3" NCoef="0" IVar="-1" Cut="0.0000000000000000e+00" cType="1" res="-9.5746088773012161e-03" rms="2.8122776746749878e-01" purity="2.7775433659553528e-01" nType="-99"/>
          </Node>
          <Node pos="r" depth="2" NCoef="0" IVar="9" Cut="-1.3778010606765747e+00" cType="1" res="2.7052776422351599e-03" rms="2.9499015212059021e-01" purity="5.7237213850021362e-01" nType="0">
            <Node pos="l" depth="3" NCoef="0" IVar="-1" Cut="0.0000000000000000e+00" cType="1" res="1.4401421882212162e-02" rms="3.0541965365409851e-01" purity="3.7264344096183777e-01" nType="-99"/>
            <Node pos="r" depth="3" NCoef="0" IVar="-1" Cut="0.0000000000000000e+00" cType="1" res="1.1234922567382455e-03" rms="2.9329699277877808e-01" purity="6.0342872142791748e-01" nType="-99"/>
          </Node>
        </Node>
        <Node pos="r" depth="1" NCoef="0" IVar="9" Cut="2.1777012348175049e+00" cType="1" res="-8.7218107655644417e-03" rms="2.9736354947090149e-01" purity="3.9378294348716736e-01" nType="0">
          <Node pos="l" depth="2" NCoef="0" IVar="6" Cut="9.7024780273437500e+01" cType="1" res="-5.0216293893754482e-03" rms="3.0525091290473938e-01" purity="4.3017196655273438e-01" nType="0">
            <Node pos="l" depth="3" NCoef="0" IVar="-1" Cut="0.0000000000000000e+00" cType="1" res="2.2037252783775330e-03" rms="3.0258709192276001e-01" purity="2.6431941986083984e-01" nType="-99"/>
            <Node pos="r" depth="3" NCoef="0" IVar="-1" Cut="0.0000000000000000e+00" cType="1" res="-1.6856223344802856e-02" rms="3.0931845307350159e-01" purity="7.0935279130935669e-01" nType="-99"/>
          </Node>
          <Node pos="r" depth="2" NCoef="0" IVar="-1" Cut="0.0000000000000000e+00" cType="1" res="-4.6559490263462067e-02" rms="2.3369963467121124e-01" purity="1.4073657989501953e-01" nType="-99"/>
        </Node>
      </Node>
    </BinaryTree>
    <BinaryTree type="DecisionTree" boostWeight="1.0000000000000000e+00" itree="350">
      <Node pos="s" depth="0" NCoef="0" IVar="9" Cut="-1.4666659832000732e+00" cType="1" res="-2.3603027511853725e-04" rms="2.9474976658821106e-01" purity="5.0044268369674683e-01" nType="0">
        <Node pos="l" depth="1" NCoef="0" IVar="7" Cut="4.2385134100914001e-01" cType="1" res="1.4524377882480621e-02" rms="3.0527797341346741e-01" purity="3.1103578209877014e-01" nType="0">
          <Node pos="l" depth="2" NCoef="0" IVar="10" Cut="1.3343293964862823e-01" cType="1" res="2.0641172304749489e-02" rms="3.1680738925933838e-01" purity="3.5138100385665894e-01" nType="0">
            <Node pos="l" depth="3" NCoef="0" IVar="-1" Cut="0.0000000000000000e+00" cType="1" res="3.2187912613153458e-02" rms="3.1607636809349060e-01" purity="3.3417084813117981e-01" nType="-99"/>
            <Node pos="r" depth="3" NCoef="0" IVar="-1" Cut="0.0000000000000000e+00" cType="1" res="5.8082374744117260e-03" rms="3.1753754615783691e-01" purity="3.8170862197875977e-01" nType="-99"/>
          </Node>
          <Node pos="r" depth="2" NCoef="0" IVar="-1" Cut="0.0000000000000000e+00" cType="1" res="-1.3587621506303549e-03" rms="2.7299383282661438e-01" purity="2.0793199539184570e-01" nType="-99"/>
        </Node>
        <Node pos="r" depth="1" NCoef="0" IVar="1" Cut="1.1001358642578125e+03" cType="1" res="-1.9479356706142426e-03" rms="2.9345622658729553e-01" purity="5.2241003513336182e-01" nType="0">
          <Node pos="l" depth="2" NCoef="0" IVar="4" Cut="1.6245814514160156e+02" cType="1" res="-8.5450001060962677e-03" rms="2.0186696946620941e-01" purity="4.6966899186372757e-02" nType="0">
            <Node pos="l" depth="3" NCoef="0" IVar="-1" Cut="0.0000000000000000e+00" cType="1" res="-4.1608978062868118e-03" rms="1.8969212472438812e-01" purity="4.0602881461381912e-02" nType="-99"/>
            <Node pos="r" depth="3" NCoef="0" IVar="-1" Cut="0.0000000000000000e+00" cType="1" res="-3.5033028572797775e-02" rms="2.2713285684585571e-01" purity="6.1951812356710434e-02" nType="-99"/>
          </Node>
          <Node pos="r" depth="2" NCoef="0" IVar="2" Cut="2.1328758448362350e-02" cType="1" res="1.1450768215581775e-04" rms="3.1667268276214600e-01" purity="6.7104798555374146e-01" nType="0">
            <Node pos="l" depth="3" NCoef="0" IVar="-1" Cut="0.0000000000000000e+00" cType="1" res="-6.3043101690709591e-03" rms="3.3025467395782471e-01" purity="3.8691201806068420e-01" nType="-99"/>
            <Node pos="r" depth="3" NCoef="0" IVar="-1" Cut="0.0000000000000000e+00" cType="1" res="3.2082812394946814e-03" rms="3.1083229184150696e-01" purity="7.8855496644973755e-01" nType="-99"/>
          </Node>
        </Node>
      </Node>
    </BinaryTree>
    <BinaryTree type="DecisionTree" boostWeight="1.0000000000000000e+00" itree="351">
      <Node pos="s" depth="0" NCoef="0" IVar="4" Cut="1.3588713073730469e+02" cType="1" res="1.3195332139730453e-03" rms="2.9646354913711548e-01" purity="5.0404125452041626e-01" nType="0">
        <Node pos="l" depth="1" NCoef="0" IVar="5" Cut="1.0306085205078125e+02" cType="1" res="-8.6479010060429573e-03" rms="2.0482690632343292e-01" purity="5.6441720575094223e-02" nType="0">
          <Node pos="l" depth="2" NCoef="0" IVar="6" Cut="6.7575447082519531e+01" cType="1" res="-4.7793206758797169e-03" rms="1.9092103838920593e-01" purity="4.5810546725988388e-02" nType="0">
            <Node pos="l" depth="3" NCoef="0" IVar="-1" Cut="0.0000000000000000e+00" cType="1" res="-3.2517649233341217e-02" rms="1.5121005475521088e-01" purity="2.6914086192846298e-02" nType="-99"/>
            <Node pos="r" depth="3" NCoef="0" IVar="-1" Cut="0.0000000000000000e+00" cType="1" res="1.1564887128770351e-02" rms="2.5777158141136169e-01" purity="8.7802149355411530e-02" nType="-99"/>
          </Node>
          <Node pos="r" depth="2" NCoef="0" IVar="-1" Cut="0.0000000000000000e+00" cType="1" res="-3.3352736383676529e-02" rms="2.6056650280952454e-01" purity="1.0735611617565155e-01" nType="-99"/>
        </Node>
        <Node pos="r" depth="1" NCoef="0" IVar="8" Cut="-1.7333166599273682e+00" cType="1" res="3.2753173727542162e-03" rms="3.1125691533088684e-01" purity="5.9186804294586182e-01" nType="0">
          <Node pos="l" depth="2" NCoef="0" IVar="-1" Cut="0.0000000000000000e+00" cType="1" res="-1.7984509468078613e-02" rms="2.8037205338478088e-01" purity="1.7921200394630432e-01" nType="-99"/>
          <Node pos="r" depth="2" NCoef="0" IVar="8" Cut="-1.3015782833099365e+00" cType="1" res="4.1083069518208504e-03" rms="3.1253513693809509e-01" purity="6.1024254560470581e-01" nType="0">
            <Node pos="l" depth="3" NCoef="0" IVar="-1" Cut="0.0000000000000000e+00" cType="1" res="2.0291524007916451e-02" rms="3.4176394343376160e-01" purity="4.4324627518653870e-01" nType="-99"/>
            <Node pos="r" depth="3" NCoef="0" IVar="-1" Cut="0.0000000000000000e+00" cType="1" res="3.0928368214517832e-03" rms="3.1067612767219543e-01" purity="6.2017244100570679e-01" nType="-99"/>
          </Node>
        </Node>
      </Node>
    </BinaryTree>
    <BinaryTree type="DecisionTree" boostWeight="1.0000000000000000e+00" itree="352">
      <Node pos="s" depth="0" NCoef="0" IVar="2" Cut="8.3595238626003265e-02" cType="1" res="5.4802070371806622e-04" rms="2.9888063669204712e-01" purity="5.0056147575378418e-01" nType="0">
        <Node pos="l" depth="1" NCoef="0" IVar="7" Cut="-3.9356622099876404e-01" cType="1" res="3.2510072924196720e-03" rms="3.0656886100769043e-01" purity="4.0478307008743286e-01" nType="0">
          <Node pos="l" depth="2" NCoef="0" IVar="7" Cut="-1.7621622085571289e+00" cType="1" res="-3.6388689186424017e-03" rms="2.9772755503654480e-01" purity="3.3892121911048889e-01" nType="0">
            <Node pos="l" depth="3" NCoef="0" IVar="-1" Cut="0.0000000000000000e+00" cType="1" res="3.9953388273715973e-02" rms="2.2934165596961975e-01" purity="8.6955547332763672e-02" nType="-99"/>
            <Node pos="r" depth="3" NCoef="0" IVar="-1" Cut="0.0000000000000000e+00" cType="1" res="-6.6726612858474255e-03" rms="3.0584704875946045e-01" purity="3.7363305687904358e-01" nType="-99"/>
          </Node>
          <Node pos="r" depth="2" NCoef="0" IVar="8" Cut="-6.6670817136764526e-01" cType="1" res="6.9509819149971008e-03" rms="3.1115016341209412e-01" purity="4.4015195965766907e-01" nType="0">
            <Node pos="l" depth="3" NCoef="0" IVar="-1" Cut="0.0000000000000000e+00" cType="1" res="1.7959833145141602e-02" rms="3.1568998098373413e-01" purity="3.7927064299583435e-01" nType="-99"/>
            <Node pos="r" depth="3" NCoef="0" IVar="-1" Cut="0.0000000000000000e+00" cType="1" res="3.2058269716799259e-03" rms="3.0935856699943542e-01" purity="4.6270391345024109e-01" nType="-99"/>
          </Node>
        </Node>
        <Node pos="r" depth="1" NCoef="0" IVar="1" Cut="1.3524949951171875e+03" cType="1" res="-8.0830734223127365e-03" rms="2.7270522713661194e-01" purity="8.0639821290969849e-01" nType="0">
          <Node pos="l" depth="2" NCoef="0" IVar="-1" Cut="0.0000000000000000e+00" cType="1" res="-1.7953375354409218e-02" rms="4.0411904454231262e-01" purity="3.5769355297088623e-01" nType="-99"/>
          <Node pos="r" depth="2" NCoef="0" IVar="0" Cut="4.9529367065429688e+02" cType="1" res="-1.6013020649552345e-03" rms="2.1808689832687378e-01" purity="9.4071012735366821e-01" nType="0">
            <Node pos="l" depth="3" NCoef="0" IVar="-1" Cut="0.0000000000000000e+00" cType="1" res="-1.3183911330997944e-02" rms="3.1304123997688293e-01" purity="8.6779302358627319e-01" nType="-99"/>
            <Node pos="r" depth="3" NCoef="0" IVar="-1" Cut="0.0000000000000000e+00" cType="1" res="6.9154109805822372e-03" rms="1.7205470800399780e-01" purity="9.6659636497497559e-01" nType="-99"/>
          </Node>
        </Node>
      </Node>
    </BinaryTree>
    <BinaryTree type="DecisionTree" boostWeight="1.0000000000000000e+00" itree="353">
      <Node pos="s" depth="0" NCoef="0" IVar="7" Cut="-9.2584401369094849e-01" cType="1" res="-1.4240370364859700e-03" rms="2.9714176058769226e-01" purity="4.9967563152313232e-01" nType="0">
        <Node pos="l" depth="1" NCoef="0" IVar="0" Cut="3.9574801635742188e+02" cType="1" res="7.2087873704731464e-03" rms="2.8790563344955444e-01" purity="2.5984317064285278e-01" nType="0">
          <Node pos="l" depth="2" NCoef="0" IVar="10" Cut="4.0005660057067871e-01" cType="1" res="-5.1260776817798615e-03" rms="2.2484453022480011e-01" purity="8.0467589199542999e-02" nType="0">
            <Node pos="l" depth="3" NCoef="0" IVar="-1" Cut="0.0000000000000000e+00" cType="1" res="-3.6411341279745102e-02" rms="2.0260776579380035e-01" purity="6.5516538918018341e-02" nType="-99"/>
            <Node pos="r" depth="3" NCoef="0" IVar="-1" Cut="0.0000000000000000e+00" cType="1" res="4.4324386864900589e-02" rms="2.6084661483764648e-01" purity="1.0979314893484116e-01" nType="-99"/>
          </Node>
          <Node pos="r" depth="2" NCoef="0" IVar="1" Cut="1.5009548339843750e+03" cType="1" res="1.9861113280057907e-02" rms="3.4020626544952393e-01" purity="4.4383534789085388e-01" nType="0">
            <Node pos="l" depth="3" NCoef="0" IVar="-1" Cut="0.0000000000000000e+00" cType="1" res="3.3155776560306549e-02" rms="3.3642926812171936e-01" purity="2.3740828037261963e-01" nType="-99"/>
            <Node pos="r" depth="3" NCoef="0" IVar="-1" Cut="0.0000000000000000e+00" cType="1" res="1.4126745518296957e-03" rms="3.4426695108413696e-01" purity="7.1571737527847290e-01" nType="-99"/>
          </Node>
        </Node>
        <Node pos="r" depth="1" NCoef="0" IVar="5" Cut="1.8540545654296875e+02" cType="1" res="-2.9833256267011166e-03" rms="2.9875296354293823e-01" purity="5.4299491643905640e-01" nType="0">
          <Node pos="l" depth="2" NCoef="0" IVar="5" Cut="8.8718223571777344e+01" cType="1" res="-5.8087939396500587e-03" rms="3.2043620944023132e-01" purity="3.4978938102722168e-01" nType="0">
            <Node pos="l" depth="3" NCoef="0" IVar="-1" Cut="0.0000000000000000e+00" cType="1" res="4.3320665135979652e-03" rms="2.5395566225051880e-01" purity="1.1754048615694046e-01" nType="-99"/>
            <Node pos="r" depth="3" NCoef="0" IVar="-1" Cut="0.0000000000000000e+00" cType="1" res="-7.5699524022638798e-03" rms="3.4326836466789246e-01" purity="4.4219809770584106e-01" nType="-99"/>
          </Node>
          <Node pos="r" depth="2" NCoef="0" IVar="9" Cut="-3.9971977472305298e-01" cType="1" res="1.9438666058704257e-03" rms="2.5651934742927551e-01" purity="8.7991636991500854e-01" nType="0">
            <Node pos="l" depth="3" NCoef="0" IVar="-1" Cut="0.0000000000000000e+00" cType="1" res="-7.7049997635185719e-03" rms="2.6661610603332520e-01" purity="8.5599517822265625e-01" nType="-99"/>
            <Node pos="r" depth="3" NCoef="0" IVar="-1" Cut="0.0000000000000000e+00" cType="1" res="8.3730798214673996e-03" rms="2.5163048505783081e-01" purity="8.9099580049514771e-01" nType="-99"/>
          </Node>
        </Node>
      </Node>
    </BinaryTree>
    <BinaryTree type="DecisionTree" boostWeight="1.0000000000000000e+00" itree="354">
      <Node pos="s" depth="0" NCoef="0" IVar="9" Cut="-1.7333347797393799e+00" cType="1" res="-1.0767579078674316e-04" rms="2.9829910397529602e-01" purity="4.9856525659561157e-01" nType="0">
        <Node pos="l" depth="1" NCoef="0" IVar="5" Cut="1.2039553070068359e+02" cType="1" res="-1.6539083793759346e-02" rms="2.7667498588562012e-01" purity="2.3693205416202545e-01" nType="0">
          <Node pos="l" depth="2" NCoef="0" IVar="-1" Cut="0.0000000000000000e+00" cType="1" res="-4.4649500399827957e-02" rms="2.0974692702293396e-01" purity="7.9399131238460541e-02" nType="-99"/>
          <Node pos="r" depth="2" NCoef="0" IVar="-1" Cut="0.0000000000000000e+00" cType="1" res="-2.4820370599627495e-03" rms="3.4654366970062256e-01" purity="4.4918394088745117e-01" nType="-99"/>
        </Node>
        <Node pos="r" depth="1" NCoef="0" IVar="7" Cut="1.2031272649765015e+00" cType="1" res="1.0389441158622503e-03" rms="2.9971623420715332e-01" purity="5.1682257652282715e-01" nType="0">
          <Node pos="l" depth="2" NCoef="0" IVar="8" Cut="1.3331982493400574e-01" cType="1" res="-1.9055108714383096e-04" rms="3.0341818928718567e-01" purity="5.5216771364212036e-01" nType="0">
            <Node pos="l" depth="3" NCoef="0" IVar="-1" Cut="0.0000000000000000e+00" cType="1" res="-4.5205084607005119e-03" rms="2.9930350184440613e-01" purity="5.6206250190734863e-01" nType="-99"/>
            <Node pos="r" depth="3" NCoef="0" IVar="-1" Cut="0.0000000000000000e+00" cType="1" res="4.9750851467251778e-03" rms="3.0838483572006226e-01" purity="5.3987652063369751e-01" nType="-99"/>
          </Node>
          <Node pos="r" depth="2" NCoef="0" IVar="5" Cut="1.5583692932128906e+02" cType="1" res="1.2079794891178608e-02" rms="2.6390141248703003e-01" purity="1.9942402839660645e-01" nType="0">
            <Node pos="l" depth="3" NCoef="0" IVar="-1" Cut="0.0000000000000000e+00" cType="1" res="4.3234159238636494e-03" rms="2.2289974987506866e-01" purity="7.2311498224735260e-02" nType="-99"/>
            <Node pos="r" depth="3" NCoef="0" IVar="-1" Cut="0.0000000000000000e+00" cType="1" res="3.0112043023109436e-02" rms="3.4825310111045837e-01" purity="5.3439098596572876e-01" nType="-99"/>
          </Node>
        </Node>
      </Node>
    </BinaryTree>
    <BinaryTree type="DecisionTree" boostWeight="1.0000000000000000e+00" itree="355">
      <Node pos="s" depth="0" NCoef="0" IVar="10" Cut="-1.1999682188034058e+00" cType="1" res="-8.1007141852751374e-04" rms="2.9960456490516663e-01" purity="4.9514195322990417e-01" nType="0">
        <Node pos="l" depth="1" NCoef="0" IVar="7" Cut="-6.5121573209762573e-01" cType="1" res="-9.4252042472362518e-03" rms="2.9455742239952087e-01" purity="4.1307085752487183e-01" nType="0">
          <Node pos="l" depth="2" NCoef="0" IVar="9" Cut="-4.0185531973838806e-01" cType="1" res="1.8352767219766974e-03" rms="2.8006038069725037e-01" purity="2.8247016668319702e-01" nType="0">
            <Node pos="l" depth="3" NCoef="0" IVar="-1" Cut="0.0000000000000000e+00" cType="1" res="-9.5745641738176346e-03" rms="2.5796845555305481e-01" purity="2.1647566556930542e-01" nType="-99"/>
            <Node pos="r" depth="3" NCoef="0" IVar="-1" Cut="0.0000000000000000e+00" cType="1" res="1.0941825807094574e-02" rms="2.9869061708450317e-01" purity="3.4309563040733337e-01" nType="-99"/>
          </Node>
          <Node pos="r" depth="2" NCoef="0" IVar="10" Cut="-1.7333316802978516e+00" cType="1" res="-1.4261110685765743e-02" rms="3.0043923854827881e-01" purity="4.6915841102600098e-01" nType="0">
            <Node pos="l" depth="3" NCoef="0" IVar="-1" Cut="0.0000000000000000e+00" cType="1" res="-4.7462680377066135e-03" rms="3.0515727400779724e-01" purity="4.1525036096572876e-01" nType="-99"/>
            <Node pos="r" depth="3" NCoef="0" IVar="-1" Cut="0.0000000000000000e+00" cType="1" res="-2.4828413501381874e-02" rms="2.9556214809417725e-01" purity="5.2067214250564575e-01" nType="-99"/>
          </Node>
        </Node>
        <Node pos="r" depth="1" NCoef="0" IVar="7" Cut="-1.0799809545278549e-01" cType="1" res="1.0333214886486530e-03" rms="3.0064144730567932e-01" purity="5.1270282268524170e-01" nType="0">
          <Node pos="l" depth="2" NCoef="0" IVar="1" Cut="1.0999031982421875e+03" cType="1" res="-2.9581401031464338e-03" rms="2.9939800500869751e-01" purity="4.9753075838088989e-01" nType="0">
            <Node pos="l" depth="3" NCoef="0" IVar="-1" Cut="0.0000000000000000e+00" cType="1" res="1.5988411381840706e-02" rms="2.1290262043476105e-01" purity="5.6725077331066132e-02" nType="-99"/>
            <Node pos="r" depth="3" NCoef="0" IVar="-1" Cut="0.0000000000000000e+00" cType="1" res="-5.9607061557471752e-03" rms="3.2289606332778931e-01" purity="6.4342385530471802e-01" nType="-99"/>
          </Node>
          <Node pos="r" depth="2" NCoef="0" IVar="10" Cut="2.0380923748016357e+00" cType="1" res="4.1410713456571102e-03" rms="3.0156949162483215e-01" purity="5.2451580762863159e-01" nType="0">
            <Node pos="l" depth="3" NCoef="0" IVar="-1" Cut="0.0000000000000000e+00" cType="1" res="2.7647824026644230e-03" rms="2.9906135797500610e-01" purity="5.3591042757034302e-01" nType="-99"/>
            <Node pos="r" depth="3" NCoef="0" IVar="-1" Cut="0.0000000000000000e+00" cType="1" res="3.0361345037817955e-02" rms="3.3603066205978394e-01" purity="3.5325831174850464e-01" nType="-99"/>
          </Node>
        </Node>
      </Node>
    </BinaryTree>
    <BinaryTree type="DecisionTree" boostWeight="1.0000000000000000e+00" itree="356">
      <Node pos="s" depth="0" NCoef="0" IVar="4" Cut="1.4608894348144531e+02" cType="1" res="1.0099429637193680e-03" rms="2.9679650068283081e-01" purity="5.0346237421035767e-01" nType="0">
        <Node pos="l" depth="1" NCoef="0" IVar="10" Cut="1.4668115377426147e+00" cType="1" res="1.1495761573314667e-02" rms="2.4227045476436615e-01" purity="9.0981543064117432e-02" nType="0">
          <Node pos="l" depth="2" NCoef="0" IVar="10" Cut="-1.3773086071014404e+00" cType="1" res="7.3757632635533810e-03" rms="2.3720678687095642e-01" purity="8.6557760834693909e-02" nType="0">
            <Node pos="l" depth="3" NCoef="0" IVar="-1" Cut="0.0000000000000000e+00" cType="1" res="-1.7600132152438164e-02" rms="2.0260965824127197e-01" purity="5.4388791322708130e-02" nType="-99"/>
            <Node pos="r" depth="3" NCoef="0" IVar="-1" Cut="0.0000000000000000e+00" cType="1" res="2.0442919805645943e-02" rms="2.4480171501636505e-01" purity="9.4449907541275024e-02" nType="-99"/>
          </Node>
          <Node pos="r" depth="2" NCoef="0" IVar="-1" Cut="0.0000000000000000e+00" cType="1" res="6.1040949076414108e-02" rms="2.6677405834197998e-01" purity="1.1476929485797882e-01" nType="-99"/>
        </Node>
        <Node pos="r" depth="1" NCoef="0" IVar="10" Cut="1.4667061567306519e+00" cType="1" res="-1.6395569546148181e-03" rms="3.0899882316589355e-01" purity="6.0768580436706543e-01" nType="0">
          <Node pos="l" depth="2" NCoef="0" IVar="10" Cut="-1.9870922565460205e+00" cType="1" res="1.6050190606620163e-04" rms="3.0790090560913086e-01" purity="6.2205356359481812e-01" nType="0">
            <Node pos="l" depth="3" NCoef="0" IVar="-1" Cut="0.0000000000000000e+00" cType="1" res="1.7741385847330093e-02" rms="3.4722560644149780e-01" purity="4.5198711752891541e-01" nType="-99"/>
            <Node pos="r" depth="3" NCoef="0" IVar="-1" Cut="0.0000000000000000e+00" cType="1" res="-9.7834446933120489e-04" rms="3.0548632144927979e-01" purity="6.3168251514434814e-01" nType="-99"/>
          </Node>
          <Node pos="r" depth="2" NCoef="0" IVar="0" Cut="5.2279699707031250e+02" cType="1" res="-1.5637744218111038e-02" rms="3.1705859303474426e-01" purity="4.9595451354980469e-01" nType="0">
            <Node pos="l" depth="3" NCoef="0" IVar="-1" Cut="0.0000000000000000e+00" cType="1" res="-2.4377832189202309e-02" rms="3.3047676086425781e-01" purity="2.7150931954383850e-01" nType="-99"/>
            <Node pos="r" depth="3" NCoef="0" IVar="-1" Cut="0.0000000000000000e+00" cType="1" res="3.7478995509445667e-03" rms="2.9464447498321533e-01" purity="8.3476066589355469e-01" nType="-99"/>
          </Node>
        </Node>
      </Node>
    </BinaryTree>
    <BinaryTree type="DecisionTree" boostWeight="1.0000000000000000e+00" itree="357">
      <Node pos="s" depth="0" NCoef="0" IVar="3" Cut="3.3679052734375000e+02" cType="1" res="2.0800686907023191e-03" rms="2.9914489388465881e-01" purity="5.0278723239898682e-01" nType="0">
        <Node pos="l" depth="1" NCoef="0" IVar="1" Cut="1.2022028808593750e+03" cType="1" res="-2.5012537371367216e-03" rms="3.0208474397659302e-01" purity="2.6073503494262695e-01" nType="0">
          <Node pos="l" depth="2" NCoef="0" IVar="3" Cut="3.0421258544921875e+02" cType="1" res="1.9979991484433413e-03" rms="2.6677116751670837e-01" purity="9.6061229705810547e-02" nType="0">
            <Node pos="l" depth="3" NCoef="0" IVar="-1" Cut="0.0000000000000000e+00" cType="1" res="-2.2168690338730812e-03" rms="2.6273152232170105e-01" purity="9.2582285404205322e-02" nType="-99"/>
            <Node pos="r" depth="3" NCoef="0" IVar="-1" Cut="0.0000000000000000e+00" cType="1" res="2.4895563721656799e-02" rms="2.8327378630638123e-01" purity="1.1130635440349579e-01" nType="-99"/>
          </Node>
          <Node pos="r" depth="2" NCoef="0" IVar="6" Cut="9.8253456115722656e+01" cType="1" res="-1.3380491174757481e-02" rms="3.7371337413787842e-01" purity="6.5891796350479126e-01" nType="0">
            <Node pos="l" depth="3" NCoef="0" IVar="-1" Cut="0.0000000000000000e+00" cType="1" res="-2.0550552755594254e-02" rms="4.1842678189277649e-01" purity="4.7324374318122864e-01" nType="-99"/>
            <Node pos="r" depth="3" NCoef="0" IVar="-1" Cut="0.0000000000000000e+00" cType="1" res="-3.3399187959730625e-03" rms="3.5354337096214294e-01" purity="7.3427075147628784e-01" nType="-99"/>
          </Node>
        </Node>
        <Node pos="r" depth="1" NCoef="0" IVar="7" Cut="-1.1478945016860962e+00" cType="1" res="4.5240311883389950e-03" rms="2.9753586649894714e-01" purity="6.3191288709640503e-01" nType="0">
          <Node pos="l" depth="2" NCoef="0" IVar="-1" Cut="0.0000000000000000e+00" cType="1" res="-2.2565698251128197e-02" rms="2.5934481620788574e-01" purity="2.5231358408927917e-01" nType="-99"/>
          <Node pos="r" depth="2" NCoef="0" IVar="2" Cut="4.2633190751075745e-02" cType="1" res="6.4020431600511074e-03" rms="3.0044662952423096e-01" purity="6.6379195451736450e-01" nType="0">
            <Node pos="l" depth="3" NCoef="0" IVar="-1" Cut="0.0000000000000000e+00" cType="1" res="1.0511077940464020e-02" rms="3.2776296138763428e-01" purity="4.8772028088569641e-01" nType="-99"/>
            <Node pos="r" depth="3" NCoef="0" IVar="-1" Cut="0.0000000000000000e+00" cType="1" res="1.8978609004989266e-03" rms="2.6878982782363892e-01" purity="8.4818434715270996e-01" nType="-99"/>
          </Node>
        </Node>
      </Node>
    </BinaryTree>
    <BinaryTree type="DecisionTree" boostWeight="1.0000000000000000e+00" itree="358">
      <Node pos="s" depth="0" NCoef="0" IVar="9" Cut="-1.2000033855438232e+00" cType="1" res="-2.9768019448965788e-03" rms="2.9780182242393494e-01" purity="4.9851211905479431e-01" nType="0">
        <Node pos="l" depth="1" NCoef="0" IVar="4" Cut="1.3012011718750000e+02" cType="1" res="7.9434067010879517e-03" rms="3.0436402559280396e-01" purity="3.5924726724624634e-01" nType="0">
          <Node pos="l" depth="2" NCoef="0" IVar="-1" Cut="0.0000000000000000e+00" cType="1" res="-3.4616287797689438e-02" rms="1.5761989355087280e-01" purity="4.0534518659114838e-02" nType="-99"/>
          <Node pos="r" depth="2" NCoef="0" IVar="8" Cut="-9.3347960710525513e-01" cType="1" res="1.3417984358966351e-02" rms="3.3145397901535034e-01" purity="4.4091337919235229e-01" nType="0">
            <Node pos="l" depth="3" NCoef="0" IVar="-1" Cut="0.0000000000000000e+00" cType="1" res="-1.6158357262611389e-02" rms="3.0007672309875488e-01" purity="2.6185244321823120e-01" nType="-99"/>
            <Node pos="r" depth="3" NCoef="0" IVar="-1" Cut="0.0000000000000000e+00" cType="1" res="1.9666068255901337e-02" rms="3.3948281407356262e-01" purity="4.9242481589317322e-01" nType="-99"/>
          </Node>
        </Node>
        <Node pos="r" depth="1" NCoef="0" IVar="2" Cut="8.5314445197582245e-02" cType="1" res="-4.9127242527902126e-03" rms="2.9658138751983643e-01" purity="5.2320086956024170e-01" nType="0">
          <Node pos="l" depth="2" NCoef="0" IVar="0" Cut="8.5617529296875000e+02" cType="1" res="-7.9331798478960991e-03" rms="3.0246022343635559e-01" purity="4.2345616221427917e-01" nType="0">
            <Node pos="l" depth="3" NCoef="0" IVar="-1" Cut="0.0000000000000000e+00" cType="1" res="-9.4075705856084824e-03" rms="3.0995640158653259e-01" purity="3.7186104059219360e-01" nType="-99"/>
            <Node pos="r" depth="3" NCoef="0" IVar="-1" Cut="0.0000000000000000e+00" cType="1" res="8.5701467469334602e-03" rms="2.1296989917755127e-01" purity="9.4006937742233276e-01" nType="-99"/>
          </Node>
          <Node pos="r" depth="2" NCoef="0" IVar="1" Cut="1.3526092529296875e+03" cType="1" res="4.1125365532934666e-03" rms="2.7808073163032532e-01" purity="8.2124257087707520e-01" nType="0">
            <Node pos="l" depth="3" NCoef="0" IVar="-1" Cut="0.0000000000000000e+00" cType="1" res="1.1326817795634270e-02" rms="4.2344519495964050e-01" purity="4.2621424794197083e-01" nType="-99"/>
            <Node pos="r" depth="3" NCoef="0" IVar="-1" Cut="0.0000000000000000e+00" cType="1" res="-1.8261489458382130e-03" rms="2.1316528320312500e-01" purity="9.4437396526336670e-01" nType="-99"/>
          </Node>
        </Node>
      </Node>
    </BinaryTree>
    <BinaryTree type="DecisionTree" boostWeight="1.0000000000000000e+00" itree="359">
      <Node pos="s" depth="0" NCoef="0" IVar="9" Cut="1.4665949344635010e+00" cType="1" res="1.7934069037437439e-03" rms="2.9689270257949829e-01" purity="5.0404757261276245e-01" nType="0">
        <Node pos="l" depth="1" NCoef="0" IVar="9" Cut="1.2634180784225464e+00" cType="1" res="4.0917305159382522e-04" rms="2.9582116007804871e-01" purity="5.2570068836212158e-01" nType="0">
          <Node pos="l" depth="2" NCoef="0" IVar="10" Cut="4.0003347396850586e-01" cType="1" res="1.0678325779736042e-03" rms="2.9592639207839966e-01" purity="5.2966368198394775e-01" nType="0">
            <Node pos="l" depth="3" NCoef="0" IVar="-1" Cut="0.0000000000000000e+00" cType="1" res="4.1849147528409958e-03" rms="2.9742103815078735e-01" purity="5.3119319677352905e-01" nType="-99"/>
            <Node pos="r" depth="3" NCoef="0" IVar="-1" Cut="0.0000000000000000e+00" cType="1" res="-3.9278003387153149e-03" rms="2.9332348704338074e-01" purity="5.2707529067993164e-01" nType="-99"/>
          </Node>
          <Node pos="r" depth="2" NCoef="0" IVar="-1" Cut="0.0000000000000000e+00" cType="1" res="-1.7243979498744011e-02" rms="2.9267004132270813e-01" purity="4.2589929699897766e-01" nType="-99"/>
        </Node>
        <Node pos="r" depth="1" NCoef="0" IVar="2" Cut="3.7713769823312759e-02" cType="1" res="1.3609529472887516e-02" rms="3.0563178658485413e-01" purity="3.1921207904815674e-01" nType="0">
          <Node pos="l" depth="2" NCoef="0" IVar="2" Cut="1.6162259504199028e-02" cType="1" res="2.6931846514344215e-03" rms="2.7477857470512390e-01" purity="1.7388023436069489e-01" nType="0">
            <Node pos="l" depth="3" NCoef="0" IVar="-1" Cut="0.0000000000000000e+00" cType="1" res="2.2018276154994965e-02" rms="2.5124961137771606e-01" purity="1.1889127641916275e-01" nType="-99"/>
            <Node pos="r" depth="3" NCoef="0" IVar="-1" Cut="0.0000000000000000e+00" cType="1" res="-1.3294979929924011e-02" rms="3.0796152353286743e-01" purity="2.6168575882911682e-01" nType="-99"/>
          </Node>
          <Node pos="r" depth="2" NCoef="0" IVar="-1" Cut="0.0000000000000000e+00" cType="1" res="2.6223452761769295e-02" rms="3.4957608580589294e-01" purity="5.5705726146697998e-01" nType="-99"/>
        </Node>
      </Node>
    </BinaryTree>
    <BinaryTree type="DecisionTree" boostWeight="1.0000000000000000e+00" itree="360">
      <Node pos="s" depth="0" NCoef="0" IVar="9" Cut="1.9999856948852539e+00" cType="1" res="1.0148193687200546e-03" rms="3.0006745457649231e-01" purity="5.0070589780807495e-01" nType="0">
        <Node pos="l" depth="1" NCoef="0" IVar="7" Cut="1.4693398475646973e+00" cType="1" res="2.6492559118196368e-04" rms="3.0027756094932556e-01" purity="5.1244866847991943e-01" nType="0">
          <Node pos="l" depth="2" NCoef="0" IVar="7" Cut="-1.3690242767333984e+00" cType="1" res="-6.8225618451833725e-04" rms="3.0331423878669739e-01" purity="5.3649288415908813e-01" nType="0">
            <Node pos="l" depth="3" NCoef="0" IVar="-1" Cut="0.0000000000000000e+00" cType="1" res="2.3353865370154381e-02" rms="2.6158511638641357e-01" purity="1.5261963009834290e-01" nType="-99"/>
            <Node pos="r" depth="3" NCoef="0" IVar="-1" Cut="0.0000000000000000e+00" cType="1" res="-1.9832360558211803e-03" rms="3.0644628405570984e-01" purity="5.6789821386337280e-01" nType="-99"/>
          </Node>
          <Node pos="r" depth="2" NCoef="0" IVar="5" Cut="1.1251309967041016e+02" cType="1" res="1.4971172437071800e-02" rms="2.4794761836528778e-01" purity="1.3913074135780334e-01" nType="0">
            <Node pos="l" depth="3" NCoef="0" IVar="-1" Cut="0.0000000000000000e+00" cType="1" res="-1.0315631516277790e-02" rms="1.4752365648746490e-01" purity="2.2752288728952408e-02" nType="-99"/>
            <Node pos="r" depth="3" NCoef="0" IVar="-1" Cut="0.0000000000000000e+00" cType="1" res="3.5009831190109253e-02" rms="3.2228657603263855e-01" purity="2.6531627774238586e-01" nType="-99"/>
          </Node>
        </Node>
        <Node pos="r" depth="1" NCoef="0" IVar="-1" Cut="0.0000000000000000e+00" cType="1" res="2.1761110052466393e-02" rms="2.9473507404327393e-01" purity="2.3369638621807098e-01" nType="-99"/>
      </Node>
    </BinaryTree>
    <BinaryTree type="DecisionTree" boostWeight="1.0000000000000000e+00" itree="361">
      <Node pos="s" depth="0" NCoef="0" IVar="10" Cut="-1.9999375343322754e+00" cType="1" res="8.7219150736927986e-04" rms="2.9684215784072876e-01" purity="5.0343912839889526e-01" nType="0">
        <Node pos="l" depth="1" NCoef="0" IVar="-1" Cut="0.0000000000000000e+00" cType="1" res="-2.4155840277671814e-02" rms="2.8196766972541809e-01" purity="3.0869802832603455e-01" nType="-99"/>
        <Node pos="r" depth="1" NCoef="0" IVar="2" Cut="4.2657386511564255e-02" cType="1" res="2.0397244952619076e-03" rms="2.9755732417106628e-01" purity="5.1367193460464478e-01" nType="0">
          <Node pos="l" depth="2" NCoef="0" IVar="10" Cut="-6.2852007150650024e-01" cType="1" res="-2.1914518438279629e-03" rms="2.9670959711074829e-01" purity="3.2861405611038208e-01" nType="0">
            <Node pos="l" depth="3" NCoef="0" IVar="-1" Cut="0.0000000000000000e+00" cType="1" res="-1.5177245251834393e-02" rms="2.9210814833641052e-01" purity="2.8931978344917297e-01" nType="-99"/>
            <Node pos="r" depth="3" NCoef="0" IVar="-1" Cut="0.0000000000000000e+00" cType="1" res="2.3090140894055367e-03" rms="2.9827049374580383e-01" purity="3.4305891394615173e-01" nType="-99"/>
          </Node>
          <Node pos="r" depth="2" NCoef="0" IVar="2" Cut="6.1954703181982040e-02" cType="1" res="7.1470234543085098e-03" rms="2.9849746823310852e-01" purity="7.3704850673675537e-01" nType="0">
            <Node pos="l" depth="3" NCoef="0" IVar="-1" Cut="0.0000000000000000e+00" cType="1" res="2.0867891609668732e-02" rms="3.3159214258193970e-01" purity="6.0929763317108154e-01" nType="-99"/>
            <Node pos="r" depth="3" NCoef="0" IVar="-1" Cut="0.0000000000000000e+00" cType="1" res="2.3414765018969774e-03" rms="2.8619828820228577e-01" purity="7.8045934438705444e-01" nType="-99"/>
          </Node>
        </Node>
      </Node>
    </BinaryTree>
    <BinaryTree type="DecisionTree" boostWeight="1.0000000000000000e+00" itree="362">
      <Node pos="s" depth="0" NCoef="0" IVar="9" Cut="1.4666531085968018e+00" cType="1" res="2.1488603670150042e-03" rms="2.9868602752685547e-01" purity="5.0385701656341553e-01" nType="0">
        <Node pos="l" depth="1" NCoef="0" IVar="8" Cut="-1.1999636888504028e+00" cType="1" res="3.5222861915826797e-03" rms="2.9964354634284973e-01" purity="5.2757316827774048e-01" nType="0">
          <Node pos="l" depth="2" NCoef="0" IVar="4" Cut="2.1589292907714844e+02" cType="1" res="-7.9571194946765900e-03" rms="2.8867763280868530e-01" purity="2.7391880750656128e-01" nType="0">
            <Node pos="l" depth="3" NCoef="0" IVar="-1" Cut="0.0000000000000000e+00" cType="1" res="1.4756213640794158e-03" rms="2.6295986771583557e-01" purity="1.3898006081581116e-01" nType="-99"/>
            <Node pos="r" depth="3" NCoef="0" IVar="-1" Cut="0.0000000000000000e+00" cType="1" res="-1.9880045205354691e-02" rms="3.2688772678375244e-01" purity="5.0111782550811768e-01" nType="-99"/>
          </Node>
          <Node pos="r" depth="2" NCoef="0" IVar="10" Cut="9.3337565660476685e-01" cType="1" res="5.1753101870417595e-03" rms="3.0115371942520142e-01" purity="5.6409919261932373e-01" nType="0">
            <Node pos="l" depth="3" NCoef="0" IVar="-1" Cut="0.0000000000000000e+00" cType="1" res="3.2681943848729134e-03" rms="2.9778373241424561e-01" purity="5.7747989892959595e-01" nType="-99"/>
            <Node pos="r" depth="3" NCoef="0" IVar="-1" Cut="0.0000000000000000e+00" cType="1" res="1.3613294810056686e-02" rms="3.1175467371940613e-01" purity="5.2056658267974854e-01" nType="-99"/>
          </Node>
        </Node>
        <Node pos="r" depth="1" NCoef="0" IVar="10" Cut="-6.6617161035537720e-01" cType="1" res="-9.8677044734358788e-03" rms="2.8989613056182861e-01" purity="2.9635635018348694e-01" nType="0">
          <Node pos="l" depth="2" NCoef="0" IVar="-1" Cut="0.0000000000000000e+00" cType="1" res="-3.4149669110774994e-02" rms="2.8080341219902039e-01" purity="2.4060690402984619e-01" nType="-99"/>
          <Node pos="r" depth="2" NCoef="0" IVar="5" Cut="1.1248183441162109e+02" cType="1" res="-2.7963521424680948e-03" rms="2.9242122173309326e-01" purity="3.1435459852218628e-01" nType="0">
            <Node pos="l" depth="3" NCoef="0" IVar="-1" Cut="0.0000000000000000e+00" cType="1" res="-3.0432175844907761e-02" rms="2.1447809040546417e-01" purity="1.0319136828184128e-01" nType="-99"/>
            <Node pos="r" depth="3" NCoef="0" IVar="-1" Cut="0.0000000000000000e+00" cType="1" res="9.7832866013050079e-03" rms="3.4734931588172913e-01" purity="5.0449967384338379e-01" nType="-99"/>
          </Node>
        </Node>
      </Node>
    </BinaryTree>
    <BinaryTree type="DecisionTree" boostWeight="1.0000000000000000e+00" itree="363">
      <Node pos="s" depth="0" NCoef="0" IVar="10" Cut="4.0002498030662537e-01" cType="1" res="-1.7835977487266064e-03" rms="2.9688668251037598e-01" purity="4.9912118911743164e-01" nType="0">
        <Node pos="l" depth="1" NCoef="0" IVar="10" Cut="2.4762780964374542e-01" cType="1" res="1.8629503902047873e-03" rms="2.9940390586853027e-01" purity="5.1133126020431519e-01" nType="0">
          <Node pos="l" depth="2" NCoef="0" IVar="8" Cut="-1.4666310548782349e+00" cType="1" res="5.7399884099140763e-04" rms="2.9947793483734131e-01" purity="5.0477474927902222e-01" nType="0">
            <Node pos="l" depth="3" NCoef="0" IVar="-1" Cut="0.0000000000000000e+00" cType="1" res="1.4621396549046040e-02" rms="2.7421584725379944e-01" purity="2.1675561368465424e-01" nType="-99"/>
            <Node pos="r" depth="3" NCoef="0" IVar="-1" Cut="0.0000000000000000e+00" cType="1" res="-6.7201204365119338e-04" rms="3.0205324292182922e-01" purity="5.3585231304168701e-01" nType="-99"/>
          </Node>
          <Node pos="r" depth="2" NCoef="0" IVar="-1" Cut="0.0000000000000000e+00" cType="1" res="1.9200919196009636e-02" rms="2.9808929562568665e-01" purity="5.8957993984222412e-01" nType="-99"/>
        </Node>
        <Node pos="r" depth="1" NCoef="0" IVar="9" Cut="-1.4667724370956421e+00" cType="1" res="-7.6661361381411552e-03" rms="2.9268455505371094e-01" purity="4.7942408919334412e-01" nType="0">
          <Node pos="l" depth="2" NCoef="0" IVar="-1" Cut="0.0000000000000000e+00" cType="1" res="-4.2748428881168365e-02" rms="2.7798014879226685e-01" purity="2.6933461427688599e-01" nType="-99"/>
          <Node pos="r" depth="2" NCoef="0" IVar="0" Cut="5.5288708496093750e+02" cType="1" res="-4.9384958110749722e-03" rms="2.9385271668434143e-01" purity="4.9878615140914917e-01" nType="0">
            <Node pos="l" depth="3" NCoef="0" IVar="-1" Cut="0.0000000000000000e+00" cType="1" res="-8.5817193612456322e-03" rms="3.0896157026290894e-01" purity="3.0587238073348999e-01" nType="-99"/>
            <Node pos="r" depth="3" NCoef="0" IVar="-1" Cut="0.0000000000000000e+00" cType="1" res="2.8343012090772390e-03" rms="2.6169231534004211e-01" purity="8.7574541568756104e-01" nType="-99"/>
          </Node>
        </Node>
      </Node>
    </BinaryTree>
    <BinaryTree type="DecisionTree" boostWeight="1.0000000000000000e+00" itree="364">
      <Node pos="s" depth="0" NCoef="0" IVar="2" Cut="4.1834022849798203e-02" cType="1" res="-1.3694879598915577e-03" rms="2.9796546697616577e-01" purity="4.9840351939201355e-01" nType="0">
        <Node pos="l" depth="1" NCoef="0" IVar="0" Cut="4.5299749755859375e+02" cType="1" res="2.6886602863669395e-03" rms="2.9857671260833740e-01" purity="3.1856799125671387e-01" nType="0">
          <Node pos="l" depth="2" NCoef="0" IVar="3" Cut="5.4875732421875000e+02" cType="1" res="8.6190896108746529e-03" rms="2.6958927512168884e-01" purity="1.3258956372737885e-01" nType="0">
            <Node pos="l" depth="3" NCoef="0" IVar="-1" Cut="0.0000000000000000e+00" cType="1" res="8.3944732323288918e-03" rms="2.5860118865966797e-01" purity="1.1388843506574631e-01" nType="-99"/>
            <Node pos="r" depth="3" NCoef="0" IVar="-1" Cut="0.0000000000000000e+00" cType="1" res="3.1452115625143051e-02" rms="3.5791388154029846e-01" purity="3.1461867690086365e-01" nType="-99"/>
          </Node>
          <Node pos="r" depth="2" NCoef="0" IVar="2" Cut="1.1952497996389866e-02" cType="1" res="-6.3489885069429874e-03" rms="3.3780416846275330e-01" purity="6.0198897123336792e-01" nType="0">
            <Node pos="l" depth="3" NCoef="0" IVar="-1" Cut="0.0000000000000000e+00" cType="1" res="2.3225964978337288e-03" rms="3.4425443410873413e-01" purity="4.5255562663078308e-01" nType="-99"/>
            <Node pos="r" depth="3" NCoef="0" IVar="-1" Cut="0.0000000000000000e+00" cType="1" res="-1.0586510412395000e-02" rms="3.3377534151077271e-01" purity="6.9117140769958496e-01" nType="-99"/>
          </Node>
        </Node>
        <Node pos="r" depth="1" NCoef="0" IVar="1" Cut="1.5239709472656250e+03" cType="1" res="-6.2803775072097778e-03" rms="2.9714998602867126e-01" purity="7.1602803468704224e-01" nType="0">
          <Node pos="l" depth="2" NCoef="0" IVar="0" Cut="4.8571893310546875e+02" cType="1" res="-1.8628869205713272e-02" rms="3.8125604391098022e-01" purity="3.9788904786109924e-01" nType="0">
            <Node pos="l" depth="3" NCoef="0" IVar="-1" Cut="0.0000000000000000e+00" cType="1" res="-9.8187606781721115e-03" rms="3.7275767326354980e-01" purity="3.4644362330436707e-01" nType="-99"/>
            <Node pos="r" depth="3" NCoef="0" IVar="-1" Cut="0.0000000000000000e+00" cType="1" res="-2.4205937981605530e-02" rms="4.1938427090644836e-01" purity="6.4728897809982300e-01" nType="-99"/>
          </Node>
          <Node pos="r" depth="2" NCoef="0" IVar="9" Cut="9.3120169639587402e-01" cType="1" res="2.5047785602509975e-03" rms="2.1798923611640930e-01" purity="9.4236338138580322e-01" nType="0">
            <Node pos="l" depth="3" NCoef="0" IVar="-1" Cut="0.0000000000000000e+00" cType="1" res="1.9805779447779059e-04" rms="2.0953896641731262e-01" purity="9.4633430242538452e-01" nType="-99"/>
            <Node pos="r" depth="3" NCoef="0" IVar="-1" Cut="0.0000000000000000e+00" cType="1" res="2.1277157589793205e-02" rms="2.5479975342750549e-01" purity="9.2305070161819458e-01" nType="-99"/>
          </Node>
        </Node>
      </Node>
    </BinaryTree>
    <BinaryTree type="DecisionTree" boostWeight="1.0000000000000000e+00" itree="365">
      <Node pos="s" depth="0" NCoef="0" IVar="9" Cut="-9.3332618474960327e-01" cType="1" res="7.5871229637414217e-04" rms="3.0068635940551758e-01" purity="4.9854549765586853e-01" nType="0">
        <Node pos="l" depth="1" NCoef="0" IVar="4" Cut="3.3807775878906250e+02" cType="1" res="9.8614161834120750e-03" rms="3.1150919198989868e-01" purity="4.0225586295127869e-01" nType="0">
          <Node pos="l" depth="2" NCoef="0" IVar="9" Cut="-1.1111162900924683e+00" cType="1" res="1.3981108553707600e-02" rms="3.1268981099128723e-01" purity="3.3737382292747498e-01" nType="0">
            <Node pos="l" depth="3" NCoef="0" IVar="-1" Cut="0.0000000000000000e+00" cType="1" res="8.1161614507436752e-03" rms="3.0556666851043701e-01" purity="3.0061891674995422e-01" nType="-99"/>
            <Node pos="r" depth="3" NCoef="0" IVar="-1" Cut="0.0000000000000000e+00" cType="1" res="4.0290758013725281e-02" rms="3.3860626816749573e-01" purity="4.8573365807533264e-01" nType="-99"/>
          </Node>
          <Node pos="r" depth="2" NCoef="0" IVar="-1" Cut="0.0000000000000000e+00" cType="1" res="-1.5516754239797592e-02" rms="3.0359330773353577e-01" purity="7.7347570657730103e-01" nType="-99"/>
        </Node>
        <Node pos="r" depth="1" NCoef="0" IVar="9" Cut="-3.9999440312385559e-01" cType="1" res="-1.6767935594543815e-03" rms="2.9767671227455139e-01" purity="5.2430862188339233e-01" nType="0">
          <Node pos="l" depth="2" NCoef="0" IVar="7" Cut="7.0646941661834717e-01" cType="1" res="-1.0867715813219547e-02" rms="3.0000540614128113e-01" purity="5.5376517772674561e-01" nType="0">
            <Node pos="l" depth="3" NCoef="0" IVar="-1" Cut="0.0000000000000000e+00" cType="1" res="-7.9202651977539062e-03" rms="3.0381906032562256e-01" purity="5.8829373121261597e-01" nType="-99"/>
            <Node pos="r" depth="3" NCoef="0" IVar="-1" Cut="0.0000000000000000e+00" cType="1" res="-2.9704052954912186e-02" rms="2.8190615773200989e-01" purity="4.0094447135925293e-01" nType="-99"/>
          </Node>
          <Node pos="r" depth="2" NCoef="0" IVar="7" Cut="1.2028095722198486e+00" cType="1" res="5.0288118654862046e-04" rms="2.9708006978034973e-01" purity="5.1732283830642700e-01" nType="0">
            <Node pos="l" depth="3" NCoef="0" IVar="-1" Cut="0.0000000000000000e+00" cType="1" res="-1.3851016992703080e-03" rms="3.0002263188362122e-01" purity="5.5430322885513306e-01" nType="-99"/>
            <Node pos="r" depth="3" NCoef="0" IVar="-1" Cut="0.0000000000000000e+00" cType="1" res="2.1745709702372551e-02" rms="2.7032417058944702e-01" purity="2.0305933058261871e-01" nType="-99"/>
          </Node>
        </Node>
      </Node>
    </BinaryTree>
    <BinaryTree type="DecisionTree" boostWeight="1.0000000000000000e+00" itree="366">
      <Node pos="s" depth="0" NCoef="0" IVar="6" Cut="7.8846488952636719e+01" cType="1" res="5.9152051107957959e-04" rms="2.9906374216079712e-01" purity="5.0001388788223267e-01" nType="0">
        <Node pos="l" depth="1" NCoef="0" IVar="6" Cut="7.1977966308593750e+01" cType="1" res="-3.3619070891290903e-03" rms="2.8719225525856018e-01" purity="2.1807079017162323e-01" nType="0">
          <Node pos="l" depth="2" NCoef="0" IVar="1" Cut="1.6996885986328125e+03" cType="1" res="2.0989023323636502e-04" rms="2.8325855731964111e-01" purity="2.0340077579021454e-01" nType="0">
            <Node pos="l" depth="3" NCoef="0" IVar="-1" Cut="0.0000000000000000e+00" cType="1" res="-3.0116811394691467e-03" rms="2.7257296442985535e-01" purity="1.3106493651866913e-01" nType="-99"/>
            <Node pos="r" depth="3" NCoef="0" IVar="-1" Cut="0.0000000000000000e+00" cType="1" res="1.5120920725166798e-02" rms="3.5510447621345520e-01" purity="7.6690441370010376e-01" nType="-99"/>
          </Node>
          <Node pos="r" depth="2" NCoef="0" IVar="9" Cut="3.9969572424888611e-01" cType="1" res="-2.0669214427471161e-02" rms="3.0494487285614014e-01" purity="2.8915494680404663e-01" nType="0">
            <Node pos="l" depth="3" NCoef="0" IVar="-1" Cut="0.0000000000000000e+00" cType="1" res="-3.4129172563552856e-02" rms="2.8606259822845459e-01" purity="2.9642102122306824e-01" nType="-99"/>
            <Node pos="r" depth="3" NCoef="0" IVar="-1" Cut="0.0000000000000000e+00" cType="1" res="2.2342978045344353e-03" rms="3.3200401067733765e-01" purity="2.7738386392593384e-01" nType="-99"/>
          </Node>
        </Node>
        <Node pos="r" depth="1" NCoef="0" IVar="8" Cut="-1.4666938781738281e+00" cType="1" res="3.3509565982967615e-03" rms="3.0704787373542786e-01" purity="6.9680619239807129e-01" nType="0">
          <Node pos="l" depth="2" NCoef="0" IVar="-1" Cut="0.0000000000000000e+00" cType="1" res="1.8819078803062439e-02" rms="3.4045672416687012e-01" purity="3.8618671894073486e-01" nType="-99"/>
          <Node pos="r" depth="2" NCoef="0" IVar="4" Cut="2.6664813232421875e+02" cType="1" res="2.1395958028733730e-03" rms="3.0463263392448425e-01" purity="7.1768504381179810e-01" nType="0">
            <Node pos="l" depth="3" NCoef="0" IVar="-1" Cut="0.0000000000000000e+00" cType="1" res="-1.9534074235707521e-03" rms="3.5232418775558472e-01" purity="5.1844829320907593e-01" nType="-99"/>
            <Node pos="r" depth="3" NCoef="0" IVar="-1" Cut="0.0000000000000000e+00" cType="1" res="8.7480880320072174e-03" rms="2.5866121053695679e-01" purity="8.8215196132659912e-01" nType="-99"/>
          </Node>
        </Node>
      </Node>
    </BinaryTree>
    <BinaryTree type="DecisionTree" boostWeight="1.0000000000000000e+00" itree="367">
      <Node pos="s" depth="0" NCoef="0" IVar="8" Cut="1.7333667278289795e+00" cType="1" res="1.2124182103434578e-04" rms="2.9901787638664246e-01" purity="4.9934586882591248e-01" nType="0">
        <Node pos="l" depth="1" NCoef="0" IVar="5" Cut="1.0560662841796875e+02" cType="1" res="-1.0029828408733010e-03" rms="3.0054131150245667e-01" purity="5.1911091804504395e-01" nType="0">
          <Node pos="l" depth="2" NCoef="0" IVar="2" Cut="5.4108880460262299e-02" cType="1" res="6.0684592463076115e-03" rms="2.7760738134384155e-01" purity="1.4707203209400177e-01" nType="0">
            <Node pos="l" depth="3" NCoef="0" IVar="-1" Cut="0.0000000000000000e+00" cType="1" res="1.8739141523838043e-03" rms="2.5402218103408813e-01" purity="1.1899763345718384e-01" nType="-99"/>
            <Node pos="r" depth="3" NCoef="0" IVar="-1" Cut="0.0000000000000000e+00" cType="1" res="2.5802997872233391e-02" rms="3.6942282319068909e-01" purity="2.8156933188438416e-01" nType="-99"/>
          </Node>
          <Node pos="r" depth="2" NCoef="0" IVar="4" Cut="2.9090313720703125e+02" cType="1" res="-3.9455224759876728e-03" rms="3.0953672528266907e-01" purity="6.7392218112945557e-01" nType="0">
            <Node pos="l" depth="3" NCoef="0" IVar="-1" Cut="0.0000000000000000e+00" cType="1" res="-7.3023359291255474e-03" rms="3.4353911876678467e-01" purity="5.1322090625762939e-01" nType="-99"/>
            <Node pos="r" depth="3" NCoef="0" IVar="-1" Cut="0.0000000000000000e+00" cType="1" res="2.8523320797830820e-03" rms="2.6217967271804810e-01" purity="8.6939233541488647e-01" nType="-99"/>
          </Node>
        </Node>
        <Node pos="r" depth="1" NCoef="0" IVar="8" Cut="2.0889074802398682e+00" cType="1" res="1.9294435158371925e-02" rms="2.7100768685340881e-01" purity="1.6226197779178619e-01" nType="0">
          <Node pos="l" depth="2" NCoef="0" IVar="-1" Cut="0.0000000000000000e+00" cType="1" res="4.8342779278755188e-02" rms="3.1806904077529907e-01" purity="2.3007854819297791e-01" nType="-99"/>
          <Node pos="r" depth="2" NCoef="0" IVar="-1" Cut="0.0000000000000000e+00" cType="1" res="9.4853327027522027e-05" rms="2.0652647316455841e-01" purity="8.8678970932960510e-02" nType="-99"/>
        </Node>
      </Node>
    </BinaryTree>
    <BinaryTree type="DecisionTree" boostWeight="1.0000000000000000e+00" itree="368">
      <Node pos="s" depth="0" NCoef="0" IVar="8" Cut="-9.3322938680648804e-01" cType="1" res="-1.3540842337533832e-03" rms="2.9560047388076782e-01" purity="5.0047367811203003e-01" nType="0">
        <Node pos="l" depth="1" NCoef="0" IVar="10" Cut="1.2000055313110352e+00" cType="1" res="-1.0459127835929394e-02" rms="2.9479259252548218e-01" purity="3.1809011101722717e-01" nType="0">
          <Node pos="l" depth="2" NCoef="0" IVar="1" Cut="1.4296374511718750e+03" cType="1" res="-6.8989619612693787e-03" rms="2.9652830958366394e-01" purity="3.3321017026901245e-01" nType="0">
            <Node pos="l" depth="3" NCoef="0" IVar="-1" Cut="0.0000000000000000e+00" cType="1" res="-1.7447527498006821e-02" rms="2.6939001679420471e-01" purity="1.1424245685338974e-01" nType="-99"/>
            <Node pos="r" depth="3" NCoef="0" IVar="-1" Cut="0.0000000000000000e+00" cType="1" res="3.8283055182546377e-03" rms="3.3898910880088806e-01" purity="7.2085136175155640e-01" nType="-99"/>
          </Node>
          <Node pos="r" depth="2" NCoef="0" IVar="-1" Cut="0.0000000000000000e+00" cType="1" res="-3.5949602723121643e-02" rms="2.8354972600936890e-01" purity="2.2976367175579071e-01" nType="-99"/>
        </Node>
        <Node pos="r" depth="1" NCoef="0" IVar="9" Cut="-1.3337537646293640e-01" cType="1" res="6.6718179732561111e-04" rms="2.9574149847030640e-01" purity="5.4096180200576782e-01" nType="0">
          <Node pos="l" depth="2" NCoef="0" IVar="8" Cut="-2.2214670479297638e-01" cType="1" res="4.6028834767639637e-03" rms="2.9951107501983643e-01" purity="5.4448777437210083e-01" nType="0">
            <Node pos="l" depth="3" NCoef="0" IVar="-1" Cut="0.0000000000000000e+00" cType="1" res="-2.5555349420756102e-03" rms="2.9858541488647461e-01" purity="5.6899917125701904e-01" nType="-99"/>
            <Node pos="r" depth="3" NCoef="0" IVar="-1" Cut="0.0000000000000000e+00" cType="1" res="8.2477470859885216e-03" rms="2.9985618591308594e-01" purity="5.3404426574707031e-01" nType="-99"/>
          </Node>
          <Node pos="r" depth="2" NCoef="0" IVar="6" Cut="8.5090972900390625e+01" cType="1" res="-2.4354623164981604e-03" rms="2.9269832372665405e-01" purity="5.3818213939666748e-01" nType="0">
            <Node pos="l" depth="3" NCoef="0" IVar="-1" Cut="0.0000000000000000e+00" cType="1" res="3.3296330366283655e-03" rms="2.9970708489418030e-01" purity="2.7247899770736694e-01" nType="-99"/>
            <Node pos="r" depth="3" NCoef="0" IVar="-1" Cut="0.0000000000000000e+00" cType="1" res="-8.1735672429203987e-03" rms="2.8682437539100647e-01" purity="7.5326901674270630e-01" nType="-99"/>
          </Node>
        </Node>
      </Node>
    </BinaryTree>
    <BinaryTree type="DecisionTree" boostWeight="1.0000000000000000e+00" itree="369">
      <Node pos="s" depth="0" NCoef="0" IVar="2" Cut="2.1328857168555260e-02" cType="1" res="2.0281316246837378e-03" rms="2.9846689105033875e-01" purity="4.9893271923065186e-01" nType="0">
        <Node pos="l" depth="1" NCoef="0" IVar="8" Cut="4.0005490183830261e-01" cType="1" res="-4.0277303196489811e-03" rms="2.7783533930778503e-01" purity="2.3660831153392792e-01" nType="0">
          <Node pos="l" depth="2" NCoef="0" IVar="1" Cut="1.7444542236328125e+03" cType="1" res="1.9088503904640675e-03" rms="2.8672498464584351e-01" purity="2.6146522164344788e-01" nType="0">
            <Node pos="l" depth="3" NCoef="0" IVar="-1" Cut="0.0000000000000000e+00" cType="1" res="8.0695850774645805e-03" rms="2.7795910835266113e-01" purity="1.4512796700000763e-01" nType="-99"/>
            <Node pos="r" depth="3" NCoef="0" IVar="-1" Cut="0.0000000000000000e+00" cType="1" res="-1.5306400135159492e-02" rms="3.2168963551521301e-01" purity="7.7103233337402344e-01" nType="-99"/>
          </Node>
          <Node pos="r" depth="2" NCoef="0" IVar="2" Cut="1.1172014288604259e-02" cType="1" res="-1.3111575506627560e-02" rms="2.6339441537857056e-01" purity="1.9857364892959595e-01" nType="0">
            <Node pos="l" depth="3" NCoef="0" IVar="-1" Cut="0.0000000000000000e+00" cType="1" res="-7.0206508971750736e-03" rms="2.5224414467811584e-01" purity="1.6187512874603271e-01" nType="-99"/>
            <Node pos="r" depth="3" NCoef="0" IVar="-1" Cut="0.0000000000000000e+00" cType="1" res="-3.1038116663694382e-02" rms="2.8095948696136475e-01" purity="2.6176196336746216e-01" nType="-99"/>
          </Node>
        </Node>
        <Node pos="r" depth="1" NCoef="0" IVar="1" Cut="1.3751701660156250e+03" cType="1" res="5.4128943011164665e-03" rms="3.0934792757034302e-01" purity="6.4555191993713379e-01" nType="0">
          <Node pos="l" depth="2" NCoef="0" IVar="3" Cut="3.9265914916992188e+02" cType="1" res="1.5453051775693893e-02" rms="3.6360207200050354e-01" purity="2.5435665249824524e-01" nType="0">
            <Node pos="l" depth="3" NCoef="0" IVar="-1" Cut="0.0000000000000000e+00" cType="1" res="1.6200823709368706e-02" rms="3.6409553885459900e-01" purity="2.5923261046409607e-01" nType="-99"/>
            <Node pos="r" depth="3" NCoef="0" IVar="-1" Cut="0.0000000000000000e+00" cType="1" res="-1.1264855973422527e-02" rms="3.5886573791503906e-01" purity="2.2317396104335785e-01" nType="-99"/>
          </Node>
          <Node pos="r" depth="2" NCoef="0" IVar="6" Cut="1.1358464050292969e+02" cType="1" res="-7.6413055649027228e-04" rms="2.7043229341506958e-01" purity="8.8622778654098511e-01" nType="0">
            <Node pos="l" depth="3" NCoef="0" IVar="-1" Cut="0.0000000000000000e+00" cType="1" res="-9.1127874329686165e-03" rms="3.3488085865974426e-01" purity="8.0710422992706299e-01" nType="-99"/>
            <Node pos="r" depth="3" NCoef="0" IVar="-1" Cut="0.0000000000000000e+00" cType="1" res="7.5174290686845779e-03" rms="2.2963769733905792e-01" purity="9.2746090888977051e-01" nType="-99"/>
          </Node>
        </Node>
      </Node>
    </BinaryTree>
    <BinaryTree type="DecisionTree" boostWeight="1.0000000000000000e+00" itree="370">
      <Node pos="s" depth="0" NCoef="0" IVar="10" Cut="-1.1999921798706055e+00" cType="1" res="2.1931355877313763e-04" rms="3.0097705125808716e-01" purity="4.9488976597785950e-01" nType="0">
        <Node pos="l" depth="1" NCoef="0" IVar="3" Cut="4.7358032226562500e+02" cType="1" res="8.9261764660477638e-03" rms="3.0800732970237732e-01" purity="4.2750477790832520e-01" nType="0">
          <Node pos="l" depth="2" NCoef="0" IVar="7" Cut="-6.5225434303283691e-01" cType="1" res="1.5408925712108612e-02" rms="3.1048512458801270e-01" purity="3.3766794204711914e-01" nType="0">
            <Node pos="l" depth="3" NCoef="0" IVar="-1" Cut="0.0000000000000000e+00" cType="1" res="-2.3963213898241520e-03" rms="2.7743583917617798e-01" purity="2.1230445802211761e-01" nType="-99"/>
            <Node pos="r" depth="3" NCoef="0" IVar="-1" Cut="0.0000000000000000e+00" cType="1" res="2.3479038849473000e-02" rms="3.2453399896621704e-01" purity="3.9655166864395142e-01" nType="-99"/>
          </Node>
          <Node pos="r" depth="2" NCoef="0" IVar="8" Cut="-1.3279511034488678e-01" cType="1" res="-7.0760915987193584e-03" rms="3.0120730400085449e-01" purity="6.4926153421401978e-01" nType="0">
            <Node pos="l" depth="3" NCoef="0" IVar="-1" Cut="0.0000000000000000e+00" cType="1" res="-8.2773948088288307e-03" rms="2.9074996709823608e-01" purity="6.2841451168060303e-01" nType="-99"/>
            <Node pos="r" depth="3" NCoef="0" IVar="-1" Cut="0.0000000000000000e+00" cType="1" res="-6.5721729770302773e-03" rms="3.1128379702568054e-01" purity="6.7005044221878052e-01" nType="-99"/>
          </Node>
        </Node>
        <Node pos="r" depth="1" NCoef="0" IVar="2" Cut="8.3667837083339691e-02" cType="1" res="-1.6381808090955019e-03" rms="2.9942312836647034e-01" purity="5.0926548242568970e-01" nType="0">
          <Node pos="l" depth="2" NCoef="0" IVar="3" Cut="3.2334536743164062e+02" cType="1" res="8.4186444291844964e-04" rms="3.0550652742385864e-01" purity="4.1825598478317261e-01" nType="0">
            <Node pos="l" depth="3" NCoef="0" IVar="-1" Cut="0.0000000000000000e+00" cType="1" res="1.0898484848439693e-02" rms="2.8895652294158936e-01" purity="1.8273814022541046e-01" nType="-99"/>
            <Node pos="r" depth="3" NCoef="0" IVar="-1" Cut="0.0000000000000000e+00" cType="1" res="-2.9449034482240677e-03" rms="3.1312039494514465e-01" purity="5.3205597400665283e-01" nType="-99"/>
          </Node>
          <Node pos="r" depth="2" NCoef="0" IVar="1" Cut="1.5241085205078125e+03" cType="1" res="-9.5219109207391739e-03" rms="2.7905946969985962e-01" purity="7.9857236146926880e-01" nType="0">
            <Node pos="l" depth="3" NCoef="0" IVar="-1" Cut="0.0000000000000000e+00" cType="1" res="-1.7407447099685669e-02" rms="3.9832678437232971e-01" purity="4.9633869528770447e-01" nType="-99"/>
            <Node pos="r" depth="3" NCoef="0" IVar="-1" Cut="0.0000000000000000e+00" cType="1" res="-1.7840581131167710e-04" rms="1.8479685485363007e-01" purity="9.6118670701980591e-01" nType="-99"/>
          </Node>
        </Node>
      </Node>
    </BinaryTree>
    <BinaryTree type="DecisionTree" boostWeight="1.0000000000000000e+00" itree="371">
      <Node pos="s" depth="0" NCoef="0" IVar="8" Cut="1.4665715694427490e+00" cType="1" res="-1.8291574670001864e-03" rms="2.9805675148963928e-01" purity="4.9683237075805664e-01" nType="0">
        <Node pos="l" depth="1" NCoef="0" IVar="7" Cut="-3.9349645376205444e-01" cType="1" res="-3.2948981970548630e-03" rms="2.9877498745918274e-01" purity="5.2283012866973877e-01" nType="0">
          <Node pos="l" depth="2" NCoef="0" IVar="6" Cut="8.5090904235839844e+01" cType="1" res="4.8746531829237938e-03" rms="3.0363053083419800e-01" purity="4.5534551143646240e-01" nType="0">
            <Node pos="l" depth="3" NCoef="0" IVar="-1" Cut="0.0000000000000000e+00" cType="1" res="1.6002058982849121e-02" rms="2.9716262221336365e-01" purity="2.1878603100776672e-01" nType="-99"/>
            <Node pos="r" depth="3" NCoef="0" IVar="-1" Cut="0.0000000000000000e+00" cType="1" res="-3.9023042190819979e-03" rms="3.0961197614669800e-01" purity="6.8779134750366211e-01" nType="-99"/>
          </Node>
          <Node pos="r" depth="2" NCoef="0" IVar="9" Cut="1.1998392343521118e+00" cType="1" res="-7.3008355684578419e-03" rms="2.9628270864486694e-01" purity="5.5592125654220581e-01" nType="0">
            <Node pos="l" depth="3" NCoef="0" IVar="-1" Cut="0.0000000000000000e+00" cType="1" res="-1.0892855934798717e-02" rms="2.9331248998641968e-01" purity="5.8077913522720337e-01" nType="-99"/>
            <Node pos="r" depth="3" NCoef="0" IVar="-1" Cut="0.0000000000000000e+00" cType="1" res="6.2986314296722412e-03" rms="3.1277722120285034e-01" purity="4.1020599007606506e-01" nType="-99"/>
          </Node>
        </Node>
        <Node pos="r" depth="1" NCoef="0" IVar="3" Cut="3.1079733276367188e+02" cType="1" res="1.4110482297837734e-02" rms="2.8965282440185547e-01" purity="2.1411143243312836e-01" nType="0">
          <Node pos="l" depth="2" NCoef="0" IVar="-1" Cut="0.0000000000000000e+00" cType="1" res="5.4306533187627792e-02" rms="2.6649037003517151e-01" purity="1.1816788464784622e-01" nType="-99"/>
          <Node pos="r" depth="2" NCoef="0" IVar="-1" Cut="0.0000000000000000e+00" cType="1" res="5.0283106975257397e-03" rms="3.0386027693748474e-01" purity="2.7861514687538147e-01" nType="-99"/>
        </Node>
      </Node>
    </BinaryTree>
    <BinaryTree type="DecisionTree" boostWeight="1.0000000000000000e+00" itree="372">
      <Node pos="s" depth="0" NCoef="0" IVar="8" Cut="-1.2000304460525513e+00" cType="1" res="8.4258429706096649e-04" rms="2.9860571026802063e-01" purity="5.0271499156951904e-01" nType="0">
        <Node pos="l" depth="1" NCoef="0" IVar="10" Cut="9.3341284990310669e-01" cType="1" res="-7.3477006517350674e-03" rms="2.8449609875679016e-01" purity="2.6147130131721497e-01" nType="0">
          <Node pos="l" depth="2" NCoef="0" IVar="6" Cut="9.3752639770507812e+01" cType="1" res="-1.1812073178589344e-02" rms="2.8159984946250916e-01" purity="2.6337224245071411e-01" nType="0">
            <Node pos="l" depth="3" NCoef="0" IVar="-1" Cut="0.0000000000000000e+00" cType="1" res="-2.6077406480908394e-02" rms="2.5115135312080383e-01" purity="1.0916233807802200e-01" nType="-99"/>
            <Node pos="r" depth="3" NCoef="0" IVar="-1" Cut="0.0000000000000000e+00" cType="1" res="-1.0984994150931016e-04" rms="3.3222621679306030e-01" purity="5.6076514720916748e-01" nType="-99"/>
          </Node>
          <Node pos="r" depth="2" NCoef="0" IVar="-1" Cut="0.0000000000000000e+00" cType="1" res="1.0856212116777897e-02" rms="2.9446068406105042e-01" purity="2.5437405705451965e-01" nType="-99"/>
        </Node>
        <Node pos="r" depth="1" NCoef="0" IVar="4" Cut="1.4070573425292969e+02" cType="1" res="2.0180209539830685e-03" rms="3.0055800080299377e-01" purity="5.3733730316162109e-01" nType="0">
          <Node pos="l" depth="2" NCoef="0" IVar="10" Cut="-1.3314397633075714e-01" cType="1" res="9.6822241321206093e-03" rms="2.4752427637577057e-01" purity="8.8516965508460999e-02" nType="0">
            <Node pos="l" depth="3" NCoef="0" IVar="-1" Cut="0.0000000000000000e+00" cType="1" res="4.7182384878396988e-02" rms="2.6915222406387329e-01" purity="1.0600630939006805e-01" nType="-99"/>
            <Node pos="r" depth="3" NCoef="0" IVar="-1" Cut="0.0000000000000000e+00" cType="1" res="-7.6033296063542366e-03" rms="2.2741509974002838e-01" purity="7.4232116341590881e-02" nType="-99"/>
          </Node>
          <Node pos="r" depth="2" NCoef="0" IVar="8" Cut="1.0854970216751099e+00" cType="1" res="4.5987000339664519e-04" rms="3.1020975112915039e-01" purity="6.2858361005783081e-01" nType="0">
            <Node pos="l" depth="3" NCoef="0" IVar="-1" Cut="0.0000000000000000e+00" cType="1" res="2.2373164538294077e-03" rms="3.1043046712875366e-01" purity="6.7309594154357910e-01" nType="-99"/>
            <Node pos="r" depth="3" NCoef="0" IVar="-1" Cut="0.0000000000000000e+00" cType="1" res="-9.0912505984306335e-03" rms="3.0879083275794983e-01" purity="3.7829852104187012e-01" nType="-99"/>
          </Node>
        </Node>
      </Node>
    </BinaryTree>
    <BinaryTree type="DecisionTree" boostWeight="1.0000000000000000e+00" itree="373">
      <Node pos="s" depth="0" NCoef="0" IVar="9" Cut="-4.0000414848327637e-01" cType="1" res="-1.2323142436798662e-04" rms="2.9726520180702209e-01" purity="4.9827557802200317e-01" nType="0">
        <Node pos="l" depth="1" NCoef="0" IVar="6" Cut="1.0591063690185547e+02" cType="1" res="-7.7899228781461716e-03" rms="2.9407513141632080e-01" purity="4.5803925395011902e-01" nType="0">
          <Node pos="l" depth="2" NCoef="0" IVar="6" Cut="7.9286468505859375e+01" cType="1" res="-1.3605323620140553e-02" rms="2.9537168145179749e-01" purity="2.6953527331352234e-01" nType="0">
            <Node pos="l" depth="3" NCoef="0" IVar="-1" Cut="0.0000000000000000e+00" cType="1" res="-9.2350970953702927e-03" rms="2.7513307332992554e-01" purity="1.9840560853481293e-01" nType="-99"/>
            <Node pos="r" depth="3" NCoef="0" IVar="-1" Cut="0.0000000000000000e+00" cType="1" res="-2.2516019642353058e-02" rms="3.3417335152626038e-01" purity="4.2150062322616577e-01" nType="-99"/>
          </Node>
          <Node pos="r" depth="2" NCoef="0" IVar="0" Cut="4.1791699218750000e+02" cType="1" res="2.6185763999819756e-03" rms="2.9145056009292603e-01" purity="7.9542666673660278e-01" nType="0">
            <Node pos="l" depth="3" NCoef="0" IVar="-1" Cut="0.0000000000000000e+00" cType="1" res="1.4122981578111649e-02" rms="3.9433291554450989e-01" purity="5.0630104541778564e-01" nType="-99"/>
            <Node pos="r" depth="3" NCoef="0" IVar="-1" Cut="0.0000000000000000e+00" cType="1" res="-6.7377923987805843e-03" rms="2.4395626783370972e-01" purity="8.9892649650573730e-01" nType="-99"/>
          </Node>
        </Node>
        <Node pos="r" depth="1" NCoef="0" IVar="2" Cut="6.3949674367904663e-02" cType="1" res="4.1780858300626278e-03" rms="2.9895395040512085e-01" purity="5.2084976434707642e-01" nType="0">
          <Node pos="l" depth="2" NCoef="0" IVar="10" Cut="1.7333726882934570e+00" cType="1" res="7.9090381041169167e-03" rms="3.0618819594383240e-01" purity="3.9758694171905518e-01" nType="0">
            <Node pos="l" depth="3" NCoef="0" IVar="-1" Cut="0.0000000000000000e+00" cType="1" res="1.1099150404334068e-02" rms="3.0932086706161499e-01" purity="4.1570794582366943e-01" nType="-99"/>
            <Node pos="r" depth="3" NCoef="0" IVar="-1" Cut="0.0000000000000000e+00" cType="1" res="-2.2082326933741570e-02" rms="2.7108857035636902e-01" purity="2.1414229273796082e-01" nType="-99"/>
          </Node>
          <Node pos="r" depth="2" NCoef="0" IVar="3" Cut="2.9666653442382812e+02" cType="1" res="-3.5951302852481604e-03" rms="2.8313124179840088e-01" purity="7.7766054868698120e-01" nType="0">
            <Node pos="l" depth="3" NCoef="0" IVar="-1" Cut="0.0000000000000000e+00" cType="1" res="-1.6923990100622177e-02" rms="3.6022853851318359e-01" purity="4.2805057764053345e-01" nType="-99"/>
            <Node pos="r" depth="3" NCoef="0" IVar="-1" Cut="0.0000000000000000e+00" cType="1" res="1.6356428386643529e-03" rms="2.5971645116806030e-01" purity="8.6646872758865356e-01" nType="-99"/>
          </Node>
        </Node>
      </Node>
    </BinaryTree>
    <BinaryTree type="DecisionTree" boostWeight="1.0000000000000000e+00" itree="374">
      <Node pos="s" depth="0" NCoef="0" IVar="7" Cut="4.0487524867057800e-01" cType="1" res="8.9033867698162794e-04" rms="2.9791578650474548e-01" purity="5.0208044052124023e-01" nType="0">
        <Node pos="l" depth="1" NCoef="0" IVar="5" Cut="9.6862144470214844e+01" cType="1" res="-1.8619872862473130e-03" rms="2.9748308658599854e-01" purity="5.3940856456756592e-01" nType="0">
          <Node pos="l" depth="2" NCoef="0" IVar="8" Cut="-1.1993324756622314e+00" cType="1" res="-1.0359417647123337e-02" rms="2.4834339320659637e-01" purity="1.1883316934108734e-01" nType="0">
            <Node pos="l" depth="3" NCoef="0" IVar="-1" Cut="0.0000000000000000e+00" cType="1" res="1.6502099111676216e-02" rms="2.2280827164649963e-01" purity="8.2377828657627106e-02" nType="-99"/>
            <Node pos="r" depth="3" NCoef="0" IVar="-1" Cut="0.0000000000000000e+00" cType="1" res="-2.0497303456068039e-02" rms="2.5399765372276306e-01" purity="1.2775239348411560e-01" nType="-99"/>
          </Node>
          <Node pos="r" depth="2" NCoef="0" IVar="9" Cut="1.4666259288787842e+00" cType="1" res="6.7295279586687684e-04" rms="3.1059563159942627e-01" purity="6.6487395763397217e-01" nType="0">
            <Node pos="l" depth="3" NCoef="0" IVar="-1" Cut="0.0000000000000000e+00" cType="1" res="-8.2852947525680065e-04" rms="3.0705985426902771e-01" purity="6.8055957555770874e-01" nType="-99"/>
            <Node pos="r" depth="3" NCoef="0" IVar="-1" Cut="0.0000000000000000e+00" cType="1" res="1.4919259585440159e-02" rms="3.4909209609031677e-01" purity="4.8017612099647522e-01" nType="-99"/>
          </Node>
        </Node>
        <Node pos="r" depth="1" NCoef="0" IVar="7" Cut="9.7507560253143311e-01" cType="1" res="6.5955314785242081e-03" rms="2.9872995615005493e-01" purity="4.2470440268516541e-01" nType="0">
          <Node pos="l" depth="2" NCoef="0" IVar="10" Cut="-1.3285529613494873e-01" cType="1" res="1.3836272060871124e-02" rms="3.1731957197189331e-01" purity="5.6528180837631226e-01" nType="0">
            <Node pos="l" depth="3" NCoef="0" IVar="-1" Cut="0.0000000000000000e+00" cType="1" res="6.3296005828306079e-04" rms="3.0643144249916077e-01" purity="5.6213074922561646e-01" nType="-99"/>
            <Node pos="r" depth="3" NCoef="0" IVar="-1" Cut="0.0000000000000000e+00" cType="1" res="2.2634565830230713e-02" rms="3.2413238286972046e-01" purity="5.6740069389343262e-01" nType="-99"/>
          </Node>
          <Node pos="r" depth="2" NCoef="0" IVar="7" Cut="1.7570497989654541e+00" cType="1" res="-2.5526524987071753e-03" rms="2.7316784858703613e-01" purity="2.4709443747997284e-01" nType="0">
            <Node pos="l" depth="3" NCoef="0" IVar="-1" Cut="0.0000000000000000e+00" cType="1" res="1.6437798039987683e-03" rms="3.0216088891029358e-01" purity="3.1184440851211548e-01" nType="-99"/>
            <Node pos="r" depth="3" NCoef="0" IVar="-1" Cut="0.0000000000000000e+00" cType="1" res="-3.9298523217439651e-02" rms="1.5473476052284241e-01" purity="5.1158100366592407e-02" nType="-99"/>
          </Node>
        </Node>
      </Node>
    </BinaryTree>
    <BinaryTree type="DecisionTree" boostWeight="1.0000000000000000e+00" itree="375">
      <Node pos="s" depth="0" NCoef="0" IVar="9" Cut="3.9995196461677551e-01" cType="1" res="2.2407183132600039e-04" rms="2.9825949668884277e-01" purity="5.0183665752410889e-01" nType="0">
        <Node pos="l" depth="1" NCoef="0" IVar="9" Cut="-1.5809571743011475e+00" cType="1" res="3.0969295185059309e-03" rms="2.9692476987838745e-01" purity="5.2352488040924072e-01" nType="0">
          <Node pos="l" depth="2" NCoef="0" IVar="3" Cut="3.2042849731445312e+02" cType="1" res="-1.0696190409362316e-02" rms="2.9194283485412598e-01" purity="2.7131289243698120e-01" nType="0">
            <Node pos="l" depth="3" NCoef="0" IVar="-1" Cut="0.0000000000000000e+00" cType="1" res="6.3875205814838409e-03" rms="2.7155205607414246e-01" purity="1.3329039514064789e-01" nType="-99"/>
            <Node pos="r" depth="3" NCoef="0" IVar="-1" Cut="0.0000000000000000e+00" cType="1" res="-2.1246604621410370e-02" rms="3.0484437942504883e-01" purity="3.6698627471923828e-01" nType="-99"/>
          </Node>
          <Node pos="r" depth="2" NCoef="0" IVar="6" Cut="8.0216316223144531e+01" cType="1" res="5.2339797839522362e-03" rms="2.9763200879096985e-01" purity="5.6260156631469727e-01" nType="0">
            <Node pos="l" depth="3" NCoef="0" IVar="-1" Cut="0.0000000000000000e+00" cType="1" res="1.1468670330941677e-02" rms="3.0290111899375916e-01" purity="2.6969683170318604e-01" nType="-99"/>
            <Node pos="r" depth="3" NCoef="0" IVar="-1" Cut="0.0000000000000000e+00" cType="1" res="2.2753116209059954e-03" rms="2.9419806599617004e-01" purity="7.4825865030288696e-01" nType="-99"/>
          </Node>
        </Node>
        <Node pos="r" depth="1" NCoef="0" IVar="8" Cut="9.3322420120239258e-01" cType="1" res="-4.8129446804523468e-03" rms="3.0051910877227783e-01" purity="4.6381041407585144e-01" nType="0">
          <Node pos="l" depth="2" NCoef="0" IVar="4" Cut="2.9645172119140625e+02" cType="1" res="-6.5128423739224672e-04" rms="3.0628365278244019e-01" purity="5.1724189519882202e-01" nType="0">
            <Node pos="l" depth="3" NCoef="0" IVar="-1" Cut="0.0000000000000000e+00" cType="1" res="-4.6299439854919910e-03" rms="3.1913915276527405e-01" purity="3.5945302248001099e-01" nType="-99"/>
            <Node pos="r" depth="3" NCoef="0" IVar="-1" Cut="0.0000000000000000e+00" cType="1" res="1.0040262714028358e-02" rms="2.7752178907394409e-01" purity="8.4476357698440552e-01" nType="-99"/>
          </Node>
          <Node pos="r" depth="2" NCoef="0" IVar="2" Cut="1.6696745529770851e-02" cType="1" res="-1.9594121724367142e-02" rms="2.7858200669288635e-01" purity="2.7403503656387329e-01" nType="0">
            <Node pos="l" depth="3" NCoef="0" IVar="-1" Cut="0.0000000000000000e+00" cType="1" res="-1.0548322461545467e-02" rms="2.4673035740852356e-01" purity="1.3439747691154480e-01" nType="-99"/>
            <Node pos="r" depth="3" NCoef="0" IVar="-1" Cut="0.0000000000000000e+00" cType="1" res="-3.0454337596893311e-02" rms="3.0492001771926880e-01" purity="4.0475791692733765e-01" nType="-99"/>
          </Node>
        </Node>
      </Node>
    </BinaryTree>
    <BinaryTree type="DecisionTree" boostWeight="1.0000000000000000e+00" itree="376">
      <Node pos="s" depth="0" NCoef="0" IVar="10" Cut="-9.3308264017105103e-01" cType="1" res="1.1394171742722392e-03" rms="2.9946148395538330e-01" purity="4.9987652897834778e-01" nType="0">
        <Node pos="l" depth="1" NCoef="0" IVar="10" Cut="-1.1108547449111938e+00" cType="1" res="8.3352020010352135e-03" rms="3.0697715282440186e-01" purity="4.5022970438003540e-01" nType="0">
          <Node pos="l" depth="2" NCoef="0" IVar="6" Cut="8.1792289733886719e+01" cType="1" res="5.7768104597926140e-03" rms="3.0581644177436829e-01" purity="4.3319559097290039e-01" nType="0">
            <Node pos="l" depth="3" NCoef="0" IVar="-1" Cut="0.0000000000000000e+00" cType="1" res="4.2756082257255912e-04" rms="2.8469371795654297e-01" purity="2.3174321651458740e-01" nType="-99"/>
            <Node pos="r" depth="3" NCoef="0" IVar="-1" Cut="0.0000000000000000e+00" cType="1" res="1.1018482968211174e-02" rms="3.2666674256324768e-01" purity="6.4722180366516113e-01" nType="-99"/>
          </Node>
          <Node pos="r" depth="2" NCoef="0" IVar="-1" Cut="0.0000000000000000e+00" cType="1" res="2.0669639110565186e-02" rms="3.1194281578063965e-01" purity="5.2779561281204224e-01" nType="-99"/>
        </Node>
        <Node pos="r" depth="1" NCoef="0" IVar="9" Cut="-1.9999928474426270e+00" cType="1" res="-1.0628467425704002e-03" rms="2.9708850383758545e-01" purity="5.1507091522216797e-01" nType="0">
          <Node pos="l" depth="2" NCoef="0" IVar="-1" Cut="0.0000000000000000e+00" cType="1" res="2.3391988128423691e-02" rms="2.9827511310577393e-01" purity="2.8007692098617554e-01" nType="-99"/>
          <Node pos="r" depth="2" NCoef="0" IVar="8" Cut="1.1996289491653442e+00" cType="1" res="-1.9336468540132046e-03" rms="2.9700773954391479e-01" purity="5.2447491884231567e-01" nType="0">
            <Node pos="l" depth="3" NCoef="0" IVar="-1" Cut="0.0000000000000000e+00" cType="1" res="-3.9069117046892643e-03" rms="2.9656735062599182e-01" purity="5.5997568368911743e-01" nType="-99"/>
            <Node pos="r" depth="3" NCoef="0" IVar="-1" Cut="0.0000000000000000e+00" cType="1" res="9.4355354085564613e-03" rms="2.9963707923889160e-01" purity="2.9499205946922302e-01" nType="-99"/>
          </Node>
        </Node>
      </Node>
    </BinaryTree>
    <BinaryTree type="DecisionTree" boostWeight="1.0000000000000000e+00" itree="377">
      <Node pos="s" depth="0" NCoef="0" IVar="10" Cut="1.4666661024093628e+00" cType="1" res="-2.5813819374889135e-03" rms="2.9412299394607544e-01" purity="4.9839729070663452e-01" nType="0">
        <Node pos="l" depth="1" NCoef="0" IVar="7" Cut="-6.3579267263412476e-01" cType="1" res="-4.0728361345827579e-03" rms="2.9208588600158691e-01" purity="5.1220279932022095e-01" nType="0">
          <Node pos="l" depth="2" NCoef="0" IVar="2" Cut="5.0002649426460266e-02" cType="1" res="-1.1654083617031574e-02" rms="2.8132820129394531e-01" purity="3.4844300150871277e-01" nType="0">
            <Node pos="l" depth="3" NCoef="0" IVar="-1" Cut="0.0000000000000000e+00" cType="1" res="-8.5852919146418571e-03" rms="2.7657738327980042e-01" purity="2.3260878026485443e-01" nType="-99"/>
            <Node pos="r" depth="3" NCoef="0" IVar="-1" Cut="0.0000000000000000e+00" cType="1" res="-2.6687260717153549e-02" rms="2.9394289851188660e-01" purity="6.7641967535018921e-01" nType="-99"/>
          </Node>
          <Node pos="r" depth="2" NCoef="0" IVar="7" Cut="-1.4501020312309265e-01" cType="1" res="-1.7300269100815058e-03" rms="2.9529169201850891e-01" purity="5.6280893087387085e-01" nType="0">
            <Node pos="l" depth="3" NCoef="0" IVar="-1" Cut="0.0000000000000000e+00" cType="1" res="6.2080589123070240e-03" rms="3.0767062306404114e-01" purity="6.3213485479354858e-01" nType="-99"/>
            <Node pos="r" depth="3" NCoef="0" IVar="-1" Cut="0.0000000000000000e+00" cType="1" res="-5.0604841671884060e-03" rms="2.9065448045730591e-01" purity="5.3783792257308960e-01" nType="-99"/>
          </Node>
        </Node>
        <Node pos="r" depth="1" NCoef="0" IVar="1" Cut="1.0565933837890625e+03" cType="1" res="7.8269354999065399e-03" rms="3.0776315927505493e-01" purity="4.0205362439155579e-01" nType="0">
          <Node pos="l" depth="2" NCoef="0" IVar="-1" Cut="0.0000000000000000e+00" cType="1" res="-2.1542645990848541e-02" rms="1.7190574109554291e-01" purity="3.3260431140661240e-02" nType="-99"/>
          <Node pos="r" depth="2" NCoef="0" IVar="1" Cut="1.5454147949218750e+03" cType="1" res="1.3447009958326817e-02" rms="3.4320616722106934e-01" purity="5.3330630064010620e-01" nType="0">
            <Node pos="l" depth="3" NCoef="0" IVar="-1" Cut="0.0000000000000000e+00" cType="1" res="1.9825927913188934e-02" rms="3.7103146314620972e-01" purity="3.1979617476463318e-01" nType="-99"/>
            <Node pos="r" depth="3" NCoef="0" IVar="-1" Cut="0.0000000000000000e+00" cType="1" res="-3.2947096042335033e-03" rms="3.0271932482719421e-01" purity="8.0913007259368896e-01" nType="-99"/>
          </Node>
        </Node>
      </Node>
    </BinaryTree>
    <BinaryTree type="DecisionTree" boostWeight="1.0000000000000000e+00" itree="378">
      <Node pos="s" depth="0" NCoef="0" IVar="9" Cut="-6.6670119762420654e-01" cType="1" res="2.2067716345191002e-03" rms="2.9665774106979370e-01" purity="5.0456076860427856e-01" nType="0">
        <Node pos="l" depth="1" NCoef="0" IVar="2" Cut="7.7231839299201965e-02" cType="1" res="-4.8137824051082134e-03" rms="2.9602655768394470e-01" purity="4.1886648535728455e-01" nType="0">
          <Node pos="l" depth="2" NCoef="0" IVar="9" Cut="-1.9873183965682983e+00" cType="1" res="-9.6864402294158936e-03" rms="2.9423201084136963e-01" purity="3.0892878770828247e-01" nType="0">
            <Node pos="l" depth="3" NCoef="0" IVar="-1" Cut="0.0000000000000000e+00" cType="1" res="2.0003162324428558e-02" rms="2.9915189743041992e-01" purity="2.0099899172782898e-01" nType="-99"/>
            <Node pos="r" depth="3" NCoef="0" IVar="-1" Cut="0.0000000000000000e+00" cType="1" res="-1.6697613522410393e-02" rms="2.9278916120529175e-01" purity="3.3355200290679932e-01" nType="-99"/>
          </Node>
          <Node pos="r" depth="2" NCoef="0" IVar="-1" Cut="0.0000000000000000e+00" cType="1" res="1.0535934939980507e-02" rms="3.0098149180412292e-01" purity="7.5673270225524902e-01" nType="-99"/>
        </Node>
        <Node pos="r" depth="1" NCoef="0" IVar="8" Cut="1.4666181802749634e+00" cType="1" res="4.8216623254120350e-03" rms="2.9685005545616150e-01" purity="5.3647869825363159e-01" nType="0">
          <Node pos="l" depth="2" NCoef="0" IVar="6" Cut="1.3527310180664062e+02" cType="1" res="6.4145987853407860e-03" rms="2.9969111084938049e-01" purity="5.6718969345092773e-01" nType="0">
            <Node pos="l" depth="3" NCoef="0" IVar="-1" Cut="0.0000000000000000e+00" cType="1" res="8.4593519568443298e-03" rms="3.2317274808883667e-01" purity="4.3023198843002319e-01" nType="-99"/>
            <Node pos="r" depth="3" NCoef="0" IVar="-1" Cut="0.0000000000000000e+00" cType="1" res="8.2028744509443641e-04" rms="2.2952608764171600e-01" purity="9.1443562507629395e-01" nType="-99"/>
          </Node>
          <Node pos="r" depth="2" NCoef="0" IVar="10" Cut="3.9948177337646484e-01" cType="1" res="-1.2655065394937992e-02" rms="2.6304453611373901e-01" purity="1.9953639805316925e-01" nType="0">
            <Node pos="l" depth="3" NCoef="0" IVar="-1" Cut="0.0000000000000000e+00" cType="1" res="-1.0449178516864777e-03" rms="2.9328349232673645e-01" purity="2.5941926240921021e-01" nType="-99"/>
            <Node pos="r" depth="3" NCoef="0" IVar="-1" Cut="0.0000000000000000e+00" cType="1" res="-3.8201160728931427e-02" rms="2.2511859238147736e-01" purity="1.3472628593444824e-01" nType="-99"/>
          </Node>
        </Node>
      </Node>
    </BinaryTree>
    <BinaryTree type="DecisionTree" boostWeight="1.0000000000000000e+00" itree="379">
      <Node pos="s" depth="0" NCoef="0" IVar="9" Cut="9.3331480026245117e-01" cType="1" res="-6.1607029056176543e-04" rms="2.9636067152023315e-01" purity="5.0177371501922607e-01" nType="0">
        <Node pos="l" depth="1" NCoef="0" IVar="8" Cut="-9.3330073356628418e-01" cType="1" res="1.7691226676106453e-03" rms="2.9586112499237061e-01" purity="5.3146535158157349e-01" nType="0">
          <Node pos="l" depth="2" NCoef="0" IVar="1" Cut="1.4296784667968750e+03" cType="1" res="-5.3450535051524639e-03" rms="2.9175889492034912e-01" purity="3.5230782628059387e-01" nType="0">
            <Node pos="l" depth="3" NCoef="0" IVar="-1" Cut="0.0000000000000000e+00" cType="1" res="-1.7911996692419052e-02" rms="2.6148933172225952e-01" purity="1.1367632448673248e-01" nType="-99"/>
            <Node pos="r" depth="3" NCoef="0" IVar="-1" Cut="0.0000000000000000e+00" cType="1" res="7.1020335890352726e-03" rms="3.3454960584640503e-01" purity="7.3823815584182739e-01" nType="-99"/>
          </Node>
          <Node pos="r" depth="2" NCoef="0" IVar="8" Cut="1.9109904766082764e+00" cType="1" res="3.4092608839273453e-03" rms="2.9677462577819824e-01" purity="5.7276922464370728e-01" nType="0">
            <Node pos="l" depth="3" NCoef="0" IVar="-1" Cut="0.0000000000000000e+00" cType="1" res="4.6588946133852005e-03" rms="2.9949268698692322e-01" purity="5.9238016605377197e-01" nType="-99"/>
            <Node pos="r" depth="3" NCoef="0" IVar="-1" Cut="0.0000000000000000e+00" cType="1" res="-3.0205631628632545e-02" rms="2.1880012750625610e-01" purity="9.1374464333057404e-02" nType="-99"/>
          </Node>
        </Node>
        <Node pos="r" depth="1" NCoef="0" IVar="10" Cut="1.3333526253700256e-01" cType="1" res="-9.6906945109367371e-03" rms="2.9807919263839722e-01" purity="3.8880982995033264e-01" nType="0">
          <Node pos="l" depth="2" NCoef="0" IVar="0" Cut="5.1576977539062500e+02" cType="1" res="-2.1784905344247818e-02" rms="2.9759284853935242e-01" purity="4.1551458835601807e-01" nType="0">
            <Node pos="l" depth="3" NCoef="0" IVar="-1" Cut="0.0000000000000000e+00" cType="1" res="-3.0767075717449188e-02" rms="2.9015585780143738e-01" purity="2.2023646533489227e-01" nType="-99"/>
            <Node pos="r" depth="3" NCoef="0" IVar="-1" Cut="0.0000000000000000e+00" cType="1" res="-4.2658490128815174e-03" rms="3.1057173013687134e-01" purity="7.8953289985656738e-01" nType="-99"/>
          </Node>
          <Node pos="r" depth="2" NCoef="0" IVar="5" Cut="1.2846000671386719e+02" cType="1" res="1.2614813167601824e-03" rms="2.9809585213661194e-01" purity="3.6462679505348206e-01" nType="0">
            <Node pos="l" depth="3" NCoef="0" IVar="-1" Cut="0.0000000000000000e+00" cType="1" res="-2.0241664722561836e-02" rms="2.5295290350914001e-01" purity="1.3763938844203949e-01" nType="-99"/>
            <Node pos="r" depth="3" NCoef="0" IVar="-1" Cut="0.0000000000000000e+00" cType="1" res="1.6796076670289040e-02" rms="3.4120169281959534e-01" purity="6.2156301736831665e-01" nType="-99"/>
          </Node>
        </Node>
      </Node>
    </BinaryTree>
    <BinaryTree type="DecisionTree" boostWeight="1.0000000000000000e+00" itree="380">
      <Node pos="s" depth="0" NCoef="0" IVar="8" Cut="-9.3326526880264282e-01" cType="1" res="-7.2218570858240128e-04" rms="2.9904121160507202e-01" purity="4.9735042452812195e-01" nType="0">
        <Node pos="l" depth="1" NCoef="0" IVar="2" Cut="1.7278157174587250e-02" cType="1" res="1.2350538745522499e-02" rms="3.0828496813774109e-01" purity="3.4232574701309204e-01" nType="0">
          <Node pos="l" depth="2" NCoef="0" IVar="0" Cut="4.5299887084960938e+02" cType="1" res="9.4557020929642022e-05" rms="2.5810435414314270e-01" purity="1.4669561386108398e-01" nType="0">
            <Node pos="l" depth="3" NCoef="0" IVar="-1" Cut="0.0000000000000000e+00" cType="1" res="-2.7406523004174232e-02" rms="1.7872214317321777e-01" purity="4.3234091252088547e-02" nType="-99"/>
            <Node pos="r" depth="3" NCoef="0" IVar="-1" Cut="0.0000000000000000e+00" cType="1" res="2.0594086498022079e-02" rms="3.8179555535316467e-01" purity="3.8590741157531738e-01" nType="-99"/>
          </Node>
          <Node pos="r" depth="2" NCoef="0" IVar="1" Cut="1.4111550292968750e+03" cType="1" res="2.2222431376576424e-02" rms="3.4309503436088562e-01" purity="4.9990102648735046e-01" nType="0">
            <Node pos="l" depth="3" NCoef="0" IVar="-1" Cut="0.0000000000000000e+00" cType="1" res="3.8429770618677139e-02" rms="3.6378455162048340e-01" purity="2.3966300487518311e-01" nType="-99"/>
            <Node pos="r" depth="3" NCoef="0" IVar="-1" Cut="0.0000000000000000e+00" cType="1" res="-2.9217868577688932e-03" rms="3.1377422809600830e-01" purity="8.2219856977462769e-01" nType="-99"/>
          </Node>
        </Node>
        <Node pos="r" depth="1" NCoef="0" IVar="7" Cut="4.0495520830154419e-01" cType="1" res="-3.7773265503346920e-03" rms="2.9675641655921936e-01" purity="5.3358024358749390e-01" nType="0">
          <Node pos="l" depth="2" NCoef="0" IVar="8" Cut="-5.7773005962371826e-01" cType="1" res="-1.1877297656610608e-03" rms="2.9723814129829407e-01" purity="5.7641333341598511e-01" nType="0">
            <Node pos="l" depth="3" NCoef="0" IVar="-1" Cut="0.0000000000000000e+00" cType="1" res="-1.8524091690778732e-02" rms="2.9896724224090576e-01" purity="5.4018121957778931e-01" nType="-99"/>
            <Node pos="r" depth="3" NCoef="0" IVar="-1" Cut="0.0000000000000000e+00" cType="1" res="1.1855331249535084e-03" rms="2.9692110419273376e-01" purity="5.8160990476608276e-01" nType="-99"/>
          </Node>
          <Node pos="r" depth="2" NCoef="0" IVar="8" Cut="-2.2215935587882996e-01" cType="1" res="-9.2080915346741676e-03" rms="2.9567000269889832e-01" purity="4.4375285506248474e-01" nType="0">
            <Node pos="l" depth="3" NCoef="0" IVar="-1" Cut="0.0000000000000000e+00" cType="1" res="7.3155914433300495e-03" rms="3.2878252863883972e-01" purity="5.1224833726882935e-01" nType="-99"/>
            <Node pos="r" depth="3" NCoef="0" IVar="-1" Cut="0.0000000000000000e+00" cType="1" res="-1.7355160787701607e-02" rms="2.8368800878524780e-01" purity="4.2114469408988953e-01" nType="-99"/>
          </Node>
        </Node>
      </Node>
    </BinaryTree>
    <BinaryTree type="DecisionTree" boostWeight="1.0000000000000000e+00" itree="381">
      <Node pos="s" depth="0" NCoef="0" IVar="7" Cut="-6.5968179702758789e-01" cType="1" res="3.5448223934508860e-04" rms="2.9683601856231689e-01" purity="5.0096923112869263e-01" nType="0">
        <Node pos="l" depth="1" NCoef="0" IVar="5" Cut="1.6120103454589844e+02" cType="1" res="-6.3242367468774319e-03" rms="2.8913134336471558e-01" purity="3.3534818887710571e-01" nType="0">
          <Node pos="l" depth="2" NCoef="0" IVar="8" Cut="-9.3336153030395508e-01" cType="1" res="-6.9865236582700163e-06" rms="2.7241060137748718e-01" purity="1.5652781724929810e-01" nType="0">
            <Node pos="l" depth="3" NCoef="0" IVar="-1" Cut="0.0000000000000000e+00" cType="1" res="2.4839371442794800e-02" rms="2.5727987289428711e-01" purity="1.3765166699886322e-01" nType="-99"/>
            <Node pos="r" depth="3" NCoef="0" IVar="-1" Cut="0.0000000000000000e+00" cType="1" res="-7.9334992915391922e-03" rms="2.7773874998092651e-01" purity="1.6375026106834412e-01" nType="-99"/>
          </Node>
          <Node pos="r" depth="2" NCoef="0" IVar="0" Cut="5.1305511474609375e+02" cType="1" res="-1.8536249175667763e-02" rms="3.1862434744834900e-01" purity="6.8102967739105225e-01" nType="0">
            <Node pos="l" depth="3" NCoef="0" IVar="-1" Cut="0.0000000000000000e+00" cType="1" res="-2.4703156203031540e-02" rms="3.7644574046134949e-01" purity="4.3935248255729675e-01" nType="-99"/>
            <Node pos="r" depth="3" NCoef="0" IVar="-1" Cut="0.0000000000000000e+00" cType="1" res="-3.9112544618546963e-03" rms="2.5337997078895569e-01" purity="9.0224832296371460e-01" nType="-99"/>
          </Node>
        </Node>
        <Node pos="r" depth="1" NCoef="0" IVar="7" Cut="-4.9494075775146484e-01" cType="1" res="2.2876411676406860e-03" rms="2.9900127649307251e-01" purity="5.4890835285186768e-01" nType="0">
          <Node pos="l" depth="2" NCoef="0" IVar="10" Cut="-1.3328990340232849e-01" cType="1" res="1.8360754474997520e-02" rms="3.2688555121421814e-01" purity="6.0182708501815796e-01" nType="0">
            <Node pos="l" depth="3" NCoef="0" IVar="-1" Cut="0.0000000000000000e+00" cType="1" res="6.3900686800479889e-03" rms="3.2190081477165222e-01" purity="5.8765953779220581e-01" nType="-99"/>
            <Node pos="r" depth="3" NCoef="0" IVar="-1" Cut="0.0000000000000000e+00" cType="1" res="2.9734319075942039e-02" rms="3.3118286728858948e-01" purity="6.1535310745239258e-01" nType="-99"/>
          </Node>
          <Node pos="r" depth="2" NCoef="0" IVar="1" Cut="1.4400571289062500e+03" cType="1" res="9.1545726172626019e-04" rms="2.9645889997482300e-01" purity="5.4439061880111694e-01" nType="0">
            <Node pos="l" depth="3" NCoef="0" IVar="-1" Cut="0.0000000000000000e+00" cType="1" res="-3.4537299070507288e-03" rms="3.1431886553764343e-01" purity="1.9757992029190063e-01" nType="-99"/>
            <Node pos="r" depth="3" NCoef="0" IVar="-1" Cut="0.0000000000000000e+00" cType="1" res="6.2432046979665756e-03" rms="2.7938842773437500e-01" purity="8.5584563016891479e-01" nType="-99"/>
          </Node>
        </Node>
      </Node>
    </BinaryTree>
    <BinaryTree type="DecisionTree" boostWeight="1.0000000000000000e+00" itree="382">
      <Node pos="s" depth="0" NCoef="0" IVar="2" Cut="4.1834004223346710e-02" cType="1" res="2.9764941427856684e-03" rms="3.0113893747329712e-01" purity="5.0266838073730469e-01" nType="0">
        <Node pos="l" depth="1" NCoef="0" IVar="2" Cut="1.9922936335206032e-03" cType="1" res="6.5305577591061592e-03" rms="3.0154910683631897e-01" purity="3.2689359784126282e-01" nType="0">
          <Node pos="l" depth="2" NCoef="0" IVar="-1" Cut="0.0000000000000000e+00" cType="1" res="-1.5446383506059647e-02" rms="2.2106172144412994e-01" purity="1.1614435166120529e-01" nType="-99"/>
          <Node pos="r" depth="2" NCoef="0" IVar="7" Cut="-1.4474570751190186e+00" cType="1" res="7.8304540365934372e-03" rms="3.0743587017059326e-01" purity="3.4496226906776428e-01" nType="0">
            <Node pos="l" depth="3" NCoef="0" IVar="-1" Cut="0.0000000000000000e+00" cType="1" res="3.4825995564460754e-02" rms="2.5432616472244263e-01" purity="1.3696293532848358e-01" nType="-99"/>
            <Node pos="r" depth="3" NCoef="0" IVar="-1" Cut="0.0000000000000000e+00" cType="1" res="6.7712459713220596e-03" rms="3.1241065263748169e-01" purity="3.6660408973693848e-01" nType="-99"/>
          </Node>
        </Node>
        <Node pos="r" depth="1" NCoef="0" IVar="2" Cut="7.9684510827064514e-02" cType="1" res="-1.3852991396561265e-03" rms="3.0057731270790100e-01" purity="7.1839147806167603e-01" nType="0">
          <Node pos="l" depth="2" NCoef="0" IVar="9" Cut="-9.3259996175765991e-01" cType="1" res="-6.0855722986161709e-03" rms="3.2066187262535095e-01" purity="6.0947102308273315e-01" nType="0">
            <Node pos="l" depth="3" NCoef="0" IVar="-1" Cut="0.0000000000000000e+00" cType="1" res="-1.7520777881145477e-02" rms="3.4195297956466675e-01" purity="4.7002744674682617e-01" nType="-99"/>
            <Node pos="r" depth="3" NCoef="0" IVar="-1" Cut="0.0000000000000000e+00" cType="1" res="-2.5930155534297228e-03" rms="3.1533679366111755e-01" purity="6.4231985807418823e-01" nType="-99"/>
          </Node>
          <Node pos="r" depth="2" NCoef="0" IVar="4" Cut="1.9463020324707031e+02" cType="1" res="2.0558405667543411e-03" rms="2.8492784500122070e-01" purity="7.9813373088836670e-01" nType="0">
            <Node pos="l" depth="3" NCoef="0" IVar="-1" Cut="0.0000000000000000e+00" cType="1" res="1.0909305885434151e-02" rms="3.8652849197387695e-01" purity="3.9780980348587036e-01" nType="-99"/>
            <Node pos="r" depth="3" NCoef="0" IVar="-1" Cut="0.0000000000000000e+00" cType="1" res="-1.4247989747673273e-03" rms="2.5715246796607971e-01" purity="8.8619458675384521e-01" nType="-99"/>
          </Node>
        </Node>
      </Node>
    </BinaryTree>
    <BinaryTree type="DecisionTree" boostWeight="1.0000000000000000e+00" itree="383">
      <Node pos="s" depth="0" NCoef="0" IVar="9" Cut="-1.1999970674514771e+00" cType="1" res="-1.0716069955378771e-03" rms="2.9759290814399719e-01" purity="5.0048595666885376e-01" nType="0">
        <Node pos="l" depth="1" NCoef="0" IVar="10" Cut="9.3361383676528931e-01" cType="1" res="8.7129278108477592e-03" rms="3.1302854418754578e-01" purity="3.5299488902091980e-01" nType="0">
          <Node pos="l" depth="2" NCoef="0" IVar="7" Cut="-6.3605642318725586e-01" cType="1" res="1.3645432889461517e-02" rms="3.1398743391036987e-01" purity="3.6740997433662415e-01" nType="0">
            <Node pos="l" depth="3" NCoef="0" IVar="-1" Cut="0.0000000000000000e+00" cType="1" res="-4.5049702748656273e-03" rms="2.7967345714569092e-01" purity="2.2243651747703552e-01" nType="-99"/>
            <Node pos="r" depth="3" NCoef="0" IVar="-1" Cut="0.0000000000000000e+00" cType="1" res="2.0621510222554207e-02" rms="3.2822743058204651e-01" purity="4.3387839198112488e-01" nType="-99"/>
          </Node>
          <Node pos="r" depth="2" NCoef="0" IVar="-1" Cut="0.0000000000000000e+00" cType="1" res="-1.2690879404544830e-02" rms="3.0825713276863098e-01" purity="2.9405707120895386e-01" nType="-99"/>
        </Node>
        <Node pos="r" depth="1" NCoef="0" IVar="8" Cut="-1.1998946666717529e+00" cType="1" res="-2.7686986140906811e-03" rms="2.9480040073394775e-01" purity="5.2606773376464844e-01" nType="0">
          <Node pos="l" depth="2" NCoef="0" IVar="7" Cut="4.6123680472373962e-01" cType="1" res="-1.7283294349908829e-02" rms="2.7752974629402161e-01" purity="2.7520093321800232e-01" nType="0">
            <Node pos="l" depth="3" NCoef="0" IVar="-1" Cut="0.0000000000000000e+00" cType="1" res="-9.4598662108182907e-03" rms="2.9570004343986511e-01" purity="3.2089179754257202e-01" nType="-99"/>
            <Node pos="r" depth="3" NCoef="0" IVar="-1" Cut="0.0000000000000000e+00" cType="1" res="-4.7981537878513336e-02" rms="2.2835493087768555e-01" purity="1.6843746602535248e-01" nType="-99"/>
          </Node>
          <Node pos="r" depth="2" NCoef="0" IVar="8" Cut="-8.1896108388900757e-01" cType="1" res="-9.2651211889460683e-04" rms="2.9686978459358215e-01" purity="5.5790770053863525e-01" nType="0">
            <Node pos="l" depth="3" NCoef="0" IVar="-1" Cut="0.0000000000000000e+00" cType="1" res="1.1438209563493729e-02" rms="3.1917232275009155e-01" purity="5.4774427413940430e-01" nType="-99"/>
            <Node pos="r" depth="3" NCoef="0" IVar="-1" Cut="0.0000000000000000e+00" cType="1" res="-2.6192734949290752e-03" rms="2.9424542188644409e-01" purity="5.5904102325439453e-01" nType="-99"/>
          </Node>
        </Node>
      </Node>
    </BinaryTree>
    <BinaryTree type="DecisionTree" boostWeight="1.0000000000000000e+00" itree="384">
      <Node pos="s" depth="0" NCoef="0" IVar="5" Cut="2.1669911193847656e+02" cType="1" res="4.1421847417950630e-03" rms="3.0133125185966492e-01" purity="5.0610333681106567e-01" nType="0">
        <Node pos="l" depth="1" NCoef="0" IVar="3" Cut="3.3293682861328125e+02" cType="1" res="6.5001128241419792e-03" rms="3.1804448366165161e-01" purity="3.8669767975807190e-01" nType="0">
          <Node pos="l" depth="2" NCoef="0" IVar="3" Cut="2.4431233215332031e+02" cType="1" res="-1.2162366183474660e-03" rms="2.9963892698287964e-01" purity="2.2105629742145538e-01" nType="0">
            <Node pos="l" depth="3" NCoef="0" IVar="-1" Cut="0.0000000000000000e+00" cType="1" res="1.5187561511993408e-02" rms="2.9538044333457947e-01" purity="1.5961803495883942e-01" nType="-99"/>
            <Node pos="r" depth="3" NCoef="0" IVar="-1" Cut="0.0000000000000000e+00" cType="1" res="-7.5687849894165993e-03" rms="3.0137145519256592e-01" purity="2.4907708168029785e-01" nType="-99"/>
          </Node>
          <Node pos="r" depth="2" NCoef="0" IVar="0" Cut="4.2781921386718750e+02" cType="1" res="1.1964691802859306e-02" rms="3.3035048842430115e-01" purity="5.0400191545486450e-01" nType="0">
            <Node pos="l" depth="3" NCoef="0" IVar="-1" Cut="0.0000000000000000e+00" cType="1" res="2.0450919866561890e-02" rms="3.2696825265884399e-01" purity="2.4513725936412811e-01" nType="-99"/>
            <Node pos="r" depth="3" NCoef="0" IVar="-1" Cut="0.0000000000000000e+00" cType="1" res="5.1308488473296165e-03" rms="3.3252733945846558e-01" purity="6.8334102630615234e-01" nType="-99"/>
          </Node>
        </Node>
        <Node pos="r" depth="1" NCoef="0" IVar="9" Cut="9.3240445852279663e-01" cType="1" res="-3.5562149714678526e-03" rms="2.3859083652496338e-01" purity="8.9595085382461548e-01" nType="0">
          <Node pos="l" depth="2" NCoef="0" IVar="6" Cut="8.5090957641601562e+01" cType="1" res="-7.6593767153099179e-04" rms="2.3083510994911194e-01" purity="9.0679192543029785e-01" nType="0">
            <Node pos="l" depth="3" NCoef="0" IVar="-1" Cut="0.0000000000000000e+00" cType="1" res="1.4273101463913918e-02" rms="3.1445342302322388e-01" purity="7.9026383161544800e-01" nType="-99"/>
            <Node pos="r" depth="3" NCoef="0" IVar="-1" Cut="0.0000000000000000e+00" cType="1" res="-7.4077690951526165e-03" rms="2.1386949717998505e-01" purity="9.2594474554061890e-01" nType="-99"/>
          </Node>
          <Node pos="r" depth="2" NCoef="0" IVar="-1" Cut="0.0000000000000000e+00" cType="1" res="-2.7784900739789009e-02" rms="2.8099429607391357e-01" purity="8.2932728528976440e-01" nType="-99"/>
        </Node>
      </Node>
    </BinaryTree>
    <BinaryTree type="DecisionTree" boostWeight="1.0000000000000000e+00" itree="385">
      <Node pos="s" depth="0" NCoef="0" IVar="10" Cut="-9.3332886695861816e-01" cType="1" res="9.5147704996634275e-05" rms="2.9764735698699951e-01" purity="4.9862059950828552e-01" nType="0">
        <Node pos="l" depth="1" NCoef="0" IVar="2" Cut="4.1369650512933731e-02" cType="1" res="-7.1709165349602699e-03" rms="2.9474422335624695e-01" purity="4.4372689723968506e-01" nType="0">
          <Node pos="l" depth="2" NCoef="0" IVar="2" Cut="2.7579665184020996e-02" cType="1" res="-1.4533116482198238e-02" rms="2.8244197368621826e-01" purity="2.4091657996177673e-01" nType="0">
            <Node pos="l" depth="3" NCoef="0" IVar="-1" Cut="0.0000000000000000e+00" cType="1" res="-2.6782395318150520e-02" rms="2.5904092192649841e-01" purity="1.9221329689025879e-01" nType="-99"/>
            <Node pos="r" depth="3" NCoef="0" IVar="-1" Cut="0.0000000000000000e+00" cType="1" res="8.6106611415743828e-03" rms="3.5646933317184448e-01" purity="4.2554381489753723e-01" nType="-99"/>
          </Node>
          <Node pos="r" depth="2" NCoef="0" IVar="5" Cut="1.2969476318359375e+02" cType="1" res="1.4942379202693701e-03" rms="3.0837094783782959e-01" purity="6.8243032693862915e-01" nType="0">
            <Node pos="l" depth="3" NCoef="0" IVar="-1" Cut="0.0000000000000000e+00" cType="1" res="-1.3549068942666054e-02" rms="3.3283224701881409e-01" purity="3.0659672617912292e-01" nType="-99"/>
            <Node pos="r" depth="3" NCoef="0" IVar="-1" Cut="0.0000000000000000e+00" cType="1" res="9.8408013582229614e-03" rms="2.9761463403701782e-01" purity="8.3421415090560913e-01" nType="-99"/>
          </Node>
        </Node>
        <Node pos="r" depth="1" NCoef="0" IVar="7" Cut="-3.6266821622848511e-01" cType="1" res="2.2839056327939034e-03" rms="2.9848167300224304e-01" purity="5.1515620946884155e-01" nType="0">
          <Node pos="l" depth="2" NCoef="0" IVar="1" Cut="1.0734593505859375e+03" cType="1" res="-4.5393686741590500e-03" rms="2.9512545466423035e-01" purity="4.4031655788421631e-01" nType="0">
            <Node pos="l" depth="3" NCoef="0" IVar="-1" Cut="0.0000000000000000e+00" cType="1" res="2.4212770164012909e-02" rms="2.1064122021198273e-01" purity="5.2976410835981369e-02" nType="-99"/>
            <Node pos="r" depth="3" NCoef="0" IVar="-1" Cut="0.0000000000000000e+00" cType="1" res="-8.8699208572506905e-03" rms="3.1893941760063171e-01" purity="5.7369422912597656e-01" nType="-99"/>
          </Node>
          <Node pos="r" depth="2" NCoef="0" IVar="7" Cut="1.2936182022094727e+00" cType="1" res="5.4221414029598236e-03" rms="2.9996061325073242e-01" purity="5.4957735538482666e-01" nType="0">
            <Node pos="l" depth="3" NCoef="0" IVar="-1" Cut="0.0000000000000000e+00" cType="1" res="8.0482577905058861e-03" rms="3.0871480703353882e-01" purity="6.0763514041900635e-01" nType="-99"/>
            <Node pos="r" depth="3" NCoef="0" IVar="-1" Cut="0.0000000000000000e+00" cType="1" res="-1.3760579749941826e-02" rms="2.3088170588016510e-01" purity="1.5252341330051422e-01" nType="-99"/>
          </Node>
        </Node>
      </Node>
    </BinaryTree>
    <BinaryTree type="DecisionTree" boostWeight="1.0000000000000000e+00" itree="386">
      <Node pos="s" depth="0" NCoef="0" IVar="8" Cut="-6.6677963733673096e-01" cType="1" res="1.5688774874433875e-04" rms="2.9845756292343140e-01" purity="5.0348961353302002e-01" nType="0">
        <Node pos="l" depth="1" NCoef="0" IVar="7" Cut="-1.1820169687271118e+00" cType="1" res="7.4490988627076149e-03" rms="3.0618828535079956e-01" purity="4.0729689598083496e-01" nType="0">
          <Node pos="l" depth="2" NCoef="0" IVar="-1" Cut="0.0000000000000000e+00" cType="1" res="-2.7249889448285103e-02" rms="2.2392438352108002e-01" purity="1.1769864708185196e-01" nType="-99"/>
          <Node pos="r" depth="2" NCoef="0" IVar="10" Cut="-1.1998516321182251e+00" cType="1" res="1.0941518470644951e-02" rms="3.1621438264846802e-01" purity="4.4937556982040405e-01" nType="0">
            <Node pos="l" depth="3" NCoef="0" IVar="-1" Cut="0.0000000000000000e+00" cType="1" res="3.0462132766842842e-02" rms="3.2518330216407776e-01" purity="3.7579214572906494e-01" nType="-99"/>
            <Node pos="r" depth="3" NCoef="0" IVar="-1" Cut="0.0000000000000000e+00" cType="1" res="6.4887399785220623e-03" rms="3.1368345022201538e-01" purity="4.6847659349441528e-01" nType="-99"/>
          </Node>
        </Node>
        <Node pos="r" depth="1" NCoef="0" IVar="3" Cut="3.4596969604492188e+02" cType="1" res="-2.4002953432500362e-03" rms="2.9565617442131042e-01" purity="5.3722178936004639e-01" nType="0">
          <Node pos="l" depth="2" NCoef="0" IVar="2" Cut="6.0468789190053940e-02" cType="1" res="5.3210761398077011e-03" rms="3.1008553504943848e-01" purity="3.0965799093246460e-01" nType="0">
            <Node pos="l" depth="3" NCoef="0" IVar="-1" Cut="0.0000000000000000e+00" cType="1" res="-3.2923289109021425e-03" rms="2.7449628710746765e-01" purity="1.6589793562889099e-01" nType="-99"/>
            <Node pos="r" depth="3" NCoef="0" IVar="-1" Cut="0.0000000000000000e+00" cType="1" res="1.5377175062894821e-02" rms="3.6522620916366577e-01" purity="5.6916338205337524e-01" nType="-99"/>
          </Node>
          <Node pos="r" depth="2" NCoef="0" IVar="0" Cut="6.8287707519531250e+02" cType="1" res="-6.7705567926168442e-03" rms="2.8707605600357056e-01" purity="6.6602194309234619e-01" nType="0">
            <Node pos="l" depth="3" NCoef="0" IVar="-1" Cut="0.0000000000000000e+00" cType="1" res="-9.9005214869976044e-03" rms="3.1667634844779968e-01" purity="5.4046303033828735e-01" nType="-99"/>
            <Node pos="r" depth="3" NCoef="0" IVar="-1" Cut="0.0000000000000000e+00" cType="1" res="7.4062106432393193e-04" rms="2.1002449095249176e-01" purity="9.3460458517074585e-01" nType="-99"/>
          </Node>
        </Node>
      </Node>
    </BinaryTree>
    <BinaryTree type="DecisionTree" boostWeight="1.0000000000000000e+00" itree="387">
      <Node pos="s" depth="0" NCoef="0" IVar="7" Cut="-1.0808495432138443e-01" cType="1" res="1.8425564048811793e-03" rms="2.9590117931365967e-01" purity="5.0536167621612549e-01" nType="0">
        <Node pos="l" depth="1" NCoef="0" IVar="9" Cut="1.4666628837585449e+00" cType="1" res="6.9375010207295418e-03" rms="3.0031579732894897e-01" purity="4.9323099851608276e-01" nType="0">
          <Node pos="l" depth="2" NCoef="0" IVar="3" Cut="3.3999343872070312e+02" cType="1" res="4.1706748306751251e-03" rms="2.9665130376815796e-01" purity="5.0960296392440796e-01" nType="0">
            <Node pos="l" depth="3" NCoef="0" IVar="-1" Cut="0.0000000000000000e+00" cType="1" res="-5.2240649238228798e-03" rms="2.9616990685462952e-01" purity="2.6351475715637207e-01" nType="-99"/>
            <Node pos="r" depth="3" NCoef="0" IVar="-1" Cut="0.0000000000000000e+00" cType="1" res="1.0190937668085098e-02" rms="2.9679948091506958e-01" purity="6.4277130365371704e-01" nType="-99"/>
          </Node>
          <Node pos="r" depth="2" NCoef="0" IVar="-1" Cut="0.0000000000000000e+00" cType="1" res="3.3849466592073441e-02" rms="3.3233249187469482e-01" purity="3.3579009771347046e-01" nType="-99"/>
        </Node>
        <Node pos="r" depth="1" NCoef="0" IVar="9" Cut="-1.2000890970230103e+00" cType="1" res="-2.3443319369107485e-03" rms="2.9215696454048157e-01" purity="5.1533025503158569e-01" nType="0">
          <Node pos="l" depth="2" NCoef="0" IVar="5" Cut="1.1903475952148438e+02" cType="1" res="-1.5460912138223648e-02" rms="2.9780259728431702e-01" purity="3.2975953817367554e-01" nType="0">
            <Node pos="l" depth="3" NCoef="0" IVar="-1" Cut="0.0000000000000000e+00" cType="1" res="2.7983302716165781e-03" rms="2.6113748550415039e-01" purity="1.5837341547012329e-01" nType="-99"/>
            <Node pos="r" depth="3" NCoef="0" IVar="-1" Cut="0.0000000000000000e+00" cType="1" res="-2.9808448627591133e-02" rms="3.3205232024192810e-01" purity="5.1589924097061157e-01" nType="-99"/>
          </Node>
          <Node pos="r" depth="2" NCoef="0" IVar="9" Cut="-6.2867325544357300e-01" cType="1" res="-4.8553553642705083e-04" rms="2.9130029678344727e-01" purity="5.4162818193435669e-01" nType="0">
            <Node pos="l" depth="3" NCoef="0" IVar="-1" Cut="0.0000000000000000e+00" cType="1" res="1.3341937214136124e-02" rms="3.1037750840187073e-01" purity="5.7536339759826660e-01" nType="-99"/>
            <Node pos="r" depth="3" NCoef="0" IVar="-1" Cut="0.0000000000000000e+00" cType="1" res="-3.2214694656431675e-03" rms="2.8775513172149658e-01" purity="5.3570044040679932e-01" nType="-99"/>
          </Node>
        </Node>
      </Node>
    </BinaryTree>
    <BinaryTree type="DecisionTree" boostWeight="1.0000000000000000e+00" itree="388">
      <Node pos="s" depth="0" NCoef="0" IVar="9" Cut="-1.2000005245208740e+00" cType="1" res="1.1016393546015024e-04" rms="3.0091300606727600e-01" purity="4.9677336215972900e-01" nType="0">
        <Node pos="l" depth="1" NCoef="0" IVar="8" Cut="9.3249315023422241e-01" cType="1" res="9.1001279652118683e-03" rms="3.0559399724006653e-01" purity="3.5181137919425964e-01" nType="0">
          <Node pos="l" depth="2" NCoef="0" IVar="7" Cut="-3.7152549624443054e-01" cType="1" res="2.7798276860266924e-03" rms="3.0470058321952820e-01" purity="3.7578663229942322e-01" nType="0">
            <Node pos="l" depth="3" NCoef="0" IVar="-1" Cut="0.0000000000000000e+00" cType="1" res="1.8135376274585724e-02" rms="3.0995601415634155e-01" purity="3.3359417319297791e-01" nType="-99"/>
            <Node pos="r" depth="3" NCoef="0" IVar="-1" Cut="0.0000000000000000e+00" cType="1" res="-7.8069497831165791e-03" rms="3.0028715729713440e-01" purity="4.0738654136657715e-01" nType="-99"/>
          </Node>
          <Node pos="r" depth="2" NCoef="0" IVar="-1" Cut="0.0000000000000000e+00" cType="1" res="4.5939497649669647e-02" rms="3.0796232819557190e-01" purity="2.4583080410957336e-01" nType="-99"/>
        </Node>
        <Node pos="r" depth="1" NCoef="0" IVar="3" Cut="3.4596902465820312e+02" cType="1" res="-1.4875899069011211e-03" rms="3.0004522204399109e-01" purity="5.2253693342208862e-01" nType="0">
          <Node pos="l" depth="2" NCoef="0" IVar="3" Cut="2.6950769042968750e+02" cType="1" res="-5.6542987003922462e-03" rms="3.0296266078948975e-01" purity="2.8683748841285706e-01" nType="0">
            <Node pos="l" depth="3" NCoef="0" IVar="-1" Cut="0.0000000000000000e+00" cType="1" res="-1.6364714130759239e-02" rms="2.8293645381927490e-01" purity="1.8166311085224152e-01" nType="-99"/>
            <Node pos="r" depth="3" NCoef="0" IVar="-1" Cut="0.0000000000000000e+00" cType="1" res="1.1826115660369396e-03" rms="3.1772446632385254e-01" purity="3.6991342902183533e-01" nType="-99"/>
          </Node>
          <Node pos="r" depth="2" NCoef="0" IVar="1" Cut="1.7078834228515625e+03" cType="1" res="9.0420403284952044e-04" rms="2.9833137989044189e-01" purity="6.5783423185348511e-01" nType="0">
            <Node pos="l" depth="3" NCoef="0" IVar="-1" Cut="0.0000000000000000e+00" cType="1" res="4.7116735950112343e-03" rms="3.5018399357795715e-01" purity="3.8764768838882446e-01" nType="-99"/>
            <Node pos="r" depth="3" NCoef="0" IVar="-1" Cut="0.0000000000000000e+00" cType="1" res="-6.4065442420542240e-03" rms="2.4056608974933624e-01" purity="9.0761160850524902e-01" nType="-99"/>
          </Node>
        </Node>
      </Node>
    </BinaryTree>
    <BinaryTree type="DecisionTree" boostWeight="1.0000000000000000e+00" itree="389">
      <Node pos="s" depth="0" NCoef="0" IVar="10" Cut="-1.4666318893432617e+00" cType="1" res="-7.4814184335991740e-04" rms="2.9882287979125977e-01" purity="5.0091522932052612e-01" nType="0">
        <Node pos="l" depth="1" NCoef="0" IVar="8" Cut="1.3345214724540710e-01" cType="1" res="9.2329131439328194e-03" rms="3.0566257238388062e-01" purity="4.1293808817863464e-01" nType="0">
          <Node pos="l" depth="2" NCoef="0" IVar="7" Cut="-8.7277427315711975e-02" cType="1" res="1.7290910705924034e-02" rms="3.0737596750259399e-01" purity="4.1510263085365295e-01" nType="0">
            <Node pos="l" depth="3" NCoef="0" IVar="-1" Cut="0.0000000000000000e+00" cType="1" res="7.4876416474580765e-03" rms="2.9528731107711792e-01" purity="3.8730648159980774e-01" nType="-99"/>
            <Node pos="r" depth="3" NCoef="0" IVar="-1" Cut="0.0000000000000000e+00" cType="1" res="3.1116141006350517e-02" rms="3.2009363174438477e-01" purity="4.4658580422401428e-01" nType="-99"/>
          </Node>
          <Node pos="r" depth="2" NCoef="0" IVar="-1" Cut="0.0000000000000000e+00" cType="1" res="-3.2969082240015268e-03" rms="3.0258953571319580e-01" purity="4.0960866212844849e-01" nType="-99"/>
        </Node>
        <Node pos="r" depth="1" NCoef="0" IVar="5" Cut="2.3262939453125000e+02" cType="1" res="-2.1385459695011377e-03" rms="2.9783108830451965e-01" purity="5.1317077875137329e-01" nType="0">
          <Node pos="l" depth="2" NCoef="0" IVar="2" Cut="8.2248263061046600e-02" cType="1" res="-3.9071189239621162e-03" rms="3.1377360224723816e-01" purity="4.0745988488197327e-01" nType="0">
            <Node pos="l" depth="3" NCoef="0" IVar="-1" Cut="0.0000000000000000e+00" cType="1" res="-6.9819535128772259e-03" rms="3.0991300940513611e-01" purity="3.2690450549125671e-01" nType="-99"/>
            <Node pos="r" depth="3" NCoef="0" IVar="-1" Cut="0.0000000000000000e+00" cType="1" res="6.5687294118106365e-03" rms="3.2812783122062683e-01" purity="7.2080934047698975e-01" nType="-99"/>
          </Node>
          <Node pos="r" depth="2" NCoef="0" IVar="2" Cut="4.0284838527441025e-02" cType="1" res="4.6407892368733883e-03" rms="2.2642764449119568e-01" purity="9.1838413476943970e-01" nType="0">
            <Node pos="l" depth="3" NCoef="0" IVar="-1" Cut="0.0000000000000000e+00" cType="1" res="1.6533654183149338e-02" rms="2.8993570804595947e-01" purity="8.3256751298904419e-01" nType="-99"/>
            <Node pos="r" depth="3" NCoef="0" IVar="-1" Cut="0.0000000000000000e+00" cType="1" res="6.2318553682416677e-04" rms="1.9384367763996124e-01" purity="9.5404648780822754e-01" nType="-99"/>
          </Node>
        </Node>
      </Node>
    </BinaryTree>
    <BinaryTree type="DecisionTree" boostWeight="1.0000000000000000e+00" itree="390">
      <Node pos="s" depth="0" NCoef="0" IVar="1" Cut="1.1001270751953125e+03" cType="1" res="-2.6871298905462027e-03" rms="2.9816573858261108e-01" purity="4.9725463986396790e-01" nType="0">
        <Node pos="l" depth="1" NCoef="0" IVar="4" Cut="1.4436468505859375e+02" cType="1" res="3.9894878864288330e-03" rms="2.1990822255611420e-01" purity="5.8524556457996368e-02" nType="0">
          <Node pos="l" depth="2" NCoef="0" IVar="9" Cut="6.6601824760437012e-01" cType="1" res="-3.9770412258803844e-03" rms="1.6692915558815002e-01" purity="3.1609822064638138e-02" nType="0">
            <Node pos="l" depth="3" NCoef="0" IVar="-1" Cut="0.0000000000000000e+00" cType="1" res="-3.2117709517478943e-02" rms="1.4641626179218292e-01" purity="2.4453938007354736e-02" nType="-99"/>
            <Node pos="r" depth="3" NCoef="0" IVar="-1" Cut="0.0000000000000000e+00" cType="1" res="2.3695236071944237e-02" rms="2.0082394778728485e-01" purity="4.5731220394372940e-02" nType="-99"/>
          </Node>
          <Node pos="r" depth="2" NCoef="0" IVar="8" Cut="-1.3363954424858093e-01" cType="1" res="1.4204002916812897e-02" rms="2.7285754680633545e-01" purity="9.3034058809280396e-02" nType="0">
            <Node pos="l" depth="3" NCoef="0" IVar="-1" Cut="0.0000000000000000e+00" cType="1" res="4.5870698988437653e-02" rms="2.9183512926101685e-01" purity="1.1133155226707458e-01" nType="-99"/>
            <Node pos="r" depth="3" NCoef="0" IVar="-1" Cut="0.0000000000000000e+00" cType="1" res="-7.0086267078295350e-04" rms="2.5410258769989014e-01" purity="7.6943084597587585e-02" nType="-99"/>
          </Node>
        </Node>
        <Node pos="r" depth="1" NCoef="0" IVar="7" Cut="-8.7873154878616333e-01" cType="1" res="-4.9755144864320755e-03" rms="3.2059055566787720e-01" purity="6.4762759208679199e-01" nType="0">
          <Node pos="l" depth="2" NCoef="0" IVar="10" Cut="-1.3327167928218842e-01" cType="1" res="4.4108629226684570e-03" rms="3.3292266726493835e-01" purity="4.2344835400581360e-01" nType="0">
            <Node pos="l" depth="3" NCoef="0" IVar="-1" Cut="0.0000000000000000e+00" cType="1" res="1.2802707962691784e-02" rms="3.3345103263854980e-01" purity="4.2586871981620789e-01" nType="-99"/>
            <Node pos="r" depth="3" NCoef="0" IVar="-1" Cut="0.0000000000000000e+00" cType="1" res="-5.9489156119525433e-03" rms="3.3201271295547485e-01" purity="4.2085668444633484e-01" nType="-99"/>
          </Node>
          <Node pos="r" depth="2" NCoef="0" IVar="1" Cut="1.9576348876953125e+03" cType="1" res="-6.4730183221399784e-03" rms="3.1855335831642151e-01" purity="6.8339323997497559e-01" nType="0">
            <Node pos="l" depth="3" NCoef="0" IVar="-1" Cut="0.0000000000000000e+00" cType="1" res="-7.5394916348159313e-03" rms="3.5997194051742554e-01" purity="5.6355857849121094e-01" nType="-99"/>
            <Node pos="r" depth="3" NCoef="0" IVar="-1" Cut="0.0000000000000000e+00" cType="1" res="1.7518920358270407e-03" rms="1.9985195994377136e-01" purity="9.4546067714691162e-01" nType="-99"/>
          </Node>
        </Node>
      </Node>
    </BinaryTree>
    <BinaryTree type="DecisionTree" boostWeight="1.0000000000000000e+00" itree="391">
      <Node pos="s" depth="0" NCoef="0" IVar="10" Cut="9.3333321809768677e-01" cType="1" res="3.2944877166301012e-03" rms="2.9997083544731140e-01" purity="5.0459975004196167e-01" nType="0">
        <Node pos="l" depth="1" NCoef="0" IVar="9" Cut="-1.4666715860366821e+00" cType="1" res="8.5915764793753624e-04" rms="2.9716730117797852e-01" purity="5.1759594678878784e-01" nType="0">
          <Node pos="l" depth="2" NCoef="0" IVar="0" Cut="4.1510980224609375e+02" cType="1" res="-1.0453294962644577e-02" rms="2.8228956460952759e-01" purity="2.9291409254074097e-01" nType="0">
            <Node pos="l" depth="3" NCoef="0" IVar="-1" Cut="0.0000000000000000e+00" cType="1" res="-3.3404137939214706e-02" rms="2.2262939810752869e-01" purity="7.9256094992160797e-02" nType="-99"/>
            <Node pos="r" depth="3" NCoef="0" IVar="-1" Cut="0.0000000000000000e+00" cType="1" res="1.5395851805806160e-03" rms="3.3653411269187927e-01" purity="5.3301823139190674e-01" nType="-99"/>
          </Node>
          <Node pos="r" depth="2" NCoef="0" IVar="8" Cut="-1.3328702747821808e-01" cType="1" res="2.1864068694412708e-03" rms="2.9883623123168945e-01" purity="5.4395711421966553e-01" nType="0">
            <Node pos="l" depth="3" NCoef="0" IVar="-1" Cut="0.0000000000000000e+00" cType="1" res="-2.9886604752391577e-03" rms="2.9778286814689636e-01" purity="5.1753813028335571e-01" nType="-99"/>
            <Node pos="r" depth="3" NCoef="0" IVar="-1" Cut="0.0000000000000000e+00" cType="1" res="6.8697882816195488e-03" rms="2.9963511228561401e-01" purity="5.6554168462753296e-01" nType="-99"/>
          </Node>
        </Node>
        <Node pos="r" depth="1" NCoef="0" IVar="3" Cut="3.2287158203125000e+02" cType="1" res="1.0871452279388905e-02" rms="3.0840760469436646e-01" purity="4.6416479349136353e-01" nType="0">
          <Node pos="l" depth="2" NCoef="0" IVar="3" Cut="2.6436096191406250e+02" cType="1" res="2.3978583514690399e-02" rms="3.1721556186676025e-01" purity="2.4168539047241211e-01" nType="0">
            <Node pos="l" depth="3" NCoef="0" IVar="-1" Cut="0.0000000000000000e+00" cType="1" res="8.5074342787265778e-03" rms="2.9777806997299194e-01" purity="1.5379266440868378e-01" nType="-99"/>
            <Node pos="r" depth="3" NCoef="0" IVar="-1" Cut="0.0000000000000000e+00" cType="1" res="4.0637705475091934e-02" rms="3.3327499032020569e-01" purity="3.2248592376708984e-01" nType="-99"/>
          </Node>
          <Node pos="r" depth="2" NCoef="0" IVar="10" Cut="1.9999954700469971e+00" cType="1" res="4.2442209087312222e-03" rms="3.0364167690277100e-01" purity="5.7665497064590454e-01" nType="0">
            <Node pos="l" depth="3" NCoef="0" IVar="-1" Cut="0.0000000000000000e+00" cType="1" res="1.0401406325399876e-02" rms="3.0165842175483704e-01" purity="6.1287051439285278e-01" nType="-99"/>
            <Node pos="r" depth="3" NCoef="0" IVar="-1" Cut="0.0000000000000000e+00" cType="1" res="-1.4773648232221603e-02" rms="3.1087371706962585e-01" purity="4.2854937911033630e-01" nType="-99"/>
          </Node>
        </Node>
      </Node>
    </BinaryTree>
    <BinaryTree type="DecisionTree" boostWeight="1.0000000000000000e+00" itree="392">
      <Node pos="s" depth="0" NCoef="0" IVar="9" Cut="1.4666072130203247e+00" cType="1" res="-1.6630014870315790e-03" rms="2.9736292362213135e-01" purity="5.0063657760620117e-01" nType="0">
        <Node pos="l" depth="1" NCoef="0" IVar="10" Cut="1.3335058093070984e-01" cType="1" res="-5.2237726049497724e-04" rms="2.9796594381332397e-01" purity="5.2434051036834717e-01" nType="0">
          <Node pos="l" depth="2" NCoef="0" IVar="7" Cut="-1.1652978658676147e+00" cType="1" res="2.2968440316617489e-03" rms="3.0066925287246704e-01" purity="5.2075308561325073e-01" nType="0">
            <Node pos="l" depth="3" NCoef="0" IVar="-1" Cut="0.0000000000000000e+00" cType="1" res="-1.7299538478255272e-02" rms="2.4954399466514587e-01" purity="1.6902212798595428e-01" nType="-99"/>
            <Node pos="r" depth="3" NCoef="0" IVar="-1" Cut="0.0000000000000000e+00" cType="1" res="4.4301287271082401e-03" rms="3.0653721094131470e-01" purity="5.6568121910095215e-01" nType="-99"/>
          </Node>
          <Node pos="r" depth="2" NCoef="0" IVar="9" Cut="4.5078730583190918e-01" cType="1" res="-3.9498349651694298e-03" rms="2.9460960626602173e-01" purity="5.2870190143585205e-01" nType="0">
            <Node pos="l" depth="3" NCoef="0" IVar="-1" Cut="0.0000000000000000e+00" cType="1" res="-9.2626782134175301e-03" rms="2.8961491584777832e-01" purity="5.3317564725875854e-01" nType="-99"/>
            <Node pos="r" depth="3" NCoef="0" IVar="-1" Cut="0.0000000000000000e+00" cType="1" res="5.6904689408838749e-03" rms="3.0516979098320007e-01" purity="5.1880896091461182e-01" nType="-99"/>
          </Node>
        </Node>
        <Node pos="r" depth="1" NCoef="0" IVar="7" Cut="6.8565165996551514e-01" cType="1" res="-1.1921509169042110e-02" rms="2.9168313741683960e-01" purity="2.8744879364967346e-01" nType="0">
          <Node pos="l" depth="2" NCoef="0" IVar="10" Cut="-1.3354712724685669e-01" cType="1" res="-1.9129622727632523e-02" rms="3.0246645212173462e-01" purity="3.3172309398651123e-01" nType="0">
            <Node pos="l" depth="3" NCoef="0" IVar="-1" Cut="0.0000000000000000e+00" cType="1" res="-3.2176636159420013e-03" rms="3.2443296909332275e-01" purity="3.4377264976501465e-01" nType="-99"/>
            <Node pos="r" depth="3" NCoef="0" IVar="-1" Cut="0.0000000000000000e+00" cType="1" res="-3.1080909073352814e-02" rms="2.8443965315818787e-01" purity="3.2275280356407166e-01" nType="-99"/>
          </Node>
          <Node pos="r" depth="2" NCoef="0" IVar="-1" Cut="0.0000000000000000e+00" cType="1" res="5.9439954347908497e-03" rms="2.6520621776580811e-01" purity="1.8816742300987244e-01" nType="-99"/>
        </Node>
      </Node>
    </BinaryTree>
    <BinaryTree type="DecisionTree" boostWeight="1.0000000000000000e+00" itree="393">
      <Node pos="s" depth="0" NCoef="0" IVar="7" Cut="1.2031272649765015e+00" cType="1" res="2.4734130129218102e-03" rms="2.9944503307342529e-01" purity="5.0429892539978027e-01" nType="0">
        <Node pos="l" depth="1" NCoef="0" IVar="8" Cut="-1.7332605123519897e+00" cType="1" res="8.0921128392219543e-04" rms="3.0243244767189026e-01" purity="5.3866666555404663e-01" nType="0">
          <Node pos="l" depth="2" NCoef="0" IVar="-1" Cut="0.0000000000000000e+00" cType="1" res="2.7668165042996407e-02" rms="2.9514718055725098e-01" purity="1.8697172403335571e-01" nType="-99"/>
          <Node pos="r" depth="2" NCoef="0" IVar="10" Cut="1.1999940872192383e+00" cType="1" res="-2.9645985341630876e-04" rms="3.0278968811035156e-01" purity="5.5802595615386963e-01" nType="0">
            <Node pos="l" depth="3" NCoef="0" IVar="-1" Cut="0.0000000000000000e+00" cType="1" res="1.6431880649179220e-03" rms="3.0242425203323364e-01" purity="5.7343971729278564e-01" nType="-99"/>
            <Node pos="r" depth="3" NCoef="0" IVar="-1" Cut="0.0000000000000000e+00" cType="1" res="-9.7763920202851295e-03" rms="3.0445855855941772e-01" purity="4.8059052228927612e-01" nType="-99"/>
          </Node>
        </Node>
        <Node pos="r" depth="1" NCoef="0" IVar="6" Cut="7.5605232238769531e+01" cType="1" res="1.7240790650248528e-02" rms="2.7105239033699036e-01" purity="1.9933491945266724e-01" nType="0">
          <Node pos="l" depth="2" NCoef="0" IVar="10" Cut="3.9927849173545837e-01" cType="1" res="1.8218627665191889e-03" rms="1.9842261075973511e-01" purity="5.3140126168727875e-02" nType="0">
            <Node pos="l" depth="3" NCoef="0" IVar="-1" Cut="0.0000000000000000e+00" cType="1" res="-1.3295283541083336e-02" rms="1.9330337643623352e-01" purity="4.6792101114988327e-02" nType="-99"/>
            <Node pos="r" depth="3" NCoef="0" IVar="-1" Cut="0.0000000000000000e+00" cType="1" res="2.5314910337328911e-02" rms="2.0309945940971375e-01" purity="5.9367962181568146e-02" nType="-99"/>
          </Node>
          <Node pos="r" depth="2" NCoef="0" IVar="-1" Cut="0.0000000000000000e+00" cType="1" res="3.3033404499292374e-02" rms="3.2991090416908264e-01" purity="3.5319340229034424e-01" nType="-99"/>
        </Node>
      </Node>
    </BinaryTree>
    <BinaryTree type="DecisionTree" boostWeight="1.0000000000000000e+00" itree="394">
      <Node pos="s" depth="0" NCoef="0" IVar="10" Cut="-1.9997848272323608e+00" cType="1" res="-1.5031979419291019e-03" rms="2.9785317182540894e-01" purity="4.9914228916168213e-01" nType="0">
        <Node pos="l" depth="1" NCoef="0" IVar="0" Cut="4.1503073120117188e+02" cType="1" res="1.5738911926746368e-02" rms="3.0535164475440979e-01" purity="3.4416323900222778e-01" nType="0">
          <Node pos="l" depth="2" NCoef="0" IVar="-1" Cut="0.0000000000000000e+00" cType="1" res="3.2110715983435512e-04" rms="2.6788347959518433e-01" purity="1.1284115165472031e-01" nType="-99"/>
          <Node pos="r" depth="2" NCoef="0" IVar="-1" Cut="0.0000000000000000e+00" cType="1" res="2.7382230386137962e-02" rms="3.3917447924613953e-01" purity="5.8444356918334961e-01" nType="-99"/>
        </Node>
        <Node pos="r" depth="1" NCoef="0" IVar="1" Cut="1.4002648925781250e+03" cType="1" res="-2.4680339265614748e-03" rms="2.9739844799041748e-01" purity="5.0781458616256714e-01" nType="0">
          <Node pos="l" depth="2" NCoef="0" IVar="2" Cut="1.0342355817556381e-01" cType="1" res="-6.4487289637327194e-03" rms="3.0167838931083679e-01" purity="1.6383297741413116e-01" nType="0">
            <Node pos="l" depth="3" NCoef="0" IVar="-1" Cut="0.0000000000000000e+00" cType="1" res="-3.3708233386278152e-03" rms="2.8835800290107727e-01" purity="1.3616092503070831e-01" nType="-99"/>
            <Node pos="r" depth="3" NCoef="0" IVar="-1" Cut="0.0000000000000000e+00" cType="1" res="-2.3739797994494438e-02" rms="4.0755534172058105e-01" purity="4.3287876248359680e-01" nType="-99"/>
          </Node>
          <Node pos="r" depth="2" NCoef="0" IVar="7" Cut="9.6376180648803711e-01" cType="1" res="1.1831438168883324e-03" rms="2.9337042570114136e-01" purity="8.2332181930541992e-01" nType="0">
            <Node pos="l" depth="3" NCoef="0" IVar="-1" Cut="0.0000000000000000e+00" cType="1" res="-1.5917816199362278e-04" rms="2.8748092055320740e-01" purity="8.4307008981704712e-01" nType="-99"/>
            <Node pos="r" depth="3" NCoef="0" IVar="-1" Cut="0.0000000000000000e+00" cType="1" res="1.1664369143545628e-02" rms="3.4713438153266907e-01" purity="6.2340980768203735e-01" nType="-99"/>
          </Node>
        </Node>
      </Node>
    </BinaryTree>
    <BinaryTree type="DecisionTree" boostWeight="1.0000000000000000e+00" itree="395">
      <Node pos="s" depth="0" NCoef="0" IVar="10" Cut="-2.2666230201721191e+00" cType="1" res="-2.0630536600947380e-03" rms="2.9812932014465332e-01" purity="4.9627700448036194e-01" nType="0">
        <Node pos="l" depth="1" NCoef="0" IVar="-1" Cut="0.0000000000000000e+00" cType="1" res="2.0420676097273827e-02" rms="3.0884301662445068e-01" purity="3.3095321059226990e-01" nType="-99"/>
        <Node pos="r" depth="1" NCoef="0" IVar="8" Cut="-1.4666894674301147e+00" cType="1" res="-2.6982980780303478e-03" rms="2.9775649309158325e-01" purity="5.0159609317779541e-01" nType="0">
          <Node pos="l" depth="2" NCoef="0" IVar="9" Cut="3.9987477660179138e-01" cType="1" res="8.9926859363913536e-03" rms="2.9299378395080566e-01" purity="2.2420668601989746e-01" nType="0">
            <Node pos="l" depth="3" NCoef="0" IVar="-1" Cut="0.0000000000000000e+00" cType="1" res="-1.2905977200716734e-03" rms="2.8104746341705322e-01" purity="2.2563768923282623e-01" nType="-99"/>
            <Node pos="r" depth="3" NCoef="0" IVar="-1" Cut="0.0000000000000000e+00" cType="1" res="3.5449307411909103e-02" rms="3.1514176726341248e-01" purity="2.2126334905624390e-01" nType="-99"/>
          </Node>
          <Node pos="r" depth="2" NCoef="0" IVar="10" Cut="-9.5220498740673065e-02" cType="1" res="-3.7782336585223675e-03" rms="2.9816946387290955e-01" purity="5.2721947431564331e-01" nType="0">
            <Node pos="l" depth="3" NCoef="0" IVar="-1" Cut="0.0000000000000000e+00" cType="1" res="-9.0502910315990448e-03" rms="2.9673585295677185e-01" purity="5.2752435207366943e-01" nType="-99"/>
            <Node pos="r" depth="3" NCoef="0" IVar="-1" Cut="0.0000000000000000e+00" cType="1" res="-2.3427537234965712e-04" rms="2.9924839735031128e-01" purity="5.2697873115539551e-01" nType="-99"/>
          </Node>
        </Node>
      </Node>
    </BinaryTree>
    <BinaryTree type="DecisionTree" boostWeight="1.0000000000000000e+00" itree="396">
      <Node pos="s" depth="0" NCoef="0" IVar="8" Cut="1.1998165845870972e+00" cType="1" res="-1.5616100281476974e-03" rms="2.9916450381278992e-01" purity="4.9942329525947571e-01" nType="0">
        <Node pos="l" depth="1" NCoef="0" IVar="9" Cut="-1.2000225782394409e+00" cType="1" res="-3.5231523215770721e-03" rms="2.9953813552856445e-01" purity="5.3064155578613281e-01" nType="0">
          <Node pos="l" depth="2" NCoef="0" IVar="3" Cut="4.2857101440429688e+02" cType="1" res="6.2244501896202564e-03" rms="3.0612370371818542e-01" purity="3.7205308675765991e-01" nType="0">
            <Node pos="l" depth="3" NCoef="0" IVar="-1" Cut="0.0000000000000000e+00" cType="1" res="-5.2625765092670918e-03" rms="2.8705927729606628e-01" purity="2.4636675417423248e-01" nType="-99"/>
            <Node pos="r" depth="3" NCoef="0" IVar="-1" Cut="0.0000000000000000e+00" cType="1" res="2.2055815905332565e-02" rms="3.3533266186714172e-01" purity="5.8631563186645508e-01" nType="-99"/>
          </Node>
          <Node pos="r" depth="2" NCoef="0" IVar="1" Cut="2.0801213378906250e+03" cType="1" res="-5.2276789210736752e-03" rms="2.9833889007568359e-01" purity="5.5837333202362061e-01" nType="0">
            <Node pos="l" depth="3" NCoef="0" IVar="-1" Cut="0.0000000000000000e+00" cType="1" res="-6.8085049279034138e-03" rms="3.2186883687973022e-01" purity="4.5484948158264160e-01" nType="-99"/>
            <Node pos="r" depth="3" NCoef="0" IVar="-1" Cut="0.0000000000000000e+00" cType="1" res="4.6846284531056881e-03" rms="1.8102565407752991e-01" purity="9.5687872171401978e-01" nType="-99"/>
          </Node>
        </Node>
        <Node pos="r" depth="1" NCoef="0" IVar="3" Cut="3.0952777099609375e+02" cType="1" res="1.1298595927655697e-02" rms="2.9638183116912842e-01" purity="2.9475089907646179e-01" nType="0">
          <Node pos="l" depth="2" NCoef="0" IVar="-1" Cut="0.0000000000000000e+00" cType="1" res="-1.3001317158341408e-02" rms="2.4798163771629333e-01" purity="1.1404156684875488e-01" nType="-99"/>
          <Node pos="r" depth="2" NCoef="0" IVar="2" Cut="1.3544161804020405e-02" cType="1" res="2.2431714460253716e-02" rms="3.1973609328269958e-01" purity="3.9581149816513062e-01" nType="0">
            <Node pos="l" depth="3" NCoef="0" IVar="-1" Cut="0.0000000000000000e+00" cType="1" res="4.4559518573805690e-04" rms="2.8082859516143799e-01" purity="1.4549602568149567e-01" nType="-99"/>
            <Node pos="r" depth="3" NCoef="0" IVar="-1" Cut="0.0000000000000000e+00" cType="1" res="3.2411538064479828e-02" rms="3.4377488493919373e-01" purity="5.7300895452499390e-01" nType="-99"/>
          </Node>
        </Node>
      </Node>
    </BinaryTree>
    <BinaryTree type="DecisionTree" boostWeight="1.0000000000000000e+00" itree="397">
      <Node pos="s" depth="0" NCoef="0" IVar="9" Cut="-1.2000223398208618e+00" cType="1" res="1.3697382528334856e-03" rms="2.9914328455924988e-01" purity="5.0055301189422607e-01" nType="0">
        <Node pos="l" depth="1" NCoef="0" IVar="3" Cut="3.1314364624023438e+02" cType="1" res="1.0178552940487862e-02" rms="3.1039735674858093e-01" purity="3.5285848379135132e-01" nType="0">
          <Node pos="l" depth="2" NCoef="0" IVar="-1" Cut="0.0000000000000000e+00" cType="1" res="-9.1834207996726036e-03" rms="2.6234391331672668e-01" purity="1.5335433185100555e-01" nType="-99"/>
          <Node pos="r" depth="2" NCoef="0" IVar="6" Cut="6.8805587768554688e+01" cType="1" res="1.9244106486439705e-02" rms="3.3273091912269592e-01" purity="4.5869490504264832e-01" nType="0">
            <Node pos="l" depth="3" NCoef="0" IVar="-1" Cut="0.0000000000000000e+00" cType="1" res="4.8779673874378204e-02" rms="3.2190826535224915e-01" purity="2.4318580329418182e-01" nType="-99"/>
            <Node pos="r" depth="3" NCoef="0" IVar="-1" Cut="0.0000000000000000e+00" cType="1" res="5.4532308131456375e-03" rms="3.3787843585014343e-01" purity="5.7863354682922363e-01" nType="-99"/>
          </Node>
        </Node>
        <Node pos="r" depth="1" NCoef="0" IVar="1" Cut="1.1200374755859375e+03" cType="1" res="-2.0212210074532777e-04" rms="2.9706278443336487e-01" purity="5.2690786123275757e-01" nType="0">
          <Node pos="l" depth="2" NCoef="0" IVar="1" Cut="1.0285952148437500e+03" cType="1" res="8.3352373912930489e-03" rms="2.3641212284564972e-01" purity="7.3215410113334656e-02" nType="0">
            <Node pos="l" depth="3" NCoef="0" IVar="-1" Cut="0.0000000000000000e+00" cType="1" res="-1.2805330567061901e-02" rms="1.8091908097267151e-01" purity="3.6964651197195053e-02" nType="-99"/>
            <Node pos="r" depth="3" NCoef="0" IVar="-1" Cut="0.0000000000000000e+00" cType="1" res="4.0017858147621155e-02" rms="3.1832206249237061e-01" purity="1.4597471058368683e-01" nType="-99"/>
          </Node>
          <Node pos="r" depth="2" NCoef="0" IVar="0" Cut="4.5299963378906250e+02" cType="1" res="-3.2003903761506081e-03" rms="3.1555476784706116e-01" purity="6.8624186515808105e-01" nType="0">
            <Node pos="l" depth="3" NCoef="0" IVar="-1" Cut="0.0000000000000000e+00" cType="1" res="-7.8139090910553932e-03" rms="3.6968338489532471e-01" purity="4.3184930086135864e-01" nType="-99"/>
            <Node pos="r" depth="3" NCoef="0" IVar="-1" Cut="0.0000000000000000e+00" cType="1" res="8.0558552872389555e-04" rms="2.8486135601997375e-01" purity="8.1233036518096924e-01" nType="-99"/>
          </Node>
        </Node>
      </Node>
    </BinaryTree>
    <BinaryTree type="DecisionTree" boostWeight="1.0000000000000000e+00" itree="398">
      <Node pos="s" depth="0" NCoef="0" IVar="3" Cut="3.3293682861328125e+02" cType="1" res="-1.2928619980812073e-03" rms="2.9674816131591797e-01" purity="4.9702045321464539e-01" nType="0">
        <Node pos="l" depth="1" NCoef="0" IVar="7" Cut="-1.1919130086898804e+00" cType="1" res="-6.1868499033153057e-03" rms="2.9545113444328308e-01" purity="2.5115567445755005e-01" nType="0">
          <Node pos="l" depth="2" NCoef="0" IVar="-1" Cut="0.0000000000000000e+00" cType="1" res="2.1800098940730095e-02" rms="2.5183522701263428e-01" purity="1.2533424794673920e-01" nType="-99"/>
          <Node pos="r" depth="2" NCoef="0" IVar="3" Cut="2.1899252319335938e+02" cType="1" res="-9.5614017918705940e-03" rms="3.0229854583740234e-01" purity="2.7313390374183655e-01" nType="0">
            <Node pos="l" depth="3" NCoef="0" IVar="-1" Cut="0.0000000000000000e+00" cType="1" res="-3.5556461662054062e-02" rms="2.5209581851959229e-01" purity="1.1214574426412582e-01" nType="-99"/>
            <Node pos="r" depth="3" NCoef="0" IVar="-1" Cut="0.0000000000000000e+00" cType="1" res="-7.3908064514398575e-03" rms="3.0795317888259888e-01" purity="2.9338455200195312e-01" nType="-99"/>
          </Node>
        </Node>
        <Node pos="r" depth="1" NCoef="0" IVar="3" Cut="8.3935827636718750e+02" cType="1" res="1.2325473362579942e-03" rms="2.9738375544548035e-01" purity="6.2389230728149414e-01" nType="0">
          <Node pos="l" depth="2" NCoef="0" IVar="4" Cut="1.2558609771728516e+02" cType="1" res="2.1319820079952478e-03" rms="2.9694738984107971e-01" purity="6.1336183547973633e-01" nType="0">
            <Node pos="l" depth="3" NCoef="0" IVar="-1" Cut="0.0000000000000000e+00" cType="1" res="-1.9305633381009102e-02" rms="2.1076974272727966e-01" purity="6.4718410372734070e-02" nType="-99"/>
            <Node pos="r" depth="3" NCoef="0" IVar="-1" Cut="0.0000000000000000e+00" cType="1" res="3.6160249728709459e-03" rms="3.0447337031364441e-01" purity="6.7033147811889648e-01" nType="-99"/>
          </Node>
          <Node pos="r" depth="2" NCoef="0" IVar="-1" Cut="0.0000000000000000e+00" cType="1" res="-1.8718779087066650e-02" rms="3.0526641011238098e-01" purity="8.3000397682189941e-01" nType="-99"/>
        </Node>
      </Node>
    </BinaryTree>
    <BinaryTree type="DecisionTree" boostWeight="1.0000000000000000e+00" itree="399">
      <Node pos="s" depth="0" NCoef="0" IVar="9" Cut="-1.4666378498077393e+00" cType="1" res="-2.4002536665648222e-03" rms="2.9683241248130798e-01" purity="4.9533101916313171e-01" nType="0">
        <Node pos="l" depth="1" NCoef="0" IVar="2" Cut="1.8311817198991776e-02" cType="1" res="9.5197428017854691e-03" rms="3.0556938052177429e-01" purity="3.1141936779022217e-01" nType="0">
          <Node pos="l" depth="2" NCoef="0" IVar="-1" Cut="0.0000000000000000e+00" cType="1" res="-5.3309295326471329e-03" rms="2.3947921395301819e-01" purity="1.3408622145652771e-01" nType="-99"/>
          <Node pos="r" depth="2" NCoef="0" IVar="10" Cut="-3.9961743354797363e-01" cType="1" res="1.8969297409057617e-02" rms="3.4567081928253174e-01" purity="4.4102436304092407e-01" nType="0">
            <Node pos="l" depth="3" NCoef="0" IVar="-1" Cut="0.0000000000000000e+00" cType="1" res="3.1421586871147156e-02" rms="3.5436844825744629e-01" purity="4.1714698076248169e-01" nType="-99"/>
            <Node pos="r" depth="3" NCoef="0" IVar="-1" Cut="0.0000000000000000e+00" cType="1" res="6.1433739028871059e-03" rms="3.3797827363014221e-01" purity="4.6039086580276489e-01" nType="-99"/>
          </Node>
        </Node>
        <Node pos="r" depth="1" NCoef="0" IVar="9" Cut="-1.2634574174880981e+00" cType="1" res="-3.7774059455841780e-03" rms="2.9577544331550598e-01" purity="5.1657885313034058e-01" nType="0">
          <Node pos="l" depth="2" NCoef="0" IVar="-1" Cut="0.0000000000000000e+00" cType="1" res="-2.6950862258672714e-02" rms="2.8191038966178894e-01" purity="4.1604751348495483e-01" nType="-99"/>
          <Node pos="r" depth="2" NCoef="0" IVar="8" Cut="-6.6663986444473267e-01" cType="1" res="-2.9851400759071112e-03" rms="2.9627048969268799e-01" purity="5.2046918869018555e-01" nType="0">
            <Node pos="l" depth="3" NCoef="0" IVar="-1" Cut="0.0000000000000000e+00" cType="1" res="3.1668257433921099e-03" rms="3.0593010783195496e-01" purity="4.2858371138572693e-01" nType="-99"/>
            <Node pos="r" depth="3" NCoef="0" IVar="-1" Cut="0.0000000000000000e+00" cType="1" res="-5.7456707581877708e-03" rms="2.9290854930877686e-01" purity="5.5150061845779419e-01" nType="-99"/>
          </Node>
        </Node>
      </Node>
    </BinaryTree>
    <BinaryTree type="DecisionTree" boostWeight="1.0000000000000000e+00" itree="400">
      <Node pos="s" depth="0" NCoef="0" IVar="9" Cut="-2.0000078678131104e+00" cType="1" res="2.7640459593385458e-03" rms="2.9719266295433044e-01" purity="5.0258302688598633e-01" nType="0">
        <Node pos="l" depth="1" NCoef="0" IVar="-1" Cut="0.0000000000000000e+00" cType="1" res="-2.2063575685024261e-02" rms="2.7555429935455322e-01" purity="2.0089365541934967e-01" nType="-99"/>
        <Node pos="r" depth="1" NCoef="0" IVar="7" Cut="1.4723951816558838e+00" cType="1" res="3.5902447998523712e-03" rms="2.9798406362533569e-01" purity="5.1448702812194824e-01" nType="0">
          <Node pos="l" depth="2" NCoef="0" IVar="7" Cut="-5.5005043745040894e-01" cType="1" res="4.5295404270291328e-03" rms="3.0266341567039490e-01" purity="5.3994464874267578e-01" nType="0">
            <Node pos="l" depth="3" NCoef="0" IVar="-1" Cut="0.0000000000000000e+00" cType="1" res="-2.7539790607988834e-03" rms="2.9069471359252930e-01" purity="3.8355702161788940e-01" nType="-99"/>
            <Node pos="r" depth="3" NCoef="0" IVar="-1" Cut="0.0000000000000000e+00" cType="1" res="7.5879418291151524e-03" rms="3.0699932575225830e-01" purity="5.9870296716690063e-01" nType="-99"/>
          </Node>
          <Node pos="r" depth="2" NCoef="0" IVar="10" Cut="4.0001192688941956e-01" cType="1" res="-1.1493141762912273e-02" rms="2.0837275683879852e-01" purity="1.0568328201770782e-01" nType="0">
            <Node pos="l" depth="3" NCoef="0" IVar="-1" Cut="0.0000000000000000e+00" cType="1" res="-3.8354761898517609e-02" rms="2.0050492882728577e-01" purity="1.1074462532997131e-01" nType="-99"/>
            <Node pos="r" depth="3" NCoef="0" IVar="-1" Cut="0.0000000000000000e+00" cType="1" res="-2.1224955562502146e-03" rms="2.1601888537406921e-01" purity="1.0024426132440567e-01" nType="-99"/>
          </Node>
        </Node>
      </Node>
    </BinaryTree>
    <BinaryTree type="DecisionTree" boostWeight="1.0000000000000000e+00" itree="401">
      <Node pos="s" depth="0" NCoef="0" IVar="9" Cut="1.9999843835830688e+00" cType="1" res="1.2061245070071891e-04" rms="2.9692366719245911e-01" purity="4.9881651997566223e-01" nType="0">
        <Node pos="l" depth="1" NCoef="0" IVar="7" Cut="-6.3658076524734497e-01" cType="1" res="-9.1541960136964917e-04" rms="2.9699113965034485e-01" purity="5.1073122024536133e-01" nType="0">
          <Node pos="l" depth="2" NCoef="0" IVar="6" Cut="7.5174774169921875e+01" cType="1" res="6.9484869018197060e-03" rms="2.9368850588798523e-01" purity="3.6963540315628052e-01" nType="0">
            <Node pos="l" depth="3" NCoef="0" IVar="-1" Cut="0.0000000000000000e+00" cType="1" res="-2.7922727167606354e-03" rms="2.5098389387130737e-01" purity="1.2785133719444275e-01" nType="-99"/>
            <Node pos="r" depth="3" NCoef="0" IVar="-1" Cut="0.0000000000000000e+00" cType="1" res="1.2943625450134277e-02" rms="3.2156336307525635e-01" purity="5.4893022775650024e-01" nType="-99"/>
          </Node>
          <Node pos="r" depth="2" NCoef="0" IVar="7" Cut="1.3270800113677979e+00" cType="1" res="-3.3784175757318735e-03" rms="2.9797533154487610e-01" purity="5.5492281913757324e-01" nType="0">
            <Node pos="l" depth="3" NCoef="0" IVar="-1" Cut="0.0000000000000000e+00" cType="1" res="-4.9793110229074955e-03" rms="3.0236679315567017e-01" purity="6.0099518299102783e-01" nType="-99"/>
            <Node pos="r" depth="3" NCoef="0" IVar="-1" Cut="0.0000000000000000e+00" cType="1" res="1.0800841264426708e-02" rms="2.5702571868896484e-01" purity="1.5982484817504883e-01" nType="-99"/>
          </Node>
        </Node>
        <Node pos="r" depth="1" NCoef="0" IVar="-1" Cut="0.0000000000000000e+00" cType="1" res="2.7330994606018066e-02" rms="2.9451298713684082e-01" purity="2.3656576871871948e-01" nType="-99"/>
      </Node>
    </BinaryTree>
    <BinaryTree type="DecisionTree" boostWeight="1.0000000000000000e+00" itree="402">
      <Node pos="s" depth="0" NCoef="0" IVar="1" Cut="1.1148211669921875e+03" cType="1" res="2.2741523571312428e-03" rms="2.9862576723098755e-01" purity="4.9810773134231567e-01" nType="0">
        <Node pos="l" depth="1" NCoef="0" IVar="10" Cut="-1.4663188457489014e+00" cType="1" res="-3.8908491842448711e-03" rms="2.1059128642082214e-01" purity="5.2802342921495438e-02" nType="0">
          <Node pos="l" depth="2" NCoef="0" IVar="-1" Cut="0.0000000000000000e+00" cType="1" res="-4.2720202356576920e-02" rms="1.7765215039253235e-01" purity="3.5368569195270538e-02" nType="-99"/>
          <Node pos="r" depth="2" NCoef="0" IVar="4" Cut="1.5734339904785156e+02" cType="1" res="-9.3566079158335924e-04" rms="2.1588125824928284e-01" purity="5.5955596268177032e-02" nType="0">
            <Node pos="l" depth="3" NCoef="0" IVar="-1" Cut="0.0000000000000000e+00" cType="1" res="-2.0569236949086189e-02" rms="1.7143124341964722e-01" purity="3.2367162406444550e-02" nType="-99"/>
            <Node pos="r" depth="3" NCoef="0" IVar="-1" Cut="0.0000000000000000e+00" cType="1" res="1.4583736658096313e-02" rms="2.7779039740562439e-01" purity="9.8106510937213898e-02" nType="-99"/>
          </Node>
        </Node>
        <Node pos="r" depth="1" NCoef="0" IVar="5" Cut="1.4014295959472656e+02" cType="1" res="4.5160599984228611e-03" rms="3.2474678754806519e-01" purity="6.6004335880279541e-01" nType="0">
          <Node pos="l" depth="2" NCoef="0" IVar="3" Cut="3.2956948852539062e+02" cType="1" res="1.5508132986724377e-02" rms="3.6936262249946594e-01" purity="4.0415459871292114e-01" nType="0">
            <Node pos="l" depth="3" NCoef="0" IVar="-1" Cut="0.0000000000000000e+00" cType="1" res="2.5663426145911217e-02" rms="4.2192772030830383e-01" purity="4.0457075834274292e-01" nType="-99"/>
            <Node pos="r" depth="3" NCoef="0" IVar="-1" Cut="0.0000000000000000e+00" cType="1" res="7.4699413962662220e-03" rms="3.5687017440795898e-01" purity="4.0406581759452820e-01" nType="-99"/>
          </Node>
          <Node pos="r" depth="2" NCoef="0" IVar="2" Cut="8.5266381502151489e-02" cType="1" res="-9.8836328834295273e-04" rms="2.9976975917816162e-01" purity="7.8818303346633911e-01" nType="0">
            <Node pos="l" depth="3" NCoef="0" IVar="-1" Cut="0.0000000000000000e+00" cType="1" res="-4.0422920137643814e-03" rms="3.3086791634559631e-01" purity="7.0931249856948853e-01" nType="-99"/>
            <Node pos="r" depth="3" NCoef="0" IVar="-1" Cut="0.0000000000000000e+00" cType="1" res="8.3836149424314499e-03" rms="2.3646932840347290e-01" purity="9.2447304725646973e-01" nType="-99"/>
          </Node>
        </Node>
      </Node>
    </BinaryTree>
    <BinaryTree type="DecisionTree" boostWeight="1.0000000000000000e+00" itree="403">
      <Node pos="s" depth="0" NCoef="0" IVar="5" Cut="1.0560417175292969e+02" cType="1" res="1.2273150496184826e-03" rms="2.9931363463401794e-01" purity="4.9948236346244812e-01" nType="0">
        <Node pos="l" depth="1" NCoef="0" IVar="5" Cut="9.7668769836425781e+01" cType="1" res="-5.9604058042168617e-03" rms="2.5750413537025452e-01" purity="1.2564289569854736e-01" nType="0">
          <Node pos="l" depth="2" NCoef="0" IVar="2" Cut="6.2750913202762604e-02" cType="1" res="-2.7161918114870787e-03" rms="2.4642145633697510e-01" purity="1.1319195479154587e-01" nType="0">
            <Node pos="l" depth="3" NCoef="0" IVar="-1" Cut="0.0000000000000000e+00" cType="1" res="-3.5776515142060816e-04" rms="2.3619900643825531e-01" purity="1.0018430650234222e-01" nType="-99"/>
            <Node pos="r" depth="3" NCoef="0" IVar="-1" Cut="0.0000000000000000e+00" cType="1" res="-1.9937861710786819e-02" rms="3.1039574742317200e-01" purity="2.0812386274337769e-01" nType="-99"/>
          </Node>
          <Node pos="r" depth="2" NCoef="0" IVar="-1" Cut="0.0000000000000000e+00" cType="1" res="-2.2828796878457069e-02" rms="3.0918967723846436e-01" purity="1.9172762334346771e-01" nType="-99"/>
        </Node>
        <Node pos="r" depth="1" NCoef="0" IVar="1" Cut="1.4320456542968750e+03" cType="1" res="4.3288539163768291e-03" rms="3.1559830904006958e-01" purity="6.6079598665237427e-01" nType="0">
          <Node pos="l" depth="2" NCoef="0" IVar="0" Cut="4.7861639404296875e+02" cType="1" res="1.0800543241202831e-02" rms="3.7196624279022217e-01" purity="3.0282047390937805e-01" nType="0">
            <Node pos="l" depth="3" NCoef="0" IVar="-1" Cut="0.0000000000000000e+00" cType="1" res="4.3772519566118717e-03" rms="3.6142838001251221e-01" purity="2.5880011916160583e-01" nType="-99"/>
            <Node pos="r" depth="3" NCoef="0" IVar="-1" Cut="0.0000000000000000e+00" cType="1" res="2.1409310400485992e-02" rms="4.2479953169822693e-01" purity="5.4812949895858765e-01" nType="-99"/>
          </Node>
          <Node pos="r" depth="2" NCoef="0" IVar="5" Cut="1.5850756835937500e+02" cType="1" res="8.0362131120637059e-04" rms="2.8009948134422302e-01" purity="8.5579103231430054e-01" nType="0">
            <Node pos="l" depth="3" NCoef="0" IVar="-1" Cut="0.0000000000000000e+00" cType="1" res="8.8804718106985092e-03" rms="3.5035663843154907e-01" purity="7.4261450767517090e-01" nType="-99"/>
            <Node pos="r" depth="3" NCoef="0" IVar="-1" Cut="0.0000000000000000e+00" cType="1" res="-2.9639077838510275e-03" rms="2.5788116455078125e-01" purity="8.8624066114425659e-01" nType="-99"/>
          </Node>
        </Node>
      </Node>
    </BinaryTree>
    <BinaryTree type="DecisionTree" boostWeight="1.0000000000000000e+00" itree="404">
      <Node pos="s" depth="0" NCoef="0" IVar="8" Cut="-1.4667152166366577e+00" cType="1" res="1.6318040434271097e-03" rms="2.9761722683906555e-01" purity="5.0221103429794312e-01" nType="0">
        <Node pos="l" depth="1" NCoef="0" IVar="9" Cut="-9.3433958292007446e-01" cType="1" res="-1.2285367585718632e-02" rms="2.6085081696510315e-01" purity="1.9026464223861694e-01" nType="0">
          <Node pos="l" depth="2" NCoef="0" IVar="-1" Cut="0.0000000000000000e+00" cType="1" res="5.1056691445410252e-03" rms="2.5527194142341614e-01" purity="1.5540488064289093e-01" nType="-99"/>
          <Node pos="r" depth="2" NCoef="0" IVar="9" Cut="3.0938985943794250e-01" cType="1" res="-1.9519040361046791e-02" rms="2.6303508877754211e-01" purity="2.0614254474639893e-01" nType="0">
            <Node pos="l" depth="3" NCoef="0" IVar="-1" Cut="0.0000000000000000e+00" cType="1" res="-3.1856324523687363e-02" rms="2.6035955548286438e-01" purity="2.2125773131847382e-01" nType="-99"/>
            <Node pos="r" depth="3" NCoef="0" IVar="-1" Cut="0.0000000000000000e+00" cType="1" res="-1.4691634103655815e-02" rms="2.6531392335891724e-01" purity="1.9194610416889191e-01" nType="-99"/>
          </Node>
        </Node>
        <Node pos="r" depth="1" NCoef="0" IVar="7" Cut="-1.2018279731273651e-01" cType="1" res="2.8889947570860386e-03" rms="3.0068546533584595e-01" purity="5.3039038181304932e-01" nType="0">
          <Node pos="l" depth="2" NCoef="0" IVar="7" Cut="-3.7299770116806030e-01" cType="1" res="-1.5132025582715869e-03" rms="3.0062046647071838e-01" purity="5.0614190101623535e-01" nType="0">
            <Node pos="l" depth="3" NCoef="0" IVar="-1" Cut="0.0000000000000000e+00" cType="1" res="3.4376843832433224e-03" rms="3.0212911963462830e-01" purity="4.5830631256103516e-01" nType="-99"/>
            <Node pos="r" depth="3" NCoef="0" IVar="-1" Cut="0.0000000000000000e+00" cType="1" res="-1.7777537927031517e-02" rms="2.9555705189704895e-01" purity="6.5076184272766113e-01" nType="-99"/>
          </Node>
          <Node pos="r" depth="2" NCoef="0" IVar="8" Cut="1.7839479446411133e+00" cType="1" res="6.2812650576233864e-03" rms="3.0069157481193542e-01" purity="5.4907584190368652e-01" nType="0">
            <Node pos="l" depth="3" NCoef="0" IVar="-1" Cut="0.0000000000000000e+00" cType="1" res="8.2946270704269409e-03" rms="3.0411908030509949e-01" purity="5.7196998596191406e-01" nType="-99"/>
            <Node pos="r" depth="3" NCoef="0" IVar="-1" Cut="0.0000000000000000e+00" cType="1" res="-3.5337120294570923e-02" rms="2.2233837842941284e-01" purity="1.0518867522478104e-01" nType="-99"/>
          </Node>
        </Node>
      </Node>
    </BinaryTree>
    <BinaryTree type="DecisionTree" boostWeight="1.0000000000000000e+00" itree="405">
      <Node pos="s" depth="0" NCoef="0" IVar="2" Cut="6.2054231762886047e-02" cType="1" res="-1.1708610691130161e-03" rms="2.9536581039428711e-01" purity="5.0047135353088379e-01" nType="0">
        <Node pos="l" depth="1" NCoef="0" IVar="9" Cut="-1.7333366870880127e+00" cType="1" res="-3.9311628788709641e-03" rms="2.9686081409454346e-01" purity="3.6368662118911743e-01" nType="0">
          <Node pos="l" depth="2" NCoef="0" IVar="9" Cut="-2.0889182090759277e+00" cType="1" res="1.2225256301462650e-02" rms="2.8554368019104004e-01" purity="2.0250663161277771e-01" nType="0">
            <Node pos="l" depth="3" NCoef="0" IVar="-1" Cut="0.0000000000000000e+00" cType="1" res="-3.8768628146499395e-03" rms="2.6957851648330688e-01" purity="1.6528581082820892e-01" nType="-99"/>
            <Node pos="r" depth="3" NCoef="0" IVar="-1" Cut="0.0000000000000000e+00" cType="1" res="3.5035833716392517e-02" rms="3.0273509025573730e-01" purity="2.4755638837814331e-01" nType="-99"/>
          </Node>
          <Node pos="r" depth="2" NCoef="0" IVar="7" Cut="4.2157384753227234e-01" cType="1" res="-5.4376623593270779e-03" rms="2.9784950613975525e-01" purity="3.7871578335762024e-01" nType="0">
            <Node pos="l" depth="3" NCoef="0" IVar="-1" Cut="0.0000000000000000e+00" cType="1" res="-8.8170235976576805e-03" rms="2.9801535606384277e-01" purity="4.1294059157371521e-01" nType="-99"/>
            <Node pos="r" depth="3" NCoef="0" IVar="-1" Cut="0.0000000000000000e+00" cType="1" res="-4.7969212755560875e-04" rms="2.9749324917793274e-01" purity="3.1898626685142517e-01" nType="-99"/>
          </Node>
        </Node>
        <Node pos="r" depth="1" NCoef="0" IVar="1" Cut="1.3524763183593750e+03" cType="1" res="4.2867986485362053e-03" rms="2.9231065511703491e-01" purity="7.7092176675796509e-01" nType="0">
          <Node pos="l" depth="2" NCoef="0" IVar="0" Cut="3.7307647705078125e+02" cType="1" res="1.2708730064332485e-02" rms="4.0558671951293945e-01" purity="3.5854658484458923e-01" nType="0">
            <Node pos="l" depth="3" NCoef="0" IVar="-1" Cut="0.0000000000000000e+00" cType="1" res="2.5158900767564774e-02" rms="3.8746783137321472e-01" purity="2.9488506913185120e-01" nType="-99"/>
            <Node pos="r" depth="3" NCoef="0" IVar="-1" Cut="0.0000000000000000e+00" cType="1" res="-7.2748810052871704e-03" rms="4.2349383234977722e-01" purity="4.3004050850868225e-01" nType="-99"/>
          </Node>
          <Node pos="r" depth="2" NCoef="0" IVar="7" Cut="-4.2707055807113647e-01" cType="1" res="1.0758818825706840e-03" rms="2.3509125411510468e-01" purity="9.2814254760742188e-01" nType="0">
            <Node pos="l" depth="3" NCoef="0" IVar="-1" Cut="0.0000000000000000e+00" cType="1" res="-1.3720332644879818e-02" rms="2.5972497463226318e-01" purity="9.0935397148132324e-01" nType="-99"/>
            <Node pos="r" depth="3" NCoef="0" IVar="-1" Cut="0.0000000000000000e+00" cType="1" res="6.6721155308187008e-03" rms="2.2787359356880188e-01" purity="9.3324398994445801e-01" nType="-99"/>
          </Node>
        </Node>
      </Node>
    </BinaryTree>
    <BinaryTree type="DecisionTree" boostWeight="1.0000000000000000e+00" itree="406">
      <Node pos="s" depth="0" NCoef="0" IVar="9" Cut="1.7333122491836548e+00" cType="1" res="-2.5259638205170631e-03" rms="2.9476574063301086e-01" purity="4.9741345643997192e-01" nType="0">
        <Node pos="l" depth="1" NCoef="0" IVar="5" Cut="1.5987414550781250e+02" cType="1" res="-3.8540952373296022e-03" rms="2.9390719532966614e-01" purity="5.1391142606735229e-01" nType="0">
          <Node pos="l" depth="2" NCoef="0" IVar="5" Cut="9.1895133972167969e+01" cType="1" res="-9.0341987088322639e-03" rms="3.0066159367561340e-01" purity="2.5989156961441040e-01" nType="0">
            <Node pos="l" depth="3" NCoef="0" IVar="-1" Cut="0.0000000000000000e+00" cType="1" res="6.6314073046669364e-04" rms="2.4302837252616882e-01" purity="1.0496886074542999e-01" nType="-99"/>
            <Node pos="r" depth="3" NCoef="0" IVar="-1" Cut="0.0000000000000000e+00" cType="1" res="-1.2713058851659298e-02" rms="3.3100831508636475e-01" purity="3.5510191321372986e-01" nType="-99"/>
          </Node>
          <Node pos="r" depth="2" NCoef="0" IVar="4" Cut="2.5029565429687500e+02" cType="1" res="2.4570494424551725e-03" rms="2.8533506393432617e-01" purity="8.2339489459991455e-01" nType="0">
            <Node pos="l" depth="3" NCoef="0" IVar="-1" Cut="0.0000000000000000e+00" cType="1" res="1.2704241089522839e-02" rms="3.6260816454887390e-01" purity="6.6168093681335449e-01" nType="-99"/>
            <Node pos="r" depth="3" NCoef="0" IVar="-1" Cut="0.0000000000000000e+00" cType="1" res="-3.1015153508633375e-03" rms="2.5497347116470337e-01" purity="8.7611442804336548e-01" nType="-99"/>
          </Node>
        </Node>
        <Node pos="r" depth="1" NCoef="0" IVar="6" Cut="6.8732566833496094e+01" cType="1" res="1.5344230458140373e-02" rms="3.0552250146865845e-01" purity="2.7543056011199951e-01" nType="0">
          <Node pos="l" depth="2" NCoef="0" IVar="-1" Cut="0.0000000000000000e+00" cType="1" res="-3.9700455963611603e-03" rms="2.3295091092586517e-01" purity="1.0408846288919449e-01" nType="-99"/>
          <Node pos="r" depth="2" NCoef="0" IVar="-1" Cut="0.0000000000000000e+00" cType="1" res="2.6085535064339638e-02" rms="3.5055315494537354e-01" purity="4.0681824088096619e-01" nType="-99"/>
        </Node>
      </Node>
    </BinaryTree>
    <BinaryTree type="DecisionTree" boostWeight="1.0000000000000000e+00" itree="407">
      <Node pos="s" depth="0" NCoef="0" IVar="10" Cut="1.3333526253700256e-01" cType="1" res="2.4462291039526463e-03" rms="2.9786494374275208e-01" purity="5.0462871789932251e-01" nType="0">
        <Node pos="l" depth="1" NCoef="0" IVar="2" Cut="4.2633306235074997e-02" cType="1" res="5.7080732658505440e-03" rms="3.0129083991050720e-01" purity="5.1072400808334351e-01" nType="0">
          <Node pos="l" depth="2" NCoef="0" IVar="2" Cut="2.2331848740577698e-02" cType="1" res="1.1178710497915745e-02" rms="3.0488589406013489e-01" purity="3.4097668528556824e-01" nType="0">
            <Node pos="l" depth="3" NCoef="0" IVar="-1" Cut="0.0000000000000000e+00" cType="1" res="3.4569953568279743e-03" rms="2.8458163142204285e-01" purity="2.5763636827468872e-01" nType="-99"/>
            <Node pos="r" depth="3" NCoef="0" IVar="-1" Cut="0.0000000000000000e+00" cType="1" res="2.5563880801200867e-02" rms="3.4049171209335327e-01" purity="5.0379234552383423e-01" nType="-99"/>
          </Node>
          <Node pos="r" depth="2" NCoef="0" IVar="5" Cut="1.7612892150878906e+02" cType="1" res="-1.2112061958760023e-03" rms="2.9653689265251160e-01" purity="7.2542089223861694e-01" nType="0">
            <Node pos="l" depth="3" NCoef="0" IVar="-1" Cut="0.0000000000000000e+00" cType="1" res="-6.7742951214313507e-03" rms="3.5761004686355591e-01" purity="4.8302918672561646e-01" nType="-99"/>
            <Node pos="r" depth="3" NCoef="0" IVar="-1" Cut="0.0000000000000000e+00" cType="1" res="8.0353356897830963e-03" rms="2.3691701889038086e-01" purity="9.1789704561233521e-01" nType="-99"/>
          </Node>
        </Node>
        <Node pos="r" depth="1" NCoef="0" IVar="7" Cut="1.2028095722198486e+00" cType="1" res="-1.3720076531171799e-03" rms="2.9375788569450378e-01" purity="4.9749368429183960e-01" nType="0">
          <Node pos="l" depth="2" NCoef="0" IVar="4" Cut="2.4026669311523438e+02" cType="1" res="9.1273454017937183e-04" rms="3.0145829916000366e-01" purity="5.4462081193923950e-01" nType="0">
            <Node pos="l" depth="3" NCoef="0" IVar="-1" Cut="0.0000000000000000e+00" cType="1" res="6.2203882262110710e-03" rms="3.1840869784355164e-01" purity="2.8375765681266785e-01" nType="-99"/>
            <Node pos="r" depth="3" NCoef="0" IVar="-1" Cut="0.0000000000000000e+00" cType="1" res="-5.4371394217014313e-03" rms="2.8356626629829407e-01" purity="8.0310308933258057e-01" nType="-99"/>
          </Node>
          <Node pos="r" depth="2" NCoef="0" IVar="7" Cut="1.5829608440399170e+00" cType="1" res="-1.8552163615822792e-02" rms="2.2692358493804932e-01" purity="1.4312013983726501e-01" nType="0">
            <Node pos="l" depth="3" NCoef="0" IVar="-1" Cut="0.0000000000000000e+00" cType="1" res="-4.6045593917369843e-02" rms="2.5272592902183533e-01" purity="1.9225211441516876e-01" nType="-99"/>
            <Node pos="r" depth="3" NCoef="0" IVar="-1" Cut="0.0000000000000000e+00" cType="1" res="-2.7579723391681910e-03" rms="1.9746281206607819e-01" purity="9.5914632081985474e-02" nType="-99"/>
          </Node>
        </Node>
      </Node>
    </BinaryTree>
    <BinaryTree type="DecisionTree" boostWeight="1.0000000000000000e+00" itree="408">
      <Node pos="s" depth="0" NCoef="0" IVar="7" Cut="-6.5112400054931641e-01" cType="1" res="-1.2093300465494394e-03" rms="2.9645237326622009e-01" purity="5.0054931640625000e-01" nType="0">
        <Node pos="l" depth="1" NCoef="0" IVar="4" Cut="1.8692741394042969e+02" cType="1" res="4.5730355195701122e-03" rms="2.9523557424545288e-01" purity="3.5110214352607727e-01" nType="0">
          <Node pos="l" depth="2" NCoef="0" IVar="8" Cut="6.6684454679489136e-01" cType="1" res="-5.9671252965927124e-03" rms="2.2158941626548767e-01" purity="8.2269810140132904e-02" nType="0">
            <Node pos="l" depth="3" NCoef="0" IVar="-1" Cut="0.0000000000000000e+00" cType="1" res="-1.0620274115353823e-03" rms="2.3564547300338745e-01" purity="9.3105055391788483e-02" nType="-99"/>
            <Node pos="r" depth="3" NCoef="0" IVar="-1" Cut="0.0000000000000000e+00" cType="1" res="-4.1432041674852371e-02" rms="1.7906293272972107e-01" purity="5.4003696888685226e-02" nType="-99"/>
          </Node>
          <Node pos="r" depth="2" NCoef="0" IVar="1" Cut="1.7710579833984375e+03" cType="1" res="1.2022521346807480e-02" rms="3.3753708004951477e-01" purity="5.4110521078109741e-01" nType="0">
            <Node pos="l" depth="3" NCoef="0" IVar="-1" Cut="0.0000000000000000e+00" cType="1" res="1.7299726605415344e-02" rms="3.6630451679229736e-01" purity="3.9176407456398010e-01" nType="-99"/>
            <Node pos="r" depth="3" NCoef="0" IVar="-1" Cut="0.0000000000000000e+00" cType="1" res="-1.3601977378129959e-02" rms="2.6354560256004333e-01" purity="8.6411231756210327e-01" nType="-99"/>
          </Node>
        </Node>
        <Node pos="r" depth="1" NCoef="0" IVar="5" Cut="9.6880157470703125e+01" cType="1" res="-2.9255228582769632e-03" rms="2.9679089784622192e-01" purity="5.4490488767623901e-01" nType="0">
          <Node pos="l" depth="2" NCoef="0" IVar="7" Cut="6.0000843368470669e-03" cType="1" res="4.6669673174619675e-03" rms="2.6747509837150574e-01" purity="1.4576230943202972e-01" nType="0">
            <Node pos="l" depth="3" NCoef="0" IVar="-1" Cut="0.0000000000000000e+00" cType="1" res="-1.6323057934641838e-02" rms="2.7896437048912048e-01" purity="1.6318841278553009e-01" nType="-99"/>
            <Node pos="r" depth="3" NCoef="0" IVar="-1" Cut="0.0000000000000000e+00" cType="1" res="1.9281301647424698e-02" rms="2.6226961612701416e-01" purity="1.3866344094276428e-01" nType="-99"/>
          </Node>
          <Node pos="r" depth="2" NCoef="0" IVar="10" Cut="1.9999994039535522e+00" cType="1" res="-5.2481004968285561e-03" rms="3.0515906214714050e-01" purity="6.6700446605682373e-01" nType="0">
            <Node pos="l" depth="3" NCoef="0" IVar="-1" Cut="0.0000000000000000e+00" cType="1" res="-4.4026556424796581e-03" rms="3.0392757058143616e-01" purity="6.7675656080245972e-01" nType="-99"/>
            <Node pos="r" depth="3" NCoef="0" IVar="-1" Cut="0.0000000000000000e+00" cType="1" res="-2.7409555390477180e-02" rms="3.3091029524803162e-01" purity="4.4591066241264343e-01" nType="-99"/>
          </Node>
        </Node>
      </Node>
    </BinaryTree>
    <BinaryTree type="DecisionTree" boostWeight="1.0000000000000000e+00" itree="409">
      <Node pos="s" depth="0" NCoef="0" IVar="10" Cut="1.1998122930526733e+00" cType="1" res="1.8565594218671322e-03" rms="2.9963403940200806e-01" purity="5.0288772583007812e-01" nType="0">
        <Node pos="l" depth="1" NCoef="0" IVar="7" Cut="4.0478047728538513e-01" cType="1" res="-4.0595736209070310e-05" rms="2.9783084988594055e-01" purity="5.1629632711410522e-01" nType="0">
          <Node pos="l" depth="2" NCoef="0" IVar="5" Cut="1.4373213195800781e+02" cType="1" res="2.6507964357733727e-03" rms="2.9853737354278564e-01" purity="5.5205386877059937e-01" nType="0">
            <Node pos="l" depth="3" NCoef="0" IVar="-1" Cut="0.0000000000000000e+00" cType="1" res="9.1630462557077408e-03" rms="3.1468409299850464e-01" purity="2.6236182451248169e-01" nType="-99"/>
            <Node pos="r" depth="3" NCoef="0" IVar="-1" Cut="0.0000000000000000e+00" cType="1" res="-3.4091125708073378e-03" rms="2.8343248367309570e-01" purity="8.0737853050231934e-01" nType="-99"/>
          </Node>
          <Node pos="r" depth="2" NCoef="0" IVar="4" Cut="1.2917416381835938e+02" cType="1" res="-6.0752355493605137e-03" rms="2.9615169763565063e-01" purity="4.3612080812454224e-01" nType="0">
            <Node pos="l" depth="3" NCoef="0" IVar="-1" Cut="0.0000000000000000e+00" cType="1" res="3.2190989702939987e-02" rms="2.1198137104511261e-01" purity="6.0724869370460510e-02" nType="-99"/>
            <Node pos="r" depth="3" NCoef="0" IVar="-1" Cut="0.0000000000000000e+00" cType="1" res="-9.5628648996353149e-03" rms="3.0936256051063538e-01" purity="5.0697708129882812e-01" nType="-99"/>
          </Node>
        </Node>
        <Node pos="r" depth="1" NCoef="0" IVar="10" Cut="2.1902422904968262e+00" cType="1" res="1.0573843494057655e-02" rms="3.0763345956802368e-01" purity="4.4127616286277771e-01" nType="0">
          <Node pos="l" depth="2" NCoef="0" IVar="10" Cut="1.8129367828369141e+00" cType="1" res="1.5691068023443222e-02" rms="3.1189960241317749e-01" purity="4.8120307922363281e-01" nType="0">
            <Node pos="l" depth="3" NCoef="0" IVar="-1" Cut="0.0000000000000000e+00" cType="1" res="9.0386373922228813e-03" rms="2.9878863692283630e-01" purity="5.0315147638320923e-01" nType="-99"/>
            <Node pos="r" depth="3" NCoef="0" IVar="-1" Cut="0.0000000000000000e+00" cType="1" res="3.6533303558826447e-02" rms="3.4438815712928772e-01" purity="4.2118701338768005e-01" nType="-99"/>
          </Node>
          <Node pos="r" depth="2" NCoef="0" IVar="-1" Cut="0.0000000000000000e+00" cType="1" res="-1.2916938401758671e-02" rms="2.8741663694381714e-01" purity="2.6864966750144958e-01" nType="-99"/>
        </Node>
      </Node>
    </BinaryTree>
    <BinaryTree type="DecisionTree" boostWeight="1.0000000000000000e+00" itree="410">
      <Node pos="s" depth="0" NCoef="0" IVar="7" Cut="-1.6870862245559692e+00" cType="1" res="2.6060931850224733e-04" rms="2.9762533307075500e-01" purity="5.0214493274688721e-01" nType="0">
        <Node pos="l" depth="1" NCoef="0" IVar="-1" Cut="0.0000000000000000e+00" cType="1" res="-5.1866628229618073e-02" rms="1.6620860993862152e-01" purity="5.2331984043121338e-02" nType="-99"/>
        <Node pos="r" depth="1" NCoef="0" IVar="9" Cut="1.4665898084640503e+00" cType="1" res="1.1080665281042457e-03" rms="3.0136439204216003e-01" purity="5.1882052421569824e-01" nType="0">
          <Node pos="l" depth="2" NCoef="0" IVar="10" Cut="1.7332788705825806e+00" cType="1" res="2.5253619533032179e-03" rms="3.0224978923797607e-01" purity="5.4034858942031860e-01" nType="0">
            <Node pos="l" depth="3" NCoef="0" IVar="-1" Cut="0.0000000000000000e+00" cType="1" res="1.5432066284120083e-03" rms="3.0013307929039001e-01" purity="5.5049484968185425e-01" nType="-99"/>
            <Node pos="r" depth="3" NCoef="0" IVar="-1" Cut="0.0000000000000000e+00" cType="1" res="1.5538979321718216e-02" rms="3.2523599267005920e-01" purity="4.2414799332618713e-01" nType="-99"/>
          </Node>
          <Node pos="r" depth="2" NCoef="0" IVar="6" Cut="9.2584442138671875e+01" cType="1" res="-1.1567726731300354e-02" rms="2.9302218556404114e-01" purity="3.2628086209297180e-01" nType="0">
            <Node pos="l" depth="3" NCoef="0" IVar="-1" Cut="0.0000000000000000e+00" cType="1" res="-2.5807796046137810e-02" rms="2.6754182577133179e-01" purity="1.6855050623416901e-01" nType="-99"/>
            <Node pos="r" depth="3" NCoef="0" IVar="-1" Cut="0.0000000000000000e+00" cType="1" res="4.1122511029243469e-03" rms="3.3381342887878418e-01" purity="6.1329746246337891e-01" nType="-99"/>
          </Node>
        </Node>
      </Node>
    </BinaryTree>
    <BinaryTree type="DecisionTree" boostWeight="1.0000000000000000e+00" itree="411">
      <Node pos="s" depth="0" NCoef="0" IVar="8" Cut="-9.3325084447860718e-01" cType="1" res="7.8710401430726051e-04" rms="2.9554900527000427e-01" purity="5.0294476747512817e-01" nType="0">
        <Node pos="l" depth="1" NCoef="0" IVar="9" Cut="9.3334013223648071e-01" cType="1" res="-7.8540286049246788e-03" rms="2.9387602210044861e-01" purity="3.3502912521362305e-01" nType="0">
          <Node pos="l" depth="2" NCoef="0" IVar="9" Cut="-1.0221321582794189e+00" cType="1" res="-4.3506789952516556e-03" rms="2.9554238915443420e-01" purity="3.5832798480987549e-01" nType="0">
            <Node pos="l" depth="3" NCoef="0" IVar="-1" Cut="0.0000000000000000e+00" cType="1" res="-2.3376904428005219e-02" rms="2.6339337229728699e-01" purity="1.9977091252803802e-01" nType="-99"/>
            <Node pos="r" depth="3" NCoef="0" IVar="-1" Cut="0.0000000000000000e+00" cType="1" res="1.5805412549525499e-03" rms="3.0795568227767944e-01" purity="4.2545753717422485e-01" nType="-99"/>
          </Node>
          <Node pos="r" depth="2" NCoef="0" IVar="-1" Cut="0.0000000000000000e+00" cType="1" res="-2.6910370215773582e-02" rms="2.8571414947509766e-01" purity="2.3003908991813660e-01" nType="-99"/>
        </Node>
        <Node pos="r" depth="1" NCoef="0" IVar="7" Cut="4.1022828221321106e-01" cType="1" res="2.7425242587924004e-03" rms="2.9589125514030457e-01" purity="5.4094266891479492e-01" nType="0">
          <Node pos="l" depth="2" NCoef="0" IVar="6" Cut="7.8846466064453125e+01" cType="1" res="5.6207426823675632e-03" rms="2.9769572615623474e-01" purity="5.8565807342529297e-01" nType="0">
            <Node pos="l" depth="3" NCoef="0" IVar="-1" Cut="0.0000000000000000e+00" cType="1" res="1.1672929860651493e-02" rms="3.1044110655784607e-01" purity="2.9391315579414368e-01" nType="-99"/>
            <Node pos="r" depth="3" NCoef="0" IVar="-1" Cut="0.0000000000000000e+00" cType="1" res="2.6661842130124569e-03" rms="2.8972065448760986e-01" purity="7.6089560985565186e-01" nType="-99"/>
          </Node>
          <Node pos="r" depth="2" NCoef="0" IVar="4" Cut="2.8705816650390625e+02" cType="1" res="-3.3372070174664259e-03" rms="2.9194971919059753e-01" purity="4.4648930430412292e-01" nType="0">
            <Node pos="l" depth="3" NCoef="0" IVar="-1" Cut="0.0000000000000000e+00" cType="1" res="-8.8299252092838287e-03" rms="2.9668357968330383e-01" purity="2.7186408638954163e-01" nType="-99"/>
            <Node pos="r" depth="3" NCoef="0" IVar="-1" Cut="0.0000000000000000e+00" cType="1" res="7.7650239691138268e-03" rms="2.8153914213180542e-01" purity="8.1174391508102417e-01" nType="-99"/>
          </Node>
        </Node>
      </Node>
    </BinaryTree>
    <BinaryTree type="DecisionTree" boostWeight="1.0000000000000000e+00" itree="412">
      <Node pos="s" depth="0" NCoef="0" IVar="7" Cut="9.4155508279800415e-01" cType="1" res="3.4971048589795828e-03" rms="3.0029690265655518e-01" purity="5.0221413373947144e-01" nType="0">
        <Node pos="l" depth="1" NCoef="0" IVar="2" Cut="2.1316826343536377e-02" cType="1" res="2.1835472434759140e-03" rms="3.0244970321655273e-01" purity="5.4552507400512695e-01" nType="0">
          <Node pos="l" depth="2" NCoef="0" IVar="2" Cut="1.8271503970026970e-02" cType="1" res="7.3619624599814415e-03" rms="2.9797911643981934e-01" purity="2.9932501912117004e-01" nType="0">
            <Node pos="l" depth="3" NCoef="0" IVar="-1" Cut="0.0000000000000000e+00" cType="1" res="3.0817056540399790e-03" rms="2.8970235586166382e-01" purity="2.8045728802680969e-01" nType="-99"/>
            <Node pos="r" depth="3" NCoef="0" IVar="-1" Cut="0.0000000000000000e+00" cType="1" res="4.1647072881460190e-02" rms="3.5418382287025452e-01" purity="4.4745594263076782e-01" nType="-99"/>
          </Node>
          <Node pos="r" depth="2" NCoef="0" IVar="9" Cut="3.9994603395462036e-01" cType="1" res="-2.1257108892314136e-04" rms="3.0446630716323853e-01" purity="6.5944498777389526e-01" nType="0">
            <Node pos="l" depth="3" NCoef="0" IVar="-1" Cut="0.0000000000000000e+00" cType="1" res="3.6567405331879854e-03" rms="3.0254200100898743e-01" purity="6.7136287689208984e-01" nType="-99"/>
            <Node pos="r" depth="3" NCoef="0" IVar="-1" Cut="0.0000000000000000e+00" cType="1" res="-7.2149042971432209e-03" rms="3.0791276693344116e-01" purity="6.3720494508743286e-01" nType="-99"/>
          </Node>
        </Node>
        <Node pos="r" depth="1" NCoef="0" IVar="2" Cut="2.6707842946052551e-02" cType="1" res="1.0822032578289509e-02" rms="2.8788703680038452e-01" purity="2.6069492101669312e-01" nType="0">
          <Node pos="l" depth="2" NCoef="0" IVar="9" Cut="9.3328672647476196e-01" cType="1" res="4.2853872291743755e-03" rms="2.4816612899303436e-01" purity="1.3598877191543579e-01" nType="0">
            <Node pos="l" depth="3" NCoef="0" IVar="-1" Cut="0.0000000000000000e+00" cType="1" res="2.0993150770664215e-02" rms="2.6483869552612305e-01" purity="1.6529177129268646e-01" nType="-99"/>
            <Node pos="r" depth="3" NCoef="0" IVar="-1" Cut="0.0000000000000000e+00" cType="1" res="-3.5788781940937042e-02" rms="2.0216172933578491e-01" purity="6.7461699247360229e-02" nType="-99"/>
          </Node>
          <Node pos="r" depth="2" NCoef="0" IVar="-1" Cut="0.0000000000000000e+00" cType="1" res="2.0965248346328735e-02" rms="3.5669130086898804e-01" purity="5.2206629514694214e-01" nType="-99"/>
        </Node>
      </Node>
    </BinaryTree>
    <BinaryTree type="DecisionTree" boostWeight="1.0000000000000000e+00" itree="413">
      <Node pos="s" depth="0" NCoef="0" IVar="1" Cut="1.1200286865234375e+03" cType="1" res="-1.7266365466639400e-03" rms="2.9644095897674561e-01" purity="4.9854308366775513e-01" nType="0">
        <Node pos="l" depth="1" NCoef="0" IVar="9" Cut="-9.3323081731796265e-01" cType="1" res="-6.6589699126780033e-03" rms="2.0653077960014343e-01" purity="5.2363041788339615e-02" nType="0">
          <Node pos="l" depth="2" NCoef="0" IVar="9" Cut="-1.5554134845733643e+00" cType="1" res="2.9184678569436073e-03" rms="2.0632670819759369e-01" purity="5.3897488862276077e-02" nType="0">
            <Node pos="l" depth="3" NCoef="0" IVar="-1" Cut="0.0000000000000000e+00" cType="1" res="-1.0786739178001881e-02" rms="1.8087731301784515e-01" purity="3.7883158773183823e-02" nType="-99"/>
            <Node pos="r" depth="3" NCoef="0" IVar="-1" Cut="0.0000000000000000e+00" cType="1" res="2.0875660702586174e-02" rms="2.3070225119590759e-01" purity="7.1386918425559998e-02" nType="-99"/>
          </Node>
          <Node pos="r" depth="2" NCoef="0" IVar="9" Cut="1.0221977233886719e+00" cType="1" res="-1.0066078975796700e-02" rms="2.0649623870849609e-01" purity="5.1817163825035095e-02" nType="0">
            <Node pos="l" depth="3" NCoef="0" IVar="-1" Cut="0.0000000000000000e+00" cType="1" res="-2.6013642549514771e-02" rms="2.0831689238548279e-01" purity="5.3060937672853470e-02" nType="-99"/>
            <Node pos="r" depth="3" NCoef="0" IVar="-1" Cut="0.0000000000000000e+00" cType="1" res="-2.1132407709956169e-03" rms="2.0235784351825714e-01" purity="4.9235217273235321e-02" nType="-99"/>
          </Node>
        </Node>
        <Node pos="r" depth="1" NCoef="0" IVar="7" Cut="1.2030272483825684e+00" cType="1" res="1.1997376714134589e-04" rms="3.2372123003005981e-01" purity="6.6558790206909180e-01" nType="0">
          <Node pos="l" depth="2" NCoef="0" IVar="8" Cut="1.4663281440734863e+00" cType="1" res="-1.2542757904157043e-03" rms="3.2356125116348267e-01" purity="6.9219207763671875e-01" nType="0">
            <Node pos="l" depth="3" NCoef="0" IVar="-1" Cut="0.0000000000000000e+00" cType="1" res="-1.4896789798513055e-04" rms="3.2247215509414673e-01" purity="7.1471029520034790e-01" nType="-99"/>
            <Node pos="r" depth="3" NCoef="0" IVar="-1" Cut="0.0000000000000000e+00" cType="1" res="-1.6165386885404587e-02" rms="3.4021267294883728e-01" purity="3.2767426967620850e-01" nType="-99"/>
          </Node>
          <Node pos="r" depth="2" NCoef="0" IVar="9" Cut="1.3213068246841431e-01" cType="1" res="1.7554212361574173e-02" rms="3.2524025440216064e-01" purity="3.2807794213294983e-01" nType="0">
            <Node pos="l" depth="3" NCoef="0" IVar="-1" Cut="0.0000000000000000e+00" cType="1" res="2.7682561427354813e-02" rms="3.3398473262786865e-01" purity="3.5614508390426636e-01" nType="-99"/>
            <Node pos="r" depth="3" NCoef="0" IVar="-1" Cut="0.0000000000000000e+00" cType="1" res="4.6660290099680424e-03" rms="3.1595793366432190e-01" purity="3.0066120624542236e-01" nType="-99"/>
          </Node>
        </Node>
      </Node>
    </BinaryTree>
    <BinaryTree type="DecisionTree" boostWeight="1.0000000000000000e+00" itree="414">
      <Node pos="s" depth="0" NCoef="0" IVar="9" Cut="1.3332676887512207e-01" cType="1" res="-1.4895870117470622e-03" rms="2.9721975326538086e-01" purity="4.9698859453201294e-01" nType="0">
        <Node pos="l" depth="1" NCoef="0" IVar="5" Cut="1.4117060852050781e+02" cType="1" res="-3.9831129834055901e-03" rms="2.9497018456459045e-01" purity="5.0176107883453369e-01" nType="0">
          <Node pos="l" depth="2" NCoef="0" IVar="8" Cut="1.4666200876235962e+00" cType="1" res="-8.4771662950515747e-03" rms="2.8809556365013123e-01" purity="2.1314926445484161e-01" nType="0">
            <Node pos="l" depth="3" NCoef="0" IVar="-1" Cut="0.0000000000000000e+00" cType="1" res="-1.2692562304437160e-02" rms="2.9181015491485596e-01" purity="2.2470320761203766e-01" nType="-99"/>
            <Node pos="r" depth="3" NCoef="0" IVar="-1" Cut="0.0000000000000000e+00" cType="1" res="2.8117788955569267e-02" rms="2.5485092401504517e-01" purity="1.1994185298681259e-01" nType="-99"/>
          </Node>
          <Node pos="r" depth="2" NCoef="0" IVar="9" Cut="-1.5428813695907593e+00" cType="1" res="2.0102088456042111e-04" rms="3.0116948485374451e-01" purity="7.7046966552734375e-01" nType="0">
            <Node pos="l" depth="3" NCoef="0" IVar="-1" Cut="0.0000000000000000e+00" cType="1" res="1.9232477992773056e-02" rms="3.5804098844528198e-01" purity="5.7319921255111694e-01" nType="-99"/>
            <Node pos="r" depth="3" NCoef="0" IVar="-1" Cut="0.0000000000000000e+00" cType="1" res="-3.0819550156593323e-03" rms="2.9338386654853821e-01" purity="7.9442358016967773e-01" nType="-99"/>
          </Node>
        </Node>
        <Node pos="r" depth="1" NCoef="0" IVar="4" Cut="1.4518180847167969e+02" cType="1" res="1.5000513521954417e-03" rms="2.9986733198165894e-01" purity="4.9126657843589783e-01" nType="0">
          <Node pos="l" depth="2" NCoef="0" IVar="4" Cut="1.1409042358398438e+02" cType="1" res="1.1455514468252659e-02" rms="2.5302854180335999e-01" purity="9.7961015999317169e-02" nType="0">
            <Node pos="l" depth="3" NCoef="0" IVar="-1" Cut="0.0000000000000000e+00" cType="1" res="-2.4220841005444527e-02" rms="1.8246923387050629e-01" purity="3.6671437323093414e-02" nType="-99"/>
            <Node pos="r" depth="3" NCoef="0" IVar="-1" Cut="0.0000000000000000e+00" cType="1" res="3.9085369557142258e-02" rms="3.0331283807754517e-01" purity="1.5522433817386627e-01" nType="-99"/>
          </Node>
          <Node pos="r" depth="2" NCoef="0" IVar="3" Cut="3.3679010009765625e+02" cType="1" res="-1.1038664961233735e-03" rms="3.1090390682220459e-01" purity="5.9413826465606689e-01" nType="0">
            <Node pos="l" depth="3" NCoef="0" IVar="-1" Cut="0.0000000000000000e+00" cType="1" res="6.1777229420840740e-03" rms="3.3510348200798035e-01" purity="3.6879295110702515e-01" nType="-99"/>
            <Node pos="r" depth="3" NCoef="0" IVar="-1" Cut="0.0000000000000000e+00" cType="1" res="-5.0878310576081276e-03" rms="2.9958891868591309e-01" purity="6.9312059879302979e-01" nType="-99"/>
          </Node>
        </Node>
      </Node>
    </BinaryTree>
    <BinaryTree type="DecisionTree" boostWeight="1.0000000000000000e+00" itree="415">
      <Node pos="s" depth="0" NCoef="0" IVar="3" Cut="3.5189852905273438e+02" cType="1" res="-1.1416228517191485e-04" rms="2.9936790466308594e-01" purity="4.9900719523429871e-01" nType="0">
        <Node pos="l" depth="1" NCoef="0" IVar="10" Cut="-3.9995151758193970e-01" cType="1" res="7.3366919532418251e-03" rms="3.0812388658523560e-01" purity="2.8326457738876343e-01" nType="0">
          <Node pos="l" depth="2" NCoef="0" IVar="5" Cut="1.3368125915527344e+02" cType="1" res="6.3928076997399330e-05" rms="3.0176359415054321e-01" purity="2.6202809810638428e-01" nType="0">
            <Node pos="l" depth="3" NCoef="0" IVar="-1" Cut="0.0000000000000000e+00" cType="1" res="1.6173871234059334e-02" rms="2.7152499556541443e-01" purity="1.1448268592357635e-01" nType="-99"/>
            <Node pos="r" depth="3" NCoef="0" IVar="-1" Cut="0.0000000000000000e+00" cType="1" res="-1.4608295634388924e-02" rms="3.4802371263504028e-01" purity="5.2251803874969482e-01" nType="-99"/>
          </Node>
          <Node pos="r" depth="2" NCoef="0" IVar="5" Cut="1.1948051452636719e+02" cType="1" res="1.1917700991034508e-02" rms="3.1197658181190491e-01" purity="2.9664111137390137e-01" nType="0">
            <Node pos="l" depth="3" NCoef="0" IVar="-1" Cut="0.0000000000000000e+00" cType="1" res="-4.4741430319845676e-03" rms="2.4286136031150818e-01" purity="8.1782408058643341e-02" nType="-99"/>
            <Node pos="r" depth="3" NCoef="0" IVar="-1" Cut="0.0000000000000000e+00" cType="1" res="2.1636435762047768e-02" rms="3.7207910418510437e-01" purity="5.2966392040252686e-01" nType="-99"/>
          </Node>
        </Node>
        <Node pos="r" depth="1" NCoef="0" IVar="1" Cut="1.7204213867187500e+03" cType="1" res="-4.9646073020994663e-03" rms="2.9342585802078247e-01" purity="6.3945394754409790e-01" nType="0">
          <Node pos="l" depth="2" NCoef="0" IVar="10" Cut="1.3319563865661621e-01" cType="1" res="-9.1890580952167511e-03" rms="3.4029382467269897e-01" purity="3.5955154895782471e-01" nType="0">
            <Node pos="l" depth="3" NCoef="0" IVar="-1" Cut="0.0000000000000000e+00" cType="1" res="-1.5848599374294281e-02" rms="3.4235718846321106e-01" purity="3.4007272124290466e-01" nType="-99"/>
            <Node pos="r" depth="3" NCoef="0" IVar="-1" Cut="0.0000000000000000e+00" cType="1" res="1.3680572155863047e-03" rms="3.3768624067306519e-01" purity="3.8092201948165894e-01" nType="-99"/>
          </Node>
          <Node pos="r" depth="2" NCoef="0" IVar="10" Cut="-6.6633611917495728e-01" cType="1" res="-9.3367818044498563e-04" rms="2.4026007950305939e-01" purity="9.0653395652770996e-01" nType="0">
            <Node pos="l" depth="3" NCoef="0" IVar="-1" Cut="0.0000000000000000e+00" cType="1" res="1.0611965321004391e-02" rms="2.5079524517059326e-01" purity="9.0158671140670776e-01" nType="-99"/>
            <Node pos="r" depth="3" NCoef="0" IVar="-1" Cut="0.0000000000000000e+00" cType="1" res="-7.5149089097976685e-03" rms="2.3578090965747833e-01" purity="9.0853911638259888e-01" nType="-99"/>
          </Node>
        </Node>
      </Node>
    </BinaryTree>
    <BinaryTree type="DecisionTree" boostWeight="1.0000000000000000e+00" itree="416">
      <Node pos="s" depth="0" NCoef="0" IVar="10" Cut="-1.7332942485809326e+00" cType="1" res="1.3788755750283599e-03" rms="2.9858285188674927e-01" purity="5.0057840347290039e-01" nType="0">
        <Node pos="l" depth="1" NCoef="0" IVar="1" Cut="1.3948308105468750e+03" cType="1" res="-9.0029416605830193e-03" rms="3.0182749032974243e-01" purity="3.3867412805557251e-01" nType="0">
          <Node pos="l" depth="2" NCoef="0" IVar="-1" Cut="0.0000000000000000e+00" cType="1" res="6.5408594673499465e-04" rms="2.8047639131546021e-01" purity="1.2318313121795654e-01" nType="-99"/>
          <Node pos="r" depth="2" NCoef="0" IVar="-1" Cut="0.0000000000000000e+00" cType="1" res="-2.2341748699545860e-02" rms="3.3406814932823181e-01" purity="7.0107549428939819e-01" nType="-99"/>
        </Node>
        <Node pos="r" depth="1" NCoef="0" IVar="10" Cut="-1.5174205303192139e+00" cType="1" res="2.3145987652242184e-03" rms="2.9827091097831726e-01" purity="5.1517099142074585e-01" nType="0">
          <Node pos="l" depth="2" NCoef="0" IVar="-1" Cut="0.0000000000000000e+00" cType="1" res="2.0753096789121628e-02" rms="3.1703257560729980e-01" purity="4.8354306817054749e-01" nType="-99"/>
          <Node pos="r" depth="2" NCoef="0" IVar="10" Cut="-9.0064197778701782e-01" cType="1" res="1.7088685417547822e-03" rms="2.9754501581192017e-01" purity="5.1632744073867798e-01" nType="0">
            <Node pos="l" depth="3" NCoef="0" IVar="-1" Cut="0.0000000000000000e+00" cType="1" res="-5.3157242946326733e-03" rms="2.9930466413497925e-01" purity="4.9691873788833618e-01" nType="-99"/>
            <Node pos="r" depth="3" NCoef="0" IVar="-1" Cut="0.0000000000000000e+00" cType="1" res="3.1488267704844475e-03" rms="2.9723528027534485e-01" purity="5.1958048343658447e-01" nType="-99"/>
          </Node>
        </Node>
      </Node>
    </BinaryTree>
    <BinaryTree type="DecisionTree" boostWeight="1.0000000000000000e+00" itree="417">
      <Node pos="s" depth="0" NCoef="0" IVar="0" Cut="4.5206744384765625e+02" cType="1" res="-2.0496447104960680e-03" rms="2.9751563072204590e-01" purity="4.9634790420532227e-01" nType="0">
        <Node pos="l" depth="1" NCoef="0" IVar="4" Cut="2.5760287475585938e+02" cType="1" res="2.0241772290319204e-03" rms="3.0543708801269531e-01" purity="2.3790019750595093e-01" nType="0">
          <Node pos="l" depth="2" NCoef="0" IVar="4" Cut="2.2808409118652344e+02" cType="1" res="-1.6567691927775741e-03" rms="2.7786096930503845e-01" purity="1.4123888313770294e-01" nType="0">
            <Node pos="l" depth="3" NCoef="0" IVar="-1" Cut="0.0000000000000000e+00" cType="1" res="1.9339403370395303e-03" rms="2.6662793755531311e-01" purity="1.1459291726350784e-01" nType="-99"/>
            <Node pos="r" depth="3" NCoef="0" IVar="-1" Cut="0.0000000000000000e+00" cType="1" res="-1.8033774569630623e-02" rms="3.5268566012382507e-01" purity="3.4951734542846680e-01" nType="-99"/>
          </Node>
          <Node pos="r" depth="2" NCoef="0" IVar="6" Cut="1.3997720336914062e+02" cType="1" res="1.3629901222884655e-02" rms="3.7924844026565552e-01" purity="5.4266548156738281e-01" nType="0">
            <Node pos="l" depth="3" NCoef="0" IVar="-1" Cut="0.0000000000000000e+00" cType="1" res="1.6075851395726204e-02" rms="3.9035540819168091e-01" purity="4.4943135976791382e-01" nType="-99"/>
            <Node pos="r" depth="3" NCoef="0" IVar="-1" Cut="0.0000000000000000e+00" cType="1" res="-1.3159280642867088e-02" rms="3.4729164838790894e-01" purity="7.8344136476516724e-01" nType="-99"/>
          </Node>
        </Node>
        <Node pos="r" depth="1" NCoef="0" IVar="6" Cut="8.1792259216308594e+01" cType="1" res="-6.3068298622965813e-03" rms="2.8894439339637756e-01" purity="7.6642835140228271e-01" nType="0">
          <Node pos="l" depth="2" NCoef="0" IVar="8" Cut="1.3349178433418274e-01" cType="1" res="-1.5240570530295372e-02" rms="3.5715901851654053e-01" purity="4.8516705632209778e-01" nType="0">
            <Node pos="l" depth="3" NCoef="0" IVar="-1" Cut="0.0000000000000000e+00" cType="1" res="-5.3195403888821602e-03" rms="3.5517561435699463e-01" purity="5.1008725166320801e-01" nType="-99"/>
            <Node pos="r" depth="3" NCoef="0" IVar="-1" Cut="0.0000000000000000e+00" cType="1" res="-2.0872205495834351e-02" rms="3.5941553115844727e-01" purity="4.5291256904602051e-01" nType="-99"/>
          </Node>
          <Node pos="r" depth="2" NCoef="0" IVar="2" Cut="3.9935700595378876e-02" cType="1" res="-2.6462380774319172e-03" rms="2.5570216774940491e-01" purity="8.8167494535446167e-01" nType="0">
            <Node pos="l" depth="3" NCoef="0" IVar="-1" Cut="0.0000000000000000e+00" cType="1" res="-1.1649154126644135e-02" rms="3.1681889295578003e-01" purity="7.6947540044784546e-01" nType="-99"/>
            <Node pos="r" depth="3" NCoef="0" IVar="-1" Cut="0.0000000000000000e+00" cType="1" res="3.7930565886199474e-03" rms="2.1967944502830505e-01" purity="9.3638902902603149e-01" nType="-99"/>
          </Node>
        </Node>
      </Node>
    </BinaryTree>
    <BinaryTree type="DecisionTree" boostWeight="1.0000000000000000e+00" itree="418">
      <Node pos="s" depth="0" NCoef="0" IVar="8" Cut="-1.7333328723907471e+00" cType="1" res="-3.4861804451793432e-03" rms="2.9423195123672485e-01" purity="4.9943795800209045e-01" nType="0">
        <Node pos="l" depth="1" NCoef="0" IVar="8" Cut="-2.0889070034027100e+00" cType="1" res="-2.1488728001713753e-02" rms="2.3969997465610504e-01" purity="1.1193622648715973e-01" nType="0">
          <Node pos="l" depth="2" NCoef="0" IVar="-1" Cut="0.0000000000000000e+00" cType="1" res="-5.1619727164506912e-02" rms="1.9633455574512482e-01" purity="5.6078512221574783e-02" nType="-99"/>
          <Node pos="r" depth="2" NCoef="0" IVar="-1" Cut="0.0000000000000000e+00" cType="1" res="-1.9765304401516914e-02" rms="2.7639120817184448e-01" purity="1.6803357005119324e-01" nType="-99"/>
        </Node>
        <Node pos="r" depth="1" NCoef="0" IVar="8" Cut="1.2888832092285156e+00" cType="1" res="-2.5209463201463223e-03" rms="2.9684212803840637e-01" purity="5.2021443843841553e-01" nType="0">
          <Node pos="l" depth="2" NCoef="0" IVar="4" Cut="2.4120411682128906e+02" cType="1" res="-6.6698936279863119e-04" rms="3.0003604292869568e-01" purity="5.5885249376296997e-01" nType="0">
            <Node pos="l" depth="3" NCoef="0" IVar="-1" Cut="0.0000000000000000e+00" cType="1" res="2.9201104771345854e-03" rms="3.1564730405807495e-01" purity="2.9138743877410889e-01" nType="-99"/>
            <Node pos="r" depth="3" NCoef="0" IVar="-1" Cut="0.0000000000000000e+00" cType="1" res="-4.8739407211542130e-03" rms="2.8458344936370850e-01" purity="8.0958956480026245e-01" nType="-99"/>
          </Node>
          <Node pos="r" depth="2" NCoef="0" IVar="8" Cut="1.5047535896301270e+00" cType="1" res="-1.6782060265541077e-02" rms="2.7059394121170044e-01" purity="2.2300070524215698e-01" nType="0">
            <Node pos="l" depth="3" NCoef="0" IVar="-1" Cut="0.0000000000000000e+00" cType="1" res="-4.0294516831636429e-02" rms="2.9747468233108521e-01" purity="3.4183648228645325e-01" nType="-99"/>
            <Node pos="r" depth="3" NCoef="0" IVar="-1" Cut="0.0000000000000000e+00" cType="1" res="-1.0391415096819401e-02" rms="2.5805714726448059e-01" purity="1.7384499311447144e-01" nType="-99"/>
          </Node>
        </Node>
      </Node>
    </BinaryTree>
    <BinaryTree type="DecisionTree" boostWeight="1.0000000000000000e+00" itree="419">
      <Node pos="s" depth="0" NCoef="0" IVar="10" Cut="6.6666859388351440e-01" cType="1" res="-2.2006663493812084e-03" rms="2.9617631435394287e-01" purity="4.9412882328033447e-01" nType="0">
        <Node pos="l" depth="1" NCoef="0" IVar="9" Cut="-1.4666872024536133e+00" cType="1" res="8.9270982425659895e-04" rms="2.9717043042182922e-01" purity="5.0907123088836670e-01" nType="0">
          <Node pos="l" depth="2" NCoef="0" IVar="8" Cut="-6.6661387681961060e-01" cType="1" res="-1.6781158745288849e-02" rms="2.7944219112396240e-01" purity="2.8715568780899048e-01" nType="0">
            <Node pos="l" depth="3" NCoef="0" IVar="-1" Cut="0.0000000000000000e+00" cType="1" res="9.7617469727993011e-03" rms="2.7198144793510437e-01" purity="2.3003388941287994e-01" nType="-99"/>
            <Node pos="r" depth="3" NCoef="0" IVar="-1" Cut="0.0000000000000000e+00" cType="1" res="-3.4027982503175735e-02" rms="2.8279387950897217e-01" purity="3.2121315598487854e-01" nType="-99"/>
          </Node>
          <Node pos="r" depth="2" NCoef="0" IVar="6" Cut="8.1792289733886719e+01" cType="1" res="3.0273534357547760e-03" rms="2.9916989803314209e-01" purity="5.3587418794631958e-01" nType="0">
            <Node pos="l" depth="3" NCoef="0" IVar="-1" Cut="0.0000000000000000e+00" cType="1" res="9.6055408939719200e-03" rms="3.0430713295936584e-01" purity="2.5678205490112305e-01" nType="-99"/>
            <Node pos="r" depth="3" NCoef="0" IVar="-1" Cut="0.0000000000000000e+00" cType="1" res="-1.0925636161118746e-03" rms="2.9539677500724792e-01" purity="7.3436087369918823e-01" nType="-99"/>
          </Node>
        </Node>
        <Node pos="r" depth="1" NCoef="0" IVar="6" Cut="1.2428393554687500e+02" cType="1" res="-9.4134043902158737e-03" rms="2.9371878504753113e-01" purity="4.5928788185119629e-01" nType="0">
          <Node pos="l" depth="2" NCoef="0" IVar="10" Cut="1.8857151269912720e+00" cType="1" res="-1.3267787173390388e-02" rms="3.0020657181739807e-01" purity="3.2371893525123596e-01" nType="0">
            <Node pos="l" depth="3" NCoef="0" IVar="-1" Cut="0.0000000000000000e+00" cType="1" res="-1.8998658284544945e-02" rms="3.0011421442031860e-01" purity="3.3507624268531799e-01" nType="-99"/>
            <Node pos="r" depth="3" NCoef="0" IVar="-1" Cut="0.0000000000000000e+00" cType="1" res="3.5364198265597224e-04" rms="3.0007433891296387e-01" purity="2.8952300548553467e-01" nType="-99"/>
          </Node>
          <Node pos="r" depth="2" NCoef="0" IVar="-1" Cut="0.0000000000000000e+00" cType="1" res="2.2928845137357712e-03" rms="2.7385607361793518e-01" purity="8.5007554292678833e-01" nType="-99"/>
        </Node>
      </Node>
    </BinaryTree>
    <BinaryTree type="DecisionTree" boostWeight="1.0000000000000000e+00" itree="420">
      <Node pos="s" depth="0" NCoef="0" IVar="10" Cut="1.9999977350234985e+00" cType="1" res="-3.8998312084004283e-04" rms="2.9599851369857788e-01" purity="5.0088226795196533e-01" nType="0">
        <Node pos="l" depth="1" NCoef="0" IVar="8" Cut="9.3331384658813477e-01" cType="1" res="-1.2416137615218759e-03" rms="2.9470646381378174e-01" purity="5.1035600900650024e-01" nType="0">
          <Node pos="l" depth="2" NCoef="0" IVar="3" Cut="3.5189852905273438e+02" cType="1" res="-2.7960487641394138e-03" rms="2.9482758045196533e-01" purity="5.4475730657577515e-01" nType="0">
            <Node pos="l" depth="3" NCoef="0" IVar="-1" Cut="0.0000000000000000e+00" cType="1" res="-9.2116435989737511e-03" rms="3.0420410633087158e-01" purity="3.0408677458763123e-01" nType="-99"/>
            <Node pos="r" depth="3" NCoef="0" IVar="-1" Cut="0.0000000000000000e+00" cType="1" res="7.2332564741373062e-04" rms="2.8925445675849915e-01" purity="6.8286728858947754e-01" nType="-99"/>
          </Node>
          <Node pos="r" depth="2" NCoef="0" IVar="4" Cut="3.2068627929687500e+02" cType="1" res="5.6146685965359211e-03" rms="2.9407373070716858e-01" purity="3.5861912369728088e-01" nType="0">
            <Node pos="l" depth="3" NCoef="0" IVar="-1" Cut="0.0000000000000000e+00" cType="1" res="1.3048139400780201e-02" rms="2.9285019636154175e-01" purity="2.9790201783180237e-01" nType="-99"/>
            <Node pos="r" depth="3" NCoef="0" IVar="-1" Cut="0.0000000000000000e+00" cType="1" res="-2.8062863275408745e-02" rms="2.9883137345314026e-01" purity="6.9599032402038574e-01" nType="-99"/>
          </Node>
        </Node>
        <Node pos="r" depth="1" NCoef="0" IVar="7" Cut="2.2702784836292267e-01" cType="1" res="1.5304611064493656e-02" rms="3.1846585869789124e-01" purity="3.2629168033599854e-01" nType="0">
          <Node pos="l" depth="2" NCoef="0" IVar="-1" Cut="0.0000000000000000e+00" cType="1" res="-1.1173810809850693e-02" rms="3.0787581205368042e-01" purity="3.2344451546669006e-01" nType="-99"/>
          <Node pos="r" depth="2" NCoef="0" IVar="-1" Cut="0.0000000000000000e+00" cType="1" res="4.3126970529556274e-02" rms="3.2703098654747009e-01" purity="3.2929903268814087e-01" nType="-99"/>
        </Node>
      </Node>
    </BinaryTree>
    <BinaryTree type="DecisionTree" boostWeight="1.0000000000000000e+00" itree="421">
      <Node pos="s" depth="0" NCoef="0" IVar="8" Cut="-1.2000035047531128e+00" cType="1" res="7.0947664789855480e-04" rms="2.9708856344223022e-01" purity="5.0165188312530518e-01" nType="0">
        <Node pos="l" depth="1" NCoef="0" IVar="8" Cut="-1.5047664642333984e+00" cType="1" res="1.0942375287413597e-02" rms="2.9916080832481384e-01" purity="2.8060701489448547e-01" nType="0">
          <Node pos="l" depth="2" NCoef="0" IVar="8" Cut="-1.9365147352218628e+00" cType="1" res="-2.9169684275984764e-03" rms="2.7017244696617126e-01" purity="1.8143916130065918e-01" nType="0">
            <Node pos="l" depth="3" NCoef="0" IVar="-1" Cut="0.0000000000000000e+00" cType="1" res="1.5436206012964249e-02" rms="2.4790436029434204e-01" purity="1.2898480892181396e-01" nType="-99"/>
            <Node pos="r" depth="3" NCoef="0" IVar="-1" Cut="0.0000000000000000e+00" cType="1" res="-1.5140521340072155e-02" rms="2.8805780410766602e-01" purity="2.2796353697776794e-01" nType="-99"/>
          </Node>
          <Node pos="r" depth="2" NCoef="0" IVar="-1" Cut="0.0000000000000000e+00" cType="1" res="3.0980415642261505e-02" rms="3.3795064687728882e-01" purity="4.3363192677497864e-01" nType="-99"/>
        </Node>
        <Node pos="r" depth="1" NCoef="0" IVar="8" Cut="3.2382112741470337e-01" cType="1" res="-7.8255735570564866e-04" rms="2.9675573110580444e-01" purity="5.3388190269470215e-01" nType="0">
          <Node pos="l" depth="2" NCoef="0" IVar="1" Cut="1.3887548828125000e+03" cType="1" res="-4.6654329635202885e-03" rms="2.9409974813461304e-01" purity="5.8764714002609253e-01" nType="0">
            <Node pos="l" depth="3" NCoef="0" IVar="-1" Cut="0.0000000000000000e+00" cType="1" res="-1.2567818164825439e-02" rms="3.1764012575149536e-01" purity="1.8404234945774078e-01" nType="-99"/>
            <Node pos="r" depth="3" NCoef="0" IVar="-1" Cut="0.0000000000000000e+00" cType="1" res="1.3335221447050571e-03" rms="2.7715986967086792e-01" purity="8.5656923055648804e-01" nType="-99"/>
          </Node>
          <Node pos="r" depth="2" NCoef="0" IVar="9" Cut="-1.2002415657043457e+00" cType="1" res="4.2648543603718281e-03" rms="3.0009809136390686e-01" purity="4.6399158239364624e-01" nType="0">
            <Node pos="l" depth="3" NCoef="0" IVar="-1" Cut="0.0000000000000000e+00" cType="1" res="-1.1473341844975948e-02" rms="2.8751319646835327e-01" purity="2.9986456036567688e-01" nType="-99"/>
            <Node pos="r" depth="3" NCoef="0" IVar="-1" Cut="0.0000000000000000e+00" cType="1" res="7.0240614004433155e-03" rms="3.0180245637893677e-01" purity="4.8753750324249268e-01" nType="-99"/>
          </Node>
        </Node>
      </Node>
    </BinaryTree>
    <BinaryTree type="DecisionTree" boostWeight="1.0000000000000000e+00" itree="422">
      <Node pos="s" depth="0" NCoef="0" IVar="8" Cut="1.7333078384399414e+00" cType="1" res="1.8118674634024501e-03" rms="2.9704728722572327e-01" purity="5.0116121768951416e-01" nType="0">
        <Node pos="l" depth="1" NCoef="0" IVar="7" Cut="-3.8567748665809631e-01" cType="1" res="5.9966574190184474e-04" rms="2.9816746711730957e-01" purity="5.2132475376129150e-01" nType="0">
          <Node pos="l" depth="2" NCoef="0" IVar="10" Cut="3.9999023079872131e-01" cType="1" res="-7.1390871889889240e-03" rms="2.9400473833084106e-01" purity="4.3328583240509033e-01" nType="0">
            <Node pos="l" depth="3" NCoef="0" IVar="-1" Cut="0.0000000000000000e+00" cType="1" res="-1.5773074701428413e-02" rms="2.8489777445793152e-01" purity="4.2225316166877747e-01" nType="-99"/>
            <Node pos="r" depth="3" NCoef="0" IVar="-1" Cut="0.0000000000000000e+00" cType="1" res="6.6472222097218037e-03" rms="3.1081461906433105e-01" purity="4.5511847734451294e-01" nType="-99"/>
          </Node>
          <Node pos="r" depth="2" NCoef="0" IVar="9" Cut="-9.3344956636428833e-01" cType="1" res="4.2490279302000999e-03" rms="3.0004122853279114e-01" purity="5.6284123659133911e-01" nType="0">
            <Node pos="l" depth="3" NCoef="0" IVar="-1" Cut="0.0000000000000000e+00" cType="1" res="-6.2741949222981930e-03" rms="3.0848050117492676e-01" purity="4.5535713434219360e-01" nType="-99"/>
            <Node pos="r" depth="3" NCoef="0" IVar="-1" Cut="0.0000000000000000e+00" cType="1" res="7.3454156517982483e-03" rms="2.9802912473678589e-01" purity="5.8742851018905640e-01" nType="-99"/>
          </Node>
        </Node>
        <Node pos="r" depth="1" NCoef="0" IVar="8" Cut="2.0888640880584717e+00" cType="1" res="2.2962339222431183e-02" rms="2.7591747045516968e-01" purity="1.4934808015823364e-01" nType="0">
          <Node pos="l" depth="2" NCoef="0" IVar="-1" Cut="0.0000000000000000e+00" cType="1" res="5.3133394569158554e-02" rms="3.3145019412040710e-01" purity="2.1393518149852753e-01" nType="-99"/>
          <Node pos="r" depth="2" NCoef="0" IVar="-1" Cut="0.0000000000000000e+00" cType="1" res="4.4598383828997612e-03" rms="2.0160537958145142e-01" purity="8.3041496574878693e-02" nType="-99"/>
        </Node>
      </Node>
    </BinaryTree>
    <BinaryTree type="DecisionTree" boostWeight="1.0000000000000000e+00" itree="423">
      <Node pos="s" depth="0" NCoef="0" IVar="7" Cut="-3.6860767006874084e-01" cType="1" res="8.6842547170817852e-04" rms="2.9769772291183472e-01" purity="5.0265574455261230e-01" nType="0">
        <Node pos="l" depth="1" NCoef="0" IVar="3" Cut="3.5189959716796875e+02" cType="1" res="6.1473343521356583e-03" rms="3.0166721343994141e-01" purity="4.3322417140007019e-01" nType="0">
          <Node pos="l" depth="2" NCoef="0" IVar="10" Cut="-6.6638678312301636e-01" cType="1" res="1.4787076972424984e-02" rms="3.0667713284492493e-01" purity="2.5400879979133606e-01" nType="0">
            <Node pos="l" depth="3" NCoef="0" IVar="-1" Cut="0.0000000000000000e+00" cType="1" res="-1.9065928645431995e-03" rms="2.8891456127166748e-01" purity="1.8420857191085815e-01" nType="-99"/>
            <Node pos="r" depth="3" NCoef="0" IVar="-1" Cut="0.0000000000000000e+00" cType="1" res="2.6702305302023888e-02" rms="3.1597584486007690e-01" purity="2.9377496242523193e-01" nType="-99"/>
          </Node>
          <Node pos="r" depth="2" NCoef="0" IVar="8" Cut="-9.3274325132369995e-01" cType="1" res="-3.8043965469114482e-04" rms="2.9765981435775757e-01" purity="5.6863063573837280e-01" nType="0">
            <Node pos="l" depth="3" NCoef="0" IVar="-1" Cut="0.0000000000000000e+00" cType="1" res="1.5567233785986900e-02" rms="3.1579583883285522e-01" purity="4.4122159481048584e-01" nType="-99"/>
            <Node pos="r" depth="3" NCoef="0" IVar="-1" Cut="0.0000000000000000e+00" cType="1" res="-4.4781500473618507e-03" rms="2.9329428076744080e-01" purity="5.9733897447586060e-01" nType="-99"/>
          </Node>
        </Node>
        <Node pos="r" depth="1" NCoef="0" IVar="10" Cut="-3.9985817670822144e-01" cType="1" res="-1.7873022006824613e-03" rms="2.9564496874809265e-01" purity="5.3758567571640015e-01" nType="0">
          <Node pos="l" depth="2" NCoef="0" IVar="9" Cut="-9.3339163064956665e-01" cType="1" res="3.3886928576976061e-03" rms="3.0466362833976746e-01" purity="5.3535664081573486e-01" nType="0">
            <Node pos="l" depth="3" NCoef="0" IVar="-1" Cut="0.0000000000000000e+00" cType="1" res="2.3735573515295982e-02" rms="3.1171908974647522e-01" purity="4.4723966717720032e-01" nType="-99"/>
            <Node pos="r" depth="3" NCoef="0" IVar="-1" Cut="0.0000000000000000e+00" cType="1" res="-2.9703520704060793e-03" rms="3.0225691199302673e-01" purity="5.6168502569198608e-01" nType="-99"/>
          </Node>
          <Node pos="r" depth="2" NCoef="0" IVar="8" Cut="-1.4666064977645874e+00" cType="1" res="-4.6214843168854713e-03" rms="2.9054906964302063e-01" purity="5.3880614042282104e-01" nType="0">
            <Node pos="l" depth="3" NCoef="0" IVar="-1" Cut="0.0000000000000000e+00" cType="1" res="-3.8033258169889450e-02" rms="2.5610184669494629e-01" purity="1.8739543855190277e-01" nType="-99"/>
            <Node pos="r" depth="3" NCoef="0" IVar="-1" Cut="0.0000000000000000e+00" cType="1" res="-3.3425763249397278e-03" rms="2.9273390769958496e-01" purity="5.6341105699539185e-01" nType="-99"/>
          </Node>
        </Node>
      </Node>
    </BinaryTree>
    <BinaryTree type="DecisionTree" boostWeight="1.0000000000000000e+00" itree="424">
      <Node pos="s" depth="0" NCoef="0" IVar="8" Cut="3.9990657567977905e-01" cType="1" res="2.7113475371152163e-03" rms="2.9949536919593811e-01" purity="4.9867299199104309e-01" nType="0">
        <Node pos="l" depth="1" NCoef="0" IVar="1" Cut="1.6922147216796875e+03" cType="1" res="5.3673279471695423e-03" rms="3.0196958780288696e-01" purity="5.2818673849105835e-01" nType="0">
          <Node pos="l" depth="2" NCoef="0" IVar="0" Cut="3.8809646606445312e+02" cType="1" res="9.7567383199930191e-03" rms="3.3209070563316345e-01" purity="3.2012954354286194e-01" nType="0">
            <Node pos="l" depth="3" NCoef="0" IVar="-1" Cut="0.0000000000000000e+00" cType="1" res="-1.5739006921648979e-03" rms="2.9165631532669067e-01" purity="1.7305341362953186e-01" nType="-99"/>
            <Node pos="r" depth="3" NCoef="0" IVar="-1" Cut="0.0000000000000000e+00" cType="1" res="1.5894550830125809e-02" rms="3.6765062808990479e-01" purity="4.6667167544364929e-01" nType="-99"/>
          </Node>
          <Node pos="r" depth="2" NCoef="0" IVar="2" Cut="4.0953371673822403e-02" cType="1" res="-2.6636612601578236e-03" rms="2.3694410920143127e-01" purity="9.0885412693023682e-01" nType="0">
            <Node pos="l" depth="3" NCoef="0" IVar="-1" Cut="0.0000000000000000e+00" cType="1" res="-1.2794200330972672e-02" rms="3.1551244854927063e-01" purity="8.0674505233764648e-01" nType="-99"/>
            <Node pos="r" depth="3" NCoef="0" IVar="-1" Cut="0.0000000000000000e+00" cType="1" res="6.5288483165204525e-03" rms="1.8427014350891113e-01" purity="9.6087509393692017e-01" nType="-99"/>
          </Node>
        </Node>
        <Node pos="r" depth="1" NCoef="0" IVar="3" Cut="3.3545700073242188e+02" cType="1" res="-2.2825766354799271e-03" rms="2.9472219944000244e-01" purity="4.4317945837974548e-01" nType="0">
          <Node pos="l" depth="2" NCoef="0" IVar="0" Cut="3.8997097778320312e+02" cType="1" res="-1.0004105046391487e-02" rms="2.8078985214233398e-01" purity="2.2001171112060547e-01" nType="0">
            <Node pos="l" depth="3" NCoef="0" IVar="-1" Cut="0.0000000000000000e+00" cType="1" res="-2.6644492754712701e-04" rms="2.4691404402256012e-01" purity="1.1664712429046631e-01" nType="-99"/>
            <Node pos="r" depth="3" NCoef="0" IVar="-1" Cut="0.0000000000000000e+00" cType="1" res="-2.1376771852374077e-02" rms="3.2181614637374878e-01" purity="3.6484205722808838e-01" nType="-99"/>
          </Node>
          <Node pos="r" depth="2" NCoef="0" IVar="8" Cut="1.5427281856536865e+00" cType="1" res="2.2339811548590660e-03" rms="3.0248311161994934e-01" purity="5.7371705770492554e-01" nType="0">
            <Node pos="l" depth="3" NCoef="0" IVar="-1" Cut="0.0000000000000000e+00" cType="1" res="6.5962253138422966e-03" rms="3.0455380678176880e-01" purity="6.4273130893707275e-01" nType="-99"/>
            <Node pos="r" depth="3" NCoef="0" IVar="-1" Cut="0.0000000000000000e+00" cType="1" res="-1.8994083628058434e-02" rms="2.9139870405197144e-01" purity="2.3620997369289398e-01" nType="-99"/>
          </Node>
        </Node>
      </Node>
    </BinaryTree>
    <BinaryTree type="DecisionTree" boostWeight="1.0000000000000000e+00" itree="425">
      <Node pos="s" depth="0" NCoef="0" IVar="5" Cut="9.4340431213378906e+01" cType="1" res="8.0727593740448356e-04" rms="2.9492056369781494e-01" purity="5.0245869159698486e-01" nType="0">
        <Node pos="l" depth="1" NCoef="0" IVar="6" Cut="6.6781822204589844e+01" cType="1" res="-6.7472090013325214e-03" rms="2.3191905021667480e-01" purity="1.0252399742603302e-01" nType="0">
          <Node pos="l" depth="2" NCoef="0" IVar="10" Cut="-1.3350136578083038e-01" cType="1" res="-1.4504666614811867e-04" rms="2.2244279086589813e-01" purity="8.6734630167484283e-02" nType="0">
            <Node pos="l" depth="3" NCoef="0" IVar="-1" Cut="0.0000000000000000e+00" cType="1" res="-3.1307529658079147e-02" rms="1.9751527905464172e-01" purity="6.5209515392780304e-02" nType="-99"/>
            <Node pos="r" depth="3" NCoef="0" IVar="-1" Cut="0.0000000000000000e+00" cType="1" res="2.4615632370114326e-02" rms="2.4017503857612610e-01" purity="1.0435824841260910e-01" nType="-99"/>
          </Node>
          <Node pos="r" depth="2" NCoef="0" IVar="5" Cut="8.5206291198730469e+01" cType="1" res="-2.1276021376252174e-02" rms="2.5090736150741577e-01" purity="1.3727031648159027e-01" nType="0">
            <Node pos="l" depth="3" NCoef="0" IVar="-1" Cut="0.0000000000000000e+00" cType="1" res="-1.4227592386305332e-02" rms="2.3909766972064972e-01" purity="1.2754058837890625e-01" nType="-99"/>
            <Node pos="r" depth="3" NCoef="0" IVar="-1" Cut="0.0000000000000000e+00" cType="1" res="-3.8467060774564743e-02" rms="2.6397255063056946e-01" purity="1.4915813505649567e-01" nType="-99"/>
          </Node>
        </Node>
        <Node pos="r" depth="1" NCoef="0" IVar="8" Cut="1.4664616584777832e+00" cType="1" res="3.0894984956830740e-03" rms="3.1142085790634155e-01" purity="6.2327975034713745e-01" nType="0">
          <Node pos="l" depth="2" NCoef="0" IVar="7" Cut="4.0478047728538513e-01" cType="1" res="4.4081606902182102e-03" rms="3.1281116604804993e-01" purity="6.4902341365814209e-01" nType="0">
            <Node pos="l" depth="3" NCoef="0" IVar="-1" Cut="0.0000000000000000e+00" cType="1" res="7.4371537193655968e-03" rms="3.1107288599014282e-01" purity="6.8547177314758301e-01" nType="-99"/>
            <Node pos="r" depth="3" NCoef="0" IVar="-1" Cut="0.0000000000000000e+00" cType="1" res="-1.9842635374516249e-03" rms="3.1670776009559631e-01" purity="5.6459581851959229e-01" nType="-99"/>
          </Node>
          <Node pos="r" depth="2" NCoef="0" IVar="0" Cut="4.0965277099609375e+02" cType="1" res="-1.5092536807060242e-02" rms="2.9096752405166626e-01" purity="2.6831886172294617e-01" nType="0">
            <Node pos="l" depth="3" NCoef="0" IVar="-1" Cut="0.0000000000000000e+00" cType="1" res="-6.2351182103157043e-02" rms="2.0661708712577820e-01" purity="5.1970072090625763e-02" nType="-99"/>
            <Node pos="r" depth="3" NCoef="0" IVar="-1" Cut="0.0000000000000000e+00" cType="1" res="9.3474937602877617e-03" rms="3.5518494248390198e-01" purity="4.9000629782676697e-01" nType="-99"/>
          </Node>
        </Node>
      </Node>
    </BinaryTree>
    <BinaryTree type="DecisionTree" boostWeight="1.0000000000000000e+00" itree="426">
      <Node pos="s" depth="0" NCoef="0" IVar="8" Cut="-6.6667419672012329e-01" cType="1" res="7.2544370777904987e-04" rms="2.9717028141021729e-01" purity="4.9760621786117554e-01" nType="0">
        <Node pos="l" depth="1" NCoef="0" IVar="6" Cut="7.2969604492187500e+01" cType="1" res="7.3191178962588310e-03" rms="3.0397200584411621e-01" purity="3.9465573430061340e-01" nType="0">
          <Node pos="l" depth="2" NCoef="0" IVar="10" Cut="-1.1997319459915161e+00" cType="1" res="-1.7230847151950002e-03" rms="2.6358440518379211e-01" purity="1.5811917185783386e-01" nType="0">
            <Node pos="l" depth="3" NCoef="0" IVar="-1" Cut="0.0000000000000000e+00" cType="1" res="2.0549986511468887e-02" rms="2.6744642853736877e-01" purity="1.5338374674320221e-01" nType="-99"/>
            <Node pos="r" depth="3" NCoef="0" IVar="-1" Cut="0.0000000000000000e+00" cType="1" res="-9.1068679466843605e-03" rms="2.6203703880310059e-01" purity="1.5976090729236603e-01" nType="-99"/>
          </Node>
          <Node pos="r" depth="2" NCoef="0" IVar="4" Cut="2.9207897949218750e+02" cType="1" res="1.3472341932356358e-02" rms="3.2848754525184631e-01" purity="5.5561906099319458e-01" nType="0">
            <Node pos="l" depth="3" NCoef="0" IVar="-1" Cut="0.0000000000000000e+00" cType="1" res="1.7844362184405327e-02" rms="3.4527263045310974e-01" purity="4.3872311711311340e-01" nType="-99"/>
            <Node pos="r" depth="3" NCoef="0" IVar="-1" Cut="0.0000000000000000e+00" cType="1" res="-2.6596458628773689e-03" rms="2.8806051611900330e-01" purity="8.0950361490249634e-01" nType="-99"/>
          </Node>
        </Node>
        <Node pos="r" depth="1" NCoef="0" IVar="8" Cut="1.6444233655929565e+00" cType="1" res="-1.5926249325275421e-03" rms="2.9470673203468323e-01" purity="5.3379940986633301e-01" nType="0">
          <Node pos="l" depth="2" NCoef="0" IVar="10" Cut="-1.7331417798995972e+00" cType="1" res="-3.2357622403651476e-03" rms="2.9653784632682800e-01" purity="5.6747090816497803e-01" nType="0">
            <Node pos="l" depth="3" NCoef="0" IVar="-1" Cut="0.0000000000000000e+00" cType="1" res="-1.6309292986989021e-02" rms="3.0700314044952393e-01" purity="4.2586529254913330e-01" nType="-99"/>
            <Node pos="r" depth="3" NCoef="0" IVar="-1" Cut="0.0000000000000000e+00" cType="1" res="-2.5354167446494102e-03" rms="2.9570597410202026e-01" purity="5.7821232080459595e-01" nType="-99"/>
          </Node>
          <Node pos="r" depth="2" NCoef="0" IVar="0" Cut="4.0632055664062500e+02" cType="1" res="1.6118902713060379e-02" rms="2.7356770634651184e-01" purity="1.7085111141204834e-01" nType="0">
            <Node pos="l" depth="3" NCoef="0" IVar="-1" Cut="0.0000000000000000e+00" cType="1" res="7.8475363552570343e-03" rms="2.0287351310253143e-01" purity="5.0894912332296371e-02" nType="-99"/>
            <Node pos="r" depth="3" NCoef="0" IVar="-1" Cut="0.0000000000000000e+00" cType="1" res="3.0786678194999695e-02" rms="3.4834516048431396e-01" purity="3.3854550123214722e-01" nType="-99"/>
          </Node>
        </Node>
      </Node>
    </BinaryTree>
    <BinaryTree type="DecisionTree" boostWeight="1.0000000000000000e+00" itree="427">
      <Node pos="s" depth="0" NCoef="0" IVar="8" Cut="-1.7333328723907471e+00" cType="1" res="3.2896565971896052e-04" rms="2.9737511277198792e-01" purity="4.9749061465263367e-01" nType="0">
        <Node pos="l" depth="1" NCoef="0" IVar="8" Cut="-2.0889134407043457e+00" cType="1" res="1.5947829931974411e-02" rms="2.8102815151214600e-01" purity="1.5268196165561676e-01" nType="0">
          <Node pos="l" depth="2" NCoef="0" IVar="-1" Cut="0.0000000000000000e+00" cType="1" res="3.7664663046598434e-02" rms="2.6358687877655029e-01" purity="1.0346236824989319e-01" nType="-99"/>
          <Node pos="r" depth="2" NCoef="0" IVar="-1" Cut="0.0000000000000000e+00" cType="1" res="1.5513142570853233e-02" rms="2.9770341515541077e-01" purity="2.0279604196548462e-01" nType="-99"/>
        </Node>
        <Node pos="r" depth="1" NCoef="0" IVar="7" Cut="-1.4475629329681396e+00" cType="1" res="-5.4407835705205798e-04" rms="2.9823827743530273e-01" purity="5.1676428318023682e-01" nType="0">
          <Node pos="l" depth="2" NCoef="0" IVar="7" Cut="-1.7635588645935059e+00" cType="1" res="-1.3558662496507168e-02" rms="2.1245370805263519e-01" purity="1.0596435517072678e-01" nType="0">
            <Node pos="l" depth="3" NCoef="0" IVar="-1" Cut="0.0000000000000000e+00" cType="1" res="-4.4446732848882675e-02" rms="1.6392685472965240e-01" purity="5.9577103704214096e-02" nType="-99"/>
            <Node pos="r" depth="3" NCoef="0" IVar="-1" Cut="0.0000000000000000e+00" cType="1" res="-1.1399481445550919e-02" rms="2.5543129444122314e-01" purity="1.5717689692974091e-01" nType="-99"/>
          </Node>
          <Node pos="r" depth="2" NCoef="0" IVar="5" Cut="9.5612480163574219e+01" cType="1" res="2.3356692690867931e-04" rms="3.0257731676101685e-01" purity="5.4131036996841431e-01" nType="0">
            <Node pos="l" depth="3" NCoef="0" IVar="-1" Cut="0.0000000000000000e+00" cType="1" res="-8.6002750322222710e-03" rms="2.4631966650485992e-01" purity="1.2401027977466583e-01" nType="-99"/>
            <Node pos="r" depth="3" NCoef="0" IVar="-1" Cut="0.0000000000000000e+00" cType="1" res="1.9492815481498837e-03" rms="3.1684359908103943e-01" purity="6.6090804338455200e-01" nType="-99"/>
          </Node>
        </Node>
      </Node>
    </BinaryTree>
    <BinaryTree type="DecisionTree" boostWeight="1.0000000000000000e+00" itree="428">
      <Node pos="s" depth="0" NCoef="0" IVar="7" Cut="4.0456292033195496e-01" cType="1" res="1.4156904071569443e-03" rms="2.9697924852371216e-01" purity="5.0436353683471680e-01" nType="0">
        <Node pos="l" depth="1" NCoef="0" IVar="7" Cut="-1.5721625089645386e+00" cType="1" res="-9.0263795573264360e-04" rms="2.9619917273521423e-01" purity="5.4033863544464111e-01" nType="0">
          <Node pos="l" depth="2" NCoef="0" IVar="-1" Cut="0.0000000000000000e+00" cType="1" res="3.8618318736553192e-02" rms="2.4151025712490082e-01" purity="1.1893317103385925e-01" nType="-99"/>
          <Node pos="r" depth="2" NCoef="0" IVar="1" Cut="1.7444438476562500e+03" cType="1" res="-2.5057415477931499e-03" rms="2.9994425177574158e-01" purity="5.7284653186798096e-01" nType="0">
            <Node pos="l" depth="3" NCoef="0" IVar="-1" Cut="0.0000000000000000e+00" cType="1" res="-5.6638503447175026e-03" rms="3.3613047003746033e-01" purity="3.6740332841873169e-01" nType="-99"/>
            <Node pos="r" depth="3" NCoef="0" IVar="-1" Cut="0.0000000000000000e+00" cType="1" res="8.5621243342757225e-03" rms="2.2371837496757507e-01" purity="9.2844629287719727e-01" nType="-99"/>
          </Node>
        </Node>
        <Node pos="r" depth="1" NCoef="0" IVar="7" Cut="1.4309401512145996e+00" cType="1" res="6.1584925279021263e-03" rms="2.9851263761520386e-01" purity="4.3076634407043457e-01" nType="0">
          <Node pos="l" depth="2" NCoef="0" IVar="6" Cut="1.2430281829833984e+02" cType="1" res="1.0394500568509102e-02" rms="3.1468334794044495e-01" purity="5.1123106479644775e-01" nType="0">
            <Node pos="l" depth="3" NCoef="0" IVar="-1" Cut="0.0000000000000000e+00" cType="1" res="1.5425949357450008e-02" rms="3.3158841729164124e-01" purity="3.6463642120361328e-01" nType="-99"/>
            <Node pos="r" depth="3" NCoef="0" IVar="-1" Cut="0.0000000000000000e+00" cType="1" res="-6.4216582104563713e-03" rms="2.6881617307662964e-01" purity="8.6609596014022827e-01" nType="-99"/>
          </Node>
          <Node pos="r" depth="2" NCoef="0" IVar="4" Cut="1.7760494995117188e+02" cType="1" res="-1.1168175376951694e-02" rms="2.1949321031570435e-01" purity="1.0163927078247070e-01" nType="0">
            <Node pos="l" depth="3" NCoef="0" IVar="-1" Cut="0.0000000000000000e+00" cType="1" res="-9.7033967904280871e-05" rms="1.3834866881370544e-01" purity="2.7796454727649689e-02" nType="-99"/>
            <Node pos="r" depth="3" NCoef="0" IVar="-1" Cut="0.0000000000000000e+00" cType="1" res="-2.6423079892992973e-02" rms="2.7982532978057861e-01" purity="1.7892582714557648e-01" nType="-99"/>
          </Node>
        </Node>
      </Node>
    </BinaryTree>
    <BinaryTree type="DecisionTree" boostWeight="1.0000000000000000e+00" itree="429">
      <Node pos="s" depth="0" NCoef="0" IVar="7" Cut="6.7619520425796509e-01" cType="1" res="-5.1534594967961311e-04" rms="2.9635328054428101e-01" purity="4.9739724397659302e-01" nType="0">
        <Node pos="l" depth="1" NCoef="0" IVar="7" Cut="-1.4600762128829956e+00" cType="1" res="1.5457754489034414e-03" rms="3.0017289519309998e-01" purity="5.4534101486206055e-01" nType="0">
          <Node pos="l" depth="2" NCoef="0" IVar="8" Cut="-1.3326601684093475e-01" cType="1" res="-1.2268793769180775e-02" rms="2.0242971181869507e-01" purity="1.0393421351909637e-01" nType="0">
            <Node pos="l" depth="3" NCoef="0" IVar="-1" Cut="0.0000000000000000e+00" cType="1" res="-4.0838781744241714e-02" rms="1.8334227800369263e-01" purity="8.8382199406623840e-02" nType="-99"/>
            <Node pos="r" depth="3" NCoef="0" IVar="-1" Cut="0.0000000000000000e+00" cType="1" res="-7.2037889622151852e-03" rms="2.1926963329315186e-01" purity="1.1921744048595428e-01" nType="-99"/>
          </Node>
          <Node pos="r" depth="2" NCoef="0" IVar="2" Cut="2.0898997783660889e-02" cType="1" res="2.6666936464607716e-03" rms="3.0671340227127075e-01" purity="5.8115690946578979e-01" nType="0">
            <Node pos="l" depth="3" NCoef="0" IVar="-1" Cut="0.0000000000000000e+00" cType="1" res="9.0033262968063354e-03" rms="3.1469383835792542e-01" purity="3.4293609857559204e-01" nType="-99"/>
            <Node pos="r" depth="3" NCoef="0" IVar="-1" Cut="0.0000000000000000e+00" cType="1" res="4.4084503315389156e-04" rms="3.0369359254837036e-01" purity="6.6879034042358398e-01" nType="-99"/>
          </Node>
        </Node>
        <Node pos="r" depth="1" NCoef="0" IVar="8" Cut="1.4664652347564697e+00" cType="1" res="-7.6462547294795513e-03" rms="2.8262469172477722e-01" purity="3.3152523636817932e-01" nType="0">
          <Node pos="l" depth="2" NCoef="0" IVar="10" Cut="-9.3333429098129272e-01" cType="1" res="-1.0710319504141808e-02" rms="2.8517901897430420e-01" purity="3.5756513476371765e-01" nType="0">
            <Node pos="l" depth="3" NCoef="0" IVar="-1" Cut="0.0000000000000000e+00" cType="1" res="6.9141569547355175e-03" rms="3.0337479710578918e-01" purity="3.2094189524650574e-01" nType="-99"/>
            <Node pos="r" depth="3" NCoef="0" IVar="-1" Cut="0.0000000000000000e+00" cType="1" res="-1.7784636467695236e-02" rms="2.8015080094337463e-01" purity="3.6696058511734009e-01" nType="-99"/>
          </Node>
          <Node pos="r" depth="2" NCoef="0" IVar="-1" Cut="0.0000000000000000e+00" cType="1" res="2.9211137443780899e-02" rms="2.6028028130531311e-01" purity="1.2559898197650909e-01" nType="-99"/>
        </Node>
      </Node>
    </BinaryTree>
    <BinaryTree type="DecisionTree" boostWeight="1.0000000000000000e+00" itree="430">
      <Node pos="s" depth="0" NCoef="0" IVar="8" Cut="-9.3329501152038574e-01" cType="1" res="3.1680936808697879e-04" rms="2.9683899879455566e-01" purity="5.0064504146575928e-01" nType="0">
        <Node pos="l" depth="1" NCoef="0" IVar="5" Cut="1.2822644042968750e+02" cType="1" res="-1.1403704062104225e-02" rms="2.9229888319969177e-01" purity="3.2415089011192322e-01" nType="0">
          <Node pos="l" depth="2" NCoef="0" IVar="1" Cut="1.0999205322265625e+03" cType="1" res="-2.0313885062932968e-02" rms="2.3985305428504944e-01" purity="1.0137197375297546e-01" nType="0">
            <Node pos="l" depth="3" NCoef="0" IVar="-1" Cut="0.0000000000000000e+00" cType="1" res="-2.4247758090496063e-02" rms="1.5376035869121552e-01" purity="2.6006545871496201e-02" nType="-99"/>
            <Node pos="r" depth="3" NCoef="0" IVar="-1" Cut="0.0000000000000000e+00" cType="1" res="-3.2881852239370346e-02" rms="3.2412394881248474e-01" purity="2.0836339890956879e-01" nType="-99"/>
          </Node>
          <Node pos="r" depth="2" NCoef="0" IVar="9" Cut="-1.3245475292205811e-01" cType="1" res="-1.2238142080605030e-03" rms="3.4224337339401245e-01" purity="5.7867604494094849e-01" nType="0">
            <Node pos="l" depth="3" NCoef="0" IVar="-1" Cut="0.0000000000000000e+00" cType="1" res="1.6926929354667664e-02" rms="3.4998530149459839e-01" purity="5.8438718318939209e-01" nType="-99"/>
            <Node pos="r" depth="3" NCoef="0" IVar="-1" Cut="0.0000000000000000e+00" cType="1" res="-2.0933568477630615e-02" rms="3.3220773935317993e-01" purity="5.7256084680557251e-01" nType="-99"/>
          </Node>
        </Node>
        <Node pos="r" depth="1" NCoef="0" IVar="9" Cut="1.4665942192077637e+00" cType="1" res="2.9419276397675276e-03" rms="2.9778316617012024e-01" purity="5.4017555713653564e-01" nType="0">
          <Node pos="l" depth="2" NCoef="0" IVar="9" Cut="6.5389221906661987e-01" cType="1" res="4.3398546986281872e-03" rms="2.9803708195686340e-01" purity="5.6460630893707275e-01" nType="0">
            <Node pos="l" depth="3" NCoef="0" IVar="-1" Cut="0.0000000000000000e+00" cType="1" res="2.8205208946019411e-03" rms="2.9347532987594604e-01" purity="5.6611561775207520e-01" nType="-99"/>
            <Node pos="r" depth="3" NCoef="0" IVar="-1" Cut="0.0000000000000000e+00" cType="1" res="1.1930819600820541e-02" rms="3.1388831138610840e-01" purity="5.5914807319641113e-01" nType="-99"/>
          </Node>
          <Node pos="r" depth="2" NCoef="0" IVar="2" Cut="3.7712879478931427e-02" cType="1" res="-9.3377344310283661e-03" rms="2.9525893926620483e-01" purity="3.2557120919227600e-01" nType="0">
            <Node pos="l" depth="3" NCoef="0" IVar="-1" Cut="0.0000000000000000e+00" cType="1" res="1.5110328095033765e-03" rms="2.6787349581718445e-01" purity="1.9939617812633514e-01" nType="-99"/>
            <Node pos="r" depth="3" NCoef="0" IVar="-1" Cut="0.0000000000000000e+00" cType="1" res="-2.3163251578807831e-02" rms="3.3382648229598999e-01" purity="5.2783602476119995e-01" nType="-99"/>
          </Node>
        </Node>
      </Node>
    </BinaryTree>
    <BinaryTree type="DecisionTree" boostWeight="1.0000000000000000e+00" itree="431">
      <Node pos="s" depth="0" NCoef="0" IVar="8" Cut="1.1999784708023071e+00" cType="1" res="6.9796881871297956e-04" rms="2.9783773422241211e-01" purity="5.0009953975677490e-01" nType="0">
        <Node pos="l" depth="1" NCoef="0" IVar="7" Cut="1.2067840099334717e+00" cType="1" res="1.9880780018866062e-03" rms="2.9983091354370117e-01" purity="5.3586065769195557e-01" nType="0">
          <Node pos="l" depth="2" NCoef="0" IVar="9" Cut="-1.2000213861465454e+00" cType="1" res="1.0040944907814264e-03" rms="3.0281317234039307e-01" purity="5.6780630350112915e-01" nType="0">
            <Node pos="l" depth="3" NCoef="0" IVar="-1" Cut="0.0000000000000000e+00" cType="1" res="-7.4462671764194965e-03" rms="3.1141948699951172e-01" purity="3.7554988265037537e-01" nType="-99"/>
            <Node pos="r" depth="3" NCoef="0" IVar="-1" Cut="0.0000000000000000e+00" cType="1" res="2.6094203349202871e-03" rms="3.0132997035980225e-01" purity="5.9992587566375732e-01" nType="-99"/>
          </Node>
          <Node pos="r" depth="2" NCoef="0" IVar="2" Cut="1.0934177786111832e-02" cType="1" res="1.1675019748508930e-02" rms="2.6851817965507507e-01" purity="2.2136792540550232e-01" nType="0">
            <Node pos="l" depth="3" NCoef="0" IVar="-1" Cut="0.0000000000000000e+00" cType="1" res="-1.2348094023764133e-02" rms="1.8006105720996857e-01" purity="6.5999105572700500e-02" nType="-99"/>
            <Node pos="r" depth="3" NCoef="0" IVar="-1" Cut="0.0000000000000000e+00" cType="1" res="2.6948846876621246e-02" rms="3.2986798882484436e-01" purity="3.6706721782684326e-01" nType="-99"/>
          </Node>
        </Node>
        <Node pos="r" depth="1" NCoef="0" IVar="0" Cut="4.1499597167968750e+02" cType="1" res="-8.2945376634597778e-03" rms="2.8339251875877380e-01" purity="2.5083270668983459e-01" nType="0">
          <Node pos="l" depth="2" NCoef="0" IVar="0" Cut="3.3833282470703125e+02" cType="1" res="-3.9451592601835728e-04" rms="2.3911741375923157e-01" purity="9.7709394991397858e-02" nType="0">
            <Node pos="l" depth="3" NCoef="0" IVar="-1" Cut="0.0000000000000000e+00" cType="1" res="-3.1998816877603531e-02" rms="1.8612197041511536e-01" purity="5.3056120872497559e-02" nType="-99"/>
            <Node pos="r" depth="3" NCoef="0" IVar="-1" Cut="0.0000000000000000e+00" cType="1" res="1.4979046769440174e-02" rms="2.7349311113357544e-01" purity="1.3316518068313599e-01" nType="-99"/>
          </Node>
          <Node pos="r" depth="2" NCoef="0" IVar="8" Cut="1.5809326171875000e+00" cType="1" res="-1.8547955900430679e-02" rms="3.3188998699188232e-01" purity="4.4957107305526733e-01" nType="0">
            <Node pos="l" depth="3" NCoef="0" IVar="-1" Cut="0.0000000000000000e+00" cType="1" res="-2.6107523590326309e-02" rms="3.2354429364204407e-01" purity="5.6099432706832886e-01" nType="-99"/>
            <Node pos="r" depth="3" NCoef="0" IVar="-1" Cut="0.0000000000000000e+00" cType="1" res="-5.8675748296082020e-03" rms="3.3990439772605896e-01" purity="3.3425405621528625e-01" nType="-99"/>
          </Node>
        </Node>
      </Node>
    </BinaryTree>
    <BinaryTree type="DecisionTree" boostWeight="1.0000000000000000e+00" itree="432">
      <Node pos="s" depth="0" NCoef="0" IVar="3" Cut="3.3545809936523438e+02" cType="1" res="-1.1620071745710447e-04" rms="2.9926127195358276e-01" purity="4.9907916784286499e-01" nType="0">
        <Node pos="l" depth="1" NCoef="0" IVar="9" Cut="1.1999446153640747e+00" cType="1" res="5.6074592284858227e-03" rms="3.0804592370986938e-01" purity="2.6431408524513245e-01" nType="0">
          <Node pos="l" depth="2" NCoef="0" IVar="5" Cut="1.3049882507324219e+02" cType="1" res="9.3457102775573730e-03" rms="3.1551206111907959e-01" purity="2.8569781780242920e-01" nType="0">
            <Node pos="l" depth="3" NCoef="0" IVar="-1" Cut="0.0000000000000000e+00" cType="1" res="2.7992682531476021e-02" rms="2.7445894479751587e-01" purity="1.1892601102590561e-01" nType="-99"/>
            <Node pos="r" depth="3" NCoef="0" IVar="-1" Cut="0.0000000000000000e+00" cType="1" res="-3.1366508919745684e-03" rms="3.6830478906631470e-01" purity="5.3634709119796753e-01" nType="-99"/>
          </Node>
          <Node pos="r" depth="2" NCoef="0" IVar="6" Cut="7.1872856140136719e+01" cType="1" res="-1.2270125560462475e-02" rms="2.6877754926681519e-01" purity="1.6204984486103058e-01" nType="0">
            <Node pos="l" depth="3" NCoef="0" IVar="-1" Cut="0.0000000000000000e+00" cType="1" res="-8.9783681323751807e-04" rms="2.1169964969158173e-01" purity="6.1845824122428894e-02" nType="-99"/>
            <Node pos="r" depth="3" NCoef="0" IVar="-1" Cut="0.0000000000000000e+00" cType="1" res="-2.2526860237121582e-02" rms="3.1515046954154968e-01" purity="2.6201283931732178e-01" nType="-99"/>
          </Node>
        </Node>
        <Node pos="r" depth="1" NCoef="0" IVar="1" Cut="1.4460212402343750e+03" cType="1" res="-3.2042618840932846e-03" rms="2.9436665773391724e-01" purity="6.2574094533920288e-01" nType="0">
          <Node pos="l" depth="2" NCoef="0" IVar="8" Cut="1.3327625393867493e-01" cType="1" res="-9.9801886826753616e-03" rms="3.0906993150711060e-01" purity="1.8237166106700897e-01" nType="0">
            <Node pos="l" depth="3" NCoef="0" IVar="-1" Cut="0.0000000000000000e+00" cType="1" res="-1.9632792100310326e-02" rms="3.0345675349235535e-01" purity="1.7946553230285645e-01" nType="-99"/>
            <Node pos="r" depth="3" NCoef="0" IVar="-1" Cut="0.0000000000000000e+00" cType="1" res="1.6945200040936470e-03" rms="3.1511589884757996e-01" purity="1.8577368557453156e-01" nType="-99"/>
          </Node>
          <Node pos="r" depth="2" NCoef="0" IVar="0" Cut="4.3904965209960938e+02" cType="1" res="-7.9815079516265541e-05" rms="2.8727966547012329e-01" purity="8.3018290996551514e-01" nType="0">
            <Node pos="l" depth="3" NCoef="0" IVar="-1" Cut="0.0000000000000000e+00" cType="1" res="1.1131583712995052e-02" rms="3.8177075982093811e-01" purity="6.2266194820404053e-01" nType="-99"/>
            <Node pos="r" depth="3" NCoef="0" IVar="-1" Cut="0.0000000000000000e+00" cType="1" res="-4.8124259337782860e-03" rms="2.6362633705139160e-01" purity="8.7274599075317383e-01" nType="-99"/>
          </Node>
        </Node>
      </Node>
    </BinaryTree>
    <BinaryTree type="DecisionTree" boostWeight="1.0000000000000000e+00" itree="433">
      <Node pos="s" depth="0" NCoef="0" IVar="8" Cut="-9.3337017297744751e-01" cType="1" res="-1.3645311992149800e-04" rms="2.9716593027114868e-01" purity="4.9944838881492615e-01" nType="0">
        <Node pos="l" depth="1" NCoef="0" IVar="10" Cut="4.0011191368103027e-01" cType="1" res="9.8815662786364555e-03" rms="3.0523905158042908e-01" purity="3.4630057215690613e-01" nType="0">
          <Node pos="l" depth="2" NCoef="0" IVar="3" Cut="4.5040625000000000e+02" cType="1" res="1.8167048692703247e-02" rms="3.0789947509765625e-01" purity="3.5139808058738708e-01" nType="0">
            <Node pos="l" depth="3" NCoef="0" IVar="-1" Cut="0.0000000000000000e+00" cType="1" res="3.4983318299055099e-02" rms="3.0691522359848022e-01" purity="2.7891206741333008e-01" nType="-99"/>
            <Node pos="r" depth="3" NCoef="0" IVar="-1" Cut="0.0000000000000000e+00" cType="1" res="-1.0342308320105076e-02" rms="3.0856341123580933e-01" purity="5.4058110713958740e-01" nType="-99"/>
          </Node>
          <Node pos="r" depth="2" NCoef="0" IVar="9" Cut="1.3314959406852722e-01" cType="1" res="-7.2093163616955280e-03" rms="2.9895216226577759e-01" purity="3.3578574657440186e-01" nType="0">
            <Node pos="l" depth="3" NCoef="0" IVar="-1" Cut="0.0000000000000000e+00" cType="1" res="-1.9857145380228758e-03" rms="2.9890522360801697e-01" purity="3.6411508917808533e-01" nType="-99"/>
            <Node pos="r" depth="3" NCoef="0" IVar="-1" Cut="0.0000000000000000e+00" cType="1" res="-1.5931341797113419e-02" rms="2.9886776208877563e-01" purity="2.9923301935195923e-01" nType="-99"/>
          </Node>
        </Node>
        <Node pos="r" depth="1" NCoef="0" IVar="10" Cut="-1.7333238124847412e+00" cType="1" res="-2.4829036556184292e-03" rms="2.9519397020339966e-01" purity="5.3531908988952637e-01" nType="0">
          <Node pos="l" depth="2" NCoef="0" IVar="8" Cut="3.1084987521171570e-01" cType="1" res="1.5600555576384068e-02" rms="3.1394204497337341e-01" purity="4.3746992945671082e-01" nType="0">
            <Node pos="l" depth="3" NCoef="0" IVar="-1" Cut="0.0000000000000000e+00" cType="1" res="7.0089008659124374e-04" rms="3.0216613411903381e-01" purity="4.9142032861709595e-01" nType="-99"/>
            <Node pos="r" depth="3" NCoef="0" IVar="-1" Cut="0.0000000000000000e+00" cType="1" res="3.4888088703155518e-02" rms="3.2696145772933960e-01" purity="3.7086629867553711e-01" nType="-99"/>
          </Node>
          <Node pos="r" depth="2" NCoef="0" IVar="3" Cut="3.2486508178710938e+02" cType="1" res="-4.0233209729194641e-03" rms="2.9349011182785034e-01" purity="5.4365426301956177e-01" nType="0">
            <Node pos="l" depth="3" NCoef="0" IVar="-1" Cut="0.0000000000000000e+00" cType="1" res="-1.1107251048088074e-02" rms="3.0195814371109009e-01" purity="2.6922899484634399e-01" nType="-99"/>
            <Node pos="r" depth="3" NCoef="0" IVar="-1" Cut="0.0000000000000000e+00" cType="1" res="-1.5774574130773544e-03" rms="2.8977328538894653e-01" purity="6.6031968593597412e-01" nType="-99"/>
          </Node>
        </Node>
      </Node>
    </BinaryTree>
    <BinaryTree type="DecisionTree" boostWeight="1.0000000000000000e+00" itree="434">
      <Node pos="s" depth="0" NCoef="0" IVar="8" Cut="-9.3334311246871948e-01" cType="1" res="-1.8710870062932372e-03" rms="2.9693913459777832e-01" purity="4.9583515524864197e-01" nType="0">
        <Node pos="l" depth="1" NCoef="0" IVar="5" Cut="1.6675820922851562e+02" cType="1" res="-9.6086515113711357e-03" rms="2.9465246200561523e-01" purity="3.3196455240249634e-01" nType="0">
          <Node pos="l" depth="2" NCoef="0" IVar="8" Cut="-1.4666385650634766e+00" cType="1" res="-1.4807306230068207e-02" rms="2.7719470858573914e-01" purity="1.7195214331150055e-01" nType="0">
            <Node pos="l" depth="3" NCoef="0" IVar="-1" Cut="0.0000000000000000e+00" cType="1" res="-4.0401788428425789e-03" rms="2.4967554211616516e-01" purity="1.1083715409040451e-01" nType="-99"/>
            <Node pos="r" depth="3" NCoef="0" IVar="-1" Cut="0.0000000000000000e+00" cType="1" res="-2.7480091899633408e-02" rms="3.0264663696289062e-01" purity="2.3549585044384003e-01" nType="-99"/>
          </Node>
          <Node pos="r" depth="2" NCoef="0" IVar="7" Cut="-7.6644748449325562e-02" cType="1" res="2.5813402608036995e-03" rms="3.3168813586235046e-01" purity="7.0716750621795654e-01" nType="0">
            <Node pos="l" depth="3" NCoef="0" IVar="-1" Cut="0.0000000000000000e+00" cType="1" res="-6.0192006640136242e-03" rms="3.3973586559295654e-01" purity="6.9801479578018188e-01" nType="-99"/>
            <Node pos="r" depth="3" NCoef="0" IVar="-1" Cut="0.0000000000000000e+00" cType="1" res="1.0773401707410812e-02" rms="3.2390230894088745e-01" purity="7.1557098627090454e-01" nType="-99"/>
          </Node>
        </Node>
        <Node pos="r" depth="1" NCoef="0" IVar="7" Cut="1.3857682049274445e-01" cType="1" res="-1.1086749873356894e-04" rms="2.9742878675460815e-01" purity="5.3311407566070557e-01" nType="0">
          <Node pos="l" depth="2" NCoef="0" IVar="4" Cut="2.2971743774414062e+02" cType="1" res="3.8057011552155018e-03" rms="3.0147275328636169e-01" purity="5.5552852153778076e-01" nType="0">
            <Node pos="l" depth="3" NCoef="0" IVar="-1" Cut="0.0000000000000000e+00" cType="1" res="1.2605301104485989e-02" rms="3.1566631793975830e-01" purity="2.7233049273490906e-01" nType="-99"/>
            <Node pos="r" depth="3" NCoef="0" IVar="-1" Cut="0.0000000000000000e+00" cType="1" res="-3.9237542077898979e-03" rms="2.8898650407791138e-01" purity="7.9039204120635986e-01" nType="-99"/>
          </Node>
          <Node pos="r" depth="2" NCoef="0" IVar="8" Cut="-3.9999845623970032e-01" cType="1" res="-5.0276075489819050e-03" rms="2.9219859838485718e-01" purity="5.0497567653656006e-01" nType="0">
            <Node pos="l" depth="3" NCoef="0" IVar="-1" Cut="0.0000000000000000e+00" cType="1" res="-2.0160829648375511e-02" rms="2.9769018292427063e-01" purity="5.3937041759490967e-01" nType="-99"/>
            <Node pos="r" depth="3" NCoef="0" IVar="-1" Cut="0.0000000000000000e+00" cType="1" res="-2.4821651168167591e-03" rms="2.9091736674308777e-01" purity="4.9753427505493164e-01" nType="-99"/>
          </Node>
        </Node>
      </Node>
    </BinaryTree>
    <BinaryTree type="DecisionTree" boostWeight="1.0000000000000000e+00" itree="435">
      <Node pos="s" depth="0" NCoef="0" IVar="2" Cut="2.0476542413234711e-02" cType="1" res="1.9875376019626856e-03" rms="2.9893571138381958e-01" purity="5.0000703334808350e-01" nType="0">
        <Node pos="l" depth="1" NCoef="0" IVar="3" Cut="4.9193817138671875e+02" cType="1" res="5.9503060765564442e-03" rms="2.8014278411865234e-01" purity="2.5321224331855774e-01" nType="0">
          <Node pos="l" depth="2" NCoef="0" IVar="3" Cut="4.2242910766601562e+02" cType="1" res="1.3703810982406139e-03" rms="2.5412777066230774e-01" purity="1.4322242140769958e-01" nType="0">
            <Node pos="l" depth="3" NCoef="0" IVar="-1" Cut="0.0000000000000000e+00" cType="1" res="8.5006738081574440e-03" rms="2.4727050960063934e-01" purity="1.2553745508193970e-01" nType="-99"/>
            <Node pos="r" depth="3" NCoef="0" IVar="-1" Cut="0.0000000000000000e+00" cType="1" res="-1.8758388236165047e-02" rms="2.8356361389160156e-01" purity="2.2644568979740143e-01" nType="-99"/>
          </Node>
          <Node pos="r" depth="2" NCoef="0" IVar="7" Cut="-5.3229212760925293e-01" cType="1" res="1.6500998288393021e-02" rms="3.3217370510101318e-01" purity="5.0659388303756714e-01" nType="0">
            <Node pos="l" depth="3" NCoef="0" IVar="-1" Cut="0.0000000000000000e+00" cType="1" res="-7.2400500066578388e-03" rms="3.1332597136497498e-01" purity="3.5857668519020081e-01" nType="-99"/>
            <Node pos="r" depth="3" NCoef="0" IVar="-1" Cut="0.0000000000000000e+00" cType="1" res="2.2008990868926048e-02" rms="3.3860933780670166e-01" purity="5.6283837556838989e-01" nType="-99"/>
          </Node>
        </Node>
        <Node pos="r" depth="1" NCoef="0" IVar="3" Cut="4.2558224487304688e+02" cType="1" res="-2.2128256387077272e-04" rms="3.0889284610748291e-01" purity="6.3756877183914185e-01" nType="0">
          <Node pos="l" depth="2" NCoef="0" IVar="9" Cut="1.4666897058486938e+00" cType="1" res="3.2937312498688698e-03" rms="3.3392360806465149e-01" purity="4.8895052075386047e-01" nType="0">
            <Node pos="l" depth="3" NCoef="0" IVar="-1" Cut="0.0000000000000000e+00" cType="1" res="1.3845281209796667e-03" rms="3.3101838827133179e-01" purity="5.0743240118026733e-01" nType="-99"/>
            <Node pos="r" depth="3" NCoef="0" IVar="-1" Cut="0.0000000000000000e+00" cType="1" res="1.7498886212706566e-02" rms="3.5855385661125183e-01" purity="3.2312580943107605e-01" nType="-99"/>
          </Node>
          <Node pos="r" depth="2" NCoef="0" IVar="0" Cut="5.5289093017578125e+02" cType="1" res="-4.8691681586205959e-03" rms="2.7221477031707764e-01" purity="8.3408600091934204e-01" nType="0">
            <Node pos="l" depth="3" NCoef="0" IVar="-1" Cut="0.0000000000000000e+00" cType="1" res="-1.1786468327045441e-02" rms="3.5257455706596375e-01" purity="6.4936870336532593e-01" nType="-99"/>
            <Node pos="r" depth="3" NCoef="0" IVar="-1" Cut="0.0000000000000000e+00" cType="1" res="2.3976778611540794e-03" rms="2.1114253997802734e-01" purity="9.4233959913253784e-01" nType="-99"/>
          </Node>
        </Node>
      </Node>
    </BinaryTree>
    <BinaryTree type="DecisionTree" boostWeight="1.0000000000000000e+00" itree="436">
      <Node pos="s" depth="0" NCoef="0" IVar="8" Cut="-6.6677963733673096e-01" cType="1" res="-1.1225088965147734e-03" rms="2.9425466060638428e-01" purity="5.0132346153259277e-01" nType="0">
        <Node pos="l" depth="1" NCoef="0" IVar="3" Cut="3.5190435791015625e+02" cType="1" res="-9.9044255912303925e-03" rms="2.9162532091140747e-01" purity="3.8641521334648132e-01" nType="0">
          <Node pos="l" depth="2" NCoef="0" IVar="2" Cut="4.1369944810867310e-02" cType="1" res="-1.9431324675679207e-02" rms="2.6686027646064758e-01" purity="2.0572805404663086e-01" nType="0">
            <Node pos="l" depth="3" NCoef="0" IVar="-1" Cut="0.0000000000000000e+00" cType="1" res="-1.8933318555355072e-02" rms="2.2781257331371307e-01" purity="1.0218015313148499e-01" nType="-99"/>
            <Node pos="r" depth="3" NCoef="0" IVar="-1" Cut="0.0000000000000000e+00" cType="1" res="-2.8188353404402733e-02" rms="3.2983615994453430e-01" purity="4.0898016095161438e-01" nType="-99"/>
          </Node>
          <Node pos="r" depth="2" NCoef="0" IVar="10" Cut="6.6665631532669067e-01" cType="1" res="-2.1906408946961164e-03" rms="3.1001779437065125e-01" purity="5.3271490335464478e-01" nType="0">
            <Node pos="l" depth="3" NCoef="0" IVar="-1" Cut="0.0000000000000000e+00" cType="1" res="-8.0185066908597946e-03" rms="3.0438938736915588e-01" purity="5.3046703338623047e-01" nType="-99"/>
            <Node pos="r" depth="3" NCoef="0" IVar="-1" Cut="0.0000000000000000e+00" cType="1" res="1.2380747124552727e-02" rms="3.2399356365203857e-01" purity="5.3866577148437500e-01" nType="-99"/>
          </Node>
        </Node>
        <Node pos="r" depth="1" NCoef="0" IVar="10" Cut="1.7333173751831055e+00" cType="1" res="1.9384105689823627e-03" rms="2.9510420560836792e-01" purity="5.4137450456619263e-01" nType="0">
          <Node pos="l" depth="2" NCoef="0" IVar="8" Cut="-3.3663812279701233e-01" cType="1" res="3.8720115553587675e-03" rms="2.9512280225753784e-01" purity="5.5752694606781006e-01" nType="0">
            <Node pos="l" depth="3" NCoef="0" IVar="-1" Cut="0.0000000000000000e+00" cType="1" res="1.4986637048423290e-02" rms="3.0481478571891785e-01" purity="6.2397682666778564e-01" nType="-99"/>
            <Node pos="r" depth="3" NCoef="0" IVar="-1" Cut="0.0000000000000000e+00" cType="1" res="2.3167044855654240e-03" rms="2.9322987794876099e-01" purity="5.4504513740539551e-01" nType="-99"/>
          </Node>
          <Node pos="r" depth="2" NCoef="0" IVar="8" Cut="3.2364448904991150e-01" cType="1" res="-1.8525736406445503e-02" rms="2.9412901401519775e-01" purity="3.7042573094367981e-01" nType="0">
            <Node pos="l" depth="3" NCoef="0" IVar="-1" Cut="0.0000000000000000e+00" cType="1" res="-3.4825883805751801e-02" rms="2.9045993089675903e-01" purity="4.5205822587013245e-01" nType="-99"/>
            <Node pos="r" depth="3" NCoef="0" IVar="-1" Cut="0.0000000000000000e+00" cType="1" res="-7.7733905054628849e-03" rms="2.9630202054977417e-01" purity="3.0947360396385193e-01" nType="-99"/>
          </Node>
        </Node>
      </Node>
    </BinaryTree>
    <BinaryTree type="DecisionTree" boostWeight="1.0000000000000000e+00" itree="437">
      <Node pos="s" depth="0" NCoef="0" IVar="4" Cut="2.1444999694824219e+02" cType="1" res="1.9517171895131469e-03" rms="2.9885825514793396e-01" purity="5.0493317842483521e-01" nType="0">
        <Node pos="l" depth="1" NCoef="0" IVar="9" Cut="-1.9999942779541016e+00" cType="1" res="-3.0315194744616747e-03" rms="2.9162478446960449e-01" purity="1.9242507219314575e-01" nType="0">
          <Node pos="l" depth="2" NCoef="0" IVar="-1" Cut="0.0000000000000000e+00" cType="1" res="4.4603191316127777e-02" rms="2.8456172347068787e-01" purity="1.4775544404983521e-01" nType="-99"/>
          <Node pos="r" depth="2" NCoef="0" IVar="5" Cut="1.0472840118408203e+02" cType="1" res="-5.1334477029740810e-03" rms="2.9197615385055542e-01" purity="1.9544219970703125e-01" nType="0">
            <Node pos="l" depth="3" NCoef="0" IVar="-1" Cut="0.0000000000000000e+00" cType="1" res="4.0662661194801331e-03" rms="2.3495981097221375e-01" purity="7.8746780753135681e-02" nType="-99"/>
            <Node pos="r" depth="3" NCoef="0" IVar="-1" Cut="0.0000000000000000e+00" cType="1" res="-1.0965282097458839e-02" rms="3.4616866707801819e-01" purity="3.3027929067611694e-01" nType="-99"/>
          </Node>
        </Node>
        <Node pos="r" depth="1" NCoef="0" IVar="1" Cut="1.4944841308593750e+03" cType="1" res="5.7473890483379364e-03" rms="3.0419775843620300e-01" purity="7.4296689033508301e-01" nType="0">
          <Node pos="l" depth="2" NCoef="0" IVar="5" Cut="1.7990992736816406e+02" cType="1" res="1.7263565212488174e-02" rms="3.8991472125053406e-01" purity="4.0809184312820435e-01" nType="0">
            <Node pos="l" depth="3" NCoef="0" IVar="-1" Cut="0.0000000000000000e+00" cType="1" res="5.5372403003275394e-03" rms="3.8186737895011902e-01" purity="3.3081534504890442e-01" nType="-99"/>
            <Node pos="r" depth="3" NCoef="0" IVar="-1" Cut="0.0000000000000000e+00" cType="1" res="2.3195222020149231e-02" rms="4.0700867772102356e-01" purity="5.8598500490188599e-01" nType="-99"/>
          </Node>
          <Node pos="r" depth="2" NCoef="0" IVar="8" Cut="-1.3456806540489197e-01" cType="1" res="1.3219016836956143e-03" rms="2.6382169127464294e-01" purity="8.7165421247482300e-01" nType="0">
            <Node pos="l" depth="3" NCoef="0" IVar="-1" Cut="0.0000000000000000e+00" cType="1" res="-5.8065131306648254e-03" rms="2.6848271489143372e-01" purity="8.6249554157257080e-01" nType="-99"/>
            <Node pos="r" depth="3" NCoef="0" IVar="-1" Cut="0.0000000000000000e+00" cType="1" res="7.8360270708799362e-03" rms="2.6015886664390564e-01" purity="8.7859070301055908e-01" nType="-99"/>
          </Node>
        </Node>
      </Node>
    </BinaryTree>
    <BinaryTree type="DecisionTree" boostWeight="1.0000000000000000e+00" itree="438">
      <Node pos="s" depth="0" NCoef="0" IVar="9" Cut="-1.3333868980407715e-01" cType="1" res="1.6350098885595798e-03" rms="2.9956901073455811e-01" purity="4.9721652269363403e-01" nType="0">
        <Node pos="l" depth="1" NCoef="0" IVar="9" Cut="-1.9111104011535645e+00" cType="1" res="5.7468721643090248e-03" rms="3.0432152748107910e-01" purity="4.9296799302101135e-01" nType="0">
          <Node pos="l" depth="2" NCoef="0" IVar="-1" Cut="0.0000000000000000e+00" cType="1" res="-1.3054615817964077e-02" rms="2.8462922573089600e-01" purity="2.1190211176872253e-01" nType="-99"/>
          <Node pos="r" depth="2" NCoef="0" IVar="7" Cut="1.2067166566848755e+00" cType="1" res="7.7152522280812263e-03" rms="3.0654433369636536e-01" purity="5.2674978971481323e-01" nType="0">
            <Node pos="l" depth="3" NCoef="0" IVar="-1" Cut="0.0000000000000000e+00" cType="1" res="6.5429094247519970e-03" rms="3.0640500783920288e-01" purity="5.5503994226455688e-01" nType="-99"/>
            <Node pos="r" depth="3" NCoef="0" IVar="-1" Cut="0.0000000000000000e+00" cType="1" res="3.5275246948003769e-02" rms="3.0749082565307617e-01" purity="2.1578805148601532e-01" nType="-99"/>
          </Node>
        </Node>
        <Node pos="r" depth="1" NCoef="0" IVar="5" Cut="1.0502748107910156e+02" cType="1" res="-1.7923942068591714e-03" rms="2.9550549387931824e-01" purity="5.0075781345367432e-01" nType="0">
          <Node pos="l" depth="2" NCoef="0" IVar="0" Cut="4.1953265380859375e+02" cType="1" res="-7.8515652567148209e-03" rms="2.5468024611473083e-01" purity="1.1871371418237686e-01" nType="0">
            <Node pos="l" depth="3" NCoef="0" IVar="-1" Cut="0.0000000000000000e+00" cType="1" res="4.1080964729189873e-03" rms="2.0870794355869293e-01" purity="5.3991753607988358e-02" nType="-99"/>
            <Node pos="r" depth="3" NCoef="0" IVar="-1" Cut="0.0000000000000000e+00" cType="1" res="-2.2891063243150711e-02" rms="3.2187196612358093e-01" purity="2.3787303268909454e-01" nType="-99"/>
          </Node>
          <Node pos="r" depth="2" NCoef="0" IVar="10" Cut="-1.1998139619827271e+00" cType="1" res="7.1463867789134383e-04" rms="3.1079840660095215e-01" purity="6.5883183479309082e-01" nType="0">
            <Node pos="l" depth="3" NCoef="0" IVar="-1" Cut="0.0000000000000000e+00" cType="1" res="-1.2014233507215977e-02" rms="3.1228172779083252e-01" purity="6.2394261360168457e-01" nType="-99"/>
            <Node pos="r" depth="3" NCoef="0" IVar="-1" Cut="0.0000000000000000e+00" cType="1" res="3.1712171621620655e-03" rms="3.1047567725181580e-01" purity="6.6501659154891968e-01" nType="-99"/>
          </Node>
        </Node>
      </Node>
    </BinaryTree>
    <BinaryTree type="DecisionTree" boostWeight="1.0000000000000000e+00" itree="439">
      <Node pos="s" depth="0" NCoef="0" IVar="8" Cut="-6.6659241914749146e-01" cType="1" res="1.9786879420280457e-04" rms="2.9838913679122925e-01" purity="5.0278896093368530e-01" nType="0">
        <Node pos="l" depth="1" NCoef="0" IVar="2" Cut="6.3949912786483765e-02" cType="1" res="-5.1749926060438156e-03" rms="2.9560112953186035e-01" purity="3.8347366452217102e-01" nType="0">
          <Node pos="l" depth="2" NCoef="0" IVar="9" Cut="1.1999446153640747e+00" cType="1" res="-1.5434526139870286e-03" rms="2.9488542675971985e-01" purity="2.9323521256446838e-01" nType="0">
            <Node pos="l" depth="3" NCoef="0" IVar="-1" Cut="0.0000000000000000e+00" cType="1" res="2.4282881058752537e-03" rms="3.0135351419448853e-01" purity="3.1638512015342712e-01" nType="-99"/>
            <Node pos="r" depth="3" NCoef="0" IVar="-1" Cut="0.0000000000000000e+00" cType="1" res="-3.2393697649240494e-02" rms="2.4888692796230316e-01" purity="1.4694644510746002e-01" nType="-99"/>
          </Node>
          <Node pos="r" depth="2" NCoef="0" IVar="-1" Cut="0.0000000000000000e+00" cType="1" res="-1.9615098834037781e-02" rms="2.9779773950576782e-01" purity="7.0846742391586304e-01" nType="-99"/>
        </Node>
        <Node pos="r" depth="1" NCoef="0" IVar="8" Cut="-1.7136771976947784e-01" cType="1" res="2.0272315014153719e-03" rms="2.9931047558784485e-01" purity="5.4341369867324829e-01" nType="0">
          <Node pos="l" depth="2" NCoef="0" IVar="0" Cut="4.2283541870117188e+02" cType="1" res="1.2551114894449711e-02" rms="3.0846786499023438e-01" purity="6.2008708715438843e-01" nType="0">
            <Node pos="l" depth="3" NCoef="0" IVar="-1" Cut="0.0000000000000000e+00" cType="1" res="2.8710938990116119e-02" rms="3.4704434871673584e-01" purity="3.1594201922416687e-01" nType="-99"/>
            <Node pos="r" depth="3" NCoef="0" IVar="-1" Cut="0.0000000000000000e+00" cType="1" res="1.2003424344584346e-03" rms="2.8206676244735718e-01" purity="8.0329620838165283e-01" nType="-99"/>
          </Node>
          <Node pos="r" depth="2" NCoef="0" IVar="7" Cut="-1.4297248125076294e+00" cType="1" res="-1.3560823863372207e-03" rms="2.9622694849967957e-01" purity="5.1876407861709595e-01" nType="0">
            <Node pos="l" depth="3" NCoef="0" IVar="-1" Cut="0.0000000000000000e+00" cType="1" res="-2.7672566473484039e-02" rms="2.0924404263496399e-01" purity="1.0675802826881409e-01" nType="-99"/>
            <Node pos="r" depth="3" NCoef="0" IVar="-1" Cut="0.0000000000000000e+00" cType="1" res="-5.5753515334799886e-04" rms="3.0054938793182373e-01" purity="5.4306030273437500e-01" nType="-99"/>
          </Node>
        </Node>
      </Node>
    </BinaryTree>
    <BinaryTree type="DecisionTree" boostWeight="1.0000000000000000e+00" itree="440">
      <Node pos="s" depth="0" NCoef="0" IVar="9" Cut="1.7333118915557861e+00" cType="1" res="-1.0073023149743676e-03" rms="2.9762873053550720e-01" purity="4.9931088089942932e-01" nType="0">
        <Node pos="l" depth="1" NCoef="0" IVar="7" Cut="-1.2766239047050476e-01" cType="1" res="-2.2311848588287830e-03" rms="2.9694539308547974e-01" purity="5.1722145080566406e-01" nType="0">
          <Node pos="l" depth="2" NCoef="0" IVar="10" Cut="1.3344982266426086e-01" cType="1" res="2.6370163541287184e-03" rms="2.9869309067726135e-01" purity="4.9880108237266541e-01" nType="0">
            <Node pos="l" depth="3" NCoef="0" IVar="-1" Cut="0.0000000000000000e+00" cType="1" res="-2.4054464884102345e-03" rms="2.9127910733222961e-01" purity="4.7966960072517395e-01" nType="-99"/>
            <Node pos="r" depth="3" NCoef="0" IVar="-1" Cut="0.0000000000000000e+00" cType="1" res="1.0474983602762222e-02" rms="3.0865499377250671e-01" purity="5.2559852600097656e-01" nType="-99"/>
          </Node>
          <Node pos="r" depth="2" NCoef="0" IVar="10" Cut="6.6657650470733643e-01" cType="1" res="-6.1040217988193035e-03" rms="2.9549038410186768e-01" purity="5.3187555074691772e-01" nType="0">
            <Node pos="l" depth="3" NCoef="0" IVar="-1" Cut="0.0000000000000000e+00" cType="1" res="-2.7891611680388451e-03" rms="2.9785346984863281e-01" purity="5.5648887157440186e-01" nType="-99"/>
            <Node pos="r" depth="3" NCoef="0" IVar="-1" Cut="0.0000000000000000e+00" cType="1" res="-1.5733039006590843e-02" rms="2.9035767912864685e-01" purity="4.8057666420936584e-01" nType="-99"/>
          </Node>
        </Node>
        <Node pos="r" depth="1" NCoef="0" IVar="0" Cut="4.1291226196289062e+02" cType="1" res="1.5345532447099686e-02" rms="3.0614385008811951e-01" purity="2.5999939441680908e-01" nType="0">
          <Node pos="l" depth="2" NCoef="0" IVar="-1" Cut="0.0000000000000000e+00" cType="1" res="-1.1464289389550686e-02" rms="2.2306729853153229e-01" purity="8.7409600615501404e-02" nType="-99"/>
          <Node pos="r" depth="2" NCoef="0" IVar="-1" Cut="0.0000000000000000e+00" cType="1" res="3.4603670239448547e-02" rms="3.8146531581878662e-01" purity="4.6841406822204590e-01" nType="-99"/>
        </Node>
      </Node>
    </BinaryTree>
    <BinaryTree type="DecisionTree" boostWeight="1.0000000000000000e+00" itree="441">
      <Node pos="s" depth="0" NCoef="0" IVar="10" Cut="2.2666671276092529e+00" cType="1" res="-1.1086759623140097e-03" rms="2.9667055606842041e-01" purity="4.9994203448295593e-01" nType="0">
        <Node pos="l" depth="1" NCoef="0" IVar="2" Cut="1.2789915502071381e-01" cType="1" res="-1.9821836613118649e-03" rms="2.9612734913825989e-01" purity="5.0598412752151489e-01" nType="0">
          <Node pos="l" depth="2" NCoef="0" IVar="5" Cut="1.0502748107910156e+02" cType="1" res="-3.4612661693245173e-03" rms="3.0012318491935730e-01" purity="4.5476332306861877e-01" nType="0">
            <Node pos="l" depth="3" NCoef="0" IVar="-1" Cut="0.0000000000000000e+00" cType="1" res="3.2736090943217278e-03" rms="2.5907140970230103e-01" purity="1.2807530164718628e-01" nType="-99"/>
            <Node pos="r" depth="3" NCoef="0" IVar="-1" Cut="0.0000000000000000e+00" cType="1" res="-6.0101626440882683e-03" rms="3.1823796033859253e-01" purity="6.1450344324111938e-01" nType="-99"/>
          </Node>
          <Node pos="r" depth="2" NCoef="0" IVar="-1" Cut="0.0000000000000000e+00" cType="1" res="1.1156066320836544e-02" rms="2.6735049486160278e-01" purity="8.5211861133575439e-01" nType="-99"/>
        </Node>
        <Node pos="r" depth="1" NCoef="0" IVar="-1" Cut="0.0000000000000000e+00" cType="1" res="2.8769345954060555e-02" rms="3.1177926063537598e-01" purity="3.1336179375648499e-01" nType="-99"/>
      </Node>
    </BinaryTree>
    <BinaryTree type="DecisionTree" boostWeight="1.0000000000000000e+00" itree="442">
      <Node pos="s" depth="0" NCoef="0" IVar="8" Cut="9.3329620361328125e-01" cType="1" res="-1.7464979318901896e-03" rms="2.9528740048408508e-01" purity="4.9858516454696655e-01" nType="0">
        <Node pos="l" depth="1" NCoef="0" IVar="7" Cut="-1.4579256772994995e+00" cType="1" res="4.6590348938480020e-04" rms="2.9740503430366516e-01" purity="5.3996163606643677e-01" nType="0">
          <Node pos="l" depth="2" NCoef="0" IVar="-1" Cut="0.0000000000000000e+00" cType="1" res="3.2232858240604401e-02" rms="2.4933560192584991e-01" purity="1.4770886301994324e-01" nType="-99"/>
          <Node pos="r" depth="2" NCoef="0" IVar="9" Cut="-1.1999489068984985e+00" cType="1" res="-6.9792533759027719e-04" rms="3.0003869533538818e-01" purity="5.6379866600036621e-01" nType="0">
            <Node pos="l" depth="3" NCoef="0" IVar="-1" Cut="0.0000000000000000e+00" cType="1" res="1.0341595858335495e-02" rms="3.2640039920806885e-01" purity="4.0473628044128418e-01" nType="-99"/>
            <Node pos="r" depth="3" NCoef="0" IVar="-1" Cut="0.0000000000000000e+00" cType="1" res="-2.8620250523090363e-03" rms="2.9530474543571472e-01" purity="5.9071344137191772e-01" nType="-99"/>
          </Node>
        </Node>
        <Node pos="r" depth="1" NCoef="0" IVar="6" Cut="7.6869667053222656e+01" cType="1" res="-1.1319005861878395e-02" rms="2.8574699163436890e-01" purity="3.1955978274345398e-01" nType="0">
          <Node pos="l" depth="2" NCoef="0" IVar="4" Cut="2.0376641845703125e+02" cType="1" res="-5.1344797248020768e-04" rms="2.5906544923782349e-01" purity="1.2269795686006546e-01" nType="0">
            <Node pos="l" depth="3" NCoef="0" IVar="-1" Cut="0.0000000000000000e+00" cType="1" res="1.9413711503148079e-02" rms="2.2538453340530396e-01" purity="7.9440407454967499e-02" nType="-99"/>
            <Node pos="r" depth="3" NCoef="0" IVar="-1" Cut="0.0000000000000000e+00" cType="1" res="-2.3422902449965477e-02" rms="3.2947939634323120e-01" purity="2.3491431772708893e-01" nType="-99"/>
          </Node>
          <Node pos="r" depth="2" NCoef="0" IVar="1" Cut="1.6052293701171875e+03" cType="1" res="-2.1395944058895111e-02" rms="3.0821609497070312e-01" purity="5.0314718484878540e-01" nType="0">
            <Node pos="l" depth="3" NCoef="0" IVar="-1" Cut="0.0000000000000000e+00" cType="1" res="-2.9043076559901237e-02" rms="3.2268711924552917e-01" purity="2.5294083356857300e-01" nType="-99"/>
            <Node pos="r" depth="3" NCoef="0" IVar="-1" Cut="0.0000000000000000e+00" cType="1" res="-3.2442843075841665e-03" rms="2.8629353642463684e-01" purity="8.4345138072967529e-01" nType="-99"/>
          </Node>
        </Node>
      </Node>
    </BinaryTree>
    <BinaryTree type="DecisionTree" boostWeight="1.0000000000000000e+00" itree="443">
      <Node pos="s" depth="0" NCoef="0" IVar="9" Cut="1.9999195337295532e+00" cType="1" res="-9.9264740129001439e-05" rms="2.9925811290740967e-01" purity="4.9483266472816467e-01" nType="0">
        <Node pos="l" depth="1" NCoef="0" IVar="9" Cut="-2.1142919063568115e+00" cType="1" res="5.9709354536607862e-04" rms="3.0066877603530884e-01" purity="5.0736284255981445e-01" nType="0">
          <Node pos="l" depth="2" NCoef="0" IVar="-1" Cut="0.0000000000000000e+00" cType="1" res="-2.5946484878659248e-02" rms="2.6553717255592346e-01" purity="1.6657344996929169e-01" nType="-99"/>
          <Node pos="r" depth="2" NCoef="0" IVar="2" Cut="8.5314586758613586e-02" cType="1" res="1.2978323502466083e-03" rms="3.0178382992744446e-01" purity="5.1912397146224976e-01" nType="0">
            <Node pos="l" depth="3" NCoef="0" IVar="-1" Cut="0.0000000000000000e+00" cType="1" res="3.3817915245890617e-03" rms="3.0890664458274841e-01" purity="4.2611971497535706e-01" nType="-99"/>
            <Node pos="r" depth="3" NCoef="0" IVar="-1" Cut="0.0000000000000000e+00" cType="1" res="-6.0548805631697178e-03" rms="2.7847161889076233e-01" purity="8.0732738971710205e-01" nType="-99"/>
          </Node>
        </Node>
        <Node pos="r" depth="1" NCoef="0" IVar="-1" Cut="0.0000000000000000e+00" cType="1" res="-2.0644865930080414e-02" rms="2.6281911134719849e-01" purity="1.9584062695503235e-01" nType="-99"/>
      </Node>
    </BinaryTree>
    <BinaryTree type="DecisionTree" boostWeight="1.0000000000000000e+00" itree="444">
      <Node pos="s" depth="0" NCoef="0" IVar="8" Cut="-6.6659659147262573e-01" cType="1" res="-6.3649198273196816e-04" rms="2.9882901906967163e-01" purity="4.9468287825584412e-01" nType="0">
        <Node pos="l" depth="1" NCoef="0" IVar="9" Cut="1.1997720003128052e+00" cType="1" res="8.6178360506892204e-03" rms="3.0564823746681213e-01" purity="3.9859849214553833e-01" nType="0">
          <Node pos="l" depth="2" NCoef="0" IVar="7" Cut="-8.9699769020080566e-01" cType="1" res="4.5207100920379162e-03" rms="3.0288401246070862e-01" purity="4.1620987653732300e-01" nType="0">
            <Node pos="l" depth="3" NCoef="0" IVar="-1" Cut="0.0000000000000000e+00" cType="1" res="-2.0980784669518471e-02" rms="2.4726369976997375e-01" purity="1.8839444220066071e-01" nType="-99"/>
            <Node pos="r" depth="3" NCoef="0" IVar="-1" Cut="0.0000000000000000e+00" cType="1" res="9.5477420836687088e-03" rms="3.1469422578811646e-01" purity="4.7138932347297668e-01" nType="-99"/>
          </Node>
          <Node pos="r" depth="2" NCoef="0" IVar="-1" Cut="0.0000000000000000e+00" cType="1" res="4.0080551058053970e-02" rms="3.2167121767997742e-01" purity="2.8490293025970459e-01" nType="-99"/>
        </Node>
        <Node pos="r" depth="1" NCoef="0" IVar="10" Cut="-9.3316310644149780e-01" cType="1" res="-3.9513162337243557e-03" rms="2.9627797007560730e-01" purity="5.2909952402114868e-01" nType="0">
          <Node pos="l" depth="2" NCoef="0" IVar="0" Cut="4.2371200561523438e+02" cType="1" res="-1.2126737274229527e-02" rms="2.9366168379783630e-01" purity="4.9522733688354492e-01" nType="0">
            <Node pos="l" depth="3" NCoef="0" IVar="-1" Cut="0.0000000000000000e+00" cType="1" res="-2.9935017228126526e-02" rms="2.7882912755012512e-01" purity="1.9095611572265625e-01" nType="-99"/>
            <Node pos="r" depth="3" NCoef="0" IVar="-1" Cut="0.0000000000000000e+00" cType="1" res="-8.2741207734216005e-05" rms="3.0401423573493958e-01" purity="7.2891575098037720e-01" nType="-99"/>
          </Node>
          <Node pos="r" depth="2" NCoef="0" IVar="9" Cut="-3.9994230866432190e-01" cType="1" res="-1.7063481500372291e-03" rms="2.9695296287536621e-01" purity="5.3840082883834839e-01" nType="0">
            <Node pos="l" depth="3" NCoef="0" IVar="-1" Cut="0.0000000000000000e+00" cType="1" res="5.0464891828596592e-03" rms="3.0868607759475708e-01" purity="5.3309130668640137e-01" nType="-99"/>
            <Node pos="r" depth="3" NCoef="0" IVar="-1" Cut="0.0000000000000000e+00" cType="1" res="-5.6534209288656712e-03" rms="2.9096341133117676e-01" purity="5.4101061820983887e-01" nType="-99"/>
          </Node>
        </Node>
      </Node>
    </BinaryTree>
    <BinaryTree type="DecisionTree" boostWeight="1.0000000000000000e+00" itree="445">
      <Node pos="s" depth="0" NCoef="0" IVar="9" Cut="1.1999799013137817e+00" cType="1" res="1.7588285263627768e-03" rms="2.9918342828750610e-01" purity="4.9921819567680359e-01" nType="0">
        <Node pos="l" depth="1" NCoef="0" IVar="10" Cut="-1.7332749366760254e+00" cType="1" res="2.6648322818800807e-04" rms="2.9705831408500671e-01" purity="5.2507567405700684e-01" nType="0">
          <Node pos="l" depth="2" NCoef="0" IVar="2" Cut="3.7407919764518738e-02" cType="1" res="-1.2155471369624138e-02" rms="2.9109257459640503e-01" purity="3.4554931521415710e-01" nType="0">
            <Node pos="l" depth="3" NCoef="0" IVar="-1" Cut="0.0000000000000000e+00" cType="1" res="-2.9576539993286133e-02" rms="2.4732033908367157e-01" purity="1.5219235420227051e-01" nType="-99"/>
            <Node pos="r" depth="3" NCoef="0" IVar="-1" Cut="0.0000000000000000e+00" cType="1" res="-1.2801281409338117e-03" rms="3.3618929982185364e-01" purity="5.7937186956405640e-01" nType="-99"/>
          </Node>
          <Node pos="r" depth="2" NCoef="0" IVar="7" Cut="-6.5985119342803955e-01" cType="1" res="1.3740179128944874e-03" rms="2.9755923151969910e-01" purity="5.4108214378356934e-01" nType="0">
            <Node pos="l" depth="3" NCoef="0" IVar="-1" Cut="0.0000000000000000e+00" cType="1" res="9.5191663131117821e-03" rms="3.0048361420631409e-01" purity="3.8785907626152039e-01" nType="-99"/>
            <Node pos="r" depth="3" NCoef="0" IVar="-1" Cut="0.0000000000000000e+00" cType="1" res="-6.7400210537016392e-04" rms="2.9669362306594849e-01" purity="5.8460313081741333e-01" nType="-99"/>
          </Node>
        </Node>
        <Node pos="r" depth="1" NCoef="0" IVar="10" Cut="-9.3286252021789551e-01" cType="1" res="1.0296606458723545e-02" rms="3.1092470884323120e-01" purity="3.5128656029701233e-01" nType="0">
          <Node pos="l" depth="2" NCoef="0" IVar="-1" Cut="0.0000000000000000e+00" cType="1" res="3.1947854906320572e-02" rms="3.3059227466583252e-01" purity="3.7078636884689331e-01" nType="-99"/>
          <Node pos="r" depth="2" NCoef="0" IVar="4" Cut="1.8485380554199219e+02" cType="1" res="4.9068480730056763e-03" rms="3.0510875582695007e-01" purity="3.4595850110054016e-01" nType="0">
            <Node pos="l" depth="3" NCoef="0" IVar="-1" Cut="0.0000000000000000e+00" cType="1" res="-6.4217266626656055e-03" rms="2.4714015424251556e-01" purity="1.0886872559785843e-01" nType="-99"/>
            <Node pos="r" depth="3" NCoef="0" IVar="-1" Cut="0.0000000000000000e+00" cType="1" res="1.0499272495508194e-02" rms="3.4257516264915466e-01" purity="5.2647793292999268e-01" nType="-99"/>
          </Node>
        </Node>
      </Node>
    </BinaryTree>
    <BinaryTree type="DecisionTree" boostWeight="1.0000000000000000e+00" itree="446">
      <Node pos="s" depth="0" NCoef="0" IVar="3" Cut="3.4597027587890625e+02" cType="1" res="1.5765193384140730e-03" rms="2.9817932844161987e-01" purity="5.0141394138336182e-01" nType="0">
        <Node pos="l" depth="1" NCoef="0" IVar="8" Cut="9.3330597877502441e-01" cType="1" res="-3.6983659956604242e-03" rms="2.9786035418510437e-01" purity="2.7608561515808105e-01" nType="0">
          <Node pos="l" depth="2" NCoef="0" IVar="10" Cut="-6.6662222146987915e-01" cType="1" res="-7.2880797088146210e-03" rms="3.0254268646240234e-01" purity="3.0012315511703491e-01" nType="0">
            <Node pos="l" depth="3" NCoef="0" IVar="-1" Cut="0.0000000000000000e+00" cType="1" res="4.8692049458622932e-03" rms="2.9507863521575928e-01" purity="2.8293979167938232e-01" nType="-99"/>
            <Node pos="r" depth="3" NCoef="0" IVar="-1" Cut="0.0000000000000000e+00" cType="1" res="-1.3702260330319405e-02" rms="3.0600816011428833e-01" purity="3.0864611268043518e-01" nType="-99"/>
          </Node>
          <Node pos="r" depth="2" NCoef="0" IVar="4" Cut="1.7817047119140625e+02" cType="1" res="8.9466795325279236e-03" rms="2.8037917613983154e-01" purity="1.9141162931919098e-01" nType="0">
            <Node pos="l" depth="3" NCoef="0" IVar="-1" Cut="0.0000000000000000e+00" cType="1" res="-1.1489242315292358e-02" rms="2.1443067491054535e-01" purity="5.9663727879524231e-02" nType="-99"/>
            <Node pos="r" depth="3" NCoef="0" IVar="-1" Cut="0.0000000000000000e+00" cType="1" res="2.4208392947912216e-02" rms="3.4490785002708435e-01" purity="3.5661625862121582e-01" nType="-99"/>
          </Node>
        </Node>
        <Node pos="r" depth="1" NCoef="0" IVar="0" Cut="6.0598986816406250e+02" cType="1" res="4.7495737671852112e-03" rms="2.9832613468170166e-01" purity="6.3695794343948364e-01" nType="0">
          <Node pos="l" depth="2" NCoef="0" IVar="0" Cut="5.6227471923828125e+02" cType="1" res="8.2863802090287209e-03" rms="3.3130350708961487e-01" purity="4.6314382553100586e-01" nType="0">
            <Node pos="l" depth="3" NCoef="0" IVar="-1" Cut="0.0000000000000000e+00" cType="1" res="4.3663098476827145e-03" rms="3.3149725198745728e-01" purity="4.2410144209861755e-01" nType="-99"/>
            <Node pos="r" depth="3" NCoef="0" IVar="-1" Cut="0.0000000000000000e+00" cType="1" res="3.7402845919132233e-02" rms="3.2827919721603394e-01" purity="7.8824460506439209e-01" nType="-99"/>
          </Node>
          <Node pos="r" depth="2" NCoef="0" IVar="8" Cut="9.3344467878341675e-01" cType="1" res="-6.7295110784471035e-04" rms="2.3898929357528687e-01" purity="9.0344446897506714e-01" nType="0">
            <Node pos="l" depth="3" NCoef="0" IVar="-1" Cut="0.0000000000000000e+00" cType="1" res="4.2627737857401371e-03" rms="2.3021331429481506e-01" purity="9.1491204500198364e-01" nType="-99"/>
            <Node pos="r" depth="3" NCoef="0" IVar="-1" Cut="0.0000000000000000e+00" cType="1" res="-2.7489876374602318e-02" rms="2.9450866580009460e-01" purity="8.1946790218353271e-01" nType="-99"/>
          </Node>
        </Node>
      </Node>
    </BinaryTree>
    <BinaryTree type="DecisionTree" boostWeight="1.0000000000000000e+00" itree="447">
      <Node pos="s" depth="0" NCoef="0" IVar="8" Cut="-9.3322938680648804e-01" cType="1" res="-1.9468154059723020e-03" rms="2.9776817560195923e-01" purity="4.9668666720390320e-01" nType="0">
        <Node pos="l" depth="1" NCoef="0" IVar="4" Cut="1.7652983093261719e+02" cType="1" res="-9.8433094099164009e-03" rms="2.9597178101539612e-01" purity="3.1840479373931885e-01" nType="0">
          <Node pos="l" depth="2" NCoef="0" IVar="10" Cut="-3.9984700083732605e-01" cType="1" res="3.8681905716657639e-03" rms="2.4646005034446716e-01" purity="1.0177952051162720e-01" nType="0">
            <Node pos="l" depth="3" NCoef="0" IVar="-1" Cut="0.0000000000000000e+00" cType="1" res="-2.0322985947132111e-02" rms="2.1520228683948517e-01" purity="7.3358930647373199e-02" nType="-99"/>
            <Node pos="r" depth="3" NCoef="0" IVar="-1" Cut="0.0000000000000000e+00" cType="1" res="2.5663925334811211e-02" rms="2.6965558528900146e-01" purity="1.2600108981132507e-01" nType="-99"/>
          </Node>
          <Node pos="r" depth="2" NCoef="0" IVar="0" Cut="5.3581884765625000e+02" cType="1" res="-1.9644683226943016e-02" rms="3.2644569873809814e-01" purity="4.7325477004051208e-01" nType="0">
            <Node pos="l" depth="3" NCoef="0" IVar="-1" Cut="0.0000000000000000e+00" cType="1" res="-2.2393554449081421e-02" rms="3.3966049551963806e-01" purity="2.8063881397247314e-01" nType="-99"/>
            <Node pos="r" depth="3" NCoef="0" IVar="-1" Cut="0.0000000000000000e+00" cType="1" res="-7.3340996168553829e-03" rms="3.0045589804649353e-01" purity="8.2407468557357788e-01" nType="-99"/>
          </Node>
        </Node>
        <Node pos="r" depth="1" NCoef="0" IVar="0" Cut="5.7808862304687500e+02" cType="1" res="-1.8306545098312199e-04" rms="2.9813936352729797e-01" purity="5.3650742769241333e-01" nType="0">
          <Node pos="l" depth="2" NCoef="0" IVar="0" Cut="5.2511712646484375e+02" cType="1" res="1.9218509551137686e-03" rms="3.2003343105316162e-01" purity="3.6605361104011536e-01" nType="0">
            <Node pos="l" depth="3" NCoef="0" IVar="-1" Cut="0.0000000000000000e+00" cType="1" res="-2.8626038692891598e-04" rms="3.1827616691589355e-01" purity="3.2323500514030457e-01" nType="-99"/>
            <Node pos="r" depth="3" NCoef="0" IVar="-1" Cut="0.0000000000000000e+00" cType="1" res="1.8103951588273048e-02" rms="3.3396288752555847e-01" purity="7.2882163524627686e-01" nType="-99"/>
          </Node>
          <Node pos="r" depth="2" NCoef="0" IVar="1" Cut="1.5895203857421875e+03" cType="1" res="-4.6090129762887955e-03" rms="2.4576403200626373e-01" purity="8.9491575956344604e-01" nType="0">
            <Node pos="l" depth="3" NCoef="0" IVar="-1" Cut="0.0000000000000000e+00" cType="1" res="-1.8195178359746933e-02" rms="4.0854150056838989e-01" purity="5.8981770277023315e-01" nType="-99"/>
            <Node pos="r" depth="3" NCoef="0" IVar="-1" Cut="0.0000000000000000e+00" cType="1" res="-3.8789475802332163e-03" rms="2.1816298365592957e-01" purity="9.3138521909713745e-01" nType="-99"/>
          </Node>
        </Node>
      </Node>
    </BinaryTree>
    <BinaryTree type="DecisionTree" boostWeight="1.0000000000000000e+00" itree="448">
      <Node pos="s" depth="0" NCoef="0" IVar="10" Cut="-1.1999359130859375e+00" cType="1" res="1.6963501693680882e-03" rms="2.9800865054130554e-01" purity="4.9922147393226624e-01" nType="0">
        <Node pos="l" depth="1" NCoef="0" IVar="2" Cut="3.8564227521419525e-02" cType="1" res="1.1013800278306007e-02" rms="3.0648931860923767e-01" purity="4.3619519472122192e-01" nType="0">
          <Node pos="l" depth="2" NCoef="0" IVar="1" Cut="1.3097615966796875e+03" cType="1" res="-2.0333072170615196e-03" rms="2.8303483128547668e-01" purity="2.1640491485595703e-01" nType="0">
            <Node pos="l" depth="3" NCoef="0" IVar="-1" Cut="0.0000000000000000e+00" cType="1" res="1.4932611957192421e-02" rms="2.1873173117637634e-01" purity="5.9461385011672974e-02" nType="-99"/>
            <Node pos="r" depth="3" NCoef="0" IVar="-1" Cut="0.0000000000000000e+00" cType="1" res="-1.2429512105882168e-02" rms="3.6806434392929077e-01" purity="4.8737776279449463e-01" nType="-99"/>
          </Node>
          <Node pos="r" depth="2" NCoef="0" IVar="3" Cut="4.1779492187500000e+02" cType="1" res="2.5162551552057266e-02" rms="3.2946226000785828e-01" purity="6.7454367876052856e-01" nType="0">
            <Node pos="l" depth="3" NCoef="0" IVar="-1" Cut="0.0000000000000000e+00" cType="1" res="2.9049003496766090e-02" rms="3.6014428734779358e-01" purity="5.3961426019668579e-01" nType="-99"/>
            <Node pos="r" depth="3" NCoef="0" IVar="-1" Cut="0.0000000000000000e+00" cType="1" res="1.3919046148657799e-02" rms="2.8367665410041809e-01" purity="8.5131752490997314e-01" nType="-99"/>
          </Node>
        </Node>
        <Node pos="r" depth="1" NCoef="0" IVar="7" Cut="4.0478047728538513e-01" cType="1" res="-2.7393494383431971e-04" rms="2.9614666104316711e-01" purity="5.1254910230636597e-01" nType="0">
          <Node pos="l" depth="2" NCoef="0" IVar="3" Cut="4.9193817138671875e+02" cType="1" res="-3.7064729258418083e-03" rms="2.9501953721046448e-01" purity="5.5422610044479370e-01" nType="0">
            <Node pos="l" depth="3" NCoef="0" IVar="-1" Cut="0.0000000000000000e+00" cType="1" res="-8.7392842397093773e-03" rms="2.9960641264915466e-01" purity="4.4262742996215820e-01" nType="-99"/>
            <Node pos="r" depth="3" NCoef="0" IVar="-1" Cut="0.0000000000000000e+00" cType="1" res="6.1059789732098579e-03" rms="2.8545981645584106e-01" purity="7.7661138772964478e-01" nType="-99"/>
          </Node>
          <Node pos="r" depth="2" NCoef="0" IVar="10" Cut="-5.7116169482469559e-02" cType="1" res="6.5397177822887897e-03" rms="2.9825437068939209e-01" purity="4.2981952428817749e-01" nType="0">
            <Node pos="l" depth="3" NCoef="0" IVar="-1" Cut="0.0000000000000000e+00" cType="1" res="-8.8909380137920380e-03" rms="2.9199874401092529e-01" purity="4.6310368180274963e-01" nType="-99"/>
            <Node pos="r" depth="3" NCoef="0" IVar="-1" Cut="0.0000000000000000e+00" cType="1" res="1.5174770727753639e-02" rms="3.0087158083915710e-01" purity="4.1440942883491516e-01" nType="-99"/>
          </Node>
        </Node>
      </Node>
    </BinaryTree>
    <BinaryTree type="DecisionTree" boostWeight="1.0000000000000000e+00" itree="449">
      <Node pos="s" depth="0" NCoef="0" IVar="1" Cut="1.7600894775390625e+03" cType="1" res="3.3514401875436306e-03" rms="2.9953813552856445e-01" purity="5.0526481866836548e-01" nType="0">
        <Node pos="l" depth="1" NCoef="0" IVar="6" Cut="9.7521560668945312e+01" cType="1" res="6.0486583970487118e-03" rms="3.2601830363273621e-01" purity="3.2276365160942078e-01" nType="0">
          <Node pos="l" depth="2" NCoef="0" IVar="9" Cut="-1.3333395123481750e-01" cType="1" res="2.0153967197984457e-03" rms="3.0386617779731750e-01" purity="1.9801478087902069e-01" nType="0">
            <Node pos="l" depth="3" NCoef="0" IVar="-1" Cut="0.0000000000000000e+00" cType="1" res="-6.1865849420428276e-03" rms="2.9755833745002747e-01" purity="1.9092622399330139e-01" nType="-99"/>
            <Node pos="r" depth="3" NCoef="0" IVar="-1" Cut="0.0000000000000000e+00" cType="1" res="9.3321651220321655e-03" rms="3.0902534723281860e-01" purity="2.0409491658210754e-01" nType="-99"/>
          </Node>
          <Node pos="r" depth="2" NCoef="0" IVar="5" Cut="1.6635829162597656e+02" cType="1" res="1.5471652150154114e-02" rms="3.7250566482543945e-01" purity="6.1421704292297363e-01" nType="0">
            <Node pos="l" depth="3" NCoef="0" IVar="-1" Cut="0.0000000000000000e+00" cType="1" res="1.7287014052271843e-02" rms="3.8788938522338867e-01" purity="4.8469406366348267e-01" nType="-99"/>
            <Node pos="r" depth="3" NCoef="0" IVar="-1" Cut="0.0000000000000000e+00" cType="1" res="5.1812105812132359e-03" rms="3.5734584927558899e-01" purity="7.3491448163986206e-01" nType="-99"/>
          </Node>
        </Node>
        <Node pos="r" depth="1" NCoef="0" IVar="8" Cut="4.0013033151626587e-01" cType="1" res="-2.7152604889124632e-03" rms="2.2893570363521576e-01" purity="9.1575449705123901e-01" nType="0">
          <Node pos="l" depth="2" NCoef="0" IVar="8" Cut="-9.7116011381149292e-01" cType="1" res="1.0635249782353640e-03" rms="2.2284415364265442e-01" purity="9.2472344636917114e-01" nType="0">
            <Node pos="l" depth="3" NCoef="0" IVar="-1" Cut="0.0000000000000000e+00" cType="1" res="1.1621494777500629e-02" rms="2.9342076182365417e-01" purity="8.4961122274398804e-01" nType="-99"/>
            <Node pos="r" depth="3" NCoef="0" IVar="-1" Cut="0.0000000000000000e+00" cType="1" res="-1.1208002688363194e-03" rms="2.0829667150974274e-01" purity="9.3761867284774780e-01" nType="-99"/>
          </Node>
          <Node pos="r" depth="2" NCoef="0" IVar="5" Cut="2.2934780883789062e+02" cType="1" res="-1.1504822410643101e-02" rms="2.4228578805923462e-01" purity="8.9489227533340454e-01" nType="0">
            <Node pos="l" depth="3" NCoef="0" IVar="-1" Cut="0.0000000000000000e+00" cType="1" res="-3.1624823808670044e-02" rms="2.8228291869163513e-01" purity="8.3987885713577271e-01" nType="-99"/>
            <Node pos="r" depth="3" NCoef="0" IVar="-1" Cut="0.0000000000000000e+00" cType="1" res="5.5324158165603876e-04" rms="1.9786874949932098e-01" purity="9.4540113210678101e-01" nType="-99"/>
          </Node>
        </Node>
      </Node>
    </BinaryTree>
    <BinaryTree type="DecisionTree" boostWeight="1.0000000000000000e+00" itree="450">
      <Node pos="s" depth="0" NCoef="0" IVar="7" Cut="6.7618179321289062e-01" cType="1" res="-3.4026030334644020e-04" rms="2.9660040140151978e-01" purity="4.9822387099266052e-01" nType="0">
        <Node pos="l" depth="1" NCoef="0" IVar="8" Cut="-3.9991566538810730e-01" cType="1" res="1.9241874106228352e-03" rms="3.0030587315559387e-01" purity="5.4659688472747803e-01" nType="0">
          <Node pos="l" depth="2" NCoef="0" IVar="7" Cut="-2.9962873458862305e-01" cType="1" res="-5.3219879046082497e-03" rms="2.9915341734886169e-01" purity="4.8072963953018188e-01" nType="0">
            <Node pos="l" depth="3" NCoef="0" IVar="-1" Cut="0.0000000000000000e+00" cType="1" res="-1.4200517907738686e-02" rms="2.8842258453369141e-01" purity="3.7192204594612122e-01" nType="-99"/>
            <Node pos="r" depth="3" NCoef="0" IVar="-1" Cut="0.0000000000000000e+00" cType="1" res="2.1013719961047173e-03" rms="3.0944347381591797e-01" purity="5.9066492319107056e-01" nType="-99"/>
          </Node>
          <Node pos="r" depth="2" NCoef="0" IVar="10" Cut="-1.3314230740070343e-01" cType="1" res="5.8361748233437538e-03" rms="3.0085366964340210e-01" purity="5.8215659856796265e-01" nType="0">
            <Node pos="l" depth="3" NCoef="0" IVar="-1" Cut="0.0000000000000000e+00" cType="1" res="1.3858988881111145e-02" rms="3.0371528863906860e-01" purity="5.8166885375976562e-01" nType="-99"/>
            <Node pos="r" depth="3" NCoef="0" IVar="-1" Cut="0.0000000000000000e+00" cType="1" res="-2.6133589562959969e-04" rms="2.9828080534934998e-01" purity="5.8256852626800537e-01" nType="-99"/>
          </Node>
        </Node>
        <Node pos="r" depth="1" NCoef="0" IVar="5" Cut="9.1667564392089844e+01" cType="1" res="-8.2066655158996582e-03" rms="2.8321123123168945e-01" purity="3.3018207550048828e-01" nType="0">
          <Node pos="l" depth="2" NCoef="0" IVar="2" Cut="1.1703148484230042e-02" cType="1" res="9.5488736405968666e-03" rms="2.1543230116367340e-01" purity="7.1124784648418427e-02" nType="0">
            <Node pos="l" depth="3" NCoef="0" IVar="-1" Cut="0.0000000000000000e+00" cType="1" res="-1.2774161063134670e-02" rms="1.5686301887035370e-01" purity="3.6113880574703217e-02" nType="-99"/>
            <Node pos="r" depth="3" NCoef="0" IVar="-1" Cut="0.0000000000000000e+00" cType="1" res="4.5684788376092911e-02" rms="2.7351978421211243e-01" purity="1.1757609248161316e-01" nType="-99"/>
          </Node>
          <Node pos="r" depth="2" NCoef="0" IVar="9" Cut="-6.6657072305679321e-01" cType="1" res="-1.5160464681684971e-02" rms="3.0540671944618225e-01" purity="4.3163955211639404e-01" nType="0">
            <Node pos="l" depth="3" NCoef="0" IVar="-1" Cut="0.0000000000000000e+00" cType="1" res="8.9938249439001083e-03" rms="3.1923633813858032e-01" purity="3.9687663316726685e-01" nType="-99"/>
            <Node pos="r" depth="3" NCoef="0" IVar="-1" Cut="0.0000000000000000e+00" cType="1" res="-2.3450549691915512e-02" rms="3.0020967125892639e-01" purity="4.4322678446769714e-01" nType="-99"/>
          </Node>
        </Node>
      </Node>
    </BinaryTree>
    <BinaryTree type="DecisionTree" boostWeight="1.0000000000000000e+00" itree="451">
      <Node pos="s" depth="0" NCoef="0" IVar="7" Cut="9.3714755773544312e-01" cType="1" res="-9.6415338339284062e-04" rms="2.9895886778831482e-01" purity="4.9934324622154236e-01" nType="0">
        <Node pos="l" depth="1" NCoef="0" IVar="2" Cut="2.1316746249794960e-02" cType="1" res="5.6163262343034148e-04" rms="3.0326774716377258e-01" purity="5.4368454217910767e-01" nType="0">
          <Node pos="l" depth="2" NCoef="0" IVar="3" Cut="3.5192196655273438e+02" cType="1" res="6.5364656038582325e-03" rms="2.9620623588562012e-01" purity="2.9992124438285828e-01" nType="0">
            <Node pos="l" depth="3" NCoef="0" IVar="-1" Cut="0.0000000000000000e+00" cType="1" res="-1.1742407456040382e-02" rms="2.2755670547485352e-01" purity="1.0229896008968353e-01" nType="-99"/>
            <Node pos="r" depth="3" NCoef="0" IVar="-1" Cut="0.0000000000000000e+00" cType="1" res="1.4032579027116299e-02" rms="3.3120912313461304e-01" purity="4.2163646221160889e-01" nType="-99"/>
          </Node>
          <Node pos="r" depth="2" NCoef="0" IVar="9" Cut="-1.3349592685699463e-01" cType="1" res="-2.2284910082817078e-03" rms="3.0646970868110657e-01" purity="6.5751689672470093e-01" nType="0">
            <Node pos="l" depth="3" NCoef="0" IVar="-1" Cut="0.0000000000000000e+00" cType="1" res="-9.0623255819082260e-03" rms="3.0383193492889404e-01" purity="6.4312052726745605e-01" nType="-99"/>
            <Node pos="r" depth="3" NCoef="0" IVar="-1" Cut="0.0000000000000000e+00" cType="1" res="3.0707623809576035e-03" rms="3.0851283669471741e-01" purity="6.6925454139709473e-01" nType="-99"/>
          </Node>
        </Node>
        <Node pos="r" depth="1" NCoef="0" IVar="7" Cut="1.5580449104309082e+00" cType="1" res="-9.7155431285500526e-03" rms="2.7276897430419922e-01" purity="2.4501682817935944e-01" nType="0">
          <Node pos="l" depth="2" NCoef="0" IVar="10" Cut="3.9948031306266785e-01" cType="1" res="-1.8322229385375977e-02" rms="2.9829791188240051e-01" purity="3.2116785645484924e-01" nType="0">
            <Node pos="l" depth="3" NCoef="0" IVar="-1" Cut="0.0000000000000000e+00" cType="1" res="-8.3607947453856468e-03" rms="3.1554776430130005e-01" purity="3.6625027656555176e-01" nType="-99"/>
            <Node pos="r" depth="3" NCoef="0" IVar="-1" Cut="0.0000000000000000e+00" cType="1" res="-3.3384919166564941e-02" rms="2.7568399906158447e-01" purity="2.6704362034797668e-01" nType="-99"/>
          </Node>
          <Node pos="r" depth="2" NCoef="0" IVar="0" Cut="3.7609426879882812e+02" cType="1" res="5.9461616910994053e-03" rms="2.1793057024478912e-01" purity="1.0644374042749405e-01" nType="0">
            <Node pos="l" depth="3" NCoef="0" IVar="-1" Cut="0.0000000000000000e+00" cType="1" res="-1.1630840599536896e-02" rms="1.5481480956077576e-01" purity="2.6989722624421120e-02" nType="-99"/>
            <Node pos="r" depth="3" NCoef="0" IVar="-1" Cut="0.0000000000000000e+00" cType="1" res="2.1655198186635971e-02" rms="2.6989883184432983e-01" purity="1.9265110790729523e-01" nType="-99"/>
          </Node>
        </Node>
      </Node>
    </BinaryTree>
    <BinaryTree type="DecisionTree" boostWeight="1.0000000000000000e+00" itree="452">
      <Node pos="s" depth="0" NCoef="0" IVar="10" Cut="-6.6666561365127563e-01" cType="1" res="2.7052292134612799e-03" rms="2.9805386066436768e-01" purity="5.0181192159652710e-01" nType="0">
        <Node pos="l" depth="1" NCoef="0" IVar="5" Cut="9.5046882629394531e+01" cType="1" res="-2.6861098594963551e-03" rms="2.9722872376441956e-01" purity="4.6919444203376770e-01" nType="0">
          <Node pos="l" depth="2" NCoef="0" IVar="5" Cut="7.7933509826660156e+01" cType="1" res="1.0190011002123356e-02" rms="2.5740015506744385e-01" purity="1.2243613600730896e-01" nType="0">
            <Node pos="l" depth="3" NCoef="0" IVar="-1" Cut="0.0000000000000000e+00" cType="1" res="-4.2194072157144547e-03" rms="2.0878955721855164e-01" purity="7.8351438045501709e-02" nType="-99"/>
            <Node pos="r" depth="3" NCoef="0" IVar="-1" Cut="0.0000000000000000e+00" cType="1" res="3.1139666214585304e-02" rms="3.0167156457901001e-01" purity="1.7125877737998962e-01" nType="-99"/>
          </Node>
          <Node pos="r" depth="2" NCoef="0" IVar="9" Cut="1.3324514031410217e-01" cType="1" res="-7.1430304087698460e-03" rms="3.0969968438148499e-01" purity="5.8922088146209717e-01" nType="0">
            <Node pos="l" depth="3" NCoef="0" IVar="-1" Cut="0.0000000000000000e+00" cType="1" res="-1.4803763478994370e-02" rms="3.0726900696754456e-01" purity="5.6433391571044922e-01" nType="-99"/>
            <Node pos="r" depth="3" NCoef="0" IVar="-1" Cut="0.0000000000000000e+00" cType="1" res="3.1950750853866339e-03" rms="3.1279739737510681e-01" purity="6.2427794933319092e-01" nType="-99"/>
          </Node>
        </Node>
        <Node pos="r" depth="1" NCoef="0" IVar="2" Cut="6.3985832035541534e-02" cType="1" res="5.0551020540297031e-03" rms="2.9838231205940247e-01" purity="5.1602864265441895e-01" nType="0">
          <Node pos="l" depth="2" NCoef="0" IVar="4" Cut="3.3537554931640625e+02" cType="1" res="7.7900774776935577e-03" rms="3.0525884032249451e-01" purity="3.9228051900863647e-01" nType="0">
            <Node pos="l" depth="3" NCoef="0" IVar="-1" Cut="0.0000000000000000e+00" cType="1" res="1.0977467522025108e-02" rms="3.0738231539726257e-01" purity="2.9743260145187378e-01" nType="-99"/>
            <Node pos="r" depth="3" NCoef="0" IVar="-1" Cut="0.0000000000000000e+00" cType="1" res="-1.9938889890909195e-03" rms="2.9606643319129944e-01" purity="7.8691822290420532e-01" nType="-99"/>
          </Node>
          <Node pos="r" depth="2" NCoef="0" IVar="9" Cut="1.3158521056175232e-01" cType="1" res="-8.1281160237267613e-04" rms="2.8297632932662964e-01" purity="7.8153127431869507e-01" nType="0">
            <Node pos="l" depth="3" NCoef="0" IVar="-1" Cut="0.0000000000000000e+00" cType="1" res="7.6326481066644192e-03" rms="2.7964550256729126e-01" purity="7.9635256528854370e-01" nType="-99"/>
            <Node pos="r" depth="3" NCoef="0" IVar="-1" Cut="0.0000000000000000e+00" cType="1" res="-1.0926174931228161e-02" rms="2.8665301203727722e-01" purity="7.6398998498916626e-01" nType="-99"/>
          </Node>
        </Node>
      </Node>
    </BinaryTree>
    <BinaryTree type="DecisionTree" boostWeight="1.0000000000000000e+00" itree="453">
      <Node pos="s" depth="0" NCoef="0" IVar="9" Cut="-4.0000647306442261e-01" cType="1" res="-2.7611004188656807e-03" rms="2.9539731144905090e-01" purity="4.9799376726150513e-01" nType="0">
        <Node pos="l" depth="1" NCoef="0" IVar="2" Cut="2.0899405702948570e-02" cType="1" res="2.8657186776399612e-03" rms="3.0054348707199097e-01" purity="4.7189205884933472e-01" nType="0">
          <Node pos="l" depth="2" NCoef="0" IVar="3" Cut="3.5190628051757812e+02" cType="1" res="-4.3420316651463509e-03" rms="2.7692517638206482e-01" purity="2.1053230762481689e-01" nType="0">
            <Node pos="l" depth="3" NCoef="0" IVar="-1" Cut="0.0000000000000000e+00" cType="1" res="1.6604460775852203e-02" rms="2.3363970220088959e-01" purity="9.5820657908916473e-02" nType="-99"/>
            <Node pos="r" depth="3" NCoef="0" IVar="-1" Cut="0.0000000000000000e+00" cType="1" res="-1.5129620209336281e-02" rms="3.0644908547401428e-01" purity="3.0116614699363708e-01" nType="-99"/>
          </Node>
          <Node pos="r" depth="2" NCoef="0" IVar="1" Cut="1.0556817626953125e+03" cType="1" res="7.0780124515295029e-03" rms="3.1344693899154663e-01" purity="6.2463378906250000e-01" nType="0">
            <Node pos="l" depth="3" NCoef="0" IVar="-1" Cut="0.0000000000000000e+00" cType="1" res="-1.7896225675940514e-02" rms="2.2212451696395874e-01" purity="6.0275442898273468e-02" nType="-99"/>
            <Node pos="r" depth="3" NCoef="0" IVar="-1" Cut="0.0000000000000000e+00" cType="1" res="9.7810802981257439e-03" rms="3.2786089181900024e-01" purity="7.3213654756546021e-01" nType="-99"/>
          </Node>
        </Node>
        <Node pos="r" depth="1" NCoef="0" IVar="5" Cut="1.8697322082519531e+02" cType="1" res="-6.0591758228838444e-03" rms="2.9228848218917847e-01" purity="5.1329278945922852e-01" nType="0">
          <Node pos="l" depth="2" NCoef="0" IVar="6" Cut="7.6043876647949219e+01" cType="1" res="-9.4478931277990341e-03" rms="3.1215161085128784e-01" purity="3.0990648269653320e-01" nType="0">
            <Node pos="l" depth="3" NCoef="0" IVar="-1" Cut="0.0000000000000000e+00" cType="1" res="-2.2306896280497313e-03" rms="2.8131541609764099e-01" purity="1.7046941816806793e-01" nType="-99"/>
            <Node pos="r" depth="3" NCoef="0" IVar="-1" Cut="0.0000000000000000e+00" cType="1" res="-1.4852510765194893e-02" rms="3.4291601181030273e-01" purity="4.6451324224472046e-01" nType="-99"/>
          </Node>
          <Node pos="r" depth="2" NCoef="0" IVar="0" Cut="4.3641455078125000e+02" cType="1" res="-1.1894807130374829e-06" rms="2.5280860066413879e-01" purity="8.7688517570495605e-01" nType="0">
            <Node pos="l" depth="3" NCoef="0" IVar="-1" Cut="0.0000000000000000e+00" cType="1" res="-6.9073373451828957e-03" rms="3.7711209058761597e-01" purity="6.4650934934616089e-01" nType="-99"/>
            <Node pos="r" depth="3" NCoef="0" IVar="-1" Cut="0.0000000000000000e+00" cType="1" res="6.4153284765779972e-03" rms="2.0360356569290161e-01" purity="9.4285327196121216e-01" nType="-99"/>
          </Node>
        </Node>
      </Node>
    </BinaryTree>
    <BinaryTree type="DecisionTree" boostWeight="1.0000000000000000e+00" itree="454">
      <Node pos="s" depth="0" NCoef="0" IVar="9" Cut="-6.6669881343841553e-01" cType="1" res="-1.6860598407220095e-05" rms="2.9966571927070618e-01" purity="4.9379745125770569e-01" nType="0">
        <Node pos="l" depth="1" NCoef="0" IVar="9" Cut="-1.2762109041213989e+00" cType="1" res="-8.4829581901431084e-03" rms="3.0541235208511353e-01" purity="4.1235747933387756e-01" nType="0">
          <Node pos="l" depth="2" NCoef="0" IVar="6" Cut="7.0939537048339844e+01" cType="1" res="-9.0636014647316188e-05" rms="3.0689832568168640e-01" purity="3.1748282909393311e-01" nType="0">
            <Node pos="l" depth="3" NCoef="0" IVar="-1" Cut="0.0000000000000000e+00" cType="1" res="2.0399877801537514e-02" rms="2.7241063117980957e-01" purity="1.4541415870189667e-01" nType="-99"/>
            <Node pos="r" depth="3" NCoef="0" IVar="-1" Cut="0.0000000000000000e+00" cType="1" res="-9.8321605473756790e-03" rms="3.3085528016090393e-01" purity="4.5125424861907959e-01" nType="-99"/>
          </Node>
          <Node pos="r" depth="2" NCoef="0" IVar="7" Cut="-6.1405086517333984e-01" cType="1" res="-1.6371436417102814e-02" rms="3.0379763245582581e-01" purity="5.0153619050979614e-01" nType="0">
            <Node pos="l" depth="3" NCoef="0" IVar="-1" Cut="0.0000000000000000e+00" cType="1" res="7.4415546841919422e-03" rms="3.1087389588356018e-01" purity="3.4250381588935852e-01" nType="-99"/>
            <Node pos="r" depth="3" NCoef="0" IVar="-1" Cut="0.0000000000000000e+00" cType="1" res="-2.7874393388628960e-02" rms="3.0062523484230042e-01" purity="5.6161969900131226e-01" nType="-99"/>
          </Node>
        </Node>
        <Node pos="r" depth="1" NCoef="0" IVar="10" Cut="-6.6667181253433228e-01" cType="1" res="3.1489941757172346e-03" rms="2.9742640256881714e-01" purity="5.2425146102905273e-01" nType="0">
          <Node pos="l" depth="2" NCoef="0" IVar="8" Cut="6.6663640737533569e-01" cType="1" res="1.4662466943264008e-02" rms="3.1234529614448547e-01" purity="5.2121913433074951e-01" nType="0">
            <Node pos="l" depth="3" NCoef="0" IVar="-1" Cut="0.0000000000000000e+00" cType="1" res="8.2141850143671036e-03" rms="3.0325692892074585e-01" purity="5.4378080368041992e-01" nType="-99"/>
            <Node pos="r" depth="3" NCoef="0" IVar="-1" Cut="0.0000000000000000e+00" cType="1" res="3.7063997238874435e-02" rms="3.3895817399024963e-01" purity="4.4851505756378174e-01" nType="-99"/>
          </Node>
          <Node pos="r" depth="2" NCoef="0" IVar="0" Cut="4.5206744384765625e+02" cType="1" res="-1.5703144017606974e-03" rms="2.9095873236656189e-01" purity="5.2549445629119873e-01" nType="0">
            <Node pos="l" depth="3" NCoef="0" IVar="-1" Cut="0.0000000000000000e+00" cType="1" res="-6.4781308174133301e-03" rms="2.9986351728439331e-01" purity="2.3702529072761536e-01" nType="-99"/>
            <Node pos="r" depth="3" NCoef="0" IVar="-1" Cut="0.0000000000000000e+00" cType="1" res="3.2733432017266750e-03" rms="2.8241568803787231e-01" purity="7.9207521677017212e-01" nType="-99"/>
          </Node>
        </Node>
      </Node>
    </BinaryTree>
    <BinaryTree type="DecisionTree" boostWeight="1.0000000000000000e+00" itree="455">
      <Node pos="s" depth="0" NCoef="0" IVar="8" Cut="-1.2000037431716919e+00" cType="1" res="1.7793743172660470e-03" rms="2.9718092083930969e-01" purity="5.0466680526733398e-01" nType="0">
        <Node pos="l" depth="1" NCoef="0" IVar="3" Cut="4.4669616699218750e+02" cType="1" res="-8.3324806764721870e-03" rms="2.7707192301750183e-01" purity="2.5825792551040649e-01" nType="0">
          <Node pos="l" depth="2" NCoef="0" IVar="5" Cut="8.5221496582031250e+01" cType="1" res="-1.4387651346623898e-02" rms="2.5586313009262085e-01" purity="1.7512194812297821e-01" nType="0">
            <Node pos="l" depth="3" NCoef="0" IVar="-1" Cut="0.0000000000000000e+00" cType="1" res="7.0928218774497509e-03" rms="1.5704922378063202e-01" purity="3.8845639675855637e-02" nType="-99"/>
            <Node pos="r" depth="3" NCoef="0" IVar="-1" Cut="0.0000000000000000e+00" cType="1" res="-2.2868975996971130e-02" rms="2.8833782672882080e-01" purity="2.3471438884735107e-01" nType="-99"/>
          </Node>
          <Node pos="r" depth="2" NCoef="0" IVar="-1" Cut="0.0000000000000000e+00" cType="1" res="6.3173626549541950e-03" rms="3.2413184642791748e-01" purity="4.6876987814903259e-01" nType="-99"/>
        </Node>
        <Node pos="r" depth="1" NCoef="0" IVar="0" Cut="5.7808770751953125e+02" cType="1" res="3.2291519455611706e-03" rms="2.9992559552192688e-01" purity="5.3999549150466919e-01" nType="0">
          <Node pos="l" depth="2" NCoef="0" IVar="0" Cut="4.7214828491210938e+02" cType="1" res="5.9870788827538490e-03" rms="3.2280203700065613e-01" purity="3.6916285753250122e-01" nType="0">
            <Node pos="l" depth="3" NCoef="0" IVar="-1" Cut="0.0000000000000000e+00" cType="1" res="2.0808151457458735e-03" rms="3.1678667664527893e-01" purity="2.7832558751106262e-01" nType="-99"/>
            <Node pos="r" depth="3" NCoef="0" IVar="-1" Cut="0.0000000000000000e+00" cType="1" res="1.5783434733748436e-02" rms="3.4133562445640564e-01" purity="6.6480231285095215e-01" nType="-99"/>
          </Node>
          <Node pos="r" depth="2" NCoef="0" IVar="9" Cut="-3.9961996674537659e-01" cType="1" res="-2.5203374680131674e-03" rms="2.4537327885627747e-01" purity="8.9613270759582520e-01" nType="0">
            <Node pos="l" depth="3" NCoef="0" IVar="-1" Cut="0.0000000000000000e+00" cType="1" res="-1.5934627503156662e-02" rms="2.5548669695854187e-01" purity="8.8204073905944824e-01" nType="-99"/>
            <Node pos="r" depth="3" NCoef="0" IVar="-1" Cut="0.0000000000000000e+00" cType="1" res="1.8008074257522821e-03" rms="2.4020910263061523e-01" purity="9.0300112962722778e-01" nType="-99"/>
          </Node>
        </Node>
      </Node>
    </BinaryTree>
    <BinaryTree type="DecisionTree" boostWeight="1.0000000000000000e+00" itree="456">
      <Node pos="s" depth="0" NCoef="0" IVar="6" Cut="8.0216247558593750e+01" cType="1" res="-6.6717708250507712e-04" rms="2.9754433035850525e-01" purity="4.9798655509948730e-01" nType="0">
        <Node pos="l" depth="1" NCoef="0" IVar="6" Cut="6.8705245971679688e+01" cType="1" res="-3.8340531755238771e-03" rms="2.8804066777229309e-01" purity="2.2239772975444794e-01" nType="0">
          <Node pos="l" depth="2" NCoef="0" IVar="5" Cut="9.4984748840332031e+01" cType="1" res="-8.7133599445223808e-03" rms="2.7189528942108154e-01" purity="1.8135064840316772e-01" nType="0">
            <Node pos="l" depth="3" NCoef="0" IVar="-1" Cut="0.0000000000000000e+00" cType="1" res="-1.7844883259385824e-03" rms="2.2849597036838531e-01" purity="8.7449066340923309e-02" nType="-99"/>
            <Node pos="r" depth="3" NCoef="0" IVar="-1" Cut="0.0000000000000000e+00" cType="1" res="-1.7996026203036308e-02" rms="3.2333341240882874e-01" purity="3.1463590264320374e-01" nType="-99"/>
          </Node>
          <Node pos="r" depth="2" NCoef="0" IVar="7" Cut="1.6780295968055725e-01" cType="1" res="7.6181082986295223e-03" rms="3.2248869538307190e-01" purity="3.1873890757560730e-01" nType="0">
            <Node pos="l" depth="3" NCoef="0" IVar="-1" Cut="0.0000000000000000e+00" cType="1" res="-2.6642191223800182e-03" rms="3.1292799115180969e-01" purity="3.2879841327667236e-01" nType="-99"/>
            <Node pos="r" depth="3" NCoef="0" IVar="-1" Cut="0.0000000000000000e+00" cType="1" res="2.2043939679861069e-02" rms="3.3441168069839478e-01" purity="3.0519875884056091e-01" nType="-99"/>
          </Node>
        </Node>
        <Node pos="r" depth="1" NCoef="0" IVar="8" Cut="-1.2000046968460083e+00" cType="1" res="1.6829140949994326e-03" rms="3.0438384413719177e-01" purity="7.0249688625335693e-01" nType="0">
          <Node pos="l" depth="2" NCoef="0" IVar="8" Cut="-1.5809260606765747e+00" cType="1" res="1.8455909565091133e-02" rms="3.3771404623985291e-01" purity="4.8603367805480957e-01" nType="0">
            <Node pos="l" depth="3" NCoef="0" IVar="-1" Cut="0.0000000000000000e+00" cType="1" res="9.2000737786293030e-03" rms="3.3645653724670410e-01" purity="3.1742855906486511e-01" nType="-99"/>
            <Node pos="r" depth="3" NCoef="0" IVar="-1" Cut="0.0000000000000000e+00" cType="1" res="2.0798003301024437e-02" rms="3.3862331509590149e-01" purity="6.2907302379608154e-01" nType="-99"/>
          </Node>
          <Node pos="r" depth="2" NCoef="0" IVar="9" Cut="-1.3333518803119659e-01" cType="1" res="-2.0572825451381505e-04" rms="3.0034062266349792e-01" purity="7.2687059640884399e-01" nType="0">
            <Node pos="l" depth="3" NCoef="0" IVar="-1" Cut="0.0000000000000000e+00" cType="1" res="3.6043250001966953e-03" rms="3.0559360980987549e-01" purity="7.2226822376251221e-01" nType="-99"/>
            <Node pos="r" depth="3" NCoef="0" IVar="-1" Cut="0.0000000000000000e+00" cType="1" res="-3.5005039535462856e-03" rms="2.9597887396812439e-01" purity="7.3060435056686401e-01" nType="-99"/>
          </Node>
        </Node>
      </Node>
    </BinaryTree>
    <BinaryTree type="DecisionTree" boostWeight="1.0000000000000000e+00" itree="457">
      <Node pos="s" depth="0" NCoef="0" IVar="10" Cut="-9.3333125114440918e-01" cType="1" res="-1.6663713613525033e-03" rms="2.9655021429061890e-01" purity="4.9369072914123535e-01" nType="0">
        <Node pos="l" depth="1" NCoef="0" IVar="4" Cut="2.0700318908691406e+02" cType="1" res="-1.0967792011797428e-02" rms="2.9197901487350464e-01" purity="4.3117466568946838e-01" nType="0">
          <Node pos="l" depth="2" NCoef="0" IVar="4" Cut="1.3334913635253906e+02" cType="1" res="-2.2158540785312653e-02" rms="2.5755059719085693e-01" purity="1.4368471503257751e-01" nType="0">
            <Node pos="l" depth="3" NCoef="0" IVar="-1" Cut="0.0000000000000000e+00" cType="1" res="-1.0550768114626408e-02" rms="1.9558042287826538e-01" purity="6.3154824078083038e-02" nType="-99"/>
            <Node pos="r" depth="3" NCoef="0" IVar="-1" Cut="0.0000000000000000e+00" cType="1" res="-3.3603988587856293e-02" rms="2.9123547673225403e-01" purity="1.9764231145381927e-01" nType="-99"/>
          </Node>
          <Node pos="r" depth="2" NCoef="0" IVar="4" Cut="2.7696896362304688e+02" cType="1" res="-1.4133548829704523e-03" rms="3.1812980771064758e-01" purity="6.7662787437438965e-01" nType="0">
            <Node pos="l" depth="3" NCoef="0" IVar="-1" Cut="0.0000000000000000e+00" cType="1" res="7.2798542678356171e-03" rms="3.5447943210601807e-01" purity="5.2672952413558960e-01" nType="-99"/>
            <Node pos="r" depth="3" NCoef="0" IVar="-1" Cut="0.0000000000000000e+00" cType="1" res="-1.0399715043604374e-02" rms="2.9112145304679871e-01" purity="7.7674549818038940e-01" nType="-99"/>
          </Node>
        </Node>
        <Node pos="r" depth="1" NCoef="0" IVar="9" Cut="1.7330471277236938e+00" cType="1" res="1.1732814600691199e-03" rms="2.9787391424179077e-01" purity="5.1277637481689453e-01" nType="0">
          <Node pos="l" depth="2" NCoef="0" IVar="9" Cut="-4.2555063962936401e-01" cType="1" res="2.1546829957515001e-03" rms="2.9879561066627502e-01" purity="5.3269076347351074e-01" nType="0">
            <Node pos="l" depth="3" NCoef="0" IVar="-1" Cut="0.0000000000000000e+00" cType="1" res="-4.4395630247890949e-03" rms="3.0101945996284485e-01" purity="4.7826144099235535e-01" nType="-99"/>
            <Node pos="r" depth="3" NCoef="0" IVar="-1" Cut="0.0000000000000000e+00" cType="1" res="6.4392196945846081e-03" rms="2.9751253128051758e-01" purity="5.6256675720214844e-01" nType="-99"/>
          </Node>
          <Node pos="r" depth="2" NCoef="0" IVar="9" Cut="2.0885987281799316e+00" cType="1" res="-1.2531321495771408e-02" rms="2.8433778882026672e-01" purity="2.3468558490276337e-01" nType="0">
            <Node pos="l" depth="3" NCoef="0" IVar="-1" Cut="0.0000000000000000e+00" cType="1" res="-5.6642983108758926e-03" rms="3.0767625570297241e-01" purity="3.1159320473670959e-01" nType="-99"/>
            <Node pos="r" depth="3" NCoef="0" IVar="-1" Cut="0.0000000000000000e+00" cType="1" res="-2.7084367349743843e-02" rms="2.5896394252777100e-01" purity="1.5852007269859314e-01" nType="-99"/>
          </Node>
        </Node>
      </Node>
    </BinaryTree>
    <BinaryTree type="DecisionTree" boostWeight="1.0000000000000000e+00" itree="458">
      <Node pos="s" depth="0" NCoef="0" IVar="9" Cut="-2.0000004768371582e+00" cType="1" res="1.4452107716351748e-03" rms="2.9723250865936279e-01" purity="5.0038105249404907e-01" nType="0">
        <Node pos="l" depth="1" NCoef="0" IVar="-1" Cut="0.0000000000000000e+00" cType="1" res="-2.0242985337972641e-02" rms="2.6729789376258850e-01" purity="1.8442846834659576e-01" nType="-99"/>
        <Node pos="r" depth="1" NCoef="0" IVar="2" Cut="1.2550155818462372e-01" cType="1" res="2.1765076089650393e-03" rms="2.9841762781143188e-01" purity="5.1382434368133545e-01" nType="0">
          <Node pos="l" depth="2" NCoef="0" IVar="8" Cut="-3.9985415339469910e-01" cType="1" res="8.7138108210638165e-04" rms="3.0386847257614136e-01" purity="4.5928686857223511e-01" nType="0">
            <Node pos="l" depth="3" NCoef="0" IVar="-1" Cut="0.0000000000000000e+00" cType="1" res="6.6422787494957447e-03" rms="3.0552756786346436e-01" purity="4.2767471075057983e-01" nType="-99"/>
            <Node pos="r" depth="3" NCoef="0" IVar="-1" Cut="0.0000000000000000e+00" cType="1" res="-2.4114244151860476e-03" rms="3.0287185311317444e-01" purity="4.7736829519271851e-01" nType="-99"/>
          </Node>
          <Node pos="r" depth="2" NCoef="0" IVar="-1" Cut="0.0000000000000000e+00" cType="1" res="1.4911274425685406e-02" rms="2.6126164197921753e-01" purity="8.5797905921936035e-01" nType="-99"/>
        </Node>
      </Node>
    </BinaryTree>
    <BinaryTree type="DecisionTree" boostWeight="1.0000000000000000e+00" itree="459">
      <Node pos="s" depth="0" NCoef="0" IVar="7" Cut="-1.0451698303222656e-01" cType="1" res="1.7592294170754030e-05" rms="2.9646551609039307e-01" purity="4.9976435303688049e-01" nType="0">
        <Node pos="l" depth="1" NCoef="0" IVar="10" Cut="-1.3322830200195312e-01" cType="1" res="4.8013669438660145e-03" rms="3.0208480358123779e-01" purity="4.8489445447921753e-01" nType="0">
          <Node pos="l" depth="2" NCoef="0" IVar="0" Cut="5.2413616943359375e+02" cType="1" res="1.1021343059837818e-02" rms="3.0838951468467712e-01" purity="4.6363455057144165e-01" nType="0">
            <Node pos="l" depth="3" NCoef="0" IVar="-1" Cut="0.0000000000000000e+00" cType="1" res="1.7841717228293419e-02" rms="3.1731384992599487e-01" purity="2.8207966685295105e-01" nType="-99"/>
            <Node pos="r" depth="3" NCoef="0" IVar="-1" Cut="0.0000000000000000e+00" cType="1" res="-7.2829797863960266e-04" rms="2.8965386748313904e-01" purity="8.2131570577621460e-01" nType="-99"/>
          </Node>
          <Node pos="r" depth="2" NCoef="0" IVar="10" Cut="2.8581276535987854e-01" cType="1" res="-1.3875324511900544e-03" rms="2.9554826021194458e-01" purity="5.0604820251464844e-01" nType="0">
            <Node pos="l" depth="3" NCoef="0" IVar="-1" Cut="0.0000000000000000e+00" cType="1" res="-1.4707108959555626e-02" rms="2.8707763552665710e-01" purity="5.3782445192337036e-01" nType="-99"/>
            <Node pos="r" depth="3" NCoef="0" IVar="-1" Cut="0.0000000000000000e+00" cType="1" res="2.7496397960931063e-03" rms="2.9817169904708862e-01" purity="4.9564027786254883e-01" nType="-99"/>
          </Node>
        </Node>
        <Node pos="r" depth="1" NCoef="0" IVar="5" Cut="1.0495019531250000e+02" cType="1" res="-3.8616328965872526e-03" rms="2.9177176952362061e-01" purity="5.1182258129119873e-01" nType="0">
          <Node pos="l" depth="2" NCoef="0" IVar="1" Cut="1.3096433105468750e+03" cType="1" res="-1.0483809746801853e-02" rms="2.5861287117004395e-01" purity="1.2073687463998795e-01" nType="0">
            <Node pos="l" depth="3" NCoef="0" IVar="-1" Cut="0.0000000000000000e+00" cType="1" res="-6.0920827090740204e-03" rms="2.2005526721477509e-01" purity="6.3851289451122284e-02" nType="-99"/>
            <Node pos="r" depth="3" NCoef="0" IVar="-1" Cut="0.0000000000000000e+00" cType="1" res="-3.0625961720943451e-02" rms="3.9205765724182129e-01" purity="3.9294874668121338e-01" nType="-99"/>
          </Node>
          <Node pos="r" depth="2" NCoef="0" IVar="4" Cut="1.9283798217773438e+02" cType="1" res="-1.1915181530639529e-03" rms="3.0407983064651489e-01" purity="6.6951143741607666e-01" nType="0">
            <Node pos="l" depth="3" NCoef="0" IVar="-1" Cut="0.0000000000000000e+00" cType="1" res="-8.2885492593050003e-03" rms="3.2473137974739075e-01" purity="2.7873241901397705e-01" nType="-99"/>
            <Node pos="r" depth="3" NCoef="0" IVar="-1" Cut="0.0000000000000000e+00" cType="1" res="1.0678512044250965e-03" rms="2.9865494370460510e-01" purity="7.6721549034118652e-01" nType="-99"/>
          </Node>
        </Node>
      </Node>
    </BinaryTree>
    <BinaryTree type="DecisionTree" boostWeight="1.0000000000000000e+00" itree="460">
      <Node pos="s" depth="0" NCoef="0" IVar="9" Cut="-1.9999984502792358e+00" cType="1" res="6.3856411725282669e-04" rms="2.9742401838302612e-01" purity="4.9757388234138489e-01" nType="0">
        <Node pos="l" depth="1" NCoef="0" IVar="-1" Cut="0.0000000000000000e+00" cType="1" res="2.1679030731320381e-02" rms="2.9892390966415405e-01" purity="2.2057048976421356e-01" nType="-99"/>
        <Node pos="r" depth="1" NCoef="0" IVar="8" Cut="1.4665321111679077e+00" cType="1" res="-6.7997949372511357e-05" rms="2.9734018445014954e-01" purity="5.0917065143585205e-01" nType="0">
          <Node pos="l" depth="2" NCoef="0" IVar="7" Cut="-6.5123754739761353e-01" cType="1" res="9.1386132407933474e-04" rms="3.0018126964569092e-01" purity="5.3831392526626587e-01" nType="0">
            <Node pos="l" depth="3" NCoef="0" IVar="-1" Cut="0.0000000000000000e+00" cType="1" res="-5.6738848797976971e-03" rms="2.9263973236083984e-01" purity="3.8391125202178955e-01" nType="-99"/>
            <Node pos="r" depth="3" NCoef="0" IVar="-1" Cut="0.0000000000000000e+00" cType="1" res="2.9141553677618504e-03" rms="3.0231100320816040e-01" purity="5.8308780193328857e-01" nType="-99"/>
          </Node>
          <Node pos="r" depth="2" NCoef="0" IVar="8" Cut="1.9744722843170166e+00" cType="1" res="-1.1063677258789539e-02" rms="2.6318848133087158e-01" purity="1.8279966711997986e-01" nType="0">
            <Node pos="l" depth="3" NCoef="0" IVar="-1" Cut="0.0000000000000000e+00" cType="1" res="-2.3374691605567932e-02" rms="2.8061410784721375e-01" purity="2.4326030910015106e-01" nType="-99"/>
            <Node pos="r" depth="3" NCoef="0" IVar="-1" Cut="0.0000000000000000e+00" cType="1" res="7.1475068107247353e-03" rms="2.3454083502292633e-01" purity="9.4156518578529358e-02" nType="-99"/>
          </Node>
        </Node>
      </Node>
    </BinaryTree>
    <BinaryTree type="DecisionTree" boostWeight="1.0000000000000000e+00" itree="461">
      <Node pos="s" depth="0" NCoef="0" IVar="8" Cut="9.3335562944412231e-01" cType="1" res="-3.8330789539031684e-04" rms="2.9691410064697266e-01" purity="4.9857273697853088e-01" nType="0">
        <Node pos="l" depth="1" NCoef="0" IVar="9" Cut="3.9998909831047058e-01" cType="1" res="-2.2995888721197844e-03" rms="2.9636648297309875e-01" purity="5.3481286764144897e-01" nType="0">
          <Node pos="l" depth="2" NCoef="0" IVar="4" Cut="2.4212902832031250e+02" cType="1" res="-6.2829689122736454e-03" rms="2.8843319416046143e-01" purity="5.4363346099853516e-01" nType="0">
            <Node pos="l" depth="3" NCoef="0" IVar="-1" Cut="0.0000000000000000e+00" cType="1" res="-1.6639715060591698e-02" rms="2.9793831706047058e-01" purity="2.4843104183673859e-01" nType="-99"/>
            <Node pos="r" depth="3" NCoef="0" IVar="-1" Cut="0.0000000000000000e+00" cType="1" res="3.0225056689232588e-03" rms="2.7912911772727966e-01" purity="8.1499123573303223e-01" nType="-99"/>
          </Node>
          <Node pos="r" depth="2" NCoef="0" IVar="8" Cut="-1.3329105079174042e-01" cType="1" res="5.0988332368433475e-03" rms="3.1042829155921936e-01" purity="5.1843005418777466e-01" nType="0">
            <Node pos="l" depth="3" NCoef="0" IVar="-1" Cut="0.0000000000000000e+00" cType="1" res="1.7661189660429955e-02" rms="3.2436519861221313e-01" purity="4.8195293545722961e-01" nType="-99"/>
            <Node pos="r" depth="3" NCoef="0" IVar="-1" Cut="0.0000000000000000e+00" cType="1" res="-8.9901937171816826e-03" rms="2.9360190033912659e-01" purity="5.5901575088500977e-01" nType="-99"/>
          </Node>
        </Node>
        <Node pos="r" depth="1" NCoef="0" IVar="9" Cut="4.0014243125915527e-01" cType="1" res="7.8980149701237679e-03" rms="2.9912796616554260e-01" purity="3.4195885062217712e-01" nType="0">
          <Node pos="l" depth="2" NCoef="0" IVar="3" Cut="4.2159133911132812e+02" cType="1" res="1.5830071642994881e-02" rms="3.0999436974525452e-01" purity="3.8582354784011841e-01" nType="0">
            <Node pos="l" depth="3" NCoef="0" IVar="-1" Cut="0.0000000000000000e+00" cType="1" res="2.8582492843270302e-02" rms="3.0885142087936401e-01" purity="2.8479951620101929e-01" nType="-99"/>
            <Node pos="r" depth="3" NCoef="0" IVar="-1" Cut="0.0000000000000000e+00" cType="1" res="-9.4318075571209192e-04" rms="3.1127002835273743e-01" purity="5.6187152862548828e-01" nType="-99"/>
          </Node>
          <Node pos="r" depth="2" NCoef="0" IVar="7" Cut="-3.0961683392524719e-01" cType="1" res="-2.5404600892215967e-03" rms="2.8385788202285767e-01" purity="2.8423351049423218e-01" nType="0">
            <Node pos="l" depth="3" NCoef="0" IVar="-1" Cut="0.0000000000000000e+00" cType="1" res="-2.0966935902833939e-02" rms="2.6930752396583557e-01" purity="2.4116280674934387e-01" nType="-99"/>
            <Node pos="r" depth="3" NCoef="0" IVar="-1" Cut="0.0000000000000000e+00" cType="1" res="5.3083924576640129e-03" rms="2.9026857018470764e-01" purity="3.0475834012031555e-01" nType="-99"/>
          </Node>
        </Node>
      </Node>
    </BinaryTree>
    <BinaryTree type="DecisionTree" boostWeight="1.0000000000000000e+00" itree="462">
      <Node pos="s" depth="0" NCoef="0" IVar="10" Cut="1.9999977350234985e+00" cType="1" res="2.8400842566043139e-03" rms="2.9897511005401611e-01" purity="5.0621742010116577e-01" nType="0">
        <Node pos="l" depth="1" NCoef="0" IVar="8" Cut="9.3329840898513794e-01" cType="1" res="3.6896136589348316e-03" rms="2.9930406808853149e-01" purity="5.1675385236740112e-01" nType="0">
          <Node pos="l" depth="2" NCoef="0" IVar="1" Cut="1.3997886962890625e+03" cType="1" res="5.4202335886657238e-03" rms="3.0044987797737122e-01" purity="5.5491417646408081e-01" nType="0">
            <Node pos="l" depth="3" NCoef="0" IVar="-1" Cut="0.0000000000000000e+00" cType="1" res="1.0981802828609943e-02" rms="3.1859087944030762e-01" purity="1.9508969783782959e-01" nType="-99"/>
            <Node pos="r" depth="3" NCoef="0" IVar="-1" Cut="0.0000000000000000e+00" cType="1" res="1.3823511544615030e-03" rms="2.8495705127716064e-01" purity="8.4418505430221558e-01" nType="-99"/>
          </Node>
          <Node pos="r" depth="2" NCoef="0" IVar="9" Cut="-9.3336528539657593e-01" cType="1" res="-4.3154754675924778e-03" rms="2.9381337761878967e-01" purity="3.4024095535278320e-01" nType="0">
            <Node pos="l" depth="3" NCoef="0" IVar="-1" Cut="0.0000000000000000e+00" cType="1" res="-3.0063938349485397e-02" rms="2.5906670093536377e-01" purity="2.3248183727264404e-01" nType="-99"/>
            <Node pos="r" depth="3" NCoef="0" IVar="-1" Cut="0.0000000000000000e+00" cType="1" res="6.1518122674897313e-04" rms="3.0102962255477905e-01" purity="3.6503085494041443e-01" nType="-99"/>
          </Node>
        </Node>
        <Node pos="r" depth="1" NCoef="0" IVar="-1" Cut="0.0000000000000000e+00" cType="1" res="-1.5341989696025848e-02" rms="2.9209044575691223e-01" purity="3.0342793464660645e-01" nType="-99"/>
      </Node>
    </BinaryTree>
    <BinaryTree type="DecisionTree" boostWeight="1.0000000000000000e+00" itree="463">
      <Node pos="s" depth="0" NCoef="0" IVar="10" Cut="1.4666855335235596e+00" cType="1" res="5.1537008403101936e-05" rms="2.9658874869346619e-01" purity="5.0007688999176025e-01" nType="0">
        <Node pos="l" depth="1" NCoef="0" IVar="8" Cut="-1.7332314252853394e+00" cType="1" res="1.5108534134924412e-03" rms="2.9609078168869019e-01" purity="5.1770418882369995e-01" nType="0">
          <Node pos="l" depth="2" NCoef="0" IVar="-1" Cut="0.0000000000000000e+00" cType="1" res="2.6834277436137199e-02" rms="2.7146518230438232e-01" purity="1.7228151857852936e-01" nType="-99"/>
          <Node pos="r" depth="2" NCoef="0" IVar="9" Cut="-1.2000291347503662e+00" cType="1" res="4.8520223936066031e-04" rms="2.9744657874107361e-01" purity="5.3805983066558838e-01" nType="0">
            <Node pos="l" depth="3" NCoef="0" IVar="-1" Cut="0.0000000000000000e+00" cType="1" res="1.2311842292547226e-02" rms="3.1636402010917664e-01" purity="3.9324590563774109e-01" nType="-99"/>
            <Node pos="r" depth="3" NCoef="0" IVar="-1" Cut="0.0000000000000000e+00" cType="1" res="-1.5908976783975959e-03" rms="2.9404148459434509e-01" purity="5.6287306547164917e-01" nType="-99"/>
          </Node>
        </Node>
        <Node pos="r" depth="1" NCoef="0" IVar="2" Cut="3.8087047636508942e-02" cType="1" res="-1.0810702107846737e-02" rms="3.0004659295082092e-01" purity="3.6887028813362122e-01" nType="0">
          <Node pos="l" depth="2" NCoef="0" IVar="7" Cut="-5.8722507208585739e-02" cType="1" res="-2.3366818204522133e-03" rms="2.6997941732406616e-01" purity="1.9303053617477417e-01" nType="0">
            <Node pos="l" depth="3" NCoef="0" IVar="-1" Cut="0.0000000000000000e+00" cType="1" res="-2.0076416432857513e-02" rms="2.6331585645675659e-01" purity="1.8143059313297272e-01" nType="-99"/>
            <Node pos="r" depth="3" NCoef="0" IVar="-1" Cut="0.0000000000000000e+00" cType="1" res="8.0282036215066910e-03" rms="2.7386561036109924e-01" purity="2.0055285096168518e-01" nType="-99"/>
          </Node>
          <Node pos="r" depth="2" NCoef="0" IVar="-1" Cut="0.0000000000000000e+00" cType="1" res="-1.9588980823755264e-02" rms="3.3373531699180603e-01" purity="5.9001767635345459e-01" nType="-99"/>
        </Node>
      </Node>
    </BinaryTree>
    <BinaryTree type="DecisionTree" boostWeight="1.0000000000000000e+00" itree="464">
      <Node pos="s" depth="0" NCoef="0" IVar="10" Cut="1.9999972581863403e+00" cType="1" res="2.6161749847233295e-03" rms="3.0102032423019409e-01" purity="5.0162690877914429e-01" nType="0">
        <Node pos="l" depth="1" NCoef="0" IVar="10" Cut="-1.8857157230377197e+00" cType="1" res="1.0075232712551951e-03" rms="2.9902428388595581e-01" purity="5.1005208492279053e-01" nType="0">
          <Node pos="l" depth="2" NCoef="0" IVar="5" Cut="1.1578482055664062e+02" cType="1" res="-1.8372640013694763e-02" rms="2.8725641965866089e-01" purity="3.1962099671363831e-01" nType="0">
            <Node pos="l" depth="3" NCoef="0" IVar="-1" Cut="0.0000000000000000e+00" cType="1" res="-9.7918994724750519e-03" rms="2.4767884612083435e-01" purity="1.3985277712345123e-01" nType="-99"/>
            <Node pos="r" depth="3" NCoef="0" IVar="-1" Cut="0.0000000000000000e+00" cType="1" res="-2.7574449777603149e-02" rms="3.2266837358474731e-01" purity="5.0540167093276978e-01" nType="-99"/>
          </Node>
          <Node pos="r" depth="2" NCoef="0" IVar="8" Cut="1.7333078384399414e+00" cType="1" res="2.3261110763996840e-03" rms="2.9976263642311096e-01" purity="5.2300864458084106e-01" nType="0">
            <Node pos="l" depth="3" NCoef="0" IVar="-1" Cut="0.0000000000000000e+00" cType="1" res="1.2534873094409704e-03" rms="3.0019965767860413e-01" purity="5.4216796159744263e-01" nType="-99"/>
            <Node pos="r" depth="3" NCoef="0" IVar="-1" Cut="0.0000000000000000e+00" cType="1" res="3.4221798181533813e-02" rms="2.9096564650535583e-01" purity="1.7987315356731415e-01" nType="-99"/>
          </Node>
        </Node>
        <Node pos="r" depth="1" NCoef="0" IVar="7" Cut="2.0188659429550171e-01" cType="1" res="3.0990105122327805e-02" rms="3.3299887180328369e-01" purity="3.5301962494850159e-01" nType="0">
          <Node pos="l" depth="2" NCoef="0" IVar="-1" Cut="0.0000000000000000e+00" cType="1" res="4.3460886925458908e-02" rms="3.3765286207199097e-01" purity="3.7393853068351746e-01" nType="-99"/>
          <Node pos="r" depth="2" NCoef="0" IVar="-1" Cut="0.0000000000000000e+00" cType="1" res="2.1480504423379898e-02" rms="3.2730725407600403e-01" purity="3.2956841588020325e-01" nType="-99"/>
        </Node>
      </Node>
    </BinaryTree>
    <BinaryTree type="DecisionTree" boostWeight="1.0000000000000000e+00" itree="465">
      <Node pos="s" depth="0" NCoef="0" IVar="10" Cut="-4.0000560879707336e-01" cType="1" res="-2.0783299114555120e-03" rms="2.9565995931625366e-01" purity="4.9708411097526550e-01" nType="0">
        <Node pos="l" depth="1" NCoef="0" IVar="8" Cut="9.3328565359115601e-01" cType="1" res="-7.7853077091276646e-03" rms="2.9179173707962036e-01" purity="4.7591766715049744e-01" nType="0">
          <Node pos="l" depth="2" NCoef="0" IVar="6" Cut="8.1792259216308594e+01" cType="1" res="-4.8811566084623337e-03" rms="2.9251688718795776e-01" purity="5.0813376903533936e-01" nType="0">
            <Node pos="l" depth="3" NCoef="0" IVar="-1" Cut="0.0000000000000000e+00" cType="1" res="-1.4965709298849106e-02" rms="2.9026517271995544e-01" purity="2.3897896707057953e-01" nType="-99"/>
            <Node pos="r" depth="3" NCoef="0" IVar="-1" Cut="0.0000000000000000e+00" cType="1" res="1.7631569644436240e-03" rms="2.9411751031875610e-01" purity="7.2042578458786011e-01" nType="-99"/>
          </Node>
          <Node pos="r" depth="2" NCoef="0" IVar="8" Cut="1.3777440786361694e+00" cType="1" res="-2.3413117974996567e-02" rms="2.8735467791557312e-01" purity="3.0255618691444397e-01" nType="0">
            <Node pos="l" depth="3" NCoef="0" IVar="-1" Cut="0.0000000000000000e+00" cType="1" res="-4.4082574546337128e-02" rms="3.0114454030990601e-01" purity="3.9043834805488586e-01" nType="-99"/>
            <Node pos="r" depth="3" NCoef="0" IVar="-1" Cut="0.0000000000000000e+00" cType="1" res="-8.6863953620195389e-03" rms="2.7426499128341675e-01" purity="2.2917564213275909e-01" nType="-99"/>
          </Node>
        </Node>
        <Node pos="r" depth="1" NCoef="0" IVar="9" Cut="-1.2000987529754639e+00" cType="1" res="1.3841493055224419e-03" rms="2.9792910814285278e-01" purity="5.0992602109909058e-01" nType="0">
          <Node pos="l" depth="2" NCoef="0" IVar="6" Cut="7.1862892150878906e+01" cType="1" res="1.3362231664359570e-02" rms="3.1942048668861389e-01" purity="3.8499534130096436e-01" nType="0">
            <Node pos="l" depth="3" NCoef="0" IVar="-1" Cut="0.0000000000000000e+00" cType="1" res="3.3666908740997314e-02" rms="2.9204466938972473e-01" purity="1.8038429319858551e-01" nType="-99"/>
            <Node pos="r" depth="3" NCoef="0" IVar="-1" Cut="0.0000000000000000e+00" cType="1" res="4.4917208142578602e-03" rms="3.3768343925476074e-01" purity="5.3379881381988525e-01" nType="-99"/>
          </Node>
          <Node pos="r" depth="2" NCoef="0" IVar="3" Cut="6.3790600585937500e+02" cType="1" res="-4.8166781198233366e-04" rms="2.9439637064933777e-01" purity="5.2938640117645264e-01" nType="0">
            <Node pos="l" depth="3" NCoef="0" IVar="-1" Cut="0.0000000000000000e+00" cType="1" res="1.4444134430959821e-03" rms="2.9563012719154358e-01" purity="4.9197605252265930e-01" nType="-99"/>
            <Node pos="r" depth="3" NCoef="0" IVar="-1" Cut="0.0000000000000000e+00" cType="1" res="-1.6184391453862190e-02" rms="2.8519368171691895e-01" purity="7.9439061880111694e-01" nType="-99"/>
          </Node>
        </Node>
      </Node>
    </BinaryTree>
    <BinaryTree type="DecisionTree" boostWeight="1.0000000000000000e+00" itree="466">
      <Node pos="s" depth="0" NCoef="0" IVar="2" Cut="2.0562212914228439e-02" cType="1" res="4.1895204049069434e-05" rms="2.9634141921997070e-01" purity="5.0427621603012085e-01" nType="0">
        <Node pos="l" depth="1" NCoef="0" IVar="2" Cut="8.8124759495258331e-03" cType="1" res="-5.5622430518269539e-03" rms="2.7514085173606873e-01" purity="2.2986416518688202e-01" nType="0">
          <Node pos="l" depth="2" NCoef="0" IVar="0" Cut="6.0413507080078125e+02" cType="1" res="2.0007872954010963e-03" rms="2.5841218233108521e-01" purity="1.7583870887756348e-01" nType="0">
            <Node pos="l" depth="3" NCoef="0" IVar="-1" Cut="0.0000000000000000e+00" cType="1" res="1.2590849772095680e-02" rms="2.3752413690090179e-01" purity="1.0598758608102798e-01" nType="-99"/>
            <Node pos="r" depth="3" NCoef="0" IVar="-1" Cut="0.0000000000000000e+00" cType="1" res="-2.2446421906352043e-02" rms="3.5921522974967957e-01" purity="6.0326164960861206e-01" nType="-99"/>
          </Node>
          <Node pos="r" depth="2" NCoef="0" IVar="6" Cut="6.9413848876953125e+01" cType="1" res="-1.4115815982222557e-02" rms="2.9267603158950806e-01" purity="2.9096543788909912e-01" nType="0">
            <Node pos="l" depth="3" NCoef="0" IVar="-1" Cut="0.0000000000000000e+00" cType="1" res="3.3691895660012960e-03" rms="2.6786169409751892e-01" purity="1.5523339807987213e-01" nType="-99"/>
            <Node pos="r" depth="3" NCoef="0" IVar="-1" Cut="0.0000000000000000e+00" cType="1" res="-2.5566218420863152e-02" rms="3.0952513217926025e-01" purity="3.9347216486930847e-01" nType="-99"/>
          </Node>
        </Node>
        <Node pos="r" depth="1" NCoef="0" IVar="1" Cut="1.3096516113281250e+03" cType="1" res="2.9895924963057041e-03" rms="3.0686435103416443e-01" purity="6.4861309528350830e-01" nType="0">
          <Node pos="l" depth="2" NCoef="0" IVar="6" Cut="7.4519073486328125e+01" cType="1" res="1.1190435849130154e-02" rms="3.4786736965179443e-01" purity="2.1305681765079498e-01" nType="0">
            <Node pos="l" depth="3" NCoef="0" IVar="-1" Cut="0.0000000000000000e+00" cType="1" res="-6.2732500955462456e-03" rms="2.8532567620277405e-01" purity="1.1809103935956955e-01" nType="-99"/>
            <Node pos="r" depth="3" NCoef="0" IVar="-1" Cut="0.0000000000000000e+00" cType="1" res="1.9148571416735649e-02" rms="4.0411341190338135e-01" purity="3.1598439812660217e-01" nType="-99"/>
          </Node>
          <Node pos="r" depth="2" NCoef="0" IVar="0" Cut="4.1502651977539062e+02" cType="1" res="-1.0991060407832265e-03" rms="2.8413179516792297e-01" purity="8.6576861143112183e-01" nType="0">
            <Node pos="l" depth="3" NCoef="0" IVar="-1" Cut="0.0000000000000000e+00" cType="1" res="-7.0430878549814224e-03" rms="3.9592224359512329e-01" purity="6.6485899686813354e-01" nType="-99"/>
            <Node pos="r" depth="3" NCoef="0" IVar="-1" Cut="0.0000000000000000e+00" cType="1" res="1.1379611678421497e-03" rms="2.5798162817955017e-01" purity="9.0317428112030029e-01" nType="-99"/>
          </Node>
        </Node>
      </Node>
    </BinaryTree>
    <BinaryTree type="DecisionTree" boostWeight="1.0000000000000000e+00" itree="467">
      <Node pos="s" depth="0" NCoef="0" IVar="8" Cut="4.0003180503845215e-01" cType="1" res="-5.4155773250386119e-04" rms="2.9926842451095581e-01" purity="4.9613609910011292e-01" nType="0">
        <Node pos="l" depth="1" NCoef="0" IVar="10" Cut="-1.7332956790924072e+00" cType="1" res="-3.3336998894810677e-03" rms="2.9746040701866150e-01" purity="5.1982146501541138e-01" nType="0">
          <Node pos="l" depth="2" NCoef="0" IVar="8" Cut="-6.6620057821273804e-01" cType="1" res="8.1544276326894760e-03" rms="3.1760200858116150e-01" purity="3.6031812429428101e-01" nType="0">
            <Node pos="l" depth="3" NCoef="0" IVar="-1" Cut="0.0000000000000000e+00" cType="1" res="2.4614240974187851e-02" rms="3.0605930089950562e-01" purity="2.7111226320266724e-01" nType="-99"/>
            <Node pos="r" depth="3" NCoef="0" IVar="-1" Cut="0.0000000000000000e+00" cType="1" res="-4.6979412436485291e-03" rms="3.2839840650558472e-01" purity="4.5084843039512634e-01" nType="-99"/>
          </Node>
          <Node pos="r" depth="2" NCoef="0" IVar="10" Cut="-1.3015503883361816e+00" cType="1" res="-4.4333343394100666e-03" rms="2.9543703794479370e-01" purity="5.3508907556533813e-01" nType="0">
            <Node pos="l" depth="3" NCoef="0" IVar="-1" Cut="0.0000000000000000e+00" cType="1" res="-2.1967386826872826e-02" rms="2.9323893785476685e-01" purity="4.7722110152244568e-01" nType="-99"/>
            <Node pos="r" depth="3" NCoef="0" IVar="-1" Cut="0.0000000000000000e+00" cType="1" res="-3.5563767887651920e-03" rms="2.9558983445167542e-01" purity="5.4006123542785645e-01" nType="-99"/>
          </Node>
        </Node>
        <Node pos="r" depth="1" NCoef="0" IVar="3" Cut="4.5449395751953125e+02" cType="1" res="4.5640985481441021e-03" rms="3.0247995257377625e-01" purity="4.5282548666000366e-01" nType="0">
          <Node pos="l" depth="2" NCoef="0" IVar="2" Cut="4.0179211646318436e-02" cType="1" res="4.3136344174854457e-04" rms="3.0143836140632629e-01" purity="3.2979422807693481e-01" nType="0">
            <Node pos="l" depth="3" NCoef="0" IVar="-1" Cut="0.0000000000000000e+00" cType="1" res="-9.5698256045579910e-03" rms="2.6431494951248169e-01" purity="1.5696650743484497e-01" nType="-99"/>
            <Node pos="r" depth="3" NCoef="0" IVar="-1" Cut="0.0000000000000000e+00" cType="1" res="9.5296530053019524e-03" rms="3.4747979044914246e-01" purity="5.7720983028411865e-01" nType="-99"/>
          </Node>
          <Node pos="r" depth="2" NCoef="0" IVar="9" Cut="9.3268543481826782e-01" cType="1" res="1.2321544811129570e-02" rms="3.0427399277687073e-01" purity="6.8376404047012329e-01" nType="0">
            <Node pos="l" depth="3" NCoef="0" IVar="-1" Cut="0.0000000000000000e+00" cType="1" res="2.3399782367050648e-03" rms="2.9512700438499451e-01" purity="7.0342880487442017e-01" nType="-99"/>
            <Node pos="r" depth="3" NCoef="0" IVar="-1" Cut="0.0000000000000000e+00" cType="1" res="4.2138352990150452e-02" rms="3.2967811822891235e-01" purity="6.2096571922302246e-01" nType="-99"/>
          </Node>
        </Node>
      </Node>
    </BinaryTree>
    <BinaryTree type="DecisionTree" boostWeight="1.0000000000000000e+00" itree="468">
      <Node pos="s" depth="0" NCoef="0" IVar="2" Cut="2.1328758448362350e-02" cType="1" res="1.2545804493129253e-03" rms="2.9674819111824036e-01" purity="5.0093901157379150e-01" nType="0">
        <Node pos="l" depth="1" NCoef="0" IVar="3" Cut="4.5449765014648438e+02" cType="1" res="-3.7125730887055397e-03" rms="2.7111563086509705e-01" purity="2.4512583017349243e-01" nType="0">
          <Node pos="l" depth="2" NCoef="0" IVar="3" Cut="2.3636018371582031e+02" cType="1" res="-8.5934968665242195e-03" rms="2.3634098470211029e-01" purity="1.2667287886142731e-01" nType="0">
            <Node pos="l" depth="3" NCoef="0" IVar="-1" Cut="0.0000000000000000e+00" cType="1" res="2.6317214593291283e-02" rms="2.0105724036693573e-01" purity="5.0500307232141495e-02" nType="-99"/>
            <Node pos="r" depth="3" NCoef="0" IVar="-1" Cut="0.0000000000000000e+00" cType="1" res="-1.7113903537392616e-02" rms="2.4143433570861816e-01" purity="1.3896854221820831e-01" nType="-99"/>
          </Node>
          <Node pos="r" depth="2" NCoef="0" IVar="2" Cut="6.0940701514482498e-03" cType="1" res="5.0738137215375900e-03" rms="3.2426863908767700e-01" purity="4.5835867524147034e-01" nType="0">
            <Node pos="l" depth="3" NCoef="0" IVar="-1" Cut="0.0000000000000000e+00" cType="1" res="-2.3147493600845337e-02" rms="2.8835520148277283e-01" purity="2.8645163774490356e-01" nType="-99"/>
            <Node pos="r" depth="3" NCoef="0" IVar="-1" Cut="0.0000000000000000e+00" cType="1" res="1.7251938581466675e-02" rms="3.4209942817687988e-01" purity="5.5643951892852783e-01" nType="-99"/>
          </Node>
        </Node>
        <Node pos="r" depth="1" NCoef="0" IVar="1" Cut="1.3751512451171875e+03" cType="1" res="4.0736915543675423e-03" rms="3.1032028794288635e-01" purity="6.4612597227096558e-01" nType="0">
          <Node pos="l" depth="2" NCoef="0" IVar="8" Cut="-4.0332156419754028e-01" cType="1" res="1.2112685479223728e-02" rms="3.6426913738250732e-01" purity="2.5262391567230225e-01" nType="0">
            <Node pos="l" depth="3" NCoef="0" IVar="-1" Cut="0.0000000000000000e+00" cType="1" res="2.4557212367653847e-02" rms="3.7206369638442993e-01" purity="2.5845384597778320e-01" nType="-99"/>
            <Node pos="r" depth="3" NCoef="0" IVar="-1" Cut="0.0000000000000000e+00" cType="1" res="1.2096300488337874e-03" rms="3.5936915874481201e-01" purity="2.4933701753616333e-01" nType="-99"/>
          </Node>
          <Node pos="r" depth="2" NCoef="0" IVar="7" Cut="-5.9484863281250000e-01" cType="1" res="-8.1007881090044975e-04" rms="2.7226138114929199e-01" purity="8.8518232107162476e-01" nType="0">
            <Node pos="l" depth="3" NCoef="0" IVar="-1" Cut="0.0000000000000000e+00" cType="1" res="-1.1742328293621540e-02" rms="3.1361943483352661e-01" purity="8.2972598075866699e-01" nType="-99"/>
            <Node pos="r" depth="3" NCoef="0" IVar="-1" Cut="0.0000000000000000e+00" cType="1" res="1.6747108893468976e-03" rms="2.6338005065917969e-01" purity="8.9601475000381470e-01" nType="-99"/>
          </Node>
        </Node>
      </Node>
    </BinaryTree>
    <BinaryTree type="DecisionTree" boostWeight="1.0000000000000000e+00" itree="469">
      <Node pos="s" depth="0" NCoef="0" IVar="7" Cut="-6.5973514318466187e-01" cType="1" res="-1.5959570882841945e-03" rms="2.9627823829650879e-01" purity="4.9804049730300903e-01" nType="0">
        <Node pos="l" depth="1" NCoef="0" IVar="2" Cut="1.6667712479829788e-02" cType="1" res="3.7858253344893456e-03" rms="2.9231616854667664e-01" purity="3.4952762722969055e-01" nType="0">
          <Node pos="l" depth="2" NCoef="0" IVar="8" Cut="3.9987534284591675e-01" cType="1" res="-4.9310782924294472e-03" rms="2.3745335638523102e-01" purity="1.3100828230381012e-01" nType="0">
            <Node pos="l" depth="3" NCoef="0" IVar="-1" Cut="0.0000000000000000e+00" cType="1" res="8.7332613766193390e-03" rms="2.5553837418556213e-01" purity="1.5827552974224091e-01" nType="-99"/>
            <Node pos="r" depth="3" NCoef="0" IVar="-1" Cut="0.0000000000000000e+00" cType="1" res="-4.5479159802198410e-02" rms="1.9717511534690857e-01" purity="7.9364620149135590e-02" nType="-99"/>
          </Node>
          <Node pos="r" depth="2" NCoef="0" IVar="6" Cut="7.7677368164062500e+01" cType="1" res="1.0625689290463924e-02" rms="3.2885921001434326e-01" purity="5.2099245786666870e-01" nType="0">
            <Node pos="l" depth="3" NCoef="0" IVar="-1" Cut="0.0000000000000000e+00" cType="1" res="3.4044656902551651e-02" rms="3.3284202218055725e-01" purity="2.4572725594043732e-01" nType="-99"/>
            <Node pos="r" depth="3" NCoef="0" IVar="-1" Cut="0.0000000000000000e+00" cType="1" res="3.7116219755262136e-04" rms="3.2647007703781128e-01" purity="6.5036433935165405e-01" nType="-99"/>
          </Node>
        </Node>
        <Node pos="r" depth="1" NCoef="0" IVar="6" Cut="1.1358435058593750e+02" cType="1" res="-3.1797555275261402e-03" rms="2.9741561412811279e-01" purity="5.4174619913101196e-01" nType="0">
          <Node pos="l" depth="2" NCoef="0" IVar="2" Cut="6.1686191707849503e-02" cType="1" res="-7.1808644570410252e-03" rms="3.1688785552978516e-01" purity="3.5275042057037354e-01" nType="0">
            <Node pos="l" depth="3" NCoef="0" IVar="-1" Cut="0.0000000000000000e+00" cType="1" res="-4.1724131442606449e-03" rms="3.0343389511108398e-01" purity="2.8109535574913025e-01" nType="-99"/>
            <Node pos="r" depth="3" NCoef="0" IVar="-1" Cut="0.0000000000000000e+00" cType="1" res="-1.3701818883419037e-02" rms="3.5276979207992554e-01" purity="5.6007581949234009e-01" nType="-99"/>
          </Node>
          <Node pos="r" depth="2" NCoef="0" IVar="0" Cut="4.1918161010742188e+02" cType="1" res="3.6794112529605627e-03" rms="2.6052853465080261e-01" purity="8.6574470996856689e-01" nType="0">
            <Node pos="l" depth="3" NCoef="0" IVar="-1" Cut="0.0000000000000000e+00" cType="1" res="1.2969757430255413e-02" rms="3.9166614413261414e-01" purity="6.2254446744918823e-01" nType="-99"/>
            <Node pos="r" depth="3" NCoef="0" IVar="-1" Cut="0.0000000000000000e+00" cType="1" res="-1.7182104056701064e-03" rms="2.0889066159725189e-01" purity="9.3441402912139893e-01" nType="-99"/>
          </Node>
        </Node>
      </Node>
    </BinaryTree>
    <BinaryTree type="DecisionTree" boostWeight="1.0000000000000000e+00" itree="470">
      <Node pos="s" depth="0" NCoef="0" IVar="10" Cut="-3.9999979734420776e-01" cType="1" res="1.5022994484752417e-03" rms="2.9787585139274597e-01" purity="4.9750438332557678e-01" nType="0">
        <Node pos="l" depth="1" NCoef="0" IVar="10" Cut="-2.2285659313201904e+00" cType="1" res="7.0609292015433311e-03" rms="3.0097818374633789e-01" purity="4.8310074210166931e-01" nType="0">
          <Node pos="l" depth="2" NCoef="0" IVar="-1" Cut="0.0000000000000000e+00" cType="1" res="-1.8928926438093185e-02" rms="2.8338411450386047e-01" purity="2.7244469523429871e-01" nType="-99"/>
          <Node pos="r" depth="2" NCoef="0" IVar="3" Cut="4.5039764404296875e+02" cType="1" res="9.1161271557211876e-03" rms="3.0243006348609924e-01" purity="5.0209712982177734e-01" nType="0">
            <Node pos="l" depth="3" NCoef="0" IVar="-1" Cut="0.0000000000000000e+00" cType="1" res="1.4494382776319981e-02" rms="3.0988678336143494e-01" purity="3.8745525479316711e-01" nType="-99"/>
            <Node pos="r" depth="3" NCoef="0" IVar="-1" Cut="0.0000000000000000e+00" cType="1" res="1.3175909407436848e-03" rms="2.8873831033706665e-01" purity="7.0282858610153198e-01" nType="-99"/>
          </Node>
        </Node>
        <Node pos="r" depth="1" NCoef="0" IVar="7" Cut="-1.2760688364505768e-01" cType="1" res="-1.9494022708386183e-03" rms="2.9588049650192261e-01" purity="5.0644850730895996e-01" nType="0">
          <Node pos="l" depth="2" NCoef="0" IVar="8" Cut="1.1998273134231567e+00" cType="1" res="-6.6258590668439865e-03" rms="2.9553380608558655e-01" purity="4.9803143739700317e-01" nType="0">
            <Node pos="l" depth="3" NCoef="0" IVar="-1" Cut="0.0000000000000000e+00" cType="1" res="-1.0459176264703274e-02" rms="2.9544162750244141e-01" purity="5.3553742170333862e-01" nType="-99"/>
            <Node pos="r" depth="3" NCoef="0" IVar="-1" Cut="0.0000000000000000e+00" cType="1" res="1.3726523146033287e-02" rms="2.9548832774162292e-01" purity="2.5768974423408508e-01" nType="-99"/>
          </Node>
          <Node pos="r" depth="2" NCoef="0" IVar="1" Cut="1.4400653076171875e+03" cType="1" res="1.2935114791616797e-03" rms="2.9607728123664856e-01" purity="5.1228541135787964e-01" nType="0">
            <Node pos="l" depth="3" NCoef="0" IVar="-1" Cut="0.0000000000000000e+00" cType="1" res="7.1362135931849480e-03" rms="3.1206113100051880e-01" purity="1.9525992870330811e-01" nType="-99"/>
            <Node pos="r" depth="3" NCoef="0" IVar="-1" Cut="0.0000000000000000e+00" cType="1" res="-5.6659304536879063e-03" rms="2.7837231755256653e-01" purity="8.4185993671417236e-01" nType="-99"/>
          </Node>
        </Node>
      </Node>
    </BinaryTree>
    <BinaryTree type="DecisionTree" boostWeight="1.0000000000000000e+00" itree="471">
      <Node pos="s" depth="0" NCoef="0" IVar="9" Cut="-1.4666872024536133e+00" cType="1" res="2.5144033133983612e-03" rms="2.9853558540344238e-01" purity="5.0152969360351562e-01" nType="0">
        <Node pos="l" depth="1" NCoef="0" IVar="10" Cut="4.0010541677474976e-01" cType="1" res="-9.6408464014530182e-03" rms="2.8908452391624451e-01" purity="2.8700089454650879e-01" nType="0">
          <Node pos="l" depth="2" NCoef="0" IVar="7" Cut="-3.7346845865249634e-01" cType="1" res="-1.0624672286212444e-03" rms="2.9172277450561523e-01" purity="2.9385408759117126e-01" nType="0">
            <Node pos="l" depth="3" NCoef="0" IVar="-1" Cut="0.0000000000000000e+00" cType="1" res="-1.9465990364551544e-02" rms="2.6875212788581848e-01" purity="2.2213555872440338e-01" nType="-99"/>
            <Node pos="r" depth="3" NCoef="0" IVar="-1" Cut="0.0000000000000000e+00" cType="1" res="9.9500128999352455e-03" rms="3.0754715204238892e-01" purity="3.4818774461746216e-01" nType="-99"/>
          </Node>
          <Node pos="r" depth="2" NCoef="0" IVar="-1" Cut="0.0000000000000000e+00" cType="1" res="-3.1707137823104858e-02" rms="2.8270983695983887e-01" purity="2.7279534935951233e-01" nType="-99"/>
        </Node>
        <Node pos="r" depth="1" NCoef="0" IVar="6" Cut="8.5090957641601562e+01" cType="1" res="3.8736471906304359e-03" rms="2.9954326152801514e-01" purity="5.2551907300949097e-01" nType="0">
          <Node pos="l" depth="2" NCoef="0" IVar="1" Cut="1.3157363281250000e+03" cType="1" res="8.3236433565616608e-03" rms="3.0469590425491333e-01" purity="2.7017113566398621e-01" nType="0">
            <Node pos="l" depth="3" NCoef="0" IVar="-1" Cut="0.0000000000000000e+00" cType="1" res="6.7057223059237003e-03" rms="2.6242071390151978e-01" purity="9.7075171768665314e-02" nType="-99"/>
            <Node pos="r" depth="3" NCoef="0" IVar="-1" Cut="0.0000000000000000e+00" cType="1" res="1.1429925449192524e-02" rms="3.7396770715713501e-01" purity="6.1022329330444336e-01" nType="-99"/>
          </Node>
          <Node pos="r" depth="2" NCoef="0" IVar="7" Cut="-1.1603770256042480e+00" cType="1" res="6.3095576479099691e-05" rms="2.9500618577003479e-01" purity="7.4417471885681152e-01" nType="0">
            <Node pos="l" depth="3" NCoef="0" IVar="-1" Cut="0.0000000000000000e+00" cType="1" res="2.0869452506303787e-02" rms="3.3974695205688477e-01" purity="4.2220818996429443e-01" nType="-99"/>
            <Node pos="r" depth="3" NCoef="0" IVar="-1" Cut="0.0000000000000000e+00" cType="1" res="-2.0430728327482939e-03" rms="2.9115295410156250e-01" purity="7.6924455165863037e-01" nType="-99"/>
          </Node>
        </Node>
      </Node>
    </BinaryTree>
    <BinaryTree type="DecisionTree" boostWeight="1.0000000000000000e+00" itree="472">
      <Node pos="s" depth="0" NCoef="0" IVar="10" Cut="-2.2666594982147217e+00" cType="1" res="-2.1642707288265228e-03" rms="2.9627054929733276e-01" purity="4.9892824888229370e-01" nType="0">
        <Node pos="l" depth="1" NCoef="0" IVar="-1" Cut="0.0000000000000000e+00" cType="1" res="2.8602732345461845e-02" rms="3.1680247187614441e-01" purity="3.2023736834526062e-01" nType="-99"/>
        <Node pos="r" depth="1" NCoef="0" IVar="8" Cut="-4.0000954270362854e-01" cType="1" res="-2.9968910384923220e-03" rms="2.9557135701179504e-01" purity="5.0447589159011841e-01" nType="0">
          <Node pos="l" depth="2" NCoef="0" IVar="9" Cut="-1.3338361680507660e-01" cType="1" res="-8.8619897142052650e-03" rms="2.9552263021469116e-01" purity="4.4923120737075806e-01" nType="0">
            <Node pos="l" depth="3" NCoef="0" IVar="-1" Cut="0.0000000000000000e+00" cType="1" res="-1.9744163379073143e-02" rms="2.8837835788726807e-01" purity="4.1082513332366943e-01" nType="-99"/>
            <Node pos="r" depth="3" NCoef="0" IVar="-1" Cut="0.0000000000000000e+00" cType="1" res="-8.9402945013716817e-04" rms="3.0187684297561646e-01" purity="4.8540693521499634e-01" nType="-99"/>
          </Node>
          <Node pos="r" depth="2" NCoef="0" IVar="2" Cut="2.0476542413234711e-02" cType="1" res="1.2171310663688928e-04" rms="2.9554986953735352e-01" purity="5.3385072946548462e-01" nType="0">
            <Node pos="l" depth="3" NCoef="0" IVar="-1" Cut="0.0000000000000000e+00" cType="1" res="8.2242311909794807e-03" rms="2.8515681624412537e-01" purity="2.6129049062728882e-01" nType="-99"/>
            <Node pos="r" depth="3" NCoef="0" IVar="-1" Cut="0.0000000000000000e+00" cType="1" res="-3.2330462709069252e-03" rms="3.0035984516143799e-01" purity="6.6463196277618408e-01" nType="-99"/>
          </Node>
        </Node>
      </Node>
    </BinaryTree>
    <BinaryTree type="DecisionTree" boostWeight="1.0000000000000000e+00" itree="473">
      <Node pos="s" depth="0" NCoef="0" IVar="9" Cut="-9.3336319923400879e-01" cType="1" res="-1.0652958735590801e-04" rms="2.9774639010429382e-01" purity="4.9890381097793579e-01" nType="0">
        <Node pos="l" depth="1" NCoef="0" IVar="8" Cut="-9.3349409103393555e-01" cType="1" res="-9.1373529285192490e-03" rms="2.9246383905410767e-01" purity="3.7573409080505371e-01" nType="0">
          <Node pos="l" depth="2" NCoef="0" IVar="-1" Cut="0.0000000000000000e+00" cType="1" res="-3.2015427947044373e-02" rms="2.4938134849071503e-01" purity="2.1005348861217499e-01" nType="-99"/>
          <Node pos="r" depth="2" NCoef="0" IVar="5" Cut="1.3448260498046875e+02" cType="1" res="-4.3194098398089409e-03" rms="3.0494001507759094e-01" purity="4.2930713295936584e-01" nType="0">
            <Node pos="l" depth="3" NCoef="0" IVar="-1" Cut="0.0000000000000000e+00" cType="1" res="5.0986232236027718e-03" rms="2.9402771592140198e-01" purity="2.0688945055007935e-01" nType="-99"/>
            <Node pos="r" depth="3" NCoef="0" IVar="-1" Cut="0.0000000000000000e+00" cType="1" res="-1.3730118982493877e-02" rms="3.1663432717323303e-01" purity="6.8285781145095825e-01" nType="-99"/>
          </Node>
        </Node>
        <Node pos="r" depth="1" NCoef="0" IVar="10" Cut="-1.1999921798706055e+00" cType="1" res="2.1906711626797915e-03" rms="2.9903173446655273e-01" purity="5.3023487329483032e-01" nType="0">
          <Node pos="l" depth="2" NCoef="0" IVar="8" Cut="-4.0004438161849976e-01" cType="1" res="-8.4017226472496986e-03" rms="2.9452455043792725e-01" purity="4.7541072964668274e-01" nType="0">
            <Node pos="l" depth="3" NCoef="0" IVar="-1" Cut="0.0000000000000000e+00" cType="1" res="-3.1160034239292145e-02" rms="2.7816945314407349e-01" purity="3.8529297709465027e-01" nType="-99"/>
            <Node pos="r" depth="3" NCoef="0" IVar="-1" Cut="0.0000000000000000e+00" cType="1" res="3.4879415761679411e-03" rms="3.0333015322685242e-01" purity="5.2952313423156738e-01" nType="-99"/>
          </Node>
          <Node pos="r" depth="2" NCoef="0" IVar="8" Cut="-6.6667419672012329e-01" cType="1" res="4.2873886413872242e-03" rms="2.9987150430679321e-01" purity="5.4108715057373047e-01" nType="0">
            <Node pos="l" depth="3" NCoef="0" IVar="-1" Cut="0.0000000000000000e+00" cType="1" res="1.7511872574687004e-02" rms="3.1336084008216858e-01" purity="4.7427102923393250e-01" nType="-99"/>
            <Node pos="r" depth="3" NCoef="0" IVar="-1" Cut="0.0000000000000000e+00" cType="1" res="3.1429572845809162e-04" rms="2.9534506797790527e-01" purity="5.6230813264846802e-01" nType="-99"/>
          </Node>
        </Node>
      </Node>
    </BinaryTree>
    <BinaryTree type="DecisionTree" boostWeight="1.0000000000000000e+00" itree="474">
      <Node pos="s" depth="0" NCoef="0" IVar="9" Cut="9.3332177400588989e-01" cType="1" res="1.6582914395257831e-03" rms="2.9944986104965210e-01" purity="4.9929270148277283e-01" nType="0">
        <Node pos="l" depth="1" NCoef="0" IVar="10" Cut="6.6669535636901855e-01" cType="1" res="3.9079673588275909e-03" rms="2.9961013793945312e-01" purity="5.2605658769607544e-01" nType="0">
          <Node pos="l" depth="2" NCoef="0" IVar="10" Cut="-9.8408257961273193e-01" cType="1" res="6.3723704079166055e-04" rms="2.9582276940345764e-01" purity="5.3041690587997437e-01" nType="0">
            <Node pos="l" depth="3" NCoef="0" IVar="-1" Cut="0.0000000000000000e+00" cType="1" res="7.9947747290134430e-03" rms="3.0109807848930359e-01" purity="4.7091010212898254e-01" nType="-99"/>
            <Node pos="r" depth="3" NCoef="0" IVar="-1" Cut="0.0000000000000000e+00" cType="1" res="-2.9410028364509344e-03" rms="2.9318556189537048e-01" purity="5.5917209386825562e-01" nType="-99"/>
          </Node>
          <Node pos="r" depth="2" NCoef="0" IVar="7" Cut="2.0148490369319916e-01" cType="1" res="1.1784900911152363e-02" rms="3.0839821696281433e-01" purity="5.1555562019348145e-01" nType="0">
            <Node pos="l" depth="3" NCoef="0" IVar="-1" Cut="0.0000000000000000e+00" cType="1" res="2.3277657106518745e-02" rms="3.1374311447143555e-01" purity="5.6774818897247314e-01" nType="-99"/>
            <Node pos="r" depth="3" NCoef="0" IVar="-1" Cut="0.0000000000000000e+00" cType="1" res="-1.2890228535979986e-03" rms="3.0100652575492859e-01" purity="4.4955047965049744e-01" nType="-99"/>
          </Node>
        </Node>
        <Node pos="r" depth="1" NCoef="0" IVar="2" Cut="2.0562276244163513e-02" cType="1" res="-6.6595585085451603e-03" rms="2.9870948195457458e-01" purity="4.0033710002899170e-01" nType="0">
          <Node pos="l" depth="2" NCoef="0" IVar="7" Cut="-8.8183574378490448e-02" cType="1" res="-1.8224466592073441e-02" rms="2.4639031291007996e-01" purity="1.4387112855911255e-01" nType="0">
            <Node pos="l" depth="3" NCoef="0" IVar="-1" Cut="0.0000000000000000e+00" cType="1" res="-4.8343315720558167e-02" rms="2.3578400909900665e-01" purity="1.2008187919855118e-01" nType="-99"/>
            <Node pos="r" depth="3" NCoef="0" IVar="-1" Cut="0.0000000000000000e+00" cType="1" res="-1.1287610977888107e-02" rms="2.5253236293792725e-01" purity="1.5945918858051300e-01" nType="-99"/>
          </Node>
          <Node pos="r" depth="2" NCoef="0" IVar="7" Cut="3.3312538266181946e-01" cType="1" res="5.9530255384743214e-04" rms="3.2708010077476501e-01" purity="5.6122249364852905e-01" nType="0">
            <Node pos="l" depth="3" NCoef="0" IVar="-1" Cut="0.0000000000000000e+00" cType="1" res="1.3311145827174187e-02" rms="3.3325687050819397e-01" purity="6.0138833522796631e-01" nType="-99"/>
            <Node pos="r" depth="3" NCoef="0" IVar="-1" Cut="0.0000000000000000e+00" cType="1" res="-2.3108426481485367e-02" rms="3.1405028700828552e-01" purity="4.8881849646568298e-01" nType="-99"/>
          </Node>
        </Node>
      </Node>
    </BinaryTree>
    <BinaryTree type="DecisionTree" boostWeight="1.0000000000000000e+00" itree="475">
      <Node pos="s" depth="0" NCoef="0" IVar="10" Cut="2.2666525840759277e+00" cType="1" res="-1.5990079846233130e-03" rms="2.9529181122779846e-01" purity="5.0142830610275269e-01" nType="0">
        <Node pos="l" depth="1" NCoef="0" IVar="1" Cut="1.7444438476562500e+03" cType="1" res="-8.9363049482926726e-04" rms="2.9590466618537903e-01" purity="5.0859576463699341e-01" nType="0">
          <Node pos="l" depth="2" NCoef="0" IVar="3" Cut="5.4253277587890625e+02" cType="1" res="-3.4195703919976950e-03" rms="3.2301327586174011e-01" purity="3.1461802124977112e-01" nType="0">
            <Node pos="l" depth="3" NCoef="0" IVar="-1" Cut="0.0000000000000000e+00" cType="1" res="-1.7947764135897160e-03" rms="3.2001018524169922e-01" purity="3.1678605079650879e-01" nType="-99"/>
            <Node pos="r" depth="3" NCoef="0" IVar="-1" Cut="0.0000000000000000e+00" cType="1" res="-1.7658771947026253e-02" rms="3.6038136482238770e-01" purity="2.8539717197418213e-01" nType="-99"/>
          </Node>
          <Node pos="r" depth="2" NCoef="0" IVar="5" Cut="1.6127203369140625e+02" cType="1" res="4.4296528212726116e-03" rms="2.2838355600833893e-01" purity="9.1739356517791748e-01" nType="0">
            <Node pos="l" depth="3" NCoef="0" IVar="-1" Cut="0.0000000000000000e+00" cType="1" res="1.2951646931469440e-02" rms="3.1986743211746216e-01" purity="8.1231814622879028e-01" nType="-99"/>
            <Node pos="r" depth="3" NCoef="0" IVar="-1" Cut="0.0000000000000000e+00" cType="1" res="4.8642395995557308e-03" rms="1.9995613396167755e-01" purity="9.4284337759017944e-01" nType="-99"/>
          </Node>
        </Node>
        <Node pos="r" depth="1" NCoef="0" IVar="-1" Cut="0.0000000000000000e+00" cType="1" res="-3.1192772090435028e-02" rms="2.7162650227546692e-01" purity="2.4862755835056305e-01" nType="-99"/>
      </Node>
    </BinaryTree>
    <BinaryTree type="DecisionTree" boostWeight="1.0000000000000000e+00" itree="476">
      <Node pos="s" depth="0" NCoef="0" IVar="7" Cut="6.7066037654876709e-01" cType="1" res="-1.3347945641726255e-03" rms="2.9751390218734741e-01" purity="4.9549952149391174e-01" nType="0">
        <Node pos="l" depth="1" NCoef="0" IVar="10" Cut="-1.2000055313110352e+00" cType="1" res="-3.6145779304206371e-03" rms="2.9987749457359314e-01" purity="5.4058212041854858e-01" nType="0">
          <Node pos="l" depth="2" NCoef="0" IVar="7" Cut="1.4398330822587013e-02" cType="1" res="5.6871231645345688e-03" rms="3.0635219812393188e-01" purity="4.6717530488967896e-01" nType="0">
            <Node pos="l" depth="3" NCoef="0" IVar="-1" Cut="0.0000000000000000e+00" cType="1" res="1.3635429553687572e-02" rms="3.0424103140830994e-01" purity="4.3372794985771179e-01" nType="-99"/>
            <Node pos="r" depth="3" NCoef="0" IVar="-1" Cut="0.0000000000000000e+00" cType="1" res="-1.0850900784134865e-02" rms="3.1091049313545227e-01" purity="5.4954689741134644e-01" nType="-99"/>
          </Node>
          <Node pos="r" depth="2" NCoef="0" IVar="1" Cut="1.7600933837890625e+03" cType="1" res="-5.7211029343307018e-03" rms="2.9835140705108643e-01" purity="5.5720633268356323e-01" nType="0">
            <Node pos="l" depth="3" NCoef="0" IVar="-1" Cut="0.0000000000000000e+00" cType="1" res="-8.0897053703665733e-03" rms="3.3262726664543152e-01" purity="3.5443779826164246e-01" nType="-99"/>
            <Node pos="r" depth="3" NCoef="0" IVar="-1" Cut="0.0000000000000000e+00" cType="1" res="7.2270602686330676e-04" rms="2.2211910784244537e-01" purity="9.2866277694702148e-01" nType="-99"/>
          </Node>
        </Node>
        <Node pos="r" depth="1" NCoef="0" IVar="8" Cut="-6.6655588150024414e-01" cType="1" res="6.3426964916288853e-03" rms="2.8928005695343018e-01" purity="3.4367755055427551e-01" nType="0">
          <Node pos="l" depth="2" NCoef="0" IVar="4" Cut="1.9381266784667969e+02" cType="1" res="-9.2517239972949028e-03" rms="2.7104341983795166e-01" purity="2.4301460385322571e-01" nType="0">
            <Node pos="l" depth="3" NCoef="0" IVar="-1" Cut="0.0000000000000000e+00" cType="1" res="4.4097886420786381e-03" rms="2.3389576375484467e-01" purity="8.6743079125881195e-02" nType="-99"/>
            <Node pos="r" depth="3" NCoef="0" IVar="-1" Cut="0.0000000000000000e+00" cType="1" res="-1.9697897136211395e-02" rms="3.0498376488685608e-01" purity="4.0830999612808228e-01" nType="-99"/>
          </Node>
          <Node pos="r" depth="2" NCoef="0" IVar="3" Cut="5.3695855712890625e+02" cType="1" res="1.1464892886579037e-02" rms="2.9484438896179199e-01" purity="3.7674167752265930e-01" nType="0">
            <Node pos="l" depth="3" NCoef="0" IVar="-1" Cut="0.0000000000000000e+00" cType="1" res="1.8201364204287529e-02" rms="2.9558515548706055e-01" purity="3.3241030573844910e-01" nType="-99"/>
            <Node pos="r" depth="3" NCoef="0" IVar="-1" Cut="0.0000000000000000e+00" cType="1" res="-1.1141126975417137e-02" rms="2.8985175490379333e-01" purity="6.1410635709762573e-01" nType="-99"/>
          </Node>
        </Node>
      </Node>
    </BinaryTree>
    <BinaryTree type="DecisionTree" boostWeight="1.0000000000000000e+00" itree="477">
      <Node pos="s" depth="0" NCoef="0" IVar="8" Cut="-1.4666000604629517e+00" cType="1" res="1.8980627646669745e-03" rms="3.0101841688156128e-01" purity="5.0013035535812378e-01" nType="0">
        <Node pos="l" depth="1" NCoef="0" IVar="8" Cut="-1.8475415706634521e+00" cType="1" res="1.8106902018189430e-02" rms="2.9246938228607178e-01" purity="2.1789532899856567e-01" nType="0">
          <Node pos="l" depth="2" NCoef="0" IVar="-1" Cut="0.0000000000000000e+00" cType="1" res="1.6377518186345696e-03" rms="2.5156658887863159e-01" purity="1.2533915042877197e-01" nType="-99"/>
          <Node pos="r" depth="2" NCoef="0" IVar="-1" Cut="0.0000000000000000e+00" cType="1" res="3.7684567272663116e-02" rms="3.2794725894927979e-01" purity="3.1193831562995911e-01" nType="-99"/>
        </Node>
        <Node pos="r" depth="1" NCoef="0" IVar="6" Cut="8.0216384887695312e+01" cType="1" res="4.0187680860981345e-04" rms="3.0175146460533142e-01" purity="5.2618253231048584e-01" nType="0">
          <Node pos="l" depth="2" NCoef="0" IVar="6" Cut="7.7338638305664062e+01" cType="1" res="4.6308818273246288e-03" rms="3.0471011996269226e-01" purity="2.5011461973190308e-01" nType="0">
            <Node pos="l" depth="3" NCoef="0" IVar="-1" Cut="0.0000000000000000e+00" cType="1" res="2.0967994350939989e-03" rms="2.9780045151710510e-01" purity="2.4121572077274323e-01" nType="-99"/>
            <Node pos="r" depth="3" NCoef="0" IVar="-1" Cut="0.0000000000000000e+00" cType="1" res="3.8552295416593552e-02" rms="3.8457325100898743e-01" purity="3.7106293439865112e-01" nType="-99"/>
          </Node>
          <Node pos="r" depth="2" NCoef="0" IVar="1" Cut="1.4006036376953125e+03" cType="1" res="-2.5783786550164223e-03" rms="2.9961302876472473e-01" purity="7.2073262929916382e-01" nType="0">
            <Node pos="l" depth="3" NCoef="0" IVar="-1" Cut="0.0000000000000000e+00" cType="1" res="-9.5922015607357025e-03" rms="3.7499544024467468e-01" purity="3.0100816488265991e-01" nType="-99"/>
            <Node pos="r" depth="3" NCoef="0" IVar="-1" Cut="0.0000000000000000e+00" cType="1" res="2.1255707833915949e-03" rms="2.6630905270576477e-01" purity="8.7577784061431885e-01" nType="-99"/>
          </Node>
        </Node>
      </Node>
    </BinaryTree>
    <BinaryTree type="DecisionTree" boostWeight="1.0000000000000000e+00" itree="478">
      <Node pos="s" depth="0" NCoef="0" IVar="6" Cut="1.1043247985839844e+02" cType="1" res="2.3481114767491817e-03" rms="2.9919788241386414e-01" purity="5.0414258241653442e-01" nType="0">
        <Node pos="l" depth="1" NCoef="0" IVar="10" Cut="-1.4666684865951538e+00" cType="1" res="6.0213515534996986e-03" rms="3.1206089258193970e-01" purity="3.2354781031608582e-01" nType="0">
          <Node pos="l" depth="2" NCoef="0" IVar="9" Cut="-4.0005892515182495e-01" cType="1" res="-6.0250260867178440e-03" rms="2.9233980178833008e-01" purity="2.7906763553619385e-01" nType="0">
            <Node pos="l" depth="3" NCoef="0" IVar="-1" Cut="0.0000000000000000e+00" cType="1" res="1.9709460437297821e-02" rms="2.9886499047279358e-01" purity="2.4897800385951996e-01" nType="-99"/>
            <Node pos="r" depth="3" NCoef="0" IVar="-1" Cut="0.0000000000000000e+00" cType="1" res="-2.6645120233297348e-02" rms="2.8557148575782776e-01" purity="3.0374750494956970e-01" nType="-99"/>
          </Node>
          <Node pos="r" depth="2" NCoef="0" IVar="5" Cut="2.2274626159667969e+02" cType="1" res="8.0168517306447029e-03" rms="3.1516414880752563e-01" purity="3.3091601729393005e-01" nType="0">
            <Node pos="l" depth="3" NCoef="0" IVar="-1" Cut="0.0000000000000000e+00" cType="1" res="9.9251102656126022e-03" rms="3.1511107087135315e-01" purity="2.9218822717666626e-01" nType="-99"/>
            <Node pos="r" depth="3" NCoef="0" IVar="-1" Cut="0.0000000000000000e+00" cType="1" res="-1.2617484666407108e-02" rms="3.1511124968528748e-01" purity="7.9178541898727417e-01" nType="-99"/>
          </Node>
        </Node>
        <Node pos="r" depth="1" NCoef="0" IVar="1" Cut="1.4408970947265625e+03" cType="1" res="-4.2090318165719509e-03" rms="2.7462089061737061e-01" purity="8.2652443647384644e-01" nType="0">
          <Node pos="l" depth="2" NCoef="0" IVar="-1" Cut="0.0000000000000000e+00" cType="1" res="-2.5709966197609901e-02" rms="4.0088713169097900e-01" purity="4.2660069465637207e-01" nType="-99"/>
          <Node pos="r" depth="2" NCoef="0" IVar="1" Cut="1.7077827148437500e+03" cType="1" res="3.4834356047213078e-03" rms="2.3952673375606537e-01" purity="9.0951204299926758e-01" nType="0">
            <Node pos="l" depth="3" NCoef="0" IVar="-1" Cut="0.0000000000000000e+00" cType="1" res="1.4231069013476372e-02" rms="3.4545961022377014e-01" purity="7.9429244995117188e-01" nType="-99"/>
            <Node pos="r" depth="3" NCoef="0" IVar="-1" Cut="0.0000000000000000e+00" cType="1" res="-1.8404050497338176e-03" rms="1.9458842277526855e-01" purity="9.4564622640609741e-01" nType="-99"/>
          </Node>
        </Node>
      </Node>
    </BinaryTree>
    <BinaryTree type="DecisionTree" boostWeight="1.0000000000000000e+00" itree="479">
      <Node pos="s" depth="0" NCoef="0" IVar="2" Cut="6.3985832035541534e-02" cType="1" res="-1.6314751701429486e-03" rms="2.9610553383827209e-01" purity="4.9632304906845093e-01" nType="0">
        <Node pos="l" depth="1" NCoef="0" IVar="2" Cut="1.5234711579978466e-02" cType="1" res="-4.0914183482527733e-03" rms="2.9828187823295593e-01" purity="3.6226487159729004e-01" nType="0">
          <Node pos="l" depth="2" NCoef="0" IVar="4" Cut="2.4130744934082031e+02" cType="1" res="1.9630861934274435e-03" rms="2.6914873719215393e-01" purity="2.1534912288188934e-01" nType="0">
            <Node pos="l" depth="3" NCoef="0" IVar="-1" Cut="0.0000000000000000e+00" cType="1" res="1.2265599332749844e-02" rms="2.3597218096256256e-01" purity="9.8715268075466156e-02" nType="-99"/>
            <Node pos="r" depth="3" NCoef="0" IVar="-1" Cut="0.0000000000000000e+00" cType="1" res="-6.8954881280660629e-03" rms="3.2972523570060730e-01" purity="4.6885651350021362e-01" nType="-99"/>
          </Node>
          <Node pos="r" depth="2" NCoef="0" IVar="10" Cut="-9.3332868814468384e-01" cType="1" res="-8.4976041689515114e-03" rms="3.1773653626441956e-01" purity="4.6918335556983948e-01" nType="0">
            <Node pos="l" depth="3" NCoef="0" IVar="-1" Cut="0.0000000000000000e+00" cType="1" res="-1.9068291410803795e-02" rms="3.1903925538063049e-01" purity="3.8157653808593750e-01" nType="-99"/>
            <Node pos="r" depth="3" NCoef="0" IVar="-1" Cut="0.0000000000000000e+00" cType="1" res="-4.9678054638206959e-03" rms="3.1727823615074158e-01" purity="4.9453800916671753e-01" nType="-99"/>
          </Node>
        </Node>
        <Node pos="r" depth="1" NCoef="0" IVar="1" Cut="1.3228774414062500e+03" cType="1" res="3.5010632127523422e-03" rms="2.9144558310508728e-01" purity="7.7602815628051758e-01" nType="0">
          <Node pos="l" depth="2" NCoef="0" IVar="1" Cut="1.0987963867187500e+03" cType="1" res="1.3860909268260002e-02" rms="4.0496155619621277e-01" purity="3.5126650333404541e-01" nType="0">
            <Node pos="l" depth="3" NCoef="0" IVar="-1" Cut="0.0000000000000000e+00" cType="1" res="1.9930237904191017e-02" rms="3.4471198916435242e-01" purity="1.5709698200225830e-01" nType="-99"/>
            <Node pos="r" depth="3" NCoef="0" IVar="-1" Cut="0.0000000000000000e+00" cType="1" res="3.5888410639017820e-03" rms="4.5035344362258911e-01" purity="5.1854360103607178e-01" nType="-99"/>
          </Node>
          <Node pos="r" depth="2" NCoef="0" IVar="10" Cut="6.6686338186264038e-01" cType="1" res="-9.0571105829440057e-05" rms="2.3975731432437897e-01" purity="9.2328792810440063e-01" nType="0">
            <Node pos="l" depth="3" NCoef="0" IVar="-1" Cut="0.0000000000000000e+00" cType="1" res="-5.6034959852695465e-03" rms="2.3677301406860352e-01" purity="9.2443078756332397e-01" nType="-99"/>
            <Node pos="r" depth="3" NCoef="0" IVar="-1" Cut="0.0000000000000000e+00" cType="1" res="1.1032195761799812e-02" rms="2.4653628468513489e-01" purity="9.2057919502258301e-01" nType="-99"/>
          </Node>
        </Node>
      </Node>
    </BinaryTree>
    <BinaryTree type="DecisionTree" boostWeight="1.0000000000000000e+00" itree="480">
      <Node pos="s" depth="0" NCoef="0" IVar="2" Cut="2.1316707134246826e-02" cType="1" res="-1.1733090505003929e-03" rms="2.9384222626686096e-01" purity="5.0254309177398682e-01" nType="0">
        <Node pos="l" depth="1" NCoef="0" IVar="8" Cut="-4.0002235770225525e-01" cType="1" res="5.0114411860704422e-03" rms="2.8105393052101135e-01" purity="2.5196132063865662e-01" nType="0">
          <Node pos="l" depth="2" NCoef="0" IVar="10" Cut="-9.3333894014358521e-01" cType="1" res="-5.9537384659051895e-03" rms="2.6730844378471375e-01" purity="2.1479646861553192e-01" nType="0">
            <Node pos="l" depth="3" NCoef="0" IVar="-1" Cut="0.0000000000000000e+00" cType="1" res="1.1453096754848957e-02" rms="2.6089143753051758e-01" purity="1.7859022319316864e-01" nType="-99"/>
            <Node pos="r" depth="3" NCoef="0" IVar="-1" Cut="0.0000000000000000e+00" cType="1" res="-1.4585444703698158e-02" rms="2.6975679397583008e-01" purity="2.3008166253566742e-01" nType="-99"/>
          </Node>
          <Node pos="r" depth="2" NCoef="0" IVar="2" Cut="1.4211126603186131e-02" cType="1" res="1.1938856914639473e-02" rms="2.8918731212615967e-01" purity="2.7544072270393372e-01" nType="0">
            <Node pos="l" depth="3" NCoef="0" IVar="-1" Cut="0.0000000000000000e+00" cType="1" res="9.3793720006942749e-03" rms="2.7619215846061707e-01" purity="2.3667693138122559e-01" nType="-99"/>
            <Node pos="r" depth="3" NCoef="0" IVar="-1" Cut="0.0000000000000000e+00" cType="1" res="2.6226490736007690e-02" rms="3.2281637191772461e-01" purity="3.8534495234489441e-01" nType="-99"/>
          </Node>
        </Node>
        <Node pos="r" depth="1" NCoef="0" IVar="7" Cut="1.0867069959640503e+00" cType="1" res="-4.6664266847074032e-03" rms="3.0076864361763000e-01" purity="6.4407056570053101e-01" nType="0">
          <Node pos="l" depth="2" NCoef="0" IVar="6" Cut="8.0216560363769531e+01" cType="1" res="-3.3358379732817411e-03" rms="2.9936617612838745e-01" purity="6.5876007080078125e-01" nType="0">
            <Node pos="l" depth="3" NCoef="0" IVar="-1" Cut="0.0000000000000000e+00" cType="1" res="-9.4533348456025124e-03" rms="3.2322242856025696e-01" purity="3.3963948488235474e-01" nType="-99"/>
            <Node pos="r" depth="3" NCoef="0" IVar="-1" Cut="0.0000000000000000e+00" cType="1" res="-4.0645580156706274e-04" rms="2.8855577111244202e-01" purity="7.9467499256134033e-01" nType="-99"/>
          </Node>
          <Node pos="r" depth="2" NCoef="0" IVar="-1" Cut="0.0000000000000000e+00" cType="1" res="-2.2705789655447006e-02" rms="3.2179033756256104e-01" purity="4.0712571144104004e-01" nType="-99"/>
        </Node>
      </Node>
    </BinaryTree>
    <BinaryTree type="DecisionTree" boostWeight="1.0000000000000000e+00" itree="481">
      <Node pos="s" depth="0" NCoef="0" IVar="4" Cut="1.4608894348144531e+02" cType="1" res="3.5731517709791660e-03" rms="2.9751121997833252e-01" purity="5.0528848171234131e-01" nType="0">
        <Node pos="l" depth="1" NCoef="0" IVar="7" Cut="1.2071015834808350e+00" cType="1" res="-4.5137577690184116e-03" rms="2.2073306143283844e-01" purity="7.6689481735229492e-02" nType="0">
          <Node pos="l" depth="2" NCoef="0" IVar="4" Cut="1.2361347961425781e+02" cType="1" res="-8.0592148005962372e-03" rms="2.2788834571838379e-01" purity="8.3599306643009186e-02" nType="0">
            <Node pos="l" depth="3" NCoef="0" IVar="-1" Cut="0.0000000000000000e+00" cType="1" res="2.4849499459378421e-04" rms="2.0559871196746826e-01" purity="6.2645606696605682e-02" nType="-99"/>
            <Node pos="r" depth="3" NCoef="0" IVar="-1" Cut="0.0000000000000000e+00" cType="1" res="-2.6347091421484947e-02" rms="2.6100078225135803e-01" purity="1.1937489360570908e-01" nType="-99"/>
          </Node>
          <Node pos="r" depth="2" NCoef="0" IVar="-1" Cut="0.0000000000000000e+00" cType="1" res="5.7649157941341400e-02" rms="1.7885528504848480e-01" purity="4.1507702320814133e-02" nType="-99"/>
        </Node>
        <Node pos="r" depth="1" NCoef="0" IVar="8" Cut="-6.6660588979721069e-01" cType="1" res="5.6004985235631466e-03" rms="3.1379538774490356e-01" purity="6.1273598670959473e-01" nType="0">
          <Node pos="l" depth="2" NCoef="0" IVar="6" Cut="7.5174873352050781e+01" cType="1" res="1.4684358611702919e-02" rms="3.3150702714920044e-01" purity="5.1734900474548340e-01" nType="0">
            <Node pos="l" depth="3" NCoef="0" IVar="-1" Cut="0.0000000000000000e+00" cType="1" res="3.0267057940363884e-02" rms="3.3645939826965332e-01" purity="2.9398268461227417e-01" nType="-99"/>
            <Node pos="r" depth="3" NCoef="0" IVar="-1" Cut="0.0000000000000000e+00" cType="1" res="5.6884200312197208e-03" rms="3.2866540551185608e-01" purity="6.2957900762557983e-01" nType="-99"/>
          </Node>
          <Node pos="r" depth="2" NCoef="0" IVar="8" Cut="-6.2975911423563957e-03" cType="1" res="2.6395558379590511e-03" rms="3.0774405598640442e-01" purity="6.4382797479629517e-01" nType="0">
            <Node pos="l" depth="3" NCoef="0" IVar="-1" Cut="0.0000000000000000e+00" cType="1" res="-3.8806002121418715e-03" rms="3.0062195658683777e-01" purity="7.0597976446151733e-01" nType="-99"/>
            <Node pos="r" depth="3" NCoef="0" IVar="-1" Cut="0.0000000000000000e+00" cType="1" res="5.8456971310079098e-03" rms="3.1109532713890076e-01" purity="6.1367416381835938e-01" nType="-99"/>
          </Node>
        </Node>
      </Node>
    </BinaryTree>
    <BinaryTree type="DecisionTree" boostWeight="1.0000000000000000e+00" itree="482">
      <Node pos="s" depth="0" NCoef="0" IVar="7" Cut="-9.1654735803604126e-01" cType="1" res="-1.1582984589040279e-03" rms="2.9853326082229614e-01" purity="4.9625381827354431e-01" nType="0">
        <Node pos="l" depth="1" NCoef="0" IVar="7" Cut="-1.4474718570709229e+00" cType="1" res="7.9051721841096878e-03" rms="2.8849223256111145e-01" purity="2.6960194110870361e-01" nType="0">
          <Node pos="l" depth="2" NCoef="0" IVar="8" Cut="1.3351130485534668e-01" cType="1" res="-3.8116478826850653e-03" rms="2.2316981852054596e-01" purity="1.0470984131097794e-01" nType="0">
            <Node pos="l" depth="3" NCoef="0" IVar="-1" Cut="0.0000000000000000e+00" cType="1" res="-1.8184496089816093e-02" rms="2.1299776434898376e-01" purity="1.0340774059295654e-01" nType="-99"/>
            <Node pos="r" depth="3" NCoef="0" IVar="-1" Cut="0.0000000000000000e+00" cType="1" res="7.4829277582466602e-03" rms="2.3580238223075867e-01" purity="1.0644408315420151e-01" nType="-99"/>
          </Node>
          <Node pos="r" depth="2" NCoef="0" IVar="5" Cut="1.6735472106933594e+02" cType="1" res="1.5342208556830883e-02" rms="3.2295501232147217e-01" purity="3.7426421046257019e-01" nType="0">
            <Node pos="l" depth="3" NCoef="0" IVar="-1" Cut="0.0000000000000000e+00" cType="1" res="2.7888888493180275e-02" rms="3.1642037630081177e-01" purity="2.0692709088325500e-01" nType="-99"/>
            <Node pos="r" depth="3" NCoef="0" IVar="-1" Cut="0.0000000000000000e+00" cType="1" res="-4.7536115162074566e-03" rms="3.3529677987098694e-01" purity="7.2514098882675171e-01" nType="-99"/>
          </Node>
        </Node>
        <Node pos="r" depth="1" NCoef="0" IVar="8" Cut="-1.4666500091552734e+00" cType="1" res="-2.7937905397266150e-03" rms="3.0028024315834045e-01" purity="5.3715288639068604e-01" nType="0">
          <Node pos="l" depth="2" NCoef="0" IVar="6" Cut="8.3276702880859375e+01" cType="1" res="8.1590795889496803e-03" rms="2.9073265194892883e-01" purity="2.5899511575698853e-01" nType="0">
            <Node pos="l" depth="3" NCoef="0" IVar="-1" Cut="0.0000000000000000e+00" cType="1" res="-1.4941685833036900e-02" rms="2.3329366743564606e-01" purity="9.6536338329315186e-02" nType="-99"/>
            <Node pos="r" depth="3" NCoef="0" IVar="-1" Cut="0.0000000000000000e+00" cType="1" res="2.5734800845384598e-02" rms="3.5609978437423706e-01" purity="4.9284085631370544e-01" nType="-99"/>
          </Node>
          <Node pos="r" depth="2" NCoef="0" IVar="8" Cut="-2.4768778681755066e-01" cType="1" res="-3.7130687851458788e-03" rms="3.0104967951774597e-01" purity="5.6049871444702148e-01" nType="0">
            <Node pos="l" depth="3" NCoef="0" IVar="-1" Cut="0.0000000000000000e+00" cType="1" res="-9.2911981046199799e-03" rms="3.0567532777786255e-01" purity="5.7758361101150513e-01" nType="-99"/>
            <Node pos="r" depth="3" NCoef="0" IVar="-1" Cut="0.0000000000000000e+00" cType="1" res="-1.2291984166949987e-03" rms="2.9859605431556702e-01" purity="5.5166447162628174e-01" nType="-99"/>
          </Node>
        </Node>
      </Node>
    </BinaryTree>
    <BinaryTree type="DecisionTree" boostWeight="1.0000000000000000e+00" itree="483">
      <Node pos="s" depth="0" NCoef="0" IVar="9" Cut="-6.6667360067367554e-01" cType="1" res="-5.9288099873811007e-04" rms="2.9637390375137329e-01" purity="4.9971047043800354e-01" nType="0">
        <Node pos="l" depth="1" NCoef="0" IVar="8" Cut="6.6641402244567871e-01" cType="1" res="6.9334050640463829e-03" rms="3.0815148353576660e-01" purity="4.2598471045494080e-01" nType="0">
          <Node pos="l" depth="2" NCoef="0" IVar="10" Cut="1.2000445127487183e+00" cType="1" res="1.2650941498577595e-02" rms="3.1225797533988953e-01" purity="4.5366916060447693e-01" nType="0">
            <Node pos="l" depth="3" NCoef="0" IVar="-1" Cut="0.0000000000000000e+00" cType="1" res="9.7397556528449059e-03" rms="3.0664724111557007e-01" purity="4.5430132746696472e-01" nType="-99"/>
            <Node pos="r" depth="3" NCoef="0" IVar="-1" Cut="0.0000000000000000e+00" cType="1" res="3.4234475344419479e-02" rms="3.4218266606330872e-01" purity="4.5000514388084412e-01" nType="-99"/>
          </Node>
          <Node pos="r" depth="2" NCoef="0" IVar="7" Cut="-1.0302044451236725e-01" cType="1" res="-1.2618320062756538e-02" rms="2.9283288121223450e-01" purity="3.3131477236747742e-01" nType="0">
            <Node pos="l" depth="3" NCoef="0" IVar="-1" Cut="0.0000000000000000e+00" cType="1" res="-3.6059986799955368e-02" rms="2.7618846297264099e-01" purity="2.8042244911193848e-01" nType="-99"/>
            <Node pos="r" depth="3" NCoef="0" IVar="-1" Cut="0.0000000000000000e+00" cType="1" res="3.8464332465082407e-03" rms="3.0560964345932007e-01" purity="3.7550848722457886e-01" nType="-99"/>
          </Node>
        </Node>
        <Node pos="r" depth="1" NCoef="0" IVar="3" Cut="3.4596862792968750e+02" cType="1" res="-3.5074951592832804e-03" rms="2.9163306951522827e-01" purity="5.2826130390167236e-01" nType="0">
          <Node pos="l" depth="2" NCoef="0" IVar="4" Cut="2.3350889587402344e+02" cType="1" res="-1.0119707323610783e-02" rms="2.9727572202682495e-01" purity="2.8633317351341248e-01" nType="0">
            <Node pos="l" depth="3" NCoef="0" IVar="-1" Cut="0.0000000000000000e+00" cType="1" res="-6.4260601066052914e-03" rms="2.8444659709930420e-01" purity="1.8591654300689697e-01" nType="-99"/>
            <Node pos="r" depth="3" NCoef="0" IVar="-1" Cut="0.0000000000000000e+00" cType="1" res="-2.3926818743348122e-02" rms="3.3762678503990173e-01" purity="6.3543677330017090e-01" nType="-99"/>
          </Node>
          <Node pos="r" depth="2" NCoef="0" IVar="7" Cut="-3.3742651343345642e-01" cType="1" res="1.8812023336067796e-04" rms="2.8836521506309509e-01" purity="6.6347688436508179e-01" nType="0">
            <Node pos="l" depth="3" NCoef="0" IVar="-1" Cut="0.0000000000000000e+00" cType="1" res="9.3601541593670845e-03" rms="2.9461997747421265e-01" purity="6.1914557218551636e-01" nType="-99"/>
            <Node pos="r" depth="3" NCoef="0" IVar="-1" Cut="0.0000000000000000e+00" cType="1" res="-4.2988187633454800e-03" rms="2.8532785177230835e-01" purity="6.8410849571228027e-01" nType="-99"/>
          </Node>
        </Node>
      </Node>
    </BinaryTree>
    <BinaryTree type="DecisionTree" boostWeight="1.0000000000000000e+00" itree="484">
      <Node pos="s" depth="0" NCoef="0" IVar="10" Cut="-9.3328738212585449e-01" cType="1" res="4.1746592614799738e-04" rms="2.9758256673812866e-01" purity="4.9879071116447449e-01" nType="0">
        <Node pos="l" depth="1" NCoef="0" IVar="7" Cut="-9.1727632284164429e-01" cType="1" res="9.2643024399876595e-03" rms="3.0497783422470093e-01" purity="4.6352937817573547e-01" nType="0">
          <Node pos="l" depth="2" NCoef="0" IVar="-1" Cut="0.0000000000000000e+00" cType="1" res="-1.3070981018245220e-02" rms="2.5964805483818054e-01" purity="1.9860193133354187e-01" nType="-99"/>
          <Node pos="r" depth="2" NCoef="0" IVar="5" Cut="9.6916053771972656e+01" cType="1" res="1.3610491529107094e-02" rms="3.1427970528602600e-01" purity="5.2420312166213989e-01" nType="0">
            <Node pos="l" depth="3" NCoef="0" IVar="-1" Cut="0.0000000000000000e+00" cType="1" res="4.1699673980474472e-02" rms="3.0759707093238831e-01" purity="1.7904038727283478e-01" nType="-99"/>
            <Node pos="r" depth="3" NCoef="0" IVar="-1" Cut="0.0000000000000000e+00" cType="1" res="7.0954905822873116e-03" rms="3.1632286310195923e-01" purity="6.4396023750305176e-01" nType="-99"/>
          </Node>
        </Node>
        <Node pos="r" depth="1" NCoef="0" IVar="2" Cut="2.0898997783660889e-02" cType="1" res="-2.3522409610450268e-03" rms="2.9517474770545959e-01" purity="5.0983005762100220e-01" nType="0">
          <Node pos="l" depth="2" NCoef="0" IVar="9" Cut="1.7331495285034180e+00" cType="1" res="-9.3949977308511734e-03" rms="2.6961022615432739e-01" purity="2.4285157024860382e-01" nType="0">
            <Node pos="l" depth="3" NCoef="0" IVar="-1" Cut="0.0000000000000000e+00" cType="1" res="-1.4407995156943798e-02" rms="2.7208441495895386e-01" purity="2.5569522380828857e-01" nType="-99"/>
            <Node pos="r" depth="3" NCoef="0" IVar="-1" Cut="0.0000000000000000e+00" cType="1" res="2.1771663799881935e-02" rms="2.4479646980762482e-01" purity="1.2565337121486664e-01" nType="-99"/>
          </Node>
          <Node pos="r" depth="2" NCoef="0" IVar="4" Cut="1.4231304931640625e+02" cType="1" res="1.4360647182911634e-03" rms="3.0798301100730896e-01" purity="6.5343809127807617e-01" nType="0">
            <Node pos="l" depth="3" NCoef="0" IVar="-1" Cut="0.0000000000000000e+00" cType="1" res="2.7246123179793358e-02" rms="3.0282771587371826e-01" purity="1.3837385177612305e-01" nType="-99"/>
            <Node pos="r" depth="3" NCoef="0" IVar="-1" Cut="0.0000000000000000e+00" cType="1" res="-1.3772777747362852e-03" rms="3.0860388278961182e-01" purity="7.2601753473281860e-01" nType="-99"/>
          </Node>
        </Node>
      </Node>
    </BinaryTree>
    <BinaryTree type="DecisionTree" boostWeight="1.0000000000000000e+00" itree="485">
      <Node pos="s" depth="0" NCoef="0" IVar="8" Cut="-9.3325084447860718e-01" cType="1" res="-8.4375013830140233e-04" rms="2.9652723670005798e-01" purity="4.9790859222412109e-01" nType="0">
        <Node pos="l" depth="1" NCoef="0" IVar="10" Cut="4.0001434087753296e-01" cType="1" res="-7.7392663806676865e-03" rms="2.9303056001663208e-01" purity="3.2634595036506653e-01" nType="0">
          <Node pos="l" depth="2" NCoef="0" IVar="10" Cut="-5.1429456472396851e-01" cType="1" res="-1.3863617554306984e-02" rms="2.8554958105087280e-01" purity="3.1630805134773254e-01" nType="0">
            <Node pos="l" depth="3" NCoef="0" IVar="-1" Cut="0.0000000000000000e+00" cType="1" res="-1.8619918264448643e-03" rms="2.8856343030929565e-01" purity="2.8838077187538147e-01" nType="-99"/>
            <Node pos="r" depth="3" NCoef="0" IVar="-1" Cut="0.0000000000000000e+00" cType="1" res="-3.6901786923408508e-02" rms="2.7946144342422485e-01" purity="3.6153081059455872e-01" nType="-99"/>
          </Node>
          <Node pos="r" depth="2" NCoef="0" IVar="8" Cut="-1.2885859012603760e+00" cType="1" res="4.2263646610081196e-03" rms="3.0676874518394470e-01" purity="3.4595775604248047e-01" nType="0">
            <Node pos="l" depth="3" NCoef="0" IVar="-1" Cut="0.0000000000000000e+00" cType="1" res="-1.2302620336413383e-02" rms="2.8465625643730164e-01" purity="2.3283715546131134e-01" nType="-99"/>
            <Node pos="r" depth="3" NCoef="0" IVar="-1" Cut="0.0000000000000000e+00" cType="1" res="2.3034062236547470e-02" rms="3.3372616767883301e-01" purity="5.0087660551071167e-01" nType="-99"/>
          </Node>
        </Node>
        <Node pos="r" depth="1" NCoef="0" IVar="9" Cut="-9.3332618474960327e-01" cType="1" res="7.3125865310430527e-04" rms="2.9729768633842468e-01" purity="5.3709530830383301e-01" nType="0">
          <Node pos="l" depth="2" NCoef="0" IVar="1" Cut="1.2787354736328125e+03" cType="1" res="-8.1625040620565414e-03" rms="2.9726144671440125e-01" purity="4.3748903274536133e-01" nType="0">
            <Node pos="l" depth="3" NCoef="0" IVar="-1" Cut="0.0000000000000000e+00" cType="1" res="-3.1323965638875961e-02" rms="2.4759292602539062e-01" purity="9.1719493269920349e-02" nType="-99"/>
            <Node pos="r" depth="3" NCoef="0" IVar="-1" Cut="0.0000000000000000e+00" cType="1" res="3.9664981886744499e-03" rms="3.3142852783203125e-01" purity="7.1646779775619507e-01" nType="-99"/>
          </Node>
          <Node pos="r" depth="2" NCoef="0" IVar="10" Cut="1.9999458789825439e+00" cType="1" res="2.8873512055724859e-03" rms="2.9726642370223999e-01" purity="5.6124264001846313e-01" nType="0">
            <Node pos="l" depth="3" NCoef="0" IVar="-1" Cut="0.0000000000000000e+00" cType="1" res="4.5185177586972713e-03" rms="2.9731303453445435e-01" purity="5.7386732101440430e-01" nType="-99"/>
            <Node pos="r" depth="3" NCoef="0" IVar="-1" Cut="0.0000000000000000e+00" cType="1" res="-1.9834475591778755e-02" rms="2.9562690854072571e-01" purity="3.2615798711776733e-01" nType="-99"/>
          </Node>
        </Node>
      </Node>
    </BinaryTree>
    <BinaryTree type="DecisionTree" boostWeight="1.0000000000000000e+00" itree="486">
      <Node pos="s" depth="0" NCoef="0" IVar="6" Cut="8.0216247558593750e+01" cType="1" res="2.1759513765573502e-03" rms="2.9877308011054993e-01" purity="5.0315290689468384e-01" nType="0">
        <Node pos="l" depth="1" NCoef="0" IVar="9" Cut="-1.7333487272262573e+00" cType="1" res="-2.8148537967354059e-03" rms="2.8963732719421387e-01" purity="2.2380632162094116e-01" nType="0">
          <Node pos="l" depth="2" NCoef="0" IVar="-1" Cut="0.0000000000000000e+00" cType="1" res="2.9177399352192879e-02" rms="2.7803024649620056e-01" purity="1.4265389740467072e-01" nType="-99"/>
          <Node pos="r" depth="2" NCoef="0" IVar="6" Cut="7.0144165039062500e+01" cType="1" res="-5.0059356726706028e-03" rms="2.9070499539375305e-01" purity="2.3207709193229675e-01" nType="0">
            <Node pos="l" depth="3" NCoef="0" IVar="-1" Cut="0.0000000000000000e+00" cType="1" res="-1.1387800797820091e-02" rms="2.7333027124404907e-01" purity="1.9546580314636230e-01" nType="-99"/>
            <Node pos="r" depth="3" NCoef="0" IVar="-1" Cut="0.0000000000000000e+00" cType="1" res="6.4330222085118294e-03" rms="3.3483511209487915e-01" purity="3.3591002225875854e-01" nType="-99"/>
          </Node>
        </Node>
        <Node pos="r" depth="1" NCoef="0" IVar="1" Cut="1.1150601806640625e+03" cType="1" res="5.8037247508764267e-03" rms="3.0519101023674011e-01" purity="7.0620751380920410e-01" nType="0">
          <Node pos="l" depth="2" NCoef="0" IVar="-1" Cut="0.0000000000000000e+00" cType="1" res="3.3045575022697449e-02" rms="3.1004574894905090e-01" purity="1.2814104557037354e-01" nType="-99"/>
          <Node pos="r" depth="2" NCoef="0" IVar="10" Cut="-1.7330118417739868e+00" cType="1" res="3.6043315194547176e-03" rms="3.0459395051002502e-01" purity="7.6680475473403931e-01" nType="0">
            <Node pos="l" depth="3" NCoef="0" IVar="-1" Cut="0.0000000000000000e+00" cType="1" res="-1.2306941673159599e-02" rms="3.3271005749702454e-01" purity="6.3391041755676270e-01" nType="-99"/>
            <Node pos="r" depth="3" NCoef="0" IVar="-1" Cut="0.0000000000000000e+00" cType="1" res="5.0114057958126068e-03" rms="3.0276361107826233e-01" purity="7.7490675449371338e-01" nType="-99"/>
          </Node>
        </Node>
      </Node>
    </BinaryTree>
    <BinaryTree type="DecisionTree" boostWeight="1.0000000000000000e+00" itree="487">
      <Node pos="s" depth="0" NCoef="0" IVar="7" Cut="-1.2024944275617599e-01" cType="1" res="-1.3997606001794338e-03" rms="2.9585039615631104e-01" purity="4.9730113148689270e-01" nType="0">
        <Node pos="l" depth="1" NCoef="0" IVar="9" Cut="-1.1999231576919556e+00" cType="1" res="-5.9875417500734329e-03" rms="2.9513618350028992e-01" purity="4.7643375396728516e-01" nType="0">
          <Node pos="l" depth="2" NCoef="0" IVar="10" Cut="-6.6615307331085205e-01" cType="1" res="7.7811228111386299e-03" rms="2.9803341627120972e-01" purity="3.4361842274665833e-01" nType="0">
            <Node pos="l" depth="3" NCoef="0" IVar="-1" Cut="0.0000000000000000e+00" cType="1" res="-1.2638662010431290e-02" rms="2.7249562740325928e-01" purity="2.6533818244934082e-01" nType="-99"/>
            <Node pos="r" depth="3" NCoef="0" IVar="-1" Cut="0.0000000000000000e+00" cType="1" res="2.0889095962047577e-02" rms="3.1326517462730408e-01" purity="3.9565393328666687e-01" nType="-99"/>
          </Node>
          <Node pos="r" depth="2" NCoef="0" IVar="10" Cut="9.3341130018234253e-01" cType="1" res="-8.9446697384119034e-03" rms="2.9442623257637024e-01" purity="5.0495880842208862e-01" nType="0">
            <Node pos="l" depth="3" NCoef="0" IVar="-1" Cut="0.0000000000000000e+00" cType="1" res="-6.4341016113758087e-03" rms="2.9511240124702454e-01" purity="5.2040106058120728e-01" nType="-99"/>
            <Node pos="r" depth="3" NCoef="0" IVar="-1" Cut="0.0000000000000000e+00" cType="1" res="-2.3958304896950722e-02" rms="2.9156965017318726e-01" purity="4.4806694984436035e-01" nType="-99"/>
          </Node>
        </Node>
        <Node pos="r" depth="1" NCoef="0" IVar="0" Cut="4.2850830078125000e+02" cType="1" res="2.2308740299195051e-03" rms="2.9636400938034058e-01" purity="5.1381498575210571e-01" nType="0">
          <Node pos="l" depth="2" NCoef="0" IVar="5" Cut="1.5139627075195312e+02" cType="1" res="-3.3941345755010843e-03" rms="2.9789841175079346e-01" purity="2.1546305716037750e-01" nType="0">
            <Node pos="l" depth="3" NCoef="0" IVar="-1" Cut="0.0000000000000000e+00" cType="1" res="-1.2962060980498791e-02" rms="2.5058588385581970e-01" purity="9.1044180095195770e-02" nType="-99"/>
            <Node pos="r" depth="3" NCoef="0" IVar="-1" Cut="0.0000000000000000e+00" cType="1" res="6.5018604509532452e-03" rms="3.9058941602706909e-01" purity="5.2259355783462524e-01" nType="-99"/>
          </Node>
          <Node pos="r" depth="2" NCoef="0" IVar="8" Cut="-6.6665917634963989e-01" cType="1" res="6.6876728087663651e-03" rms="2.9506650567054749e-01" purity="7.5020474195480347e-01" nType="0">
            <Node pos="l" depth="3" NCoef="0" IVar="-1" Cut="0.0000000000000000e+00" cType="1" res="2.0798275247216225e-02" rms="3.2523792982101440e-01" purity="6.8091732263565063e-01" nType="-99"/>
            <Node pos="r" depth="3" NCoef="0" IVar="-1" Cut="0.0000000000000000e+00" cType="1" res="2.8870881069451571e-03" rms="2.8588533401489258e-01" purity="7.6964259147644043e-01" nType="-99"/>
          </Node>
        </Node>
      </Node>
    </BinaryTree>
    <BinaryTree type="DecisionTree" boostWeight="1.0000000000000000e+00" itree="488">
      <Node pos="s" depth="0" NCoef="0" IVar="7" Cut="-9.1654735803604126e-01" cType="1" res="1.8391753837931901e-04" rms="2.9642456769943237e-01" purity="4.9925133585929871e-01" nType="0">
        <Node pos="l" depth="1" NCoef="0" IVar="9" Cut="9.3328875303268433e-01" cType="1" res="1.5068017877638340e-02" rms="2.9400402307510376e-01" purity="2.7949613332748413e-01" nType="0">
          <Node pos="l" depth="2" NCoef="0" IVar="1" Cut="1.4977944335937500e+03" cType="1" res="9.7643658518791199e-03" rms="2.8414320945739746e-01" purity="2.9091259837150574e-01" nType="0">
            <Node pos="l" depth="3" NCoef="0" IVar="-1" Cut="0.0000000000000000e+00" cType="1" res="8.6357630789279938e-04" rms="2.6321771740913391e-01" purity="1.1284044384956360e-01" nType="-99"/>
            <Node pos="r" depth="3" NCoef="0" IVar="-1" Cut="0.0000000000000000e+00" cType="1" res="2.8488118201494217e-02" rms="3.2940247654914856e-01" purity="7.3401552438735962e-01" nType="-99"/>
          </Node>
          <Node pos="r" depth="2" NCoef="0" IVar="-1" Cut="0.0000000000000000e+00" cType="1" res="4.5566748827695847e-02" rms="3.2920423150062561e-01" purity="2.3446783423423767e-01" nType="-99"/>
        </Node>
        <Node pos="r" depth="1" NCoef="0" IVar="5" Cut="1.0495019531250000e+02" cType="1" res="-2.5760435964912176e-03" rms="2.9678922891616821e-01" purity="5.4000061750411987e-01" nType="0">
          <Node pos="l" depth="2" NCoef="0" IVar="1" Cut="1.0531881103515625e+03" cType="1" res="-1.0212516412138939e-02" rms="2.6479482650756836e-01" purity="1.4054727554321289e-01" nType="0">
            <Node pos="l" depth="3" NCoef="0" IVar="-1" Cut="0.0000000000000000e+00" cType="1" res="4.9248603172600269e-03" rms="1.8746112287044525e-01" purity="4.0472865104675293e-02" nType="-99"/>
            <Node pos="r" depth="3" NCoef="0" IVar="-1" Cut="0.0000000000000000e+00" cType="1" res="-1.9290618598461151e-02" rms="3.2914426922798157e-01" purity="2.5085225701332092e-01" nType="-99"/>
          </Node>
          <Node pos="r" depth="2" NCoef="0" IVar="3" Cut="3.4597027587890625e+02" cType="1" res="3.7197317578829825e-04" rms="3.0820268392562866e-01" purity="6.9420719146728516e-01" nType="0">
            <Node pos="l" depth="3" NCoef="0" IVar="-1" Cut="0.0000000000000000e+00" cType="1" res="-6.5734842792153358e-03" rms="3.4339839220046997e-01" purity="4.5349323749542236e-01" nType="-99"/>
            <Node pos="r" depth="3" NCoef="0" IVar="-1" Cut="0.0000000000000000e+00" cType="1" res="4.2276810854673386e-03" rms="2.9325503110885620e-01" purity="7.8816229104995728e-01" nType="-99"/>
          </Node>
        </Node>
      </Node>
    </BinaryTree>
    <BinaryTree type="DecisionTree" boostWeight="1.0000000000000000e+00" itree="489">
      <Node pos="s" depth="0" NCoef="0" IVar="8" Cut="-2.0000102519989014e+00" cType="1" res="4.6967910020612180e-04" rms="2.9715570807456970e-01" purity="4.9856880307197571e-01" nType="0">
        <Node pos="l" depth="1" NCoef="0" IVar="-1" Cut="0.0000000000000000e+00" cType="1" res="-2.9509715735912323e-02" rms="2.0410396158695221e-01" purity="7.9502947628498077e-02" nType="-99"/>
        <Node pos="r" depth="1" NCoef="0" IVar="8" Cut="-1.3142753839492798e+00" cType="1" res="1.0010319529101253e-03" rms="2.9979598522186279e-01" purity="5.1280659437179565e-01" nType="0">
          <Node pos="l" depth="2" NCoef="0" IVar="5" Cut="1.2822138977050781e+02" cType="1" res="1.2294998392462730e-02" rms="3.0764314532279968e-01" purity="3.1925788521766663e-01" nType="0">
            <Node pos="l" depth="3" NCoef="0" IVar="-1" Cut="0.0000000000000000e+00" cType="1" res="3.4530835691839457e-03" rms="2.5106427073478699e-01" purity="1.2188753485679626e-01" nType="-99"/>
            <Node pos="r" depth="3" NCoef="0" IVar="-1" Cut="0.0000000000000000e+00" cType="1" res="1.9031969830393791e-02" rms="3.6349982023239136e-01" purity="5.5494552850723267e-01" nType="-99"/>
          </Node>
          <Node pos="r" depth="2" NCoef="0" IVar="2" Cut="1.4393419027328491e-01" cType="1" res="2.3346807211055420e-05" rms="2.9908692836761475e-01" purity="5.2956157922744751e-01" nType="0">
            <Node pos="l" depth="3" NCoef="0" IVar="-1" Cut="0.0000000000000000e+00" cType="1" res="-1.2304112315177917e-03" rms="3.0401325225830078e-01" purity="4.8730400204658508e-01" nType="-99"/>
            <Node pos="r" depth="3" NCoef="0" IVar="-1" Cut="0.0000000000000000e+00" cType="1" res="1.4055048115551472e-02" rms="2.5598201155662537e-01" purity="8.6844849586486816e-01" nType="-99"/>
          </Node>
        </Node>
      </Node>
    </BinaryTree>
    <BinaryTree type="DecisionTree" boostWeight="1.0000000000000000e+00" itree="490">
      <Node pos="s" depth="0" NCoef="0" IVar="2" Cut="2.0898977294564247e-02" cType="1" res="1.3966365950182080e-03" rms="2.9647219181060791e-01" purity="5.0377494096755981e-01" nType="0">
        <Node pos="l" depth="1" NCoef="0" IVar="8" Cut="1.1999188661575317e+00" cType="1" res="9.7926184535026550e-03" rms="2.8399068117141724e-01" purity="2.5651136040687561e-01" nType="0">
          <Node pos="l" depth="2" NCoef="0" IVar="6" Cut="9.0693000793457031e+01" cType="1" res="1.4570478349924088e-02" rms="2.9290479421615601e-01" purity="2.9025322198867798e-01" nType="0">
            <Node pos="l" depth="3" NCoef="0" IVar="-1" Cut="0.0000000000000000e+00" cType="1" res="1.0985200293362141e-02" rms="2.7089571952819824e-01" purity="1.8732437491416931e-01" nType="-99"/>
            <Node pos="r" depth="3" NCoef="0" IVar="-1" Cut="0.0000000000000000e+00" cType="1" res="2.8493618592619896e-02" rms="3.4217184782028198e-01" purity="5.5304270982742310e-01" nType="-99"/>
          </Node>
          <Node pos="r" depth="2" NCoef="0" IVar="2" Cut="6.9663617759943008e-03" cType="1" res="-9.0928366407752037e-03" rms="2.4469776451587677e-01" purity="1.2313985824584961e-01" nType="0">
            <Node pos="l" depth="3" NCoef="0" IVar="-1" Cut="0.0000000000000000e+00" cType="1" res="3.7852663081139326e-03" rms="2.2659805417060852e-01" purity="8.9700713753700256e-02" nType="-99"/>
            <Node pos="r" depth="3" NCoef="0" IVar="-1" Cut="0.0000000000000000e+00" cType="1" res="-2.5168122723698616e-02" rms="2.5933098793029785e-01" purity="1.5284481644630432e-01" nType="-99"/>
          </Node>
        </Node>
        <Node pos="r" depth="1" NCoef="0" IVar="2" Cut="4.0802609175443649e-02" cType="1" res="-3.2668111380189657e-03" rms="3.0308255553245544e-01" purity="6.4111453294754028e-01" nType="0">
          <Node pos="l" depth="2" NCoef="0" IVar="1" Cut="1.8193258056640625e+03" cType="1" res="-1.3966003432869911e-02" rms="3.1610041856765747e-01" purity="4.4213920831680298e-01" nType="0">
            <Node pos="l" depth="3" NCoef="0" IVar="-1" Cut="0.0000000000000000e+00" cType="1" res="-1.6697904095053673e-02" rms="3.3581745624542236e-01" purity="2.7654480934143066e-01" nType="-99"/>
            <Node pos="r" depth="3" NCoef="0" IVar="-1" Cut="0.0000000000000000e+00" cType="1" res="4.0099620819091797e-03" rms="2.5035178661346436e-01" purity="9.1715860366821289e-01" nType="-99"/>
          </Node>
          <Node pos="r" depth="2" NCoef="0" IVar="7" Cut="5.7882374525070190e-01" cType="1" res="8.6628017015755177e-04" rms="2.9779857397079468e-01" purity="7.1797859668731689e-01" nType="0">
            <Node pos="l" depth="3" NCoef="0" IVar="-1" Cut="0.0000000000000000e+00" cType="1" res="-3.0074073001742363e-03" rms="2.9252225160598755e-01" purity="7.2824746370315552e-01" nType="-99"/>
            <Node pos="r" depth="3" NCoef="0" IVar="-1" Cut="0.0000000000000000e+00" cType="1" res="1.5160306356847286e-02" rms="3.1847816705703735e-01" purity="6.7508888244628906e-01" nType="-99"/>
          </Node>
        </Node>
      </Node>
    </BinaryTree>
    <BinaryTree type="DecisionTree" boostWeight="1.0000000000000000e+00" itree="491">
      <Node pos="s" depth="0" NCoef="0" IVar="7" Cut="6.7066037654876709e-01" cType="1" res="1.5509328804910183e-03" rms="2.9859727621078491e-01" purity="5.0057631731033325e-01" nType="0">
        <Node pos="l" depth="1" NCoef="0" IVar="6" Cut="7.4830780029296875e+01" cType="1" res="3.9776545017957687e-03" rms="3.0335596203804016e-01" purity="5.4918366670608521e-01" nType="0">
          <Node pos="l" depth="2" NCoef="0" IVar="5" Cut="8.9749504089355469e+01" cType="1" res="1.1147795245051384e-02" rms="3.0408206582069397e-01" purity="2.5926151871681213e-01" nType="0">
            <Node pos="l" depth="3" NCoef="0" IVar="-1" Cut="0.0000000000000000e+00" cType="1" res="-4.4066007249057293e-03" rms="2.3948580026626587e-01" purity="1.0638182610273361e-01" nType="-99"/>
            <Node pos="r" depth="3" NCoef="0" IVar="-1" Cut="0.0000000000000000e+00" cType="1" res="2.0702078938484192e-02" rms="3.5177832841873169e-01" purity="3.9689248800277710e-01" nType="-99"/>
          </Node>
          <Node pos="r" depth="2" NCoef="0" IVar="7" Cut="1.1742912232875824e-02" cType="1" res="2.9430464564939030e-05" rms="3.0288290977478027e-01" purity="7.0882874727249146e-01" nType="0">
            <Node pos="l" depth="3" NCoef="0" IVar="-1" Cut="0.0000000000000000e+00" cType="1" res="-5.0089200958609581e-03" rms="3.0750402808189392e-01" purity="6.6113245487213135e-01" nType="-99"/>
            <Node pos="r" depth="3" NCoef="0" IVar="-1" Cut="0.0000000000000000e+00" cType="1" res="9.1403359547257423e-03" rms="2.9493892192840576e-01" purity="7.8748381137847900e-01" nType="-99"/>
          </Node>
        </Node>
        <Node pos="r" depth="1" NCoef="0" IVar="10" Cut="6.6638952493667603e-01" cType="1" res="-6.8382355384528637e-03" rms="2.8136628866195679e-01" purity="3.3254078030586243e-01" nType="0">
          <Node pos="l" depth="2" NCoef="0" IVar="5" Cut="1.3285385131835938e+02" cType="1" res="-1.5219739638268948e-02" rms="2.7891933917999268e-01" purity="3.5256797075271606e-01" nType="0">
            <Node pos="l" depth="3" NCoef="0" IVar="-1" Cut="0.0000000000000000e+00" cType="1" res="-3.4877356141805649e-02" rms="2.2893160581588745e-01" purity="1.0265105962753296e-01" nType="-99"/>
            <Node pos="r" depth="3" NCoef="0" IVar="-1" Cut="0.0000000000000000e+00" cType="1" res="-5.7819187641143799e-03" rms="3.2374083995819092e-01" purity="6.2002968788146973e-01" nType="-99"/>
          </Node>
          <Node pos="r" depth="2" NCoef="0" IVar="9" Cut="3.9987826347351074e-01" cType="1" res="7.2094588540494442e-03" rms="2.8486791253089905e-01" purity="2.9897451400756836e-01" nType="0">
            <Node pos="l" depth="3" NCoef="0" IVar="-1" Cut="0.0000000000000000e+00" cType="1" res="2.1269567310810089e-02" rms="3.0184000730514526e-01" purity="3.6212363839149475e-01" nType="-99"/>
            <Node pos="r" depth="3" NCoef="0" IVar="-1" Cut="0.0000000000000000e+00" cType="1" res="-7.9556703567504883e-03" rms="2.6438528299331665e-01" purity="2.2970148921012878e-01" nType="-99"/>
          </Node>
        </Node>
      </Node>
    </BinaryTree>
    <BinaryTree type="DecisionTree" boostWeight="1.0000000000000000e+00" itree="492">
      <Node pos="s" depth="0" NCoef="0" IVar="9" Cut="-1.2000033855438232e+00" cType="1" res="-3.2123571145348251e-04" rms="2.9919913411140442e-01" purity="4.9638172984123230e-01" nType="0">
        <Node pos="l" depth="1" NCoef="0" IVar="1" Cut="1.0337767333984375e+03" cType="1" res="7.8775351867079735e-03" rms="3.0658152699470520e-01" purity="3.5102114081382751e-01" nType="0">
          <Node pos="l" depth="2" NCoef="0" IVar="-1" Cut="0.0000000000000000e+00" cType="1" res="-8.7762726470828056e-03" rms="1.6217476129531860e-01" purity="2.8381502255797386e-02" nType="-99"/>
          <Node pos="r" depth="2" NCoef="0" IVar="10" Cut="-3.9986827969551086e-01" cType="1" res="1.1474307626485825e-02" rms="3.4267330169677734e-01" purity="4.6294856071472168e-01" nType="0">
            <Node pos="l" depth="3" NCoef="0" IVar="-1" Cut="0.0000000000000000e+00" cType="1" res="-1.0761742305476218e-04" rms="3.2749298214912415e-01" purity="4.0547984838485718e-01" nType="-99"/>
            <Node pos="r" depth="3" NCoef="0" IVar="-1" Cut="0.0000000000000000e+00" cType="1" res="1.7683917656540871e-02" rms="3.5350847244262695e-01" purity="5.0657421350479126e-01" nType="-99"/>
          </Node>
        </Node>
        <Node pos="r" depth="1" NCoef="0" IVar="9" Cut="-5.7140469551086426e-02" cType="1" res="-1.7621354199945927e-03" rms="2.9785948991775513e-01" purity="5.2192825078964233e-01" nType="0">
          <Node pos="l" depth="2" NCoef="0" IVar="5" Cut="9.6877296447753906e+01" cType="1" res="-6.5526249818503857e-03" rms="2.9487296938896179e-01" purity="5.5782669782638550e-01" nType="0">
            <Node pos="l" depth="3" NCoef="0" IVar="-1" Cut="0.0000000000000000e+00" cType="1" res="6.7390026524662971e-03" rms="2.5212994217872620e-01" purity="1.2407305091619492e-01" nType="-99"/>
            <Node pos="r" depth="3" NCoef="0" IVar="-1" Cut="0.0000000000000000e+00" cType="1" res="-1.0195832699537277e-02" rms="3.0524733662605286e-01" purity="6.7407792806625366e-01" nType="-99"/>
          </Node>
          <Node pos="r" depth="2" NCoef="0" IVar="3" Cut="4.9193978881835938e+02" cType="1" res="1.2869263300672174e-03" rms="2.9970499873161316e-01" purity="4.9907952547073364e-01" nType="0">
            <Node pos="l" depth="3" NCoef="0" IVar="-1" Cut="0.0000000000000000e+00" cType="1" res="5.1268762908875942e-03" rms="3.0333036184310913e-01" purity="4.0524411201477051e-01" nType="-99"/>
            <Node pos="r" depth="3" NCoef="0" IVar="-1" Cut="0.0000000000000000e+00" cType="1" res="-8.1149004399776459e-03" rms="2.9061329364776611e-01" purity="7.2552949190139771e-01" nType="-99"/>
          </Node>
        </Node>
      </Node>
    </BinaryTree>
    <BinaryTree type="DecisionTree" boostWeight="1.0000000000000000e+00" itree="493">
      <Node pos="s" depth="0" NCoef="0" IVar="6" Cut="7.8846466064453125e+01" cType="1" res="-5.2632030565291643e-04" rms="2.9924085736274719e-01" purity="4.9795883893966675e-01" nType="0">
        <Node pos="l" depth="1" NCoef="0" IVar="6" Cut="7.4725273132324219e+01" cType="1" res="3.7963136564940214e-03" rms="2.9241558909416199e-01" purity="2.3136343061923981e-01" nType="0">
          <Node pos="l" depth="2" NCoef="0" IVar="7" Cut="-1.1820858716964722e+00" cType="1" res="1.8725855043157935e-03" rms="2.8637653589248657e-01" purity="2.1768029034137726e-01" nType="0">
            <Node pos="l" depth="3" NCoef="0" IVar="-1" Cut="0.0000000000000000e+00" cType="1" res="-3.1489744782447815e-02" rms="1.6668912768363953e-01" purity="5.0454679876565933e-02" nType="-99"/>
            <Node pos="r" depth="3" NCoef="0" IVar="-1" Cut="0.0000000000000000e+00" cType="1" res="4.6648629941046238e-03" rms="3.0066755414009094e-01" purity="2.4366728961467743e-01" nType="-99"/>
          </Node>
          <Node pos="r" depth="2" NCoef="0" IVar="-1" Cut="0.0000000000000000e+00" cType="1" res="1.8828535452485085e-02" rms="3.3788511157035828e-01" purity="3.4466856718063354e-01" nType="-99"/>
        </Node>
        <Node pos="r" depth="1" NCoef="0" IVar="10" Cut="1.1998018026351929e+00" cType="1" res="-3.6125897895544767e-03" rms="3.0398258566856384e-01" purity="6.8830239772796631e-01" nType="0">
          <Node pos="l" depth="2" NCoef="0" IVar="0" Cut="5.4808660888671875e+02" cType="1" res="-5.5145397782325745e-03" rms="2.9845261573791504e-01" purity="7.0150172710418701e-01" nType="0">
            <Node pos="l" depth="3" NCoef="0" IVar="-1" Cut="0.0000000000000000e+00" cType="1" res="-8.5830381140112877e-03" rms="3.5183665156364441e-01" purity="5.0543606281280518e-01" nType="-99"/>
            <Node pos="r" depth="3" NCoef="0" IVar="-1" Cut="0.0000000000000000e+00" cType="1" res="1.5262740198522806e-03" rms="2.2006841003894806e-01" purity="9.3064153194427490e-01" nType="-99"/>
          </Node>
          <Node pos="r" depth="2" NCoef="0" IVar="0" Cut="4.1626757812500000e+02" cType="1" res="6.9658197462558746e-03" rms="3.3286997675895691e-01" purity="6.1488932371139526e-01" nType="0">
            <Node pos="l" depth="3" NCoef="0" IVar="-1" Cut="0.0000000000000000e+00" cType="1" res="2.0692721009254456e-02" rms="3.6177301406860352e-01" purity="3.3544650673866272e-01" nType="-99"/>
            <Node pos="r" depth="3" NCoef="0" IVar="-1" Cut="0.0000000000000000e+00" cType="1" res="-6.1788666062057018e-03" rms="3.1235027313232422e-01" purity="7.9366934299468994e-01" nType="-99"/>
          </Node>
        </Node>
      </Node>
    </BinaryTree>
    <BinaryTree type="DecisionTree" boostWeight="1.0000000000000000e+00" itree="494">
      <Node pos="s" depth="0" NCoef="0" IVar="9" Cut="6.6665947437286377e-01" cType="1" res="1.2761483667418361e-03" rms="2.9969671368598938e-01" purity="4.9999940395355225e-01" nType="0">
        <Node pos="l" depth="1" NCoef="0" IVar="10" Cut="1.7332597970962524e+00" cType="1" res="3.5553195048123598e-03" rms="2.9831305146217346e-01" purity="5.2793860435485840e-01" nType="0">
          <Node pos="l" depth="2" NCoef="0" IVar="2" Cut="1.2410818040370941e-01" cType="1" res="4.9423943273723125e-03" rms="2.9816892743110657e-01" purity="5.3959500789642334e-01" nType="0">
            <Node pos="l" depth="3" NCoef="0" IVar="-1" Cut="0.0000000000000000e+00" cType="1" res="7.5224675238132477e-03" rms="3.0410194396972656e-01" purity="4.9207547307014465e-01" nType="-99"/>
            <Node pos="r" depth="3" NCoef="0" IVar="-1" Cut="0.0000000000000000e+00" cType="1" res="-1.2583086267113686e-02" rms="2.5448563694953918e-01" purity="8.5811382532119751e-01" nType="-99"/>
          </Node>
          <Node pos="r" depth="2" NCoef="0" IVar="7" Cut="2.0120808482170105e-01" cType="1" res="-1.3809255324304104e-02" rms="2.9956841468811035e-01" purity="3.8201332092285156e-01" nType="0">
            <Node pos="l" depth="3" NCoef="0" IVar="-1" Cut="0.0000000000000000e+00" cType="1" res="-4.0848862379789352e-02" rms="2.8430095314979553e-01" purity="3.6165183782577515e-01" nType="-99"/>
            <Node pos="r" depth="3" NCoef="0" IVar="-1" Cut="0.0000000000000000e+00" cType="1" res="1.1227842420339584e-02" rms="3.1298124790191650e-01" purity="4.0340262651443481e-01" nType="-99"/>
          </Node>
        </Node>
        <Node pos="r" depth="1" NCoef="0" IVar="10" Cut="-4.0002235770225525e-01" cType="1" res="-4.5192963443696499e-03" rms="3.0310949683189392e-01" purity="4.2895603179931641e-01" nType="0">
          <Node pos="l" depth="2" NCoef="0" IVar="10" Cut="-1.3143260478973389e+00" cType="1" res="-1.5525313094258308e-02" rms="3.0276465415954590e-01" purity="4.4217184185981750e-01" nType="0">
            <Node pos="l" depth="3" NCoef="0" IVar="-1" Cut="0.0000000000000000e+00" cType="1" res="3.5226733889430761e-03" rms="3.0805218219757080e-01" purity="4.0723299980163574e-01" nType="-99"/>
            <Node pos="r" depth="3" NCoef="0" IVar="-1" Cut="0.0000000000000000e+00" cType="1" res="-3.1897976994514465e-02" rms="2.9821619391441345e-01" purity="4.6707156300544739e-01" nType="-99"/>
          </Node>
          <Node pos="r" depth="2" NCoef="0" IVar="4" Cut="2.9698641967773438e+02" cType="1" res="1.0229864856228232e-03" rms="3.0313172936439514e-01" purity="4.2230096459388733e-01" nType="0">
            <Node pos="l" depth="3" NCoef="0" IVar="-1" Cut="0.0000000000000000e+00" cType="1" res="-4.8052896745502949e-03" rms="3.0039221048355103e-01" purity="2.9126992821693420e-01" nType="-99"/>
            <Node pos="r" depth="3" NCoef="0" IVar="-1" Cut="0.0000000000000000e+00" cType="1" res="1.7600810155272484e-02" rms="3.1008642911911011e-01" purity="7.8474801778793335e-01" nType="-99"/>
          </Node>
        </Node>
      </Node>
    </BinaryTree>
    <BinaryTree type="DecisionTree" boostWeight="1.0000000000000000e+00" itree="495">
      <Node pos="s" depth="0" NCoef="0" IVar="7" Cut="-1.1820589303970337e+00" cType="1" res="3.3201166661456227e-04" rms="2.9693225026130676e-01" purity="4.9850854277610779e-01" nType="0">
        <Node pos="l" depth="1" NCoef="0" IVar="3" Cut="2.8002117919921875e+02" cType="1" res="1.3059255667030811e-02" rms="2.7789849042892456e-01" purity="1.8460553884506226e-01" nType="0">
          <Node pos="l" depth="2" NCoef="0" IVar="-1" Cut="0.0000000000000000e+00" cType="1" res="6.7687503993511200e-02" rms="2.9274472594261169e-01" purity="1.3229867815971375e-01" nType="-99"/>
          <Node pos="r" depth="2" NCoef="0" IVar="8" Cut="1.3330790400505066e-01" cType="1" res="1.2396584497764707e-04" rms="2.6953297853469849e-01" purity="2.0969331264495850e-01" nType="0">
            <Node pos="l" depth="3" NCoef="0" IVar="-1" Cut="0.0000000000000000e+00" cType="1" res="1.3693327084183693e-02" rms="2.8552609682083130e-01" purity="2.3569603264331818e-01" nType="-99"/>
            <Node pos="r" depth="3" NCoef="0" IVar="-1" Cut="0.0000000000000000e+00" cType="1" res="-1.7665805295109749e-02" rms="2.4703098833560944e-01" purity="1.7652116715908051e-01" nType="-99"/>
          </Node>
        </Node>
        <Node pos="r" depth="1" NCoef="0" IVar="7" Cut="-4.2363148927688599e-01" cType="1" res="-1.0775945847854018e-03" rms="2.9893246293067932e-01" purity="5.3327494859695435e-01" nType="0">
          <Node pos="l" depth="2" NCoef="0" IVar="5" Cut="1.7969061279296875e+02" cType="1" res="-9.5891393721103668e-03" rms="3.0624967813491821e-01" purity="5.0712394714355469e-01" nType="0">
            <Node pos="l" depth="3" NCoef="0" IVar="-1" Cut="0.0000000000000000e+00" cType="1" res="-1.4063479378819466e-02" rms="3.1965368986129761e-01" purity="3.0839663743972778e-01" nType="-99"/>
            <Node pos="r" depth="3" NCoef="0" IVar="-1" Cut="0.0000000000000000e+00" cType="1" res="4.1536611388437450e-04" rms="2.8092223405838013e-01" purity="8.5573697090148926e-01" nType="-99"/>
          </Node>
          <Node pos="r" depth="2" NCoef="0" IVar="8" Cut="3.9993354678153992e-01" cType="1" res="1.5138996532186866e-03" rms="2.9662027955055237e-01" purity="5.4123705625534058e-01" nType="0">
            <Node pos="l" depth="3" NCoef="0" IVar="-1" Cut="0.0000000000000000e+00" cType="1" res="-2.4765068665146828e-03" rms="2.9062807559967041e-01" purity="5.7457238435745239e-01" nType="-99"/>
            <Node pos="r" depth="3" NCoef="0" IVar="-1" Cut="0.0000000000000000e+00" cType="1" res="8.9711220934987068e-03" rms="3.0692026019096375e-01" purity="4.8170611262321472e-01" nType="-99"/>
          </Node>
        </Node>
      </Node>
    </BinaryTree>
    <BinaryTree type="DecisionTree" boostWeight="1.0000000000000000e+00" itree="496">
      <Node pos="s" depth="0" NCoef="0" IVar="5" Cut="1.9051591491699219e+02" cType="1" res="2.3435787297785282e-03" rms="3.0058389902114868e-01" purity="5.0022834539413452e-01" nType="0">
        <Node pos="l" depth="1" NCoef="0" IVar="7" Cut="-6.5129780769348145e-01" cType="1" res="5.1322914659976959e-03" rms="3.1567057967185974e-01" purity="3.3715355396270752e-01" nType="0">
          <Node pos="l" depth="2" NCoef="0" IVar="5" Cut="1.4371109008789062e+02" cType="1" res="-3.4430813975632191e-03" rms="2.8741160035133362e-01" purity="2.1163687109947205e-01" nType="0">
            <Node pos="l" depth="3" NCoef="0" IVar="-1" Cut="0.0000000000000000e+00" cType="1" res="3.6322721280157566e-03" rms="2.6326546072959900e-01" purity="1.3593928515911102e-01" nType="-99"/>
            <Node pos="r" depth="3" NCoef="0" IVar="-1" Cut="0.0000000000000000e+00" cType="1" res="-1.7423946410417557e-02" rms="3.5409706830978394e-01" purity="4.5791912078857422e-01" nType="-99"/>
          </Node>
          <Node pos="r" depth="2" NCoef="0" IVar="5" Cut="7.6815185546875000e+01" cType="1" res="8.0066137015819550e-03" rms="3.2454177737236023e-01" purity="3.7922468781471252e-01" nType="0">
            <Node pos="l" depth="3" NCoef="0" IVar="-1" Cut="0.0000000000000000e+00" cType="1" res="-1.2238087132573128e-02" rms="2.1496188640594482e-01" purity="7.8133061528205872e-02" nType="-99"/>
            <Node pos="r" depth="3" NCoef="0" IVar="-1" Cut="0.0000000000000000e+00" cType="1" res="9.3735884875059128e-03" rms="3.4148266911506653e-01" purity="4.3692645430564880e-01" nType="-99"/>
          </Node>
        </Node>
        <Node pos="r" depth="1" NCoef="0" IVar="9" Cut="-9.3333989381790161e-01" cType="1" res="-3.8619476836174726e-03" rms="2.6383024454116821e-01" purity="8.6310720443725586e-01" nType="0">
          <Node pos="l" depth="2" NCoef="0" IVar="-1" Cut="0.0000000000000000e+00" cType="1" res="-2.4852201342582703e-02" rms="2.9871797561645508e-01" purity="7.7099353075027466e-01" nType="-99"/>
          <Node pos="r" depth="2" NCoef="0" IVar="10" Cut="1.3329967856407166e-01" cType="1" res="-9.5198326744139194e-04" rms="2.5775337219238281e-01" purity="8.7769287824630737e-01" nType="0">
            <Node pos="l" depth="3" NCoef="0" IVar="-1" Cut="0.0000000000000000e+00" cType="1" res="5.9702936559915543e-03" rms="2.6299768686294556e-01" purity="8.7903636693954468e-01" nType="-99"/>
            <Node pos="r" depth="3" NCoef="0" IVar="-1" Cut="0.0000000000000000e+00" cType="1" res="-1.0617485269904137e-02" rms="2.5172090530395508e-01" purity="8.7620896100997925e-01" nType="-99"/>
          </Node>
        </Node>
      </Node>
    </BinaryTree>
    <BinaryTree type="DecisionTree" boostWeight="1.0000000000000000e+00" itree="497">
      <Node pos="s" depth="0" NCoef="0" IVar="10" Cut="-1.4666033983230591e+00" cType="1" res="-1.1006918502971530e-03" rms="2.9726696014404297e-01" purity="5.0172442197799683e-01" nType="0">
        <Node pos="l" depth="1" NCoef="0" IVar="9" Cut="6.6653633117675781e-01" cType="1" res="9.6387919038534164e-03" rms="3.1316438317298889e-01" purity="3.9915341138839722e-01" nType="0">
          <Node pos="l" depth="2" NCoef="0" IVar="8" Cut="-1.3393746316432953e-01" cType="1" res="3.9895302616059780e-03" rms="3.0586326122283936e-01" purity="3.9859747886657715e-01" nType="0">
            <Node pos="l" depth="3" NCoef="0" IVar="-1" Cut="0.0000000000000000e+00" cType="1" res="2.0233713090419769e-02" rms="3.1071749329566956e-01" purity="3.8498291373252869e-01" nType="-99"/>
            <Node pos="r" depth="3" NCoef="0" IVar="-1" Cut="0.0000000000000000e+00" cType="1" res="-1.3907872140407562e-02" rms="2.9912829399108887e-01" purity="4.1474986076354980e-01" nType="-99"/>
          </Node>
          <Node pos="r" depth="2" NCoef="0" IVar="-1" Cut="0.0000000000000000e+00" cType="1" res="2.7568193152546883e-02" rms="3.3247500658035278e-01" purity="4.0072950720787048e-01" nType="-99"/>
        </Node>
        <Node pos="r" depth="1" NCoef="0" IVar="10" Cut="3.6194610595703125e-01" cType="1" res="-2.6042661629617214e-03" rms="2.9494169354438782e-01" purity="5.1608484983444214e-01" nType="0">
          <Node pos="l" depth="2" NCoef="0" IVar="8" Cut="-1.4666051864624023e+00" cType="1" res="-5.8304597623646259e-03" rms="2.9298180341720581e-01" purity="5.3591150045394897e-01" nType="0">
            <Node pos="l" depth="3" NCoef="0" IVar="-1" Cut="0.0000000000000000e+00" cType="1" res="1.5259328298270702e-02" rms="2.9381904006004333e-01" purity="2.5111675262451172e-01" nType="-99"/>
            <Node pos="r" depth="3" NCoef="0" IVar="-1" Cut="0.0000000000000000e+00" cType="1" res="-8.4712496027350426e-03" rms="2.9284223914146423e-01" purity="5.6246179342269897e-01" nType="-99"/>
          </Node>
          <Node pos="r" depth="2" NCoef="0" IVar="8" Cut="1.4669036865234375e+00" cType="1" res="1.2533734552562237e-03" rms="2.9722222685813904e-01" purity="4.9237766861915588e-01" nType="0">
            <Node pos="l" depth="3" NCoef="0" IVar="-1" Cut="0.0000000000000000e+00" cType="1" res="-4.6416468103416264e-04" rms="3.0018073320388794e-01" purity="5.2691191434860229e-01" nType="-99"/>
            <Node pos="r" depth="3" NCoef="0" IVar="-1" Cut="0.0000000000000000e+00" cType="1" res="2.1742384880781174e-02" rms="2.7065372467041016e-01" purity="2.0189239084720612e-01" nType="-99"/>
          </Node>
        </Node>
      </Node>
    </BinaryTree>
    <BinaryTree type="DecisionTree" boostWeight="1.0000000000000000e+00" itree="498">
      <Node pos="s" depth="0" NCoef="0" IVar="1" Cut="1.1200330810546875e+03" cType="1" res="-1.2168154353275895e-04" rms="2.9525667428970337e-01" purity="5.0318735837936401e-01" nType="0">
        <Node pos="l" depth="1" NCoef="0" IVar="3" Cut="3.2544204711914062e+02" cType="1" res="-6.6766338422894478e-03" rms="2.0858411490917206e-01" purity="5.3267303854227066e-02" nType="0">
          <Node pos="l" depth="2" NCoef="0" IVar="1" Cut="9.6763024902343750e+02" cType="1" res="-1.2448272667825222e-02" rms="2.1214516460895538e-01" purity="5.4822303354740143e-02" nType="0">
            <Node pos="l" depth="3" NCoef="0" IVar="-1" Cut="0.0000000000000000e+00" cType="1" res="-7.6679671183228493e-03" rms="1.6035841405391693e-01" purity="2.9479740187525749e-02" nType="-99"/>
            <Node pos="r" depth="3" NCoef="0" IVar="-1" Cut="0.0000000000000000e+00" cType="1" res="-2.8481755405664444e-02" rms="2.6162597537040710e-01" purity="8.5993357002735138e-02" nType="-99"/>
          </Node>
          <Node pos="r" depth="2" NCoef="0" IVar="-1" Cut="0.0000000000000000e+00" cType="1" res="2.6450295001268387e-02" rms="1.9759744405746460e-01" purity="4.8992045223712921e-02" nType="-99"/>
        </Node>
        <Node pos="r" depth="1" NCoef="0" IVar="5" Cut="1.0496820831298828e+02" cType="1" res="2.2826134227216244e-03" rms="3.2120460271835327e-01" purity="6.6821378469467163e-01" nType="0">
          <Node pos="l" depth="2" NCoef="0" IVar="8" Cut="6.6734510660171509e-01" cType="1" res="1.8871147185564041e-02" rms="3.6882603168487549e-01" purity="3.0219468474388123e-01" nType="0">
            <Node pos="l" depth="3" NCoef="0" IVar="-1" Cut="0.0000000000000000e+00" cType="1" res="3.0542796012014151e-03" rms="3.6671677231788635e-01" purity="3.0143386125564575e-01" nType="-99"/>
            <Node pos="r" depth="3" NCoef="0" IVar="-1" Cut="0.0000000000000000e+00" cType="1" res="4.3225660920143127e-02" rms="3.7131601572036743e-01" purity="3.0388098955154419e-01" nType="-99"/>
          </Node>
          <Node pos="r" depth="2" NCoef="0" IVar="6" Cut="8.5090957641601562e+01" cType="1" res="-6.9082865957170725e-04" rms="3.1180784106254578e-01" purity="7.3382157087326050e-01" nType="0">
            <Node pos="l" depth="3" NCoef="0" IVar="-1" Cut="0.0000000000000000e+00" cType="1" res="-9.0935593470931053e-03" rms="3.6726722121238708e-01" purity="5.2537590265274048e-01" nType="-99"/>
            <Node pos="r" depth="3" NCoef="0" IVar="-1" Cut="0.0000000000000000e+00" cType="1" res="3.0501356814056635e-03" rms="2.9327976703643799e-01" purity="7.9559564590454102e-01" nType="-99"/>
          </Node>
        </Node>
      </Node>
    </BinaryTree>
    <BinaryTree type="DecisionTree" boostWeight="1.0000000000000000e+00" itree="499">
      <Node pos="s" depth="0" NCoef="0" IVar="10" Cut="-9.3333667516708374e-01" cType="1" res="1.4842766104266047e-03" rms="2.9652431607246399e-01" purity="5.0135844945907593e-01" nType="0">
        <Node pos="l" depth="1" NCoef="0" IVar="4" Cut="2.3760939025878906e+02" cType="1" res="-6.4469389617443085e-03" rms="2.9388520121574402e-01" purity="4.4351202249526978e-01" nType="0">
          <Node pos="l" depth="2" NCoef="0" IVar="8" Cut="6.6666561365127563e-01" cType="1" res="-1.3834892772138119e-02" rms="2.8279024362564087e-01" purity="2.0314246416091919e-01" nType="0">
            <Node pos="l" depth="3" NCoef="0" IVar="-1" Cut="0.0000000000000000e+00" cType="1" res="-2.3188889026641846e-02" rms="2.7514395117759705e-01" purity="1.9535261392593384e-01" nType="-99"/>
            <Node pos="r" depth="3" NCoef="0" IVar="-1" Cut="0.0000000000000000e+00" cType="1" res="5.5696079507470131e-03" rms="3.0264315009117126e-01" purity="2.2523921728134155e-01" nType="-99"/>
          </Node>
          <Node pos="r" depth="2" NCoef="0" IVar="8" Cut="1.3261990249156952e-01" cType="1" res="2.7137424331158400e-03" rms="3.0683925747871399e-01" purity="7.4155789613723755e-01" nType="0">
            <Node pos="l" depth="3" NCoef="0" IVar="-1" Cut="0.0000000000000000e+00" cType="1" res="1.4272200874984264e-02" rms="3.0684599280357361e-01" purity="7.5234097242355347e-01" nType="-99"/>
            <Node pos="r" depth="3" NCoef="0" IVar="-1" Cut="0.0000000000000000e+00" cType="1" res="-1.6476700082421303e-02" rms="3.0600968003273010e-01" purity="7.2363525629043579e-01" nType="-99"/>
          </Node>
        </Node>
        <Node pos="r" depth="1" NCoef="0" IVar="9" Cut="-1.3325889408588409e-01" cType="1" res="3.8817971944808960e-03" rms="2.9727584123611450e-01" purity="5.1884472370147705e-01" nType="0">
          <Node pos="l" depth="2" NCoef="0" IVar="6" Cut="7.8424385070800781e+01" cType="1" res="7.3584690690040588e-03" rms="2.9901954531669617e-01" purity="5.2734428644180298e-01" nType="0">
            <Node pos="l" depth="3" NCoef="0" IVar="-1" Cut="0.0000000000000000e+00" cType="1" res="-1.8374419596511871e-04" rms="2.9114052653312683e-01" purity="2.3228126764297485e-01" nType="-99"/>
            <Node pos="r" depth="3" NCoef="0" IVar="-1" Cut="0.0000000000000000e+00" cType="1" res="1.3141324743628502e-02" rms="3.0390956997871399e-01" purity="7.1825242042541504e-01" nType="-99"/>
          </Node>
          <Node pos="r" depth="2" NCoef="0" IVar="3" Cut="3.4596862792968750e+02" cType="1" res="1.1617981363087893e-03" rms="2.9587599635124207e-01" purity="5.1219511032104492e-01" nType="0">
            <Node pos="l" depth="3" NCoef="0" IVar="-1" Cut="0.0000000000000000e+00" cType="1" res="1.1316852644085884e-02" rms="3.0799892544746399e-01" purity="2.8776109218597412e-01" nType="-99"/>
            <Node pos="r" depth="3" NCoef="0" IVar="-1" Cut="0.0000000000000000e+00" cType="1" res="-5.0491830334067345e-03" rms="2.8826087713241577e-01" purity="6.4610564708709717e-01" nType="-99"/>
          </Node>
        </Node>
      </Node>
    </BinaryTree>
    <BinaryTree type="DecisionTree" boostWeight="1.0000000000000000e+00" itree="500">
      <Node pos="s" depth="0" NCoef="0" IVar="10" Cut="2.2666635513305664e+00" cType="1" res="-4.4048021663911641e-04" rms="2.9581305384635925e-01" purity="5.0125747919082642e-01" nType="0">
        <Node pos="l" depth="1" NCoef="0" IVar="10" Cut="9.5195256173610687e-02" cType="1" res="-1.0102910455316305e-03" rms="2.9557898640632629e-01" purity="5.0738382339477539e-01" nType="0">
          <Node pos="l" depth="2" NCoef="0" IVar="9" Cut="6.6655516624450684e-01" cType="1" res="2.3169757332652807e-03" rms="2.9632991552352905e-01" purity="5.0469201803207397e-01" nType="0">
            <Node pos="l" depth="3" NCoef="0" IVar="-1" Cut="0.0000000000000000e+00" cType="1" res="-1.0876728920266032e-03" rms="2.8939223289489746e-01" purity="5.1332676410675049e-01" nType="-99"/>
            <Node pos="r" depth="3" NCoef="0" IVar="-1" Cut="0.0000000000000000e+00" cType="1" res="1.2325088493525982e-02" rms="3.1540048122406006e-01" purity="4.7964373230934143e-01" nType="-99"/>
          </Node>
          <Node pos="r" depth="2" NCoef="0" IVar="8" Cut="1.3318979740142822e-01" cType="1" res="-5.0186272710561752e-03" rms="2.9462194442749023e-01" purity="5.1062667369842529e-01" nType="0">
            <Node pos="l" depth="3" NCoef="0" IVar="-1" Cut="0.0000000000000000e+00" cType="1" res="-7.2847098635975271e-05" rms="3.0106770992279053e-01" purity="5.4674375057220459e-01" nType="-99"/>
            <Node pos="r" depth="3" NCoef="0" IVar="-1" Cut="0.0000000000000000e+00" cType="1" res="-1.2015296146273613e-02" rms="2.8736817836761475e-01" purity="4.7143962979316711e-01" nType="-99"/>
          </Node>
        </Node>
        <Node pos="r" depth="1" NCoef="0" IVar="-1" Cut="0.0000000000000000e+00" cType="1" res="1.9163869321346283e-02" rms="3.0267786979675293e-01" purity="3.0405795574188232e-01" nType="-99"/>
      </Node>
    </BinaryTree>
    <BinaryTree type="DecisionTree" boostWeight="1.0000000000000000e+00" itree="501">
      <Node pos="s" depth="0" NCoef="0" IVar="8" Cut="-1.7332605123519897e+00" cType="1" res="-1.4740363694727421e-03" rms="2.9337507486343384e-01" purity="5.0173830986022949e-01" nType="0">
        <Node pos="l" depth="1" NCoef="0" IVar="6" Cut="6.9052627563476562e+01" cType="1" res="-2.1752273663878441e-02" rms="2.3190656304359436e-01" purity="1.2189183384180069e-01" nType="0">
          <Node pos="l" depth="2" NCoef="0" IVar="-1" Cut="0.0000000000000000e+00" cType="1" res="-4.2515177279710770e-02" rms="1.4967112243175507e-01" purity="3.3116061240434647e-02" nType="-99"/>
          <Node pos="r" depth="2" NCoef="0" IVar="-1" Cut="0.0000000000000000e+00" cType="1" res="-2.9608493670821190e-02" rms="2.8591090440750122e-01" purity="2.0119832456111908e-01" nType="-99"/>
        </Node>
        <Node pos="r" depth="1" NCoef="0" IVar="3" Cut="6.3790582275390625e+02" cType="1" res="-3.1738710822537541e-04" rms="2.9645544290542603e-01" purity="5.2340435981750488e-01" nType="0">
          <Node pos="l" depth="2" NCoef="0" IVar="5" Cut="1.5405847167968750e+02" cType="1" res="-1.6619759844616055e-03" rms="2.9771524667739868e-01" purity="4.7971653938293457e-01" nType="0">
            <Node pos="l" depth="3" NCoef="0" IVar="-1" Cut="0.0000000000000000e+00" cType="1" res="-5.9023378416895866e-03" rms="2.9838874936103821e-01" purity="2.3225557804107666e-01" nType="-99"/>
            <Node pos="r" depth="3" NCoef="0" IVar="-1" Cut="0.0000000000000000e+00" cType="1" res="3.5797574091702700e-03" rms="2.9679015278816223e-01" purity="7.9331856966018677e-01" nType="-99"/>
          </Node>
          <Node pos="r" depth="2" NCoef="0" IVar="10" Cut="9.3326306343078613e-01" cType="1" res="8.5014961659908295e-03" rms="2.8790032863616943e-01" purity="8.0994397401809692e-01" nType="0">
            <Node pos="l" depth="3" NCoef="0" IVar="-1" Cut="0.0000000000000000e+00" cType="1" res="2.1752237807959318e-03" rms="2.7672436833381653e-01" purity="8.1697010993957520e-01" nType="-99"/>
            <Node pos="r" depth="3" NCoef="0" IVar="-1" Cut="0.0000000000000000e+00" cType="1" res="3.6535076797008514e-02" rms="3.2484039664268494e-01" purity="7.8386265039443970e-01" nType="-99"/>
          </Node>
        </Node>
      </Node>
    </BinaryTree>
    <BinaryTree type="DecisionTree" boostWeight="1.0000000000000000e+00" itree="502">
      <Node pos="s" depth="0" NCoef="0" IVar="8" Cut="-1.9999028444290161e+00" cType="1" res="9.2718587256968021e-04" rms="2.9866388440132141e-01" purity="5.0240015983581543e-01" nType="0">
        <Node pos="l" depth="1" NCoef="0" IVar="-1" Cut="0.0000000000000000e+00" cType="1" res="5.6595552712678909e-02" rms="2.7341148257255554e-01" purity="1.3634595274925232e-01" nType="-99"/>
        <Node pos="r" depth="1" NCoef="0" IVar="8" Cut="-1.5427305698394775e+00" cType="1" res="-1.9072188297286630e-04" rms="2.9947963356971741e-01" purity="5.1566940546035767e-01" nType="0">
          <Node pos="l" depth="2" NCoef="0" IVar="-1" Cut="0.0000000000000000e+00" cType="1" res="-3.3410288393497467e-02" rms="2.7387642860412598e-01" purity="1.9327661395072937e-01" nType="-99"/>
          <Node pos="r" depth="2" NCoef="0" IVar="3" Cut="7.3174291992187500e+02" cType="1" res="1.0101704392582178e-03" rms="3.0043867230415344e-01" purity="5.2909725904464722e-01" nType="0">
            <Node pos="l" depth="3" NCoef="0" IVar="-1" Cut="0.0000000000000000e+00" cType="1" res="2.1050260402262211e-03" rms="3.0127587914466858e-01" purity="5.0715452432632446e-01" nType="-99"/>
            <Node pos="r" depth="3" NCoef="0" IVar="-1" Cut="0.0000000000000000e+00" cType="1" res="-1.3173187151551247e-02" rms="2.8874844312667847e-01" purity="8.2236200571060181e-01" nType="-99"/>
          </Node>
        </Node>
      </Node>
    </BinaryTree>
    <BinaryTree type="DecisionTree" boostWeight="1.0000000000000000e+00" itree="503">
      <Node pos="s" depth="0" NCoef="0" IVar="10" Cut="1.3332447409629822e-01" cType="1" res="1.4396072365343571e-03" rms="2.9928579926490784e-01" purity="4.9913927912712097e-01" nType="0">
        <Node pos="l" depth="1" NCoef="0" IVar="9" Cut="1.4665949344635010e+00" cType="1" res="4.5855026692152023e-03" rms="3.0091363191604614e-01" purity="5.0508880615234375e-01" nType="0">
          <Node pos="l" depth="2" NCoef="0" IVar="4" Cut="2.4120411682128906e+02" cType="1" res="6.0303858481347561e-03" rms="3.0029335618019104e-01" purity="5.2356219291687012e-01" nType="0">
            <Node pos="l" depth="3" NCoef="0" IVar="-1" Cut="0.0000000000000000e+00" cType="1" res="1.2043871916830540e-02" rms="3.1095653772354126e-01" purity="2.7529743313789368e-01" nType="-99"/>
            <Node pos="r" depth="3" NCoef="0" IVar="-1" Cut="0.0000000000000000e+00" cType="1" res="2.0294492424000055e-04" rms="2.8826946020126343e-01" purity="7.9059118032455444e-01" nType="-99"/>
          </Node>
          <Node pos="r" depth="2" NCoef="0" IVar="-1" Cut="0.0000000000000000e+00" cType="1" res="-1.0421542450785637e-02" rms="3.0673533678054810e-01" purity="3.1821992993354797e-01" nType="-99"/>
        </Node>
        <Node pos="r" depth="1" NCoef="0" IVar="2" Cut="2.0917132496833801e-02" cType="1" res="-2.2505237720906734e-03" rms="2.9732257127761841e-01" purity="4.9216049909591675e-01" nType="0">
          <Node pos="l" depth="2" NCoef="0" IVar="8" Cut="6.6664916276931763e-01" cType="1" res="3.7686491850763559e-03" rms="2.7695202827453613e-01" purity="2.4230659008026123e-01" nType="0">
            <Node pos="l" depth="3" NCoef="0" IVar="-1" Cut="0.0000000000000000e+00" cType="1" res="-7.7970023266971111e-03" rms="2.7197530865669250e-01" purity="2.6657679677009583e-01" nType="-99"/>
            <Node pos="r" depth="3" NCoef="0" IVar="-1" Cut="0.0000000000000000e+00" cType="1" res="2.7860991656780243e-02" rms="2.8410309553146362e-01" purity="2.0291852951049805e-01" nType="-99"/>
          </Node>
          <Node pos="r" depth="2" NCoef="0" IVar="9" Cut="1.2000564336776733e+00" cType="1" res="-5.7290438562631607e-03" rms="3.0842855572700500e-01" purity="6.3655275106430054e-01" nType="0">
            <Node pos="l" depth="3" NCoef="0" IVar="-1" Cut="0.0000000000000000e+00" cType="1" res="-2.2876716684550047e-03" rms="3.0650609731674194e-01" purity="6.6852015256881714e-01" nType="-99"/>
            <Node pos="r" depth="3" NCoef="0" IVar="-1" Cut="0.0000000000000000e+00" cType="1" res="-2.6427756994962692e-02" rms="3.1960624456405640e-01" purity="4.2961513996124268e-01" nType="-99"/>
          </Node>
        </Node>
      </Node>
    </BinaryTree>
    <BinaryTree type="DecisionTree" boostWeight="1.0000000000000000e+00" itree="504">
      <Node pos="s" depth="0" NCoef="0" IVar="9" Cut="-1.1999970674514771e+00" cType="1" res="-1.1033597402274609e-03" rms="2.9500275850296021e-01" purity="4.9980655312538147e-01" nType="0">
        <Node pos="l" depth="1" NCoef="0" IVar="10" Cut="-1.1998159885406494e+00" cType="1" res="-1.1542205698788166e-02" rms="2.9276537895202637e-01" purity="3.2720655202865601e-01" nType="0">
          <Node pos="l" depth="2" NCoef="0" IVar="-1" Cut="0.0000000000000000e+00" cType="1" res="2.5944274384528399e-03" rms="2.8516674041748047e-01" purity="2.5787648558616638e-01" nType="-99"/>
          <Node pos="r" depth="2" NCoef="0" IVar="10" Cut="-2.4740533530712128e-01" cType="1" res="-1.5647992491722107e-02" rms="2.9487931728363037e-01" purity="3.4797289967536926e-01" nType="0">
            <Node pos="l" depth="3" NCoef="0" IVar="-1" Cut="0.0000000000000000e+00" cType="1" res="-2.7852164581418037e-02" rms="2.7788126468658447e-01" purity="3.1900444626808167e-01" nType="-99"/>
            <Node pos="r" depth="3" NCoef="0" IVar="-1" Cut="0.0000000000000000e+00" cType="1" res="-1.1767202056944370e-02" rms="3.0297851562500000e-01" purity="3.6258822679519653e-01" nType="-99"/>
          </Node>
        </Node>
        <Node pos="r" depth="1" NCoef="0" IVar="8" Cut="2.0000765323638916e+00" cType="1" res="6.5729144262149930e-04" rms="2.9534208774566650e-01" purity="5.2891784906387329e-01" nType="0">
          <Node pos="l" depth="2" NCoef="0" IVar="10" Cut="-9.3333107233047485e-01" cType="1" res="1.4766032109037042e-03" rms="2.9787558317184448e-01" purity="5.4297816753387451e-01" nType="0">
            <Node pos="l" depth="3" NCoef="0" IVar="-1" Cut="0.0000000000000000e+00" cType="1" res="8.3628622815012932e-03" rms="3.0699858069419861e-01" purity="5.0921112298965454e-01" nType="-99"/>
            <Node pos="r" depth="3" NCoef="0" IVar="-1" Cut="0.0000000000000000e+00" cType="1" res="-4.4855652959086001e-04" rms="2.9512214660644531e-01" purity="5.5287426710128784e-01" nType="-99"/>
          </Node>
          <Node pos="r" depth="2" NCoef="0" IVar="-1" Cut="0.0000000000000000e+00" cType="1" res="-5.1119357347488403e-02" rms="1.9299370050430298e-01" purity="6.8276852369308472e-02" nType="-99"/>
        </Node>
      </Node>
    </BinaryTree>
    <BinaryTree type="DecisionTree" boostWeight="1.0000000000000000e+00" itree="505">
      <Node pos="s" depth="0" NCoef="0" IVar="7" Cut="-9.2586350440979004e-01" cType="1" res="1.6215354844462126e-04" rms="2.9507279396057129e-01" purity="5.0088202953338623e-01" nType="0">
        <Node pos="l" depth="1" NCoef="0" IVar="10" Cut="6.6692829132080078e-01" cType="1" res="-1.1248231865465641e-02" rms="2.6286476850509644e-01" purity="2.4565105140209198e-01" nType="0">
          <Node pos="l" depth="2" NCoef="0" IVar="5" Cut="1.3652870178222656e+02" cType="1" res="-6.6652623936533928e-03" rms="2.5952899456024170e-01" purity="2.5583338737487793e-01" nType="0">
            <Node pos="l" depth="3" NCoef="0" IVar="-1" Cut="0.0000000000000000e+00" cType="1" res="-3.1350340694189072e-02" rms="1.8901951611042023e-01" purity="6.9574080407619476e-02" nType="-99"/>
            <Node pos="r" depth="3" NCoef="0" IVar="-1" Cut="0.0000000000000000e+00" cType="1" res="5.6651360355317593e-03" rms="3.3733817934989929e-01" purity="5.3114038705825806e-01" nType="-99"/>
          </Node>
          <Node pos="r" depth="2" NCoef="0" IVar="-1" Cut="0.0000000000000000e+00" cType="1" res="-3.0428426340222359e-02" rms="2.7183693647384644e-01" purity="2.1624019742012024e-01" nType="-99"/>
        </Node>
        <Node pos="r" depth="1" NCoef="0" IVar="7" Cut="1.3803913593292236e+00" cType="1" res="2.1844296716153622e-03" rms="3.0037581920623779e-01" purity="5.4611694812774658e-01" nType="0">
          <Node pos="l" depth="2" NCoef="0" IVar="10" Cut="1.7333244085311890e+00" cType="1" res="3.4962487407028675e-03" rms="3.0680334568023682e-01" purity="5.8560061454772949e-01" nType="0">
            <Node pos="l" depth="3" NCoef="0" IVar="-1" Cut="0.0000000000000000e+00" cType="1" res="5.0917020998895168e-03" rms="3.0623212456703186e-01" purity="5.9804254770278931e-01" nType="-99"/>
            <Node pos="r" depth="3" NCoef="0" IVar="-1" Cut="0.0000000000000000e+00" cType="1" res="-1.0836008936166763e-02" rms="3.1305232644081116e-01" purity="4.3957453966140747e-01" nType="-99"/>
          </Node>
          <Node pos="r" depth="2" NCoef="0" IVar="3" Cut="3.0579968261718750e+02" cType="1" res="-1.1981548741459846e-02" rms="2.1877524256706238e-01" purity="1.1974380165338516e-01" nType="0">
            <Node pos="l" depth="3" NCoef="0" IVar="-1" Cut="0.0000000000000000e+00" cType="1" res="7.3715643957257271e-03" rms="2.1918208897113800e-01" purity="8.4830760955810547e-02" nType="-99"/>
            <Node pos="r" depth="3" NCoef="0" IVar="-1" Cut="0.0000000000000000e+00" cType="1" res="-3.8016073405742645e-02" rms="2.1769861876964569e-01" purity="1.4698909223079681e-01" nType="-99"/>
          </Node>
        </Node>
      </Node>
    </BinaryTree>
    <BinaryTree type="DecisionTree" boostWeight="1.0000000000000000e+00" itree="506">
      <Node pos="s" depth="0" NCoef="0" IVar="10" Cut="-1.1999921798706055e+00" cType="1" res="-4.2603020556271076e-03" rms="2.9559668898582458e-01" purity="4.9553498625755310e-01" nType="0">
        <Node pos="l" depth="1" NCoef="0" IVar="7" Cut="-1.1585968732833862e+00" cType="1" res="-1.1742418631911278e-02" rms="2.9763883352279663e-01" purity="4.1918864846229553e-01" nType="0">
          <Node pos="l" depth="2" NCoef="0" IVar="-1" Cut="0.0000000000000000e+00" cType="1" res="1.4084547758102417e-02" rms="2.5447571277618408e-01" purity="1.4027167856693268e-01" nType="-99"/>
          <Node pos="r" depth="2" NCoef="0" IVar="9" Cut="-4.0024355053901672e-01" cType="1" res="-1.5190041624009609e-02" rms="3.0425420403480530e-01" purity="4.6674579381942749e-01" nType="0">
            <Node pos="l" depth="3" NCoef="0" IVar="-1" Cut="0.0000000000000000e+00" cType="1" res="-4.4311238452792168e-03" rms="3.1234893202781677e-01" purity="4.1705694794654846e-01" nType="-99"/>
            <Node pos="r" depth="3" NCoef="0" IVar="-1" Cut="0.0000000000000000e+00" cType="1" res="-2.4647358804941177e-02" rms="2.9828920960426331e-01" purity="5.0112897157669067e-01" nType="-99"/>
          </Node>
        </Node>
        <Node pos="r" depth="1" NCoef="0" IVar="8" Cut="-9.3338435888290405e-01" cType="1" res="-2.6889846194535494e-03" rms="2.9514193534851074e-01" purity="5.1156842708587646e-01" nType="0">
          <Node pos="l" depth="2" NCoef="0" IVar="7" Cut="-6.0600054264068604e-01" cType="1" res="4.7343242913484573e-03" rms="3.0296203494071960e-01" purity="3.7100780010223389e-01" nType="0">
            <Node pos="l" depth="3" NCoef="0" IVar="-1" Cut="0.0000000000000000e+00" cType="1" res="-1.8397612497210503e-02" rms="2.6359584927558899e-01" purity="2.3145841062068939e-01" nType="-99"/>
            <Node pos="r" depth="3" NCoef="0" IVar="-1" Cut="0.0000000000000000e+00" cType="1" res="1.3068921864032745e-02" rms="3.1644442677497864e-01" purity="4.2449501156806946e-01" nType="-99"/>
          </Node>
          <Node pos="r" depth="2" NCoef="0" IVar="1" Cut="1.0875820312500000e+03" cType="1" res="-4.2891651391983032e-03" rms="2.9340431094169617e-01" purity="5.4186797142028809e-01" nType="0">
            <Node pos="l" depth="3" NCoef="0" IVar="-1" Cut="0.0000000000000000e+00" cType="1" res="6.3485470600426197e-03" rms="2.1736574172973633e-01" purity="5.7034619152545929e-02" nType="-99"/>
            <Node pos="r" depth="3" NCoef="0" IVar="-1" Cut="0.0000000000000000e+00" cType="1" res="-6.4378711394965649e-03" rms="3.1113308668136597e-01" purity="6.7589312791824341e-01" nType="-99"/>
          </Node>
        </Node>
      </Node>
    </BinaryTree>
    <BinaryTree type="DecisionTree" boostWeight="1.0000000000000000e+00" itree="507">
      <Node pos="s" depth="0" NCoef="0" IVar="2" Cut="4.1834041476249695e-02" cType="1" res="-5.8335199719294906e-04" rms="2.9632225632667542e-01" purity="4.9619385600090027e-01" nType="0">
        <Node pos="l" depth="1" NCoef="0" IVar="2" Cut="2.9881285503506660e-02" cType="1" res="2.5519728660583496e-03" rms="2.9482519626617432e-01" purity="3.2130923867225647e-01" nType="0">
          <Node pos="l" depth="2" NCoef="0" IVar="0" Cut="5.5700848388671875e+02" cType="1" res="-3.2799940527183935e-05" rms="2.8556370735168457e-01" purity="2.8140035271644592e-01" nType="0">
            <Node pos="l" depth="3" NCoef="0" IVar="-1" Cut="0.0000000000000000e+00" cType="1" res="-4.7537228092551231e-03" rms="2.6600083708763123e-01" purity="1.3921664655208588e-01" nType="-99"/>
            <Node pos="r" depth="3" NCoef="0" IVar="-1" Cut="0.0000000000000000e+00" cType="1" res="9.4971656799316406e-03" rms="3.4053856134414673e-01" purity="7.3707568645477295e-01" nType="-99"/>
          </Node>
          <Node pos="r" depth="2" NCoef="0" IVar="7" Cut="-1.5946029126644135e-01" cType="1" res="1.4503051526844501e-02" rms="3.3406803011894226e-01" purity="5.0583398342132568e-01" nType="0">
            <Node pos="l" depth="3" NCoef="0" IVar="-1" Cut="0.0000000000000000e+00" cType="1" res="-8.2768900319933891e-03" rms="3.1961426138877869e-01" purity="4.7719618678092957e-01" nType="-99"/>
            <Node pos="r" depth="3" NCoef="0" IVar="-1" Cut="0.0000000000000000e+00" cType="1" res="2.8396399691700935e-02" rms="3.4313011169433594e-01" purity="5.2640247344970703e-01" nType="-99"/>
          </Node>
        </Node>
        <Node pos="r" depth="1" NCoef="0" IVar="3" Cut="3.0637725830078125e+02" cType="1" res="-4.4973366893827915e-03" rms="2.9813432693481445e-01" purity="7.1451115608215332e-01" nType="0">
          <Node pos="l" depth="2" NCoef="0" IVar="10" Cut="-1.3210587203502655e-01" cType="1" res="-1.5431415289640427e-02" rms="3.4542411565780640e-01" purity="3.8494020700454712e-01" nType="0">
            <Node pos="l" depth="3" NCoef="0" IVar="-1" Cut="0.0000000000000000e+00" cType="1" res="-2.5464223697781563e-02" rms="3.4223660826683044e-01" purity="3.5518601536750793e-01" nType="-99"/>
            <Node pos="r" depth="3" NCoef="0" IVar="-1" Cut="0.0000000000000000e+00" cType="1" res="-2.3340384941548109e-03" rms="3.4744295477867126e-01" purity="4.0876233577728271e-01" nType="-99"/>
          </Node>
          <Node pos="r" depth="2" NCoef="0" IVar="9" Cut="1.1989562511444092e+00" cType="1" res="-1.0626744478940964e-03" rms="2.8155770897865295e-01" purity="8.1803745031356812e-01" nType="0">
            <Node pos="l" depth="3" NCoef="0" IVar="-1" Cut="0.0000000000000000e+00" cType="1" res="-3.4101705532521009e-03" rms="2.7366384863853455e-01" purity="8.3084034919738770e-01" nType="-99"/>
            <Node pos="r" depth="3" NCoef="0" IVar="-1" Cut="0.0000000000000000e+00" cType="1" res="9.1693503782153130e-03" rms="3.3560755848884583e-01" purity="7.2018021345138550e-01" nType="-99"/>
          </Node>
        </Node>
      </Node>
    </BinaryTree>
    <BinaryTree type="DecisionTree" boostWeight="1.0000000000000000e+00" itree="508">
      <Node pos="s" depth="0" NCoef="0" IVar="8" Cut="-9.3325525522232056e-01" cType="1" res="2.3888093419373035e-03" rms="2.9589733481407166e-01" purity="5.0459277629852295e-01" nType="0">
        <Node pos="l" depth="1" NCoef="0" IVar="7" Cut="-3.6743298172950745e-01" cType="1" res="-7.4013574048876762e-03" rms="2.9099211096763611e-01" purity="3.3126056194305420e-01" nType="0">
          <Node pos="l" depth="2" NCoef="0" IVar="10" Cut="1.3359451293945312e-01" cType="1" res="1.4464101986959577e-03" rms="2.8569760918617249e-01" purity="2.8956612944602966e-01" nType="0">
            <Node pos="l" depth="3" NCoef="0" IVar="-1" Cut="0.0000000000000000e+00" cType="1" res="-1.3748658820986748e-02" rms="2.6564687490463257e-01" purity="2.5001299381256104e-01" nType="-99"/>
            <Node pos="r" depth="3" NCoef="0" IVar="-1" Cut="0.0000000000000000e+00" cType="1" res="2.3122034966945648e-02" rms="3.1646692752838135e-01" purity="3.5822936892509460e-01" nType="-99"/>
          </Node>
          <Node pos="r" depth="2" NCoef="0" IVar="10" Cut="6.6653662919998169e-01" cType="1" res="-1.3513226062059402e-02" rms="2.9443868994712830e-01" purity="3.6006230115890503e-01" nType="0">
            <Node pos="l" depth="3" NCoef="0" IVar="-1" Cut="0.0000000000000000e+00" cType="1" res="-9.0961176902055740e-03" rms="2.9707220196723938e-01" purity="3.7327566742897034e-01" nType="-99"/>
            <Node pos="r" depth="3" NCoef="0" IVar="-1" Cut="0.0000000000000000e+00" cType="1" res="-3.0583187937736511e-02" rms="2.8720065951347351e-01" purity="3.2644885778427124e-01" nType="-99"/>
          </Node>
        </Node>
        <Node pos="r" depth="1" NCoef="0" IVar="3" Cut="3.3679010009765625e+02" cType="1" res="4.5770779252052307e-03" rms="2.9693853855133057e-01" purity="5.4333555698394775e-01" nType="0">
          <Node pos="l" depth="2" NCoef="0" IVar="1" Cut="1.1016553955078125e+03" cType="1" res="1.4119333587586880e-02" rms="3.1484958529472351e-01" purity="3.0340808629989624e-01" nType="0">
            <Node pos="l" depth="3" NCoef="0" IVar="-1" Cut="0.0000000000000000e+00" cType="1" res="1.6427295049652457e-03" rms="2.3358251154422760e-01" purity="6.5560460090637207e-02" nType="-99"/>
            <Node pos="r" depth="3" NCoef="0" IVar="-1" Cut="0.0000000000000000e+00" cType="1" res="2.0396001636981964e-02" rms="3.9095446467399597e-01" purity="5.9257572889328003e-01" nType="-99"/>
          </Node>
          <Node pos="r" depth="2" NCoef="0" IVar="4" Cut="1.4559230041503906e+02" cType="1" res="-2.0902241521980613e-04" rms="2.8741580247879028e-01" purity="6.6367566585540771e-01" nType="0">
            <Node pos="l" depth="3" NCoef="0" IVar="-1" Cut="0.0000000000000000e+00" cType="1" res="-2.7959605678915977e-02" rms="2.3602057993412018e-01" purity="1.0316736251115799e-01" nType="-99"/>
            <Node pos="r" depth="3" NCoef="0" IVar="-1" Cut="0.0000000000000000e+00" cType="1" res="2.7204705402255058e-03" rms="2.9339328408241272e-01" purity="7.3720532655715942e-01" nType="-99"/>
          </Node>
        </Node>
      </Node>
    </BinaryTree>
    <BinaryTree type="DecisionTree" boostWeight="1.0000000000000000e+00" itree="509">
      <Node pos="s" depth="0" NCoef="0" IVar="7" Cut="-1.4580757617950439e+00" cType="1" res="9.1617763973772526e-04" rms="2.9536631703376770e-01" purity="5.0135099887847900e-01" nType="0">
        <Node pos="l" depth="1" NCoef="0" IVar="0" Cut="3.7431033325195312e+02" cType="1" res="-1.4336988329887390e-02" rms="2.0400097966194153e-01" purity="9.0256713330745697e-02" nType="0">
          <Node pos="l" depth="2" NCoef="0" IVar="-1" Cut="0.0000000000000000e+00" cType="1" res="-2.7699502184987068e-02" rms="1.4647489786148071e-01" purity="2.4126360192894936e-02" nType="-99"/>
          <Node pos="r" depth="2" NCoef="0" IVar="-1" Cut="0.0000000000000000e+00" cType="1" res="-2.7592554688453674e-02" rms="2.4865008890628815e-01" purity="1.5687698125839233e-01" nType="-99"/>
        </Node>
        <Node pos="r" depth="1" NCoef="0" IVar="7" Cut="9.7490280866622925e-01" cType="1" res="1.8411031924188137e-03" rms="2.9998818039894104e-01" purity="5.2627903223037720e-01" nType="0">
          <Node pos="l" depth="2" NCoef="0" IVar="4" Cut="2.4130744934082031e+02" cType="1" res="3.7369211204349995e-03" rms="3.0713555216789246e-01" purity="5.7785743474960327e-01" nType="0">
            <Node pos="l" depth="3" NCoef="0" IVar="-1" Cut="0.0000000000000000e+00" cType="1" res="7.7253361232578754e-03" rms="3.2909107208251953e-01" purity="3.1906673312187195e-01" nType="-99"/>
            <Node pos="r" depth="3" NCoef="0" IVar="-1" Cut="0.0000000000000000e+00" cType="1" res="-5.8545271167531610e-04" rms="2.8487649559974670e-01" purity="8.2131379842758179e-01" nType="-99"/>
          </Node>
          <Node pos="r" depth="2" NCoef="0" IVar="1" Cut="1.6770069580078125e+03" cType="1" res="-8.7436456233263016e-03" rms="2.5619015097618103e-01" purity="2.3830628395080566e-01" nType="0">
            <Node pos="l" depth="3" NCoef="0" IVar="-1" Cut="0.0000000000000000e+00" cType="1" res="-2.0499896258115768e-02" rms="2.4377533793449402e-01" purity="1.1544237285852432e-01" nType="-99"/>
            <Node pos="r" depth="3" NCoef="0" IVar="-1" Cut="0.0000000000000000e+00" cType="1" res="1.3895699754357338e-02" rms="3.0393117666244507e-01" purity="7.8040236234664917e-01" nType="-99"/>
          </Node>
        </Node>
      </Node>
    </BinaryTree>
    <BinaryTree type="DecisionTree" boostWeight="1.0000000000000000e+00" itree="510">
      <Node pos="s" depth="0" NCoef="0" IVar="2" Cut="1.2789912521839142e-01" cType="1" res="3.0443074647337198e-03" rms="2.9893872141838074e-01" purity="5.0308173894882202e-01" nType="0">
        <Node pos="l" depth="1" NCoef="0" IVar="5" Cut="1.6115164184570312e+02" cType="1" res="4.4138450175523758e-03" rms="3.0463883280754089e-01" purity="4.5315280556678772e-01" nType="0">
          <Node pos="l" depth="2" NCoef="0" IVar="10" Cut="-1.3333073258399963e-01" cType="1" res="7.1770632639527321e-03" rms="3.0567878484725952e-01" purity="2.5435763597488403e-01" nType="0">
            <Node pos="l" depth="3" NCoef="0" IVar="-1" Cut="0.0000000000000000e+00" cType="1" res="1.3718345202505589e-02" rms="3.0804970860481262e-01" purity="2.6110917329788208e-01" nType="-99"/>
            <Node pos="r" depth="3" NCoef="0" IVar="-1" Cut="0.0000000000000000e+00" cType="1" res="2.6091183535754681e-03" rms="3.0352577567100525e-01" purity="2.4850551784038544e-01" nType="-99"/>
          </Node>
          <Node pos="r" depth="2" NCoef="0" IVar="10" Cut="1.4664392471313477e+00" cType="1" res="-9.2041125753894448e-05" rms="3.0288124084472656e-01" purity="7.7732133865356445e-01" nType="0">
            <Node pos="l" depth="3" NCoef="0" IVar="-1" Cut="0.0000000000000000e+00" cType="1" res="-2.3623427841812372e-03" rms="2.9835951328277588e-01" purity="7.8648257255554199e-01" nType="-99"/>
            <Node pos="r" depth="3" NCoef="0" IVar="-1" Cut="0.0000000000000000e+00" cType="1" res="1.6762437298893929e-02" rms="3.4246224164962769e-01" purity="6.8983566761016846e-01" nType="-99"/>
          </Node>
        </Node>
        <Node pos="r" depth="1" NCoef="0" IVar="-1" Cut="0.0000000000000000e+00" cType="1" res="-1.0280331596732140e-02" rms="2.5489780306816101e-01" purity="8.5551095008850098e-01" nType="-99"/>
      </Node>
    </BinaryTree>
    <BinaryTree type="DecisionTree" boostWeight="1.0000000000000000e+00" itree="511">
      <Node pos="s" depth="0" NCoef="0" IVar="9" Cut="1.1997731924057007e+00" cType="1" res="-2.0275195129215717e-03" rms="2.9590281844139099e-01" purity="4.9808052182197571e-01" nType="0">
        <Node pos="l" depth="1" NCoef="0" IVar="10" Cut="-1.7333253622055054e+00" cType="1" res="-3.5607048776000738e-03" rms="2.9451426863670349e-01" purity="5.2265715599060059e-01" nType="0">
          <Node pos="l" depth="2" NCoef="0" IVar="7" Cut="1.5992185473442078e-01" cType="1" res="8.8959876447916031e-03" rms="3.0584430694580078e-01" purity="3.8887128233909607e-01" nType="0">
            <Node pos="l" depth="3" NCoef="0" IVar="-1" Cut="0.0000000000000000e+00" cType="1" res="-5.8907689526677132e-03" rms="2.9641759395599365e-01" purity="3.8217273354530334e-01" nType="-99"/>
            <Node pos="r" depth="3" NCoef="0" IVar="-1" Cut="0.0000000000000000e+00" cType="1" res="3.3190231770277023e-02" rms="3.1872418522834778e-01" purity="3.9928483963012695e-01" nType="-99"/>
          </Node>
          <Node pos="r" depth="2" NCoef="0" IVar="7" Cut="9.4912034273147583e-01" cType="1" res="-4.7518694773316383e-03" rms="2.9338020086288452e-01" purity="5.3545039892196655e-01" nType="0">
            <Node pos="l" depth="3" NCoef="0" IVar="-1" Cut="0.0000000000000000e+00" cType="1" res="-7.0751346647739410e-03" rms="2.9435646533966064e-01" purity="5.7521593570709229e-01" nType="-99"/>
            <Node pos="r" depth="3" NCoef="0" IVar="-1" Cut="0.0000000000000000e+00" cType="1" res="4.8970142379403114e-03" rms="2.8729265928268433e-01" purity="2.9675313830375671e-01" nType="-99"/>
          </Node>
        </Node>
        <Node pos="r" depth="1" NCoef="0" IVar="9" Cut="2.1901950836181641e+00" cType="1" res="6.6277869045734406e-03" rms="3.0347725749015808e-01" purity="3.5933750867843628e-01" nType="0">
          <Node pos="l" depth="2" NCoef="0" IVar="10" Cut="1.3369509577751160e-01" cType="1" res="1.0659647174179554e-02" rms="3.1324195861816406e-01" purity="4.0014165639877319e-01" nType="0">
            <Node pos="l" depth="3" NCoef="0" IVar="-1" Cut="0.0000000000000000e+00" cType="1" res="2.8332183137536049e-03" rms="3.1246739625930786e-01" purity="4.3121737241744995e-01" nType="-99"/>
            <Node pos="r" depth="3" NCoef="0" IVar="-1" Cut="0.0000000000000000e+00" cType="1" res="1.9010920077562332e-02" rms="3.1376901268959045e-01" purity="3.7212860584259033e-01" nType="-99"/>
          </Node>
          <Node pos="r" depth="2" NCoef="0" IVar="-1" Cut="0.0000000000000000e+00" cType="1" res="-1.5837226063013077e-02" rms="2.5334614515304565e-01" purity="1.7299799621105194e-01" nType="-99"/>
        </Node>
      </Node>
    </BinaryTree>
    <BinaryTree type="DecisionTree" boostWeight="1.0000000000000000e+00" itree="512">
      <Node pos="s" depth="0" NCoef="0" IVar="9" Cut="6.6665768623352051e-01" cType="1" res="2.0455981139093637e-03" rms="2.9814821481704712e-01" purity="5.0133943557739258e-01" nType="0">
        <Node pos="l" depth="1" NCoef="0" IVar="9" Cut="1.7142085731029510e-01" cType="1" res="4.9784393049776554e-03" rms="2.9728013277053833e-01" purity="5.2614760398864746e-01" nType="0">
          <Node pos="l" depth="2" NCoef="0" IVar="3" Cut="6.5569885253906250e+02" cType="1" res="2.2715632803738117e-03" rms="2.9708713293075562e-01" purity="5.0738435983657837e-01" nType="0">
            <Node pos="l" depth="3" NCoef="0" IVar="-1" Cut="0.0000000000000000e+00" cType="1" res="4.1262432932853699e-03" rms="2.9836001992225647e-01" purity="4.7085440158843994e-01" nType="-99"/>
            <Node pos="r" depth="3" NCoef="0" IVar="-1" Cut="0.0000000000000000e+00" cType="1" res="-1.0088939219713211e-02" rms="2.8670039772987366e-01" purity="7.9302585124969482e-01" nType="-99"/>
          </Node>
          <Node pos="r" depth="2" NCoef="0" IVar="1" Cut="1.8314881591796875e+03" cType="1" res="1.4264212921261787e-02" rms="2.9775419831275940e-01" purity="5.9051388502120972e-01" nType="0">
            <Node pos="l" depth="3" NCoef="0" IVar="-1" Cut="0.0000000000000000e+00" cType="1" res="1.9678946584463120e-02" rms="3.3616673946380615e-01" purity="4.1765981912612915e-01" nType="-99"/>
            <Node pos="r" depth="3" NCoef="0" IVar="-1" Cut="0.0000000000000000e+00" cType="1" res="-1.7806459218263626e-03" rms="1.9581381976604462e-01" purity="9.4531214237213135e-01" nType="-99"/>
          </Node>
        </Node>
        <Node pos="r" depth="1" NCoef="0" IVar="0" Cut="4.2253201293945312e+02" cType="1" res="-5.3290608339011669e-03" rms="3.0019336938858032e-01" purity="4.3895891308784485e-01" nType="0">
          <Node pos="l" depth="2" NCoef="0" IVar="9" Cut="1.2761272192001343e+00" cType="1" res="2.2721551358699799e-03" rms="2.9851925373077393e-01" purity="1.7784747481346130e-01" nType="0">
            <Node pos="l" depth="3" NCoef="0" IVar="-1" Cut="0.0000000000000000e+00" cType="1" res="-1.1710400693118572e-02" rms="3.1730622053146362e-01" purity="2.1496681869029999e-01" nType="-99"/>
            <Node pos="r" depth="3" NCoef="0" IVar="-1" Cut="0.0000000000000000e+00" cType="1" res="1.9863676279783249e-02" rms="2.8065934777259827e-01" purity="1.4568434655666351e-01" nType="-99"/>
          </Node>
          <Node pos="r" depth="2" NCoef="0" IVar="6" Cut="1.0535234832763672e+02" cType="1" res="-1.2070412747561932e-02" rms="3.0151003599166870e-01" purity="6.7053294181823730e-01" nType="0">
            <Node pos="l" depth="3" NCoef="0" IVar="-1" Cut="0.0000000000000000e+00" cType="1" res="-2.0628931000828743e-02" rms="3.4085962176322937e-01" purity="4.6504086256027222e-01" nType="-99"/>
            <Node pos="r" depth="3" NCoef="0" IVar="-1" Cut="0.0000000000000000e+00" cType="1" res="3.6880886182188988e-03" rms="2.5105041265487671e-01" purity="8.9393806457519531e-01" nType="-99"/>
          </Node>
        </Node>
      </Node>
    </BinaryTree>
    <BinaryTree type="DecisionTree" boostWeight="1.0000000000000000e+00" itree="513">
      <Node pos="s" depth="0" NCoef="0" IVar="10" Cut="-2.2666587829589844e+00" cType="1" res="5.1296921446919441e-04" rms="2.9769939184188843e-01" purity="5.0278985500335693e-01" nType="0">
        <Node pos="l" depth="1" NCoef="0" IVar="-1" Cut="0.0000000000000000e+00" cType="1" res="2.5093864649534225e-02" rms="3.1702080368995667e-01" purity="3.1915262341499329e-01" nType="-99"/>
        <Node pos="r" depth="1" NCoef="0" IVar="8" Cut="1.1999169588088989e+00" cType="1" res="-2.0007546117994934e-04" rms="2.9703339934349060e-01" purity="5.0866007804870605e-01" nType="0">
          <Node pos="l" depth="2" NCoef="0" IVar="5" Cut="1.4120742797851562e+02" cType="1" res="-1.8450682982802391e-03" rms="2.9598388075828552e-01" purity="5.4207944869995117e-01" nType="0">
            <Node pos="l" depth="3" NCoef="0" IVar="-1" Cut="0.0000000000000000e+00" cType="1" res="2.3538367822766304e-03" rms="3.0607798695564270e-01" purity="2.4190847575664520e-01" nType="-99"/>
            <Node pos="r" depth="3" NCoef="0" IVar="-1" Cut="0.0000000000000000e+00" cType="1" res="-6.2819099985063076e-03" rms="2.8716662526130676e-01" purity="7.9478234052658081e-01" nType="-99"/>
          </Node>
          <Node pos="r" depth="2" NCoef="0" IVar="7" Cut="-3.1329056620597839e-01" cType="1" res="1.0771304368972778e-02" rms="3.0371281504631042e-01" purity="2.8576740622520447e-01" nType="0">
            <Node pos="l" depth="3" NCoef="0" IVar="-1" Cut="0.0000000000000000e+00" cType="1" res="3.3340483903884888e-02" rms="3.0702632665634155e-01" purity="2.6756075024604797e-01" nType="-99"/>
            <Node pos="r" depth="3" NCoef="0" IVar="-1" Cut="0.0000000000000000e+00" cType="1" res="1.8607765377964824e-04" rms="3.0120125412940979e-01" purity="2.9674375057220459e-01" nType="-99"/>
          </Node>
        </Node>
      </Node>
    </BinaryTree>
    <BinaryTree type="DecisionTree" boostWeight="1.0000000000000000e+00" itree="514">
      <Node pos="s" depth="0" NCoef="0" IVar="8" Cut="1.7332317829132080e+00" cType="1" res="2.8557635960169137e-04" rms="2.9890027642250061e-01" purity="5.0041717290878296e-01" nType="0">
        <Node pos="l" depth="1" NCoef="0" IVar="9" Cut="1.9999754428863525e+00" cType="1" res="1.5375257935374975e-03" rms="3.0166044831275940e-01" purity="5.2103430032730103e-01" nType="0">
          <Node pos="l" depth="2" NCoef="0" IVar="10" Cut="-2.2666585445404053e+00" cType="1" res="4.7034100862219930e-04" rms="3.0135107040405273e-01" purity="5.3259426355361938e-01" nType="0">
            <Node pos="l" depth="3" NCoef="0" IVar="-1" Cut="0.0000000000000000e+00" cType="1" res="-2.4016529321670532e-02" rms="2.9896599054336548e-01" purity="2.8567466139793396e-01" nType="-99"/>
            <Node pos="r" depth="3" NCoef="0" IVar="-1" Cut="0.0000000000000000e+00" cType="1" res="1.2201974168419838e-03" rms="3.0139535665512085e-01" purity="5.3974395990371704e-01" nType="-99"/>
          </Node>
          <Node pos="r" depth="2" NCoef="0" IVar="-1" Cut="0.0000000000000000e+00" cType="1" res="3.3534869551658630e-02" rms="3.0781927704811096e-01" purity="2.4718323349952698e-01" nType="-99"/>
        </Node>
        <Node pos="r" depth="1" NCoef="0" IVar="-1" Cut="0.0000000000000000e+00" cType="1" res="-3.5821758210659027e-02" rms="2.4066302180290222e-01" purity="1.1671439558267593e-01" nType="-99"/>
      </Node>
    </BinaryTree>
    <BinaryTree type="DecisionTree" boostWeight="1.0000000000000000e+00" itree="515">
      <Node pos="s" depth="0" NCoef="0" IVar="5" Cut="1.4131970214843750e+02" cType="1" res="-1.4632733073085546e-03" rms="2.9439637064933777e-01" purity="4.9868181347846985e-01" nType="0">
        <Node pos="l" depth="1" NCoef="0" IVar="6" Cut="6.7371421813964844e+01" cType="1" res="-6.4888056367635727e-03" rms="2.8978982567787170e-01" purity="2.1044492721557617e-01" nType="0">
          <Node pos="l" depth="2" NCoef="0" IVar="6" Cut="6.4889755249023438e+01" cType="1" res="5.8474898105487227e-04" rms="2.5197345018386841e-01" purity="1.2640945613384247e-01" nType="0">
            <Node pos="l" depth="3" NCoef="0" IVar="-1" Cut="0.0000000000000000e+00" cType="1" res="-4.0635364130139351e-03" rms="2.4435795843601227e-01" purity="1.1516684293746948e-01" nType="-99"/>
            <Node pos="r" depth="3" NCoef="0" IVar="-1" Cut="0.0000000000000000e+00" cType="1" res="2.8287380933761597e-02" rms="3.0371576547622681e-01" purity="2.1393400430679321e-01" nType="-99"/>
          </Node>
          <Node pos="r" depth="2" NCoef="0" IVar="5" Cut="1.0616730499267578e+02" cType="1" res="-1.3137863948941231e-02" rms="3.2116183638572693e-01" purity="2.8943732380867004e-01" nType="0">
            <Node pos="l" depth="3" NCoef="0" IVar="-1" Cut="0.0000000000000000e+00" cType="1" res="-2.9053529724478722e-02" rms="2.8013408184051514e-01" purity="1.5625114738941193e-01" nType="-99"/>
            <Node pos="r" depth="3" NCoef="0" IVar="-1" Cut="0.0000000000000000e+00" cType="1" res="-2.3223445750772953e-03" rms="3.5042157769203186e-01" purity="3.9679285883903503e-01" nType="-99"/>
          </Node>
        </Node>
        <Node pos="r" depth="1" NCoef="0" IVar="0" Cut="4.5299490356445312e+02" cType="1" res="3.3158129081130028e-03" rms="2.9863268136978149e-01" purity="7.7278387546539307e-01" nType="0">
          <Node pos="l" depth="2" NCoef="0" IVar="10" Cut="-9.3259435892105103e-01" cType="1" res="1.1020605452358723e-02" rms="3.8883972167968750e-01" purity="5.0541466474533081e-01" nType="0">
            <Node pos="l" depth="3" NCoef="0" IVar="-1" Cut="0.0000000000000000e+00" cType="1" res="-1.0722578503191471e-02" rms="3.6853352189064026e-01" purity="4.4270843267440796e-01" nType="-99"/>
            <Node pos="r" depth="3" NCoef="0" IVar="-1" Cut="0.0000000000000000e+00" cType="1" res="1.2269822880625725e-02" rms="3.9407286047935486e-01" purity="5.2315521240234375e-01" nType="-99"/>
          </Node>
          <Node pos="r" depth="2" NCoef="0" IVar="2" Cut="4.1124407202005386e-02" cType="1" res="-5.1654462004080415e-04" rms="2.4143557250499725e-01" purity="9.0577310323715210e-01" nType="0">
            <Node pos="l" depth="3" NCoef="0" IVar="-1" Cut="0.0000000000000000e+00" cType="1" res="-7.4421968311071396e-03" rms="3.0607783794403076e-01" purity="8.1528693437576294e-01" nType="-99"/>
            <Node pos="r" depth="3" NCoef="0" IVar="-1" Cut="0.0000000000000000e+00" cType="1" res="6.2524210661649704e-03" rms="2.0331621170043945e-01" purity="9.4903612136840820e-01" nType="-99"/>
          </Node>
        </Node>
      </Node>
    </BinaryTree>
    <BinaryTree type="DecisionTree" boostWeight="1.0000000000000000e+00" itree="516">
      <Node pos="s" depth="0" NCoef="0" IVar="8" Cut="-6.6660588979721069e-01" cType="1" res="-1.1705964570865035e-03" rms="2.9542991518974304e-01" purity="5.0066995620727539e-01" nType="0">
        <Node pos="l" depth="1" NCoef="0" IVar="2" Cut="5.1832549273967743e-02" cType="1" res="-6.1557739973068237e-03" rms="2.9336464405059814e-01" purity="3.8751918077468872e-01" nType="0">
          <Node pos="l" depth="2" NCoef="0" IVar="2" Cut="4.9370056949555874e-03" cType="1" res="-1.9715398084372282e-03" rms="2.9181048274040222e-01" purity="2.7260294556617737e-01" nType="0">
            <Node pos="l" depth="3" NCoef="0" IVar="-1" Cut="0.0000000000000000e+00" cType="1" res="3.1858120113611221e-02" rms="2.6122400164604187e-01" purity="1.2870304286479950e-01" nType="-99"/>
            <Node pos="r" depth="3" NCoef="0" IVar="-1" Cut="0.0000000000000000e+00" cType="1" res="-7.8978938981890678e-03" rms="2.9905265569686890e-01" purity="3.1021234393119812e-01" nType="-99"/>
          </Node>
          <Node pos="r" depth="2" NCoef="0" IVar="-1" Cut="0.0000000000000000e+00" cType="1" res="-1.7722714692354202e-02" rms="2.9700449109077454e-01" purity="6.7887485027313232e-01" nType="-99"/>
        </Node>
        <Node pos="r" depth="1" NCoef="0" IVar="10" Cut="-1.4666783809661865e+00" cType="1" res="5.4556858958676457e-04" rms="2.9611817002296448e-01" purity="5.3962248563766479e-01" nType="0">
          <Node pos="l" depth="2" NCoef="0" IVar="0" Cut="5.3484533691406250e+02" cType="1" res="1.2381349690258503e-02" rms="3.1687268614768982e-01" purity="4.6633327007293701e-01" nType="0">
            <Node pos="l" depth="3" NCoef="0" IVar="-1" Cut="0.0000000000000000e+00" cType="1" res="2.1370818838477135e-02" rms="3.2858255505561829e-01" purity="2.9762235283851624e-01" nType="-99"/>
            <Node pos="r" depth="3" NCoef="0" IVar="-1" Cut="0.0000000000000000e+00" cType="1" res="-8.8271172717213631e-03" rms="2.8960078954696655e-01" purity="8.2298809289932251e-01" nType="-99"/>
          </Node>
          <Node pos="r" depth="2" NCoef="0" IVar="7" Cut="-1.4582792520523071e+00" cType="1" res="-9.6576858777552843e-04" rms="2.9332789778709412e-01" purity="5.4898095130920410e-01" nType="0">
            <Node pos="l" depth="3" NCoef="0" IVar="-1" Cut="0.0000000000000000e+00" cType="1" res="-3.2663557678461075e-02" rms="1.9967523217201233e-01" purity="1.1854838579893112e-01" nType="-99"/>
            <Node pos="r" depth="3" NCoef="0" IVar="-1" Cut="0.0000000000000000e+00" cType="1" res="-9.0323643235024065e-05" rms="2.9720541834831238e-01" purity="5.7048183679580688e-01" nType="-99"/>
          </Node>
        </Node>
      </Node>
    </BinaryTree>
    <BinaryTree type="DecisionTree" boostWeight="1.0000000000000000e+00" itree="517">
      <Node pos="s" depth="0" NCoef="0" IVar="8" Cut="-9.3328499794006348e-01" cType="1" res="-2.6570912450551987e-04" rms="2.9882311820983887e-01" purity="4.9694374203681946e-01" nType="0">
        <Node pos="l" depth="1" NCoef="0" IVar="10" Cut="-3.9995422959327698e-01" cType="1" res="7.7594700269401073e-03" rms="3.0430620908737183e-01" purity="3.3837872743606567e-01" nType="0">
          <Node pos="l" depth="2" NCoef="0" IVar="7" Cut="1.5766894817352295e-01" cType="1" res="-4.5747086405754089e-03" rms="2.8677988052368164e-01" purity="2.8469502925872803e-01" nType="0">
            <Node pos="l" depth="3" NCoef="0" IVar="-1" Cut="0.0000000000000000e+00" cType="1" res="-2.0423259586095810e-02" rms="2.7091628313064575e-01" purity="2.6801079511642456e-01" nType="-99"/>
            <Node pos="r" depth="3" NCoef="0" IVar="-1" Cut="0.0000000000000000e+00" cType="1" res="1.8580231815576553e-02" rms="3.1028789281845093e-01" purity="3.1243196129798889e-01" nType="-99"/>
          </Node>
          <Node pos="r" depth="2" NCoef="0" IVar="2" Cut="1.5755096450448036e-02" cType="1" res="1.7360145226120949e-02" rms="3.1694689393043518e-01" purity="3.8016504049301147e-01" nType="0">
            <Node pos="l" depth="3" NCoef="0" IVar="-1" Cut="0.0000000000000000e+00" cType="1" res="7.1640312671661377e-03" rms="2.7207380533218384e-01" purity="1.5106412768363953e-01" nType="-99"/>
            <Node pos="r" depth="3" NCoef="0" IVar="-1" Cut="0.0000000000000000e+00" cType="1" res="2.4162538349628448e-02" rms="3.4216603636741638e-01" purity="5.2567255496978760e-01" nType="-99"/>
          </Node>
        </Node>
        <Node pos="r" depth="1" NCoef="0" IVar="2" Cut="8.5314363241195679e-02" cType="1" res="-2.1518599241971970e-03" rms="2.9748833179473877e-01" purity="5.3421115875244141e-01" nType="0">
          <Node pos="l" depth="2" NCoef="0" IVar="2" Cut="8.1251980736851692e-03" cType="1" res="-4.5368140563368797e-03" rms="3.0205953121185303e-01" purity="4.2999190092086792e-01" nType="0">
            <Node pos="l" depth="3" NCoef="0" IVar="-1" Cut="0.0000000000000000e+00" cType="1" res="1.4373037964105606e-02" rms="2.6843041181564331e-01" purity="2.0361576974391937e-01" nType="-99"/>
            <Node pos="r" depth="3" NCoef="0" IVar="-1" Cut="0.0000000000000000e+00" cType="1" res="-8.5860481485724449e-03" rms="3.1033426523208618e-01" purity="4.9063336849212646e-01" nType="-99"/>
          </Node>
          <Node pos="r" depth="2" NCoef="0" IVar="6" Cut="1.1358549499511719e+02" cType="1" res="4.2915181256830692e-03" rms="2.8467190265655518e-01" purity="8.1577789783477783e-01" nType="0">
            <Node pos="l" depth="3" NCoef="0" IVar="-1" Cut="0.0000000000000000e+00" cType="1" res="1.1991577222943306e-02" rms="3.6344376206398010e-01" purity="6.3801670074462891e-01" nType="-99"/>
            <Node pos="r" depth="3" NCoef="0" IVar="-1" Cut="0.0000000000000000e+00" cType="1" res="-7.0264930836856365e-03" rms="2.1563965082168579e-01" purity="9.3555164337158203e-01" nType="-99"/>
          </Node>
        </Node>
      </Node>
    </BinaryTree>
    <BinaryTree type="DecisionTree" boostWeight="1.0000000000000000e+00" itree="518">
      <Node pos="s" depth="0" NCoef="0" IVar="10" Cut="-2.2666230201721191e+00" cType="1" res="5.7066715089604259e-04" rms="2.9702585935592651e-01" purity="4.9931177496910095e-01" nType="0">
        <Node pos="l" depth="1" NCoef="0" IVar="-1" Cut="0.0000000000000000e+00" cType="1" res="-2.6159128174185753e-02" rms="2.7696684002876282e-01" purity="2.5816714763641357e-01" nType="-99"/>
        <Node pos="r" depth="1" NCoef="0" IVar="5" Cut="1.6113958740234375e+02" cType="1" res="1.2373881181702018e-03" rms="2.9755565524101257e-01" purity="5.0624269247055054e-01" nType="0">
          <Node pos="l" depth="2" NCoef="0" IVar="5" Cut="1.2410719299316406e+02" cType="1" res="4.1748192161321640e-03" rms="3.0774739384651184e-01" purity="2.7639111876487732e-01" nType="0">
            <Node pos="l" depth="3" NCoef="0" IVar="-1" Cut="0.0000000000000000e+00" cType="1" res="-1.6347656492143869e-03" rms="2.8064441680908203e-01" purity="1.7404751479625702e-01" nType="-99"/>
            <Node pos="r" depth="3" NCoef="0" IVar="-1" Cut="0.0000000000000000e+00" cType="1" res="1.2819750234484673e-02" rms="3.6166170239448547e-01" purity="5.0945585966110229e-01" nType="-99"/>
          </Node>
          <Node pos="r" depth="2" NCoef="0" IVar="6" Cut="1.6358596801757812e+02" cType="1" res="-2.6938344817608595e-03" rms="2.8329518437385559e-01" purity="8.1385761499404907e-01" nType="0">
            <Node pos="l" depth="3" NCoef="0" IVar="-1" Cut="0.0000000000000000e+00" cType="1" res="-7.1264812722802162e-03" rms="3.2080000638961792e-01" purity="7.3872685432434082e-01" nType="-99"/>
            <Node pos="r" depth="3" NCoef="0" IVar="-1" Cut="0.0000000000000000e+00" cType="1" res="1.0322170332074165e-02" rms="2.0874710381031036e-01" purity="9.3519610166549683e-01" nType="-99"/>
          </Node>
        </Node>
      </Node>
    </BinaryTree>
    <BinaryTree type="DecisionTree" boostWeight="1.0000000000000000e+00" itree="519">
      <Node pos="s" depth="0" NCoef="0" IVar="5" Cut="1.8696928405761719e+02" cType="1" res="-7.9534825636073947e-04" rms="2.9432982206344604e-01" purity="4.9921661615371704e-01" nType="0">
        <Node pos="l" depth="1" NCoef="0" IVar="7" Cut="-1.2024944275617599e-01" cType="1" res="-3.5636059474200010e-03" rms="3.0914920568466187e-01" purity="3.1333070993423462e-01" nType="0">
          <Node pos="l" depth="2" NCoef="0" IVar="5" Cut="7.6134078979492188e+01" cType="1" res="1.8215174786746502e-03" rms="3.0628111958503723e-01" purity="3.0386999249458313e-01" nType="0">
            <Node pos="l" depth="3" NCoef="0" IVar="-1" Cut="0.0000000000000000e+00" cType="1" res="-4.1324242949485779e-02" rms="1.7915171384811401e-01" purity="4.7777369618415833e-02" nType="-99"/>
            <Node pos="r" depth="3" NCoef="0" IVar="-1" Cut="0.0000000000000000e+00" cType="1" res="5.2828867919743061e-03" rms="3.2646808028221130e-01" purity="3.5724556446075439e-01" nType="-99"/>
          </Node>
          <Node pos="r" depth="2" NCoef="0" IVar="8" Cut="-3.9983645081520081e-01" cType="1" res="-8.1076510250568390e-03" rms="3.1147640943527222e-01" purity="3.2131376862525940e-01" nType="0">
            <Node pos="l" depth="3" NCoef="0" IVar="-1" Cut="0.0000000000000000e+00" cType="1" res="2.4736679624766111e-03" rms="3.1599539518356323e-01" purity="3.0421331524848938e-01" nType="-99"/>
            <Node pos="r" depth="3" NCoef="0" IVar="-1" Cut="0.0000000000000000e+00" cType="1" res="-1.3905324973165989e-02" rms="3.0888730287551880e-01" purity="3.3045017719268799e-01" nType="-99"/>
          </Node>
        </Node>
        <Node pos="r" depth="1" NCoef="0" IVar="1" Cut="1.5623411865234375e+03" cType="1" res="4.6465536579489708e-03" rms="2.6268735527992249e-01" purity="8.6463528871536255e-01" nType="0">
          <Node pos="l" depth="2" NCoef="0" IVar="8" Cut="-1.3361021876335144e-01" cType="1" res="1.8415428698062897e-02" rms="3.9584299921989441e-01" purity="6.0571837425231934e-01" nType="0">
            <Node pos="l" depth="3" NCoef="0" IVar="-1" Cut="0.0000000000000000e+00" cType="1" res="1.9249802455306053e-02" rms="3.9349633455276489e-01" purity="6.1992770433425903e-01" nType="-99"/>
            <Node pos="r" depth="3" NCoef="0" IVar="-1" Cut="0.0000000000000000e+00" cType="1" res="4.6769920736551285e-03" rms="3.9757901430130005e-01" purity="5.9305322170257568e-01" nType="-99"/>
          </Node>
          <Node pos="r" depth="2" NCoef="0" IVar="0" Cut="4.5312390136718750e+02" cType="1" res="1.4069019816815853e-03" rms="2.1981318295001984e-01" purity="9.2555540800094604e-01" nType="0">
            <Node pos="l" depth="3" NCoef="0" IVar="-1" Cut="0.0000000000000000e+00" cType="1" res="-1.4132806099951267e-02" rms="3.4863585233688354e-01" purity="7.5133782625198364e-01" nType="-99"/>
            <Node pos="r" depth="3" NCoef="0" IVar="-1" Cut="0.0000000000000000e+00" cType="1" res="1.0973569005727768e-02" rms="1.9088970124721527e-01" purity="9.5367133617401123e-01" nType="-99"/>
          </Node>
        </Node>
      </Node>
    </BinaryTree>
    <BinaryTree type="DecisionTree" boostWeight="1.0000000000000000e+00" itree="520">
      <Node pos="s" depth="0" NCoef="0" IVar="8" Cut="-1.2000035047531128e+00" cType="1" res="1.9104671664535999e-03" rms="2.9794412851333618e-01" purity="5.0207418203353882e-01" nType="0">
        <Node pos="l" depth="1" NCoef="0" IVar="8" Cut="-1.3523977994918823e+00" cType="1" res="-8.5812909528613091e-03" rms="2.8074774146080017e-01" purity="2.6137584447860718e-01" nType="0">
          <Node pos="l" depth="2" NCoef="0" IVar="2" Cut="1.3278471305966377e-02" cType="1" res="-1.5761567046865821e-03" rms="2.7571308612823486e-01" purity="2.2885169088840485e-01" nType="0">
            <Node pos="l" depth="3" NCoef="0" IVar="-1" Cut="0.0000000000000000e+00" cType="1" res="-2.9873322695493698e-02" rms="2.1074382960796356e-01" purity="8.4467574954032898e-02" nType="-99"/>
            <Node pos="r" depth="3" NCoef="0" IVar="-1" Cut="0.0000000000000000e+00" cType="1" res="1.0921861976385117e-02" rms="3.2239732146263123e-01" purity="3.5802543163299561e-01" nType="-99"/>
          </Node>
          <Node pos="r" depth="2" NCoef="0" IVar="-1" Cut="0.0000000000000000e+00" cType="1" res="-3.8783952593803406e-02" rms="2.9781293869018555e-01" purity="3.8664114475250244e-01" nType="-99"/>
        </Node>
        <Node pos="r" depth="1" NCoef="0" IVar="7" Cut="1.7372975349426270e+00" cType="1" res="3.4626391716301441e-03" rms="3.0037349462509155e-01" purity="5.3768354654312134e-01" nType="0">
          <Node pos="l" depth="2" NCoef="0" IVar="7" Cut="-4.1128054261207581e-01" cType="1" res="2.7288047131150961e-03" rms="3.0244413018226624e-01" purity="5.5329054594039917e-01" nType="0">
            <Node pos="l" depth="3" NCoef="0" IVar="-1" Cut="0.0000000000000000e+00" cType="1" res="9.3537233769893646e-03" rms="3.0367454886436462e-01" purity="4.5692870020866394e-01" nType="-99"/>
            <Node pos="r" depth="3" NCoef="0" IVar="-1" Cut="0.0000000000000000e+00" cType="1" res="-1.7017353457049467e-05" rms="3.0181530117988586e-01" purity="5.9937781095504761e-01" nType="-99"/>
          </Node>
          <Node pos="r" depth="2" NCoef="0" IVar="-1" Cut="0.0000000000000000e+00" cType="1" res="5.9699203819036484e-02" rms="2.3381951451301575e-01" purity="9.8664149641990662e-02" nType="-99"/>
        </Node>
      </Node>
    </BinaryTree>
    <BinaryTree type="DecisionTree" boostWeight="1.0000000000000000e+00" itree="521">
      <Node pos="s" depth="0" NCoef="0" IVar="7" Cut="6.7590653896331787e-01" cType="1" res="5.9107167180627584e-04" rms="2.9843583703041077e-01" purity="4.9959310889244080e-01" nType="0">
        <Node pos="l" depth="1" NCoef="0" IVar="7" Cut="5.1158356666564941e-01" cType="1" res="-2.2483638022094965e-03" rms="2.9917114973068237e-01" purity="5.4279452562332153e-01" nType="0">
          <Node pos="l" depth="2" NCoef="0" IVar="10" Cut="-1.9997807741165161e+00" cType="1" res="-5.5404362501576543e-04" rms="2.9819452762603760e-01" purity="5.4230302572250366e-01" nType="0">
            <Node pos="l" depth="3" NCoef="0" IVar="-1" Cut="0.0000000000000000e+00" cType="1" res="2.9901653528213501e-02" rms="3.2277205586433411e-01" purity="3.9868429303169250e-01" nType="-99"/>
            <Node pos="r" depth="3" NCoef="0" IVar="-1" Cut="0.0000000000000000e+00" cType="1" res="-2.4796035140752792e-03" rms="2.9661393165588379e-01" purity="5.5068951845169067e-01" nType="-99"/>
          </Node>
          <Node pos="r" depth="2" NCoef="0" IVar="9" Cut="1.3397149741649628e-01" cType="1" res="-2.4950044229626656e-02" rms="3.1107276678085327e-01" purity="5.4938006401062012e-01" nType="0">
            <Node pos="l" depth="3" NCoef="0" IVar="-1" Cut="0.0000000000000000e+00" cType="1" res="-3.6993443965911865e-02" rms="2.9366293549537659e-01" purity="5.5161935091018677e-01" nType="-99"/>
            <Node pos="r" depth="3" NCoef="0" IVar="-1" Cut="0.0000000000000000e+00" cType="1" res="-1.8309529870748520e-02" rms="3.2610926032066345e-01" purity="5.4731667041778564e-01" nType="-99"/>
          </Node>
        </Node>
        <Node pos="r" depth="1" NCoef="0" IVar="10" Cut="-1.3358688354492188e-01" cType="1" res="1.0092461481690407e-02" rms="2.9576393961906433e-01" purity="3.5503146052360535e-01" nType="0">
          <Node pos="l" depth="2" NCoef="0" IVar="6" Cut="9.4239128112792969e+01" cType="1" res="2.1005187183618546e-02" rms="3.0547103285789490e-01" purity="3.6820885539054871e-01" nType="0">
            <Node pos="l" depth="3" NCoef="0" IVar="-1" Cut="0.0000000000000000e+00" cType="1" res="1.1896164156496525e-02" rms="2.6686948537826538e-01" purity="1.8219982087612152e-01" nType="-99"/>
            <Node pos="r" depth="3" NCoef="0" IVar="-1" Cut="0.0000000000000000e+00" cType="1" res="3.4149609506130219e-02" rms="3.5610672831535339e-01" purity="6.5498208999633789e-01" nType="-99"/>
          </Node>
          <Node pos="r" depth="2" NCoef="0" IVar="6" Cut="7.3512405395507812e+01" cType="1" res="2.9239994473755360e-03" rms="2.8898602724075317e-01" purity="3.4637540578842163e-01" nType="0">
            <Node pos="l" depth="3" NCoef="0" IVar="-1" Cut="0.0000000000000000e+00" cType="1" res="2.2996030747890472e-02" rms="2.5786784291267395e-01" purity="1.2994688749313354e-01" nType="-99"/>
            <Node pos="r" depth="3" NCoef="0" IVar="-1" Cut="0.0000000000000000e+00" cType="1" res="-5.0427303649485111e-03" rms="3.0993348360061646e-01" purity="5.0788140296936035e-01" nType="-99"/>
          </Node>
        </Node>
      </Node>
    </BinaryTree>
    <BinaryTree type="DecisionTree" boostWeight="1.0000000000000000e+00" itree="522">
      <Node pos="s" depth="0" NCoef="0" IVar="9" Cut="1.1999301910400391e+00" cType="1" res="2.5321144494228065e-04" rms="2.9625725746154785e-01" purity="5.0273948907852173e-01" nType="0">
        <Node pos="l" depth="1" NCoef="0" IVar="0" Cut="4.2781573486328125e+02" cType="1" res="1.7988199833780527e-03" rms="2.9535132646560669e-01" purity="5.3032493591308594e-01" nType="0">
          <Node pos="l" depth="2" NCoef="0" IVar="1" Cut="1.1565375976562500e+03" cType="1" res="6.0148690827190876e-03" rms="3.0584070086479187e-01" purity="2.3384015262126923e-01" nType="0">
            <Node pos="l" depth="3" NCoef="0" IVar="-1" Cut="0.0000000000000000e+00" cType="1" res="-1.0491515276953578e-03" rms="2.2710210084915161e-01" purity="6.6295519471168518e-02" nType="-99"/>
            <Node pos="r" depth="3" NCoef="0" IVar="-1" Cut="0.0000000000000000e+00" cType="1" res="1.0134354233741760e-02" rms="3.8548952341079712e-01" purity="4.5421656966209412e-01" nType="-99"/>
          </Node>
          <Node pos="r" depth="2" NCoef="0" IVar="9" Cut="-5.1432067155838013e-01" cType="1" res="-1.4165191678330302e-03" rms="2.8705260157585144e-01" purity="7.5643694400787354e-01" nType="0">
            <Node pos="l" depth="3" NCoef="0" IVar="-1" Cut="0.0000000000000000e+00" cType="1" res="4.4367914088070393e-03" rms="3.1006905436515808e-01" purity="7.0102453231811523e-01" nType="-99"/>
            <Node pos="r" depth="3" NCoef="0" IVar="-1" Cut="0.0000000000000000e+00" cType="1" res="-5.9624938294291496e-03" rms="2.7361306548118591e-01" purity="7.8670310974121094e-01" nType="-99"/>
          </Node>
        </Node>
        <Node pos="r" depth="1" NCoef="0" IVar="10" Cut="-3.9960068464279175e-01" cType="1" res="-8.8160494342446327e-03" rms="3.0135858058929443e-01" purity="3.4087452292442322e-01" nType="0">
          <Node pos="l" depth="2" NCoef="0" IVar="-1" Cut="0.0000000000000000e+00" cType="1" res="2.0760756451636553e-03" rms="3.1646746397018433e-01" purity="3.7836068868637085e-01" nType="-99"/>
          <Node pos="r" depth="2" NCoef="0" IVar="2" Cut="4.1124295443296432e-02" cType="1" res="-1.4189634472131729e-02" rms="2.9337844252586365e-01" purity="3.2216346263885498e-01" nType="0">
            <Node pos="l" depth="3" NCoef="0" IVar="-1" Cut="0.0000000000000000e+00" cType="1" res="-6.3977064564824104e-03" rms="2.6551207900047302e-01" purity="2.0290200412273407e-01" nType="-99"/>
            <Node pos="r" depth="3" NCoef="0" IVar="-1" Cut="0.0000000000000000e+00" cType="1" res="-2.6267910376191139e-02" rms="3.3637383580207825e-01" purity="5.3267765045166016e-01" nType="-99"/>
          </Node>
        </Node>
      </Node>
    </BinaryTree>
    <BinaryTree type="DecisionTree" boostWeight="1.0000000000000000e+00" itree="523">
      <Node pos="s" depth="0" NCoef="0" IVar="8" Cut="6.6660678386688232e-01" cType="1" res="-2.0613879896700382e-03" rms="2.9289683699607849e-01" purity="4.9887517094612122e-01" nType="0">
        <Node pos="l" depth="1" NCoef="0" IVar="2" Cut="1.4629153907299042e-01" cType="1" res="-1.0506943362997845e-04" rms="2.9453620314598083e-01" purity="5.3695511817932129e-01" nType="0">
          <Node pos="l" depth="2" NCoef="0" IVar="7" Cut="-1.2744884192943573e-01" cType="1" res="-1.4789650449529290e-03" rms="2.9948917031288147e-01" purity="4.9347367882728577e-01" nType="0">
            <Node pos="l" depth="3" NCoef="0" IVar="-1" Cut="0.0000000000000000e+00" cType="1" res="4.0750955231487751e-03" rms="2.9936876893043518e-01" purity="4.7711497545242310e-01" nType="-99"/>
            <Node pos="r" depth="3" NCoef="0" IVar="-1" Cut="0.0000000000000000e+00" cType="1" res="-6.4806421287357807e-03" rms="2.9952067136764526e-01" purity="5.0761967897415161e-01" nType="-99"/>
          </Node>
          <Node pos="r" depth="2" NCoef="0" IVar="-1" Cut="0.0000000000000000e+00" cType="1" res="1.7302963882684708e-02" rms="2.5175651907920837e-01" purity="8.8037431240081787e-01" nType="-99"/>
        </Node>
        <Node pos="r" depth="1" NCoef="0" IVar="3" Cut="4.5913128662109375e+02" cType="1" res="-7.6071051880717278e-03" rms="2.8812670707702637e-01" purity="3.9092725515365601e-01" nType="0">
          <Node pos="l" depth="2" NCoef="0" IVar="9" Cut="-6.6633868217468262e-01" cType="1" res="-1.3978606089949608e-02" rms="2.7788689732551575e-01" purity="2.8241381049156189e-01" nType="0">
            <Node pos="l" depth="3" NCoef="0" IVar="-1" Cut="0.0000000000000000e+00" cType="1" res="4.9192630685865879e-03" rms="2.9141917824745178e-01" purity="2.7316164970397949e-01" nType="-99"/>
            <Node pos="r" depth="3" NCoef="0" IVar="-1" Cut="0.0000000000000000e+00" cType="1" res="-2.4370018392801285e-02" rms="2.7253800630569458e-01" purity="2.8575119376182556e-01" nType="-99"/>
          </Node>
          <Node pos="r" depth="2" NCoef="0" IVar="9" Cut="-1.3359005749225616e-01" cType="1" res="6.0465862043201923e-03" rms="3.0848619341850281e-01" purity="6.2346410751342773e-01" nType="0">
            <Node pos="l" depth="3" NCoef="0" IVar="-1" Cut="0.0000000000000000e+00" cType="1" res="-1.5420374460518360e-02" rms="3.0852371454238892e-01" purity="5.9928679466247559e-01" nType="-99"/>
            <Node pos="r" depth="3" NCoef="0" IVar="-1" Cut="0.0000000000000000e+00" cType="1" res="1.8764752894639969e-02" rms="3.0780339241027832e-01" purity="6.3792520761489868e-01" nType="-99"/>
          </Node>
        </Node>
      </Node>
    </BinaryTree>
    <BinaryTree type="DecisionTree" boostWeight="1.0000000000000000e+00" itree="524">
      <Node pos="s" depth="0" NCoef="0" IVar="8" Cut="6.6663604974746704e-01" cType="1" res="1.3867295347154140e-03" rms="2.9808738827705383e-01" purity="4.9870729446411133e-01" nType="0">
        <Node pos="l" depth="1" NCoef="0" IVar="9" Cut="-2.0000131130218506e+00" cType="1" res="-1.0754114482551813e-03" rms="2.9663375020027161e-01" purity="5.3274023532867432e-01" nType="0">
          <Node pos="l" depth="2" NCoef="0" IVar="-1" Cut="0.0000000000000000e+00" cType="1" res="2.6345135644078255e-02" rms="3.0714744329452515e-01" purity="2.6279404759407043e-01" nType="-99"/>
          <Node pos="r" depth="2" NCoef="0" IVar="2" Cut="6.2750928103923798e-02" cType="1" res="-2.1488645579665899e-03" rms="2.9610750079154968e-01" purity="5.4486501216888428e-01" nType="0">
            <Node pos="l" depth="3" NCoef="0" IVar="-1" Cut="0.0000000000000000e+00" cType="1" res="-5.7012038305401802e-03" rms="3.0024674534797668e-01" purity="3.9978384971618652e-01" nType="-99"/>
            <Node pos="r" depth="3" NCoef="0" IVar="-1" Cut="0.0000000000000000e+00" cType="1" res="3.7237065844237804e-03" rms="2.8904145956039429e-01" purity="7.8529661893844604e-01" nType="-99"/>
          </Node>
        </Node>
        <Node pos="r" depth="1" NCoef="0" IVar="7" Cut="9.8335736989974976e-01" cType="1" res="8.2629630342125893e-03" rms="3.0200374126434326e-01" purity="4.0366059541702271e-01" nType="0">
          <Node pos="l" depth="2" NCoef="0" IVar="10" Cut="4.0004655718803406e-01" cType="1" res="1.1130836792290211e-02" rms="3.1400537490844727e-01" purity="4.5410102605819702e-01" nType="0">
            <Node pos="l" depth="3" NCoef="0" IVar="-1" Cut="0.0000000000000000e+00" cType="1" res="3.5224703606218100e-03" rms="3.0913770198822021e-01" purity="4.7464054822921753e-01" nType="-99"/>
            <Node pos="r" depth="3" NCoef="0" IVar="-1" Cut="0.0000000000000000e+00" cType="1" res="2.3409929126501083e-02" rms="3.2028472423553467e-01" purity="4.2579770088195801e-01" nType="-99"/>
          </Node>
          <Node pos="r" depth="2" NCoef="0" IVar="-1" Cut="0.0000000000000000e+00" cType="1" res="-6.7028263583779335e-03" rms="2.4125654995441437e-01" purity="1.7985698580741882e-01" nType="-99"/>
        </Node>
      </Node>
    </BinaryTree>
    <BinaryTree type="DecisionTree" boostWeight="1.0000000000000000e+00" itree="525">
      <Node pos="s" depth="0" NCoef="0" IVar="8" Cut="-6.6667419672012329e-01" cType="1" res="1.4661365421488881e-03" rms="2.9938426613807678e-01" purity="5.0107973814010620e-01" nType="0">
        <Node pos="l" depth="1" NCoef="0" IVar="1" Cut="1.6996906738281250e+03" cType="1" res="9.5507167279720306e-03" rms="3.0820742249488831e-01" purity="4.0450143814086914e-01" nType="0">
          <Node pos="l" depth="2" NCoef="0" IVar="3" Cut="3.3690270996093750e+02" cType="1" res="1.4951369725167751e-02" rms="3.1919386982917786e-01" purity="2.5439009070396423e-01" nType="0">
            <Node pos="l" depth="3" NCoef="0" IVar="-1" Cut="0.0000000000000000e+00" cType="1" res="6.9730314426124096e-03" rms="2.9170429706573486e-01" purity="1.9410365819931030e-01" nType="-99"/>
            <Node pos="r" depth="3" NCoef="0" IVar="-1" Cut="0.0000000000000000e+00" cType="1" res="2.2475348785519600e-02" rms="3.4657162427902222e-01" purity="3.2053002715110779e-01" nType="-99"/>
          </Node>
          <Node pos="r" depth="2" NCoef="0" IVar="9" Cut="-1.3295254111289978e-01" cType="1" res="-6.8703684955835342e-03" rms="2.7143159508705139e-01" purity="8.6092615127563477e-01" nType="0">
            <Node pos="l" depth="3" NCoef="0" IVar="-1" Cut="0.0000000000000000e+00" cType="1" res="2.5792487431317568e-03" rms="2.7852696180343628e-01" purity="8.5827499628067017e-01" nType="-99"/>
            <Node pos="r" depth="3" NCoef="0" IVar="-1" Cut="0.0000000000000000e+00" cType="1" res="-2.3136442527174950e-02" rms="2.6420941948890686e-01" purity="8.6345255374908447e-01" nType="-99"/>
          </Node>
        </Node>
        <Node pos="r" depth="1" NCoef="0" IVar="9" Cut="-4.0005511045455933e-01" cType="1" res="-1.3914274750277400e-03" rms="2.9615002870559692e-01" purity="5.3521621227264404e-01" nType="0">
          <Node pos="l" depth="2" NCoef="0" IVar="10" Cut="-1.4664547443389893e+00" cType="1" res="-9.7924377769231796e-03" rms="2.9529610276222229e-01" purity="5.1009875535964966e-01" nType="0">
            <Node pos="l" depth="3" NCoef="0" IVar="-1" Cut="0.0000000000000000e+00" cType="1" res="-3.1076498329639435e-02" rms="2.8283298015594482e-01" purity="4.0560865402221680e-01" nType="-99"/>
            <Node pos="r" depth="3" NCoef="0" IVar="-1" Cut="0.0000000000000000e+00" cType="1" res="-7.7020991593599319e-03" rms="2.9702326655387878e-01" purity="5.2577787637710571e-01" nType="-99"/>
          </Node>
          <Node pos="r" depth="2" NCoef="0" IVar="8" Cut="1.1491864919662476e+00" cType="1" res="2.9024959076195955e-03" rms="2.9649361968040466e-01" purity="5.4805427789688110e-01" nType="0">
            <Node pos="l" depth="3" NCoef="0" IVar="-1" Cut="0.0000000000000000e+00" cType="1" res="-1.4856626512482762e-04" rms="2.9519885778427124e-01" purity="6.0767006874084473e-01" nType="-99"/>
            <Node pos="r" depth="3" NCoef="0" IVar="-1" Cut="0.0000000000000000e+00" cType="1" res="1.7406603321433067e-02" rms="3.0134105682373047e-01" purity="3.0807036161422729e-01" nType="-99"/>
          </Node>
        </Node>
      </Node>
    </BinaryTree>
    <BinaryTree type="DecisionTree" boostWeight="1.0000000000000000e+00" itree="526">
      <Node pos="s" depth="0" NCoef="0" IVar="9" Cut="3.9999508857727051e-01" cType="1" res="-3.3517540432512760e-03" rms="2.9619881510734558e-01" purity="4.9519371986389160e-01" nType="0">
        <Node pos="l" depth="1" NCoef="0" IVar="7" Cut="-1.4287590980529785e+00" cType="1" res="-1.4534326328430325e-04" rms="2.9595530033111572e-01" purity="5.1925748586654663e-01" nType="0">
          <Node pos="l" depth="2" NCoef="0" IVar="-1" Cut="0.0000000000000000e+00" cType="1" res="2.8615640476346016e-02" rms="2.3372405767440796e-01" purity="1.3808546960353851e-01" nType="-99"/>
          <Node pos="r" depth="2" NCoef="0" IVar="8" Cut="9.3317604064941406e-01" cType="1" res="-1.2890718644484878e-03" rms="2.9992967844009399e-01" purity="5.4686766862869263e-01" nType="0">
            <Node pos="l" depth="3" NCoef="0" IVar="-1" Cut="0.0000000000000000e+00" cType="1" res="-3.9073517546057701e-03" rms="2.9682853817939758e-01" purity="5.7569652795791626e-01" nType="-99"/>
            <Node pos="r" depth="3" NCoef="0" IVar="-1" Cut="0.0000000000000000e+00" cType="1" res="1.0113826021552086e-02" rms="3.1487393379211426e-01" purity="4.0141534805297852e-01" nType="-99"/>
          </Node>
        </Node>
        <Node pos="r" depth="1" NCoef="0" IVar="10" Cut="1.7332834005355835e+00" cType="1" res="-9.0422593057155609e-03" rms="2.9654517769813538e-01" purity="4.5248699188232422e-01" nType="0">
          <Node pos="l" depth="2" NCoef="0" IVar="8" Cut="-3.9999103546142578e-01" cType="1" res="-1.1670163832604885e-02" rms="2.9589053988456726e-01" purity="4.6718838810920715e-01" nType="0">
            <Node pos="l" depth="3" NCoef="0" IVar="-1" Cut="0.0000000000000000e+00" cType="1" res="-2.7478616684675217e-02" rms="2.9550203680992126e-01" purity="4.1111281514167786e-01" nType="-99"/>
            <Node pos="r" depth="3" NCoef="0" IVar="-1" Cut="0.0000000000000000e+00" cType="1" res="-6.3495924696326256e-03" rms="2.9586330056190491e-01" purity="4.9234515428543091e-01" nType="-99"/>
          </Node>
          <Node pos="r" depth="2" NCoef="0" IVar="-1" Cut="0.0000000000000000e+00" cType="1" res="1.5039160847663879e-02" rms="3.0124014616012573e-01" purity="3.2372564077377319e-01" nType="-99"/>
        </Node>
      </Node>
    </BinaryTree>
    <BinaryTree type="DecisionTree" boostWeight="1.0000000000000000e+00" itree="527">
      <Node pos="s" depth="0" NCoef="0" IVar="7" Cut="-6.5987056493759155e-01" cType="1" res="3.9741196669638157e-03" rms="2.9893481731414795e-01" purity="5.0487351417541504e-01" nType="0">
        <Node pos="l" depth="1" NCoef="0" IVar="10" Cut="4.0002712607383728e-01" cType="1" res="1.1695832945406437e-02" rms="2.9949748516082764e-01" purity="3.5937500000000000e-01" nType="0">
          <Node pos="l" depth="2" NCoef="0" IVar="9" Cut="-9.3296140432357788e-01" cType="1" res="1.9606012850999832e-02" rms="2.9849341511726379e-01" purity="3.7128153443336487e-01" nType="0">
            <Node pos="l" depth="3" NCoef="0" IVar="-1" Cut="0.0000000000000000e+00" cType="1" res="1.5160136390477419e-03" rms="2.6456639170646667e-01" purity="2.3966835439205170e-01" nType="-99"/>
            <Node pos="r" depth="3" NCoef="0" IVar="-1" Cut="0.0000000000000000e+00" cType="1" res="2.9934741556644440e-02" rms="3.1025946140289307e-01" purity="4.2188063263893127e-01" nType="-99"/>
          </Node>
          <Node pos="r" depth="2" NCoef="0" IVar="6" Cut="9.9661552429199219e+01" cType="1" res="-4.8532169312238693e-03" rms="3.0091547966003418e-01" purity="3.3446502685546875e-01" nType="0">
            <Node pos="l" depth="3" NCoef="0" IVar="-1" Cut="0.0000000000000000e+00" cType="1" res="4.2754551395773888e-03" rms="2.7844533324241638e-01" purity="1.7900510132312775e-01" nType="-99"/>
            <Node pos="r" depth="3" NCoef="0" IVar="-1" Cut="0.0000000000000000e+00" cType="1" res="-2.0359069108963013e-02" rms="3.3958107233047485e-01" purity="6.3462173938751221e-01" nType="-99"/>
          </Node>
        </Node>
        <Node pos="r" depth="1" NCoef="0" IVar="8" Cut="6.6652709245681763e-01" cType="1" res="1.6454070573672652e-03" rms="2.9872575402259827e-01" purity="5.4875290393829346e-01" nType="0">
          <Node pos="l" depth="2" NCoef="0" IVar="9" Cut="-1.7333921194076538e+00" cType="1" res="4.6279020607471466e-03" rms="2.9879447817802429e-01" purity="5.8783596754074097e-01" nType="0">
            <Node pos="l" depth="3" NCoef="0" IVar="-1" Cut="0.0000000000000000e+00" cType="1" res="-2.1214824169874191e-02" rms="2.9111009836196899e-01" purity="2.9387620091438293e-01" nType="-99"/>
            <Node pos="r" depth="3" NCoef="0" IVar="-1" Cut="0.0000000000000000e+00" cType="1" res="6.8919947370886803e-03" rms="2.9919338226318359e-01" purity="6.0596460103988647e-01" nType="-99"/>
          </Node>
          <Node pos="r" depth="2" NCoef="0" IVar="10" Cut="-1.1995297670364380e+00" cType="1" res="-6.7894905805587769e-03" rms="2.9836991429328918e-01" purity="4.3822076916694641e-01" nType="0">
            <Node pos="l" depth="3" NCoef="0" IVar="-1" Cut="0.0000000000000000e+00" cType="1" res="-2.4057172238826752e-02" rms="3.0372276902198792e-01" purity="3.7621772289276123e-01" nType="-99"/>
            <Node pos="r" depth="3" NCoef="0" IVar="-1" Cut="0.0000000000000000e+00" cType="1" res="-4.5902631245553493e-03" rms="2.9740574955940247e-01" purity="4.4828334450721741e-01" nType="-99"/>
          </Node>
        </Node>
      </Node>
    </BinaryTree>
    <BinaryTree type="DecisionTree" boostWeight="1.0000000000000000e+00" itree="528">
      <Node pos="s" depth="0" NCoef="0" IVar="9" Cut="-1.9999928474426270e+00" cType="1" res="-6.0523702995851636e-04" rms="2.9466488957405090e-01" purity="4.9928212165832520e-01" nType="0">
        <Node pos="l" depth="1" NCoef="0" IVar="-1" Cut="0.0000000000000000e+00" cType="1" res="2.9086532071232796e-02" rms="3.0312636494636536e-01" purity="2.3938684165477753e-01" nType="-99"/>
        <Node pos="r" depth="1" NCoef="0" IVar="3" Cut="4.9193713378906250e+02" cType="1" res="-1.6674589132890105e-03" rms="2.9424491524696350e-01" purity="5.1060062646865845e-01" nType="0">
          <Node pos="l" depth="2" NCoef="0" IVar="7" Cut="1.2070914506912231e+00" cType="1" res="-4.0454771369695663e-03" rms="2.9719638824462891e-01" purity="4.0709036588668823e-01" nType="0">
            <Node pos="l" depth="3" NCoef="0" IVar="-1" Cut="0.0000000000000000e+00" cType="1" res="-6.1925821937620640e-03" rms="3.0248519778251648e-01" purity="4.4013494253158569e-01" nType="-99"/>
            <Node pos="r" depth="3" NCoef="0" IVar="-1" Cut="0.0000000000000000e+00" cType="1" res="1.3179176487028599e-02" rms="2.5649890303611755e-01" purity="1.7418272793292999e-01" nType="-99"/>
          </Node>
          <Node pos="r" depth="2" NCoef="0" IVar="1" Cut="1.6398414306640625e+03" cType="1" res="3.7503372877836227e-03" rms="2.8733393549919128e-01" purity="7.4642616510391235e-01" nType="0">
            <Node pos="l" depth="3" NCoef="0" IVar="-1" Cut="0.0000000000000000e+00" cType="1" res="1.6008285805583000e-02" rms="3.5803419351577759e-01" purity="3.0017149448394775e-01" nType="-99"/>
            <Node pos="r" depth="3" NCoef="0" IVar="-1" Cut="0.0000000000000000e+00" cType="1" res="-1.5397655079141259e-03" rms="2.6386064291000366e-01" purity="8.7192046642303467e-01" nType="-99"/>
          </Node>
        </Node>
      </Node>
    </BinaryTree>
    <BinaryTree type="DecisionTree" boostWeight="1.0000000000000000e+00" itree="529">
      <Node pos="s" depth="0" NCoef="0" IVar="9" Cut="-1.2000261545181274e+00" cType="1" res="-1.9202363910153508e-03" rms="2.9508242011070251e-01" purity="4.9747556447982788e-01" nType="0">
        <Node pos="l" depth="1" NCoef="0" IVar="2" Cut="5.7924162596464157e-02" cType="1" res="-1.5383912250399590e-02" rms="2.9217696189880371e-01" purity="3.1566005945205688e-01" nType="0">
          <Node pos="l" depth="2" NCoef="0" IVar="7" Cut="1.8494614958763123e-01" cType="1" res="-1.0838760994374752e-02" rms="2.7872207760810852e-01" purity="2.1825040876865387e-01" nType="0">
            <Node pos="l" depth="3" NCoef="0" IVar="-1" Cut="0.0000000000000000e+00" cType="1" res="-4.9953283742070198e-03" rms="2.8545504808425903e-01" purity="2.4546879529953003e-01" nType="-99"/>
            <Node pos="r" depth="3" NCoef="0" IVar="-1" Cut="0.0000000000000000e+00" cType="1" res="-2.7973456308245659e-02" rms="2.6684615015983582e-01" purity="1.7315189540386200e-01" nType="-99"/>
          </Node>
          <Node pos="r" depth="2" NCoef="0" IVar="-1" Cut="0.0000000000000000e+00" cType="1" res="-2.5589123368263245e-02" rms="3.2632470130920410e-01" purity="5.8624339103698730e-01" nType="-99"/>
        </Node>
        <Node pos="r" depth="1" NCoef="0" IVar="10" Cut="-3.9997741580009460e-01" cType="1" res="3.4013879485428333e-04" rms="2.9550728201866150e-01" purity="5.2799999713897705e-01" nType="0">
          <Node pos="l" depth="2" NCoef="0" IVar="4" Cut="2.8028118896484375e+02" cType="1" res="6.5594846382737160e-03" rms="3.0387207865715027e-01" purity="5.2042800188064575e-01" nType="0">
            <Node pos="l" depth="3" NCoef="0" IVar="-1" Cut="0.0000000000000000e+00" cType="1" res="1.1230427771806717e-02" rms="3.1764516234397888e-01" purity="3.5069864988327026e-01" nType="-99"/>
            <Node pos="r" depth="3" NCoef="0" IVar="-1" Cut="0.0000000000000000e+00" cType="1" res="-2.3596794344484806e-03" rms="2.7744641900062561e-01" purity="8.2284587621688843e-01" nType="-99"/>
          </Node>
          <Node pos="r" depth="2" NCoef="0" IVar="9" Cut="8.9507639408111572e-01" cType="1" res="-3.2782633788883686e-03" rms="2.9046863317489624e-01" purity="5.3240537643432617e-01" nType="0">
            <Node pos="l" depth="3" NCoef="0" IVar="-1" Cut="0.0000000000000000e+00" cType="1" res="-1.3187834701966494e-04" rms="2.9294413328170776e-01" purity="5.8488827943801880e-01" nType="-99"/>
            <Node pos="r" depth="3" NCoef="0" IVar="-1" Cut="0.0000000000000000e+00" cType="1" res="-1.3260797597467899e-02" rms="2.8346720337867737e-01" purity="3.9004337787628174e-01" nType="-99"/>
          </Node>
        </Node>
      </Node>
    </BinaryTree>
    <BinaryTree type="DecisionTree" boostWeight="1.0000000000000000e+00" itree="530">
      <Node pos="s" depth="0" NCoef="0" IVar="7" Cut="-9.1661351919174194e-01" cType="1" res="2.2443241905421019e-03" rms="2.9734641313552856e-01" purity="5.0080603361129761e-01" nType="0">
        <Node pos="l" depth="1" NCoef="0" IVar="2" Cut="3.0398938804864883e-02" cType="1" res="-7.6911337673664093e-03" rms="2.7098003029823303e-01" purity="2.5465649366378784e-01" nType="0">
          <Node pos="l" depth="2" NCoef="0" IVar="4" Cut="1.8431584167480469e+02" cType="1" res="-8.2350568845868111e-04" rms="2.4321728944778442e-01" purity="1.4473520219326019e-01" nType="0">
            <Node pos="l" depth="3" NCoef="0" IVar="-1" Cut="0.0000000000000000e+00" cType="1" res="-2.5308612734079361e-02" rms="1.5989725291728973e-01" purity="3.0827412381768227e-02" nType="-99"/>
            <Node pos="r" depth="3" NCoef="0" IVar="-1" Cut="0.0000000000000000e+00" cType="1" res="7.0830867625772953e-03" rms="3.1210038065910339e-01" purity="2.7489268779754639e-01" nType="-99"/>
          </Node>
          <Node pos="r" depth="2" NCoef="0" IVar="-1" Cut="0.0000000000000000e+00" cType="1" res="-2.2121338173747063e-02" rms="3.2762390375137329e-01" purity="5.1870965957641602e-01" nType="-99"/>
        </Node>
        <Node pos="r" depth="1" NCoef="0" IVar="3" Cut="3.5189852905273438e+02" cType="1" res="4.0212110616266727e-03" rms="3.0178466439247131e-01" purity="5.4482811689376831e-01" nType="0">
          <Node pos="l" depth="2" NCoef="0" IVar="6" Cut="7.6869987487792969e+01" cType="1" res="1.0718407109379768e-02" rms="3.1233245134353638e-01" purity="3.2291048765182495e-01" nType="0">
            <Node pos="l" depth="3" NCoef="0" IVar="-1" Cut="0.0000000000000000e+00" cType="1" res="3.0876898672431707e-03" rms="2.5980919599533081e-01" purity="1.1144861578941345e-01" nType="-99"/>
            <Node pos="r" depth="3" NCoef="0" IVar="-1" Cut="0.0000000000000000e+00" cType="1" res="1.5510150231420994e-02" rms="3.5385555028915405e-01" purity="5.1850473880767822e-01" nType="-99"/>
          </Node>
          <Node pos="r" depth="2" NCoef="0" IVar="7" Cut="1.2069504261016846e+00" cType="1" res="4.7313587856478989e-05" rms="2.9527613520622253e-01" purity="6.7650681734085083e-01" nType="0">
            <Node pos="l" depth="3" NCoef="0" IVar="-1" Cut="0.0000000000000000e+00" cType="1" res="1.8677362240850925e-03" rms="2.9893305897712708e-01" purity="7.1522742509841919e-01" nType="-99"/>
            <Node pos="r" depth="3" NCoef="0" IVar="-1" Cut="0.0000000000000000e+00" cType="1" res="-2.6613730937242508e-02" rms="2.4686442315578461e-01" purity="2.1606136858463287e-01" nType="-99"/>
          </Node>
        </Node>
      </Node>
    </BinaryTree>
    <BinaryTree type="DecisionTree" boostWeight="1.0000000000000000e+00" itree="531">
      <Node pos="s" depth="0" NCoef="0" IVar="2" Cut="1.4929999411106110e-01" cType="1" res="6.4410280901938677e-04" rms="2.9542693495750427e-01" purity="5.0285863876342773e-01" nType="0">
        <Node pos="l" depth="1" NCoef="0" IVar="8" Cut="1.1999148130416870e+00" cType="1" res="1.6663182759657502e-03" rms="2.9845327138900757e-01" purity="4.6860873699188232e-01" nType="0">
          <Node pos="l" depth="2" NCoef="0" IVar="7" Cut="1.4724397659301758e+00" cType="1" res="3.1032639089971781e-03" rms="3.0066886544227600e-01" purity="5.0336438417434692e-01" nType="0">
            <Node pos="l" depth="3" NCoef="0" IVar="-1" Cut="0.0000000000000000e+00" cType="1" res="4.3770093470811844e-03" rms="3.0473563075065613e-01" purity="5.2967929840087891e-01" nType="-99"/>
            <Node pos="r" depth="3" NCoef="0" IVar="-1" Cut="0.0000000000000000e+00" cType="1" res="-2.5086784735321999e-02" rms="2.2817300260066986e-01" purity="9.6747152507305145e-02" nType="-99"/>
          </Node>
          <Node pos="r" depth="2" NCoef="0" IVar="7" Cut="9.8152303695678711e-01" cType="1" res="-7.2974041104316711e-03" rms="2.8407868742942810e-01" purity="2.5180146098136902e-01" nType="0">
            <Node pos="l" depth="3" NCoef="0" IVar="-1" Cut="0.0000000000000000e+00" cType="1" res="-1.4952823519706726e-02" rms="2.9075825214385986e-01" purity="2.8616410493850708e-01" nType="-99"/>
            <Node pos="r" depth="3" NCoef="0" IVar="-1" Cut="0.0000000000000000e+00" cType="1" res="2.8263136744499207e-02" rms="2.5684934854507446e-01" purity="1.2576170265674591e-01" nType="-99"/>
          </Node>
        </Node>
        <Node pos="r" depth="1" NCoef="0" IVar="-1" Cut="0.0000000000000000e+00" cType="1" res="-1.5686603263020515e-02" rms="2.6207286119461060e-01" purity="8.5490459203720093e-01" nType="-99"/>
      </Node>
    </BinaryTree>
    <BinaryTree type="DecisionTree" boostWeight="1.0000000000000000e+00" itree="532">
      <Node pos="s" depth="0" NCoef="0" IVar="6" Cut="8.5090957641601562e+01" cType="1" res="3.3741784282028675e-03" rms="2.9946607351303101e-01" purity="5.0296467542648315e-01" nType="0">
        <Node pos="l" depth="1" NCoef="0" IVar="6" Cut="6.5038772583007812e+01" cType="1" res="7.3225283995270729e-03" rms="3.0008417367935181e-01" purity="2.5197032094001770e-01" nType="0">
          <Node pos="l" depth="2" NCoef="0" IVar="0" Cut="6.0413549804687500e+02" cType="1" res="1.3253634097054601e-03" rms="2.7020850777626038e-01" purity="1.8287266790866852e-01" nType="0">
            <Node pos="l" depth="3" NCoef="0" IVar="-1" Cut="0.0000000000000000e+00" cType="1" res="-2.7382946573197842e-03" rms="2.4974434077739716e-01" purity="1.1206877231597900e-01" nType="-99"/>
            <Node pos="r" depth="3" NCoef="0" IVar="-1" Cut="0.0000000000000000e+00" cType="1" res="1.6748709604144096e-02" rms="3.8443464040756226e-01" purity="6.8408977985382080e-01" nType="-99"/>
          </Node>
          <Node pos="r" depth="2" NCoef="0" IVar="6" Cut="7.1722671508789062e+01" cType="1" res="1.4055016450583935e-02" rms="3.3029037714004517e-01" purity="3.2954013347625732e-01" nType="0">
            <Node pos="l" depth="3" NCoef="0" IVar="-1" Cut="0.0000000000000000e+00" cType="1" res="2.5504160672426224e-02" rms="3.3008962869644165e-01" purity="2.8854104876518250e-01" nType="-99"/>
            <Node pos="r" depth="3" NCoef="0" IVar="-1" Cut="0.0000000000000000e+00" cType="1" res="6.4580435864627361e-03" rms="3.3023121953010559e-01" purity="3.5659286379814148e-01" nType="-99"/>
          </Node>
        </Node>
        <Node pos="r" depth="1" NCoef="0" IVar="8" Cut="9.3317383527755737e-01" cType="1" res="-1.9509530102368444e-04" rms="2.9886135458946228e-01" purity="7.2986137866973877e-01" nType="0">
          <Node pos="l" depth="2" NCoef="0" IVar="3" Cut="3.3999542236328125e+02" cType="1" res="-2.6359909679740667e-03" rms="2.9246988892555237e-01" purity="7.5502777099609375e-01" nType="0">
            <Node pos="l" depth="3" NCoef="0" IVar="-1" Cut="0.0000000000000000e+00" cType="1" res="-1.2008372694253922e-02" rms="3.5383641719818115e-01" purity="5.1677834987640381e-01" nType="-99"/>
            <Node pos="r" depth="3" NCoef="0" IVar="-1" Cut="0.0000000000000000e+00" cType="1" res="2.1923347376286983e-03" rms="2.6811668276786804e-01" purity="8.3661460876464844e-01" nType="-99"/>
          </Node>
          <Node pos="r" depth="2" NCoef="0" IVar="0" Cut="5.2842230224609375e+02" cType="1" res="1.3347486034035683e-02" rms="3.3176934719085693e-01" purity="5.9023302793502808e-01" nType="0">
            <Node pos="l" depth="3" NCoef="0" IVar="-1" Cut="0.0000000000000000e+00" cType="1" res="1.8068486824631691e-02" rms="3.6527633666992188e-01" purity="4.0791866183280945e-01" nType="-99"/>
            <Node pos="r" depth="3" NCoef="0" IVar="-1" Cut="0.0000000000000000e+00" cType="1" res="-4.2612045072019100e-03" rms="2.7075943350791931e-01" purity="8.7369281053543091e-01" nType="-99"/>
          </Node>
        </Node>
      </Node>
    </BinaryTree>
    <BinaryTree type="DecisionTree" boostWeight="1.0000000000000000e+00" itree="533">
      <Node pos="s" depth="0" NCoef="0" IVar="10" Cut="6.6666209697723389e-01" cType="1" res="-2.9783917125314474e-04" rms="2.9694324731826782e-01" purity="5.0102442502975464e-01" nType="0">
        <Node pos="l" depth="1" NCoef="0" IVar="10" Cut="-3.2381018996238708e-01" cType="1" res="3.2377955503761768e-03" rms="2.9871124029159546e-01" purity="5.1917564868927002e-01" nType="0">
          <Node pos="l" depth="2" NCoef="0" IVar="9" Cut="9.3327850103378296e-01" cType="1" res="-2.4317209608852863e-03" rms="2.9811051487922668e-01" purity="4.8259952664375305e-01" nType="0">
            <Node pos="l" depth="3" NCoef="0" IVar="-1" Cut="0.0000000000000000e+00" cType="1" res="-5.4686414077877998e-03" rms="2.9326319694519043e-01" purity="4.9482426047325134e-01" nType="-99"/>
            <Node pos="r" depth="3" NCoef="0" IVar="-1" Cut="0.0000000000000000e+00" cType="1" res="7.7191651798784733e-03" rms="3.1749767065048218e-01" purity="4.3115800619125366e-01" nType="-99"/>
          </Node>
          <Node pos="r" depth="2" NCoef="0" IVar="3" Cut="3.2487121582031250e+02" cType="1" res="1.0733432136476040e-02" rms="2.9933878779411316e-01" purity="5.6753271818161011e-01" nType="0">
            <Node pos="l" depth="3" NCoef="0" IVar="-1" Cut="0.0000000000000000e+00" cType="1" res="2.8009977191686630e-02" rms="3.2589966058731079e-01" purity="3.0585381388664246e-01" nType="-99"/>
            <Node pos="r" depth="3" NCoef="0" IVar="-1" Cut="0.0000000000000000e+00" cType="1" res="4.8042228445410728e-03" rms="2.8693330287933350e-01" purity="6.7977434396743774e-01" nType="-99"/>
          </Node>
        </Node>
        <Node pos="r" depth="1" NCoef="0" IVar="2" Cut="2.0917113870382309e-02" cType="1" res="-8.4533765912055969e-03" rms="2.9266151785850525e-01" purity="4.5915555953979492e-01" nType="0">
          <Node pos="l" depth="2" NCoef="0" IVar="2" Cut="1.1952275410294533e-02" cType="1" res="9.5574994338676333e-04" rms="2.6927080750465393e-01" purity="1.9873590767383575e-01" nType="0">
            <Node pos="l" depth="3" NCoef="0" IVar="-1" Cut="0.0000000000000000e+00" cType="1" res="1.6230434179306030e-02" rms="2.6147055625915527e-01" purity="1.7296378314495087e-01" nType="-99"/>
            <Node pos="r" depth="3" NCoef="0" IVar="-1" Cut="0.0000000000000000e+00" cType="1" res="-2.2283755242824554e-02" rms="2.8457307815551758e-01" purity="2.5545191764831543e-01" nType="-99"/>
          </Node>
          <Node pos="r" depth="2" NCoef="0" IVar="0" Cut="5.3834765625000000e+02" cType="1" res="-1.3721216470003128e-02" rms="3.0484801530838013e-01" purity="6.0495543479919434e-01" nType="0">
            <Node pos="l" depth="3" NCoef="0" IVar="-1" Cut="0.0000000000000000e+00" cType="1" res="-1.9561551511287689e-02" rms="3.4359946846961975e-01" purity="3.8036218285560608e-01" nType="-99"/>
            <Node pos="r" depth="3" NCoef="0" IVar="-1" Cut="0.0000000000000000e+00" cType="1" res="4.7103737597353756e-04" rms="2.4070811271667480e-01" purity="9.1468876600265503e-01" nType="-99"/>
          </Node>
        </Node>
      </Node>
    </BinaryTree>
    <BinaryTree type="DecisionTree" boostWeight="1.0000000000000000e+00" itree="534">
      <Node pos="s" depth="0" NCoef="0" IVar="5" Cut="1.0495019531250000e+02" cType="1" res="2.1692841255571693e-04" rms="2.9776415228843689e-01" purity="4.9904233217239380e-01" nType="0">
        <Node pos="l" depth="1" NCoef="0" IVar="9" Cut="9.3327093124389648e-01" cType="1" res="9.8080504685640335e-03" rms="2.7059626579284668e-01" purity="1.3920947909355164e-01" nType="0">
          <Node pos="l" depth="2" NCoef="0" IVar="6" Cut="7.6072387695312500e+01" cType="1" res="4.5739226043224335e-03" rms="2.6638865470886230e-01" purity="1.3369150459766388e-01" nType="0">
            <Node pos="l" depth="3" NCoef="0" IVar="-1" Cut="0.0000000000000000e+00" cType="1" res="1.5170975821092725e-03" rms="2.4554081261157990e-01" purity="1.0836760699748993e-01" nType="-99"/>
            <Node pos="r" depth="3" NCoef="0" IVar="-1" Cut="0.0000000000000000e+00" cType="1" res="1.8665039911866188e-02" rms="3.3682888746261597e-01" purity="2.3515139520168304e-01" nType="-99"/>
          </Node>
          <Node pos="r" depth="2" NCoef="0" IVar="0" Cut="4.1328753662109375e+02" cType="1" res="2.4127939715981483e-02" rms="2.8128948807716370e-01" purity="1.5430594980716705e-01" nType="0">
            <Node pos="l" depth="3" NCoef="0" IVar="-1" Cut="0.0000000000000000e+00" cType="1" res="1.6113953664898872e-02" rms="2.0748722553253174e-01" purity="5.4797135293483734e-02" nType="-99"/>
            <Node pos="r" depth="3" NCoef="0" IVar="-1" Cut="0.0000000000000000e+00" cType="1" res="4.6731080859899521e-02" rms="3.6793276667594910e-01" purity="3.1306329369544983e-01" nType="-99"/>
          </Node>
        </Node>
        <Node pos="r" depth="1" NCoef="0" IVar="4" Cut="2.8772201538085938e+02" cType="1" res="-3.9445296861231327e-03" rms="3.0871665477752686e-01" purity="6.5516895055770874e-01" nType="0">
          <Node pos="l" depth="2" NCoef="0" IVar="4" Cut="2.7032034301757812e+02" cType="1" res="-8.6923409253358841e-03" rms="3.4142974019050598e-01" purity="4.8938351869583130e-01" nType="0">
            <Node pos="l" depth="3" NCoef="0" IVar="-1" Cut="0.0000000000000000e+00" cType="1" res="-9.6160126850008965e-03" rms="3.4332484006881714e-01" purity="4.5745638012886047e-01" nType="-99"/>
            <Node pos="r" depth="3" NCoef="0" IVar="-1" Cut="0.0000000000000000e+00" cType="1" res="1.3942323625087738e-02" rms="3.2413151860237122e-01" purity="7.5707334280014038e-01" nType="-99"/>
          </Node>
          <Node pos="r" depth="2" NCoef="0" IVar="5" Cut="1.5724423217773438e+02" cType="1" res="1.9526851829141378e-03" rms="2.6234713196754456e-01" purity="8.6108952760696411e-01" nType="0">
            <Node pos="l" depth="3" NCoef="0" IVar="-1" Cut="0.0000000000000000e+00" cType="1" res="1.1191939003765583e-02" rms="3.4993848204612732e-01" purity="7.0098978281021118e-01" nType="-99"/>
            <Node pos="r" depth="3" NCoef="0" IVar="-1" Cut="0.0000000000000000e+00" cType="1" res="-6.7191239213570952e-04" rms="2.4175167083740234e-01" purity="8.9197945594787598e-01" nType="-99"/>
          </Node>
        </Node>
      </Node>
    </BinaryTree>
    <BinaryTree type="DecisionTree" boostWeight="1.0000000000000000e+00" itree="535">
      <Node pos="s" depth="0" NCoef="0" IVar="8" Cut="9.3335062265396118e-01" cType="1" res="3.6776715423911810e-03" rms="2.9961535334587097e-01" purity="5.0375401973724365e-01" nType="0">
        <Node pos="l" depth="1" NCoef="0" IVar="9" Cut="1.1999559402465820e+00" cType="1" res="1.6580062219873071e-03" rms="2.9789522290229797e-01" purity="5.3797525167465210e-01" nType="0">
          <Node pos="l" depth="2" NCoef="0" IVar="8" Cut="7.5557643175125122e-01" cType="1" res="2.9749372042715549e-03" rms="2.9671162366867065e-01" purity="5.5989480018615723e-01" nType="0">
            <Node pos="l" depth="3" NCoef="0" IVar="-1" Cut="0.0000000000000000e+00" cType="1" res="2.1761455573141575e-03" rms="2.9458755254745483e-01" purity="5.5873656272888184e-01" nType="-99"/>
            <Node pos="r" depth="3" NCoef="0" IVar="-1" Cut="0.0000000000000000e+00" cType="1" res="1.9953375682234764e-02" rms="3.2806146144866943e-01" purity="5.7823872566223145e-01" nType="-99"/>
          </Node>
          <Node pos="r" depth="2" NCoef="0" IVar="5" Cut="8.9180908203125000e+01" cType="1" res="-6.6767656244337559e-03" rms="3.0514797568321228e-01" purity="3.9924758672714233e-01" nType="0">
            <Node pos="l" depth="3" NCoef="0" IVar="-1" Cut="0.0000000000000000e+00" cType="1" res="3.0162768438458443e-02" rms="2.6964518427848816e-01" purity="1.1890026181936264e-01" nType="-99"/>
            <Node pos="r" depth="3" NCoef="0" IVar="-1" Cut="0.0000000000000000e+00" cType="1" res="-1.4007589779794216e-02" rms="3.1614881753921509e-01" purity="4.9684387445449829e-01" nType="-99"/>
          </Node>
        </Node>
        <Node pos="r" depth="1" NCoef="0" IVar="10" Cut="4.0004655718803406e-01" cType="1" res="1.2298648245632648e-02" rms="3.0669993162155151e-01" purity="3.5768023133277893e-01" nType="0">
          <Node pos="l" depth="2" NCoef="0" IVar="7" Cut="6.8477851152420044e-01" cType="1" res="5.1090144552290440e-04" rms="2.9925402998924255e-01" purity="3.7413588166236877e-01" nType="0">
            <Node pos="l" depth="3" NCoef="0" IVar="-1" Cut="0.0000000000000000e+00" cType="1" res="-5.8520236052572727e-03" rms="3.0211609601974487e-01" purity="4.0630838274955750e-01" nType="-99"/>
            <Node pos="r" depth="3" NCoef="0" IVar="-1" Cut="0.0000000000000000e+00" cType="1" res="2.1682042628526688e-02" rms="2.9004701972007751e-01" purity="2.8038248419761658e-01" nType="-99"/>
          </Node>
          <Node pos="r" depth="2" NCoef="0" IVar="6" Cut="7.8396865844726562e+01" cType="1" res="2.6481289416551590e-02" rms="3.1484133005142212e-01" purity="3.3788129687309265e-01" nType="0">
            <Node pos="l" depth="3" NCoef="0" IVar="-1" Cut="0.0000000000000000e+00" cType="1" res="2.1333489567041397e-02" rms="2.7837592363357544e-01" purity="1.3900339603424072e-01" nType="-99"/>
            <Node pos="r" depth="3" NCoef="0" IVar="-1" Cut="0.0000000000000000e+00" cType="1" res="3.6043886095285416e-02" rms="3.4935054183006287e-01" purity="5.5198520421981812e-01" nType="-99"/>
          </Node>
        </Node>
      </Node>
    </BinaryTree>
    <BinaryTree type="DecisionTree" boostWeight="1.0000000000000000e+00" itree="536">
      <Node pos="s" depth="0" NCoef="0" IVar="7" Cut="1.5633103251457214e-01" cType="1" res="-5.8867287589237094e-04" rms="2.9812827706336975e-01" purity="4.9798169732093811e-01" nType="0">
        <Node pos="l" depth="1" NCoef="0" IVar="1" Cut="1.1001525878906250e+03" cType="1" res="2.8984448872506618e-03" rms="3.0157485604286194e-01" purity="5.2292293310165405e-01" nType="0">
          <Node pos="l" depth="2" NCoef="0" IVar="7" Cut="-2.5908580422401428e-01" cType="1" res="1.0564359836280346e-02" rms="2.3322387039661407e-01" purity="6.6828273236751556e-02" nType="0">
            <Node pos="l" depth="3" NCoef="0" IVar="-1" Cut="0.0000000000000000e+00" cType="1" res="1.0253419168293476e-02" rms="2.1037583053112030e-01" purity="5.2473247051239014e-02" nType="-99"/>
            <Node pos="r" depth="3" NCoef="0" IVar="-1" Cut="0.0000000000000000e+00" cType="1" res="4.6193420886993408e-02" rms="2.9561707377433777e-01" purity="1.1435472965240479e-01" nType="-99"/>
          </Node>
          <Node pos="r" depth="2" NCoef="0" IVar="2" Cut="6.3949689269065857e-02" cType="1" res="3.9727648254483938e-04" rms="3.2069998979568481e-01" purity="6.7173349857330322e-01" nType="0">
            <Node pos="l" depth="3" NCoef="0" IVar="-1" Cut="0.0000000000000000e+00" cType="1" res="4.1761407628655434e-03" rms="3.4290587902069092e-01" purity="5.4836744070053101e-01" nType="-99"/>
            <Node pos="r" depth="3" NCoef="0" IVar="-1" Cut="0.0000000000000000e+00" cType="1" res="-8.6200721561908722e-03" rms="2.8309220075607300e-01" purity="8.6113256216049194e-01" nType="-99"/>
          </Node>
        </Node>
        <Node pos="r" depth="1" NCoef="0" IVar="4" Cut="2.1941542053222656e+02" cType="1" res="-5.2761747501790524e-03" rms="2.9336622357368469e-01" purity="4.6445488929748535e-01" nType="0">
          <Node pos="l" depth="2" NCoef="0" IVar="2" Cut="5.8366876095533371e-02" cType="1" res="-4.6041043242439628e-04" rms="2.8561803698539734e-01" purity="1.8510133028030396e-01" nType="0">
            <Node pos="l" depth="3" NCoef="0" IVar="-1" Cut="0.0000000000000000e+00" cType="1" res="6.4465044997632504e-03" rms="2.6618540287017822e-01" purity="1.3220402598381042e-01" nType="-99"/>
            <Node pos="r" depth="3" NCoef="0" IVar="-1" Cut="0.0000000000000000e+00" cType="1" res="-1.5124558471143246e-02" rms="3.5342562198638916e-01" purity="4.0143817663192749e-01" nType="-99"/>
          </Node>
          <Node pos="r" depth="2" NCoef="0" IVar="0" Cut="4.3640518188476562e+02" cType="1" res="-9.7003886476159096e-03" rms="3.0024024844169617e-01" purity="7.2109538316726685e-01" nType="0">
            <Node pos="l" depth="3" NCoef="0" IVar="-1" Cut="0.0000000000000000e+00" cType="1" res="-1.9311649724841118e-02" rms="3.6415317654609680e-01" purity="3.9511260390281677e-01" nType="-99"/>
            <Node pos="r" depth="3" NCoef="0" IVar="-1" Cut="0.0000000000000000e+00" cType="1" res="-3.1322191935032606e-03" rms="2.6669561862945557e-01" purity="8.6569142341613770e-01" nType="-99"/>
          </Node>
        </Node>
      </Node>
    </BinaryTree>
    <BinaryTree type="DecisionTree" boostWeight="1.0000000000000000e+00" itree="537">
      <Node pos="s" depth="0" NCoef="0" IVar="9" Cut="-6.6664022207260132e-01" cType="1" res="-9.8529481329023838e-04" rms="2.9502120614051819e-01" purity="5.0030827522277832e-01" nType="0">
        <Node pos="l" depth="1" NCoef="0" IVar="10" Cut="6.6669505834579468e-01" cType="1" res="5.3512277081608772e-03" rms="3.0182537436485291e-01" purity="4.3275418877601624e-01" nType="0">
          <Node pos="l" depth="2" NCoef="0" IVar="5" Cut="9.2810195922851562e+01" cType="1" res="1.0657656937837601e-02" rms="3.0479621887207031e-01" purity="4.3637144565582275e-01" nType="0">
            <Node pos="l" depth="3" NCoef="0" IVar="-1" Cut="0.0000000000000000e+00" cType="1" res="-1.2594372965395451e-02" rms="2.2149080038070679e-01" purity="7.8842870891094208e-02" nType="-99"/>
            <Node pos="r" depth="3" NCoef="0" IVar="-1" Cut="0.0000000000000000e+00" cType="1" res="1.5444504097104073e-02" rms="3.2770869135856628e-01" purity="5.5563139915466309e-01" nType="-99"/>
          </Node>
          <Node pos="r" depth="2" NCoef="0" IVar="8" Cut="-3.9947360754013062e-01" cType="1" res="-8.9743025600910187e-03" rms="2.9317575693130493e-01" purity="4.2298889160156250e-01" nType="0">
            <Node pos="l" depth="3" NCoef="0" IVar="-1" Cut="0.0000000000000000e+00" cType="1" res="-2.7918418869376183e-02" rms="2.7662923932075500e-01" purity="3.8080686330795288e-01" nType="-99"/>
            <Node pos="r" depth="3" NCoef="0" IVar="-1" Cut="0.0000000000000000e+00" cType="1" res="-1.6662302368786186e-04" rms="3.0170556902885437e-01" purity="4.4666066765785217e-01" nType="-99"/>
          </Node>
        </Node>
        <Node pos="r" depth="1" NCoef="0" IVar="8" Cut="-1.7333328723907471e+00" cType="1" res="-3.4671339672058821e-03" rms="2.9227560758590698e-01" purity="5.2676731348037720e-01" nType="0">
          <Node pos="l" depth="2" NCoef="0" IVar="-1" Cut="0.0000000000000000e+00" cType="1" res="-3.4844916313886642e-02" rms="2.4361906945705414e-01" purity="1.3624177873134613e-01" nType="-99"/>
          <Node pos="r" depth="2" NCoef="0" IVar="8" Cut="-1.0857014656066895e+00" cType="1" res="-2.4785569403320551e-03" rms="2.9437926411628723e-01" purity="5.4556971788406372e-01" nType="0">
            <Node pos="l" depth="3" NCoef="0" IVar="-1" Cut="0.0000000000000000e+00" cType="1" res="1.3267666101455688e-02" rms="3.1967028975486755e-01" purity="4.5578077435493469e-01" nType="-99"/>
            <Node pos="r" depth="3" NCoef="0" IVar="-1" Cut="0.0000000000000000e+00" cType="1" res="-4.7493744641542435e-03" rms="2.9150214791297913e-01" purity="5.5514681339263916e-01" nType="-99"/>
          </Node>
        </Node>
      </Node>
    </BinaryTree>
    <BinaryTree type="DecisionTree" boostWeight="1.0000000000000000e+00" itree="538">
      <Node pos="s" depth="0" NCoef="0" IVar="4" Cut="2.4016337585449219e+02" cType="1" res="-1.0572287719696760e-03" rms="2.9714414477348328e-01" purity="4.9760422110557556e-01" nType="0">
        <Node pos="l" depth="1" NCoef="0" IVar="5" Cut="6.8082237243652344e+01" cType="1" res="-3.9105582982301712e-03" rms="3.0106943845748901e-01" purity="2.4218896031379700e-01" nType="0">
          <Node pos="l" depth="2" NCoef="0" IVar="6" Cut="5.4290493011474609e+01" cType="1" res="1.2656774371862411e-02" rms="2.0704631507396698e-01" purity="5.4041396826505661e-02" nType="0">
            <Node pos="l" depth="3" NCoef="0" IVar="-1" Cut="0.0000000000000000e+00" cType="1" res="-3.0999569222331047e-02" rms="1.4820329844951630e-01" purity="3.0118096619844437e-02" nType="-99"/>
            <Node pos="r" depth="3" NCoef="0" IVar="-1" Cut="0.0000000000000000e+00" cType="1" res="8.8443644344806671e-02" rms="2.4218179285526276e-01" purity="7.2896823287010193e-02" nType="-99"/>
          </Node>
          <Node pos="r" depth="2" NCoef="0" IVar="3" Cut="4.5778140258789062e+02" cType="1" res="-5.9722210280597210e-03" rms="3.1072422862052917e-01" purity="2.6560235023498535e-01" nType="0">
            <Node pos="l" depth="3" NCoef="0" IVar="-1" Cut="0.0000000000000000e+00" cType="1" res="-3.3223805949091911e-03" rms="3.0639773607254028e-01" purity="2.3198187351226807e-01" nType="-99"/>
            <Node pos="r" depth="3" NCoef="0" IVar="-1" Cut="0.0000000000000000e+00" cType="1" res="-1.5897769480943680e-02" rms="3.2922187447547913e-01" purity="4.1714128851890564e-01" nType="-99"/>
          </Node>
        </Node>
        <Node pos="r" depth="1" NCoef="0" IVar="0" Cut="4.5299887084960938e+02" cType="1" res="2.0776833407580853e-03" rms="2.9273873567581177e-01" purity="7.7822530269622803e-01" nType="0">
          <Node pos="l" depth="2" NCoef="0" IVar="9" Cut="1.3411244750022888e-01" cType="1" res="8.2515580579638481e-03" rms="3.7361803650856018e-01" purity="5.1717829704284668e-01" nType="0">
            <Node pos="l" depth="3" NCoef="0" IVar="-1" Cut="0.0000000000000000e+00" cType="1" res="-1.6027502715587616e-03" rms="3.6340749263763428e-01" purity="5.1834982633590698e-01" nType="-99"/>
            <Node pos="r" depth="3" NCoef="0" IVar="-1" Cut="0.0000000000000000e+00" cType="1" res="1.4683748595416546e-02" rms="3.8535436987876892e-01" purity="5.1574474573135376e-01" nType="-99"/>
          </Node>
          <Node pos="r" depth="2" NCoef="0" IVar="7" Cut="-8.4330850839614868e-01" cType="1" res="-7.5469771400094032e-04" rms="2.4687114357948303e-01" purity="8.9798551797866821e-01" nType="0">
            <Node pos="l" depth="3" NCoef="0" IVar="-1" Cut="0.0000000000000000e+00" cType="1" res="1.6702378168702126e-02" rms="3.1871271133422852e-01" purity="7.9592031240463257e-01" nType="-99"/>
            <Node pos="r" depth="3" NCoef="0" IVar="-1" Cut="0.0000000000000000e+00" cType="1" res="-5.1088896580040455e-03" rms="2.3704849183559418e-01" purity="9.0982091426849365e-01" nType="-99"/>
          </Node>
        </Node>
      </Node>
    </BinaryTree>
    <BinaryTree type="DecisionTree" boostWeight="1.0000000000000000e+00" itree="539">
      <Node pos="s" depth="0" NCoef="0" IVar="10" Cut="1.2000179290771484e+00" cType="1" res="-4.4226928730495274e-04" rms="2.9711848497390747e-01" purity="4.9836423993110657e-01" nType="0">
        <Node pos="l" depth="1" NCoef="0" IVar="6" Cut="1.2018177795410156e+02" cType="1" res="-2.3222195450216532e-03" rms="2.9471746087074280e-01" purity="5.1472562551498413e-01" nType="0">
          <Node pos="l" depth="2" NCoef="0" IVar="6" Cut="5.6683986663818359e+01" cType="1" res="-5.4963543079793453e-03" rms="3.0986982583999634e-01" purity="3.4219795465469360e-01" nType="0">
            <Node pos="l" depth="3" NCoef="0" IVar="-1" Cut="0.0000000000000000e+00" cType="1" res="-2.7976876124739647e-02" rms="2.4180476367473602e-01" purity="1.3895685970783234e-01" nType="-99"/>
            <Node pos="r" depth="3" NCoef="0" IVar="-1" Cut="0.0000000000000000e+00" cType="1" res="-2.6662421878427267e-03" rms="3.2193627953529358e-01" purity="3.8369140028953552e-01" nType="-99"/>
          </Node>
          <Node pos="r" depth="2" NCoef="0" IVar="1" Cut="1.4502973632812500e+03" cType="1" res="4.1444194503128529e-03" rms="2.6102215051651001e-01" purity="8.6621475219726562e-01" nType="0">
            <Node pos="l" depth="3" NCoef="0" IVar="-1" Cut="0.0000000000000000e+00" cType="1" res="1.1500852182507515e-02" rms="4.1611388325691223e-01" purity="5.4520833492279053e-01" nType="-99"/>
            <Node pos="r" depth="3" NCoef="0" IVar="-1" Cut="0.0000000000000000e+00" cType="1" res="2.7948529459536076e-03" rms="2.2389659285545349e-01" purity="9.2109483480453491e-01" nType="-99"/>
          </Node>
        </Node>
        <Node pos="r" depth="1" NCoef="0" IVar="8" Cut="9.3330597877502441e-01" cType="1" res="8.4400633350014687e-03" rms="3.0805477499961853e-01" purity="4.2106059193611145e-01" nType="0">
          <Node pos="l" depth="2" NCoef="0" IVar="1" Cut="1.8265198974609375e+03" cType="1" res="1.5270262025296688e-02" rms="3.1777313351631165e-01" purity="4.8304006457328796e-01" nType="0">
            <Node pos="l" depth="3" NCoef="0" IVar="-1" Cut="0.0000000000000000e+00" cType="1" res="2.0301969721913338e-02" rms="3.3855444192886353e-01" purity="3.5266420245170593e-01" nType="-99"/>
            <Node pos="r" depth="3" NCoef="0" IVar="-1" Cut="0.0000000000000000e+00" cType="1" res="-1.0343145579099655e-02" rms="2.3567490279674530e-01" purity="9.1194289922714233e-01" nType="-99"/>
          </Node>
          <Node pos="r" depth="2" NCoef="0" IVar="-1" Cut="0.0000000000000000e+00" cType="1" res="-1.5867872163653374e-02" rms="2.7470454573631287e-01" purity="2.2904010117053986e-01" nType="-99"/>
        </Node>
      </Node>
    </BinaryTree>
    <BinaryTree type="DecisionTree" boostWeight="1.0000000000000000e+00" itree="540">
      <Node pos="s" depth="0" NCoef="0" IVar="8" Cut="-4.0004977583885193e-01" cType="1" res="-1.5912654343992472e-03" rms="2.9487499594688416e-01" purity="4.9874600768089294e-01" nType="0">
        <Node pos="l" depth="1" NCoef="0" IVar="8" Cut="-1.8857285976409912e+00" cType="1" res="-6.2106945551931858e-03" rms="2.9638952016830444e-01" purity="4.4303235411643982e-01" nType="0">
          <Node pos="l" depth="2" NCoef="0" IVar="-1" Cut="0.0000000000000000e+00" cType="1" res="2.1302359178662300e-02" rms="2.6624897122383118e-01" purity="1.3379542529582977e-01" nType="-99"/>
          <Node pos="r" depth="2" NCoef="0" IVar="1" Cut="1.7444515380859375e+03" cType="1" res="-8.7064718827605247e-03" rms="3.0001413822174072e-01" purity="4.8343497514724731e-01" nType="0">
            <Node pos="l" depth="3" NCoef="0" IVar="-1" Cut="0.0000000000000000e+00" cType="1" res="-1.2016680091619492e-02" rms="3.2363590598106384e-01" purity="2.9108232259750366e-01" nType="-99"/>
            <Node pos="r" depth="3" NCoef="0" IVar="-1" Cut="0.0000000000000000e+00" cType="1" res="1.6780057922005653e-03" rms="2.3973238468170166e-01" purity="9.0647721290588379e-01" nType="-99"/>
          </Node>
        </Node>
        <Node pos="r" depth="1" NCoef="0" IVar="5" Cut="9.5164062500000000e+01" cType="1" res="8.6311856284737587e-04" rms="2.9403761029243469e-01" purity="5.2834767103195190e-01" nType="0">
          <Node pos="l" depth="2" NCoef="0" IVar="6" Cut="6.2862037658691406e+01" cType="1" res="-8.3379717543721199e-03" rms="2.4095943570137024e-01" purity="1.0862721502780914e-01" nType="0">
            <Node pos="l" depth="3" NCoef="0" IVar="-1" Cut="0.0000000000000000e+00" cType="1" res="-9.5095565484371036e-05" rms="2.2156685590744019e-01" purity="8.9325703680515289e-02" nType="-99"/>
            <Node pos="r" depth="3" NCoef="0" IVar="-1" Cut="0.0000000000000000e+00" cType="1" res="-2.5179060176014900e-02" rms="2.6413691043853760e-01" purity="1.3427661359310150e-01" nType="-99"/>
          </Node>
          <Node pos="r" depth="2" NCoef="0" IVar="10" Cut="-1.4663171768188477e+00" cType="1" res="3.5433557350188494e-03" rms="3.0773055553436279e-01" purity="6.5061038732528687e-01" nType="0">
            <Node pos="l" depth="3" NCoef="0" IVar="-1" Cut="0.0000000000000000e+00" cType="1" res="1.9484877586364746e-02" rms="3.3165809512138367e-01" purity="5.9121382236480713e-01" nType="-99"/>
            <Node pos="r" depth="3" NCoef="0" IVar="-1" Cut="0.0000000000000000e+00" cType="1" res="1.4726249501109123e-03" rms="3.0463820695877075e-01" purity="6.5779680013656616e-01" nType="-99"/>
          </Node>
        </Node>
      </Node>
    </BinaryTree>
    <BinaryTree type="DecisionTree" boostWeight="1.0000000000000000e+00" itree="541">
      <Node pos="s" depth="0" NCoef="0" IVar="3" Cut="3.3999157714843750e+02" cType="1" res="-4.7661046846769750e-04" rms="2.9686188697814941e-01" purity="5.0122004747390747e-01" nType="0">
        <Node pos="l" depth="1" NCoef="0" IVar="5" Cut="1.1745348358154297e+02" cType="1" res="-5.8719571679830551e-03" rms="2.9876750707626343e-01" purity="2.6032289862632751e-01" nType="0">
          <Node pos="l" depth="2" NCoef="0" IVar="9" Cut="-4.0001574158668518e-01" cType="1" res="3.2317191362380981e-03" rms="2.4828258156776428e-01" purity="8.9520573616027832e-02" nType="0">
            <Node pos="l" depth="3" NCoef="0" IVar="-1" Cut="0.0000000000000000e+00" cType="1" res="-1.3511016033589840e-02" rms="2.3346696794033051e-01" purity="7.3153495788574219e-02" nType="-99"/>
            <Node pos="r" depth="3" NCoef="0" IVar="-1" Cut="0.0000000000000000e+00" cType="1" res="1.6442477703094482e-02" rms="2.5692650675773621e-01" purity="9.9808119237422943e-02" nType="-99"/>
          </Node>
          <Node pos="r" depth="2" NCoef="0" IVar="4" Cut="2.3404348754882812e+02" cType="1" res="-1.6310965642333031e-02" rms="3.4745761752128601e-01" purity="4.5617863535881042e-01" nType="0">
            <Node pos="l" depth="3" NCoef="0" IVar="-1" Cut="0.0000000000000000e+00" cType="1" res="-2.0476171746850014e-02" rms="3.4998881816864014e-01" purity="3.1787040829658508e-01" nType="-99"/>
            <Node pos="r" depth="3" NCoef="0" IVar="-1" Cut="0.0000000000000000e+00" cType="1" res="4.8840238014236093e-04" rms="3.4247753024101257e-01" purity="6.8983167409896851e-01" nType="-99"/>
          </Node>
        </Node>
        <Node pos="r" depth="1" NCoef="0" IVar="2" Cut="2.0562212914228439e-02" cType="1" res="2.5274935178458691e-03" rms="2.9575285315513611e-01" purity="6.3535040616989136e-01" nType="0">
          <Node pos="l" depth="2" NCoef="0" IVar="10" Cut="6.6664516925811768e-01" cType="1" res="-3.8060992956161499e-03" rms="3.0844703316688538e-01" purity="3.3493056893348694e-01" nType="0">
            <Node pos="l" depth="3" NCoef="0" IVar="-1" Cut="0.0000000000000000e+00" cType="1" res="1.3888370012864470e-03" rms="3.1381645798683167e-01" purity="3.6305692791938782e-01" nType="-99"/>
            <Node pos="r" depth="3" NCoef="0" IVar="-1" Cut="0.0000000000000000e+00" cType="1" res="-1.8820589408278465e-02" rms="2.9448321461677551e-01" purity="2.6596316695213318e-01" nType="-99"/>
          </Node>
          <Node pos="r" depth="2" NCoef="0" IVar="1" Cut="1.3991748046875000e+03" cType="1" res="5.6704543530941010e-03" rms="2.8919526934623718e-01" purity="7.8442978858947754e-01" nType="0">
            <Node pos="l" depth="3" NCoef="0" IVar="-1" Cut="0.0000000000000000e+00" cType="1" res="1.2691374868154526e-02" rms="3.8411906361579895e-01" purity="3.0181625485420227e-01" nType="-99"/>
            <Node pos="r" depth="3" NCoef="0" IVar="-1" Cut="0.0000000000000000e+00" cType="1" res="3.8359409663826227e-03" rms="2.6304319500923157e-01" purity="8.9313644170761108e-01" nType="-99"/>
          </Node>
        </Node>
      </Node>
    </BinaryTree>
    <BinaryTree type="DecisionTree" boostWeight="1.0000000000000000e+00" itree="542">
      <Node pos="s" depth="0" NCoef="0" IVar="0" Cut="4.5299456787109375e+02" cType="1" res="-1.9853624980896711e-03" rms="2.9287108778953552e-01" purity="4.9639475345611572e-01" nType="0">
        <Node pos="l" depth="1" NCoef="0" IVar="2" Cut="2.0917177200317383e-02" cType="1" res="-5.8891833759844303e-03" rms="2.9673466086387634e-01" purity="2.2624084353446960e-01" nType="0">
          <Node pos="l" depth="2" NCoef="0" IVar="7" Cut="-6.5107065439224243e-01" cType="1" res="1.1139482958242297e-03" rms="2.3125258088111877e-01" purity="8.8455006480216980e-02" nType="0">
            <Node pos="l" depth="3" NCoef="0" IVar="-1" Cut="0.0000000000000000e+00" cType="1" res="-2.0839011296629906e-02" rms="1.8437020480632782e-01" purity="4.9808230251073837e-02" nType="-99"/>
            <Node pos="r" depth="3" NCoef="0" IVar="-1" Cut="0.0000000000000000e+00" cType="1" res="1.0724300518631935e-02" rms="2.5338435173034668e-01" purity="1.0989660769701004e-01" nType="-99"/>
          </Node>
          <Node pos="r" depth="2" NCoef="0" IVar="0" Cut="3.5099978637695312e+02" cType="1" res="-1.1629235930740833e-02" rms="3.4105181694030762e-01" purity="3.3917576074600220e-01" nType="0">
            <Node pos="l" depth="3" NCoef="0" IVar="-1" Cut="0.0000000000000000e+00" cType="1" res="-1.8953843042254448e-02" rms="3.1595107913017273e-01" purity="2.1078298985958099e-01" nType="-99"/>
            <Node pos="r" depth="3" NCoef="0" IVar="-1" Cut="0.0000000000000000e+00" cType="1" res="-3.9609540253877640e-03" rms="3.5771626234054565e-01" purity="4.3060359358787537e-01" nType="-99"/>
          </Node>
        </Node>
        <Node pos="r" depth="1" NCoef="0" IVar="1" Cut="1.1738621826171875e+03" cType="1" res="1.9959381315857172e-03" rms="2.8882330656051636e-01" purity="7.7191048860549927e-01" nType="0">
          <Node pos="l" depth="2" NCoef="0" IVar="-1" Cut="0.0000000000000000e+00" cType="1" res="-1.8617559224367142e-02" rms="2.9466354846954346e-01" purity="1.1219685524702072e-01" nType="-99"/>
          <Node pos="r" depth="2" NCoef="0" IVar="10" Cut="-1.2000695466995239e+00" cType="1" res="3.1447857618331909e-03" rms="2.8843322396278381e-01" purity="8.1092518568038940e-01" nType="0">
            <Node pos="l" depth="3" NCoef="0" IVar="-1" Cut="0.0000000000000000e+00" cType="1" res="-9.1906115412712097e-03" rms="3.1037884950637817e-01" purity="7.6030302047729492e-01" nType="-99"/>
            <Node pos="r" depth="3" NCoef="0" IVar="-1" Cut="0.0000000000000000e+00" cType="1" res="6.3815689645707607e-03" rms="2.8429818153381348e-01" purity="8.1993138790130615e-01" nType="-99"/>
          </Node>
        </Node>
      </Node>
    </BinaryTree>
    <BinaryTree type="DecisionTree" boostWeight="1.0000000000000000e+00" itree="543">
      <Node pos="s" depth="0" NCoef="0" IVar="9" Cut="1.9999754428863525e+00" cType="1" res="3.9524056774098426e-05" rms="2.9716926813125610e-01" purity="4.9906995892524719e-01" nType="0">
        <Node pos="l" depth="1" NCoef="0" IVar="2" Cut="4.2633228003978729e-02" cType="1" res="-7.3739211075007915e-04" rms="2.9752025008201599e-01" purity="5.1080650091171265e-01" nType="0">
          <Node pos="l" depth="2" NCoef="0" IVar="7" Cut="4.0456292033195496e-01" cType="1" res="-3.9038439281284809e-03" rms="2.9580360651016235e-01" purity="3.2294848561286926e-01" nType="0">
            <Node pos="l" depth="3" NCoef="0" IVar="-1" Cut="0.0000000000000000e+00" cType="1" res="-8.3106132224202156e-03" rms="2.9936486482620239e-01" purity="3.4934291243553162e-01" nType="-99"/>
            <Node pos="r" depth="3" NCoef="0" IVar="-1" Cut="0.0000000000000000e+00" cType="1" res="2.7940189465880394e-03" rms="2.8963634371757507e-01" purity="2.7877473831176758e-01" nType="-99"/>
          </Node>
          <Node pos="r" depth="2" NCoef="0" IVar="4" Cut="2.0967428588867188e+02" cType="1" res="2.9715069103986025e-03" rms="2.9947587847709656e-01" purity="7.3084664344787598e-01" nType="0">
            <Node pos="l" depth="3" NCoef="0" IVar="-1" Cut="0.0000000000000000e+00" cType="1" res="8.9009189978241920e-03" rms="3.5969913005828857e-01" purity="3.6970114707946777e-01" nType="-99"/>
            <Node pos="r" depth="3" NCoef="0" IVar="-1" Cut="0.0000000000000000e+00" cType="1" res="-3.3645654912106693e-04" rms="2.7274471521377563e-01" purity="8.6966222524642944e-01" nType="-99"/>
          </Node>
        </Node>
        <Node pos="r" depth="1" NCoef="0" IVar="-1" Cut="0.0000000000000000e+00" cType="1" res="2.1190047264099121e-02" rms="2.8856486082077026e-01" purity="2.3378184437751770e-01" nType="-99"/>
      </Node>
    </BinaryTree>
    <BinaryTree type="DecisionTree" boostWeight="1.0000000000000000e+00" itree="544">
      <Node pos="s" depth="0" NCoef="0" IVar="8" Cut="1.2000299692153931e+00" cType="1" res="2.2206655703485012e-03" rms="2.9801538586616516e-01" purity="4.9831900000572205e-01" nType="0">
        <Node pos="l" depth="1" NCoef="0" IVar="0" Cut="4.5299456787109375e+02" cType="1" res="3.5489718429744244e-03" rms="3.0044957995414734e-01" purity="5.3264790773391724e-01" nType="0">
          <Node pos="l" depth="2" NCoef="0" IVar="6" Cut="6.4996223449707031e+01" cType="1" res="7.3460773564875126e-03" rms="3.1435757875442505e-01" purity="2.6328980922698975e-01" nType="0">
            <Node pos="l" depth="3" NCoef="0" IVar="-1" Cut="0.0000000000000000e+00" cType="1" res="-2.6745833456516266e-03" rms="2.2328917682170868e-01" purity="7.2037354111671448e-02" nType="-99"/>
            <Node pos="r" depth="3" NCoef="0" IVar="-1" Cut="0.0000000000000000e+00" cType="1" res="9.6905371174216270e-03" rms="3.5082253813743591e-01" purity="3.5825544595718384e-01" nType="-99"/>
          </Node>
          <Node pos="r" depth="2" NCoef="0" IVar="8" Cut="-1.4665281772613525e+00" cType="1" res="-4.2897238017758355e-05" rms="2.8662666678428650e-01" purity="7.8744697570800781e-01" nType="0">
            <Node pos="l" depth="3" NCoef="0" IVar="-1" Cut="0.0000000000000000e+00" cType="1" res="1.4051844365894794e-02" rms="3.6009931564331055e-01" purity="4.9317422509193420e-01" nType="-99"/>
            <Node pos="r" depth="3" NCoef="0" IVar="-1" Cut="0.0000000000000000e+00" cType="1" res="-1.5329024754464626e-03" rms="2.8118735551834106e-01" purity="8.0643355846405029e-01" nType="-99"/>
          </Node>
        </Node>
        <Node pos="r" depth="1" NCoef="0" IVar="8" Cut="1.8857201337814331e+00" cType="1" res="-6.6837300546467304e-03" rms="2.8099182248115540e-01" purity="2.6819300651550293e-01" nType="0">
          <Node pos="l" depth="2" NCoef="0" IVar="4" Cut="2.5403262329101562e+02" cType="1" res="-1.4216099865734577e-02" rms="2.9137647151947021e-01" purity="3.3690226078033447e-01" nType="0">
            <Node pos="l" depth="3" NCoef="0" IVar="-1" Cut="0.0000000000000000e+00" cType="1" res="-2.5555009022355080e-02" rms="2.6927736401557922e-01" purity="2.1530286967754364e-01" nType="-99"/>
            <Node pos="r" depth="3" NCoef="0" IVar="-1" Cut="0.0000000000000000e+00" cType="1" res="7.3487120680510998e-03" rms="3.3651924133300781e-01" purity="6.2212187051773071e-01" nType="-99"/>
          </Node>
          <Node pos="r" depth="2" NCoef="0" IVar="-1" Cut="0.0000000000000000e+00" cType="1" res="1.6779195517301559e-02" rms="2.5636869668960571e-01" purity="1.1972004175186157e-01" nType="-99"/>
        </Node>
      </Node>
    </BinaryTree>
    <BinaryTree type="DecisionTree" boostWeight="1.0000000000000000e+00" itree="545">
      <Node pos="s" depth="0" NCoef="0" IVar="7" Cut="-3.7230220437049866e-01" cType="1" res="1.0497285984456539e-03" rms="2.9822522401809692e-01" purity="5.0086617469787598e-01" nType="0">
        <Node pos="l" depth="1" NCoef="0" IVar="8" Cut="-9.3334007263183594e-01" cType="1" res="-5.6478334590792656e-03" rms="2.9364922642707825e-01" purity="4.2260476946830750e-01" nType="0">
          <Node pos="l" depth="2" NCoef="0" IVar="8" Cut="-1.3777595758438110e+00" cType="1" res="6.7420243285596371e-03" rms="2.9133522510528564e-01" purity="2.9374119639396667e-01" nType="0">
            <Node pos="l" depth="3" NCoef="0" IVar="-1" Cut="0.0000000000000000e+00" cType="1" res="-8.3436146378517151e-03" rms="2.5122359395027161e-01" purity="1.8603168427944183e-01" nType="-99"/>
            <Node pos="r" depth="3" NCoef="0" IVar="-1" Cut="0.0000000000000000e+00" cType="1" res="2.0592853426933289e-02" rms="3.2858830690383911e-01" purity="4.0978130698204041e-01" nType="-99"/>
          </Node>
          <Node pos="r" depth="2" NCoef="0" IVar="7" Cut="-5.9888446331024170e-01" cType="1" res="-9.1707929968833923e-03" rms="2.9420861601829529e-01" purity="4.5924609899520874e-01" nType="0">
            <Node pos="l" depth="3" NCoef="0" IVar="-1" Cut="0.0000000000000000e+00" cType="1" res="-1.4479331672191620e-02" rms="2.8865435719490051e-01" purity="3.8515451550483704e-01" nType="-99"/>
            <Node pos="r" depth="3" NCoef="0" IVar="-1" Cut="0.0000000000000000e+00" cType="1" res="1.1023305705748498e-04" rms="3.0783620476722717e-01" purity="6.4974802732467651e-01" nType="-99"/>
          </Node>
        </Node>
        <Node pos="r" depth="1" NCoef="0" IVar="9" Cut="6.6652667522430420e-01" cType="1" res="4.3344805017113686e-03" rms="3.0038940906524658e-01" purity="5.3924870491027832e-01" nType="0">
          <Node pos="l" depth="2" NCoef="0" IVar="1" Cut="1.0774525146484375e+03" cType="1" res="1.0992783354595304e-03" rms="2.9721757769584656e-01" purity="5.6791973114013672e-01" nType="0">
            <Node pos="l" depth="3" NCoef="0" IVar="-1" Cut="0.0000000000000000e+00" cType="1" res="-2.0250901579856873e-02" rms="1.9533859193325043e-01" purity="4.3543659150600433e-02" nType="-99"/>
            <Node pos="r" depth="3" NCoef="0" IVar="-1" Cut="0.0000000000000000e+00" cType="1" res="3.6810429301112890e-03" rms="3.1704297661781311e-01" purity="6.9551634788513184e-01" nType="-99"/>
          </Node>
          <Node pos="r" depth="2" NCoef="0" IVar="9" Cut="1.5807791948318481e+00" cType="1" res="1.1899006552994251e-02" rms="3.0754539370536804e-01" purity="4.7221016883850098e-01" nType="0">
            <Node pos="l" depth="3" NCoef="0" IVar="-1" Cut="0.0000000000000000e+00" cType="1" res="2.0811943337321281e-02" rms="3.1574434041976929e-01" purity="5.4639440774917603e-01" nType="-99"/>
            <Node pos="r" depth="3" NCoef="0" IVar="-1" Cut="0.0000000000000000e+00" cType="1" res="-1.0275361128151417e-02" rms="2.8441983461380005e-01" purity="2.8216585516929626e-01" nType="-99"/>
          </Node>
        </Node>
      </Node>
    </BinaryTree>
    <BinaryTree type="DecisionTree" boostWeight="1.0000000000000000e+00" itree="546">
      <Node pos="s" depth="0" NCoef="0" IVar="10" Cut="-1.4666579961776733e+00" cType="1" res="1.9565315451472998e-03" rms="2.9935181140899658e-01" purity="4.9781769514083862e-01" nType="0">
        <Node pos="l" depth="1" NCoef="0" IVar="7" Cut="-6.3024443387985229e-01" cType="1" res="-9.2756692320108414e-03" rms="2.9424446821212769e-01" purity="3.8813021779060364e-01" nType="0">
          <Node pos="l" depth="2" NCoef="0" IVar="-1" Cut="0.0000000000000000e+00" cType="1" res="6.7373155616223812e-03" rms="2.7609351277351379e-01" purity="2.7174705266952515e-01" nType="-99"/>
          <Node pos="r" depth="2" NCoef="0" IVar="5" Cut="1.2991406250000000e+02" cType="1" res="-1.6150692477822304e-02" rms="3.0204167962074280e-01" purity="4.4207802414894104e-01" nType="0">
            <Node pos="l" depth="3" NCoef="0" IVar="-1" Cut="0.0000000000000000e+00" cType="1" res="-2.3437445051968098e-03" rms="2.9266458749771118e-01" purity="2.0567291975021362e-01" nType="-99"/>
            <Node pos="r" depth="3" NCoef="0" IVar="-1" Cut="0.0000000000000000e+00" cType="1" res="-3.1330723315477371e-02" rms="3.1069597601890564e-01" purity="6.8414884805679321e-01" nType="-99"/>
          </Node>
        </Node>
        <Node pos="r" depth="1" NCoef="0" IVar="8" Cut="1.4664014577865601e+00" cType="1" res="3.5287856590002775e-03" rms="3.0002623796463013e-01" purity="5.1317143440246582e-01" nType="0">
          <Node pos="l" depth="2" NCoef="0" IVar="10" Cut="1.7841323614120483e+00" cType="1" res="2.3747684899717569e-03" rms="3.0115282535552979e-01" purity="5.3925490379333496e-01" nType="0">
            <Node pos="l" depth="3" NCoef="0" IVar="-1" Cut="0.0000000000000000e+00" cType="1" res="1.0513747110962868e-03" rms="2.9852810502052307e-01" purity="5.5214005708694458e-01" nType="-99"/>
            <Node pos="r" depth="3" NCoef="0" IVar="-1" Cut="0.0000000000000000e+00" cType="1" res="1.7823059111833572e-02" rms="3.2722145318984985e-01" purity="4.0308293700218201e-01" nType="-99"/>
          </Node>
          <Node pos="r" depth="2" NCoef="0" IVar="8" Cut="1.7203605175018311e+00" cType="1" res="1.5798630192875862e-02" rms="2.8748920559883118e-01" purity="2.3584482073783875e-01" nType="0">
            <Node pos="l" depth="3" NCoef="0" IVar="-1" Cut="0.0000000000000000e+00" cType="1" res="3.6400854587554932e-02" rms="3.1506440043449402e-01" purity="3.8273680210113525e-01" nType="-99"/>
            <Node pos="r" depth="3" NCoef="0" IVar="-1" Cut="0.0000000000000000e+00" cType="1" res="5.1802499219775200e-03" rms="2.6929345726966858e-01" purity="1.4985345304012299e-01" nType="-99"/>
          </Node>
        </Node>
      </Node>
    </BinaryTree>
    <BinaryTree type="DecisionTree" boostWeight="1.0000000000000000e+00" itree="547">
      <Node pos="s" depth="0" NCoef="0" IVar="4" Cut="3.3275482177734375e+02" cType="1" res="1.2984530767425895e-03" rms="2.9955053329467773e-01" purity="4.9881321191787720e-01" nType="0">
        <Node pos="l" depth="1" NCoef="0" IVar="10" Cut="2.2666633129119873e+00" cType="1" res="3.2992297783493996e-03" rms="3.1026169657707214e-01" purity="3.9528694748878479e-01" nType="0">
          <Node pos="l" depth="2" NCoef="0" IVar="10" Cut="1.0603123903274536e+00" cType="1" res="2.3997882381081581e-03" rms="3.1034481525421143e-01" purity="3.9989733695983887e-01" nType="0">
            <Node pos="l" depth="3" NCoef="0" IVar="-1" Cut="0.0000000000000000e+00" cType="1" res="4.6831248328089714e-03" rms="3.1144055724143982e-01" purity="4.0933161973953247e-01" nType="-99"/>
            <Node pos="r" depth="3" NCoef="0" IVar="-1" Cut="0.0000000000000000e+00" cType="1" res="-7.1124569512903690e-03" rms="3.0544868111610413e-01" purity="3.5956805944442749e-01" nType="-99"/>
          </Node>
          <Node pos="r" depth="2" NCoef="0" IVar="-1" Cut="0.0000000000000000e+00" cType="1" res="3.0670410022139549e-02" rms="3.0686408281326294e-01" purity="2.6642519235610962e-01" nType="-99"/>
        </Node>
        <Node pos="r" depth="1" NCoef="0" IVar="8" Cut="6.6472673416137695e-01" cType="1" res="-5.4768593981862068e-03" rms="2.5990802049636841e-01" purity="8.4938842058181763e-01" nType="0">
          <Node pos="l" depth="2" NCoef="0" IVar="8" Cut="-8.1916058063507080e-01" cType="1" res="-2.0728732924908400e-03" rms="2.5234001874923706e-01" purity="8.6977356672286987e-01" nType="0">
            <Node pos="l" depth="3" NCoef="0" IVar="-1" Cut="0.0000000000000000e+00" cType="1" res="-1.6309160739183426e-02" rms="3.0361822247505188e-01" purity="7.3570024967193604e-01" nType="-99"/>
            <Node pos="r" depth="3" NCoef="0" IVar="-1" Cut="0.0000000000000000e+00" cType="1" res="7.4906821828335524e-04" rms="2.4088633060455322e-01" purity="8.9616030454635620e-01" nType="-99"/>
          </Node>
          <Node pos="r" depth="2" NCoef="0" IVar="-1" Cut="0.0000000000000000e+00" cType="1" res="-2.4629525840282440e-02" rms="2.9028335213661194e-01" purity="7.6007223129272461e-01" nType="-99"/>
        </Node>
      </Node>
    </BinaryTree>
    <BinaryTree type="DecisionTree" boostWeight="1.0000000000000000e+00" itree="548">
      <Node pos="s" depth="0" NCoef="0" IVar="7" Cut="-1.2730374932289124e-01" cType="1" res="2.4791543837636709e-03" rms="2.9703655838966370e-01" purity="5.0865107774734497e-01" nType="0">
        <Node pos="l" depth="1" NCoef="0" IVar="10" Cut="1.7333185672760010e+00" cType="1" res="6.4245476387441158e-03" rms="2.9956632852554321e-01" purity="4.9147820472717285e-01" nType="0">
          <Node pos="l" depth="2" NCoef="0" IVar="8" Cut="-4.0008345246315002e-01" cType="1" res="4.3854224495589733e-03" rms="2.9605367779731750e-01" purity="5.0116735696792603e-01" nType="0">
            <Node pos="l" depth="3" NCoef="0" IVar="-1" Cut="0.0000000000000000e+00" cType="1" res="-5.7799913920462132e-03" rms="2.8866043686866760e-01" purity="4.2105403542518616e-01" nType="-99"/>
            <Node pos="r" depth="3" NCoef="0" IVar="-1" Cut="0.0000000000000000e+00" cType="1" res="1.1288238689303398e-02" rms="3.0013737082481384e-01" purity="5.4783385992050171e-01" nType="-99"/>
          </Node>
          <Node pos="r" depth="2" NCoef="0" IVar="-1" Cut="0.0000000000000000e+00" cType="1" res="3.2171953469514847e-02" rms="3.3829972147941589e-01" purity="3.7399524450302124e-01" nType="-99"/>
        </Node>
        <Node pos="r" depth="1" NCoef="0" IVar="9" Cut="-1.4667397737503052e+00" cType="1" res="-6.9464807165786624e-04" rms="2.9494750499725342e-01" purity="5.2246546745300293e-01" nType="0">
          <Node pos="l" depth="2" NCoef="0" IVar="-1" Cut="0.0000000000000000e+00" cType="1" res="-1.7270123586058617e-02" rms="2.9128092527389526e-01" purity="2.9644849896430969e-01" nType="-99"/>
          <Node pos="r" depth="2" NCoef="0" IVar="10" Cut="9.3333321809768677e-01" cType="1" res="7.2735705180093646e-04" rms="2.9526039958000183e-01" purity="5.4429775476455688e-01" nType="0">
            <Node pos="l" depth="3" NCoef="0" IVar="-1" Cut="0.0000000000000000e+00" cType="1" res="-2.6723379269242287e-03" rms="2.9359549283981323e-01" purity="5.6393158435821533e-01" nType="-99"/>
            <Node pos="r" depth="3" NCoef="0" IVar="-1" Cut="0.0000000000000000e+00" cType="1" res="1.0742471553385258e-02" rms="2.9968002438545227e-01" purity="4.8960146307945251e-01" nType="-99"/>
          </Node>
        </Node>
      </Node>
    </BinaryTree>
    <BinaryTree type="DecisionTree" boostWeight="1.0000000000000000e+00" itree="549">
      <Node pos="s" depth="0" NCoef="0" IVar="9" Cut="-1.3348230719566345e-01" cType="1" res="2.1669149864464998e-03" rms="2.9680934548377991e-01" purity="5.0635373592376709e-01" nType="0">
        <Node pos="l" depth="1" NCoef="0" IVar="9" Cut="-1.6572029590606689e+00" cType="1" res="9.3348855152726173e-03" rms="3.0131468176841736e-01" purity="5.0238382816314697e-01" nType="0">
          <Node pos="l" depth="2" NCoef="0" IVar="2" Cut="2.0446833223104477e-02" cType="1" res="2.1908618509769440e-02" rms="3.0597648024559021e-01" purity="2.9023045301437378e-01" nType="0">
            <Node pos="l" depth="3" NCoef="0" IVar="-1" Cut="0.0000000000000000e+00" cType="1" res="2.8658376540988684e-03" rms="2.3517602682113647e-01" purity="1.1810202896595001e-01" nType="-99"/>
            <Node pos="r" depth="3" NCoef="0" IVar="-1" Cut="0.0000000000000000e+00" cType="1" res="3.5608705133199692e-02" rms="3.5522866249084473e-01" purity="4.3951040506362915e-01" nType="-99"/>
          </Node>
          <Node pos="r" depth="2" NCoef="0" IVar="8" Cut="1.4666200876235962e+00" cType="1" res="6.8147862330079079e-03" rms="3.0030831694602966e-01" purity="5.4490482807159424e-01" nType="0">
            <Node pos="l" depth="3" NCoef="0" IVar="-1" Cut="0.0000000000000000e+00" cType="1" res="5.7380297221243382e-03" rms="2.9897764325141907e-01" purity="5.6712794303894043e-01" nType="-99"/>
            <Node pos="r" depth="3" NCoef="0" IVar="-1" Cut="0.0000000000000000e+00" cType="1" res="3.2036341726779938e-02" rms="3.1659519672393799e-01" purity="2.5166615843772888e-01" nType="-99"/>
          </Node>
        </Node>
        <Node pos="r" depth="1" NCoef="0" IVar="2" Cut="2.0155744627118111e-02" cType="1" res="-3.9207581430673599e-03" rms="2.9279080033302307e-01" purity="5.0972533226013184e-01" nType="0">
          <Node pos="l" depth="2" NCoef="0" IVar="3" Cut="6.0637182617187500e+02" cType="1" res="-1.1582540348172188e-02" rms="2.7025386691093445e-01" purity="2.2553297877311707e-01" nType="0">
            <Node pos="l" depth="3" NCoef="0" IVar="-1" Cut="0.0000000000000000e+00" cType="1" res="-8.2584647461771965e-03" rms="2.5856453180313110e-01" purity="1.7588983476161957e-01" nType="-99"/>
            <Node pos="r" depth="3" NCoef="0" IVar="-1" Cut="0.0000000000000000e+00" cType="1" res="-3.9140716195106506e-02" rms="3.2903432846069336e-01" purity="5.1910650730133057e-01" nType="-99"/>
          </Node>
          <Node pos="r" depth="2" NCoef="0" IVar="10" Cut="-1.4664664268493652e+00" cType="1" res="-6.0332429711706936e-05" rms="3.0343952775001526e-01" purity="6.5291696786880493e-01" nType="0">
            <Node pos="l" depth="3" NCoef="0" IVar="-1" Cut="0.0000000000000000e+00" cType="1" res="-1.6181346029043198e-02" rms="3.1438317894935608e-01" purity="5.7410192489624023e-01" nType="-99"/>
            <Node pos="r" depth="3" NCoef="0" IVar="-1" Cut="0.0000000000000000e+00" cType="1" res="2.2401399910449982e-03" rms="3.0197700858116150e-01" purity="6.6277110576629639e-01" nType="-99"/>
          </Node>
        </Node>
      </Node>
    </BinaryTree>
    <BinaryTree type="DecisionTree" boostWeight="1.0000000000000000e+00" itree="550">
      <Node pos="s" depth="0" NCoef="0" IVar="6" Cut="1.1358435058593750e+02" cType="1" res="-8.2060496788471937e-04" rms="2.9788073897361755e-01" purity="5.0347864627838135e-01" nType="0">
        <Node pos="l" depth="1" NCoef="0" IVar="7" Cut="1.3840539753437042e-01" cType="1" res="1.9221109105274081e-03" rms="3.1137633323669434e-01" purity="3.3049923181533813e-01" nType="0">
          <Node pos="l" depth="2" NCoef="0" IVar="7" Cut="-6.9788646697998047e-01" cType="1" res="-3.0515366233885288e-03" rms="3.1164816021919250e-01" purity="3.3986496925354004e-01" nType="0">
            <Node pos="l" depth="3" NCoef="0" IVar="-1" Cut="0.0000000000000000e+00" cType="1" res="8.2055721431970596e-03" rms="2.8176870942115784e-01" purity="1.9450607895851135e-01" nType="-99"/>
            <Node pos="r" depth="3" NCoef="0" IVar="-1" Cut="0.0000000000000000e+00" cType="1" res="-8.8622551411390305e-03" rms="3.3205813169479370e-01" purity="4.4852533936500549e-01" nType="-99"/>
          </Node>
          <Node pos="r" depth="2" NCoef="0" IVar="6" Cut="6.8166694641113281e+01" cType="1" res="7.9352483153343201e-03" rms="3.1094115972518921e-01" purity="3.1917604804039001e-01" nType="0">
            <Node pos="l" depth="3" NCoef="0" IVar="-1" Cut="0.0000000000000000e+00" cType="1" res="-5.5040814913809299e-03" rms="2.6320096850395203e-01" purity="1.6958904266357422e-01" nType="-99"/>
            <Node pos="r" depth="3" NCoef="0" IVar="-1" Cut="0.0000000000000000e+00" cType="1" res="1.5324842184782028e-02" rms="3.4353435039520264e-01" purity="4.3668967485427856e-01" nType="-99"/>
          </Node>
        </Node>
        <Node pos="r" depth="1" NCoef="0" IVar="0" Cut="4.1224673461914062e+02" cType="1" res="-6.1421114951372147e-03" rms="2.6969775557518005e-01" purity="8.3909898996353149e-01" nType="0">
          <Node pos="l" depth="2" NCoef="0" IVar="8" Cut="-1.3342678546905518e-01" cType="1" res="-2.0176187157630920e-02" rms="3.8881507515907288e-01" purity="5.4184526205062866e-01" nType="0">
            <Node pos="l" depth="3" NCoef="0" IVar="-1" Cut="0.0000000000000000e+00" cType="1" res="-2.7204169891774654e-03" rms="3.8699999451637268e-01" purity="5.3215289115905762e-01" nType="-99"/>
            <Node pos="r" depth="3" NCoef="0" IVar="-1" Cut="0.0000000000000000e+00" cType="1" res="-2.2998878732323647e-02" rms="3.8981202244758606e-01" purity="5.4985499382019043e-01" nType="-99"/>
          </Node>
          <Node pos="r" depth="2" NCoef="0" IVar="5" Cut="1.5601060485839844e+02" cType="1" res="-2.3691344540566206e-03" rms="2.2711558640003204e-01" purity="9.1901391744613647e-01" nType="0">
            <Node pos="l" depth="3" NCoef="0" IVar="-1" Cut="0.0000000000000000e+00" cType="1" res="-1.9451519474387169e-02" rms="3.3362945914268494e-01" purity="7.6440787315368652e-01" nType="-99"/>
            <Node pos="r" depth="3" NCoef="0" IVar="-1" Cut="0.0000000000000000e+00" cType="1" res="-4.0142066427506506e-04" rms="2.1140119433403015e-01" purity="9.3673098087310791e-01" nType="-99"/>
          </Node>
        </Node>
      </Node>
    </BinaryTree>
    <BinaryTree type="DecisionTree" boostWeight="1.0000000000000000e+00" itree="551">
      <Node pos="s" depth="0" NCoef="0" IVar="9" Cut="1.2000021934509277e+00" cType="1" res="1.4682174660265446e-03" rms="2.9520446062088013e-01" purity="5.0899642705917358e-01" nType="0">
        <Node pos="l" depth="1" NCoef="0" IVar="9" Cut="1.0095062255859375e+00" cType="1" res="2.6113431886187755e-05" rms="2.9261887073516846e-01" purity="5.3507685661315918e-01" nType="0">
          <Node pos="l" depth="2" NCoef="0" IVar="6" Cut="1.1358435058593750e+02" cType="1" res="9.1745518147945404e-04" rms="2.9250895977020264e-01" purity="5.3640598058700562e-01" nType="0">
            <Node pos="l" depth="3" NCoef="0" IVar="-1" Cut="0.0000000000000000e+00" cType="1" res="-1.9968682900071144e-03" rms="3.0828544497489929e-01" purity="3.4693586826324463e-01" nType="-99"/>
            <Node pos="r" depth="3" NCoef="0" IVar="-1" Cut="0.0000000000000000e+00" cType="1" res="8.3635449409484863e-03" rms="2.6306948065757751e-01" purity="8.6258524656295776e-01" nType="-99"/>
          </Node>
          <Node pos="r" depth="2" NCoef="0" IVar="-1" Cut="0.0000000000000000e+00" cType="1" res="-1.8297545611858368e-02" rms="2.9416316747665405e-01" purity="5.1036816835403442e-01" nType="-99"/>
        </Node>
        <Node pos="r" depth="1" NCoef="0" IVar="9" Cut="1.5047724246978760e+00" cType="1" res="9.6285538747906685e-03" rms="3.0930194258689880e-01" purity="3.6141690611839294e-01" nType="0">
          <Node pos="l" depth="2" NCoef="0" IVar="8" Cut="1.3634113967418671e-01" cType="1" res="2.5300357490777969e-02" rms="3.2230916619300842e-01" purity="4.9368759989738464e-01" nType="0">
            <Node pos="l" depth="3" NCoef="0" IVar="-1" Cut="0.0000000000000000e+00" cType="1" res="3.7842404097318649e-02" rms="3.2056725025177002e-01" purity="5.4287171363830566e-01" nType="-99"/>
            <Node pos="r" depth="3" NCoef="0" IVar="-1" Cut="0.0000000000000000e+00" cType="1" res="9.0845907106995583e-03" rms="3.2340088486671448e-01" purity="4.3941643834114075e-01" nType="-99"/>
          </Node>
          <Node pos="r" depth="2" NCoef="0" IVar="9" Cut="1.7515180110931396e+00" cType="1" res="2.9946537688374519e-04" rms="3.0090519785881042e-01" purity="2.8267899155616760e-01" nType="0">
            <Node pos="l" depth="3" NCoef="0" IVar="-1" Cut="0.0000000000000000e+00" cType="1" res="1.1804857291281223e-02" rms="3.2621142268180847e-01" purity="3.9270788431167603e-01" nType="-99"/>
            <Node pos="r" depth="3" NCoef="0" IVar="-1" Cut="0.0000000000000000e+00" cType="1" res="-6.5644006244838238e-03" rms="2.8771361708641052e-01" purity="2.2952930629253387e-01" nType="-99"/>
          </Node>
        </Node>
      </Node>
    </BinaryTree>
    <BinaryTree type="DecisionTree" boostWeight="1.0000000000000000e+00" itree="552">
      <Node pos="s" depth="0" NCoef="0" IVar="1" Cut="1.7600894775390625e+03" cType="1" res="-3.7951662670820951e-03" rms="2.9622185230255127e-01" purity="4.9641844630241394e-01" nType="0">
        <Node pos="l" depth="1" NCoef="0" IVar="1" Cut="1.0743137207031250e+03" cType="1" res="-6.2151192687451839e-03" rms="3.2189261913299561e-01" purity="3.0668899416923523e-01" nType="0">
          <Node pos="l" depth="2" NCoef="0" IVar="1" Cut="1.0090003051757812e+03" cType="1" res="3.3791754394769669e-03" rms="2.0951302349567413e-01" purity="5.2466720342636108e-02" nType="0">
            <Node pos="l" depth="3" NCoef="0" IVar="-1" Cut="0.0000000000000000e+00" cType="1" res="-9.1204345226287842e-03" rms="1.6790644824504852e-01" purity="3.1400233507156372e-02" nType="-99"/>
            <Node pos="r" depth="3" NCoef="0" IVar="-1" Cut="0.0000000000000000e+00" cType="1" res="2.6996770873665810e-02" rms="2.8859025239944458e-01" purity="1.0577603429555893e-01" nType="-99"/>
          </Node>
          <Node pos="r" depth="2" NCoef="0" IVar="9" Cut="9.3341273069381714e-01" cType="1" res="-1.1109744198620319e-02" rms="3.6607411503791809e-01" purity="4.3638303875923157e-01" nType="0">
            <Node pos="l" depth="3" NCoef="0" IVar="-1" Cut="0.0000000000000000e+00" cType="1" res="-1.1093189008533955e-02" rms="3.6470118165016174e-01" purity="4.5301929116249084e-01" nType="-99"/>
            <Node pos="r" depth="3" NCoef="0" IVar="-1" Cut="0.0000000000000000e+00" cType="1" res="1.8961247988045216e-03" rms="3.7050566077232361e-01" purity="3.7828946113586426e-01" nType="-99"/>
          </Node>
        </Node>
        <Node pos="r" depth="1" NCoef="0" IVar="9" Cut="-1.2000921964645386e+00" cType="1" res="1.5650597633793950e-03" rms="2.2925758361816406e-01" purity="9.1667151451110840e-01" nType="0">
          <Node pos="l" depth="2" NCoef="0" IVar="-1" Cut="0.0000000000000000e+00" cType="1" res="-1.3308638706803322e-02" rms="2.9463729262351990e-01" purity="8.4471893310546875e-01" nType="-99"/>
          <Node pos="r" depth="2" NCoef="0" IVar="10" Cut="9.3332958221435547e-01" cType="1" res="2.7580067981034517e-03" rms="2.2187402844429016e-01" purity="9.2363488674163818e-01" nType="0">
            <Node pos="l" depth="3" NCoef="0" IVar="-1" Cut="0.0000000000000000e+00" cType="1" res="1.6800517914816737e-03" rms="2.1667663753032684e-01" purity="9.2678499221801758e-01" nType="-99"/>
            <Node pos="r" depth="3" NCoef="0" IVar="-1" Cut="0.0000000000000000e+00" cType="1" res="1.6782397404313087e-02" rms="2.3987719416618347e-01" purity="9.1205942630767822e-01" nType="-99"/>
          </Node>
        </Node>
      </Node>
    </BinaryTree>
    <BinaryTree type="DecisionTree" boostWeight="1.0000000000000000e+00" itree="553">
      <Node pos="s" depth="0" NCoef="0" IVar="10" Cut="9.3333441019058228e-01" cType="1" res="-1.1963119322899729e-04" rms="2.9665121436119080e-01" purity="5.0229942798614502e-01" nType="0">
        <Node pos="l" depth="1" NCoef="0" IVar="9" Cut="1.9997246265411377e+00" cType="1" res="2.3834097664803267e-03" rms="2.9773876070976257e-01" purity="5.1785647869110107e-01" nType="0">
          <Node pos="l" depth="2" NCoef="0" IVar="8" Cut="9.3335562944412231e-01" cType="1" res="1.3727504992857575e-03" rms="2.9665717482566833e-01" purity="5.2735084295272827e-01" nType="0">
            <Node pos="l" depth="3" NCoef="0" IVar="-1" Cut="0.0000000000000000e+00" cType="1" res="3.9965389296412468e-03" rms="2.9689887166023254e-01" purity="5.5814945697784424e-01" nType="-99"/>
            <Node pos="r" depth="3" NCoef="0" IVar="-1" Cut="0.0000000000000000e+00" cType="1" res="-9.9321063607931137e-03" rms="2.9522934556007385e-01" purity="3.7503665685653687e-01" nType="-99"/>
          </Node>
          <Node pos="r" depth="2" NCoef="0" IVar="-1" Cut="0.0000000000000000e+00" cType="1" res="3.1989391893148422e-02" rms="3.2291626930236816e-01" purity="2.7699163556098938e-01" nType="-99"/>
        </Node>
        <Node pos="r" depth="1" NCoef="0" IVar="10" Cut="2.2666714191436768e+00" cType="1" res="-8.2953423261642456e-03" rms="2.9292190074920654e-01" purity="4.5148533582687378e-01" nType="0">
          <Node pos="l" depth="2" NCoef="0" IVar="9" Cut="1.4666552543640137e+00" cType="1" res="-6.0595497488975525e-03" rms="2.9438397288322449e-01" purity="4.7853392362594604e-01" nType="0">
            <Node pos="l" depth="3" NCoef="0" IVar="-1" Cut="0.0000000000000000e+00" cType="1" res="-3.0279769562184811e-03" rms="2.9738250374794006e-01" purity="5.1777702569961548e-01" nType="-99"/>
            <Node pos="r" depth="3" NCoef="0" IVar="-1" Cut="0.0000000000000000e+00" cType="1" res="-3.5366255789995193e-02" rms="2.7191531658172607e-01" purity="2.1047925949096680e-01" nType="-99"/>
          </Node>
          <Node pos="r" depth="2" NCoef="0" IVar="-1" Cut="0.0000000000000000e+00" cType="1" res="-2.7201846241950989e-02" rms="2.8087601065635681e-01" purity="2.4421317875385284e-01" nType="-99"/>
        </Node>
      </Node>
    </BinaryTree>
    <BinaryTree type="DecisionTree" boostWeight="1.0000000000000000e+00" itree="554">
      <Node pos="s" depth="0" NCoef="0" IVar="7" Cut="-9.2579740285873413e-01" cType="1" res="6.7369599128141999e-04" rms="2.9662325978279114e-01" purity="5.0365310907363892e-01" nType="0">
        <Node pos="l" depth="1" NCoef="0" IVar="5" Cut="1.6120103454589844e+02" cType="1" res="-7.9500507563352585e-03" rms="2.6947766542434692e-01" purity="2.4852690100669861e-01" nType="0">
          <Node pos="l" depth="2" NCoef="0" IVar="10" Cut="-3.9999648928642273e-01" cType="1" res="-1.0789914522320032e-03" rms="2.4227367341518402e-01" purity="1.1342700570821762e-01" nType="0">
            <Node pos="l" depth="3" NCoef="0" IVar="-1" Cut="0.0000000000000000e+00" cType="1" res="-1.7720058560371399e-02" rms="2.2782808542251587e-01" purity="9.0425357222557068e-02" nType="-99"/>
            <Node pos="r" depth="3" NCoef="0" IVar="-1" Cut="0.0000000000000000e+00" cType="1" res="1.0203543119132519e-02" rms="2.5409767031669617e-01" purity="1.3375355303287506e-01" nType="-99"/>
          </Node>
          <Node pos="r" depth="2" NCoef="0" IVar="-1" Cut="0.0000000000000000e+00" cType="1" res="-2.1591071039438248e-02" rms="3.2693535089492798e-01" purity="5.8506244421005249e-01" nType="-99"/>
        </Node>
        <Node pos="r" depth="1" NCoef="0" IVar="9" Cut="1.4666504859924316e+00" cType="1" res="2.1807644516229630e-03" rms="3.0109071731567383e-01" purity="5.4823839664459229e-01" nType="0">
          <Node pos="l" depth="2" NCoef="0" IVar="10" Cut="9.3334150314331055e-01" cType="1" res="7.7106186654418707e-04" rms="2.9963451623916626e-01" purity="5.7102745771408081e-01" nType="0">
            <Node pos="l" depth="3" NCoef="0" IVar="-1" Cut="0.0000000000000000e+00" cType="1" res="-2.2842343896627426e-03" rms="2.9649114608764648e-01" purity="5.8364605903625488e-01" nType="-99"/>
            <Node pos="r" depth="3" NCoef="0" IVar="-1" Cut="0.0000000000000000e+00" cType="1" res="1.0469449684023857e-02" rms="3.0921825766563416e-01" purity="5.3101557493209839e-01" nType="-99"/>
          </Node>
          <Node pos="r" depth="2" NCoef="0" IVar="3" Cut="3.1927325439453125e+02" cType="1" res="1.4597477391362190e-02" rms="3.1335109472274780e-01" purity="3.4751144051551819e-01" nType="0">
            <Node pos="l" depth="3" NCoef="0" IVar="-1" Cut="0.0000000000000000e+00" cType="1" res="3.7145093083381653e-02" rms="2.9450607299804688e-01" purity="1.7381146550178528e-01" nType="-99"/>
            <Node pos="r" depth="3" NCoef="0" IVar="-1" Cut="0.0000000000000000e+00" cType="1" res="6.6195228137075901e-03" rms="3.2378104329109192e-01" purity="4.5048439502716064e-01" nType="-99"/>
          </Node>
        </Node>
      </Node>
    </BinaryTree>
    <BinaryTree type="DecisionTree" boostWeight="1.0000000000000000e+00" itree="555">
      <Node pos="s" depth="0" NCoef="0" IVar="7" Cut="4.1064694523811340e-01" cType="1" res="-1.1929072206839919e-03" rms="2.9508304595947266e-01" purity="5.0143450498580933e-01" nType="0">
        <Node pos="l" depth="1" NCoef="0" IVar="1" Cut="1.4002539062500000e+03" cType="1" res="2.4226431269198656e-03" rms="2.9864719510078430e-01" purity="5.4515451192855835e-01" nType="0">
          <Node pos="l" depth="2" NCoef="0" IVar="3" Cut="4.4722189331054688e+02" cType="1" res="7.3879826813936234e-03" rms="3.1581467390060425e-01" purity="1.8862746655941010e-01" nType="0">
            <Node pos="l" depth="3" NCoef="0" IVar="-1" Cut="0.0000000000000000e+00" cType="1" res="9.8222093656659126e-03" rms="3.2107731699943542e-01" purity="1.9853398203849792e-01" nType="-99"/>
            <Node pos="r" depth="3" NCoef="0" IVar="-1" Cut="0.0000000000000000e+00" cType="1" res="-1.6186472028493881e-02" rms="2.6521685719490051e-01" purity="1.0316322743892670e-01" nType="-99"/>
          </Node>
          <Node pos="r" depth="2" NCoef="0" IVar="1" Cut="1.9433448486328125e+03" cType="1" res="-1.6544535756111145e-03" rms="2.8371036052703857e-01" purity="8.3790296316146851e-01" nType="0">
            <Node pos="l" depth="3" NCoef="0" IVar="-1" Cut="0.0000000000000000e+00" cType="1" res="-5.0971163436770439e-03" rms="3.3806344866752625e-01" purity="7.4656158685684204e-01" nType="-99"/>
            <Node pos="r" depth="3" NCoef="0" IVar="-1" Cut="0.0000000000000000e+00" cType="1" res="8.5324263200163841e-03" rms="2.0009495317935944e-01" purity="9.4710850715637207e-01" nType="-99"/>
          </Node>
        </Node>
        <Node pos="r" depth="1" NCoef="0" IVar="4" Cut="2.8992687988281250e+02" cType="1" res="-8.7778195738792419e-03" rms="2.8731465339660645e-01" purity="4.0971621870994568e-01" nType="0">
          <Node pos="l" depth="2" NCoef="0" IVar="10" Cut="1.3312844932079315e-01" cType="1" res="-1.2626365758478642e-02" rms="2.8578016161918640e-01" purity="2.6067620515823364e-01" nType="0">
            <Node pos="l" depth="3" NCoef="0" IVar="-1" Cut="0.0000000000000000e+00" cType="1" res="-1.9503984367474914e-03" rms="2.9802468419075012e-01" purity="2.9498568177223206e-01" nType="-99"/>
            <Node pos="r" depth="3" NCoef="0" IVar="-1" Cut="0.0000000000000000e+00" cType="1" res="-2.7084928005933762e-02" rms="2.7356207370758057e-01" purity="2.2887222468852997e-01" nType="-99"/>
          </Node>
          <Node pos="r" depth="2" NCoef="0" IVar="10" Cut="-1.3280352950096130e-01" cType="1" res="7.2339636972174048e-04" rms="2.9085034132003784e-01" purity="7.7766323089599609e-01" nType="0">
            <Node pos="l" depth="3" NCoef="0" IVar="-1" Cut="0.0000000000000000e+00" cType="1" res="-1.9202224910259247e-02" rms="2.8932332992553711e-01" purity="7.4925243854522705e-01" nType="-99"/>
            <Node pos="r" depth="3" NCoef="0" IVar="-1" Cut="0.0000000000000000e+00" cType="1" res="1.2315220199525356e-02" rms="2.9127636551856995e-01" purity="7.9407060146331787e-01" nType="-99"/>
          </Node>
        </Node>
      </Node>
    </BinaryTree>
    <BinaryTree type="DecisionTree" boostWeight="1.0000000000000000e+00" itree="556">
      <Node pos="s" depth="0" NCoef="0" IVar="3" Cut="3.4596881103515625e+02" cType="1" res="-1.1376076145097613e-03" rms="2.9517328739166260e-01" purity="5.0013697147369385e-01" nType="0">
        <Node pos="l" depth="1" NCoef="0" IVar="1" Cut="1.1857746582031250e+03" cType="1" res="-6.6698193550109863e-03" rms="2.9644447565078735e-01" purity="2.6172760128974915e-01" nType="0">
          <Node pos="l" depth="2" NCoef="0" IVar="1" Cut="1.1122727050781250e+03" cType="1" res="-1.1378932977095246e-03" rms="2.5400248169898987e-01" purity="9.0035863220691681e-02" nType="0">
            <Node pos="l" depth="3" NCoef="0" IVar="-1" Cut="0.0000000000000000e+00" cType="1" res="-1.3848376460373402e-02" rms="2.1629880368709564e-01" purity="5.5218372493982315e-02" nType="-99"/>
            <Node pos="r" depth="3" NCoef="0" IVar="-1" Cut="0.0000000000000000e+00" cType="1" res="2.1598638966679573e-02" rms="4.0479263663291931e-01" purity="2.8787964582443237e-01" nType="-99"/>
          </Node>
          <Node pos="r" depth="2" NCoef="0" IVar="4" Cut="2.1657757568359375e+02" cType="1" res="-1.8439350649714470e-02" rms="3.7064808607101440e-01" purity="6.2701290845870972e-01" nType="0">
            <Node pos="l" depth="3" NCoef="0" IVar="-1" Cut="0.0000000000000000e+00" cType="1" res="-2.3937957361340523e-02" rms="4.0101346373558044e-01" purity="5.0518882274627686e-01" nType="-99"/>
            <Node pos="r" depth="3" NCoef="0" IVar="-1" Cut="0.0000000000000000e+00" cType="1" res="-6.2587885186076164e-03" rms="3.5406884551048279e-01" purity="6.8775820732116699e-01" nType="-99"/>
          </Node>
        </Node>
        <Node pos="r" depth="1" NCoef="0" IVar="9" Cut="-1.4666690826416016e+00" cType="1" res="2.1424975711852312e-03" rms="2.9436790943145752e-01" purity="6.4149230718612671e-01" nType="0">
          <Node pos="l" depth="2" NCoef="0" IVar="9" Cut="-1.8476225137710571e+00" cType="1" res="1.7769264057278633e-02" rms="3.2832163572311401e-01" purity="4.4809681177139282e-01" nType="0">
            <Node pos="l" depth="3" NCoef="0" IVar="-1" Cut="0.0000000000000000e+00" cType="1" res="6.9515872746706009e-03" rms="3.1796938180923462e-01" purity="3.8482138514518738e-01" nType="-99"/>
            <Node pos="r" depth="3" NCoef="0" IVar="-1" Cut="0.0000000000000000e+00" cType="1" res="2.7896782383322716e-02" rms="3.3888956904411316e-01" purity="5.1725435256958008e-01" nType="-99"/>
          </Node>
          <Node pos="r" depth="2" NCoef="0" IVar="10" Cut="-1.9999929666519165e+00" cType="1" res="6.2732544029131532e-04" rms="2.9082038998603821e-01" purity="6.6024392843246460e-01" nType="0">
            <Node pos="l" depth="3" NCoef="0" IVar="-1" Cut="0.0000000000000000e+00" cType="1" res="2.2326799109578133e-02" rms="3.1739485263824463e-01" purity="5.3457194566726685e-01" nType="-99"/>
            <Node pos="r" depth="3" NCoef="0" IVar="-1" Cut="0.0000000000000000e+00" cType="1" res="-4.6997563913464546e-04" rms="2.8946587443351746e-01" purity="6.6617256402969360e-01" nType="-99"/>
          </Node>
        </Node>
      </Node>
    </BinaryTree>
    <BinaryTree type="DecisionTree" boostWeight="1.0000000000000000e+00" itree="557">
      <Node pos="s" depth="0" NCoef="0" IVar="10" Cut="1.9999516010284424e+00" cType="1" res="-4.2034555226564407e-03" rms="2.9395532608032227e-01" purity="4.9640473723411560e-01" nType="0">
        <Node pos="l" depth="1" NCoef="0" IVar="2" Cut="4.2657312005758286e-02" cType="1" res="-3.0608738306909800e-03" rms="2.9465150833129883e-01" purity="5.0631362199783325e-01" nType="0">
          <Node pos="l" depth="2" NCoef="0" IVar="3" Cut="5.0379696655273438e+02" cType="1" res="-1.9824785340460949e-05" rms="2.9993787407875061e-01" purity="3.2273229956626892e-01" nType="0">
            <Node pos="l" depth="3" NCoef="0" IVar="-1" Cut="0.0000000000000000e+00" cType="1" res="4.7059068456292152e-03" rms="2.8904947638511658e-01" purity="2.2162076830863953e-01" nType="-99"/>
            <Node pos="r" depth="3" NCoef="0" IVar="-1" Cut="0.0000000000000000e+00" cType="1" res="-9.2997606843709946e-03" rms="3.2669404149055481e-01" purity="5.8929109573364258e-01" nType="-99"/>
          </Node>
          <Node pos="r" depth="2" NCoef="0" IVar="1" Cut="1.3096665039062500e+03" cType="1" res="-6.7209429107606411e-03" rms="2.8811794519424438e-01" purity="7.2726374864578247e-01" nType="0">
            <Node pos="l" depth="3" NCoef="0" IVar="-1" Cut="0.0000000000000000e+00" cType="1" res="-1.6983496025204659e-02" rms="3.5567954182624817e-01" purity="2.3968617618083954e-01" nType="-99"/>
            <Node pos="r" depth="3" NCoef="0" IVar="-1" Cut="0.0000000000000000e+00" cType="1" res="-7.0042558945715427e-04" rms="2.5880286097526550e-01" purity="9.0534794330596924e-01" nType="-99"/>
          </Node>
        </Node>
        <Node pos="r" depth="1" NCoef="0" IVar="10" Cut="2.3047080039978027e+00" cType="1" res="-2.5236677378416061e-02" rms="2.7999958395957947e-01" purity="3.1399664282798767e-01" nType="0">
          <Node pos="l" depth="2" NCoef="0" IVar="-1" Cut="0.0000000000000000e+00" cType="1" res="-2.0010801032185555e-02" rms="2.9432305693626404e-01" purity="3.6571606993675232e-01" nType="-99"/>
          <Node pos="r" depth="2" NCoef="0" IVar="-1" Cut="0.0000000000000000e+00" cType="1" res="-3.6503523588180542e-02" rms="2.6422464847564697e-01" purity="2.6058605313301086e-01" nType="-99"/>
        </Node>
      </Node>
    </BinaryTree>
    <BinaryTree type="DecisionTree" boostWeight="1.0000000000000000e+00" itree="558">
      <Node pos="s" depth="0" NCoef="0" IVar="9" Cut="1.9999849796295166e+00" cType="1" res="1.9969551358371973e-03" rms="2.9594796895980835e-01" purity="5.0385230779647827e-01" nType="0">
        <Node pos="l" depth="1" NCoef="0" IVar="7" Cut="6.7080944776535034e-01" cType="1" res="2.9327934607863426e-03" rms="2.9713013768196106e-01" purity="5.1685655117034912e-01" nType="0">
          <Node pos="l" depth="2" NCoef="0" IVar="9" Cut="8.5712772607803345e-01" cType="1" res="1.2310968013480306e-03" rms="2.9787063598632812e-01" purity="5.6033504009246826e-01" nType="0">
            <Node pos="l" depth="3" NCoef="0" IVar="-1" Cut="0.0000000000000000e+00" cType="1" res="4.2393612675368786e-03" rms="2.9509642720222473e-01" purity="5.6975781917572021e-01" nType="-99"/>
            <Node pos="r" depth="3" NCoef="0" IVar="-1" Cut="0.0000000000000000e+00" cType="1" res="-1.0117561556398869e-02" rms="3.0986744165420532e-01" purity="5.1768368482589722e-01" nType="-99"/>
          </Node>
          <Node pos="r" depth="2" NCoef="0" IVar="7" Cut="1.7859373092651367e+00" cType="1" res="8.7773725390434265e-03" rms="2.9449778795242310e-01" purity="3.6752697825431824e-01" nType="0">
            <Node pos="l" depth="3" NCoef="0" IVar="-1" Cut="0.0000000000000000e+00" cType="1" res="1.2912170030176640e-02" rms="3.1022056937217712e-01" purity="4.1529896855354309e-01" nType="-99"/>
            <Node pos="r" depth="3" NCoef="0" IVar="-1" Cut="0.0000000000000000e+00" cType="1" res="-3.6274593323469162e-02" rms="1.5743598341941833e-01" purity="5.9267561882734299e-02" nType="-99"/>
          </Node>
        </Node>
        <Node pos="r" depth="1" NCoef="0" IVar="-1" Cut="0.0000000000000000e+00" cType="1" res="-2.5450984016060829e-02" rms="2.6580938696861267e-01" purity="1.9912955164909363e-01" nType="-99"/>
      </Node>
    </BinaryTree>
    <BinaryTree type="DecisionTree" boostWeight="1.0000000000000000e+00" itree="559">
      <Node pos="s" depth="0" NCoef="0" IVar="6" Cut="8.5090904235839844e+01" cType="1" res="1.3512101722881198e-03" rms="2.9629030823707581e-01" purity="5.0427019596099854e-01" nType="0">
        <Node pos="l" depth="1" NCoef="0" IVar="9" Cut="3.9999049901962280e-01" cType="1" res="5.3490591235458851e-03" rms="2.9527094960212708e-01" purity="2.5651159882545471e-01" nType="0">
          <Node pos="l" depth="2" NCoef="0" IVar="10" Cut="-1.7329630851745605e+00" cType="1" res="1.0567016899585724e-02" rms="2.9896125197410583e-01" purity="2.7172258496284485e-01" nType="0">
            <Node pos="l" depth="3" NCoef="0" IVar="-1" Cut="0.0000000000000000e+00" cType="1" res="-1.5060412697494030e-02" rms="2.5096732378005981e-01" purity="2.1739292144775391e-01" nType="-99"/>
            <Node pos="r" depth="3" NCoef="0" IVar="-1" Cut="0.0000000000000000e+00" cType="1" res="1.5047492459416389e-02" rms="3.0488148331642151e-01" purity="2.7923828363418579e-01" nType="-99"/>
          </Node>
          <Node pos="r" depth="2" NCoef="0" IVar="7" Cut="-1.0501845926046371e-01" cType="1" res="-3.1443962361663580e-03" rms="2.8896200656890869e-01" purity="2.3175220191478729e-01" nType="0">
            <Node pos="l" depth="3" NCoef="0" IVar="-1" Cut="0.0000000000000000e+00" cType="1" res="1.0506867431104183e-02" rms="2.9833030700683594e-01" purity="2.4140669405460358e-01" nType="-99"/>
            <Node pos="r" depth="3" NCoef="0" IVar="-1" Cut="0.0000000000000000e+00" cType="1" res="-1.3470198959112167e-02" rms="2.8222146630287170e-01" purity="2.2530384361743927e-01" nType="-99"/>
          </Node>
        </Node>
        <Node pos="r" depth="1" NCoef="0" IVar="4" Cut="1.7544062805175781e+02" cType="1" res="-2.2426391951739788e-03" rms="2.9715773463249207e-01" purity="7.2699171304702759e-01" nType="0">
          <Node pos="l" depth="2" NCoef="0" IVar="4" Cut="1.5465896606445312e+02" cType="1" res="-1.9935311749577522e-02" rms="3.2712477445602417e-01" purity="2.4777624011039734e-01" nType="0">
            <Node pos="l" depth="3" NCoef="0" IVar="-1" Cut="0.0000000000000000e+00" cType="1" res="-8.1430384889245033e-03" rms="3.1656116247177124e-01" purity="2.0137812197208405e-01" nType="-99"/>
            <Node pos="r" depth="3" NCoef="0" IVar="-1" Cut="0.0000000000000000e+00" cType="1" res="-2.7258342131972313e-02" rms="3.4141376614570618e-01" purity="3.1604424118995667e-01" nType="-99"/>
          </Node>
          <Node pos="r" depth="2" NCoef="0" IVar="5" Cut="1.3923832702636719e+02" cType="1" res="2.2848825028631836e-04" rms="2.9264307022094727e-01" purity="7.9392361640930176e-01" nType="0">
            <Node pos="l" depth="3" NCoef="0" IVar="-1" Cut="0.0000000000000000e+00" cType="1" res="9.0612471103668213e-03" rms="3.6865380406379700e-01" purity="5.4746747016906738e-01" nType="-99"/>
            <Node pos="r" depth="3" NCoef="0" IVar="-1" Cut="0.0000000000000000e+00" cType="1" res="-2.1983054466545582e-03" rms="2.7850252389907837e-01" purity="8.3338731527328491e-01" nType="-99"/>
          </Node>
        </Node>
      </Node>
    </BinaryTree>
    <BinaryTree type="DecisionTree" boostWeight="1.0000000000000000e+00" itree="560">
      <Node pos="s" depth="0" NCoef="0" IVar="10" Cut="1.9999901056289673e+00" cType="1" res="-1.1624650796875358e-03" rms="2.9438781738281250e-01" purity="4.9736690521240234e-01" nType="0">
        <Node pos="l" depth="1" NCoef="0" IVar="9" Cut="-1.7333347797393799e+00" cType="1" res="-1.4582089534087572e-05" rms="2.9464888572692871e-01" purity="5.0806289911270142e-01" nType="0">
          <Node pos="l" depth="2" NCoef="0" IVar="10" Cut="-5.1369607448577881e-01" cType="1" res="-1.6847552731633186e-02" rms="2.7586162090301514e-01" purity="2.4555234611034393e-01" nType="0">
            <Node pos="l" depth="3" NCoef="0" IVar="-1" Cut="0.0000000000000000e+00" cType="1" res="-3.7606016267091036e-03" rms="2.7910125255584717e-01" purity="2.2274351119995117e-01" nType="-99"/>
            <Node pos="r" depth="3" NCoef="0" IVar="-1" Cut="0.0000000000000000e+00" cType="1" res="-3.2826621085405350e-02" rms="2.7258262038230896e-01" purity="2.6463466882705688e-01" nType="-99"/>
          </Node>
          <Node pos="r" depth="2" NCoef="0" IVar="7" Cut="9.4150441884994507e-01" cType="1" res="1.1846217093989253e-03" rms="2.9590529203414917e-01" purity="5.2676451206207275e-01" nType="0">
            <Node pos="l" depth="3" NCoef="0" IVar="-1" Cut="0.0000000000000000e+00" cType="1" res="-2.4351546016987413e-04" rms="2.9694351553916931e-01" purity="5.6984114646911621e-01" nType="-99"/>
            <Node pos="r" depth="3" NCoef="0" IVar="-1" Cut="0.0000000000000000e+00" cType="1" res="1.1217815801501274e-02" rms="2.8979179263114929e-01" purity="2.8143897652626038e-01" nType="-99"/>
          </Node>
        </Node>
        <Node pos="r" depth="1" NCoef="0" IVar="-1" Cut="0.0000000000000000e+00" cType="1" res="-2.5179104879498482e-02" rms="2.8847172856330872e-01" purity="2.9281249642372131e-01" nType="-99"/>
      </Node>
    </BinaryTree>
    <BinaryTree type="DecisionTree" boostWeight="1.0000000000000000e+00" itree="561">
      <Node pos="s" depth="0" NCoef="0" IVar="9" Cut="-1.7333347797393799e+00" cType="1" res="2.3661796876695007e-04" rms="2.9662662744522095e-01" purity="4.9792724847793579e-01" nType="0">
        <Node pos="l" depth="1" NCoef="0" IVar="8" Cut="1.3172127306461334e-01" cType="1" res="-1.7741836607456207e-02" rms="2.7459192276000977e-01" purity="2.2579306364059448e-01" nType="0">
          <Node pos="l" depth="2" NCoef="0" IVar="-1" Cut="0.0000000000000000e+00" cType="1" res="-3.4367501735687256e-02" rms="2.6122695207595825e-01" purity="2.0815758407115936e-01" nType="-99"/>
          <Node pos="r" depth="2" NCoef="0" IVar="-1" Cut="0.0000000000000000e+00" cType="1" res="-4.6877693384885788e-03" rms="2.9186382889747620e-01" purity="2.5068861246109009e-01" nType="-99"/>
        </Node>
        <Node pos="r" depth="1" NCoef="0" IVar="4" Cut="2.4016337585449219e+02" cType="1" res="1.5058849239721894e-03" rms="2.9807975888252258e-01" purity="5.1713973283767700e-01" nType="0">
          <Node pos="l" depth="2" NCoef="0" IVar="4" Cut="1.8610757446289062e+02" cType="1" res="7.0591345429420471e-03" rms="3.0495828390121460e-01" purity="2.6954516768455505e-01" nType="0">
            <Node pos="l" depth="3" NCoef="0" IVar="-1" Cut="0.0000000000000000e+00" cType="1" res="7.8560656402260065e-04" rms="2.6733112335205078e-01" purity="1.4498183131217957e-01" nType="-99"/>
            <Node pos="r" depth="3" NCoef="0" IVar="-1" Cut="0.0000000000000000e+00" cType="1" res="1.4071765355765820e-02" rms="3.6004963517189026e-01" purity="4.8259457945823669e-01" nType="-99"/>
          </Node>
          <Node pos="r" depth="2" NCoef="0" IVar="8" Cut="1.1986656188964844e+00" cType="1" res="-4.4144382700324059e-03" rms="2.9045036435127258e-01" purity="7.8110051155090332e-01" nType="0">
            <Node pos="l" depth="3" NCoef="0" IVar="-1" Cut="0.0000000000000000e+00" cType="1" res="-7.2690150700509548e-03" rms="2.8477159142494202e-01" purity="8.0197823047637939e-01" nType="-99"/>
            <Node pos="r" depth="3" NCoef="0" IVar="-1" Cut="0.0000000000000000e+00" cType="1" res="1.0977867990732193e-02" rms="3.4587013721466064e-01" purity="5.5383884906768799e-01" nType="-99"/>
          </Node>
        </Node>
      </Node>
    </BinaryTree>
    <BinaryTree type="DecisionTree" boostWeight="1.0000000000000000e+00" itree="562">
      <Node pos="s" depth="0" NCoef="0" IVar="2" Cut="2.0917132496833801e-02" cType="1" res="2.4057575501501560e-03" rms="2.9641774296760559e-01" purity="5.0241529941558838e-01" nType="0">
        <Node pos="l" depth="1" NCoef="0" IVar="2" Cut="2.9883699025958776e-03" cType="1" res="-1.5691814478486776e-03" rms="2.7560082077980042e-01" purity="2.4179564416408539e-01" nType="0">
          <Node pos="l" depth="2" NCoef="0" IVar="5" Cut="9.3293678283691406e+01" cType="1" res="-1.5829714015126228e-02" rms="2.1499074995517731e-01" purity="1.1450231075286865e-01" nType="0">
            <Node pos="l" depth="3" NCoef="0" IVar="-1" Cut="0.0000000000000000e+00" cType="1" res="-1.0658380575478077e-02" rms="1.7037966847419739e-01" purity="5.4983958601951599e-02" nType="-99"/>
            <Node pos="r" depth="3" NCoef="0" IVar="-1" Cut="0.0000000000000000e+00" cType="1" res="-3.7523902952671051e-02" rms="2.5481238961219788e-01" purity="1.8045531213283539e-01" nType="-99"/>
          </Node>
          <Node pos="r" depth="2" NCoef="0" IVar="0" Cut="7.1713159179687500e+02" cType="1" res="1.5895811375230551e-03" rms="2.8720578551292419e-01" purity="2.6999163627624512e-01" nType="0">
            <Node pos="l" depth="3" NCoef="0" IVar="-1" Cut="0.0000000000000000e+00" cType="1" res="-1.4225572813302279e-03" rms="2.8327032923698425e-01" purity="1.8908016383647919e-01" nType="-99"/>
            <Node pos="r" depth="3" NCoef="0" IVar="-1" Cut="0.0000000000000000e+00" cType="1" res="2.0323082804679871e-02" rms="3.1337437033653259e-01" purity="8.5252273082733154e-01" nType="-99"/>
          </Node>
        </Node>
        <Node pos="r" depth="1" NCoef="0" IVar="4" Cut="2.9736218261718750e+02" cType="1" res="4.6100704930722713e-03" rms="3.0733251571655273e-01" purity="6.4694261550903320e-01" nType="0">
          <Node pos="l" depth="2" NCoef="0" IVar="3" Cut="5.6404827880859375e+02" cType="1" res="7.7587342821061611e-03" rms="3.4047779440879822e-01" purity="4.9544697999954224e-01" nType="0">
            <Node pos="l" depth="3" NCoef="0" IVar="-1" Cut="0.0000000000000000e+00" cType="1" res="8.2496367394924164e-03" rms="3.4239682555198669e-01" purity="4.6881496906280518e-01" nType="-99"/>
            <Node pos="r" depth="3" NCoef="0" IVar="-1" Cut="0.0000000000000000e+00" cType="1" res="-1.2562830001115799e-02" rms="3.1833025813102722e-01" purity="7.8280067443847656e-01" nType="-99"/>
          </Node>
          <Node pos="r" depth="2" NCoef="0" IVar="1" Cut="1.7809461669921875e+03" cType="1" res="-7.8041641972959042e-04" rms="2.4009916186332703e-01" purity="9.0630185604095459e-01" nType="0">
            <Node pos="l" depth="3" NCoef="0" IVar="-1" Cut="0.0000000000000000e+00" cType="1" res="-7.6450309716165066e-03" rms="3.6679428815841675e-01" purity="7.3637330532073975e-01" nType="-99"/>
            <Node pos="r" depth="3" NCoef="0" IVar="-1" Cut="0.0000000000000000e+00" cType="1" res="6.2001412734389305e-03" rms="1.8356993794441223e-01" purity="9.5914876461029053e-01" nType="-99"/>
          </Node>
        </Node>
      </Node>
    </BinaryTree>
    <BinaryTree type="DecisionTree" boostWeight="1.0000000000000000e+00" itree="563">
      <Node pos="s" depth="0" NCoef="0" IVar="10" Cut="-1.7333281040191650e+00" cType="1" res="-4.0031599928624928e-04" rms="2.9780527949333191e-01" purity="4.9863669276237488e-01" nType="0">
        <Node pos="l" depth="1" NCoef="0" IVar="10" Cut="-2.2412738800048828e+00" cType="1" res="1.2663893401622772e-02" rms="3.0459037423133850e-01" purity="3.9464262127876282e-01" nType="0">
          <Node pos="l" depth="2" NCoef="0" IVar="-1" Cut="0.0000000000000000e+00" cType="1" res="-9.2754308134317398e-03" rms="2.9016220569610596e-01" purity="2.9156196117401123e-01" nType="-99"/>
          <Node pos="r" depth="2" NCoef="0" IVar="9" Cut="-1.3325607776641846e-01" cType="1" res="2.3928437381982803e-02" rms="3.1169098615646362e-01" purity="4.5149630308151245e-01" nType="0">
            <Node pos="l" depth="3" NCoef="0" IVar="-1" Cut="0.0000000000000000e+00" cType="1" res="3.6631889641284943e-02" rms="3.1138727068901062e-01" purity="4.2710185050964355e-01" nType="-99"/>
            <Node pos="r" depth="3" NCoef="0" IVar="-1" Cut="0.0000000000000000e+00" cType="1" res="1.1978677473962307e-02" rms="3.1155073642730713e-01" purity="4.7736033797264099e-01" nType="-99"/>
          </Node>
        </Node>
        <Node pos="r" depth="1" NCoef="0" IVar="10" Cut="1.7206284999847412e+00" cType="1" res="-1.6360108274966478e-03" rms="2.9712575674057007e-01" purity="5.0847309827804565e-01" nType="0">
          <Node pos="l" depth="2" NCoef="0" IVar="2" Cut="2.1316725760698318e-02" cType="1" res="-3.0108592472970486e-03" rms="2.9530528187751770e-01" purity="5.2312231063842773e-01" nType="0">
            <Node pos="l" depth="3" NCoef="0" IVar="-1" Cut="0.0000000000000000e+00" cType="1" res="-9.5113851130008698e-03" rms="2.8071355819702148e-01" purity="2.5540095567703247e-01" nType="-99"/>
            <Node pos="r" depth="3" NCoef="0" IVar="-1" Cut="0.0000000000000000e+00" cType="1" res="-5.1829661242663860e-04" rms="3.0279392004013062e-01" purity="6.6637569665908813e-01" nType="-99"/>
          </Node>
          <Node pos="r" depth="2" NCoef="0" IVar="7" Cut="-3.1913915276527405e-01" cType="1" res="1.1125962249934673e-02" rms="3.1323236227035522e-01" purity="3.7249219417572021e-01" nType="0">
            <Node pos="l" depth="3" NCoef="0" IVar="-1" Cut="0.0000000000000000e+00" cType="1" res="3.2540116459131241e-02" rms="3.2736530900001526e-01" purity="3.4508734941482544e-01" nType="-99"/>
            <Node pos="r" depth="3" NCoef="0" IVar="-1" Cut="0.0000000000000000e+00" cType="1" res="1.1746207019314170e-03" rms="3.0535483360290527e-01" purity="3.8633841276168823e-01" nType="-99"/>
          </Node>
        </Node>
      </Node>
    </BinaryTree>
    <BinaryTree type="DecisionTree" boostWeight="1.0000000000000000e+00" itree="564">
      <Node pos="s" depth="0" NCoef="0" IVar="8" Cut="1.7331048250198364e+00" cType="1" res="-4.1387780220247805e-04" rms="2.9742044210433960e-01" purity="4.9645736813545227e-01" nType="0">
        <Node pos="l" depth="1" NCoef="0" IVar="7" Cut="1.4778376817703247e+00" cType="1" res="2.6739604072645307e-04" rms="3.0023866891860962e-01" purity="5.1757633686065674e-01" nType="0">
          <Node pos="l" depth="2" NCoef="0" IVar="10" Cut="4.0002527832984924e-01" cType="1" res="-4.7957617789506912e-04" rms="3.0333626270294189e-01" purity="5.4110658168792725e-01" nType="0">
            <Node pos="l" depth="3" NCoef="0" IVar="-1" Cut="0.0000000000000000e+00" cType="1" res="2.0445487461984158e-03" rms="3.0355063080787659e-01" purity="5.4629927873611450e-01" nType="-99"/>
            <Node pos="r" depth="3" NCoef="0" IVar="-1" Cut="0.0000000000000000e+00" cType="1" res="-5.0007216632366180e-03" rms="3.0292835831642151e-01" purity="5.3227388858795166e-01" nType="-99"/>
          </Node>
          <Node pos="r" depth="2" NCoef="0" IVar="7" Cut="1.7925148010253906e+00" cType="1" res="1.2210598215460777e-02" rms="2.4515014886856079e-01" purity="1.4135587215423584e-01" nType="0">
            <Node pos="l" depth="3" NCoef="0" IVar="-1" Cut="0.0000000000000000e+00" cType="1" res="4.0753372013568878e-02" rms="3.0139493942260742e-01" purity="2.1381793916225433e-01" nType="-99"/>
            <Node pos="r" depth="3" NCoef="0" IVar="-1" Cut="0.0000000000000000e+00" cType="1" res="-1.8951479345560074e-02" rms="1.6974535584449768e-01" purity="6.9369360804557800e-02" nType="-99"/>
          </Node>
        </Node>
        <Node pos="r" depth="1" NCoef="0" IVar="8" Cut="2.0886366367340088e+00" cType="1" res="-1.2512037530541420e-02" rms="2.4164767563343048e-01" purity="1.2142319977283478e-01" nType="0">
          <Node pos="l" depth="2" NCoef="0" IVar="-1" Cut="0.0000000000000000e+00" cType="1" res="-2.5590291246771812e-02" rms="2.6791915297508240e-01" purity="1.6884236037731171e-01" nType="-99"/>
          <Node pos="r" depth="2" NCoef="0" IVar="-1" Cut="0.0000000000000000e+00" cType="1" res="-7.1951271966099739e-03" rms="2.0933228731155396e-01" purity="7.0380583405494690e-02" nType="-99"/>
        </Node>
      </Node>
    </BinaryTree>
    <BinaryTree type="DecisionTree" boostWeight="1.0000000000000000e+00" itree="565">
      <Node pos="s" depth="0" NCoef="0" IVar="10" Cut="6.6666251420974731e-01" cType="1" res="3.0637562740594149e-03" rms="2.9801297187805176e-01" purity="5.0402545928955078e-01" nType="0">
        <Node pos="l" depth="1" NCoef="0" IVar="4" Cut="2.3230856323242188e+02" cType="1" res="2.8042195481248200e-04" rms="2.9616883397102356e-01" purity="5.1571315526962280e-01" nType="0">
          <Node pos="l" depth="2" NCoef="0" IVar="9" Cut="-6.6676163673400879e-01" cType="1" res="-4.6919914893805981e-03" rms="2.9781597852706909e-01" purity="2.2972224652767181e-01" nType="0">
            <Node pos="l" depth="3" NCoef="0" IVar="-1" Cut="0.0000000000000000e+00" cType="1" res="5.9582213871181011e-03" rms="2.9069572687149048e-01" purity="2.1767945587635040e-01" nType="-99"/>
            <Node pos="r" depth="3" NCoef="0" IVar="-1" Cut="0.0000000000000000e+00" cType="1" res="-1.0191611945629120e-02" rms="3.0132967233657837e-01" purity="2.3598819971084595e-01" nType="-99"/>
          </Node>
          <Node pos="r" depth="2" NCoef="0" IVar="5" Cut="9.6035621643066406e+01" cType="1" res="4.8684962093830109e-03" rms="2.9456639289855957e-01" purity="7.7959853410720825e-01" nType="0">
            <Node pos="l" depth="3" NCoef="0" IVar="-1" Cut="0.0000000000000000e+00" cType="1" res="3.1664561480283737e-02" rms="3.7107729911804199e-01" purity="3.9502534270286560e-01" nType="-99"/>
            <Node pos="r" depth="3" NCoef="0" IVar="-1" Cut="0.0000000000000000e+00" cType="1" res="2.3324438370764256e-03" rms="2.8725790977478027e-01" purity="8.1084126234054565e-01" nType="-99"/>
          </Node>
        </Node>
        <Node pos="r" depth="1" NCoef="0" IVar="8" Cut="1.4664503335952759e+00" cType="1" res="9.3354471027851105e-03" rms="3.0203309655189514e-01" purity="4.7768953442573547e-01" nType="0">
          <Node pos="l" depth="2" NCoef="0" IVar="8" Cut="1.0601704120635986e+00" cType="1" res="1.1455208063125610e-02" rms="3.0818018317222595e-01" purity="5.1740324497222900e-01" nType="0">
            <Node pos="l" depth="3" NCoef="0" IVar="-1" Cut="0.0000000000000000e+00" cType="1" res="9.7153084352612495e-03" rms="3.0530372262001038e-01" purity="5.2818393707275391e-01" nType="-99"/>
            <Node pos="r" depth="3" NCoef="0" IVar="-1" Cut="0.0000000000000000e+00" cType="1" res="3.4378901124000549e-02" rms="3.3134949207305908e-01" purity="4.2323943972587585e-01" nType="-99"/>
          </Node>
          <Node pos="r" depth="2" NCoef="0" IVar="-1" Cut="0.0000000000000000e+00" cType="1" res="-1.4078276231884956e-02" rms="2.4320557713508606e-01" purity="1.4190280437469482e-01" nType="-99"/>
        </Node>
      </Node>
    </BinaryTree>
    <BinaryTree type="DecisionTree" boostWeight="1.0000000000000000e+00" itree="566">
      <Node pos="s" depth="0" NCoef="0" IVar="7" Cut="1.4690010547637939e+00" cType="1" res="-4.2335074394941330e-03" rms="2.9197037220001221e-01" purity="4.9705544114112854e-01" nType="0">
        <Node pos="l" depth="1" NCoef="0" IVar="5" Cut="1.9051112365722656e+02" cType="1" res="-5.3883129730820656e-03" rms="2.9525277018547058e-01" purity="5.2253156900405884e-01" nType="0">
          <Node pos="l" depth="2" NCoef="0" IVar="5" Cut="7.0121246337890625e+01" cType="1" res="-8.5614342242479324e-03" rms="3.1388762593269348e-01" purity="3.4277072548866272e-01" nType="0">
            <Node pos="l" depth="3" NCoef="0" IVar="-1" Cut="0.0000000000000000e+00" cType="1" res="8.4897186607122421e-03" rms="2.1745976805686951e-01" purity="7.7670454978942871e-02" nType="-99"/>
            <Node pos="r" depth="3" NCoef="0" IVar="-1" Cut="0.0000000000000000e+00" cType="1" res="-9.2119183391332626e-03" rms="3.2382243871688843e-01" purity="3.7566283345222473e-01" nType="-99"/>
          </Node>
          <Node pos="r" depth="2" NCoef="0" IVar="9" Cut="-9.3419224023818970e-01" cType="1" res="9.1042974963784218e-04" rms="2.5412988662719727e-01" purity="8.7936234474182129e-01" nType="0">
            <Node pos="l" depth="3" NCoef="0" IVar="-1" Cut="0.0000000000000000e+00" cType="1" res="-1.1217065155506134e-02" rms="2.8941005468368530e-01" purity="7.9928117990493774e-01" nType="-99"/>
            <Node pos="r" depth="3" NCoef="0" IVar="-1" Cut="0.0000000000000000e+00" cType="1" res="4.2246407829225063e-03" rms="2.4794197082519531e-01" purity="8.9224606752395630e-01" nType="-99"/>
          </Node>
        </Node>
        <Node pos="r" depth="1" NCoef="0" IVar="5" Cut="1.1268380737304688e+02" cType="1" res="1.2659803964197636e-02" rms="2.3821189999580383e-01" purity="1.2437241524457932e-01" nType="0">
          <Node pos="l" depth="2" NCoef="0" IVar="-1" Cut="0.0000000000000000e+00" cType="1" res="5.9408931992948055e-03" rms="1.4805544912815094e-01" purity="2.5313301011919975e-02" nType="-99"/>
          <Node pos="r" depth="2" NCoef="0" IVar="-1" Cut="0.0000000000000000e+00" cType="1" res="2.9501952230930328e-02" rms="3.1055030226707458e-01" purity="2.3821327090263367e-01" nType="-99"/>
        </Node>
      </Node>
    </BinaryTree>
    <BinaryTree type="DecisionTree" boostWeight="1.0000000000000000e+00" itree="567">
      <Node pos="s" depth="0" NCoef="0" IVar="8" Cut="-1.3338091969490051e-01" cType="1" res="4.0869097574613988e-04" rms="2.9669275879859924e-01" purity="5.0044041872024536e-01" nType="0">
        <Node pos="l" depth="1" NCoef="0" IVar="7" Cut="-1.4581464529037476e+00" cType="1" res="4.3307379819452763e-03" rms="3.0094778537750244e-01" purity="4.8473861813545227e-01" nType="0">
          <Node pos="l" depth="2" NCoef="0" IVar="-1" Cut="0.0000000000000000e+00" cType="1" res="-3.1651727855205536e-02" rms="1.7997607588768005e-01" purity="7.6688759028911591e-02" nType="-99"/>
          <Node pos="r" depth="2" NCoef="0" IVar="9" Cut="1.4665845632553101e+00" cType="1" res="5.6713400408625603e-03" rms="3.0750685930252075e-01" purity="5.1292502880096436e-01" nType="0">
            <Node pos="l" depth="3" NCoef="0" IVar="-1" Cut="0.0000000000000000e+00" cType="1" res="7.8560877591371536e-03" rms="3.0790746212005615e-01" purity="5.3250998258590698e-01" nType="-99"/>
            <Node pos="r" depth="3" NCoef="0" IVar="-1" Cut="0.0000000000000000e+00" cType="1" res="-1.2355435639619827e-02" rms="3.0261364579200745e-01" purity="3.0304506421089172e-01" nType="-99"/>
          </Node>
        </Node>
        <Node pos="r" depth="1" NCoef="0" IVar="4" Cut="1.3614596557617188e+02" cType="1" res="-2.8466687072068453e-03" rms="2.9307425022125244e-01" purity="5.1347309350967407e-01" nType="0">
          <Node pos="l" depth="2" NCoef="0" IVar="5" Cut="8.2775604248046875e+01" cType="1" res="-1.3419662602245808e-02" rms="2.0061926543712616e-01" purity="5.4047863930463791e-02" nType="0">
            <Node pos="l" depth="3" NCoef="0" IVar="-1" Cut="0.0000000000000000e+00" cType="1" res="7.1303746663033962e-03" rms="1.7267018556594849e-01" purity="4.4454030692577362e-02" nType="-99"/>
            <Node pos="r" depth="3" NCoef="0" IVar="-1" Cut="0.0000000000000000e+00" cType="1" res="-4.5265719294548035e-02" rms="2.2534687817096710e-01" purity="6.4229823648929596e-02" nType="-99"/>
          </Node>
          <Node pos="r" depth="2" NCoef="0" IVar="10" Cut="-1.3328602910041809e-01" cType="1" res="-8.4842275828123093e-04" rms="3.0739873647689819e-01" purity="6.0030233860015869e-01" nType="0">
            <Node pos="l" depth="3" NCoef="0" IVar="-1" Cut="0.0000000000000000e+00" cType="1" res="3.7535144947469234e-03" rms="3.1455433368682861e-01" purity="6.1368685960769653e-01" nType="-99"/>
            <Node pos="r" depth="3" NCoef="0" IVar="-1" Cut="0.0000000000000000e+00" cType="1" res="-4.5029036700725555e-03" rms="3.0196535587310791e-01" purity="5.9042096138000488e-01" nType="-99"/>
          </Node>
        </Node>
      </Node>
    </BinaryTree>
    <BinaryTree type="DecisionTree" boostWeight="1.0000000000000000e+00" itree="568">
      <Node pos="s" depth="0" NCoef="0" IVar="7" Cut="-3.8569763302803040e-01" cType="1" res="2.2708720061928034e-03" rms="2.9662284255027771e-01" purity="5.0407010316848755e-01" nType="0">
        <Node pos="l" depth="1" NCoef="0" IVar="9" Cut="1.4666141271591187e+00" cType="1" res="-5.0688856281340122e-03" rms="2.9151985049247742e-01" purity="4.1472738981246948e-01" nType="0">
          <Node pos="l" depth="2" NCoef="0" IVar="6" Cut="1.2018182373046875e+02" cType="1" res="-1.7429357394576073e-03" rms="2.9349941015243530e-01" purity="4.3773636221885681e-01" nType="0">
            <Node pos="l" depth="3" NCoef="0" IVar="-1" Cut="0.0000000000000000e+00" cType="1" res="-7.0820879191160202e-03" rms="2.9522943496704102e-01" purity="2.7006098628044128e-01" nType="-99"/>
            <Node pos="r" depth="3" NCoef="0" IVar="-1" Cut="0.0000000000000000e+00" cType="1" res="1.1279144324362278e-02" rms="2.8911668062210083e-01" purity="8.2993990182876587e-01" nType="-99"/>
          </Node>
          <Node pos="r" depth="2" NCoef="0" IVar="-1" Cut="0.0000000000000000e+00" cType="1" res="-4.4504016637802124e-02" rms="2.6965892314910889e-01" purity="1.9342893362045288e-01" nType="-99"/>
        </Node>
        <Node pos="r" depth="1" NCoef="0" IVar="10" Cut="-9.3330436944961548e-01" cType="1" res="5.7577728293836117e-03" rms="2.9895344376564026e-01" purity="5.4651421308517456e-01" nType="0">
          <Node pos="l" depth="2" NCoef="0" IVar="7" Cut="-8.2310050725936890e-02" cType="1" res="-2.4671263527125120e-03" rms="3.0343896150588989e-01" purity="5.0534713268280029e-01" nType="0">
            <Node pos="l" depth="3" NCoef="0" IVar="-1" Cut="0.0000000000000000e+00" cType="1" res="2.2784914821386337e-02" rms="3.2882693409919739e-01" purity="6.2354898452758789e-01" nType="-99"/>
            <Node pos="r" depth="3" NCoef="0" IVar="-1" Cut="0.0000000000000000e+00" cType="1" res="-1.0678553953766823e-02" rms="2.9519486427307129e-01" purity="4.7068804502487183e-01" nType="-99"/>
          </Node>
          <Node pos="r" depth="2" NCoef="0" IVar="10" Cut="4.8890838027000427e-01" cType="1" res="7.9519227147102356e-03" rms="2.9770705103874207e-01" purity="5.5749630928039551e-01" nType="0">
            <Node pos="l" depth="3" NCoef="0" IVar="-1" Cut="0.0000000000000000e+00" cType="1" res="1.4414511620998383e-02" rms="2.9875570535659790e-01" purity="6.0098826885223389e-01" nType="-99"/>
            <Node pos="r" depth="3" NCoef="0" IVar="-1" Cut="0.0000000000000000e+00" cType="1" res="2.6174446102231741e-03" rms="2.9641440510749817e-01" purity="5.0833469629287720e-01" nType="-99"/>
          </Node>
        </Node>
      </Node>
    </BinaryTree>
    <BinaryTree type="DecisionTree" boostWeight="1.0000000000000000e+00" itree="569">
      <Node pos="s" depth="0" NCoef="0" IVar="5" Cut="1.6115164184570312e+02" cType="1" res="2.4187562521547079e-03" rms="2.9968309402465820e-01" purity="4.9942082166671753e-01" nType="0">
        <Node pos="l" depth="1" NCoef="0" IVar="9" Cut="-1.7333366870880127e+00" cType="1" res="5.9819561429321766e-03" rms="3.0996942520141602e-01" purity="2.7298852801322937e-01" nType="0">
          <Node pos="l" depth="2" NCoef="0" IVar="5" Cut="9.7823127746582031e+01" cType="1" res="2.0262341946363449e-02" rms="2.9291874170303345e-01" purity="1.8414358794689178e-01" nType="0">
            <Node pos="l" depth="3" NCoef="0" IVar="-1" Cut="0.0000000000000000e+00" cType="1" res="1.8258726224303246e-02" rms="2.3711040616035461e-01" purity="9.7719028592109680e-02" nType="-99"/>
            <Node pos="r" depth="3" NCoef="0" IVar="-1" Cut="0.0000000000000000e+00" cType="1" res="3.4393303096294403e-02" rms="3.4641608595848083e-01" purity="2.8500646352767944e-01" nType="-99"/>
          </Node>
          <Node pos="r" depth="2" NCoef="0" IVar="8" Cut="-6.6671001911163330e-01" cType="1" res="4.4919205829501152e-03" rms="3.1165710091590881e-01" purity="2.8225874900817871e-01" nType="0">
            <Node pos="l" depth="3" NCoef="0" IVar="-1" Cut="0.0000000000000000e+00" cType="1" res="1.2325805611908436e-02" rms="3.0269885063171387e-01" purity="2.3946134746074677e-01" nType="-99"/>
            <Node pos="r" depth="3" NCoef="0" IVar="-1" Cut="0.0000000000000000e+00" cType="1" res="1.7606245819479227e-03" rms="3.1521597504615784e-01" purity="2.9981070756912231e-01" nType="-99"/>
          </Node>
        </Node>
        <Node pos="r" depth="1" NCoef="0" IVar="7" Cut="9.5236068964004517e-01" cType="1" res="-2.4853022769093513e-03" rms="2.8484645485877991e-01" purity="8.1106120347976685e-01" nType="0">
          <Node pos="l" depth="2" NCoef="0" IVar="7" Cut="4.2493760585784912e-01" cType="1" res="-1.1628146748989820e-03" rms="2.7909877896308899e-01" purity="8.3522307872772217e-01" nType="0">
            <Node pos="l" depth="3" NCoef="0" IVar="-1" Cut="0.0000000000000000e+00" cType="1" res="-5.1128705963492393e-03" rms="2.7672117948532104e-01" purity="8.3159065246582031e-01" nType="-99"/>
            <Node pos="r" depth="3" NCoef="0" IVar="-1" Cut="0.0000000000000000e+00" cType="1" res="1.1524444445967674e-02" rms="2.8801813721656799e-01" purity="8.4951448440551758e-01" nType="-99"/>
          </Node>
          <Node pos="r" depth="2" NCoef="0" IVar="-1" Cut="0.0000000000000000e+00" cType="1" res="-1.2583452276885509e-02" rms="3.3222329616546631e-01" purity="5.9194785356521606e-01" nType="-99"/>
        </Node>
      </Node>
    </BinaryTree>
    <BinaryTree type="DecisionTree" boostWeight="1.0000000000000000e+00" itree="570">
      <Node pos="s" depth="0" NCoef="0" IVar="6" Cut="8.1792243957519531e+01" cType="1" res="-4.1356747969985008e-03" rms="2.9145979881286621e-01" purity="4.9573487043380737e-01" nType="0">
        <Node pos="l" depth="1" NCoef="0" IVar="9" Cut="-1.7333314418792725e+00" cType="1" res="-8.8935298845171928e-03" rms="2.7998587489128113e-01" purity="2.2309826314449310e-01" nType="0">
          <Node pos="l" depth="2" NCoef="0" IVar="-1" Cut="0.0000000000000000e+00" cType="1" res="-4.4749431312084198e-02" rms="2.1111170947551727e-01" purity="9.4898477196693420e-02" nType="-99"/>
          <Node pos="r" depth="2" NCoef="0" IVar="9" Cut="-1.3015851974487305e+00" cType="1" res="-6.9865314289927483e-03" rms="2.8589221835136414e-01" purity="2.3591779172420502e-01" nType="0">
            <Node pos="l" depth="3" NCoef="0" IVar="-1" Cut="0.0000000000000000e+00" cType="1" res="1.2720321305096149e-02" rms="3.0501300096511841e-01" purity="2.0077913999557495e-01" nType="-99"/>
            <Node pos="r" depth="3" NCoef="0" IVar="-1" Cut="0.0000000000000000e+00" cType="1" res="-9.8326960578560829e-03" rms="2.8414645791053772e-01" purity="2.3892723023891449e-01" nType="-99"/>
          </Node>
        </Node>
        <Node pos="r" depth="1" NCoef="0" IVar="9" Cut="-1.7334104776382446e+00" cType="1" res="-4.1185194277204573e-04" rms="3.0008158087730408e-01" purity="7.0911896228790283e-01" nType="0">
          <Node pos="l" depth="2" NCoef="0" IVar="-1" Cut="0.0000000000000000e+00" cType="1" res="1.9949482753872871e-02" rms="3.4949657320976257e-01" purity="4.7126677632331848e-01" nType="-99"/>
          <Node pos="r" depth="2" NCoef="0" IVar="10" Cut="-1.3333699107170105e-01" cType="1" res="-1.6764999600127339e-03" rms="2.9716590046882629e-01" purity="7.2178816795349121e-01" nType="0">
            <Node pos="l" depth="3" NCoef="0" IVar="-1" Cut="0.0000000000000000e+00" cType="1" res="3.9119333960115910e-03" rms="3.0169615149497986e-01" purity="7.2269147634506226e-01" nType="-99"/>
            <Node pos="r" depth="3" NCoef="0" IVar="-1" Cut="0.0000000000000000e+00" cType="1" res="-6.8832458928227425e-03" rms="2.9332211613655090e-01" purity="7.2104632854461670e-01" nType="-99"/>
          </Node>
        </Node>
      </Node>
    </BinaryTree>
    <BinaryTree type="DecisionTree" boostWeight="1.0000000000000000e+00" itree="571">
      <Node pos="s" depth="0" NCoef="0" IVar="8" Cut="-1.9998431205749512e+00" cType="1" res="2.0966550800949335e-03" rms="2.9695332050323486e-01" purity="5.0235939025878906e-01" nType="0">
        <Node pos="l" depth="1" NCoef="0" IVar="-1" Cut="0.0000000000000000e+00" cType="1" res="-4.1109800338745117e-02" rms="2.0851981639862061e-01" purity="7.0004664361476898e-02" nType="-99"/>
        <Node pos="r" depth="1" NCoef="0" IVar="0" Cut="5.5525219726562500e+02" cType="1" res="2.8738311957567930e-03" rms="2.9939550161361694e-01" purity="5.1662868261337280e-01" nType="0">
          <Node pos="l" depth="2" NCoef="0" IVar="5" Cut="1.8360685729980469e+02" cType="1" res="6.3086440786719322e-03" rms="3.2017409801483154e-01" purity="3.3335164189338684e-01" nType="0">
            <Node pos="l" depth="3" NCoef="0" IVar="-1" Cut="0.0000000000000000e+00" cType="1" res="1.0103714652359486e-02" rms="3.1534999608993530e-01" purity="2.1108663082122803e-01" nType="-99"/>
            <Node pos="r" depth="3" NCoef="0" IVar="-1" Cut="0.0000000000000000e+00" cType="1" res="-4.5085307210683823e-03" rms="3.3535659313201904e-01" purity="7.3728793859481812e-01" nType="-99"/>
          </Node>
          <Node pos="r" depth="2" NCoef="0" IVar="1" Cut="1.5715581054687500e+03" cType="1" res="-3.8513976614922285e-03" rms="2.5369855761528015e-01" purity="8.7547791004180908e-01" nType="0">
            <Node pos="l" depth="3" NCoef="0" IVar="-1" Cut="0.0000000000000000e+00" cType="1" res="-2.3278072476387024e-02" rms="3.9804396033287048e-01" purity="5.4100531339645386e-01" nType="-99"/>
            <Node pos="r" depth="3" NCoef="0" IVar="-1" Cut="0.0000000000000000e+00" cType="1" res="1.2498821597546339e-03" rms="2.2536219656467438e-01" purity="9.2316412925720215e-01" nType="-99"/>
          </Node>
        </Node>
      </Node>
    </BinaryTree>
    <BinaryTree type="DecisionTree" boostWeight="1.0000000000000000e+00" itree="572">
      <Node pos="s" depth="0" NCoef="0" IVar="7" Cut="6.7066037654876709e-01" cType="1" res="-3.2917277421802282e-03" rms="2.9331001639366150e-01" purity="4.9632343649864197e-01" nType="0">
        <Node pos="l" depth="1" NCoef="0" IVar="10" Cut="1.7333250045776367e+00" cType="1" res="-1.5734230400994420e-03" rms="2.9710558056831360e-01" purity="5.4412627220153809e-01" nType="0">
          <Node pos="l" depth="2" NCoef="0" IVar="8" Cut="1.1997950077056885e+00" cType="1" res="-4.3825412285514176e-04" rms="2.9618206620216370e-01" purity="5.5664491653442383e-01" nType="0">
            <Node pos="l" depth="3" NCoef="0" IVar="-1" Cut="0.0000000000000000e+00" cType="1" res="-2.1901426371186972e-03" rms="2.9408994317054749e-01" purity="5.8549934625625610e-01" nType="-99"/>
            <Node pos="r" depth="3" NCoef="0" IVar="-1" Cut="0.0000000000000000e+00" cType="1" res="1.2470008805394173e-02" rms="3.1188178062438965e-01" purity="3.3005189895629883e-01" nType="-99"/>
          </Node>
          <Node pos="r" depth="2" NCoef="0" IVar="5" Cut="1.1565867614746094e+02" cType="1" res="-1.6642965376377106e-02" rms="3.0870884656906128e-01" purity="3.7793877720832825e-01" nType="0">
            <Node pos="l" depth="3" NCoef="0" IVar="-1" Cut="0.0000000000000000e+00" cType="1" res="1.5999060124158859e-03" rms="2.8049215674400330e-01" purity="1.5747655928134918e-01" nType="-99"/>
            <Node pos="r" depth="3" NCoef="0" IVar="-1" Cut="0.0000000000000000e+00" cType="1" res="-2.9175329953432083e-02" rms="3.3058136701583862e-01" purity="5.7032513618469238e-01" nType="-99"/>
          </Node>
        </Node>
        <Node pos="r" depth="1" NCoef="0" IVar="10" Cut="-1.3339868187904358e-01" cType="1" res="-9.1043887659907341e-03" rms="2.8001114726066589e-01" purity="3.3461654186248779e-01" nType="0">
          <Node pos="l" depth="2" NCoef="0" IVar="6" Cut="9.5821365356445312e+01" cType="1" res="-1.4734122902154922e-02" rms="2.7766194939613342e-01" purity="3.3199539780616760e-01" nType="0">
            <Node pos="l" depth="3" NCoef="0" IVar="-1" Cut="0.0000000000000000e+00" cType="1" res="-3.0503770336508751e-02" rms="2.4130524694919586e-01" purity="1.4411267638206482e-01" nType="-99"/>
            <Node pos="r" depth="3" NCoef="0" IVar="-1" Cut="0.0000000000000000e+00" cType="1" res="-1.6760604921728373e-03" rms="3.2786676287651062e-01" purity="6.3740885257720947e-01" nType="-99"/>
          </Node>
          <Node pos="r" depth="2" NCoef="0" IVar="0" Cut="5.4463043212890625e+02" cType="1" res="-5.5079623125493526e-03" rms="2.8144264221191406e-01" purity="3.3629101514816284e-01" nType="0">
            <Node pos="l" depth="3" NCoef="0" IVar="-1" Cut="0.0000000000000000e+00" cType="1" res="-1.1744579300284386e-02" rms="2.7672132849693298e-01" purity="1.8592160940170288e-01" nType="-99"/>
            <Node pos="r" depth="3" NCoef="0" IVar="-1" Cut="0.0000000000000000e+00" cType="1" res="7.1411277167499065e-03" rms="2.9481196403503418e-01" purity="7.8674960136413574e-01" nType="-99"/>
          </Node>
        </Node>
      </Node>
    </BinaryTree>
    <BinaryTree type="DecisionTree" boostWeight="1.0000000000000000e+00" itree="573">
      <Node pos="s" depth="0" NCoef="0" IVar="10" Cut="1.3345356285572052e-01" cType="1" res="8.5367192514240742e-04" rms="2.9669493436813354e-01" purity="5.0316262245178223e-01" nType="0">
        <Node pos="l" depth="1" NCoef="0" IVar="9" Cut="6.6661298274993896e-01" cType="1" res="-2.7031491044908762e-03" rms="2.9596477746963501e-01" purity="5.0288480520248413e-01" nType="0">
          <Node pos="l" depth="2" NCoef="0" IVar="0" Cut="6.0598931884765625e+02" cType="1" res="-5.2336007356643677e-03" rms="2.9157868027687073e-01" purity="5.1112711429595947e-01" nType="0">
            <Node pos="l" depth="3" NCoef="0" IVar="-1" Cut="0.0000000000000000e+00" cType="1" res="-8.6290556937456131e-03" rms="3.0955728888511658e-01" purity="3.5174468159675598e-01" nType="-99"/>
            <Node pos="r" depth="3" NCoef="0" IVar="-1" Cut="0.0000000000000000e+00" cType="1" res="4.5908079482614994e-03" rms="2.4154959619045258e-01" purity="9.0316599607467651e-01" nType="-99"/>
          </Node>
          <Node pos="r" depth="2" NCoef="0" IVar="8" Cut="1.3330237567424774e-01" cType="1" res="4.5522232539951801e-03" rms="3.0807963013648987e-01" purity="4.7925201058387756e-01" nType="0">
            <Node pos="l" depth="3" NCoef="0" IVar="-1" Cut="0.0000000000000000e+00" cType="1" res="-7.2634704411029816e-03" rms="3.0407539010047913e-01" purity="4.6559765934944153e-01" nType="-99"/>
            <Node pos="r" depth="3" NCoef="0" IVar="-1" Cut="0.0000000000000000e+00" cType="1" res="1.7929252237081528e-02" rms="3.1193375587463379e-01" purity="4.9425262212753296e-01" nType="-99"/>
          </Node>
        </Node>
        <Node pos="r" depth="1" NCoef="0" IVar="9" Cut="-1.2000569105148315e+00" cType="1" res="5.0067794509232044e-03" rms="2.9749143123626709e-01" purity="5.0348705053329468e-01" nType="0">
          <Node pos="l" depth="2" NCoef="0" IVar="5" Cut="1.2572817230224609e+02" cType="1" res="2.2345699369907379e-02" rms="3.2413855195045471e-01" purity="3.9231514930725098e-01" nType="0">
            <Node pos="l" depth="3" NCoef="0" IVar="-1" Cut="0.0000000000000000e+00" cType="1" res="4.3213769793510437e-02" rms="3.0934044718742371e-01" purity="1.9142036139965057e-01" nType="-99"/>
            <Node pos="r" depth="3" NCoef="0" IVar="-1" Cut="0.0000000000000000e+00" cType="1" res="9.7420606762170792e-03" rms="3.4019011259078979e-01" purity="6.2628096342086792e-01" nType="-99"/>
          </Node>
          <Node pos="r" depth="2" NCoef="0" IVar="6" Cut="8.0216560363769531e+01" cType="1" res="2.3998119868338108e-03" rms="2.9318696260452271e-01" purity="5.2020215988159180e-01" nType="0">
            <Node pos="l" depth="3" NCoef="0" IVar="-1" Cut="0.0000000000000000e+00" cType="1" res="1.0248956270515919e-02" rms="2.8945010900497437e-01" purity="2.4515163898468018e-01" nType="-99"/>
            <Node pos="r" depth="3" NCoef="0" IVar="-1" Cut="0.0000000000000000e+00" cType="1" res="-2.3400364443659782e-03" rms="2.9576921463012695e-01" purity="7.1832472085952759e-01" nType="-99"/>
          </Node>
        </Node>
      </Node>
    </BinaryTree>
    <BinaryTree type="DecisionTree" boostWeight="1.0000000000000000e+00" itree="574">
      <Node pos="s" depth="0" NCoef="0" IVar="10" Cut="-1.1999942064285278e+00" cType="1" res="-2.5657654623501003e-04" rms="2.9525628685951233e-01" purity="4.9700677394866943e-01" nType="0">
        <Node pos="l" depth="1" NCoef="0" IVar="7" Cut="6.9972616434097290e-01" cType="1" res="-9.2183966189622879e-03" rms="2.9539993405342102e-01" purity="4.0073606371879578e-01" nType="0">
          <Node pos="l" depth="2" NCoef="0" IVar="8" Cut="4.0001416206359863e-01" cType="1" res="-1.2824074365198612e-02" rms="2.9603347182273865e-01" purity="4.3366068601608276e-01" nType="0">
            <Node pos="l" depth="3" NCoef="0" IVar="-1" Cut="0.0000000000000000e+00" cType="1" res="-8.3456588909029961e-03" rms="2.9495388269424438e-01" purity="4.4785043597221375e-01" nType="-99"/>
            <Node pos="r" depth="3" NCoef="0" IVar="-1" Cut="0.0000000000000000e+00" cType="1" res="-2.8610181063413620e-02" rms="2.9826435446739197e-01" purity="3.9837422966957092e-01" nType="-99"/>
          </Node>
          <Node pos="r" depth="2" NCoef="0" IVar="-1" Cut="0.0000000000000000e+00" cType="1" res="5.7955612428486347e-03" rms="2.9246214032173157e-01" purity="2.7116861939430237e-01" nType="-99"/>
        </Node>
        <Node pos="r" depth="1" NCoef="0" IVar="7" Cut="-9.2552560567855835e-01" cType="1" res="1.5860919374972582e-03" rms="2.9519301652908325e-01" purity="5.1680129766464233e-01" nType="0">
          <Node pos="l" depth="2" NCoef="0" IVar="6" Cut="7.5030220031738281e+01" cType="1" res="1.6770273447036743e-02" rms="2.8629004955291748e-01" purity="2.9826757311820984e-01" nType="0">
            <Node pos="l" depth="3" NCoef="0" IVar="-1" Cut="0.0000000000000000e+00" cType="1" res="-3.9178826846182346e-03" rms="2.1388514339923859e-01" purity="8.3849184215068817e-02" nType="-99"/>
            <Node pos="r" depth="3" NCoef="0" IVar="-1" Cut="0.0000000000000000e+00" cType="1" res="2.9456529766321182e-02" rms="3.3025589585304260e-01" purity="4.6154779195785522e-01" nType="-99"/>
          </Node>
          <Node pos="r" depth="2" NCoef="0" IVar="8" Cut="-9.3326526880264282e-01" cType="1" res="-9.7178108990192413e-04" rms="2.9659000039100647e-01" purity="5.5361473560333252e-01" nType="0">
            <Node pos="l" depth="3" NCoef="0" IVar="-1" Cut="0.0000000000000000e+00" cType="1" res="-1.1906180530786514e-02" rms="3.0201900005340576e-01" purity="3.9772546291351318e-01" nType="-99"/>
            <Node pos="r" depth="3" NCoef="0" IVar="-1" Cut="0.0000000000000000e+00" cType="1" res="1.1293464340269566e-03" rms="2.9547023773193359e-01" purity="5.8427798748016357e-01" nType="-99"/>
          </Node>
        </Node>
      </Node>
    </BinaryTree>
    <BinaryTree type="DecisionTree" boostWeight="1.0000000000000000e+00" itree="575">
      <Node pos="s" depth="0" NCoef="0" IVar="1" Cut="1.4400571289062500e+03" cType="1" res="-2.7527768907020800e-05" rms="2.9366609454154968e-01" purity="5.0099551677703857e-01" nType="0">
        <Node pos="l" depth="1" NCoef="0" IVar="10" Cut="-9.3333107233047485e-01" cType="1" res="-3.2720225863158703e-03" rms="3.0071321129798889e-01" purity="1.7755369842052460e-01" nType="0">
          <Node pos="l" depth="2" NCoef="0" IVar="7" Cut="6.9983905553817749e-01" cType="1" res="5.7623363099992275e-03" rms="3.0011755228042603e-01" purity="1.7150439321994781e-01" nType="0">
            <Node pos="l" depth="3" NCoef="0" IVar="-1" Cut="0.0000000000000000e+00" cType="1" res="1.2475289404392242e-02" rms="3.1380346417427063e-01" purity="1.9192712008953094e-01" nType="-99"/>
            <Node pos="r" depth="3" NCoef="0" IVar="-1" Cut="0.0000000000000000e+00" cType="1" res="-1.9703157246112823e-02" rms="2.4699673056602478e-01" purity="1.0213617235422134e-01" nType="-99"/>
          </Node>
          <Node pos="r" depth="2" NCoef="0" IVar="10" Cut="-2.2221484780311584e-01" cType="1" res="-6.3682384788990021e-03" rms="3.0085465312004089e-01" purity="1.7962689697742462e-01" nType="0">
            <Node pos="l" depth="3" NCoef="0" IVar="-1" Cut="0.0000000000000000e+00" cType="1" res="-2.3911222815513611e-02" rms="2.8434777259826660e-01" purity="1.6659091413021088e-01" nType="-99"/>
            <Node pos="r" depth="3" NCoef="0" IVar="-1" Cut="0.0000000000000000e+00" cType="1" res="-9.2810497153550386e-04" rms="3.0580452084541321e-01" purity="1.8384571373462677e-01" nType="-99"/>
          </Node>
        </Node>
        <Node pos="r" depth="1" NCoef="0" IVar="10" Cut="1.7332836389541626e+00" cType="1" res="3.3394051715731621e-03" rms="2.8613072633743286e-01" purity="8.3664304018020630e-01" nType="0">
          <Node pos="l" depth="2" NCoef="0" IVar="9" Cut="1.1997745037078857e+00" cType="1" res="1.8871554639190435e-03" rms="2.8180781006813049e-01" purity="8.4246987104415894e-01" nType="0">
            <Node pos="l" depth="3" NCoef="0" IVar="-1" Cut="0.0000000000000000e+00" cType="1" res="-1.9705954764503986e-04" rms="2.7367848157882690e-01" purity="8.5364878177642822e-01" nType="-99"/>
            <Node pos="r" depth="3" NCoef="0" IVar="-1" Cut="0.0000000000000000e+00" cType="1" res="1.6224661841988564e-02" rms="3.4111803770065308e-01" purity="7.5022476911544800e-01" nType="-99"/>
          </Node>
          <Node pos="r" depth="2" NCoef="0" IVar="-1" Cut="0.0000000000000000e+00" cType="1" res="2.1547948941588402e-02" rms="3.4157153964042664e-01" purity="7.5294685363769531e-01" nType="-99"/>
        </Node>
      </Node>
    </BinaryTree>
    <BinaryTree type="DecisionTree" boostWeight="1.0000000000000000e+00" itree="576">
      <Node pos="s" depth="0" NCoef="0" IVar="0" Cut="4.5299490356445312e+02" cType="1" res="-4.0186126716434956e-04" rms="2.9359820485115051e-01" purity="4.9917668104171753e-01" nType="0">
        <Node pos="l" depth="1" NCoef="0" IVar="4" Cut="3.5422061157226562e+02" cType="1" res="3.3366573043167591e-03" rms="3.0143055319786072e-01" purity="2.3550030589103699e-01" nType="0">
          <Node pos="l" depth="2" NCoef="0" IVar="0" Cut="3.9471087646484375e+02" cType="1" res="7.5555202784016728e-04" rms="2.9436010122299194e-01" purity="2.0073768496513367e-01" nType="0">
            <Node pos="l" depth="3" NCoef="0" IVar="-1" Cut="0.0000000000000000e+00" cType="1" res="-3.9424705319106579e-03" rms="2.7482882142066956e-01" purity="1.5885455906391144e-01" nType="-99"/>
            <Node pos="r" depth="3" NCoef="0" IVar="-1" Cut="0.0000000000000000e+00" cType="1" res="1.0276147164404392e-02" rms="3.4321296215057373e-01" purity="3.1869208812713623e-01" nType="-99"/>
          </Node>
          <Node pos="r" depth="2" NCoef="0" IVar="-1" Cut="0.0000000000000000e+00" cType="1" res="2.3431336507201195e-02" rms="3.7195360660552979e-01" purity="6.3529622554779053e-01" nType="-99"/>
        </Node>
        <Node pos="r" depth="1" NCoef="0" IVar="1" Cut="1.4772376708984375e+03" cType="1" res="-4.2308890260756016e-03" rms="2.8530269861221313e-01" purity="7.6923662424087524e-01" nType="0">
          <Node pos="l" depth="2" NCoef="0" IVar="4" Cut="2.1589802551269531e+02" cType="1" res="-2.2014208137989044e-02" rms="3.6693692207336426e-01" purity="3.4731146693229675e-01" nType="0">
            <Node pos="l" depth="3" NCoef="0" IVar="-1" Cut="0.0000000000000000e+00" cType="1" res="-8.4706069901585579e-03" rms="3.5212647914886475e-01" purity="2.8482246398925781e-01" nType="-99"/>
            <Node pos="r" depth="3" NCoef="0" IVar="-1" Cut="0.0000000000000000e+00" cType="1" res="-3.0118275433778763e-02" rms="4.0254905819892883e-01" purity="5.1466304063796997e-01" nType="-99"/>
          </Node>
          <Node pos="r" depth="2" NCoef="0" IVar="7" Cut="1.0015906095504761e+00" cType="1" res="7.8544241841882467e-04" rms="2.5741764903068542e-01" purity="8.8825356960296631e-01" nType="0">
            <Node pos="l" depth="3" NCoef="0" IVar="-1" Cut="0.0000000000000000e+00" cType="1" res="-9.6586684230715036e-04" rms="2.5299265980720520e-01" purity="8.9876133203506470e-01" nType="-99"/>
            <Node pos="r" depth="3" NCoef="0" IVar="-1" Cut="0.0000000000000000e+00" cType="1" res="1.5915028750896454e-02" rms="3.0636924505233765e-01" purity="7.5838059186935425e-01" nType="-99"/>
          </Node>
        </Node>
      </Node>
    </BinaryTree>
    <BinaryTree type="DecisionTree" boostWeight="1.0000000000000000e+00" itree="577">
      <Node pos="s" depth="0" NCoef="0" IVar="10" Cut="-2.2666594982147217e+00" cType="1" res="5.1322049694135785e-04" rms="2.9664519429206848e-01" purity="4.9755641818046570e-01" nType="0">
        <Node pos="l" depth="1" NCoef="0" IVar="-1" Cut="0.0000000000000000e+00" cType="1" res="-4.0216978639364243e-02" rms="2.6256114244461060e-01" purity="2.4634857475757599e-01" nType="-99"/>
        <Node pos="r" depth="1" NCoef="0" IVar="1" Cut="1.1148317871093750e+03" cType="1" res="1.4321533963084221e-03" rms="2.9747912287712097e-01" purity="5.0450032949447632e-01" nType="0">
          <Node pos="l" depth="2" NCoef="0" IVar="2" Cut="5.6731771677732468e-02" cType="1" res="6.8462621420621872e-03" rms="2.2655081748962402e-01" purity="6.4312562346458435e-02" nType="0">
            <Node pos="l" depth="3" NCoef="0" IVar="-1" Cut="0.0000000000000000e+00" cType="1" res="6.1894212849438190e-03" rms="1.8932676315307617e-01" purity="4.0626261383295059e-02" nType="-99"/>
            <Node pos="r" depth="3" NCoef="0" IVar="-1" Cut="0.0000000000000000e+00" cType="1" res="2.5129478424787521e-02" rms="3.4125950932502747e-01" purity="1.6472002863883972e-01" nType="-99"/>
          </Node>
          <Node pos="r" depth="2" NCoef="0" IVar="8" Cut="-6.6660588979721069e-01" cType="1" res="-5.2348052849993110e-04" rms="3.1922578811645508e-01" purity="6.6350090503692627e-01" nType="0">
            <Node pos="l" depth="3" NCoef="0" IVar="-1" Cut="0.0000000000000000e+00" cType="1" res="7.2925491258502007e-03" rms="3.3681288361549377e-01" purity="5.8462667465209961e-01" nType="-99"/>
            <Node pos="r" depth="3" NCoef="0" IVar="-1" Cut="0.0000000000000000e+00" cType="1" res="-3.4715568181127310e-03" rms="3.1324231624603271e-01" purity="6.8913531303405762e-01" nType="-99"/>
          </Node>
        </Node>
      </Node>
    </BinaryTree>
    <BinaryTree type="DecisionTree" boostWeight="1.0000000000000000e+00" itree="578">
      <Node pos="s" depth="0" NCoef="0" IVar="8" Cut="-1.4666632413864136e+00" cType="1" res="3.3679644111543894e-03" rms="2.9734623432159424e-01" purity="5.0404071807861328e-01" nType="0">
        <Node pos="l" depth="1" NCoef="0" IVar="3" Cut="3.0221881103515625e+02" cType="1" res="-1.5188841149210930e-02" rms="2.5171446800231934e-01" purity="1.8337860703468323e-01" nType="0">
          <Node pos="l" depth="2" NCoef="0" IVar="-1" Cut="0.0000000000000000e+00" cType="1" res="2.1048184134997427e-04" rms="2.2014899551868439e-01" purity="9.3055360019207001e-02" nType="-99"/>
          <Node pos="r" depth="2" NCoef="0" IVar="7" Cut="-7.8336581587791443e-02" cType="1" res="-2.3786382749676704e-02" rms="2.6743757724761963e-01" purity="2.3412460088729858e-01" nType="0">
            <Node pos="l" depth="3" NCoef="0" IVar="-1" Cut="0.0000000000000000e+00" cType="1" res="-1.1449694633483887e-02" rms="2.6907774806022644e-01" purity="2.6868796348571777e-01" nType="-99"/>
            <Node pos="r" depth="3" NCoef="0" IVar="-1" Cut="0.0000000000000000e+00" cType="1" res="-4.3235596269369125e-02" rms="2.6498362421989441e-01" purity="1.9841414690017700e-01" nType="-99"/>
          </Node>
        </Node>
        <Node pos="r" depth="1" NCoef="0" IVar="9" Cut="1.4666653871536255e+00" cType="1" res="5.0022825598716736e-03" rms="3.0097901821136475e-01" purity="5.3228175640106201e-01" nType="0">
          <Node pos="l" depth="2" NCoef="0" IVar="10" Cut="-1.1999572515487671e+00" cType="1" res="3.5019714850932360e-03" rms="2.9912653565406799e-01" purity="5.5561017990112305e-01" nType="0">
            <Node pos="l" depth="3" NCoef="0" IVar="-1" Cut="0.0000000000000000e+00" cType="1" res="1.6354745253920555e-02" rms="3.1128993630409241e-01" purity="4.9898958206176758e-01" nType="-99"/>
            <Node pos="r" depth="3" NCoef="0" IVar="-1" Cut="0.0000000000000000e+00" cType="1" res="1.1232862016186118e-03" rms="2.9647815227508545e-01" purity="5.6736040115356445e-01" nType="-99"/>
          </Node>
          <Node pos="r" depth="2" NCoef="0" IVar="9" Cut="2.1650702953338623e+00" cType="1" res="1.8267646431922913e-02" rms="3.1657823920249939e-01" purity="3.2601761817932129e-01" nType="0">
            <Node pos="l" depth="3" NCoef="0" IVar="-1" Cut="0.0000000000000000e+00" cType="1" res="2.3297550156712532e-02" rms="3.2735335826873779e-01" purity="3.7752813100814819e-01" nType="-99"/>
            <Node pos="r" depth="3" NCoef="0" IVar="-1" Cut="0.0000000000000000e+00" cType="1" res="7.3686274699866772e-03" rms="2.8660598397254944e-01" purity="1.9343650341033936e-01" nType="-99"/>
          </Node>
        </Node>
      </Node>
    </BinaryTree>
    <BinaryTree type="DecisionTree" boostWeight="1.0000000000000000e+00" itree="579">
      <Node pos="s" depth="0" NCoef="0" IVar="7" Cut="4.0484187006950378e-01" cType="1" res="-1.1845953995361924e-03" rms="2.9730460047721863e-01" purity="4.9913176894187927e-01" nType="0">
        <Node pos="l" depth="1" NCoef="0" IVar="4" Cut="2.4185580444335938e+02" cType="1" res="-3.7198497448116541e-03" rms="2.9843705892562866e-01" purity="5.3349107503890991e-01" nType="0">
          <Node pos="l" depth="2" NCoef="0" IVar="4" Cut="1.7846817016601562e+02" cType="1" res="-7.2177932597696781e-03" rms="3.0799213051795959e-01" purity="2.7077439427375793e-01" nType="0">
            <Node pos="l" depth="3" NCoef="0" IVar="-1" Cut="0.0000000000000000e+00" cType="1" res="3.4943786449730396e-03" rms="2.7168691158294678e-01" purity="1.4753887057304382e-01" nType="-99"/>
            <Node pos="r" depth="3" NCoef="0" IVar="-1" Cut="0.0000000000000000e+00" cType="1" res="-1.7126874998211861e-02" rms="3.5294431447982788e-01" purity="4.4674864411354065e-01" nType="-99"/>
          </Node>
          <Node pos="r" depth="2" NCoef="0" IVar="2" Cut="2.1316746249794960e-02" cType="1" res="-1.3514517922885716e-04" rms="2.8827261924743652e-01" purity="8.0272400379180908e-01" nType="0">
            <Node pos="l" depth="3" NCoef="0" IVar="-1" Cut="0.0000000000000000e+00" cType="1" res="6.0293860733509064e-03" rms="3.4486177563667297e-01" purity="5.7421362400054932e-01" nType="-99"/>
            <Node pos="r" depth="3" NCoef="0" IVar="-1" Cut="0.0000000000000000e+00" cType="1" res="-3.3909932244569063e-03" rms="2.6796826720237732e-01" purity="8.7462204694747925e-01" nType="-99"/>
          </Node>
        </Node>
        <Node pos="r" depth="1" NCoef="0" IVar="3" Cut="6.4445770263671875e+02" cType="1" res="4.0244767442345619e-03" rms="2.9489576816558838e-01" purity="4.2853525280952454e-01" nType="0">
          <Node pos="l" depth="2" NCoef="0" IVar="3" Cut="2.6349346923828125e+02" cType="1" res="5.9794955886900425e-03" rms="2.9584595561027527e-01" purity="3.9583933353424072e-01" nType="0">
            <Node pos="l" depth="3" NCoef="0" IVar="-1" Cut="0.0000000000000000e+00" cType="1" res="2.9608726501464844e-02" rms="2.8856387734413147e-01" purity="1.7420469224452972e-01" nType="-99"/>
            <Node pos="r" depth="3" NCoef="0" IVar="-1" Cut="0.0000000000000000e+00" cType="1" res="1.9362822640687227e-03" rms="2.9749616980552673e-01" purity="4.5149627327919006e-01" nType="-99"/>
          </Node>
          <Node pos="r" depth="2" NCoef="0" IVar="-1" Cut="0.0000000000000000e+00" cType="1" res="-1.6071707010269165e-02" rms="2.8532734513282776e-01" purity="7.3083072900772095e-01" nType="-99"/>
        </Node>
      </Node>
    </BinaryTree>
    <BinaryTree type="DecisionTree" boostWeight="1.0000000000000000e+00" itree="580">
      <Node pos="s" depth="0" NCoef="0" IVar="10" Cut="6.6664516925811768e-01" cType="1" res="9.3398086028173566e-04" rms="2.9676508903503418e-01" purity="4.9618342518806458e-01" nType="0">
        <Node pos="l" depth="1" NCoef="0" IVar="8" Cut="-1.7332429885864258e+00" cType="1" res="-2.1930967923253775e-03" rms="2.9432210326194763e-01" purity="5.0670248270034790e-01" nType="0">
          <Node pos="l" depth="2" NCoef="0" IVar="-1" Cut="0.0000000000000000e+00" cType="1" res="2.4191405624151230e-02" rms="2.6884201169013977e-01" purity="1.5288063883781433e-01" nType="-99"/>
          <Node pos="r" depth="2" NCoef="0" IVar="1" Cut="1.7600855712890625e+03" cType="1" res="-3.3127313945442438e-03" rms="2.9578819870948792e-01" purity="5.2856594324111938e-01" nType="0">
            <Node pos="l" depth="3" NCoef="0" IVar="-1" Cut="0.0000000000000000e+00" cType="1" res="-5.5548418313264847e-03" rms="3.2529988884925842e-01" purity="3.3464443683624268e-01" nType="-99"/>
            <Node pos="r" depth="3" NCoef="0" IVar="-1" Cut="0.0000000000000000e+00" cType="1" res="4.4198357500135899e-03" rms="2.2411543130874634e-01" purity="9.2230165004730225e-01" nType="-99"/>
          </Node>
        </Node>
        <Node pos="r" depth="1" NCoef="0" IVar="6" Cut="9.9535217285156250e+01" cType="1" res="7.8926170244812965e-03" rms="3.0201435089111328e-01" purity="4.7277557849884033e-01" nType="0">
          <Node pos="l" depth="2" NCoef="0" IVar="6" Cut="8.7740272521972656e+01" cType="1" res="1.3594141229987144e-02" rms="3.0801489949226379e-01" purity="2.9402518272399902e-01" nType="0">
            <Node pos="l" depth="3" NCoef="0" IVar="-1" Cut="0.0000000000000000e+00" cType="1" res="1.1419963091611862e-02" rms="2.9745906591415405e-01" purity="2.5553426146507263e-01" nType="-99"/>
            <Node pos="r" depth="3" NCoef="0" IVar="-1" Cut="0.0000000000000000e+00" cType="1" res="2.8767939656972885e-02" rms="3.6205825209617615e-01" purity="5.1571995019912720e-01" nType="-99"/>
          </Node>
          <Node pos="r" depth="2" NCoef="0" IVar="2" Cut="4.2660389095544815e-02" cType="1" res="-1.5558408340439200e-03" rms="2.9155340790748596e-01" purity="7.6899737119674683e-01" nType="0">
            <Node pos="l" depth="3" NCoef="0" IVar="-1" Cut="0.0000000000000000e+00" cType="1" res="-1.0770068503916264e-02" rms="3.3102238178253174e-01" purity="5.6761860847473145e-01" nType="-99"/>
            <Node pos="r" depth="3" NCoef="0" IVar="-1" Cut="0.0000000000000000e+00" cType="1" res="5.0991955213248730e-03" rms="2.6879251003265381e-01" purity="8.7284529209136963e-01" nType="-99"/>
          </Node>
        </Node>
      </Node>
    </BinaryTree>
    <BinaryTree type="DecisionTree" boostWeight="1.0000000000000000e+00" itree="581">
      <Node pos="s" depth="0" NCoef="0" IVar="10" Cut="1.9999967813491821e+00" cType="1" res="-1.8923430470749736e-03" rms="2.9653862118721008e-01" purity="4.9526435136795044e-01" nType="0">
        <Node pos="l" depth="1" NCoef="0" IVar="9" Cut="1.4666460752487183e+00" cType="1" res="-9.5066375797614455e-04" rms="2.9678004980087280e-01" purity="5.0629335641860962e-01" nType="0">
          <Node pos="l" depth="2" NCoef="0" IVar="8" Cut="-9.3331074714660645e-01" cType="1" res="-2.2455493453890085e-03" rms="2.9523959755897522e-01" purity="5.2630925178527832e-01" nType="0">
            <Node pos="l" depth="3" NCoef="0" IVar="-1" Cut="0.0000000000000000e+00" cType="1" res="6.5995799377560616e-03" rms="3.0321702361106873e-01" purity="3.6998265981674194e-01" nType="-99"/>
            <Node pos="r" depth="3" NCoef="0" IVar="-1" Cut="0.0000000000000000e+00" cType="1" res="-4.7871591523289680e-03" rms="2.9330748319625854e-01" purity="5.6291055679321289e-01" nType="-99"/>
          </Node>
          <Node pos="r" depth="2" NCoef="0" IVar="9" Cut="2.1015708446502686e+00" cType="1" res="1.0977376252412796e-02" rms="3.1035694479942322e-01" purity="3.2191389799118042e-01" nType="0">
            <Node pos="l" depth="3" NCoef="0" IVar="-1" Cut="0.0000000000000000e+00" cType="1" res="2.1077834069728851e-02" rms="3.2570222020149231e-01" purity="3.8392031192779541e-01" nType="-99"/>
            <Node pos="r" depth="3" NCoef="0" IVar="-1" Cut="0.0000000000000000e+00" cType="1" res="-1.3232653960585594e-02" rms="2.7097398042678833e-01" purity="1.8053519725799561e-01" nType="-99"/>
          </Node>
        </Node>
        <Node pos="r" depth="1" NCoef="0" IVar="10" Cut="2.3047761917114258e+00" cType="1" res="-1.9577085971832275e-02" rms="2.9140290617942810e-01" purity="2.8813952207565308e-01" nType="0">
          <Node pos="l" depth="2" NCoef="0" IVar="-1" Cut="0.0000000000000000e+00" cType="1" res="-2.1807769313454628e-02" rms="2.9505634307861328e-01" purity="3.3630049228668213e-01" nType="-99"/>
          <Node pos="r" depth="2" NCoef="0" IVar="-1" Cut="0.0000000000000000e+00" cType="1" res="-2.1614994853734970e-02" rms="2.8773823380470276e-01" purity="2.4046573042869568e-01" nType="-99"/>
        </Node>
      </Node>
    </BinaryTree>
    <BinaryTree type="DecisionTree" boostWeight="1.0000000000000000e+00" itree="582">
      <Node pos="s" depth="0" NCoef="0" IVar="9" Cut="1.7333195209503174e+00" cType="1" res="1.5566443325951695e-03" rms="2.9699704051017761e-01" purity="4.9902471899986267e-01" nType="0">
        <Node pos="l" depth="1" NCoef="0" IVar="9" Cut="-1.2888952493667603e+00" cType="1" res="2.7902072761207819e-03" rms="2.9902106523513794e-01" purity="5.1692956686019897e-01" nType="0">
          <Node pos="l" depth="2" NCoef="0" IVar="9" Cut="-1.6486998796463013e+00" cType="1" res="-8.0128544941544533e-03" rms="2.9742985963821411e-01" purity="3.1103649735450745e-01" nType="0">
            <Node pos="l" depth="3" NCoef="0" IVar="-1" Cut="0.0000000000000000e+00" cType="1" res="3.2313022529706359e-04" rms="2.9267349839210510e-01" purity="2.7436405420303345e-01" nType="-99"/>
            <Node pos="r" depth="3" NCoef="0" IVar="-1" Cut="0.0000000000000000e+00" cType="1" res="-2.1856758743524551e-02" rms="3.0408164858818054e-01" purity="3.6674821376800537e-01" nType="-99"/>
          </Node>
          <Node pos="r" depth="2" NCoef="0" IVar="8" Cut="-1.2000037431716919e+00" cType="1" res="4.5064669102430344e-03" rms="2.9923716187477112e-01" purity="5.4963940382003784e-01" nType="0">
            <Node pos="l" depth="3" NCoef="0" IVar="-1" Cut="0.0000000000000000e+00" cType="1" res="1.8907256424427032e-02" rms="3.0948927998542786e-01" purity="3.3469134569168091e-01" nType="-99"/>
            <Node pos="r" depth="3" NCoef="0" IVar="-1" Cut="0.0000000000000000e+00" cType="1" res="3.1706527806818485e-03" rms="2.9775956273078918e-01" purity="5.7920718193054199e-01" nType="-99"/>
          </Node>
        </Node>
        <Node pos="r" depth="1" NCoef="0" IVar="10" Cut="6.6706377267837524e-01" cType="1" res="-1.5732722356915474e-02" rms="2.6641896367073059e-01" purity="2.4807336926460266e-01" nType="0">
          <Node pos="l" depth="2" NCoef="0" IVar="-1" Cut="0.0000000000000000e+00" cType="1" res="-3.2709904015064240e-02" rms="2.6552453637123108e-01" purity="2.7128615975379944e-01" nType="-99"/>
          <Node pos="r" depth="2" NCoef="0" IVar="-1" Cut="0.0000000000000000e+00" cType="1" res="6.5844929777085781e-03" rms="2.6652070879936218e-01" purity="2.1161326766014099e-01" nType="-99"/>
        </Node>
      </Node>
    </BinaryTree>
    <BinaryTree type="DecisionTree" boostWeight="1.0000000000000000e+00" itree="583">
      <Node pos="s" depth="0" NCoef="0" IVar="10" Cut="4.0001407265663147e-01" cType="1" res="-1.8241463112644851e-04" rms="2.9706487059593201e-01" purity="4.9861130118370056e-01" nType="0">
        <Node pos="l" depth="1" NCoef="0" IVar="6" Cut="8.1792259216308594e+01" cType="1" res="2.6131230406463146e-03" rms="2.9955789446830750e-01" purity="5.0953763723373413e-01" nType="0">
          <Node pos="l" depth="2" NCoef="0" IVar="4" Cut="1.3206176757812500e+02" cType="1" res="8.0108661204576492e-03" rms="2.9973939061164856e-01" purity="2.4431687593460083e-01" nType="0">
            <Node pos="l" depth="3" NCoef="0" IVar="-1" Cut="0.0000000000000000e+00" cType="1" res="-1.3844002969563007e-02" rms="1.8291579186916351e-01" purity="4.2211476713418961e-02" nType="-99"/>
            <Node pos="r" depth="3" NCoef="0" IVar="-1" Cut="0.0000000000000000e+00" cType="1" res="1.2354523874819279e-02" rms="3.3604159951210022e-01" purity="3.2741123437881470e-01" nType="-99"/>
          </Node>
          <Node pos="r" depth="2" NCoef="0" IVar="1" Cut="1.3955253906250000e+03" cType="1" res="-1.5763298142701387e-03" rms="2.9934984445571899e-01" purity="7.1538847684860229e-01" nType="0">
            <Node pos="l" depth="3" NCoef="0" IVar="-1" Cut="0.0000000000000000e+00" cType="1" res="-1.2126638554036617e-02" rms="3.6987102031707764e-01" purity="2.7297982573509216e-01" nType="-99"/>
            <Node pos="r" depth="3" NCoef="0" IVar="-1" Cut="0.0000000000000000e+00" cType="1" res="5.2810693159699440e-03" rms="2.6980105042457581e-01" purity="8.7199091911315918e-01" nType="-99"/>
          </Node>
        </Node>
        <Node pos="r" depth="1" NCoef="0" IVar="8" Cut="4.0009421110153198e-01" cType="1" res="-4.7370302490890026e-03" rms="2.9290053248405457e-01" purity="4.8080962896347046e-01" nType="0">
          <Node pos="l" depth="2" NCoef="0" IVar="10" Cut="7.4289321899414062e-01" cType="1" res="9.5144707302097231e-05" rms="2.9741108417510986e-01" purity="5.3840655088424683e-01" nType="0">
            <Node pos="l" depth="3" NCoef="0" IVar="-1" Cut="0.0000000000000000e+00" cType="1" res="-1.6733864322304726e-02" rms="2.6892384886741638e-01" purity="5.8028286695480347e-01" nType="-99"/>
            <Node pos="r" depth="3" NCoef="0" IVar="-1" Cut="0.0000000000000000e+00" cType="1" res="5.4644639603793621e-03" rms="3.0692854523658752e-01" purity="5.2323234081268311e-01" nType="-99"/>
          </Node>
          <Node pos="r" depth="2" NCoef="0" IVar="9" Cut="9.3347263336181641e-01" cType="1" res="-1.2317009270191193e-02" rms="2.8551694750785828e-01" purity="3.9046037197113037e-01" nType="0">
            <Node pos="l" depth="3" NCoef="0" IVar="-1" Cut="0.0000000000000000e+00" cType="1" res="-8.4681799635291100e-03" rms="2.9333427548408508e-01" purity="4.5242619514465332e-01" nType="-99"/>
            <Node pos="r" depth="3" NCoef="0" IVar="-1" Cut="0.0000000000000000e+00" cType="1" res="-3.2999690622091293e-02" rms="2.6321688294410706e-01" purity="2.2623163461685181e-01" nType="-99"/>
          </Node>
        </Node>
      </Node>
    </BinaryTree>
    <BinaryTree type="DecisionTree" boostWeight="1.0000000000000000e+00" itree="584">
      <Node pos="s" depth="0" NCoef="0" IVar="8" Cut="3.9993080496788025e-01" cType="1" res="2.0622981246560812e-03" rms="2.9710972309112549e-01" purity="5.0051748752593994e-01" nType="0">
        <Node pos="l" depth="1" NCoef="0" IVar="7" Cut="-3.9339324831962585e-01" cType="1" res="-1.3676861999556422e-03" rms="2.9344505071640015e-01" purity="5.2622586488723755e-01" nType="0">
          <Node pos="l" depth="2" NCoef="0" IVar="9" Cut="9.3327552080154419e-01" cType="1" res="6.0240519233047962e-03" rms="2.9954111576080322e-01" purity="4.5040142536163330e-01" nType="0">
            <Node pos="l" depth="3" NCoef="0" IVar="-1" Cut="0.0000000000000000e+00" cType="1" res="1.3434551656246185e-03" rms="2.8932151198387146e-01" purity="4.6523430943489075e-01" nType="-99"/>
            <Node pos="r" depth="3" NCoef="0" IVar="-1" Cut="0.0000000000000000e+00" cType="1" res="2.8796760365366936e-02" rms="3.4248679876327515e-01" purity="3.8087457418441772e-01" nType="-99"/>
          </Node>
          <Node pos="r" depth="2" NCoef="0" IVar="2" Cut="1.0658285021781921e-01" cType="1" res="-5.1462352275848389e-03" rms="2.9020667076110840e-01" purity="5.6498622894287109e-01" nType="0">
            <Node pos="l" depth="3" NCoef="0" IVar="-1" Cut="0.0000000000000000e+00" cType="1" res="-9.2065464705228806e-03" rms="2.9865345358848572e-01" purity="4.8302280902862549e-01" nType="-99"/>
            <Node pos="r" depth="3" NCoef="0" IVar="-1" Cut="0.0000000000000000e+00" cType="1" res="8.3030108362436295e-03" rms="2.5921860337257385e-01" purity="8.4286969900131226e-01" nType="-99"/>
          </Node>
        </Node>
        <Node pos="r" depth="1" NCoef="0" IVar="8" Cut="5.1421785354614258e-01" cType="1" res="8.3801839500665665e-03" rms="3.0364283919334412e-01" purity="4.5316374301910400e-01" nType="0">
          <Node pos="l" depth="2" NCoef="0" IVar="-1" Cut="0.0000000000000000e+00" cType="1" res="3.2761938869953156e-02" rms="3.0628454685211182e-01" purity="6.2745189666748047e-01" nType="-99"/>
          <Node pos="r" depth="2" NCoef="0" IVar="4" Cut="2.8213482666015625e+02" cType="1" res="5.5080996826291084e-03" rms="3.0316868424415588e-01" purity="4.2950806021690369e-01" nType="0">
            <Node pos="l" depth="3" NCoef="0" IVar="-1" Cut="0.0000000000000000e+00" cType="1" res="1.0872765444219112e-02" rms="3.0546984076499939e-01" purity="2.9961797595024109e-01" nType="-99"/>
            <Node pos="r" depth="3" NCoef="0" IVar="-1" Cut="0.0000000000000000e+00" cType="1" res="-6.6235228441655636e-03" rms="2.9694563150405884e-01" purity="7.5966340303421021e-01" nType="-99"/>
          </Node>
        </Node>
      </Node>
    </BinaryTree>
    <BinaryTree type="DecisionTree" boostWeight="1.0000000000000000e+00" itree="585">
      <Node pos="s" depth="0" NCoef="0" IVar="4" Cut="2.4026669311523438e+02" cType="1" res="1.9434769637882710e-03" rms="2.9801252484321594e-01" purity="4.9888935685157776e-01" nType="0">
        <Node pos="l" depth="1" NCoef="0" IVar="7" Cut="6.7089605331420898e-01" cType="1" res="5.5788508616387844e-03" rms="3.0377349257469177e-01" purity="2.5472819805145264e-01" nType="0">
          <Node pos="l" depth="2" NCoef="0" IVar="4" Cut="2.2231149291992188e+02" cType="1" res="9.5204459503293037e-03" rms="3.1816163659095764e-01" purity="2.9038393497467041e-01" nType="0">
            <Node pos="l" depth="3" NCoef="0" IVar="-1" Cut="0.0000000000000000e+00" cType="1" res="1.2588636949658394e-02" rms="3.1330552697181702e-01" purity="2.5335952639579773e-01" nType="-99"/>
            <Node pos="r" depth="3" NCoef="0" IVar="-1" Cut="0.0000000000000000e+00" cType="1" res="-8.0317454412579536e-03" rms="3.5130822658538818e-01" purity="5.6347548961639404e-01" nType="-99"/>
          </Node>
          <Node pos="r" depth="2" NCoef="0" IVar="0" Cut="3.9366943359375000e+02" cType="1" res="-5.1612318493425846e-03" rms="2.6026481389999390e-01" purity="1.5757323801517487e-01" nType="0">
            <Node pos="l" depth="3" NCoef="0" IVar="-1" Cut="0.0000000000000000e+00" cType="1" res="7.0238234475255013e-03" rms="2.1875450015068054e-01" purity="6.8176060914993286e-02" nType="-99"/>
            <Node pos="r" depth="3" NCoef="0" IVar="-1" Cut="0.0000000000000000e+00" cType="1" res="-1.5363761223852634e-02" rms="3.0393013358116150e-01" purity="2.6923158764839172e-01" nType="-99"/>
          </Node>
        </Node>
        <Node pos="r" depth="1" NCoef="0" IVar="10" Cut="6.6664516925811768e-01" cType="1" res="-2.1460228599607944e-03" rms="2.9134157299995422e-01" purity="7.7355074882507324e-01" nType="0">
          <Node pos="l" depth="2" NCoef="0" IVar="9" Cut="-9.3333691358566284e-01" cType="1" res="6.8890448892489076e-04" rms="2.8804239630699158e-01" purity="7.8561735153198242e-01" nType="0">
            <Node pos="l" depth="3" NCoef="0" IVar="-1" Cut="0.0000000000000000e+00" cType="1" res="1.2935456819832325e-02" rms="3.2488119602203369e-01" purity="6.8979007005691528e-01" nType="-99"/>
            <Node pos="r" depth="3" NCoef="0" IVar="-1" Cut="0.0000000000000000e+00" cType="1" res="-2.6089588645845652e-03" rms="2.7931433916091919e-01" purity="8.0645382404327393e-01" nType="-99"/>
          </Node>
          <Node pos="r" depth="2" NCoef="0" IVar="0" Cut="5.4463037109375000e+02" cType="1" res="-9.1888075694441795e-03" rms="2.9926410317420959e-01" purity="7.4357366561889648e-01" nType="0">
            <Node pos="l" depth="3" NCoef="0" IVar="-1" Cut="0.0000000000000000e+00" cType="1" res="-1.4437085017561913e-02" rms="3.5681170225143433e-01" purity="5.5209165811538696e-01" nType="-99"/>
            <Node pos="r" depth="3" NCoef="0" IVar="-1" Cut="0.0000000000000000e+00" cType="1" res="-6.4045173348858953e-04" rms="2.3330855369567871e-01" purity="9.2089390754699707e-01" nType="-99"/>
          </Node>
        </Node>
      </Node>
    </BinaryTree>
    <BinaryTree type="DecisionTree" boostWeight="1.0000000000000000e+00" itree="586">
      <Node pos="s" depth="0" NCoef="0" IVar="10" Cut="9.3334180116653442e-01" cType="1" res="-1.2380492407828569e-03" rms="2.9642322659492493e-01" purity="4.9913898110389709e-01" nType="0">
        <Node pos="l" depth="1" NCoef="0" IVar="9" Cut="-2.0000019073486328e+00" cType="1" res="8.3311722846701741e-04" rms="2.9564583301544189e-01" purity="5.1856517791748047e-01" nType="0">
          <Node pos="l" depth="2" NCoef="0" IVar="-1" Cut="0.0000000000000000e+00" cType="1" res="-2.6475245133042336e-02" rms="2.5963327288627625e-01" purity="1.9205732643604279e-01" nType="-99"/>
          <Node pos="r" depth="2" NCoef="0" IVar="0" Cut="6.0599041748046875e+02" cType="1" res="1.6905517550185323e-03" rms="2.9702275991439819e-01" purity="5.3218936920166016e-01" nType="0">
            <Node pos="l" depth="3" NCoef="0" IVar="-1" Cut="0.0000000000000000e+00" cType="1" res="4.2319893836975098e-03" rms="3.1815659999847412e-01" purity="3.8171601295471191e-01" nType="-99"/>
            <Node pos="r" depth="3" NCoef="0" IVar="-1" Cut="0.0000000000000000e+00" cType="1" res="-9.2095136642456055e-03" rms="2.3663158714771271e-01" purity="9.0447276830673218e-01" nType="-99"/>
          </Node>
        </Node>
        <Node pos="r" depth="1" NCoef="0" IVar="10" Cut="2.2666606903076172e+00" cType="1" res="-8.0485269427299500e-03" rms="2.9886403679847717e-01" purity="4.3526121973991394e-01" nType="0">
          <Node pos="l" depth="2" NCoef="0" IVar="1" Cut="1.1001789550781250e+03" cType="1" res="-1.1327051557600498e-02" rms="2.9785993695259094e-01" purity="4.5443201065063477e-01" nType="0">
            <Node pos="l" depth="3" NCoef="0" IVar="-1" Cut="0.0000000000000000e+00" cType="1" res="7.9197768354788423e-04" rms="2.1848367154598236e-01" purity="5.3941573947668076e-02" nType="-99"/>
            <Node pos="r" depth="3" NCoef="0" IVar="-1" Cut="0.0000000000000000e+00" cType="1" res="-1.4766697771847248e-02" rms="3.2258212566375732e-01" purity="6.0500472784042358e-01" nType="-99"/>
          </Node>
          <Node pos="r" depth="2" NCoef="0" IVar="-1" Cut="0.0000000000000000e+00" cType="1" res="1.5623695217072964e-02" rms="3.0466684699058533e-01" purity="3.0498841404914856e-01" nType="-99"/>
        </Node>
      </Node>
    </BinaryTree>
    <BinaryTree type="DecisionTree" boostWeight="1.0000000000000000e+00" itree="587">
      <Node pos="s" depth="0" NCoef="0" IVar="9" Cut="-9.3335080146789551e-01" cType="1" res="-1.2703031825367361e-04" rms="2.9430863261222839e-01" purity="5.0236529111862183e-01" nType="0">
        <Node pos="l" depth="1" NCoef="0" IVar="7" Cut="-9.2589730024337769e-01" cType="1" res="9.2384200543165207e-03" rms="3.0404362082481384e-01" purity="3.9697730541229248e-01" nType="0">
          <Node pos="l" depth="2" NCoef="0" IVar="-1" Cut="0.0000000000000000e+00" cType="1" res="-1.5188382938504219e-02" rms="2.4361926317214966e-01" purity="1.5125390887260437e-01" nType="-99"/>
          <Node pos="r" depth="2" NCoef="0" IVar="9" Cut="-1.3777858018875122e+00" cType="1" res="1.4068795368075371e-02" rms="3.1723660230636597e-01" purity="4.5870307087898254e-01" nType="0">
            <Node pos="l" depth="3" NCoef="0" IVar="-1" Cut="0.0000000000000000e+00" cType="1" res="3.3028030302375555e-03" rms="3.1177690625190735e-01" purity="3.5971134901046753e-01" nType="-99"/>
            <Node pos="r" depth="3" NCoef="0" IVar="-1" Cut="0.0000000000000000e+00" cType="1" res="2.6344355195760727e-02" rms="3.2265540957450867e-01" purity="5.6638693809509277e-01" nType="-99"/>
          </Node>
        </Node>
        <Node pos="r" depth="1" NCoef="0" IVar="3" Cut="5.0379714965820312e+02" cType="1" res="-2.6323387864977121e-03" rms="2.9159837961196899e-01" purity="5.3055715560913086e-01" nType="0">
          <Node pos="l" depth="2" NCoef="0" IVar="9" Cut="2.0888044834136963e+00" cType="1" res="-5.8323307894170284e-03" rms="2.9593655467033386e-01" purity="4.3089580535888672e-01" nType="0">
            <Node pos="l" depth="3" NCoef="0" IVar="-1" Cut="0.0000000000000000e+00" cType="1" res="-8.0686900764703751e-03" rms="2.9662492871284485e-01" purity="4.4473996758460999e-01" nType="-99"/>
            <Node pos="r" depth="3" NCoef="0" IVar="-1" Cut="0.0000000000000000e+00" cType="1" res="3.4022502601146698e-02" rms="2.8128623962402344e-01" purity="1.7301170527935028e-01" nType="-99"/>
          </Node>
          <Node pos="r" depth="2" NCoef="0" IVar="2" Cut="5.6838776916265488e-02" cType="1" res="4.9274335615336895e-03" rms="2.8093928098678589e-01" purity="7.6600039005279541e-01" nType="0">
            <Node pos="l" depth="3" NCoef="0" IVar="-1" Cut="0.0000000000000000e+00" cType="1" res="1.0465369559824467e-02" rms="3.1743407249450684e-01" purity="6.6464531421661377e-01" nType="-99"/>
            <Node pos="r" depth="3" NCoef="0" IVar="-1" Cut="0.0000000000000000e+00" cType="1" res="-1.4073406346142292e-02" rms="2.0207767188549042e-01" purity="9.4201499223709106e-01" nType="-99"/>
          </Node>
        </Node>
      </Node>
    </BinaryTree>
    <BinaryTree type="DecisionTree" boostWeight="1.0000000000000000e+00" itree="588">
      <Node pos="s" depth="0" NCoef="0" IVar="1" Cut="1.1148148193359375e+03" cType="1" res="-5.0836213631555438e-04" rms="2.9534864425659180e-01" purity="4.9653086066246033e-01" nType="0">
        <Node pos="l" depth="1" NCoef="0" IVar="8" Cut="1.3286341726779938e-01" cType="1" res="-6.9354460574686527e-03" rms="2.0758454501628876e-01" purity="5.2519153803586960e-02" nType="0">
          <Node pos="l" depth="2" NCoef="0" IVar="4" Cut="1.6746749877929688e+02" cType="1" res="-1.4113759621977806e-02" rms="1.9331891834735870e-01" purity="4.5487891882658005e-02" nType="0">
            <Node pos="l" depth="3" NCoef="0" IVar="-1" Cut="0.0000000000000000e+00" cType="1" res="-2.1634219214320183e-02" rms="1.7582561075687408e-01" purity="3.6053288727998734e-02" nType="-99"/>
            <Node pos="r" depth="3" NCoef="0" IVar="-1" Cut="0.0000000000000000e+00" cType="1" res="-3.6919988691806793e-02" rms="2.3089309036731720e-01" purity="6.9202654063701630e-02" nType="-99"/>
          </Node>
          <Node pos="r" depth="2" NCoef="0" IVar="10" Cut="-3.9983597397804260e-01" cType="1" res="1.2899073772132397e-03" rms="2.2252638638019562e-01" purity="6.0576014220714569e-02" nType="0">
            <Node pos="l" depth="3" NCoef="0" IVar="-1" Cut="0.0000000000000000e+00" cType="1" res="3.5314653068780899e-02" rms="2.6723444461822510e-01" purity="8.8464729487895966e-02" nType="-99"/>
            <Node pos="r" depth="3" NCoef="0" IVar="-1" Cut="0.0000000000000000e+00" cType="1" res="-1.8407939001917839e-02" rms="1.9457522034645081e-01" purity="4.6084228903055191e-02" nType="-99"/>
          </Node>
        </Node>
        <Node pos="r" depth="1" NCoef="0" IVar="10" Cut="1.7333118915557861e+00" cType="1" res="1.8434895901009440e-03" rms="3.2149970531463623e-01" purity="6.5900731086730957e-01" nType="0">
          <Node pos="l" depth="2" NCoef="0" IVar="3" Cut="5.0380734252929688e+02" cType="1" res="-2.0746025256812572e-04" rms="3.1849545240402222e-01" purity="6.6779994964599609e-01" nType="0">
            <Node pos="l" depth="3" NCoef="0" IVar="-1" Cut="0.0000000000000000e+00" cType="1" res="2.9342980124056339e-03" rms="3.3843493461608887e-01" purity="6.2362360954284668e-01" nType="-99"/>
            <Node pos="r" depth="3" NCoef="0" IVar="-1" Cut="0.0000000000000000e+00" cType="1" res="-7.3711951263248920e-03" rms="2.8289371728897095e-01" purity="7.3982429504394531e-01" nType="-99"/>
          </Node>
          <Node pos="r" depth="2" NCoef="0" IVar="0" Cut="5.2279956054687500e+02" cType="1" res="2.6029253378510475e-02" rms="3.5412010550498962e-01" purity="5.5532097816467285e-01" nType="0">
            <Node pos="l" depth="3" NCoef="0" IVar="-1" Cut="0.0000000000000000e+00" cType="1" res="2.9969653114676476e-02" rms="3.8008594512939453e-01" purity="3.8435515761375427e-01" nType="-99"/>
            <Node pos="r" depth="3" NCoef="0" IVar="-1" Cut="0.0000000000000000e+00" cType="1" res="5.4409266449511051e-03" rms="3.1691989302635193e-01" purity="7.7253186702728271e-01" nType="-99"/>
          </Node>
        </Node>
      </Node>
    </BinaryTree>
    <BinaryTree type="DecisionTree" boostWeight="1.0000000000000000e+00" itree="589">
      <Node pos="s" depth="0" NCoef="0" IVar="7" Cut="6.7066037654876709e-01" cType="1" res="-1.0894726437982172e-04" rms="2.9626318812370300e-01" purity="4.9696025252342224e-01" nType="0">
        <Node pos="l" depth="1" NCoef="0" IVar="6" Cut="1.3653933715820312e+02" cType="1" res="-3.0308605637401342e-03" rms="2.9732796549797058e-01" purity="5.3955262899398804e-01" nType="0">
          <Node pos="l" depth="2" NCoef="0" IVar="9" Cut="-1.1999231576919556e+00" cType="1" res="-6.2126405537128448e-03" rms="3.1644323468208313e-01" purity="4.0691369771957397e-01" nType="0">
            <Node pos="l" depth="3" NCoef="0" IVar="-1" Cut="0.0000000000000000e+00" cType="1" res="5.4129445925354958e-03" rms="3.1523814797401428e-01" purity="2.9268816113471985e-01" nType="-99"/>
            <Node pos="r" depth="3" NCoef="0" IVar="-1" Cut="0.0000000000000000e+00" cType="1" res="-8.3616664633154869e-03" rms="3.1664258241653442e-01" purity="4.3082204461097717e-01" nType="-99"/>
          </Node>
          <Node pos="r" depth="2" NCoef="0" IVar="2" Cut="6.0431130230426788e-02" cType="1" res="5.9015192091464996e-03" rms="2.3528435826301575e-01" purity="9.1191709041595459e-01" nType="0">
            <Node pos="l" depth="3" NCoef="0" IVar="-1" Cut="0.0000000000000000e+00" cType="1" res="1.8909282982349396e-02" rms="2.8366884589195251e-01" purity="8.5201823711395264e-01" nType="-99"/>
            <Node pos="r" depth="3" NCoef="0" IVar="-1" Cut="0.0000000000000000e+00" cType="1" res="-8.4924226393923163e-04" rms="1.9843675196170807e-01" purity="9.4980263710021973e-01" nType="-99"/>
          </Node>
        </Node>
        <Node pos="r" depth="1" NCoef="0" IVar="1" Cut="1.2802490234375000e+03" cType="1" res="9.5981238409876823e-03" rms="2.9248845577239990e-01" purity="3.5546138882637024e-01" nType="0">
          <Node pos="l" depth="2" NCoef="0" IVar="2" Cut="1.6397168859839439e-02" cType="1" res="3.0712797306478024e-03" rms="2.4350824952125549e-01" purity="8.0744668841362000e-02" nType="0">
            <Node pos="l" depth="3" NCoef="0" IVar="-1" Cut="0.0000000000000000e+00" cType="1" res="-3.6347366869449615e-02" rms="1.3555994629859924e-01" purity="2.0421821624040604e-02" nType="-99"/>
            <Node pos="r" depth="3" NCoef="0" IVar="-1" Cut="0.0000000000000000e+00" cType="1" res="1.9823158159852028e-02" rms="3.2888612151145935e-01" purity="1.5344166755676270e-01" nType="-99"/>
          </Node>
          <Node pos="r" depth="2" NCoef="0" IVar="1" Cut="1.4975076904296875e+03" cType="1" res="1.6568718478083611e-02" rms="3.3688804507255554e-01" purity="6.4885568618774414e-01" nType="0">
            <Node pos="l" depth="3" NCoef="0" IVar="-1" Cut="0.0000000000000000e+00" cType="1" res="2.4122321978211403e-02" rms="3.9152821898460388e-01" purity="4.0066239237785339e-01" nType="-99"/>
            <Node pos="r" depth="3" NCoef="0" IVar="-1" Cut="0.0000000000000000e+00" cType="1" res="7.2852419689297676e-03" rms="3.0649051070213318e-01" purity="7.6909822225570679e-01" nType="-99"/>
          </Node>
        </Node>
      </Node>
    </BinaryTree>
    <BinaryTree type="DecisionTree" boostWeight="1.0000000000000000e+00" itree="590">
      <Node pos="s" depth="0" NCoef="0" IVar="8" Cut="6.6671174764633179e-01" cType="1" res="-1.2039194116368890e-03" rms="2.9459667205810547e-01" purity="4.9530714750289917e-01" nType="0">
        <Node pos="l" depth="1" NCoef="0" IVar="8" Cut="-9.8402863740921021e-01" cType="1" res="1.8094729166477919e-03" rms="2.9582986235618591e-01" purity="5.3507536649703979e-01" nType="0">
          <Node pos="l" depth="2" NCoef="0" IVar="9" Cut="-6.6675174236297607e-01" cType="1" res="-7.9283108934760094e-03" rms="2.8705048561096191e-01" purity="3.2022562623023987e-01" nType="0">
            <Node pos="l" depth="3" NCoef="0" IVar="-1" Cut="0.0000000000000000e+00" cType="1" res="8.7352106347680092e-03" rms="2.9619342088699341e-01" purity="2.6281645894050598e-01" nType="-99"/>
            <Node pos="r" depth="3" NCoef="0" IVar="-1" Cut="0.0000000000000000e+00" cType="1" res="-1.8361279740929604e-02" rms="2.8155723214149475e-01" purity="3.5175120830535889e-01" nType="-99"/>
          </Node>
          <Node pos="r" depth="2" NCoef="0" IVar="1" Cut="1.7003892822265625e+03" cType="1" res="4.8287105746567249e-03" rms="2.9843497276306152e-01" purity="6.0169035196304321e-01" nType="0">
            <Node pos="l" depth="3" NCoef="0" IVar="-1" Cut="0.0000000000000000e+00" cType="1" res="7.5088939629495144e-03" rms="3.4143981337547302e-01" purity="3.8054531812667847e-01" nType="-99"/>
            <Node pos="r" depth="3" NCoef="0" IVar="-1" Cut="0.0000000000000000e+00" cType="1" res="-2.0696679130196571e-03" rms="2.2031855583190918e-01" purity="9.2689108848571777e-01" nType="-99"/>
          </Node>
        </Node>
        <Node pos="r" depth="1" NCoef="0" IVar="9" Cut="1.1999297142028809e+00" cType="1" res="-9.9509209394454956e-03" rms="2.9081067442893982e-01" purity="3.7987160682678223e-01" nType="0">
          <Node pos="l" depth="2" NCoef="0" IVar="9" Cut="-1.3340313732624054e-01" cType="1" res="-6.1069745570421219e-03" rms="2.9741790890693665e-01" purity="4.1938892006874084e-01" nType="0">
            <Node pos="l" depth="3" NCoef="0" IVar="-1" Cut="0.0000000000000000e+00" cType="1" res="-2.1982224658131599e-02" rms="2.8669878840446472e-01" purity="3.8891503214836121e-01" nType="-99"/>
            <Node pos="r" depth="3" NCoef="0" IVar="-1" Cut="0.0000000000000000e+00" cType="1" res="7.5590270571410656e-03" rms="3.0670878291130066e-01" purity="4.4838365912437439e-01" nType="-99"/>
          </Node>
          <Node pos="r" depth="2" NCoef="0" IVar="-1" Cut="0.0000000000000000e+00" cType="1" res="-3.3705245703458786e-02" rms="2.5963559746742249e-01" purity="2.0885610580444336e-01" nType="-99"/>
        </Node>
      </Node>
    </BinaryTree>
    <BinaryTree type="DecisionTree" boostWeight="1.0000000000000000e+00" itree="591">
      <Node pos="s" depth="0" NCoef="0" IVar="8" Cut="-9.3326526880264282e-01" cType="1" res="3.2354935538023710e-03" rms="3.0121469497680664e-01" purity="4.9851697683334351e-01" nType="0">
        <Node pos="l" depth="1" NCoef="0" IVar="4" Cut="3.0821060180664062e+02" cType="1" res="1.1676077730953693e-02" rms="3.1281542778015137e-01" purity="3.4643808007240295e-01" nType="0">
          <Node pos="l" depth="2" NCoef="0" IVar="4" Cut="1.6199034118652344e+02" cType="1" res="1.6046339645981789e-02" rms="3.1297200918197632e-01" purity="2.7049338817596436e-01" nType="0">
            <Node pos="l" depth="3" NCoef="0" IVar="-1" Cut="0.0000000000000000e+00" cType="1" res="4.7367867082357407e-02" rms="2.6570495963096619e-01" purity="1.0702666640281677e-01" nType="-99"/>
            <Node pos="r" depth="3" NCoef="0" IVar="-1" Cut="0.0000000000000000e+00" cType="1" res="8.7145036086440086e-03" rms="3.4295025467872620e-01" purity="3.8858157396316528e-01" nType="-99"/>
          </Node>
          <Node pos="r" depth="2" NCoef="0" IVar="-1" Cut="0.0000000000000000e+00" cType="1" res="-9.5343692228198051e-03" rms="3.1124082207679749e-01" purity="7.0605903863906860e-01" nType="-99"/>
        </Node>
        <Node pos="r" depth="1" NCoef="0" IVar="8" Cut="1.2000124454498291e+00" cType="1" res="1.2830068590119481e-03" rms="2.9843300580978394e-01" purity="5.3369605541229248e-01" nType="0">
          <Node pos="l" depth="2" NCoef="0" IVar="9" Cut="1.7330527305603027e+00" cType="1" res="-3.9414106868207455e-04" rms="2.9803338646888733e-01" purity="5.8370006084442139e-01" nType="0">
            <Node pos="l" depth="3" NCoef="0" IVar="-1" Cut="0.0000000000000000e+00" cType="1" res="-1.6323942691087723e-03" rms="2.9692009091377258e-01" purity="5.9914803504943848e-01" nType="-99"/>
            <Node pos="r" depth="3" NCoef="0" IVar="-1" Cut="0.0000000000000000e+00" cType="1" res="1.6523031517863274e-02" rms="3.1434905529022217e-01" purity="3.4387710690498352e-01" nType="-99"/>
          </Node>
          <Node pos="r" depth="2" NCoef="0" IVar="9" Cut="-6.6666662693023682e-01" cType="1" res="1.0195078328251839e-02" rms="3.0039042234420776e-01" purity="2.6798355579376221e-01" nType="0">
            <Node pos="l" depth="3" NCoef="0" IVar="-1" Cut="0.0000000000000000e+00" cType="1" res="3.4552410244941711e-02" rms="3.1174185872077942e-01" purity="2.5782525539398193e-01" nType="-99"/>
            <Node pos="r" depth="3" NCoef="0" IVar="-1" Cut="0.0000000000000000e+00" cType="1" res="3.8823324721306562e-03" rms="2.9577979445457458e-01" purity="2.7174049615859985e-01" nType="-99"/>
          </Node>
        </Node>
      </Node>
    </BinaryTree>
    <BinaryTree type="DecisionTree" boostWeight="1.0000000000000000e+00" itree="592">
      <Node pos="s" depth="0" NCoef="0" IVar="10" Cut="1.7333375215530396e+00" cType="1" res="-5.3000979823991656e-04" rms="2.9393157362937927e-01" purity="5.0027889013290405e-01" nType="0">
        <Node pos="l" depth="1" NCoef="0" IVar="10" Cut="8.6984741687774658e-01" cType="1" res="7.3934043757617474e-04" rms="2.9433220624923706e-01" purity="5.1359373331069946e-01" nType="0">
          <Node pos="l" depth="2" NCoef="0" IVar="10" Cut="-2.2756719589233398e+00" cType="1" res="-1.0892730206251144e-03" rms="2.9307496547698975e-01" purity="5.1421725749969482e-01" nType="0">
            <Node pos="l" depth="3" NCoef="0" IVar="-1" Cut="0.0000000000000000e+00" cType="1" res="2.6215517893433571e-02" rms="3.0672606825828552e-01" purity="3.0199852585792542e-01" nType="-99"/>
            <Node pos="r" depth="3" NCoef="0" IVar="-1" Cut="0.0000000000000000e+00" cType="1" res="-2.2854700218886137e-03" rms="2.9247882962226868e-01" purity="5.2266973257064819e-01" nType="-99"/>
          </Node>
          <Node pos="r" depth="2" NCoef="0" IVar="10" Cut="9.9320513010025024e-01" cType="1" res="8.6201624944806099e-03" rms="2.9956251382827759e-01" purity="5.1090663671493530e-01" nType="0">
            <Node pos="l" depth="3" NCoef="0" IVar="-1" Cut="0.0000000000000000e+00" cType="1" res="3.7982225418090820e-02" rms="3.2356297969818115e-01" purity="5.6334018707275391e-01" nType="-99"/>
            <Node pos="r" depth="3" NCoef="0" IVar="-1" Cut="0.0000000000000000e+00" cType="1" res="3.7823654711246490e-03" rms="2.9370412230491638e-01" purity="4.9926370382308960e-01" nType="-99"/>
          </Node>
        </Node>
        <Node pos="r" depth="1" NCoef="0" IVar="7" Cut="2.0045761764049530e-01" cType="1" res="-1.4491291716694832e-02" rms="2.8912115097045898e-01" purity="3.5383173823356628e-01" nType="0">
          <Node pos="l" depth="2" NCoef="0" IVar="-1" Cut="0.0000000000000000e+00" cType="1" res="-2.4799515958875418e-03" rms="3.0334204435348511e-01" purity="4.0208986401557922e-01" nType="-99"/>
          <Node pos="r" depth="2" NCoef="0" IVar="-1" Cut="0.0000000000000000e+00" cType="1" res="-3.2946869730949402e-02" rms="2.7117338776588440e-01" purity="2.9831680655479431e-01" nType="-99"/>
        </Node>
      </Node>
    </BinaryTree>
    <BinaryTree type="DecisionTree" boostWeight="1.0000000000000000e+00" itree="593">
      <Node pos="s" depth="0" NCoef="0" IVar="8" Cut="1.4665715694427490e+00" cType="1" res="5.6029111146926880e-04" rms="2.9622101783752441e-01" purity="4.9878445267677307e-01" nType="0">
        <Node pos="l" depth="1" NCoef="0" IVar="1" Cut="1.4400571289062500e+03" cType="1" res="-6.5850227838382125e-04" rms="2.9701593518257141e-01" purity="5.2528822422027588e-01" nType="0">
          <Node pos="l" depth="2" NCoef="0" IVar="5" Cut="1.4503424072265625e+02" cType="1" res="-5.4485765285789967e-03" rms="3.0956214666366577e-01" purity="1.9079919159412384e-01" nType="0">
            <Node pos="l" depth="3" NCoef="0" IVar="-1" Cut="0.0000000000000000e+00" cType="1" res="-1.1669829487800598e-02" rms="2.7384042739868164e-01" purity="1.2165932357311249e-01" nType="-99"/>
            <Node pos="r" depth="3" NCoef="0" IVar="-1" Cut="0.0000000000000000e+00" cType="1" res="5.2825608290731907e-03" rms="4.1186475753784180e-01" purity="4.3650427460670471e-01" nType="-99"/>
          </Node>
          <Node pos="r" depth="2" NCoef="0" IVar="0" Cut="4.3905471801757812e+02" cType="1" res="3.9542755112051964e-03" rms="2.8433522582054138e-01" purity="8.4739673137664795e-01" nType="0">
            <Node pos="l" depth="3" NCoef="0" IVar="-1" Cut="0.0000000000000000e+00" cType="1" res="1.1221501976251602e-02" rms="3.7733486294746399e-01" purity="6.5547245740890503e-01" nType="-99"/>
            <Node pos="r" depth="3" NCoef="0" IVar="-1" Cut="0.0000000000000000e+00" cType="1" res="2.2243882995098829e-03" rms="2.6179108023643494e-01" purity="8.8568598031997681e-01" nType="-99"/>
          </Node>
        </Node>
        <Node pos="r" depth="1" NCoef="0" IVar="9" Cut="-4.0000143647193909e-01" cType="1" res="1.3473108410835266e-02" rms="2.8734689950942993e-01" purity="2.1798321604728699e-01" nType="0">
          <Node pos="l" depth="2" NCoef="0" IVar="-1" Cut="0.0000000000000000e+00" cType="1" res="-7.7671138569712639e-03" rms="2.6934447884559631e-01" purity="1.9438627362251282e-01" nType="-99"/>
          <Node pos="r" depth="2" NCoef="0" IVar="8" Cut="1.8475104570388794e+00" cType="1" res="2.2574771195650101e-02" rms="2.9499632120132446e-01" purity="2.2908157110214233e-01" nType="0">
            <Node pos="l" depth="3" NCoef="0" IVar="-1" Cut="0.0000000000000000e+00" cType="1" res="3.3200949430465698e-02" rms="3.2298070192337036e-01" purity="3.1363028287887573e-01" nType="-99"/>
            <Node pos="r" depth="3" NCoef="0" IVar="-1" Cut="0.0000000000000000e+00" cType="1" res="2.2537605836987495e-02" rms="2.6368460059165955e-01" purity="1.4448933303356171e-01" nType="-99"/>
          </Node>
        </Node>
      </Node>
    </BinaryTree>
    <BinaryTree type="DecisionTree" boostWeight="1.0000000000000000e+00" itree="594">
      <Node pos="s" depth="0" NCoef="0" IVar="8" Cut="1.3332660496234894e-01" cType="1" res="-1.0726512409746647e-03" rms="2.9740893840789795e-01" purity="4.9727439880371094e-01" nType="0">
        <Node pos="l" depth="1" NCoef="0" IVar="9" Cut="-1.9999984502792358e+00" cType="1" res="1.8164995126426220e-03" rms="2.9794305562973022e-01" purity="5.1222902536392212e-01" nType="0">
          <Node pos="l" depth="2" NCoef="0" IVar="-1" Cut="0.0000000000000000e+00" cType="1" res="3.1458988785743713e-02" rms="3.2006490230560303e-01" purity="2.3527935147285461e-01" nType="-99"/>
          <Node pos="r" depth="2" NCoef="0" IVar="7" Cut="1.2067376375198364e+00" cType="1" res="7.1592029416933656e-04" rms="2.9680806398391724e-01" purity="5.2536147832870483e-01" nType="0">
            <Node pos="l" depth="3" NCoef="0" IVar="-1" Cut="0.0000000000000000e+00" cType="1" res="2.3403081577271223e-03" rms="3.0076912045478821e-01" purity="5.5740028619766235e-01" nType="-99"/>
            <Node pos="r" depth="3" NCoef="0" IVar="-1" Cut="0.0000000000000000e+00" cType="1" res="-2.0883463323116302e-02" rms="2.5049009919166565e-01" purity="1.8558524549007416e-01" nType="-99"/>
          </Node>
        </Node>
        <Node pos="r" depth="1" NCoef="0" IVar="10" Cut="4.0007954835891724e-01" cType="1" res="-4.6819960698485374e-03" rms="2.9670077562332153e-01" purity="4.7859200835227966e-01" nType="0">
          <Node pos="l" depth="2" NCoef="0" IVar="5" Cut="9.3405174255371094e+01" cType="1" res="-1.1056072078645229e-02" rms="2.9796904325485229e-01" purity="5.0282108783721924e-01" nType="0">
            <Node pos="l" depth="3" NCoef="0" IVar="-1" Cut="0.0000000000000000e+00" cType="1" res="2.9988670721650124e-03" rms="2.5275734066963196e-01" purity="1.1869324743747711e-01" nType="-99"/>
            <Node pos="r" depth="3" NCoef="0" IVar="-1" Cut="0.0000000000000000e+00" cType="1" res="-1.5263372100889683e-02" rms="3.0976977944374084e-01" purity="6.1443918943405151e-01" nType="-99"/>
          </Node>
          <Node pos="r" depth="2" NCoef="0" IVar="9" Cut="1.1993173360824585e+00" cType="1" res="3.9952532388269901e-03" rms="2.9474401473999023e-01" purity="4.4560816884040833e-01" nType="0">
            <Node pos="l" depth="3" NCoef="0" IVar="-1" Cut="0.0000000000000000e+00" cType="1" res="-1.8155708676204085e-04" rms="2.9313191771507263e-01" purity="4.8914051055908203e-01" nType="-99"/>
            <Node pos="r" depth="3" NCoef="0" IVar="-1" Cut="0.0000000000000000e+00" cType="1" res="2.6397567242383957e-02" rms="3.0061572790145874e-01" purity="2.6872885227203369e-01" nType="-99"/>
          </Node>
        </Node>
      </Node>
    </BinaryTree>
    <BinaryTree type="DecisionTree" boostWeight="1.0000000000000000e+00" itree="595">
      <Node pos="s" depth="0" NCoef="0" IVar="9" Cut="-6.6675174236297607e-01" cType="1" res="3.1448644585907459e-03" rms="2.9960128664970398e-01" purity="5.0348854064941406e-01" nType="0">
        <Node pos="l" depth="1" NCoef="0" IVar="9" Cut="-1.6825846433639526e+00" cType="1" res="-2.9093304183334112e-03" rms="3.0181828141212463e-01" purity="4.2716988921165466e-01" nType="0">
          <Node pos="l" depth="2" NCoef="0" IVar="2" Cut="3.2636273652315140e-02" cType="1" res="7.8420154750347137e-03" rms="3.0031168460845947e-01" purity="2.7357292175292969e-01" nType="0">
            <Node pos="l" depth="3" NCoef="0" IVar="-1" Cut="0.0000000000000000e+00" cType="1" res="-8.4529403829947114e-04" rms="2.5931355357170105e-01" purity="1.4552877843379974e-01" nType="-99"/>
            <Node pos="r" depth="3" NCoef="0" IVar="-1" Cut="0.0000000000000000e+00" cType="1" res="1.8422270193696022e-02" rms="3.5634997487068176e-01" purity="4.8060724139213562e-01" nType="-99"/>
          </Node>
          <Node pos="r" depth="2" NCoef="0" IVar="9" Cut="-1.3923468589782715e+00" cType="1" res="-6.8130567669868469e-03" rms="3.0226880311965942e-01" purity="4.8293963074684143e-01" nType="0">
            <Node pos="l" depth="3" NCoef="0" IVar="-1" Cut="0.0000000000000000e+00" cType="1" res="-2.5959020480513573e-02" rms="3.0364847183227539e-01" purity="3.6365807056427002e-01" nType="-99"/>
            <Node pos="r" depth="3" NCoef="0" IVar="-1" Cut="0.0000000000000000e+00" cType="1" res="-2.9891107697039843e-03" rms="3.0179503560066223e-01" purity="5.1104730367660522e-01" nType="-99"/>
          </Node>
        </Node>
        <Node pos="r" depth="1" NCoef="0" IVar="3" Cut="3.3545721435546875e+02" cType="1" res="5.4651834070682526e-03" rms="2.9871472716331482e-01" purity="5.3273826837539673e-01" nType="0">
          <Node pos="l" depth="2" NCoef="0" IVar="9" Cut="3.2360801100730896e-01" cType="1" res="-1.1772948782891035e-03" rms="2.9817909002304077e-01" purity="2.7671721577644348e-01" nType="0">
            <Node pos="l" depth="3" NCoef="0" IVar="-1" Cut="0.0000000000000000e+00" cType="1" res="-1.0937605984508991e-02" rms="2.9773706197738647e-01" purity="3.0809038877487183e-01" nType="-99"/>
            <Node pos="r" depth="3" NCoef="0" IVar="-1" Cut="0.0000000000000000e+00" cType="1" res="5.8049629442393780e-03" rms="2.9831448197364807e-01" purity="2.5503838062286377e-01" nType="-99"/>
          </Node>
          <Node pos="r" depth="2" NCoef="0" IVar="1" Cut="1.4460212402343750e+03" cType="1" res="8.7372586131095886e-03" rms="2.9892396926879883e-01" purity="6.5885388851165771e-01" nType="0">
            <Node pos="l" depth="3" NCoef="0" IVar="-1" Cut="0.0000000000000000e+00" cType="1" res="2.4550423026084900e-02" rms="3.4477710723876953e-01" purity="2.2724315524101257e-01" nType="-99"/>
            <Node pos="r" depth="3" NCoef="0" IVar="-1" Cut="0.0000000000000000e+00" cType="1" res="1.5752020990476012e-03" rms="2.7629455924034119e-01" purity="8.4648656845092773e-01" nType="-99"/>
          </Node>
        </Node>
      </Node>
    </BinaryTree>
    <BinaryTree type="DecisionTree" boostWeight="1.0000000000000000e+00" itree="596">
      <Node pos="s" depth="0" NCoef="0" IVar="9" Cut="1.1999329328536987e+00" cType="1" res="-7.7463855268433690e-04" rms="2.9552000761032104e-01" purity="4.9965900182723999e-01" nType="0">
        <Node pos="l" depth="1" NCoef="0" IVar="8" Cut="1.3333033025264740e-01" cType="1" res="1.2897278647869825e-03" rms="2.9614737629890442e-01" purity="5.2811408042907715e-01" nType="0">
          <Node pos="l" depth="2" NCoef="0" IVar="9" Cut="8.1898343563079834e-01" cType="1" res="4.6431850641965866e-03" rms="2.9897746443748474e-01" purity="5.3548008203506470e-01" nType="0">
            <Node pos="l" depth="3" NCoef="0" IVar="-1" Cut="0.0000000000000000e+00" cType="1" res="3.1379151623696089e-03" rms="2.9661720991134644e-01" purity="5.3128510713577271e-01" nType="-99"/>
            <Node pos="r" depth="3" NCoef="0" IVar="-1" Cut="0.0000000000000000e+00" cType="1" res="2.2287437692284584e-02" rms="3.1923443078994751e-01" purity="5.7384693622589111e-01" nType="-99"/>
          </Node>
          <Node pos="r" depth="2" NCoef="0" IVar="7" Cut="-8.9979058504104614e-01" cType="1" res="-3.0362431425601244e-03" rms="2.9239931702613831e-01" purity="5.1861190795898438e-01" nType="0">
            <Node pos="l" depth="3" NCoef="0" IVar="-1" Cut="0.0000000000000000e+00" cType="1" res="1.2490053661167622e-02" rms="2.7673789858818054e-01" purity="2.9124161601066589e-01" nType="-99"/>
            <Node pos="r" depth="3" NCoef="0" IVar="-1" Cut="0.0000000000000000e+00" cType="1" res="-6.0573876835405827e-03" rms="2.9503369331359863e-01" purity="5.5904263257980347e-01" nType="-99"/>
          </Node>
        </Node>
        <Node pos="r" depth="1" NCoef="0" IVar="7" Cut="-6.5113648772239685e-02" cType="1" res="-1.2619996443390846e-02" rms="2.9161179065704346e-01" purity="3.3638334274291992e-01" nType="0">
          <Node pos="l" depth="2" NCoef="0" IVar="5" Cut="1.2825053405761719e+02" cType="1" res="-2.6489580050110817e-02" rms="2.9549103975296021e-01" purity="3.1836065649986267e-01" nType="0">
            <Node pos="l" depth="3" NCoef="0" IVar="-1" Cut="0.0000000000000000e+00" cType="1" res="-1.3308158144354820e-02" rms="2.6896226406097412e-01" purity="1.6139139235019684e-01" nType="-99"/>
            <Node pos="r" depth="3" NCoef="0" IVar="-1" Cut="0.0000000000000000e+00" cType="1" res="-4.0886942297220230e-02" rms="3.2581901550292969e-01" purity="5.2377426624298096e-01" nType="-99"/>
          </Node>
          <Node pos="r" depth="2" NCoef="0" IVar="7" Cut="8.8980710506439209e-01" cType="1" res="-2.6267417706549168e-03" rms="2.8837123513221741e-01" purity="3.4936898946762085e-01" nType="0">
            <Node pos="l" depth="3" NCoef="0" IVar="-1" Cut="0.0000000000000000e+00" cType="1" res="-1.2967495247721672e-02" rms="3.0842429399490356e-01" purity="4.6343231201171875e-01" nType="-99"/>
            <Node pos="r" depth="3" NCoef="0" IVar="-1" Cut="0.0000000000000000e+00" cType="1" res="2.0188974216580391e-02" rms="2.5529751181602478e-01" purity="1.8194900453090668e-01" nType="-99"/>
          </Node>
        </Node>
      </Node>
    </BinaryTree>
    <BinaryTree type="DecisionTree" boostWeight="1.0000000000000000e+00" itree="597">
      <Node pos="s" depth="0" NCoef="0" IVar="8" Cut="3.9998084306716919e-01" cType="1" res="3.3367826836183667e-04" rms="2.9629868268966675e-01" purity="5.0067675113677979e-01" nType="0">
        <Node pos="l" depth="1" NCoef="0" IVar="0" Cut="4.3640017700195312e+02" cType="1" res="-3.0399304814636707e-03" rms="2.9100188612937927e-01" purity="5.2823501825332642e-01" nType="0">
          <Node pos="l" depth="2" NCoef="0" IVar="9" Cut="3.9992803335189819e-01" cType="1" res="-8.8786575943231583e-03" rms="2.9656583070755005e-01" purity="2.2733934223651886e-01" nType="0">
            <Node pos="l" depth="3" NCoef="0" IVar="-1" Cut="0.0000000000000000e+00" cType="1" res="-4.9939933232963085e-03" rms="2.9136091470718384e-01" purity="2.3604086041450500e-01" nType="-99"/>
            <Node pos="r" depth="3" NCoef="0" IVar="-1" Cut="0.0000000000000000e+00" cType="1" res="-1.7746103927493095e-02" rms="3.0619180202484131e-01" purity="2.1054781973361969e-01" nType="-99"/>
          </Node>
          <Node pos="r" depth="2" NCoef="0" IVar="10" Cut="6.6666859388351440e-01" cType="1" res="1.7162865260615945e-03" rms="2.8630164265632629e-01" purity="7.7334403991699219e-01" nType="0">
            <Node pos="l" depth="3" NCoef="0" IVar="-1" Cut="0.0000000000000000e+00" cType="1" res="7.2694397531449795e-03" rms="2.8890031576156616e-01" purity="7.7477198839187622e-01" nType="-99"/>
            <Node pos="r" depth="3" NCoef="0" IVar="-1" Cut="0.0000000000000000e+00" cType="1" res="-1.1754795908927917e-02" rms="2.7912276983261108e-01" purity="7.6963198184967041e-01" nType="-99"/>
          </Node>
        </Node>
        <Node pos="r" depth="1" NCoef="0" IVar="6" Cut="8.1792243957519531e+01" cType="1" res="6.4654583111405373e-03" rms="3.0559572577476501e-01" purity="4.5058777928352356e-01" nType="0">
          <Node pos="l" depth="2" NCoef="0" IVar="10" Cut="1.1997542381286621e+00" cType="1" res="1.5015448443591595e-02" rms="3.0053502321243286e-01" purity="2.0363858342170715e-01" nType="0">
            <Node pos="l" depth="3" NCoef="0" IVar="-1" Cut="0.0000000000000000e+00" cType="1" res="7.7652558684349060e-03" rms="2.9634115099906921e-01" purity="2.0338602364063263e-01" nType="-99"/>
            <Node pos="r" depth="3" NCoef="0" IVar="-1" Cut="0.0000000000000000e+00" cType="1" res="5.5574368685483932e-02" rms="3.1089690327644348e-01" purity="2.0435798168182373e-01" nType="-99"/>
          </Node>
          <Node pos="r" depth="2" NCoef="0" IVar="2" Cut="3.9935700595378876e-02" cType="1" res="-1.0433860588818789e-03" rms="3.0977746844291687e-01" purity="6.6746556758880615e-01" nType="0">
            <Node pos="l" depth="3" NCoef="0" IVar="-1" Cut="0.0000000000000000e+00" cType="1" res="-1.0959011502563953e-02" rms="3.1389001011848450e-01" purity="4.7981548309326172e-01" nType="-99"/>
            <Node pos="r" depth="3" NCoef="0" IVar="-1" Cut="0.0000000000000000e+00" cType="1" res="7.4985562823712826e-03" rms="3.0646216869354248e-01" purity="8.0654180049896240e-01" nType="-99"/>
          </Node>
        </Node>
      </Node>
    </BinaryTree>
    <BinaryTree type="DecisionTree" boostWeight="1.0000000000000000e+00" itree="598">
      <Node pos="s" depth="0" NCoef="0" IVar="7" Cut="-1.7238140106201172e+00" cType="1" res="-1.2068718206137419e-03" rms="2.9567751288414001e-01" purity="4.9481111764907837e-01" nType="0">
        <Node pos="l" depth="1" NCoef="0" IVar="-1" Cut="0.0000000000000000e+00" cType="1" res="3.8893599063158035e-02" rms="2.1698966622352600e-01" purity="9.0999953448772430e-02" nType="-99"/>
        <Node pos="r" depth="1" NCoef="0" IVar="0" Cut="4.5299456787109375e+02" cType="1" res="-1.8429089104756713e-03" rms="2.9816299676895142e-01" purity="5.0969964265823364e-01" nType="0">
          <Node pos="l" depth="2" NCoef="0" IVar="0" Cut="3.8013980102539062e+02" cType="1" res="-5.2097593434154987e-03" rms="3.0325856804847717e-01" purity="2.3910282552242279e-01" nType="0">
            <Node pos="l" depth="3" NCoef="0" IVar="-1" Cut="0.0000000000000000e+00" cType="1" res="-1.0742728598415852e-02" rms="2.8071948885917664e-01" purity="1.6587571799755096e-01" nType="-99"/>
            <Node pos="r" depth="3" NCoef="0" IVar="-1" Cut="0.0000000000000000e+00" cType="1" res="1.0677936952561140e-03" rms="3.3774077892303467e-01" purity="3.6243975162506104e-01" nType="-99"/>
          </Node>
          <Node pos="r" depth="2" NCoef="0" IVar="5" Cut="9.6931472778320312e+01" cType="1" res="1.4938893727958202e-03" rms="2.9298731684684753e-01" purity="7.7788108587265015e-01" nType="0">
            <Node pos="l" depth="3" NCoef="0" IVar="-1" Cut="0.0000000000000000e+00" cType="1" res="1.1358148418366909e-02" rms="3.6783632636070251e-01" purity="3.2833775877952576e-01" nType="-99"/>
            <Node pos="r" depth="3" NCoef="0" IVar="-1" Cut="0.0000000000000000e+00" cType="1" res="-6.2211602926254272e-04" rms="2.7985906600952148e-01" purity="8.4596180915832520e-01" nType="-99"/>
          </Node>
        </Node>
      </Node>
    </BinaryTree>
    <BinaryTree type="DecisionTree" boostWeight="1.0000000000000000e+00" itree="599">
      <Node pos="s" depth="0" NCoef="0" IVar="4" Cut="1.4619770812988281e+02" cType="1" res="-6.2547967536374927e-04" rms="2.9798731207847595e-01" purity="4.9808922410011292e-01" nType="0">
        <Node pos="l" depth="1" NCoef="0" IVar="4" Cut="1.3713858032226562e+02" cType="1" res="1.0731886141002178e-02" rms="2.4190144240856171e-01" purity="8.9923746883869171e-02" nType="0">
          <Node pos="l" depth="2" NCoef="0" IVar="10" Cut="-1.4666124582290649e+00" cType="1" res="6.8900487385690212e-03" rms="2.2732588648796082e-01" purity="7.4492454528808594e-02" nType="0">
            <Node pos="l" depth="3" NCoef="0" IVar="-1" Cut="0.0000000000000000e+00" cType="1" res="4.9486804753541946e-02" rms="2.3789958655834198e-01" purity="8.2965873181819916e-02" nType="-99"/>
            <Node pos="r" depth="3" NCoef="0" IVar="-1" Cut="0.0000000000000000e+00" cType="1" res="8.2090031355619431e-03" rms="2.2514159977436066e-01" purity="7.2882466018199921e-02" nType="-99"/>
          </Node>
          <Node pos="r" depth="2" NCoef="0" IVar="-1" Cut="0.0000000000000000e+00" cType="1" res="3.9208795875310898e-02" rms="3.1022733449935913e-01" purity="1.7627039551734924e-01" nType="-99"/>
        </Node>
        <Node pos="r" depth="1" NCoef="0" IVar="8" Cut="4.0003824234008789e-01" cType="1" res="-3.5051496233791113e-03" rms="3.1053662300109863e-01" purity="6.0157990455627441e-01" nType="0">
          <Node pos="l" depth="2" NCoef="0" IVar="10" Cut="1.4666371345520020e+00" cType="1" res="7.9246907262131572e-04" rms="3.1111034750938416e-01" purity="6.3169914484024048e-01" nType="0">
            <Node pos="l" depth="3" NCoef="0" IVar="-1" Cut="0.0000000000000000e+00" cType="1" res="-2.4473269004374743e-03" rms="3.0522134900093079e-01" purity="6.4023917913436890e-01" nType="-99"/>
            <Node pos="r" depth="3" NCoef="0" IVar="-1" Cut="0.0000000000000000e+00" cType="1" res="2.3889027535915375e-02" rms="3.5548001527786255e-01" purity="5.6031841039657593e-01" nType="-99"/>
          </Node>
          <Node pos="r" depth="2" NCoef="0" IVar="1" Cut="1.3233801269531250e+03" cType="1" res="-1.2178142555058002e-02" rms="3.0919370055198669e-01" purity="5.4079663753509521e-01" nType="0">
            <Node pos="l" depth="3" NCoef="0" IVar="-1" Cut="0.0000000000000000e+00" cType="1" res="-2.4943294003605843e-02" rms="2.8677412867546082e-01" purity="1.4977583289146423e-01" nType="-99"/>
            <Node pos="r" depth="3" NCoef="0" IVar="-1" Cut="0.0000000000000000e+00" cType="1" res="-4.9957740120589733e-03" rms="3.2044520974159241e-01" purity="7.5246411561965942e-01" nType="-99"/>
          </Node>
        </Node>
      </Node>
    </BinaryTree>
    <BinaryTree type="DecisionTree" boostWeight="1.0000000000000000e+00" itree="600">
      <Node pos="s" depth="0" NCoef="0" IVar="6" Cut="8.0216247558593750e+01" cType="1" res="1.8369426834397018e-04" rms="2.9618450999259949e-01" purity="5.0014024972915649e-01" nType="0">
        <Node pos="l" depth="1" NCoef="0" IVar="6" Cut="6.0072048187255859e+01" cType="1" res="-6.7852749489247799e-03" rms="2.8287041187286377e-01" purity="2.1860648691654205e-01" nType="0">
          <Node pos="l" depth="2" NCoef="0" IVar="6" Cut="5.7673942565917969e+01" cType="1" res="3.0725663527846336e-03" rms="2.6382884383201599e-01" purity="1.6297195851802826e-01" nType="0">
            <Node pos="l" depth="3" NCoef="0" IVar="-1" Cut="0.0000000000000000e+00" cType="1" res="-4.0457956492900848e-03" rms="2.5320735573768616e-01" purity="1.4708834886550903e-01" nType="-99"/>
            <Node pos="r" depth="3" NCoef="0" IVar="-1" Cut="0.0000000000000000e+00" cType="1" res="3.1756013631820679e-02" rms="2.9765573143959045e-01" purity="2.1946755051612854e-01" nType="-99"/>
          </Node>
          <Node pos="r" depth="2" NCoef="0" IVar="9" Cut="-1.3337714970111847e-01" cType="1" res="-1.3907009735703468e-02" rms="2.9566094279289246e-01" purity="2.5879928469657898e-01" nType="0">
            <Node pos="l" depth="3" NCoef="0" IVar="-1" Cut="0.0000000000000000e+00" cType="1" res="-2.5708695873618126e-02" rms="2.8298455476760864e-01" purity="2.4380591511726379e-01" nType="-99"/>
            <Node pos="r" depth="3" NCoef="0" IVar="-1" Cut="0.0000000000000000e+00" cType="1" res="-5.8591961860656738e-03" rms="3.0537787079811096e-01" purity="2.7104458212852478e-01" nType="-99"/>
          </Node>
        </Node>
        <Node pos="r" depth="1" NCoef="0" IVar="2" Cut="2.0685555413365364e-02" cType="1" res="5.2710636518895626e-03" rms="3.0543732643127441e-01" purity="7.0566082000732422e-01" nType="0">
          <Node pos="l" depth="2" NCoef="0" IVar="6" Cut="9.8536254882812500e+01" cType="1" res="1.6453498974442482e-02" rms="3.2863512635231018e-01" purity="4.3688502907752991e-01" nType="0">
            <Node pos="l" depth="3" NCoef="0" IVar="-1" Cut="0.0000000000000000e+00" cType="1" res="-6.9237328716553748e-05" rms="3.0296051502227783e-01" purity="2.6642277836799622e-01" nType="-99"/>
            <Node pos="r" depth="3" NCoef="0" IVar="-1" Cut="0.0000000000000000e+00" cType="1" res="2.4883357807993889e-02" rms="3.4439697861671448e-01" purity="5.5162960290908813e-01" nType="-99"/>
          </Node>
          <Node pos="r" depth="2" NCoef="0" IVar="8" Cut="1.1941899061203003e+00" cType="1" res="2.0641575101763010e-03" rms="2.9837483167648315e-01" purity="7.8274053335189819e-01" nType="0">
            <Node pos="l" depth="3" NCoef="0" IVar="-1" Cut="0.0000000000000000e+00" cType="1" res="-9.0613364591263235e-05" rms="2.9313510656356812e-01" purity="7.9551613330841064e-01" nType="-99"/>
            <Node pos="r" depth="3" NCoef="0" IVar="-1" Cut="0.0000000000000000e+00" cType="1" res="2.2033268585801125e-02" rms="3.5280257463455200e-01" purity="6.3385862112045288e-01" nType="-99"/>
          </Node>
        </Node>
      </Node>
    </BinaryTree>
    <BinaryTree type="DecisionTree" boostWeight="1.0000000000000000e+00" itree="601">
      <Node pos="s" depth="0" NCoef="0" IVar="6" Cut="8.5090957641601562e+01" cType="1" res="9.0148980962112546e-04" rms="2.9613557457923889e-01" purity="4.9825698137283325e-01" nType="0">
        <Node pos="l" depth="1" NCoef="0" IVar="3" Cut="7.1556506347656250e+02" cType="1" res="-3.5032674204558134e-03" rms="2.9184016585350037e-01" purity="2.3815302550792694e-01" nType="0">
          <Node pos="l" depth="2" NCoef="0" IVar="0" Cut="4.3091390991210938e+02" cType="1" res="-5.4389322176575661e-03" rms="2.8655526041984558e-01" purity="2.1342344582080841e-01" nType="0">
            <Node pos="l" depth="3" NCoef="0" IVar="-1" Cut="0.0000000000000000e+00" cType="1" res="1.0402250336483121e-03" rms="2.4609103798866272e-01" purity="9.3445807695388794e-02" nType="-99"/>
            <Node pos="r" depth="3" NCoef="0" IVar="-1" Cut="0.0000000000000000e+00" cType="1" res="-1.3470155186951160e-02" rms="3.4830334782600403e-01" purity="4.3270242214202881e-01" nType="-99"/>
          </Node>
          <Node pos="r" depth="2" NCoef="0" IVar="-1" Cut="0.0000000000000000e+00" cType="1" res="2.0580168813467026e-02" rms="3.6985838413238525e-01" purity="6.6537165641784668e-01" nType="-99"/>
        </Node>
        <Node pos="r" depth="1" NCoef="0" IVar="1" Cut="1.4009266357421875e+03" cType="1" res="4.7772601246833801e-03" rms="2.9981073737144470e-01" purity="7.2712379693984985e-01" nType="0">
          <Node pos="l" depth="2" NCoef="0" IVar="1" Cut="1.1151228027343750e+03" cType="1" res="1.3923382386565208e-02" rms="3.7753155827522278e-01" purity="3.3425897359848022e-01" nType="0">
            <Node pos="l" depth="3" NCoef="0" IVar="-1" Cut="0.0000000000000000e+00" cType="1" res="-1.2536687776446342e-02" rms="2.7628144621849060e-01" purity="9.5900528132915497e-02" nType="-99"/>
            <Node pos="r" depth="3" NCoef="0" IVar="-1" Cut="0.0000000000000000e+00" cType="1" res="1.4038066379725933e-02" rms="4.1129535436630249e-01" purity="4.3139684200286865e-01" nType="-99"/>
          </Node>
          <Node pos="r" depth="2" NCoef="0" IVar="2" Cut="2.1317359060049057e-02" cType="1" res="1.3717991532757878e-03" rms="2.6503291726112366e-01" purity="8.7340289354324341e-01" nType="0">
            <Node pos="l" depth="3" NCoef="0" IVar="-1" Cut="0.0000000000000000e+00" cType="1" res="-7.4328794144093990e-03" rms="3.4324118494987488e-01" purity="6.6674399375915527e-01" nType="-99"/>
            <Node pos="r" depth="3" NCoef="0" IVar="-1" Cut="0.0000000000000000e+00" cType="1" res="5.6281215511262417e-03" rms="2.4618068337440491e-01" purity="9.1515684127807617e-01" nType="-99"/>
          </Node>
        </Node>
      </Node>
    </BinaryTree>
    <BinaryTree type="DecisionTree" boostWeight="1.0000000000000000e+00" itree="602">
      <Node pos="s" depth="0" NCoef="0" IVar="2" Cut="1.2797145545482635e-01" cType="1" res="1.1863551335409284e-03" rms="2.9500707983970642e-01" purity="5.0605005025863647e-01" nType="0">
        <Node pos="l" depth="1" NCoef="0" IVar="2" Cut="7.3124706745147705e-02" cType="1" res="2.6247252244502306e-03" rms="3.0060037970542908e-01" purity="4.5748853683471680e-01" nType="0">
          <Node pos="l" depth="2" NCoef="0" IVar="3" Cut="5.0379696655273438e+02" cType="1" res="6.8041105987504125e-04" rms="3.0143916606903076e-01" purity="3.8732862472534180e-01" nType="0">
            <Node pos="l" depth="3" NCoef="0" IVar="-1" Cut="0.0000000000000000e+00" cType="1" res="-2.9447562992572784e-03" rms="2.9465812444686890e-01" purity="2.7359700202941895e-01" nType="-99"/>
            <Node pos="r" depth="3" NCoef="0" IVar="-1" Cut="0.0000000000000000e+00" cType="1" res="8.6093209683895111e-03" rms="3.1747859716415405e-01" purity="6.6920757293701172e-01" nType="-99"/>
          </Node>
          <Node pos="r" depth="2" NCoef="0" IVar="8" Cut="1.4094683527946472e-01" cType="1" res="1.1062246747314930e-02" rms="2.9678541421890259e-01" purity="7.6195371150970459e-01" nType="0">
            <Node pos="l" depth="3" NCoef="0" IVar="-1" Cut="0.0000000000000000e+00" cType="1" res="2.1514944732189178e-02" rms="3.0232807993888855e-01" purity="7.6814246177673340e-01" nType="-99"/>
            <Node pos="r" depth="3" NCoef="0" IVar="-1" Cut="0.0000000000000000e+00" cType="1" res="-1.1110469931736588e-03" rms="2.8813713788986206e-01" purity="7.5298422574996948e-01" nType="-99"/>
          </Node>
        </Node>
        <Node pos="r" depth="1" NCoef="0" IVar="-1" Cut="0.0000000000000000e+00" cType="1" res="-1.3587093912065029e-02" rms="2.5191780924797058e-01" purity="8.4787023067474365e-01" nType="-99"/>
      </Node>
    </BinaryTree>
    <BinaryTree type="DecisionTree" boostWeight="1.0000000000000000e+00" itree="603">
      <Node pos="s" depth="0" NCoef="0" IVar="10" Cut="-1.7333238124847412e+00" cType="1" res="3.1546610407531261e-03" rms="2.9782620072364807e-01" purity="5.0241494178771973e-01" nType="0">
        <Node pos="l" depth="1" NCoef="0" IVar="7" Cut="4.0937897562980652e-01" cType="1" res="-6.9161448627710342e-03" rms="2.9415234923362732e-01" purity="3.5252371430397034e-01" nType="0">
          <Node pos="l" depth="2" NCoef="0" IVar="4" Cut="1.9867700195312500e+02" cType="1" res="-1.4073820784687996e-02" rms="2.9682716727256775e-01" purity="3.7580823898315430e-01" nType="0">
            <Node pos="l" depth="3" NCoef="0" IVar="-1" Cut="0.0000000000000000e+00" cType="1" res="-4.7231200733222067e-04" rms="2.7815580368041992e-01" purity="1.3597680628299713e-01" nType="-99"/>
            <Node pos="r" depth="3" NCoef="0" IVar="-1" Cut="0.0000000000000000e+00" cType="1" res="-2.6316694915294647e-02" rms="3.1297335028648376e-01" purity="6.0355025529861450e-01" nType="-99"/>
          </Node>
          <Node pos="r" depth="2" NCoef="0" IVar="-1" Cut="0.0000000000000000e+00" cType="1" res="1.0387455113232136e-02" rms="2.8739744424819946e-01" purity="3.0017194151878357e-01" nType="-99"/>
        </Node>
        <Node pos="r" depth="1" NCoef="0" IVar="10" Cut="-6.3095772638916969e-03" cType="1" res="4.0715215727686882e-03" rms="2.9814153909683228e-01" purity="5.1606124639511108e-01" nType="0">
          <Node pos="l" depth="2" NCoef="0" IVar="1" Cut="1.3549158935546875e+03" cType="1" res="7.8842453658580780e-03" rms="3.0074456334114075e-01" purity="5.3051626682281494e-01" nType="0">
            <Node pos="l" depth="3" NCoef="0" IVar="-1" Cut="0.0000000000000000e+00" cType="1" res="1.7133735120296478e-02" rms="3.0628082156181335e-01" purity="1.7195124924182892e-01" nType="-99"/>
            <Node pos="r" depth="3" NCoef="0" IVar="-1" Cut="0.0000000000000000e+00" cType="1" res="2.1766372956335545e-03" rms="2.9618883132934570e-01" purity="8.1212013959884644e-01" nType="-99"/>
          </Node>
          <Node pos="r" depth="2" NCoef="0" IVar="4" Cut="2.4026669311523438e+02" cType="1" res="9.0504717081785202e-04" rms="2.9592499136924744e-01" purity="5.0405627489089966e-01" nType="0">
            <Node pos="l" depth="3" NCoef="0" IVar="-1" Cut="0.0000000000000000e+00" cType="1" res="-5.3215031512081623e-03" rms="2.9775625467300415e-01" purity="2.4438604712486267e-01" nType="-99"/>
            <Node pos="r" depth="3" NCoef="0" IVar="-1" Cut="0.0000000000000000e+00" cType="1" res="8.2432497292757034e-03" rms="2.9382026195526123e-01" purity="7.8311413526535034e-01" nType="-99"/>
          </Node>
        </Node>
      </Node>
    </BinaryTree>
    <BinaryTree type="DecisionTree" boostWeight="1.0000000000000000e+00" itree="604">
      <Node pos="s" depth="0" NCoef="0" IVar="4" Cut="2.4130744934082031e+02" cType="1" res="-4.9646553816273808e-04" rms="2.9738187789916992e-01" purity="4.9650177359580994e-01" nType="0">
        <Node pos="l" depth="1" NCoef="0" IVar="4" Cut="1.2355208587646484e+02" cType="1" res="3.3119623549282551e-03" rms="3.0353137850761414e-01" purity="2.5131297111511230e-01" nType="0">
          <Node pos="l" depth="2" NCoef="0" IVar="0" Cut="4.1742202758789062e+02" cType="1" res="-6.8932557478547096e-03" rms="1.8822485208511353e-01" purity="4.4235363602638245e-02" nType="0">
            <Node pos="l" depth="3" NCoef="0" IVar="-1" Cut="0.0000000000000000e+00" cType="1" res="7.6080891303718090e-03" rms="1.6085906326770782e-01" purity="2.9250990599393845e-02" nType="-99"/>
            <Node pos="r" depth="3" NCoef="0" IVar="-1" Cut="0.0000000000000000e+00" cType="1" res="-3.7702552974224091e-02" rms="2.4030165374279022e-01" purity="8.0228798091411591e-02" nType="-99"/>
          </Node>
          <Node pos="r" depth="2" NCoef="0" IVar="8" Cut="-1.1999810934066772e+00" cType="1" res="6.5696467645466328e-03" rms="3.3194565773010254e-01" purity="3.1741574406623840e-01" nType="0">
            <Node pos="l" depth="3" NCoef="0" IVar="-1" Cut="0.0000000000000000e+00" cType="1" res="-1.3094779103994370e-02" rms="2.8979539871215820e-01" purity="1.8435919284820557e-01" nType="-99"/>
            <Node pos="r" depth="3" NCoef="0" IVar="-1" Cut="0.0000000000000000e+00" cType="1" res="8.7100462988018990e-03" rms="3.3919605612754822e-01" purity="3.4246870875358582e-01" nType="-99"/>
          </Node>
        </Node>
        <Node pos="r" depth="1" NCoef="0" IVar="8" Cut="1.3341344892978668e-01" cType="1" res="-4.8377118073403835e-03" rms="2.9015222191810608e-01" purity="7.7599370479583740e-01" nType="0">
          <Node pos="l" depth="2" NCoef="0" IVar="0" Cut="5.3907312011718750e+02" cType="1" res="-9.0362755581736565e-03" rms="2.8693222999572754e-01" purity="7.8131926059722900e-01" nType="0">
            <Node pos="l" depth="3" NCoef="0" IVar="-1" Cut="0.0000000000000000e+00" cType="1" res="-1.5522894449532032e-02" rms="3.5384023189544678e-01" purity="5.8914035558700562e-01" nType="-99"/>
            <Node pos="r" depth="3" NCoef="0" IVar="-1" Cut="0.0000000000000000e+00" cType="1" res="-9.7346858819946647e-04" rms="2.2015410661697388e-01" purity="9.3235832452774048e-01" nType="-99"/>
          </Node>
          <Node pos="r" depth="2" NCoef="0" IVar="7" Cut="1.6806060075759888e-01" cType="1" res="6.1775965150445700e-04" rms="2.9419401288032532e-01" purity="7.6907384395599365e-01" nType="0">
            <Node pos="l" depth="3" NCoef="0" IVar="-1" Cut="0.0000000000000000e+00" cType="1" res="-8.4144948050379753e-03" rms="2.8821927309036255e-01" purity="7.6823490858078003e-01" nType="-99"/>
            <Node pos="r" depth="3" NCoef="0" IVar="-1" Cut="0.0000000000000000e+00" cType="1" res="1.2320782057940960e-02" rms="3.0172145366668701e-01" purity="7.7020049095153809e-01" nType="-99"/>
          </Node>
        </Node>
      </Node>
    </BinaryTree>
    <BinaryTree type="DecisionTree" boostWeight="1.0000000000000000e+00" itree="605">
      <Node pos="s" depth="0" NCoef="0" IVar="7" Cut="-9.2596250772476196e-01" cType="1" res="-1.6907319659367204e-03" rms="2.9351326823234558e-01" purity="4.9705395102500916e-01" nType="0">
        <Node pos="l" depth="1" NCoef="0" IVar="6" Cut="1.2509043884277344e+02" cType="1" res="8.0992942675948143e-03" rms="2.8122305870056152e-01" purity="2.6179781556129456e-01" nType="0">
          <Node pos="l" depth="2" NCoef="0" IVar="6" Cut="8.5753982543945312e+01" cType="1" res="1.2393184937536716e-02" rms="2.6928910613059998e-01" purity="1.6777138411998749e-01" nType="0">
            <Node pos="l" depth="3" NCoef="0" IVar="-1" Cut="0.0000000000000000e+00" cType="1" res="4.9582542851567268e-03" rms="2.2382162511348724e-01" purity="1.0582402348518372e-01" nType="-99"/>
            <Node pos="r" depth="3" NCoef="0" IVar="-1" Cut="0.0000000000000000e+00" cType="1" res="3.2817460596561432e-02" rms="3.6135333776473999e-01" purity="3.3065196871757507e-01" nType="-99"/>
          </Node>
          <Node pos="r" depth="2" NCoef="0" IVar="-1" Cut="0.0000000000000000e+00" cType="1" res="-1.0826713405549526e-02" rms="3.3037701249122620e-01" purity="6.9898307323455811e-01" nType="-99"/>
        </Node>
        <Node pos="r" depth="1" NCoef="0" IVar="4" Cut="2.4026669311523438e+02" cType="1" res="-3.4526302479207516e-03" rms="2.9563644528388977e-01" purity="5.3939270973205566e-01" nType="0">
          <Node pos="l" depth="2" NCoef="0" IVar="0" Cut="6.6344799804687500e+02" cType="1" res="-8.7127136066555977e-03" rms="3.0371561646461487e-01" purity="2.7172514796257019e-01" nType="0">
            <Node pos="l" depth="3" NCoef="0" IVar="-1" Cut="0.0000000000000000e+00" cType="1" res="-1.1631924659013748e-02" rms="3.0078426003456116e-01" purity="2.1341420710086823e-01" nType="-99"/>
            <Node pos="r" depth="3" NCoef="0" IVar="-1" Cut="0.0000000000000000e+00" cType="1" res="1.3148025609552860e-02" rms="3.2869991660118103e-01" purity="8.1213849782943726e-01" nType="-99"/>
          </Node>
          <Node pos="r" depth="2" NCoef="0" IVar="9" Cut="1.4664316177368164e+00" cType="1" res="1.7404204700142145e-03" rms="2.8734314441680908e-01" purity="8.0364912748336792e-01" nType="0">
            <Node pos="l" depth="3" NCoef="0" IVar="-1" Cut="0.0000000000000000e+00" cType="1" res="-7.3213723953813314e-04" rms="2.8170314431190491e-01" purity="8.1559222936630249e-01" nType="-99"/>
            <Node pos="r" depth="3" NCoef="0" IVar="-1" Cut="0.0000000000000000e+00" cType="1" res="2.6980975642800331e-02" rms="3.5318160057067871e-01" purity="6.4281219244003296e-01" nType="-99"/>
          </Node>
        </Node>
      </Node>
    </BinaryTree>
    <BinaryTree type="DecisionTree" boostWeight="1.0000000000000000e+00" itree="606">
      <Node pos="s" depth="0" NCoef="0" IVar="9" Cut="-1.3334581255912781e-01" cType="1" res="1.6655807849019766e-03" rms="2.9525098204612732e-01" purity="5.0619369745254517e-01" nType="0">
        <Node pos="l" depth="1" NCoef="0" IVar="7" Cut="9.3705421686172485e-01" cType="1" res="5.6268400512635708e-03" rms="2.9987719655036926e-01" purity="5.0183951854705811e-01" nType="0">
          <Node pos="l" depth="2" NCoef="0" IVar="6" Cut="1.1043253326416016e+02" cType="1" res="8.2431156188249588e-03" rms="3.0473816394805908e-01" purity="5.3830409049987793e-01" nType="0">
            <Node pos="l" depth="3" NCoef="0" IVar="-1" Cut="0.0000000000000000e+00" cType="1" res="1.3101437129080296e-02" rms="3.2129153609275818e-01" purity="3.6095556616783142e-01" nType="-99"/>
            <Node pos="r" depth="3" NCoef="0" IVar="-1" Cut="0.0000000000000000e+00" cType="1" res="-3.1640712404623628e-04" rms="2.7362230420112610e-01" purity="8.4434491395950317e-01" nType="-99"/>
          </Node>
          <Node pos="r" depth="2" NCoef="0" IVar="7" Cut="1.4692436456680298e+00" cType="1" res="-1.1636479757726192e-02" rms="2.6493427157402039e-01" purity="2.6123028993606567e-01" nType="0">
            <Node pos="l" depth="3" NCoef="0" IVar="-1" Cut="0.0000000000000000e+00" cType="1" res="-2.5831853970885277e-02" rms="2.8018933534622192e-01" purity="3.4598544239997864e-01" nType="-99"/>
            <Node pos="r" depth="3" NCoef="0" IVar="-1" Cut="0.0000000000000000e+00" cType="1" res="9.9043883383274078e-03" rms="2.4065050482749939e-01" purity="1.4141520857810974e-01" nType="-99"/>
          </Node>
        </Node>
        <Node pos="r" depth="1" NCoef="0" IVar="2" Cut="4.1124671697616577e-02" cType="1" res="-1.7049703747034073e-03" rms="2.9121434688568115e-01" purity="5.0989860296249390e-01" nType="0">
          <Node pos="l" depth="2" NCoef="0" IVar="2" Cut="3.1333200633525848e-02" cType="1" res="-6.4919623546302319e-03" rms="2.8587383031845093e-01" purity="3.1806197762489319e-01" nType="0">
            <Node pos="l" depth="3" NCoef="0" IVar="-1" Cut="0.0000000000000000e+00" cType="1" res="-1.1890999041497707e-02" rms="2.7770194411277771e-01" purity="2.8048118948936462e-01" nType="-99"/>
            <Node pos="r" depth="3" NCoef="0" IVar="-1" Cut="0.0000000000000000e+00" cType="1" res="1.2925088405609131e-02" rms="3.2767212390899658e-01" purity="5.3129923343658447e-01" nType="-99"/>
          </Node>
          <Node pos="r" depth="2" NCoef="0" IVar="8" Cut="-4.6346399188041687e-01" cType="1" res="3.6806447897106409e-03" rms="2.9701578617095947e-01" purity="7.2572481632232666e-01" nType="0">
            <Node pos="l" depth="3" NCoef="0" IVar="-1" Cut="0.0000000000000000e+00" cType="1" res="1.8319696187973022e-02" rms="3.1350231170654297e-01" purity="7.1917384862899780e-01" nType="-99"/>
            <Node pos="r" depth="3" NCoef="0" IVar="-1" Cut="0.0000000000000000e+00" cType="1" res="-2.1578606683760881e-03" rms="2.9017075896263123e-01" purity="7.2826969623565674e-01" nType="-99"/>
          </Node>
        </Node>
      </Node>
    </BinaryTree>
    <BinaryTree type="DecisionTree" boostWeight="1.0000000000000000e+00" itree="607">
      <Node pos="s" depth="0" NCoef="0" IVar="8" Cut="-6.6667419672012329e-01" cType="1" res="1.6275683883577585e-03" rms="2.9738062620162964e-01" purity="5.0379604101181030e-01" nType="0">
        <Node pos="l" depth="1" NCoef="0" IVar="6" Cut="7.7498535156250000e+01" cType="1" res="-6.2683392316102982e-03" rms="2.9591891169548035e-01" purity="4.0033194422721863e-01" nType="0">
          <Node pos="l" depth="2" NCoef="0" IVar="9" Cut="-6.6670119762420654e-01" cType="1" res="1.6272484790533781e-03" rms="2.7163806557655334e-01" purity="1.7507490515708923e-01" nType="0">
            <Node pos="l" depth="3" NCoef="0" IVar="-1" Cut="0.0000000000000000e+00" cType="1" res="-2.2387167438864708e-02" rms="2.4424761533737183e-01" purity="1.1610879749059677e-01" nType="-99"/>
            <Node pos="r" depth="3" NCoef="0" IVar="-1" Cut="0.0000000000000000e+00" cType="1" res="1.3406810350716114e-02" rms="2.8579044342041016e-01" purity="2.0892813801765442e-01" nType="-99"/>
          </Node>
          <Node pos="r" depth="2" NCoef="0" IVar="1" Cut="1.5287181396484375e+03" cType="1" res="-1.2829670682549477e-02" rms="3.1452366709709167e-01" purity="5.8752334117889404e-01" nType="0">
            <Node pos="l" depth="3" NCoef="0" IVar="-1" Cut="0.0000000000000000e+00" cType="1" res="-1.7013812437653542e-02" rms="3.5059383511543274e-01" purity="2.8504669666290283e-01" nType="-99"/>
            <Node pos="r" depth="3" NCoef="0" IVar="-1" Cut="0.0000000000000000e+00" cType="1" res="-5.9460327029228210e-03" rms="2.7810257673263550e-01" purity="8.5781276226043701e-01" nType="-99"/>
          </Node>
        </Node>
        <Node pos="r" depth="1" NCoef="0" IVar="6" Cut="1.4064868164062500e+02" cType="1" res="4.4078710488975048e-03" rms="2.9784378409385681e-01" purity="5.4022777080535889e-01" nType="0">
          <Node pos="l" depth="2" NCoef="0" IVar="2" Cut="6.3985846936702728e-02" cType="1" res="7.2870757430791855e-03" rms="3.1669145822525024e-01" purity="4.2575156688690186e-01" nType="0">
            <Node pos="l" depth="3" NCoef="0" IVar="-1" Cut="0.0000000000000000e+00" cType="1" res="1.0688939131796360e-02" rms="3.1076452136039734e-01" purity="3.3161941170692444e-01" nType="-99"/>
            <Node pos="r" depth="3" NCoef="0" IVar="-1" Cut="0.0000000000000000e+00" cType="1" res="-1.7840872169472277e-04" rms="3.3146873116493225e-01" purity="6.7015594244003296e-01" nType="-99"/>
          </Node>
          <Node pos="r" depth="2" NCoef="0" IVar="2" Cut="4.0317971259355545e-02" cType="1" res="-4.9159163609147072e-03" rms="2.2602906823158264e-01" purity="9.1093838214874268e-01" nType="0">
            <Node pos="l" depth="3" NCoef="0" IVar="-1" Cut="0.0000000000000000e+00" cType="1" res="-1.6847020015120506e-02" rms="2.8228881955146790e-01" purity="7.9724895954132080e-01" nType="-99"/>
            <Node pos="r" depth="3" NCoef="0" IVar="-1" Cut="0.0000000000000000e+00" cType="1" res="-5.0417999736964703e-03" rms="2.0563189685344696e-01" purity="9.4579631090164185e-01" nType="-99"/>
          </Node>
        </Node>
      </Node>
    </BinaryTree>
    <BinaryTree type="DecisionTree" boostWeight="1.0000000000000000e+00" itree="608">
      <Node pos="s" depth="0" NCoef="0" IVar="10" Cut="4.0002527832984924e-01" cType="1" res="-6.4435292733833194e-04" rms="2.9855656623840332e-01" purity="4.9814736843109131e-01" nType="0">
        <Node pos="l" depth="1" NCoef="0" IVar="1" Cut="1.0943817138671875e+03" cType="1" res="-4.2431554757058620e-03" rms="2.9680204391479492e-01" purity="5.0386834144592285e-01" nType="0">
          <Node pos="l" depth="2" NCoef="0" IVar="0" Cut="3.2926376342773438e+02" cType="1" res="4.6787690371274948e-03" rms="2.2275140881538391e-01" purity="5.9657894074916840e-02" nType="0">
            <Node pos="l" depth="3" NCoef="0" IVar="-1" Cut="0.0000000000000000e+00" cType="1" res="5.8618929237127304e-02" rms="2.3733732104301453e-01" purity="6.7027926445007324e-02" nType="-99"/>
            <Node pos="r" depth="3" NCoef="0" IVar="-1" Cut="0.0000000000000000e+00" cType="1" res="-8.3756744861602783e-03" rms="2.1459873020648956e-01" purity="5.6009825319051743e-02" nType="-99"/>
          </Node>
          <Node pos="r" depth="2" NCoef="0" IVar="7" Cut="1.2171179056167603e+00" cType="1" res="-7.1208965964615345e-03" rms="3.1696522235870361e-01" purity="6.4714711904525757e-01" nType="0">
            <Node pos="l" depth="3" NCoef="0" IVar="-1" Cut="0.0000000000000000e+00" cType="1" res="-5.1343496888875961e-03" rms="3.1864416599273682e-01" purity="6.7252105474472046e-01" nType="-99"/>
            <Node pos="r" depth="3" NCoef="0" IVar="-1" Cut="0.0000000000000000e+00" cType="1" res="-3.7127252668142319e-02" rms="2.8872144222259521e-01" purity="2.6073893904685974e-01" nType="-99"/>
          </Node>
        </Node>
        <Node pos="r" depth="1" NCoef="0" IVar="8" Cut="6.6662609577178955e-01" cType="1" res="5.1019373349845409e-03" rms="3.0124771595001221e-01" purity="4.8901262879371643e-01" nType="0">
          <Node pos="l" depth="2" NCoef="0" IVar="7" Cut="1.2027733325958252e+00" cType="1" res="1.0317870415747166e-02" rms="3.0361956357955933e-01" purity="5.5250990390777588e-01" nType="0">
            <Node pos="l" depth="3" NCoef="0" IVar="-1" Cut="0.0000000000000000e+00" cType="1" res="7.9649072140455246e-03" rms="3.0571874976158142e-01" purity="5.9237766265869141e-01" nType="-99"/>
            <Node pos="r" depth="3" NCoef="0" IVar="-1" Cut="0.0000000000000000e+00" cType="1" res="4.6851124614477158e-02" rms="2.8495663404464722e-01" purity="2.3083460330963135e-01" nType="-99"/>
          </Node>
          <Node pos="r" depth="2" NCoef="0" IVar="8" Cut="9.7135382890701294e-01" cType="1" res="-7.4292244389653206e-03" rms="2.9509499669075012e-01" purity="3.3646202087402344e-01" nType="0">
            <Node pos="l" depth="3" NCoef="0" IVar="-1" Cut="0.0000000000000000e+00" cType="1" res="-4.2301643639802933e-02" rms="3.0539858341217041e-01" purity="4.4971838593482971e-01" nType="-99"/>
            <Node pos="r" depth="3" NCoef="0" IVar="-1" Cut="0.0000000000000000e+00" cType="1" res="5.3548961877822876e-03" rms="2.9024910926818848e-01" purity="2.9385015368461609e-01" nType="-99"/>
          </Node>
        </Node>
      </Node>
    </BinaryTree>
    <BinaryTree type="DecisionTree" boostWeight="1.0000000000000000e+00" itree="609">
      <Node pos="s" depth="0" NCoef="0" IVar="9" Cut="-1.7333314418792725e+00" cType="1" res="-1.1767809046432376e-03" rms="2.9359298944473267e-01" purity="5.0245469808578491e-01" nType="0">
        <Node pos="l" depth="1" NCoef="0" IVar="10" Cut="-6.6708338260650635e-01" cType="1" res="-1.4909510500729084e-02" rms="2.7710166573524475e-01" purity="2.4618178606033325e-01" nType="0">
          <Node pos="l" depth="2" NCoef="0" IVar="-1" Cut="0.0000000000000000e+00" cType="1" res="7.3608853854238987e-03" rms="2.8467518091201782e-01" purity="2.2138336300849915e-01" nType="-99"/>
          <Node pos="r" depth="2" NCoef="0" IVar="-1" Cut="0.0000000000000000e+00" cType="1" res="-3.3839955925941467e-02" rms="2.7130958437919617e-01" purity="2.6209327578544617e-01" nType="-99"/>
        </Node>
        <Node pos="r" depth="1" NCoef="0" IVar="3" Cut="3.3999264526367188e+02" cType="1" res="-2.0009159925393760e-04" rms="2.9470634460449219e-01" purity="5.2068114280700684e-01" nType="0">
          <Node pos="l" depth="2" NCoef="0" IVar="1" Cut="1.1857781982421875e+03" cType="1" res="3.9463113062083721e-03" rms="3.0253773927688599e-01" purity="2.8203052282333374e-01" nType="0">
            <Node pos="l" depth="3" NCoef="0" IVar="-1" Cut="0.0000000000000000e+00" cType="1" res="-2.4044562596827745e-03" rms="2.5667521357536316e-01" purity="9.1029137372970581e-02" nType="-99"/>
            <Node pos="r" depth="3" NCoef="0" IVar="-1" Cut="0.0000000000000000e+00" cType="1" res="1.0815774090588093e-02" rms="3.7858420610427856e-01" purity="6.6921555995941162e-01" nType="-99"/>
          </Node>
          <Node pos="r" depth="2" NCoef="0" IVar="7" Cut="-8.2514390349388123e-02" cType="1" res="-2.4440200068056583e-03" rms="2.9035544395446777e-01" purity="6.4983284473419189e-01" nType="0">
            <Node pos="l" depth="3" NCoef="0" IVar="-1" Cut="0.0000000000000000e+00" cType="1" res="-8.1737982109189034e-03" rms="2.8985768556594849e-01" purity="6.3643270730972290e-01" nType="-99"/>
            <Node pos="r" depth="3" NCoef="0" IVar="-1" Cut="0.0000000000000000e+00" cType="1" res="1.5715172048658133e-03" rms="2.9070338606834412e-01" purity="6.6070854663848877e-01" nType="-99"/>
          </Node>
        </Node>
      </Node>
    </BinaryTree>
    <BinaryTree type="DecisionTree" boostWeight="1.0000000000000000e+00" itree="610">
      <Node pos="s" depth="0" NCoef="0" IVar="2" Cut="2.0684920251369476e-02" cType="1" res="-9.6985336858779192e-04" rms="2.9426407814025879e-01" purity="5.0228440761566162e-01" nType="0">
        <Node pos="l" depth="1" NCoef="0" IVar="2" Cut="4.9251182936131954e-03" cType="1" res="3.9158011786639690e-03" rms="2.7775153517723083e-01" purity="2.4493855237960815e-01" nType="0">
          <Node pos="l" depth="2" NCoef="0" IVar="2" Cut="2.1108957007527351e-03" cType="1" res="-7.6638581231236458e-03" rms="2.2740000486373901e-01" purity="1.4286722242832184e-01" nType="0">
            <Node pos="l" depth="3" NCoef="0" IVar="-1" Cut="0.0000000000000000e+00" cType="1" res="5.8095576241612434e-03" rms="2.3134928941726685e-01" purity="1.3310760259628296e-01" nType="-99"/>
            <Node pos="r" depth="3" NCoef="0" IVar="-1" Cut="0.0000000000000000e+00" cType="1" res="-2.5201877579092979e-02" rms="2.2403901815414429e-01" purity="1.5020868182182312e-01" nType="-99"/>
          </Node>
          <Node pos="r" depth="2" NCoef="0" IVar="3" Cut="5.6860858154296875e+02" cType="1" res="9.1318674385547638e-03" rms="2.9751569032669067e-01" purity="2.9091665148735046e-01" nType="0">
            <Node pos="l" depth="3" NCoef="0" IVar="-1" Cut="0.0000000000000000e+00" cType="1" res="7.1406816132366657e-03" rms="2.8121656179428101e-01" purity="2.0507434010505676e-01" nType="-99"/>
            <Node pos="r" depth="3" NCoef="0" IVar="-1" Cut="0.0000000000000000e+00" cType="1" res="1.9027527421712875e-02" rms="3.5575336217880249e-01" purity="6.3959950208663940e-01" nType="-99"/>
          </Node>
        </Node>
        <Node pos="r" depth="1" NCoef="0" IVar="0" Cut="4.2404586791992188e+02" cType="1" res="-3.6225798539817333e-03" rms="3.0281984806060791e-01" purity="6.4201343059539795e-01" nType="0">
          <Node pos="l" depth="2" NCoef="0" IVar="7" Cut="6.6194689273834229e-01" cType="1" res="-9.2133842408657074e-03" rms="3.4340479969978333e-01" purity="3.0772843956947327e-01" nType="0">
            <Node pos="l" depth="3" NCoef="0" IVar="-1" Cut="0.0000000000000000e+00" cType="1" res="-4.3544159270823002e-03" rms="3.4391224384307861e-01" purity="3.2714939117431641e-01" nType="-99"/>
            <Node pos="r" depth="3" NCoef="0" IVar="-1" Cut="0.0000000000000000e+00" cType="1" res="-2.0227784290909767e-02" rms="3.4116929769515991e-01" purity="2.3648896813392639e-01" nType="-99"/>
          </Node>
          <Node pos="r" depth="2" NCoef="0" IVar="7" Cut="-3.7644928693771362e-01" cType="1" res="-4.0924837230704725e-04" rms="2.7676257491111755e-01" purity="8.3414477109909058e-01" nType="0">
            <Node pos="l" depth="3" NCoef="0" IVar="-1" Cut="0.0000000000000000e+00" cType="1" res="-1.0154291056096554e-02" rms="2.9307016730308533e-01" purity="8.0186790227890015e-01" nType="-99"/>
            <Node pos="r" depth="3" NCoef="0" IVar="-1" Cut="0.0000000000000000e+00" cType="1" res="3.6712111905217171e-03" rms="2.7030369639396667e-01" purity="8.4629261493682861e-01" nType="-99"/>
          </Node>
        </Node>
      </Node>
    </BinaryTree>
    <BinaryTree type="DecisionTree" boostWeight="1.0000000000000000e+00" itree="611">
      <Node pos="s" depth="0" NCoef="0" IVar="9" Cut="1.7333188056945801e+00" cType="1" res="-1.0326085612177849e-03" rms="2.9359751939773560e-01" purity="4.9852508306503296e-01" nType="0">
        <Node pos="l" depth="1" NCoef="0" IVar="8" Cut="-6.6677808761596680e-01" cType="1" res="4.4172868365421891e-04" rms="2.9553246498107910e-01" purity="5.1836019754409790e-01" nType="0">
          <Node pos="l" depth="2" NCoef="0" IVar="7" Cut="9.5486289262771606e-01" cType="1" res="-9.7287893295288086e-03" rms="2.9384577274322510e-01" purity="3.9708331227302551e-01" nType="0">
            <Node pos="l" depth="3" NCoef="0" IVar="-1" Cut="0.0000000000000000e+00" cType="1" res="-1.3421550393104553e-02" rms="2.9775959253311157e-01" purity="4.3102234601974487e-01" nType="-99"/>
            <Node pos="r" depth="3" NCoef="0" IVar="-1" Cut="0.0000000000000000e+00" cType="1" res="8.4424233064055443e-03" rms="2.7068263292312622e-01" purity="2.0979619026184082e-01" nType="-99"/>
          </Node>
          <Node pos="r" depth="2" NCoef="0" IVar="8" Cut="9.8392689228057861e-01" cType="1" res="3.8765450008213520e-03" rms="2.9602101445198059e-01" purity="5.5931812524795532e-01" nType="0">
            <Node pos="l" depth="3" NCoef="0" IVar="-1" Cut="0.0000000000000000e+00" cType="1" res="6.9200946018099785e-03" rms="2.9720693826675415e-01" purity="6.2178236246109009e-01" nType="-99"/>
            <Node pos="r" depth="3" NCoef="0" IVar="-1" Cut="0.0000000000000000e+00" cType="1" res="-4.0578460320830345e-03" rms="2.9184037446975708e-01" purity="3.4755626320838928e-01" nType="-99"/>
          </Node>
        </Node>
        <Node pos="r" depth="1" NCoef="0" IVar="10" Cut="6.6797649860382080e-01" cType="1" res="-2.1510671824216843e-02" rms="2.6441755890846252e-01" purity="2.2302192449569702e-01" nType="0">
          <Node pos="l" depth="2" NCoef="0" IVar="-1" Cut="0.0000000000000000e+00" cType="1" res="-3.4550637006759644e-02" rms="2.7065712213516235e-01" purity="2.5830382108688354e-01" nType="-99"/>
          <Node pos="r" depth="2" NCoef="0" IVar="-1" Cut="0.0000000000000000e+00" cType="1" res="-1.2332974001765251e-02" rms="2.5428259372711182e-01" purity="1.7038570344448090e-01" nType="-99"/>
        </Node>
      </Node>
    </BinaryTree>
    <BinaryTree type="DecisionTree" boostWeight="1.0000000000000000e+00" itree="612">
      <Node pos="s" depth="0" NCoef="0" IVar="8" Cut="1.7332661151885986e+00" cType="1" res="-1.5171604463830590e-03" rms="2.9447180032730103e-01" purity="4.9982696771621704e-01" nType="0">
        <Node pos="l" depth="1" NCoef="0" IVar="2" Cut="1.4929997920989990e-01" cType="1" res="-7.6655129669234157e-04" rms="2.9725119471549988e-01" purity="5.2106153964996338e-01" nType="0">
          <Node pos="l" depth="2" NCoef="0" IVar="8" Cut="-1.9363734722137451e+00" cType="1" res="2.6000256184488535e-04" rms="3.0265003442764282e-01" purity="4.8428720235824585e-01" nType="0">
            <Node pos="l" depth="3" NCoef="0" IVar="-1" Cut="0.0000000000000000e+00" cType="1" res="2.4548960849642754e-02" rms="2.5795918703079224e-01" purity="1.3558568060398102e-01" nType="-99"/>
            <Node pos="r" depth="3" NCoef="0" IVar="-1" Cut="0.0000000000000000e+00" cType="1" res="-4.1529853479005396e-04" rms="3.0450880527496338e-01" purity="5.0012975931167603e-01" nType="-99"/>
          </Node>
          <Node pos="r" depth="2" NCoef="0" IVar="-1" Cut="0.0000000000000000e+00" cType="1" res="-1.8305463716387749e-02" rms="2.3995189368724823e-01" purity="8.6937844753265381e-01" nType="-99"/>
        </Node>
        <Node pos="r" depth="1" NCoef="0" IVar="8" Cut="2.0888135433197021e+00" cType="1" res="-1.5110338106751442e-02" rms="2.3819130659103394e-01" purity="1.1527997255325317e-01" nType="0">
          <Node pos="l" depth="2" NCoef="0" IVar="-1" Cut="0.0000000000000000e+00" cType="1" res="-1.1634751223027706e-02" rms="2.8923726081848145e-01" purity="1.7815297842025757e-01" nType="-99"/>
          <Node pos="r" depth="2" NCoef="0" IVar="-1" Cut="0.0000000000000000e+00" cType="1" res="-5.0256136804819107e-02" rms="1.6769394278526306e-01" purity="4.8642560839653015e-02" nType="-99"/>
        </Node>
      </Node>
    </BinaryTree>
    <BinaryTree type="DecisionTree" boostWeight="1.0000000000000000e+00" itree="613">
      <Node pos="s" depth="0" NCoef="0" IVar="8" Cut="6.6666263341903687e-01" cType="1" res="6.9476116914302111e-04" rms="2.9625549912452698e-01" purity="4.9950194358825684e-01" nType="0">
        <Node pos="l" depth="1" NCoef="0" IVar="9" Cut="6.6660201549530029e-01" cType="1" res="-2.1550646051764488e-03" rms="2.9329830408096313e-01" purity="5.3496867418289185e-01" nType="0">
          <Node pos="l" depth="2" NCoef="0" IVar="5" Cut="1.4134704589843750e+02" cType="1" res="1.3464669464156032e-03" rms="2.9140484333038330e-01" purity="5.5639845132827759e-01" nType="0">
            <Node pos="l" depth="3" NCoef="0" IVar="-1" Cut="0.0000000000000000e+00" cType="1" res="-6.7407265305519104e-03" rms="2.9391410946846008e-01" purity="2.2809067368507385e-01" nType="-99"/>
            <Node pos="r" depth="3" NCoef="0" IVar="-1" Cut="0.0000000000000000e+00" cType="1" res="8.4449285641312599e-03" rms="2.8932186961174011e-01" purity="8.1040602922439575e-01" nType="-99"/>
          </Node>
          <Node pos="r" depth="2" NCoef="0" IVar="9" Cut="1.9872260093688965e+00" cType="1" res="-1.2099325656890869e-02" rms="2.9838627576828003e-01" purity="4.7410863637924194e-01" nType="0">
            <Node pos="l" depth="3" NCoef="0" IVar="-1" Cut="0.0000000000000000e+00" cType="1" res="-1.7752021551132202e-02" rms="2.9921242594718933e-01" purity="5.0707721710205078e-01" nType="-99"/>
            <Node pos="r" depth="3" NCoef="0" IVar="-1" Cut="0.0000000000000000e+00" cType="1" res="1.6449077054858208e-02" rms="2.9221993684768677e-01" purity="2.8442463278770447e-01" nType="-99"/>
          </Node>
        </Node>
        <Node pos="r" depth="1" NCoef="0" IVar="4" Cut="3.3356161499023438e+02" cType="1" res="8.8592199608683586e-03" rms="3.0442097783088684e-01" purity="3.9789348840713501e-01" nType="0">
          <Node pos="l" depth="2" NCoef="0" IVar="4" Cut="1.5906803894042969e+02" cType="1" res="1.1857406236231327e-02" rms="3.0681729316711426e-01" purity="3.2373031973838806e-01" nType="0">
            <Node pos="l" depth="3" NCoef="0" IVar="-1" Cut="0.0000000000000000e+00" cType="1" res="1.6531762667000294e-03" rms="2.4022437632083893e-01" purity="9.2209368944168091e-02" nType="-99"/>
            <Node pos="r" depth="3" NCoef="0" IVar="-1" Cut="0.0000000000000000e+00" cType="1" res="1.6783762723207474e-02" rms="3.3829700946807861e-01" purity="4.5346027612686157e-01" nType="-99"/>
          </Node>
          <Node pos="r" depth="2" NCoef="0" IVar="-1" Cut="0.0000000000000000e+00" cType="1" res="-7.7379615977406502e-03" rms="2.9135590791702271e-01" purity="7.7774000167846680e-01" nType="-99"/>
        </Node>
      </Node>
    </BinaryTree>
    <BinaryTree type="DecisionTree" boostWeight="1.0000000000000000e+00" itree="614">
      <Node pos="s" depth="0" NCoef="0" IVar="9" Cut="-1.3334581255912781e-01" cType="1" res="2.5282267015427351e-03" rms="2.9521960020065308e-01" purity="5.0547069311141968e-01" nType="0">
        <Node pos="l" depth="1" NCoef="0" IVar="0" Cut="5.7280224609375000e+02" cType="1" res="7.4192215688526630e-03" rms="3.0160298943519592e-01" purity="4.9967625737190247e-01" nType="0">
          <Node pos="l" depth="2" NCoef="0" IVar="8" Cut="1.1990913152694702e+00" cType="1" res="1.2018868699669838e-02" rms="3.1922620534896851e-01" purity="3.3390188217163086e-01" nType="0">
            <Node pos="l" depth="3" NCoef="0" IVar="-1" Cut="0.0000000000000000e+00" cType="1" res="1.5272057615220547e-02" rms="3.2647401094436646e-01" purity="3.6112537980079651e-01" nType="-99"/>
            <Node pos="r" depth="3" NCoef="0" IVar="-1" Cut="0.0000000000000000e+00" cType="1" res="-1.4403064735233784e-02" rms="2.6445737481117249e-01" purity="1.5156733989715576e-01" nType="-99"/>
          </Node>
          <Node pos="r" depth="2" NCoef="0" IVar="2" Cut="1.9968025386333466e-02" cType="1" res="-3.0956121627241373e-03" rms="2.5650379061698914e-01" purity="8.7863796949386597e-01" nType="0">
            <Node pos="l" depth="3" NCoef="0" IVar="-1" Cut="0.0000000000000000e+00" cType="1" res="-1.7829777672886848e-02" rms="3.4234154224395752e-01" purity="6.8856614828109741e-01" nType="-99"/>
            <Node pos="r" depth="3" NCoef="0" IVar="-1" Cut="0.0000000000000000e+00" cType="1" res="4.0059760212898254e-03" rms="2.2578009963035583e-01" purity="9.3299615383148193e-01" nType="-99"/>
          </Node>
        </Node>
        <Node pos="r" depth="1" NCoef="0" IVar="10" Cut="-1.4666835069656372e+00" cType="1" res="-1.5555559657514095e-03" rms="2.8971877694129944e-01" purity="5.1030886173248291e-01" nType="0">
          <Node pos="l" depth="2" NCoef="0" IVar="8" Cut="1.3361938297748566e-01" cType="1" res="1.4289548620581627e-02" rms="3.0955383181571960e-01" purity="4.5285177230834961e-01" nType="0">
            <Node pos="l" depth="3" NCoef="0" IVar="-1" Cut="0.0000000000000000e+00" cType="1" res="3.7196818739175797e-03" rms="2.9353758692741394e-01" purity="4.6227183938026428e-01" nType="-99"/>
            <Node pos="r" depth="3" NCoef="0" IVar="-1" Cut="0.0000000000000000e+00" cType="1" res="2.9898561537265778e-02" rms="3.2943546772003174e-01" purity="4.4009014964103699e-01" nType="-99"/>
          </Node>
          <Node pos="r" depth="2" NCoef="0" IVar="1" Cut="1.4296376953125000e+03" cType="1" res="-3.6046565510332584e-03" rms="2.8698977828025818e-01" purity="5.1773923635482788e-01" nType="0">
            <Node pos="l" depth="3" NCoef="0" IVar="-1" Cut="0.0000000000000000e+00" cType="1" res="-9.5992721617221832e-03" rms="2.9716721177101135e-01" purity="1.6833910346031189e-01" nType="-99"/>
            <Node pos="r" depth="3" NCoef="0" IVar="-1" Cut="0.0000000000000000e+00" cType="1" res="1.8629822880029678e-03" rms="2.7706432342529297e-01" purity="8.4360492229461670e-01" nType="-99"/>
          </Node>
        </Node>
      </Node>
    </BinaryTree>
    <BinaryTree type="DecisionTree" boostWeight="1.0000000000000000e+00" itree="615">
      <Node pos="s" depth="0" NCoef="0" IVar="6" Cut="8.5090919494628906e+01" cType="1" res="2.4655724409967661e-03" rms="2.9817122220993042e-01" purity="4.9856469035148621e-01" nType="0">
        <Node pos="l" depth="1" NCoef="0" IVar="5" Cut="1.4115620422363281e+02" cType="1" res="7.4258721433579922e-03" rms="2.9909434914588928e-01" purity="2.4822840094566345e-01" nType="0">
          <Node pos="l" depth="2" NCoef="0" IVar="10" Cut="1.7333437204360962e+00" cType="1" res="3.6794454790651798e-03" rms="2.7865320444107056e-01" purity="1.5941695868968964e-01" nType="0">
            <Node pos="l" depth="3" NCoef="0" IVar="-1" Cut="0.0000000000000000e+00" cType="1" res="8.3903484046459198e-03" rms="2.8238242864608765e-01" purity="1.6396448016166687e-01" nType="-99"/>
            <Node pos="r" depth="3" NCoef="0" IVar="-1" Cut="0.0000000000000000e+00" cType="1" res="-2.4875525385141373e-02" rms="2.4591074883937836e-01" purity="1.2319251894950867e-01" nType="-99"/>
          </Node>
          <Node pos="r" depth="2" NCoef="0" IVar="0" Cut="4.2644622802734375e+02" cType="1" res="2.1033879369497299e-02" rms="3.6347988247871399e-01" purity="5.7081478834152222e-01" nType="0">
            <Node pos="l" depth="3" NCoef="0" IVar="-1" Cut="0.0000000000000000e+00" cType="1" res="3.2528985291719437e-02" rms="3.9406111836433411e-01" purity="3.1000602245330811e-01" nType="-99"/>
            <Node pos="r" depth="3" NCoef="0" IVar="-1" Cut="0.0000000000000000e+00" cType="1" res="4.3640616349875927e-03" rms="3.3979937434196472e-01" purity="7.5152379274368286e-01" nType="-99"/>
          </Node>
        </Node>
        <Node pos="r" depth="1" NCoef="0" IVar="1" Cut="1.4303021240234375e+03" cType="1" res="-2.0215946715325117e-03" rms="2.9726240038871765e-01" purity="7.2502303123474121e-01" nType="0">
          <Node pos="l" depth="2" NCoef="0" IVar="0" Cut="3.8064001464843750e+02" cType="1" res="-9.4339819625020027e-03" rms="3.7667676806449890e-01" purity="3.2773488759994507e-01" nType="0">
            <Node pos="l" depth="3" NCoef="0" IVar="-1" Cut="0.0000000000000000e+00" cType="1" res="2.2913040593266487e-03" rms="3.5373473167419434e-01" purity="2.4119086563587189e-01" nType="-99"/>
            <Node pos="r" depth="3" NCoef="0" IVar="-1" Cut="0.0000000000000000e+00" cType="1" res="-1.5149709768593311e-02" rms="4.0437296032905579e-01" purity="4.4185337424278259e-01" nType="-99"/>
          </Node>
          <Node pos="r" depth="2" NCoef="0" IVar="8" Cut="-1.1999871730804443e+00" cType="1" res="8.9041661703959107e-04" rms="2.5943970680236816e-01" purity="8.8110053539276123e-01" nType="0">
            <Node pos="l" depth="3" NCoef="0" IVar="-1" Cut="0.0000000000000000e+00" cType="1" res="-1.3237138278782368e-02" rms="3.3640274405479431e-01" purity="7.1851390600204468e-01" nType="-99"/>
            <Node pos="r" depth="3" NCoef="0" IVar="-1" Cut="0.0000000000000000e+00" cType="1" res="3.1383198220282793e-03" rms="2.5283166766166687e-01" purity="8.9303308725357056e-01" nType="-99"/>
          </Node>
        </Node>
      </Node>
    </BinaryTree>
    <BinaryTree type="DecisionTree" boostWeight="1.0000000000000000e+00" itree="616">
      <Node pos="s" depth="0" NCoef="0" IVar="7" Cut="-9.1654735803604126e-01" cType="1" res="-1.1839135549962521e-04" rms="2.9508039355278015e-01" purity="5.0109523534774780e-01" nType="0">
        <Node pos="l" depth="1" NCoef="0" IVar="1" Cut="1.0025392456054688e+03" cType="1" res="-1.0065801441669464e-02" rms="2.6714375615119934e-01" purity="2.4672661721706390e-01" nType="0">
          <Node pos="l" depth="2" NCoef="0" IVar="-1" Cut="0.0000000000000000e+00" cType="1" res="5.6487429887056351e-02" rms="1.6663919389247894e-01" purity="3.2244943082332611e-02" nType="-99"/>
          <Node pos="r" depth="2" NCoef="0" IVar="5" Cut="1.9783825683593750e+02" cType="1" res="-1.7053585499525070e-02" rms="2.9246434569358826e-01" purity="3.1740489602088928e-01" nType="0">
            <Node pos="l" depth="3" NCoef="0" IVar="-1" Cut="0.0000000000000000e+00" cType="1" res="-2.4829450994729996e-02" rms="2.8154647350311279e-01" purity="1.9470964372158051e-01" nType="-99"/>
            <Node pos="r" depth="3" NCoef="0" IVar="-1" Cut="0.0000000000000000e+00" cType="1" res="2.4222135543823242e-03" rms="3.2418671250343323e-01" purity="7.1032661199569702e-01" nType="-99"/>
          </Node>
        </Node>
        <Node pos="r" depth="1" NCoef="0" IVar="0" Cut="4.5299533081054688e+02" cType="1" res="1.6580603551119566e-03" rms="2.9976084828376770e-01" purity="5.4652148485183716e-01" nType="0">
          <Node pos="l" depth="2" NCoef="0" IVar="0" Cut="4.0199633789062500e+02" cType="1" res="6.0657770372927189e-03" rms="3.1948012113571167e-01" purity="2.7363348007202148e-01" nType="0">
            <Node pos="l" depth="3" NCoef="0" IVar="-1" Cut="0.0000000000000000e+00" cType="1" res="1.0951073840260506e-02" rms="3.1147712469100952e-01" purity="2.2802990674972534e-01" nType="-99"/>
            <Node pos="r" depth="3" NCoef="0" IVar="-1" Cut="0.0000000000000000e+00" cType="1" res="-5.8327573351562023e-03" rms="3.4232512116432190e-01" purity="4.1222617030143738e-01" nType="-99"/>
          </Node>
          <Node pos="r" depth="2" NCoef="0" IVar="5" Cut="1.0495019531250000e+02" cType="1" res="-2.3865203838795424e-03" rms="2.8038799762725830e-01" purity="7.9692721366882324e-01" nType="0">
            <Node pos="l" depth="3" NCoef="0" IVar="-1" Cut="0.0000000000000000e+00" cType="1" res="-1.7277896404266357e-02" rms="3.6118438839912415e-01" purity="3.3181047439575195e-01" nType="-99"/>
            <Node pos="r" depth="3" NCoef="0" IVar="-1" Cut="0.0000000000000000e+00" cType="1" res="1.6234074719250202e-03" rms="2.6426240801811218e-01" purity="8.7496286630630493e-01" nType="-99"/>
          </Node>
        </Node>
      </Node>
    </BinaryTree>
    <BinaryTree type="DecisionTree" boostWeight="1.0000000000000000e+00" itree="617">
      <Node pos="s" depth="0" NCoef="0" IVar="9" Cut="1.7332468032836914e+00" cType="1" res="-3.2473984174430370e-03" rms="2.9569149017333984e-01" purity="4.9632897973060608e-01" nType="0">
        <Node pos="l" depth="1" NCoef="0" IVar="8" Cut="9.3322294950485229e-01" cType="1" res="-4.1805976070463657e-03" rms="2.9570358991622925e-01" purity="5.1340025663375854e-01" nType="0">
          <Node pos="l" depth="2" NCoef="0" IVar="8" Cut="-1.2000440359115601e+00" cType="1" res="-5.4917172528803349e-03" rms="2.9494762420654297e-01" purity="5.4569619894027710e-01" nType="0">
            <Node pos="l" depth="3" NCoef="0" IVar="-1" Cut="0.0000000000000000e+00" cType="1" res="2.3195457179099321e-03" rms="2.8850829601287842e-01" purity="2.8338655829429626e-01" nType="-99"/>
            <Node pos="r" depth="3" NCoef="0" IVar="-1" Cut="0.0000000000000000e+00" cType="1" res="-7.7080046758055687e-03" rms="2.9610809683799744e-01" purity="5.9444200992584229e-01" nType="-99"/>
          </Node>
          <Node pos="r" depth="2" NCoef="0" IVar="9" Cut="8.6977380514144897e-01" cType="1" res="1.6915255691856146e-03" rms="2.9899540543556213e-01" purity="3.6875650286674500e-01" nType="0">
            <Node pos="l" depth="3" NCoef="0" IVar="-1" Cut="0.0000000000000000e+00" cType="1" res="7.1387519128620625e-03" rms="3.0226615071296692e-01" purity="3.8894361257553101e-01" nType="-99"/>
            <Node pos="r" depth="3" NCoef="0" IVar="-1" Cut="0.0000000000000000e+00" cType="1" res="-1.9081465899944305e-02" rms="2.8517022728919983e-01" purity="2.9031068086624146e-01" nType="-99"/>
          </Node>
        </Node>
        <Node pos="r" depth="1" NCoef="0" IVar="10" Cut="-1.3287292420864105e-01" cType="1" res="9.5179369673132896e-03" rms="2.9522985219955444e-01" purity="2.6280909776687622e-01" nType="0">
          <Node pos="l" depth="2" NCoef="0" IVar="-1" Cut="0.0000000000000000e+00" cType="1" res="2.3638278245925903e-02" rms="3.1627157330513000e-01" purity="3.0816471576690674e-01" nType="-99"/>
          <Node pos="r" depth="2" NCoef="0" IVar="-1" Cut="0.0000000000000000e+00" cType="1" res="7.0973025867715478e-04" rms="2.7875423431396484e-01" purity="2.3014864325523376e-01" nType="-99"/>
        </Node>
      </Node>
    </BinaryTree>
    <BinaryTree type="DecisionTree" boostWeight="1.0000000000000000e+00" itree="618">
      <Node pos="s" depth="0" NCoef="0" IVar="9" Cut="1.1999810934066772e+00" cType="1" res="-3.7518067983910441e-05" rms="2.9551649093627930e-01" purity="5.0004011392593384e-01" nType="0">
        <Node pos="l" depth="1" NCoef="0" IVar="8" Cut="-9.3337017297744751e-01" cType="1" res="-1.9037191523239017e-03" rms="2.9405638575553894e-01" purity="5.2568578720092773e-01" nType="0">
          <Node pos="l" depth="2" NCoef="0" IVar="2" Cut="1.6980443149805069e-02" cType="1" res="-8.6448555812239647e-03" rms="2.8844657540321350e-01" purity="3.4664154052734375e-01" nType="0">
            <Node pos="l" depth="3" NCoef="0" IVar="-1" Cut="0.0000000000000000e+00" cType="1" res="2.6332926936447620e-03" rms="2.5857767462730408e-01" purity="1.5979085862636566e-01" nType="-99"/>
            <Node pos="r" depth="3" NCoef="0" IVar="-1" Cut="0.0000000000000000e+00" cType="1" res="-1.6258386895060539e-02" rms="3.0906254053115845e-01" purity="4.8917958140373230e-01" nType="-99"/>
          </Node>
          <Node pos="r" depth="2" NCoef="0" IVar="10" Cut="1.7331361770629883e+00" cType="1" res="-3.4154200693592429e-04" rms="2.9531922936439514e-01" purity="5.6717711687088013e-01" nType="0">
            <Node pos="l" depth="3" NCoef="0" IVar="-1" Cut="0.0000000000000000e+00" cType="1" res="-1.5618163160979748e-03" rms="2.9302448034286499e-01" purity="5.7808089256286621e-01" nType="-99"/>
            <Node pos="r" depth="3" NCoef="0" IVar="-1" Cut="0.0000000000000000e+00" cType="1" res="1.1566090397536755e-02" rms="3.2029122114181519e-01" purity="4.4184309244155884e-01" nType="-99"/>
          </Node>
        </Node>
        <Node pos="r" depth="1" NCoef="0" IVar="9" Cut="1.5809363126754761e+00" cType="1" res="1.0398939251899719e-02" rms="3.0334094166755676e-01" purity="3.5662049055099487e-01" nType="0">
          <Node pos="l" depth="2" NCoef="0" IVar="10" Cut="1.3341949880123138e-01" cType="1" res="2.2072516381740570e-02" rms="3.2778978347778320e-01" purity="4.4788980484008789e-01" nType="0">
            <Node pos="l" depth="3" NCoef="0" IVar="-1" Cut="0.0000000000000000e+00" cType="1" res="4.1695874184370041e-02" rms="3.5127967596054077e-01" purity="4.9890610575675964e-01" nType="-99"/>
            <Node pos="r" depth="3" NCoef="0" IVar="-1" Cut="0.0000000000000000e+00" cType="1" res="-1.9855736172758043e-04" rms="3.0050975084304810e-01" purity="3.9621987938880920e-01" nType="-99"/>
          </Node>
          <Node pos="r" depth="2" NCoef="0" IVar="0" Cut="4.2253054809570312e+02" cType="1" res="2.1096018608659506e-03" rms="2.8441730141639709e-01" purity="2.9181069135665894e-01" nType="0">
            <Node pos="l" depth="3" NCoef="0" IVar="-1" Cut="0.0000000000000000e+00" cType="1" res="-1.8297474831342697e-02" rms="2.3010498285293579e-01" purity="9.6348226070404053e-02" nType="-99"/>
            <Node pos="r" depth="3" NCoef="0" IVar="-1" Cut="0.0000000000000000e+00" cType="1" res="1.6318812966346741e-02" rms="3.4024956822395325e-01" purity="5.3942340612411499e-01" nType="-99"/>
          </Node>
        </Node>
      </Node>
    </BinaryTree>
    <BinaryTree type="DecisionTree" boostWeight="1.0000000000000000e+00" itree="619">
      <Node pos="s" depth="0" NCoef="0" IVar="2" Cut="2.1328758448362350e-02" cType="1" res="2.8885915526188910e-04" rms="2.9846677184104919e-01" purity="4.9687775969505310e-01" nType="0">
        <Node pos="l" depth="1" NCoef="0" IVar="2" Cut="5.0784391351044178e-03" cType="1" res="4.2817858047783375e-03" rms="2.8182587027549744e-01" purity="2.4598625302314758e-01" nType="0">
          <Node pos="l" depth="2" NCoef="0" IVar="5" Cut="1.3421598815917969e+02" cType="1" res="1.2130963616073132e-02" rms="2.5199019908905029e-01" purity="1.5892499685287476e-01" nType="0">
            <Node pos="l" depth="3" NCoef="0" IVar="-1" Cut="0.0000000000000000e+00" cType="1" res="6.1368853785097599e-03" rms="2.1208111941814423e-01" purity="8.1344239413738251e-02" nType="-99"/>
            <Node pos="r" depth="3" NCoef="0" IVar="-1" Cut="0.0000000000000000e+00" cType="1" res="3.5852078348398209e-02" rms="3.4237647056579590e-01" purity="3.8827797770500183e-01" nType="-99"/>
          </Node>
          <Node pos="r" depth="2" NCoef="0" IVar="8" Cut="3.9998084306716919e-01" cType="1" res="6.9413421442732215e-04" rms="2.9438835382461548e-01" purity="2.8577962517738342e-01" nType="0">
            <Node pos="l" depth="3" NCoef="0" IVar="-1" Cut="0.0000000000000000e+00" cType="1" res="-5.4436516948044300e-03" rms="2.9095149040222168e-01" purity="2.9687988758087158e-01" nType="-99"/>
            <Node pos="r" depth="3" NCoef="0" IVar="-1" Cut="0.0000000000000000e+00" cType="1" res="1.0862333700060844e-02" rms="2.9940301179885864e-01" purity="2.6869538426399231e-01" nType="-99"/>
          </Node>
        </Node>
        <Node pos="r" depth="1" NCoef="0" IVar="4" Cut="1.3288546752929688e+02" cType="1" res="-1.9639425445348024e-03" rms="3.0743545293807983e-01" purity="6.3843029737472534e-01" nType="0">
          <Node pos="l" depth="2" NCoef="0" IVar="9" Cut="-1.3290840387344360e-01" cType="1" res="1.1367489583790302e-02" rms="2.6674765348434448e-01" purity="1.1233650892972946e-01" nType="0">
            <Node pos="l" depth="3" NCoef="0" IVar="-1" Cut="0.0000000000000000e+00" cType="1" res="-2.0062295719981194e-02" rms="2.0631937682628632e-01" purity="7.4157878756523132e-02" nType="-99"/>
            <Node pos="r" depth="3" NCoef="0" IVar="-1" Cut="0.0000000000000000e+00" cType="1" res="3.9392888545989990e-02" rms="3.0602303147315979e-01" purity="1.4345131814479828e-01" nType="-99"/>
          </Node>
          <Node pos="r" depth="2" NCoef="0" IVar="6" Cut="7.8424385070800781e+01" cType="1" res="-3.5270750522613525e-03" rms="3.1182134151458740e-01" purity="7.0011562108993530e-01" nType="0">
            <Node pos="l" depth="3" NCoef="0" IVar="-1" Cut="0.0000000000000000e+00" cType="1" res="-9.3346582725644112e-03" rms="3.4979924559593201e-01" purity="4.1176101565361023e-01" nType="-99"/>
            <Node pos="r" depth="3" NCoef="0" IVar="-1" Cut="0.0000000000000000e+00" cType="1" res="-1.1310884729027748e-03" rms="2.9889395833015442e-01" purity="7.9041135311126709e-01" nType="-99"/>
          </Node>
        </Node>
      </Node>
    </BinaryTree>
    <BinaryTree type="DecisionTree" boostWeight="1.0000000000000000e+00" itree="620">
      <Node pos="s" depth="0" NCoef="0" IVar="9" Cut="1.9999843835830688e+00" cType="1" res="-1.0931247379630804e-03" rms="2.9771739244461060e-01" purity="4.9714341759681702e-01" nType="0">
        <Node pos="l" depth="1" NCoef="0" IVar="8" Cut="1.9998791217803955e+00" cType="1" res="-2.0031798339914531e-04" rms="2.9919058084487915e-01" purity="5.0947165489196777e-01" nType="0">
          <Node pos="l" depth="2" NCoef="0" IVar="8" Cut="1.5427533388137817e+00" cType="1" res="-1.0186808649450541e-03" rms="3.0046516656875610e-01" purity="5.2199226617813110e-01" nType="0">
            <Node pos="l" depth="3" NCoef="0" IVar="-1" Cut="0.0000000000000000e+00" cType="1" res="3.2579991966485977e-04" rms="3.0084222555160522e-01" purity="5.3460347652435303e-01" nType="-99"/>
            <Node pos="r" depth="3" NCoef="0" IVar="-1" Cut="0.0000000000000000e+00" cType="1" res="-3.4117002040147781e-02" rms="2.9022613167762756e-01" purity="2.3673799633979797e-01" nType="-99"/>
          </Node>
          <Node pos="r" depth="2" NCoef="0" IVar="-1" Cut="0.0000000000000000e+00" cType="1" res="4.9422822892665863e-02" rms="2.5483459234237671e-01" purity="1.1797665059566498e-01" nType="-99"/>
        </Node>
        <Node pos="r" depth="1" NCoef="0" IVar="-1" Cut="0.0000000000000000e+00" cType="1" res="-3.0009513720870018e-02" rms="2.5887981057167053e-01" purity="2.0080846548080444e-01" nType="-99"/>
      </Node>
    </BinaryTree>
    <BinaryTree type="DecisionTree" boostWeight="1.0000000000000000e+00" itree="621">
      <Node pos="s" depth="0" NCoef="0" IVar="7" Cut="-1.7241818904876709e+00" cType="1" res="3.3875119406729937e-03" rms="2.9514050483703613e-01" purity="5.0673776865005493e-01" nType="0">
        <Node pos="l" depth="1" NCoef="0" IVar="-1" Cut="0.0000000000000000e+00" cType="1" res="-3.5600226372480392e-02" rms="1.6532456874847412e-01" purity="6.3664734363555908e-02" nType="-99"/>
        <Node pos="r" depth="1" NCoef="0" IVar="1" Cut="1.6831198730468750e+03" cType="1" res="4.0087690576910973e-03" rms="2.9864490032196045e-01" purity="5.2224624156951904e-01" nType="0">
          <Node pos="l" depth="2" NCoef="0" IVar="1" Cut="1.2205343017578125e+03" cType="1" res="6.5935119055211544e-03" rms="3.2599377632141113e-01" purity="3.1078028678894043e-01" nType="0">
            <Node pos="l" depth="3" NCoef="0" IVar="-1" Cut="0.0000000000000000e+00" cType="1" res="3.2977602677419782e-04" rms="2.6186832785606384e-01" purity="9.6401013433933258e-02" nType="-99"/>
            <Node pos="r" depth="3" NCoef="0" IVar="-1" Cut="0.0000000000000000e+00" cType="1" res="9.1200927272439003e-03" rms="3.8531759381294250e-01" purity="5.5130320787429810e-01" nType="-99"/>
          </Node>
          <Node pos="r" depth="2" NCoef="0" IVar="4" Cut="2.4111625671386719e+02" cType="1" res="-6.9271051324903965e-04" rms="2.4100074172019958e-01" purity="9.0688902139663696e-01" nType="0">
            <Node pos="l" depth="3" NCoef="0" IVar="-1" Cut="0.0000000000000000e+00" cType="1" res="1.3843027874827385e-02" rms="3.2074305415153503e-01" purity="8.2105559110641479e-01" nType="-99"/>
            <Node pos="r" depth="3" NCoef="0" IVar="-1" Cut="0.0000000000000000e+00" cType="1" res="-5.2739791572093964e-03" rms="2.2829313576221466e-01" purity="9.1824823617935181e-01" nType="-99"/>
          </Node>
        </Node>
      </Node>
    </BinaryTree>
    <BinaryTree type="DecisionTree" boostWeight="1.0000000000000000e+00" itree="622">
      <Node pos="s" depth="0" NCoef="0" IVar="8" Cut="1.3331982493400574e-01" cType="1" res="1.0010672267526388e-03" rms="2.9923644661903381e-01" purity="4.9614274501800537e-01" nType="0">
        <Node pos="l" depth="1" NCoef="0" IVar="5" Cut="1.5985702514648438e+02" cType="1" res="5.8821607381105423e-03" rms="3.0190533399581909e-01" purity="5.1102733612060547e-01" nType="0">
          <Node pos="l" depth="2" NCoef="0" IVar="7" Cut="4.0414276719093323e-01" cType="1" res="1.0098933242261410e-02" rms="3.1366923451423645e-01" purity="2.7999249100685120e-01" nType="0">
            <Node pos="l" depth="3" NCoef="0" IVar="-1" Cut="0.0000000000000000e+00" cType="1" res="3.6637822631746531e-03" rms="3.1647369265556335e-01" purity="2.9689690470695496e-01" nType="-99"/>
            <Node pos="r" depth="3" NCoef="0" IVar="-1" Cut="0.0000000000000000e+00" cType="1" res="2.6467271149158478e-02" rms="3.0750063061714172e-01" purity="2.4583122134208679e-01" nType="-99"/>
          </Node>
          <Node pos="r" depth="2" NCoef="0" IVar="8" Cut="-9.8399555683135986e-01" cType="1" res="3.8338737795129418e-04" rms="2.8574502468109131e-01" purity="8.1230252981185913e-01" nType="0">
            <Node pos="l" depth="3" NCoef="0" IVar="-1" Cut="0.0000000000000000e+00" cType="1" res="1.1121611110866070e-02" rms="3.4345352649688721e-01" purity="6.6525793075561523e-01" nType="-99"/>
            <Node pos="r" depth="3" NCoef="0" IVar="-1" Cut="0.0000000000000000e+00" cType="1" res="-4.1693723760545254e-03" rms="2.6693043112754822e-01" purity="8.5419809818267822e-01" nType="-99"/>
          </Node>
        </Node>
        <Node pos="r" depth="1" NCoef="0" IVar="9" Cut="-3.9975264668464661e-01" cType="1" res="-5.0907912664115429e-03" rms="2.9575881361961365e-01" purity="4.7756597399711609e-01" nType="0">
          <Node pos="l" depth="2" NCoef="0" IVar="7" Cut="-3.7278315424919128e-01" cType="1" res="2.3452450986951590e-03" rms="3.0423626303672791e-01" purity="4.7398388385772705e-01" nType="0">
            <Node pos="l" depth="3" NCoef="0" IVar="-1" Cut="0.0000000000000000e+00" cType="1" res="1.7031274735927582e-02" rms="3.0794975161552429e-01" purity="4.0330737829208374e-01" nType="-99"/>
            <Node pos="r" depth="3" NCoef="0" IVar="-1" Cut="0.0000000000000000e+00" cType="1" res="-6.0494467616081238e-03" rms="3.0183532834053040e-01" purity="5.1390844583511353e-01" nType="-99"/>
          </Node>
          <Node pos="r" depth="2" NCoef="0" IVar="7" Cut="4.3676781654357910e-01" cType="1" res="-8.8140117004513741e-03" rms="2.9135024547576904e-01" purity="4.7935944795608521e-01" nType="0">
            <Node pos="l" depth="3" NCoef="0" IVar="-1" Cut="0.0000000000000000e+00" cType="1" res="-1.5046019107103348e-02" rms="2.8940191864967346e-01" purity="5.3140568733215332e-01" nType="-99"/>
            <Node pos="r" depth="3" NCoef="0" IVar="-1" Cut="0.0000000000000000e+00" cType="1" res="-6.7557784495875239e-04" rms="2.9462885856628418e-01" purity="3.8612800836563110e-01" nType="-99"/>
          </Node>
        </Node>
      </Node>
    </BinaryTree>
    <BinaryTree type="DecisionTree" boostWeight="1.0000000000000000e+00" itree="623">
      <Node pos="s" depth="0" NCoef="0" IVar="2" Cut="6.1686210334300995e-02" cType="1" res="-2.1425702143460512e-03" rms="2.9366293549537659e-01" purity="4.9718591570854187e-01" nType="0">
        <Node pos="l" depth="1" NCoef="0" IVar="2" Cut="5.8749611489474773e-03" cType="1" res="-5.6037208996713161e-03" rms="2.9366081953048706e-01" purity="3.5883614420890808e-01" nType="0">
          <Node pos="l" depth="2" NCoef="0" IVar="9" Cut="9.3327093124389648e-01" cType="1" res="5.2014468237757683e-03" rms="2.5260129570960999e-01" purity="1.5914750099182129e-01" nType="0">
            <Node pos="l" depth="3" NCoef="0" IVar="-1" Cut="0.0000000000000000e+00" cType="1" res="-1.8001049757003784e-03" rms="2.4937200546264648e-01" purity="1.7375396192073822e-01" nType="-99"/>
            <Node pos="r" depth="3" NCoef="0" IVar="-1" Cut="0.0000000000000000e+00" cType="1" res="4.4276531785726547e-02" rms="2.6080480217933655e-01" purity="1.1710836738348007e-01" nType="-99"/>
          </Node>
          <Node pos="r" depth="2" NCoef="0" IVar="2" Cut="5.3711950778961182e-02" cType="1" res="-8.2524325698614120e-03" rms="3.0281874537467957e-01" purity="4.0778660774230957e-01" nType="0">
            <Node pos="l" depth="3" NCoef="0" IVar="-1" Cut="0.0000000000000000e+00" cType="1" res="-6.9530629552900791e-03" rms="3.0216833949089050e-01" purity="3.9454868435859680e-01" nType="-99"/>
            <Node pos="r" depth="3" NCoef="0" IVar="-1" Cut="0.0000000000000000e+00" cType="1" res="-2.7963872998952866e-02" rms="3.1011128425598145e-01" purity="5.7273995876312256e-01" nType="-99"/>
          </Node>
        </Node>
        <Node pos="r" depth="1" NCoef="0" IVar="1" Cut="1.2826639404296875e+03" cType="1" res="4.6365107409656048e-03" rms="2.9354891180992126e-01" purity="7.6816058158874512e-01" nType="0">
          <Node pos="l" depth="2" NCoef="0" IVar="-1" Cut="0.0000000000000000e+00" cType="1" res="1.2199369259178638e-02" rms="3.9129263162612915e-01" purity="3.2114672660827637e-01" nType="-99"/>
          <Node pos="r" depth="2" NCoef="0" IVar="2" Cut="9.6936054527759552e-02" cType="1" res="-7.8597222454845905e-05" rms="2.5417312979698181e-01" purity="9.1157221794128418e-01" nType="0">
            <Node pos="l" depth="3" NCoef="0" IVar="-1" Cut="0.0000000000000000e+00" cType="1" res="6.2912176363170147e-03" rms="2.8816086053848267e-01" purity="8.7960594892501831e-01" nType="-99"/>
            <Node pos="r" depth="3" NCoef="0" IVar="-1" Cut="0.0000000000000000e+00" cType="1" res="-6.3512637279927731e-03" rms="2.3166032135486603e-01" purity="9.3049138784408569e-01" nType="-99"/>
          </Node>
        </Node>
      </Node>
    </BinaryTree>
    <BinaryTree type="DecisionTree" boostWeight="1.0000000000000000e+00" itree="624">
      <Node pos="s" depth="0" NCoef="0" IVar="7" Cut="1.3859160244464874e-01" cType="1" res="1.9267479729023762e-05" rms="2.9711449146270752e-01" purity="4.9521449208259583e-01" nType="0">
        <Node pos="l" depth="1" NCoef="0" IVar="3" Cut="6.3790661621093750e+02" cType="1" res="2.7439065743237734e-03" rms="2.9901549220085144e-01" purity="5.1817023754119873e-01" nType="0">
          <Node pos="l" depth="2" NCoef="0" IVar="3" Cut="2.4170588684082031e+02" cType="1" res="1.9175298803020269e-04" rms="2.9872599244117737e-01" purity="4.7511211037635803e-01" nType="0">
            <Node pos="l" depth="3" NCoef="0" IVar="-1" Cut="0.0000000000000000e+00" cType="1" res="1.9674116745591164e-02" rms="2.9685917496681213e-01" purity="1.7400880157947540e-01" nType="-99"/>
            <Node pos="r" depth="3" NCoef="0" IVar="-1" Cut="0.0000000000000000e+00" cType="1" res="-1.8748046131804585e-03" rms="2.9889169335365295e-01" purity="5.1112139225006104e-01" nType="-99"/>
          </Node>
          <Node pos="r" depth="2" NCoef="0" IVar="1" Cut="2.3065307617187500e+03" cType="1" res="1.9733332097530365e-02" rms="3.0038347840309143e-01" purity="8.0480372905731201e-01" nType="0">
            <Node pos="l" depth="3" NCoef="0" IVar="-1" Cut="0.0000000000000000e+00" cType="1" res="2.9662108048796654e-02" rms="3.6184293031692505e-01" purity="6.8111264705657959e-01" nType="-99"/>
            <Node pos="r" depth="3" NCoef="0" IVar="-1" Cut="0.0000000000000000e+00" cType="1" res="-4.3328234460204840e-04" rms="2.1345990896224976e-01" purity="9.3821620941162109e-01" nType="-99"/>
          </Node>
        </Node>
        <Node pos="r" depth="1" NCoef="0" IVar="3" Cut="6.9787805175781250e+02" cType="1" res="-3.5128430463373661e-03" rms="2.9459431767463684e-01" purity="4.6545556187629700e-01" nType="0">
          <Node pos="l" depth="2" NCoef="0" IVar="8" Cut="6.6679006814956665e-01" cType="1" res="-2.0764085929840803e-03" rms="2.9398563504219055e-01" purity="4.4203671813011169e-01" nType="0">
            <Node pos="l" depth="3" NCoef="0" IVar="-1" Cut="0.0000000000000000e+00" cType="1" res="1.5234486199915409e-03" rms="2.9826632142066956e-01" purity="4.8830071091651917e-01" nType="-99"/>
            <Node pos="r" depth="3" NCoef="0" IVar="-1" Cut="0.0000000000000000e+00" cType="1" res="-1.2561473995447159e-02" rms="2.8282821178436279e-01" purity="3.2646122574806213e-01" nType="-99"/>
          </Node>
          <Node pos="r" depth="2" NCoef="0" IVar="-1" Cut="0.0000000000000000e+00" cType="1" res="-2.4824531748890877e-02" rms="3.0178260803222656e-01" purity="7.7027797698974609e-01" nType="-99"/>
        </Node>
      </Node>
    </BinaryTree>
    <BinaryTree type="DecisionTree" boostWeight="1.0000000000000000e+00" itree="625">
      <Node pos="s" depth="0" NCoef="0" IVar="8" Cut="-1.4665654897689819e+00" cType="1" res="5.3272186778485775e-04" rms="2.9505616426467896e-01" purity="5.0280094146728516e-01" nType="0">
        <Node pos="l" depth="1" NCoef="0" IVar="8" Cut="-1.7205320596694946e+00" cType="1" res="1.4961290173232555e-02" rms="2.7511993050575256e-01" purity="2.3039264976978302e-01" nType="0">
          <Node pos="l" depth="2" NCoef="0" IVar="10" Cut="-1.3347288966178894e-01" cType="1" res="4.8150494694709778e-03" rms="2.5195622444152832e-01" purity="1.5239575505256653e-01" nType="0">
            <Node pos="l" depth="3" NCoef="0" IVar="-1" Cut="0.0000000000000000e+00" cType="1" res="-4.7908416017889977e-03" rms="2.4526676535606384e-01" purity="1.1919746547937393e-01" nType="-99"/>
            <Node pos="r" depth="3" NCoef="0" IVar="-1" Cut="0.0000000000000000e+00" cType="1" res="1.7993511632084846e-02" rms="2.5870421528816223e-01" purity="1.8811187148094177e-01" nType="-99"/>
          </Node>
          <Node pos="r" depth="2" NCoef="0" IVar="-1" Cut="0.0000000000000000e+00" cType="1" res="3.3993136137723923e-02" rms="3.1172606348991394e-01" purity="3.7095165252685547e-01" nType="-99"/>
        </Node>
        <Node pos="r" depth="1" NCoef="0" IVar="6" Cut="7.8846519470214844e+01" cType="1" res="-8.1327772932127118e-04" rms="2.9681193828582764e-01" purity="5.2821314334869385e-01" nType="0">
          <Node pos="l" depth="2" NCoef="0" IVar="10" Cut="-6.6643929481506348e-01" cType="1" res="-5.8407420292496681e-03" rms="2.9009696841239929e-01" purity="2.3389686644077301e-01" nType="0">
            <Node pos="l" depth="3" NCoef="0" IVar="-1" Cut="0.0000000000000000e+00" cType="1" res="-2.0094307139515877e-02" rms="2.8359907865524292e-01" purity="2.1572807431221008e-01" nType="-99"/>
            <Node pos="r" depth="3" NCoef="0" IVar="-1" Cut="0.0000000000000000e+00" cType="1" res="-6.8444013595581055e-04" rms="2.9278400540351868e-01" purity="2.4196738004684448e-01" nType="-99"/>
          </Node>
          <Node pos="r" depth="2" NCoef="0" IVar="9" Cut="-1.4666837453842163e+00" cType="1" res="2.4350627791136503e-03" rms="3.0102631449699402e-01" purity="7.1837651729583740e-01" nType="0">
            <Node pos="l" depth="3" NCoef="0" IVar="-1" Cut="0.0000000000000000e+00" cType="1" res="1.6872920095920563e-02" rms="3.4970405697822571e-01" purity="5.5016553401947021e-01" nType="-99"/>
            <Node pos="r" depth="3" NCoef="0" IVar="-1" Cut="0.0000000000000000e+00" cType="1" res="1.1667547514662147e-03" rms="2.9668134450912476e-01" purity="7.3202991485595703e-01" nType="-99"/>
          </Node>
        </Node>
      </Node>
    </BinaryTree>
    <BinaryTree type="DecisionTree" boostWeight="1.0000000000000000e+00" itree="626">
      <Node pos="s" depth="0" NCoef="0" IVar="1" Cut="1.4400631103515625e+03" cType="1" res="3.7382128648459911e-03" rms="2.9934585094451904e-01" purity="5.0283050537109375e-01" nType="0">
        <Node pos="l" depth="1" NCoef="0" IVar="4" Cut="1.3606076049804688e+02" cType="1" res="7.7381031587719917e-03" rms="3.0971080064773560e-01" purity="1.9178567826747894e-01" nType="0">
          <Node pos="l" depth="2" NCoef="0" IVar="1" Cut="1.1352695312500000e+03" cType="1" res="-3.6098230630159378e-03" rms="1.8961481750011444e-01" purity="4.5234873890876770e-02" nType="0">
            <Node pos="l" depth="3" NCoef="0" IVar="-1" Cut="0.0000000000000000e+00" cType="1" res="-3.1809344887733459e-02" rms="1.4751577377319336e-01" purity="2.3971796035766602e-02" nType="-99"/>
            <Node pos="r" depth="3" NCoef="0" IVar="-1" Cut="0.0000000000000000e+00" cType="1" res="3.0734179541468620e-02" rms="3.2868954539299011e-01" purity="1.5495122969150543e-01" nType="-99"/>
          </Node>
          <Node pos="r" depth="2" NCoef="0" IVar="10" Cut="-9.3333148956298828e-01" cType="1" res="1.2855242006480694e-02" rms="3.5053893923759460e-01" purity="2.5787004828453064e-01" nType="0">
            <Node pos="l" depth="3" NCoef="0" IVar="-1" Cut="0.0000000000000000e+00" cType="1" res="-1.8799103563651443e-03" rms="3.2772248983383179e-01" purity="2.2574977576732635e-01" nType="-99"/>
            <Node pos="r" depth="3" NCoef="0" IVar="-1" Cut="0.0000000000000000e+00" cType="1" res="1.4637363143265247e-02" rms="3.5763832926750183e-01" purity="2.6851096749305725e-01" nType="-99"/>
          </Node>
        </Node>
        <Node pos="r" depth="1" NCoef="0" IVar="7" Cut="-1.0984610319137573e+00" cType="1" res="-5.1046907901763916e-04" rms="2.8786695003509521e-01" purity="8.3322221040725708e-01" nType="0">
          <Node pos="l" depth="2" NCoef="0" IVar="-1" Cut="0.0000000000000000e+00" cType="1" res="2.8130628168582916e-02" rms="3.4714040160179138e-01" purity="6.1849784851074219e-01" nType="-99"/>
          <Node pos="r" depth="2" NCoef="0" IVar="8" Cut="9.3298333883285522e-01" cType="1" res="-3.0387928709387779e-03" rms="2.8308349847793579e-01" purity="8.4824502468109131e-01" nType="0">
            <Node pos="l" depth="3" NCoef="0" IVar="-1" Cut="0.0000000000000000e+00" cType="1" res="-1.0291583603248000e-03" rms="2.7473294734954834e-01" purity="8.6536270380020142e-01" nType="-99"/>
            <Node pos="r" depth="3" NCoef="0" IVar="-1" Cut="0.0000000000000000e+00" cType="1" res="-1.6739765182137489e-02" rms="3.3390238881111145e-01" purity="7.3202902078628540e-01" nType="-99"/>
          </Node>
        </Node>
      </Node>
    </BinaryTree>
    <BinaryTree type="DecisionTree" boostWeight="1.0000000000000000e+00" itree="627">
      <Node pos="s" depth="0" NCoef="0" IVar="3" Cut="3.2889096069335938e+02" cType="1" res="-1.3972647138871253e-04" rms="2.9487121105194092e-01" purity="5.0039941072463989e-01" nType="0">
        <Node pos="l" depth="1" NCoef="0" IVar="4" Cut="2.2211100769042969e+02" cType="1" res="4.0347627364099026e-03" rms="2.9967948794364929e-01" purity="2.5668609142303467e-01" nType="0">
          <Node pos="l" depth="2" NCoef="0" IVar="1" Cut="9.4149334716796875e+02" cType="1" res="1.0134890675544739e-02" rms="2.8530582785606384e-01" purity="1.6498696804046631e-01" nType="0">
            <Node pos="l" depth="3" NCoef="0" IVar="-1" Cut="0.0000000000000000e+00" cType="1" res="-9.6474261954426765e-03" rms="1.4964240789413452e-01" purity="2.4325788021087646e-02" nType="-99"/>
            <Node pos="r" depth="3" NCoef="0" IVar="-1" Cut="0.0000000000000000e+00" cType="1" res="1.6031201928853989e-02" rms="3.4049025177955627e-01" purity="2.4766120314598083e-01" nType="-99"/>
          </Node>
          <Node pos="r" depth="2" NCoef="0" IVar="-1" Cut="0.0000000000000000e+00" cType="1" res="-1.3073144480586052e-02" rms="3.4155127406120300e-01" purity="5.5511683225631714e-01" nType="-99"/>
        </Node>
        <Node pos="r" depth="1" NCoef="0" IVar="7" Cut="-8.8451242446899414e-01" cType="1" res="-2.2210332099348307e-03" rms="2.9242214560508728e-01" purity="6.2190943956375122e-01" nType="0">
          <Node pos="l" depth="2" NCoef="0" IVar="3" Cut="4.2256726074218750e+02" cType="1" res="-1.3820067048072815e-02" rms="2.7677226066589355e-01" purity="3.5063439607620239e-01" nType="0">
            <Node pos="l" depth="3" NCoef="0" IVar="-1" Cut="0.0000000000000000e+00" cType="1" res="-4.8315548337996006e-03" rms="2.7862709760665894e-01" purity="3.0748313665390015e-01" nType="-99"/>
            <Node pos="r" depth="3" NCoef="0" IVar="-1" Cut="0.0000000000000000e+00" cType="1" res="-2.4896431714296341e-02" rms="2.7491512894630432e-01" purity="3.8720861077308655e-01" nType="-99"/>
          </Node>
          <Node pos="r" depth="2" NCoef="0" IVar="6" Cut="8.1792243957519531e+01" cType="1" res="-4.5988048077560961e-04" rms="2.9468578100204468e-01" purity="6.6309875249862671e-01" nType="0">
            <Node pos="l" depth="3" NCoef="0" IVar="-1" Cut="0.0000000000000000e+00" cType="1" res="-5.6667933240532875e-03" rms="3.2418927550315857e-01" purity="3.6558282375335693e-01" nType="-99"/>
            <Node pos="r" depth="3" NCoef="0" IVar="-1" Cut="0.0000000000000000e+00" cType="1" res="3.4360911231487989e-03" rms="2.7705383300781250e-01" purity="8.2690912485122681e-01" nType="-99"/>
          </Node>
        </Node>
      </Node>
    </BinaryTree>
    <BinaryTree type="DecisionTree" boostWeight="1.0000000000000000e+00" itree="628">
      <Node pos="s" depth="0" NCoef="0" IVar="9" Cut="1.7333195209503174e+00" cType="1" res="3.2240786822512746e-04" rms="2.9702252149581909e-01" purity="4.9931991100311279e-01" nType="0">
        <Node pos="l" depth="1" NCoef="0" IVar="7" Cut="1.5623548626899719e-01" cType="1" res="-1.2546844081953168e-03" rms="2.9710775613784790e-01" purity="5.1569217443466187e-01" nType="0">
          <Node pos="l" depth="2" NCoef="0" IVar="8" Cut="-1.7332631349563599e+00" cType="1" res="-4.3054567649960518e-03" rms="2.9642865061759949e-01" purity="5.2831286191940308e-01" nType="0">
            <Node pos="l" depth="3" NCoef="0" IVar="-1" Cut="0.0000000000000000e+00" cType="1" res="2.2308832034468651e-02" rms="2.9303723573684692e-01" purity="1.8813323974609375e-01" nType="-99"/>
            <Node pos="r" depth="3" NCoef="0" IVar="-1" Cut="0.0000000000000000e+00" cType="1" res="-6.0571087524294853e-03" rms="2.9658284783363342e-01" purity="5.4808592796325684e-01" nType="-99"/>
          </Node>
          <Node pos="r" depth="2" NCoef="0" IVar="8" Cut="1.3323454558849335e-01" cType="1" res="2.7694250456988811e-03" rms="2.9795342683792114e-01" purity="4.9904477596282959e-01" nType="0">
            <Node pos="l" depth="3" NCoef="0" IVar="-1" Cut="0.0000000000000000e+00" cType="1" res="-2.7223750948905945e-03" rms="2.9890960454940796e-01" purity="5.0872427225112915e-01" nType="-99"/>
            <Node pos="r" depth="3" NCoef="0" IVar="-1" Cut="0.0000000000000000e+00" cType="1" res="9.6012428402900696e-03" rms="2.9677566885948181e-01" purity="4.8825117945671082e-01" nType="-99"/>
          </Node>
        </Node>
        <Node pos="r" depth="1" NCoef="0" IVar="4" Cut="1.9584919738769531e+02" cType="1" res="2.1618209779262543e-02" rms="2.9504463076591492e-01" purity="2.7824217081069946e-01" nType="0">
          <Node pos="l" depth="2" NCoef="0" IVar="-1" Cut="0.0000000000000000e+00" cType="1" res="5.4862196557223797e-03" rms="2.3185108602046967e-01" purity="1.0170388966798782e-01" nType="-99"/>
          <Node pos="r" depth="2" NCoef="0" IVar="-1" Cut="0.0000000000000000e+00" cType="1" res="3.5897314548492432e-02" rms="3.5490772128105164e-01" purity="4.8932379484176636e-01" nType="-99"/>
        </Node>
      </Node>
    </BinaryTree>
    <BinaryTree type="DecisionTree" boostWeight="1.0000000000000000e+00" itree="629">
      <Node pos="s" depth="0" NCoef="0" IVar="8" Cut="9.3325442075729370e-01" cType="1" res="-1.2664118548855186e-03" rms="2.9445478320121765e-01" purity="4.9995902180671692e-01" nType="0">
        <Node pos="l" depth="1" NCoef="0" IVar="8" Cut="-1.5555770397186279e+00" cType="1" res="2.2625716519542038e-04" rms="2.9500028491020203e-01" purity="5.3951603174209595e-01" nType="0">
          <Node pos="l" depth="2" NCoef="0" IVar="0" Cut="3.9135357666015625e+02" cType="1" res="-9.7041511908173561e-03" rms="2.5562152266502380e-01" purity="1.7853109538555145e-01" nType="0">
            <Node pos="l" depth="3" NCoef="0" IVar="-1" Cut="0.0000000000000000e+00" cType="1" res="-5.2937719970941544e-02" rms="1.6695673763751984e-01" purity="3.4645941108465195e-02" nType="-99"/>
            <Node pos="r" depth="3" NCoef="0" IVar="-1" Cut="0.0000000000000000e+00" cType="1" res="3.4379430580884218e-03" rms="3.2493972778320312e-01" purity="3.3441922068595886e-01" nType="-99"/>
          </Node>
          <Node pos="r" depth="2" NCoef="0" IVar="8" Cut="-1.2000267505645752e+00" cType="1" res="1.1892261682078242e-03" rms="2.9852518439292908e-01" purity="5.7452136278152466e-01" nType="0">
            <Node pos="l" depth="3" NCoef="0" IVar="-1" Cut="0.0000000000000000e+00" cType="1" res="1.6044579446315765e-02" rms="3.2329723238945007e-01" purity="4.1157796978950500e-01" nType="-99"/>
            <Node pos="r" depth="3" NCoef="0" IVar="-1" Cut="0.0000000000000000e+00" cType="1" res="-4.1509902075631544e-06" rms="2.9637801647186279e-01" purity="5.8783417940139771e-01" nType="-99"/>
          </Node>
        </Node>
        <Node pos="r" depth="1" NCoef="0" IVar="10" Cut="-3.9997360110282898e-01" cType="1" res="-7.8705549240112305e-03" rms="2.9193744063377380e-01" purity="3.2494330406188965e-01" nType="0">
          <Node pos="l" depth="2" NCoef="0" IVar="0" Cut="3.9301440429687500e+02" cType="1" res="5.4422752000391483e-03" rms="3.0144664645195007e-01" purity="3.3709579706192017e-01" nType="0">
            <Node pos="l" depth="3" NCoef="0" IVar="-1" Cut="0.0000000000000000e+00" cType="1" res="2.8192497789859772e-02" rms="2.7494809031486511e-01" purity="1.4769202470779419e-01" nType="-99"/>
            <Node pos="r" depth="3" NCoef="0" IVar="-1" Cut="0.0000000000000000e+00" cType="1" res="-6.6727376542985439e-03" rms="3.2191288471221924e-01" purity="4.9954712390899658e-01" nType="-99"/>
          </Node>
          <Node pos="r" depth="2" NCoef="0" IVar="1" Cut="1.0678984375000000e+03" cType="1" res="-1.4369674026966095e-02" rms="2.8695657849311829e-01" purity="3.1901061534881592e-01" nType="0">
            <Node pos="l" depth="3" NCoef="0" IVar="-1" Cut="0.0000000000000000e+00" cType="1" res="2.9631559737026691e-03" rms="1.7176364362239838e-01" purity="3.2003536820411682e-02" nType="-99"/>
            <Node pos="r" depth="3" NCoef="0" IVar="-1" Cut="0.0000000000000000e+00" cType="1" res="-1.9814915955066681e-02" rms="3.2647821307182312e-01" purity="4.5154035091400146e-01" nType="-99"/>
          </Node>
        </Node>
      </Node>
    </BinaryTree>
    <BinaryTree type="DecisionTree" boostWeight="1.0000000000000000e+00" itree="630">
      <Node pos="s" depth="0" NCoef="0" IVar="6" Cut="8.5090904235839844e+01" cType="1" res="5.9225183213129640e-04" rms="2.9927617311477661e-01" purity="4.9949318170547485e-01" nType="0">
        <Node pos="l" depth="1" NCoef="0" IVar="6" Cut="7.8406677246093750e+01" cType="1" res="6.2671010382473469e-03" rms="2.9981613159179688e-01" purity="2.5012883543968201e-01" nType="0">
          <Node pos="l" depth="2" NCoef="0" IVar="6" Cut="5.8116191864013672e+01" cType="1" res="8.7686125189065933e-03" rms="2.9538649320602417e-01" purity="2.3136863112449646e-01" nType="0">
            <Node pos="l" depth="3" NCoef="0" IVar="-1" Cut="0.0000000000000000e+00" cType="1" res="1.8068481003865600e-03" rms="2.5424361228942871e-01" purity="1.6040113568305969e-01" nType="-99"/>
            <Node pos="r" depth="3" NCoef="0" IVar="-1" Cut="0.0000000000000000e+00" cType="1" res="1.4055783860385418e-02" rms="3.1556555628776550e-01" purity="2.7021113038063049e-01" nType="-99"/>
          </Node>
          <Node pos="r" depth="2" NCoef="0" IVar="8" Cut="-1.3348942995071411e-01" cType="1" res="-1.0701019316911697e-02" rms="3.2778561115264893e-01" purity="3.7738195061683655e-01" nType="0">
            <Node pos="l" depth="3" NCoef="0" IVar="-1" Cut="0.0000000000000000e+00" cType="1" res="4.7073030145838857e-04" rms="3.2941329479217529e-01" purity="3.7662136554718018e-01" nType="-99"/>
            <Node pos="r" depth="3" NCoef="0" IVar="-1" Cut="0.0000000000000000e+00" cType="1" res="-1.7873030155897141e-02" rms="3.2604402303695679e-01" purity="3.7804523110389709e-01" nType="-99"/>
          </Node>
        </Node>
        <Node pos="r" depth="1" NCoef="0" IVar="1" Cut="1.4303021240234375e+03" cType="1" res="-4.5862914994359016e-03" rms="2.9868850111961365e-01" purity="7.2704887390136719e-01" nType="0">
          <Node pos="l" depth="2" NCoef="0" IVar="7" Cut="-3.6832085251808167e-01" cType="1" res="-1.3700319454073906e-02" rms="3.7995380163192749e-01" purity="3.2885399460792542e-01" nType="0">
            <Node pos="l" depth="3" NCoef="0" IVar="-1" Cut="0.0000000000000000e+00" cType="1" res="1.8503031460568309e-03" rms="3.6729800701141357e-01" purity="3.1080111861228943e-01" nType="-99"/>
            <Node pos="r" depth="3" NCoef="0" IVar="-1" Cut="0.0000000000000000e+00" cType="1" res="-1.5445836819708347e-02" rms="3.8709914684295654e-01" purity="3.3980596065521240e-01" nType="-99"/>
          </Node>
          <Node pos="r" depth="2" NCoef="0" IVar="10" Cut="1.4663267135620117e+00" cType="1" res="-1.0818904265761375e-03" rms="2.6070106029510498e-01" purity="8.8015735149383545e-01" nType="0">
            <Node pos="l" depth="3" NCoef="0" IVar="-1" Cut="0.0000000000000000e+00" cType="1" res="2.2488692775368690e-03" rms="2.5627791881561279e-01" purity="8.8691872358322144e-01" nType="-99"/>
            <Node pos="r" depth="3" NCoef="0" IVar="-1" Cut="0.0000000000000000e+00" cType="1" res="-3.7833869457244873e-02" rms="3.0607089400291443e-01" purity="8.0117040872573853e-01" nType="-99"/>
          </Node>
        </Node>
      </Node>
    </BinaryTree>
    <BinaryTree type="DecisionTree" boostWeight="1.0000000000000000e+00" itree="631">
      <Node pos="s" depth="0" NCoef="0" IVar="10" Cut="1.4666606187820435e+00" cType="1" res="-1.7391414439771324e-04" rms="2.9633861780166626e-01" purity="4.9887424707412720e-01" nType="0">
        <Node pos="l" depth="1" NCoef="0" IVar="9" Cut="-1.4667341709136963e+00" cType="1" res="1.2106684735044837e-03" rms="2.9618111252784729e-01" purity="5.1517158746719360e-01" nType="0">
          <Node pos="l" depth="2" NCoef="0" IVar="9" Cut="-1.7206903696060181e+00" cType="1" res="1.3499231077730656e-02" rms="3.0732634663581848e-01" purity="3.2273820042610168e-01" nType="0">
            <Node pos="l" depth="3" NCoef="0" IVar="-1" Cut="0.0000000000000000e+00" cType="1" res="5.3568435832858086e-03" rms="2.9576602578163147e-01" purity="2.6836186647415161e-01" nType="-99"/>
            <Node pos="r" depth="3" NCoef="0" IVar="-1" Cut="0.0000000000000000e+00" cType="1" res="3.0951010063290596e-02" rms="3.2782414555549622e-01" purity="4.2783856391906738e-01" nType="-99"/>
          </Node>
          <Node pos="r" depth="2" NCoef="0" IVar="2" Cut="6.2054213136434555e-02" cType="1" res="-2.2888337844051421e-04" rms="2.9481440782546997e-01" purity="5.3771430253982544e-01" nType="0">
            <Node pos="l" depth="3" NCoef="0" IVar="-1" Cut="0.0000000000000000e+00" cType="1" res="2.2342535667121410e-03" rms="3.0259817838668823e-01" purity="4.0534257888793945e-01" nType="-99"/>
            <Node pos="r" depth="3" NCoef="0" IVar="-1" Cut="0.0000000000000000e+00" cType="1" res="-5.8498340658843517e-03" rms="2.7923709154129028e-01" purity="7.9141706228256226e-01" nType="-99"/>
          </Node>
        </Node>
        <Node pos="r" depth="1" NCoef="0" IVar="8" Cut="-6.6603285074234009e-01" cType="1" res="-1.0055667720735073e-02" rms="2.9727330803871155e-01" purity="3.8256004452705383e-01" nType="0">
          <Node pos="l" depth="2" NCoef="0" IVar="-1" Cut="0.0000000000000000e+00" cType="1" res="-3.7052944302558899e-02" rms="2.8629499673843384e-01" purity="2.9667311906814575e-01" nType="-99"/>
          <Node pos="r" depth="2" NCoef="0" IVar="3" Cut="3.1770455932617188e+02" cType="1" res="-2.9647781047970057e-03" rms="3.0024665594100952e-01" purity="4.0922299027442932e-01" nType="0">
            <Node pos="l" depth="3" NCoef="0" IVar="-1" Cut="0.0000000000000000e+00" cType="1" res="1.0259458795189857e-02" rms="2.9238662123680115e-01" purity="2.1391230821609497e-01" nType="-99"/>
            <Node pos="r" depth="3" NCoef="0" IVar="-1" Cut="0.0000000000000000e+00" cType="1" res="-9.4557479023933411e-03" rms="3.0404856801033020e-01" purity="5.1024359464645386e-01" nType="-99"/>
          </Node>
        </Node>
      </Node>
    </BinaryTree>
    <BinaryTree type="DecisionTree" boostWeight="1.0000000000000000e+00" itree="632">
      <Node pos="s" depth="0" NCoef="0" IVar="7" Cut="1.4519874751567841e-01" cType="1" res="-2.3709810338914394e-03" rms="2.9199302196502686e-01" purity="4.9916708469390869e-01" nType="0">
        <Node pos="l" depth="1" NCoef="0" IVar="7" Cut="6.1535891145467758e-03" cType="1" res="2.1438794210553169e-03" rms="2.9503846168518066e-01" purity="5.2098214626312256e-01" nType="0">
          <Node pos="l" depth="2" NCoef="0" IVar="9" Cut="1.2000194787979126e+00" cType="1" res="-3.9837084477767348e-04" rms="2.9483550786972046e-01" purity="4.9852699041366577e-01" nType="0">
            <Node pos="l" depth="3" NCoef="0" IVar="-1" Cut="0.0000000000000000e+00" cType="1" res="-4.0379706770181656e-03" rms="2.9008215665817261e-01" purity="5.1806306838989258e-01" nType="-99"/>
            <Node pos="r" depth="3" NCoef="0" IVar="-1" Cut="0.0000000000000000e+00" cType="1" res="1.9590353593230247e-02" rms="3.2242029905319214e-01" purity="3.7570518255233765e-01" nType="-99"/>
          </Node>
          <Node pos="r" depth="2" NCoef="0" IVar="7" Cut="7.2368443012237549e-02" cType="1" res="2.0780324935913086e-02" rms="2.9585582017898560e-01" purity="6.8559408187866211e-01" nType="0">
            <Node pos="l" depth="3" NCoef="0" IVar="-1" Cut="0.0000000000000000e+00" cType="1" res="3.7816043943166733e-02" rms="3.0685201287269592e-01" purity="6.9162690639495850e-01" nType="-99"/>
            <Node pos="r" depth="3" NCoef="0" IVar="-1" Cut="0.0000000000000000e+00" cType="1" res="6.4465678296983242e-03" rms="2.8341543674468994e-01" purity="6.7943501472473145e-01" nType="-99"/>
          </Node>
        </Node>
        <Node pos="r" depth="1" NCoef="0" IVar="6" Cut="7.5604476928710938e+01" cType="1" res="-8.2958554849028587e-03" rms="2.8784015774726868e-01" purity="4.7053906321525574e-01" nType="0">
          <Node pos="l" depth="2" NCoef="0" IVar="1" Cut="1.0523540039062500e+03" cType="1" res="-1.7580255866050720e-02" rms="2.6190015673637390e-01" purity="1.6802743077278137e-01" nType="0">
            <Node pos="l" depth="3" NCoef="0" IVar="-1" Cut="0.0000000000000000e+00" cType="1" res="-1.2694766744971275e-02" rms="1.5584601461887360e-01" purity="2.7264099568128586e-02" nType="-99"/>
            <Node pos="r" depth="3" NCoef="0" IVar="-1" Cut="0.0000000000000000e+00" cType="1" res="-2.5481471791863441e-02" rms="3.2420819997787476e-01" purity="2.8500479459762573e-01" nType="-99"/>
          </Node>
          <Node pos="r" depth="2" NCoef="0" IVar="7" Cut="5.2441763877868652e-01" cType="1" res="-2.6162639260292053e-03" rms="3.0247390270233154e-01" purity="6.5559589862823486e-01" nType="0">
            <Node pos="l" depth="3" NCoef="0" IVar="-1" Cut="0.0000000000000000e+00" cType="1" res="6.7920628935098648e-03" rms="2.8504753112792969e-01" purity="7.9367321729660034e-01" nType="-99"/>
            <Node pos="r" depth="3" NCoef="0" IVar="-1" Cut="0.0000000000000000e+00" cType="1" res="-8.3425268530845642e-03" rms="3.1380960345268250e-01" purity="5.6030350923538208e-01" nType="-99"/>
          </Node>
        </Node>
      </Node>
    </BinaryTree>
    <BinaryTree type="DecisionTree" boostWeight="1.0000000000000000e+00" itree="633">
      <Node pos="s" depth="0" NCoef="0" IVar="0" Cut="4.3904428100585938e+02" cType="1" res="9.5075904391705990e-04" rms="2.9448580741882324e-01" purity="4.9976775050163269e-01" nType="0">
        <Node pos="l" depth="1" NCoef="0" IVar="4" Cut="1.8172032165527344e+02" cType="1" res="-3.6119483411312103e-03" rms="2.9507577419281006e-01" purity="2.1625776588916779e-01" nType="0">
          <Node pos="l" depth="2" NCoef="0" IVar="9" Cut="1.4664223194122314e+00" cType="1" res="-9.4540491700172424e-03" rms="2.0371575653553009e-01" purity="5.4126672446727753e-02" nType="0">
            <Node pos="l" depth="3" NCoef="0" IVar="-1" Cut="0.0000000000000000e+00" cType="1" res="-2.4901259690523148e-02" rms="2.0256336033344269e-01" purity="5.3336337208747864e-02" nType="-99"/>
            <Node pos="r" depth="3" NCoef="0" IVar="-1" Cut="0.0000000000000000e+00" cType="1" res="2.1253779530525208e-02" rms="2.0930273830890656e-01" purity="5.8675114065408707e-02" nType="-99"/>
          </Node>
          <Node pos="r" depth="2" NCoef="0" IVar="1" Cut="1.3107087402343750e+03" cType="1" res="2.0144418813288212e-03" rms="3.6179029941558838e-01" purity="3.7240239977836609e-01" nType="0">
            <Node pos="l" depth="3" NCoef="0" IVar="-1" Cut="0.0000000000000000e+00" cType="1" res="9.9311852827668190e-03" rms="3.4438192844390869e-01" purity="2.0095582306385040e-01" nType="-99"/>
            <Node pos="r" depth="3" NCoef="0" IVar="-1" Cut="0.0000000000000000e+00" cType="1" res="-5.1695154979825020e-03" rms="3.7906172871589661e-01" purity="5.5342936515808105e-01" nType="-99"/>
          </Node>
        </Node>
        <Node pos="r" depth="1" NCoef="0" IVar="6" Cut="8.5091094970703125e+01" cType="1" res="5.0523588433861732e-03" rms="2.9389396309852600e-01" purity="7.5462621450424194e-01" nType="0">
          <Node pos="l" depth="2" NCoef="0" IVar="9" Cut="4.0003260970115662e-01" cType="1" res="1.4405645430088043e-02" rms="3.5850608348846436e-01" purity="5.0286442041397095e-01" nType="0">
            <Node pos="l" depth="3" NCoef="0" IVar="-1" Cut="0.0000000000000000e+00" cType="1" res="1.7425909638404846e-02" rms="3.6471259593963623e-01" purity="5.1886087656021118e-01" nType="-99"/>
            <Node pos="r" depth="3" NCoef="0" IVar="-1" Cut="0.0000000000000000e+00" cType="1" res="5.0821877084672451e-04" rms="3.4720945358276367e-01" purity="4.7552415728569031e-01" nType="-99"/>
          </Node>
          <Node pos="r" depth="2" NCoef="0" IVar="9" Cut="-4.0018692612648010e-01" cType="1" res="2.7135864365845919e-04" rms="2.5447848439216614e-01" purity="8.8331609964370728e-01" nType="0">
            <Node pos="l" depth="3" NCoef="0" IVar="-1" Cut="0.0000000000000000e+00" cType="1" res="-1.3106129132211208e-02" rms="2.7086573839187622e-01" purity="8.6398708820343018e-01" nType="-99"/>
            <Node pos="r" depth="3" NCoef="0" IVar="-1" Cut="0.0000000000000000e+00" cType="1" res="7.6610893011093140e-03" rms="2.4604035913944244e-01" purity="8.9265531301498413e-01" nType="-99"/>
          </Node>
        </Node>
      </Node>
    </BinaryTree>
    <BinaryTree type="DecisionTree" boostWeight="1.0000000000000000e+00" itree="634">
      <Node pos="s" depth="0" NCoef="0" IVar="5" Cut="1.5985702514648438e+02" cType="1" res="2.4101310409605503e-03" rms="2.9685825109481812e-01" purity="5.0210982561111450e-01" nType="0">
        <Node pos="l" depth="1" NCoef="0" IVar="8" Cut="-1.1999081373214722e+00" cType="1" res="-1.0314758401364088e-03" rms="3.0456244945526123e-01" purity="2.5943619012832642e-01" nType="0">
          <Node pos="l" depth="2" NCoef="0" IVar="8" Cut="-1.9617905616760254e+00" cType="1" res="-1.3331197202205658e-02" rms="2.5093418359756470e-01" purity="1.3043934106826782e-01" nType="0">
            <Node pos="l" depth="3" NCoef="0" IVar="-1" Cut="0.0000000000000000e+00" cType="1" res="1.8866635859012604e-02" rms="2.2216024994850159e-01" purity="7.5467728078365326e-02" nType="-99"/>
            <Node pos="r" depth="3" NCoef="0" IVar="-1" Cut="0.0000000000000000e+00" cType="1" res="-2.8607599437236786e-02" rms="2.6281434297561646e-01" purity="1.5644106268882751e-01" nType="-99"/>
          </Node>
          <Node pos="r" depth="2" NCoef="0" IVar="7" Cut="9.3714755773544312e-01" cType="1" res="1.3305479660630226e-03" rms="3.1375876069068909e-01" purity="2.8420859575271606e-01" nType="0">
            <Node pos="l" depth="3" NCoef="0" IVar="-1" Cut="0.0000000000000000e+00" cType="1" res="3.6956991534680128e-03" rms="3.2773721218109131e-01" purity="3.2381927967071533e-01" nType="-99"/>
            <Node pos="r" depth="3" NCoef="0" IVar="-1" Cut="0.0000000000000000e+00" cType="1" res="-1.4287209138274193e-02" rms="2.4607910215854645e-01" purity="1.1747034639120102e-01" nType="-99"/>
          </Node>
        </Node>
        <Node pos="r" depth="1" NCoef="0" IVar="1" Cut="1.4424156494140625e+03" cType="1" res="6.8271155469119549e-03" rms="2.8660684823989868e-01" purity="8.1355899572372437e-01" nType="0">
          <Node pos="l" depth="2" NCoef="0" IVar="6" Cut="1.0857658386230469e+02" cType="1" res="2.6675879955291748e-02" rms="4.0619900822639465e-01" purity="4.7431752085685730e-01" nType="0">
            <Node pos="l" depth="3" NCoef="0" IVar="-1" Cut="0.0000000000000000e+00" cType="1" res="6.1750863678753376e-03" rms="3.9462125301361084e-01" purity="3.7934643030166626e-01" nType="-99"/>
            <Node pos="r" depth="3" NCoef="0" IVar="-1" Cut="0.0000000000000000e+00" cType="1" res="2.8358411043882370e-02" rms="4.1978552937507629e-01" purity="5.9793436527252197e-01" nType="-99"/>
          </Node>
          <Node pos="r" depth="2" NCoef="0" IVar="9" Cut="-1.1994861364364624e+00" cType="1" res="2.2567512933164835e-03" rms="2.5090622901916504e-01" purity="8.9167243242263794e-01" nType="0">
            <Node pos="l" depth="3" NCoef="0" IVar="-1" Cut="0.0000000000000000e+00" cType="1" res="1.6909414902329445e-02" rms="3.1416019797325134e-01" purity="8.0817657709121704e-01" nType="-99"/>
            <Node pos="r" depth="3" NCoef="0" IVar="-1" Cut="0.0000000000000000e+00" cType="1" res="1.2767002917826176e-03" rms="2.4377191066741943e-01" purity="8.9986097812652588e-01" nType="-99"/>
          </Node>
        </Node>
      </Node>
    </BinaryTree>
    <BinaryTree type="DecisionTree" boostWeight="1.0000000000000000e+00" itree="635">
      <Node pos="s" depth="0" NCoef="0" IVar="7" Cut="-3.9349645376205444e-01" cType="1" res="1.5822468558326364e-03" rms="2.9526218771934509e-01" purity="5.0790655612945557e-01" nType="0">
        <Node pos="l" depth="1" NCoef="0" IVar="10" Cut="-9.3316584825515747e-01" cType="1" res="8.5740629583597183e-03" rms="2.9771062731742859e-01" purity="4.3419349193572998e-01" nType="0">
          <Node pos="l" depth="2" NCoef="0" IVar="4" Cut="1.9874197387695312e+02" cType="1" res="2.2167196497321129e-02" rms="3.0742898583412170e-01" purity="3.8871282339096069e-01" nType="0">
            <Node pos="l" depth="3" NCoef="0" IVar="-1" Cut="0.0000000000000000e+00" cType="1" res="1.6245298087596893e-02" rms="2.6951605081558228e-01" purity="1.1780527979135513e-01" nType="-99"/>
            <Node pos="r" depth="3" NCoef="0" IVar="-1" Cut="0.0000000000000000e+00" cType="1" res="2.9278477653861046e-02" rms="3.3620780706405640e-01" purity="6.2090581655502319e-01" nType="-99"/>
          </Node>
          <Node pos="r" depth="2" NCoef="0" IVar="7" Cut="-6.2157517671585083e-01" cType="1" res="3.3570199739187956e-03" rms="2.9372841119766235e-01" purity="4.5164898037910461e-01" nType="0">
            <Node pos="l" depth="3" NCoef="0" IVar="-1" Cut="0.0000000000000000e+00" cType="1" res="-9.9817744921892881e-04" rms="2.8668886423110962e-01" purity="3.8349354267120361e-01" nType="-99"/>
            <Node pos="r" depth="3" NCoef="0" IVar="-1" Cut="0.0000000000000000e+00" cType="1" res="1.4852301217615604e-02" rms="3.1118419766426086e-01" purity="6.3065248727798462e-01" nType="-99"/>
          </Node>
        </Node>
        <Node pos="r" depth="1" NCoef="0" IVar="10" Cut="1.4666661024093628e+00" cType="1" res="-1.7951040063053370e-03" rms="2.9401263594627380e-01" purity="5.4351311922073364e-01" nType="0">
          <Node pos="l" depth="2" NCoef="0" IVar="0" Cut="5.7280285644531250e+02" cType="1" res="-4.3593556620180607e-03" rms="2.9101338982582092e-01" purity="5.5841940641403198e-01" nType="0">
            <Node pos="l" depth="3" NCoef="0" IVar="-1" Cut="0.0000000000000000e+00" cType="1" res="-7.7406158670783043e-03" rms="3.1536197662353516e-01" purity="3.6924415826797485e-01" nType="-99"/>
            <Node pos="r" depth="3" NCoef="0" IVar="-1" Cut="0.0000000000000000e+00" cType="1" res="3.7962417118251324e-03" rms="2.4030983448028564e-01" purity="9.0275698900222778e-01" nType="-99"/>
          </Node>
          <Node pos="r" depth="2" NCoef="0" IVar="8" Cut="6.6651612520217896e-01" cType="1" res="1.4986776746809483e-02" rms="3.1241336464881897e-01" purity="4.4595780968666077e-01" nType="0">
            <Node pos="l" depth="3" NCoef="0" IVar="-1" Cut="0.0000000000000000e+00" cType="1" res="2.4093145504593849e-02" rms="3.1785029172897339e-01" purity="5.1935571432113647e-01" nType="-99"/>
            <Node pos="r" depth="3" NCoef="0" IVar="-1" Cut="0.0000000000000000e+00" cType="1" res="-5.2771777845919132e-03" rms="2.9938754439353943e-01" purity="2.8715917468070984e-01" nType="-99"/>
          </Node>
        </Node>
      </Node>
    </BinaryTree>
    <BinaryTree type="DecisionTree" boostWeight="1.0000000000000000e+00" itree="636">
      <Node pos="s" depth="0" NCoef="0" IVar="7" Cut="-9.2579740285873413e-01" cType="1" res="-1.2273696484044194e-04" rms="2.9425078630447388e-01" purity="5.0098484754562378e-01" nType="0">
        <Node pos="l" depth="1" NCoef="0" IVar="8" Cut="-9.3334555625915527e-01" cType="1" res="-8.3390045911073685e-03" rms="2.6758939027786255e-01" purity="2.4921071529388428e-01" nType="0">
          <Node pos="l" depth="2" NCoef="0" IVar="-1" Cut="0.0000000000000000e+00" cType="1" res="1.3493090867996216e-02" rms="2.5732186436653137e-01" purity="1.7955209314823151e-01" nType="-99"/>
          <Node pos="r" depth="2" NCoef="0" IVar="6" Cut="1.0444020843505859e+02" cType="1" res="-1.4357108622789383e-02" rms="2.7077996730804443e-01" purity="2.7323713898658752e-01" nType="0">
            <Node pos="l" depth="3" NCoef="0" IVar="-1" Cut="0.0000000000000000e+00" cType="1" res="-2.7584571391344070e-02" rms="2.3669941723346710e-01" purity="1.2381825596094131e-01" nType="-99"/>
            <Node pos="r" depth="3" NCoef="0" IVar="-1" Cut="0.0000000000000000e+00" cType="1" res="-3.5794263239949942e-03" rms="3.3718350529670715e-01" purity="6.2333697080612183e-01" nType="-99"/>
          </Node>
        </Node>
        <Node pos="r" depth="1" NCoef="0" IVar="9" Cut="3.9998450875282288e-01" cType="1" res="1.3326910557225347e-03" rms="2.9870203137397766e-01" purity="5.4558408260345459e-01" nType="0">
          <Node pos="l" depth="2" NCoef="0" IVar="6" Cut="1.3386584472656250e+02" cType="1" res="-1.2133582495152950e-03" rms="2.9486390948295593e-01" purity="5.6942898035049438e-01" nType="0">
            <Node pos="l" depth="3" NCoef="0" IVar="-1" Cut="0.0000000000000000e+00" cType="1" res="-3.4938617609441280e-03" rms="3.1870663166046143e-01" purity="4.2572221159934998e-01" nType="-99"/>
            <Node pos="r" depth="3" NCoef="0" IVar="-1" Cut="0.0000000000000000e+00" cType="1" res="7.8369509428739548e-03" rms="2.2780174016952515e-01" purity="9.1331070661544800e-01" nType="-99"/>
          </Node>
          <Node pos="r" depth="2" NCoef="0" IVar="1" Cut="1.0502080078125000e+03" cType="1" res="5.6774076074361801e-03" rms="3.0509108304977417e-01" purity="5.0489389896392822e-01" nType="0">
            <Node pos="l" depth="3" NCoef="0" IVar="-1" Cut="0.0000000000000000e+00" cType="1" res="-1.9468650221824646e-02" rms="1.8617522716522217e-01" purity="3.8781855255365372e-02" nType="-99"/>
            <Node pos="r" depth="3" NCoef="0" IVar="-1" Cut="0.0000000000000000e+00" cType="1" res="8.6462944746017456e-03" rms="3.2878792285919189e-01" purity="6.2522816658020020e-01" nType="-99"/>
          </Node>
        </Node>
      </Node>
    </BinaryTree>
    <BinaryTree type="DecisionTree" boostWeight="1.0000000000000000e+00" itree="637">
      <Node pos="s" depth="0" NCoef="0" IVar="9" Cut="1.3332903385162354e-01" cType="1" res="1.3890262925997376e-04" rms="2.9703223705291748e-01" purity="5.0211268663406372e-01" nType="0">
        <Node pos="l" depth="1" NCoef="0" IVar="1" Cut="1.3997886962890625e+03" cType="1" res="3.2053799368441105e-03" rms="2.9825177788734436e-01" purity="5.1277846097946167e-01" nType="0">
          <Node pos="l" depth="2" NCoef="0" IVar="7" Cut="-6.5140306949615479e-01" cType="1" res="9.5324264839291573e-03" rms="3.0488109588623047e-01" purity="1.8343544006347656e-01" nType="0">
            <Node pos="l" depth="3" NCoef="0" IVar="-1" Cut="0.0000000000000000e+00" cType="1" res="-1.3880662620067596e-02" rms="2.4681237339973450e-01" purity="1.0426565259695053e-01" nType="-99"/>
            <Node pos="r" depth="3" NCoef="0" IVar="-1" Cut="0.0000000000000000e+00" cType="1" res="1.7804946750402451e-02" rms="3.2817369699478149e-01" purity="2.2048765420913696e-01" nType="-99"/>
          </Node>
          <Node pos="r" depth="2" NCoef="0" IVar="7" Cut="-8.8532680273056030e-01" cType="1" res="-2.7196314185857773e-03" rms="2.9178282618522644e-01" purity="8.2119435071945190e-01" nType="0">
            <Node pos="l" depth="3" NCoef="0" IVar="-1" Cut="0.0000000000000000e+00" cType="1" res="1.8838299438357353e-02" rms="3.3790612220764160e-01" purity="6.7503201961517334e-01" nType="-99"/>
            <Node pos="r" depth="3" NCoef="0" IVar="-1" Cut="0.0000000000000000e+00" cType="1" res="-7.7551435679197311e-03" rms="2.8470748662948608e-01" purity="8.4120500087738037e-01" nType="-99"/>
          </Node>
        </Node>
        <Node pos="r" depth="1" NCoef="0" IVar="9" Cut="1.2761811017990112e+00" cType="1" res="-3.5764279309660196e-03" rms="2.9550531506538391e-01" purity="4.8919007182121277e-01" nType="0">
          <Node pos="l" depth="2" NCoef="0" IVar="9" Cut="5.6869834661483765e-01" cType="1" res="-1.3318243436515331e-03" rms="2.9491707682609558e-01" purity="5.5771011114120483e-01" nType="0">
            <Node pos="l" depth="3" NCoef="0" IVar="-1" Cut="0.0000000000000000e+00" cType="1" res="-9.5838187262415886e-03" rms="2.8616058826446533e-01" purity="5.7399529218673706e-01" nType="-99"/>
            <Node pos="r" depth="3" NCoef="0" IVar="-1" Cut="0.0000000000000000e+00" cType="1" res="4.4541535899043083e-03" rms="3.0162471532821655e-01" purity="5.4469627141952515e-01" nType="-99"/>
          </Node>
          <Node pos="r" depth="2" NCoef="0" IVar="10" Cut="-9.3320125341415405e-01" cType="1" res="-8.9910216629505157e-03" rms="2.9684960842132568e-01" purity="3.2390111684799194e-01" nType="0">
            <Node pos="l" depth="3" NCoef="0" IVar="-1" Cut="0.0000000000000000e+00" cType="1" res="-3.0518300831317902e-02" rms="2.9364725947380066e-01" purity="2.9054528474807739e-01" nType="-99"/>
            <Node pos="r" depth="3" NCoef="0" IVar="-1" Cut="0.0000000000000000e+00" cType="1" res="-4.0593668818473816e-03" rms="2.9748436808586121e-01" purity="3.3293148875236511e-01" nType="-99"/>
          </Node>
        </Node>
      </Node>
    </BinaryTree>
    <BinaryTree type="DecisionTree" boostWeight="1.0000000000000000e+00" itree="638">
      <Node pos="s" depth="0" NCoef="0" IVar="9" Cut="9.3324416875839233e-01" cType="1" res="1.4433549949899316e-04" rms="2.9632031917572021e-01" purity="4.9740287661552429e-01" nType="0">
        <Node pos="l" depth="1" NCoef="0" IVar="10" Cut="1.9999749660491943e+00" cType="1" res="2.0109436009079218e-03" rms="2.9473257064819336e-01" purity="5.2658438682556152e-01" nType="0">
          <Node pos="l" depth="2" NCoef="0" IVar="8" Cut="1.3323985040187836e-01" cType="1" res="1.1585614411160350e-03" rms="2.9348286986351013e-01" purity="5.3410100936889648e-01" nType="0">
            <Node pos="l" depth="3" NCoef="0" IVar="-1" Cut="0.0000000000000000e+00" cType="1" res="-2.6462585665285587e-03" rms="2.8573095798492432e-01" purity="5.3905445337295532e-01" nType="-99"/>
            <Node pos="r" depth="3" NCoef="0" IVar="-1" Cut="0.0000000000000000e+00" cType="1" res="6.5145008265972137e-03" rms="3.0345240235328674e-01" purity="5.2749466896057129e-01" nType="-99"/>
          </Node>
          <Node pos="r" depth="2" NCoef="0" IVar="-1" Cut="0.0000000000000000e+00" cType="1" res="1.8856579437851906e-02" rms="3.1771314144134521e-01" purity="3.7968564033508301e-01" nType="-99"/>
        </Node>
        <Node pos="r" depth="1" NCoef="0" IVar="5" Cut="1.3159553527832031e+02" cType="1" res="-6.8561090156435966e-03" rms="3.0209803581237793e-01" purity="3.8796168565750122e-01" nType="0">
          <Node pos="l" depth="2" NCoef="0" IVar="6" Cut="8.0902694702148438e+01" cType="1" res="1.2393299257382751e-03" rms="2.8221774101257324e-01" purity="1.8436415493488312e-01" nType="0">
            <Node pos="l" depth="3" NCoef="0" IVar="-1" Cut="0.0000000000000000e+00" cType="1" res="1.4373694546520710e-02" rms="2.7197897434234619e-01" purity="1.4919506013393402e-01" nType="-99"/>
            <Node pos="r" depth="3" NCoef="0" IVar="-1" Cut="0.0000000000000000e+00" cType="1" res="-2.3314153775572777e-02" rms="3.1034892797470093e-01" purity="2.9379275441169739e-01" nType="-99"/>
          </Node>
          <Node pos="r" depth="2" NCoef="0" IVar="0" Cut="5.1930377197265625e+02" cType="1" res="-1.6582040116190910e-02" rms="3.2410782575607300e-01" purity="6.3256555795669556e-01" nType="0">
            <Node pos="l" depth="3" NCoef="0" IVar="-1" Cut="0.0000000000000000e+00" cType="1" res="-2.1768651902675629e-02" rms="3.6529493331909180e-01" purity="4.0427446365356445e-01" nType="-99"/>
            <Node pos="r" depth="3" NCoef="0" IVar="-1" Cut="0.0000000000000000e+00" cType="1" res="-2.2454520221799612e-03" rms="2.7038612961769104e-01" purity="8.8588762283325195e-01" nType="-99"/>
          </Node>
        </Node>
      </Node>
    </BinaryTree>
    <BinaryTree type="DecisionTree" boostWeight="1.0000000000000000e+00" itree="639">
      <Node pos="s" depth="0" NCoef="0" IVar="9" Cut="-1.3334368169307709e-01" cType="1" res="8.5728702833876014e-04" rms="2.9792702198028564e-01" purity="5.0180387496948242e-01" nType="0">
        <Node pos="l" depth="1" NCoef="0" IVar="2" Cut="4.1370049118995667e-02" cType="1" res="-3.5948741715401411e-03" rms="2.9511952400207520e-01" purity="4.9223986268043518e-01" nType="0">
          <Node pos="l" depth="2" NCoef="0" IVar="9" Cut="-1.5301650762557983e+00" cType="1" res="2.3720099125057459e-03" rms="2.9563155770301819e-01" purity="3.1302881240844727e-01" nType="0">
            <Node pos="l" depth="3" NCoef="0" IVar="-1" Cut="0.0000000000000000e+00" cType="1" res="2.7980862185359001e-02" rms="2.9332551360130310e-01" purity="2.0781794190406799e-01" nType="-99"/>
            <Node pos="r" depth="3" NCoef="0" IVar="-1" Cut="0.0000000000000000e+00" cType="1" res="-4.2093019001185894e-03" rms="2.9613667726516724e-01" purity="3.4826698899269104e-01" nType="-99"/>
          </Node>
          <Node pos="r" depth="2" NCoef="0" IVar="1" Cut="1.5644871826171875e+03" cType="1" res="-1.0902205482125282e-02" rms="2.9432654380798340e-01" purity="7.1171033382415771e-01" nType="0">
            <Node pos="l" depth="3" NCoef="0" IVar="-1" Cut="0.0000000000000000e+00" cType="1" res="-1.6272675246000290e-02" rms="3.7467193603515625e-01" purity="4.1769787669181824e-01" nType="-99"/>
            <Node pos="r" depth="3" NCoef="0" IVar="-1" Cut="0.0000000000000000e+00" cType="1" res="-2.0435533951967955e-03" rms="2.0874865353107452e-01" purity="9.4596451520919800e-01" nType="-99"/>
          </Node>
        </Node>
        <Node pos="r" depth="1" NCoef="0" IVar="8" Cut="-1.7332314252853394e+00" cType="1" res="4.5936955139040947e-03" rms="3.0021193623542786e-01" purity="5.0983023643493652e-01" nType="0">
          <Node pos="l" depth="2" NCoef="0" IVar="-1" Cut="0.0000000000000000e+00" cType="1" res="4.2728714644908905e-02" rms="2.8665420413017273e-01" purity="1.8488863110542297e-01" nType="-99"/>
          <Node pos="r" depth="2" NCoef="0" IVar="10" Cut="1.4666087627410889e+00" cType="1" res="3.3152066171169281e-03" rms="3.0083560943603516e-01" purity="5.2650654315948486e-01" nType="0">
            <Node pos="l" depth="3" NCoef="0" IVar="-1" Cut="0.0000000000000000e+00" cType="1" res="1.2594199506565928e-03" rms="2.9742518067359924e-01" purity="5.4488307237625122e-01" nType="-99"/>
            <Node pos="r" depth="3" NCoef="0" IVar="-1" Cut="0.0000000000000000e+00" cType="1" res="1.8226474523544312e-02" rms="3.2107970118522644e-01" purity="4.1112896800041199e-01" nType="-99"/>
          </Node>
        </Node>
      </Node>
    </BinaryTree>
    <BinaryTree type="DecisionTree" boostWeight="1.0000000000000000e+00" itree="640">
      <Node pos="s" depth="0" NCoef="0" IVar="1" Cut="1.0742910156250000e+03" cType="1" res="-3.1124844099394977e-04" rms="2.9764440655708313e-01" purity="4.9783074855804443e-01" nType="0">
        <Node pos="l" depth="1" NCoef="0" IVar="0" Cut="4.0239242553710938e+02" cType="1" res="6.5510040149092674e-03" rms="2.1405433118343353e-01" purity="5.5386114865541458e-02" nType="0">
          <Node pos="l" depth="2" NCoef="0" IVar="1" Cut="9.9592163085937500e+02" cType="1" res="2.5536455214023590e-03" rms="1.9851769506931305e-01" purity="4.6933725476264954e-02" nType="0">
            <Node pos="l" depth="3" NCoef="0" IVar="-1" Cut="0.0000000000000000e+00" cType="1" res="-1.0954401455819607e-02" rms="1.5513484179973602e-01" purity="2.7439812198281288e-02" nType="-99"/>
            <Node pos="r" depth="3" NCoef="0" IVar="-1" Cut="0.0000000000000000e+00" cType="1" res="2.4904299527406693e-02" rms="2.7542072534561157e-01" purity="9.3570083379745483e-02" nType="-99"/>
          </Node>
          <Node pos="r" depth="2" NCoef="0" IVar="-1" Cut="0.0000000000000000e+00" cType="1" res="4.3143402785062790e-02" rms="2.7427485585212708e-01" purity="9.4717897474765778e-02" nType="-99"/>
        </Node>
        <Node pos="r" depth="1" NCoef="0" IVar="3" Cut="3.2956384277343750e+02" cType="1" res="-2.4029389023780823e-03" rms="3.1876498460769653e-01" purity="6.3269281387329102e-01" nType="0">
          <Node pos="l" depth="2" NCoef="0" IVar="2" Cut="2.0918108522891998e-02" cType="1" res="-1.4450224116444588e-02" rms="3.6965125799179077e-01" purity="4.8617443442344666e-01" nType="0">
            <Node pos="l" depth="3" NCoef="0" IVar="-1" Cut="0.0000000000000000e+00" cType="1" res="1.4186810702085495e-02" rms="3.3544626832008362e-01" purity="2.3569676280021667e-01" nType="-99"/>
            <Node pos="r" depth="3" NCoef="0" IVar="-1" Cut="0.0000000000000000e+00" cType="1" res="-1.7348319292068481e-02" rms="3.8068979978561401e-01" purity="5.7708179950714111e-01" nType="-99"/>
          </Node>
          <Node pos="r" depth="2" NCoef="0" IVar="5" Cut="1.4374237060546875e+02" cType="1" res="4.5600833254866302e-04" rms="3.0537730455398560e-01" purity="6.6746312379837036e-01" nType="0">
            <Node pos="l" depth="3" NCoef="0" IVar="-1" Cut="0.0000000000000000e+00" cType="1" res="6.0252482071518898e-03" rms="3.5156458616256714e-01" purity="3.8276085257530212e-01" nType="-99"/>
            <Node pos="r" depth="3" NCoef="0" IVar="-1" Cut="0.0000000000000000e+00" cType="1" res="-4.4311420060694218e-03" rms="2.7573484182357788e-01" purity="8.2870054244995117e-01" nType="-99"/>
          </Node>
        </Node>
      </Node>
    </BinaryTree>
    <BinaryTree type="DecisionTree" boostWeight="1.0000000000000000e+00" itree="641">
      <Node pos="s" depth="0" NCoef="0" IVar="10" Cut="-1.1999921798706055e+00" cType="1" res="2.6731149409897625e-04" rms="2.9514503479003906e-01" purity="5.0420653820037842e-01" nType="0">
        <Node pos="l" depth="1" NCoef="0" IVar="4" Cut="2.0522663879394531e+02" cType="1" res="1.0025004856288433e-02" rms="3.0195108056068420e-01" purity="4.4230476021766663e-01" nType="0">
          <Node pos="l" depth="2" NCoef="0" IVar="8" Cut="1.3330611586570740e-01" cType="1" res="-3.6475392989814281e-03" rms="2.6400673389434814e-01" purity="1.5201146900653839e-01" nType="0">
            <Node pos="l" depth="3" NCoef="0" IVar="-1" Cut="0.0000000000000000e+00" cType="1" res="-1.8310582265257835e-02" rms="2.4597157537937164e-01" purity="1.3027803599834442e-01" nType="-99"/>
            <Node pos="r" depth="3" NCoef="0" IVar="-1" Cut="0.0000000000000000e+00" cType="1" res="1.1998455040156841e-02" rms="2.8767359256744385e-01" purity="1.8361777067184448e-01" nType="-99"/>
          </Node>
          <Node pos="r" depth="2" NCoef="0" IVar="8" Cut="-3.9967015385627747e-01" cType="1" res="2.1144561469554901e-02" rms="3.2918655872344971e-01" purity="6.7839336395263672e-01" nType="0">
            <Node pos="l" depth="3" NCoef="0" IVar="-1" Cut="0.0000000000000000e+00" cType="1" res="3.5451352596282959e-02" rms="3.5590279102325439e-01" purity="6.2718093395233154e-01" nType="-99"/>
            <Node pos="r" depth="3" NCoef="0" IVar="-1" Cut="0.0000000000000000e+00" cType="1" res="7.2875493206083775e-03" rms="3.0957195162773132e-01" purity="7.1215009689331055e-01" nType="-99"/>
          </Node>
        </Node>
        <Node pos="r" depth="1" NCoef="0" IVar="10" Cut="1.8476269245147705e+00" cType="1" res="-1.8416988896206021e-03" rms="2.9361063241958618e-01" purity="5.1758587360382080e-01" nType="0">
          <Node pos="l" depth="2" NCoef="0" IVar="10" Cut="2.5127345323562622e-01" cType="1" res="-6.9436471676453948e-04" rms="2.9363927245140076e-01" purity="5.3330934047698975e-01" nType="0">
            <Node pos="l" depth="3" NCoef="0" IVar="-1" Cut="0.0000000000000000e+00" cType="1" res="-6.9958074018359184e-03" rms="2.9115298390388489e-01" purity="5.3605008125305176e-01" nType="-99"/>
            <Node pos="r" depth="3" NCoef="0" IVar="-1" Cut="0.0000000000000000e+00" cType="1" res="6.0886340215802193e-03" rms="2.9621696472167969e-01" purity="5.3031486272811890e-01" nType="-99"/>
          </Node>
          <Node pos="r" depth="2" NCoef="0" IVar="8" Cut="-1.3138353824615479e-01" cType="1" res="-1.4946084469556808e-02" rms="2.9296475648880005e-01" purity="3.3799889683723450e-01" nType="0">
            <Node pos="l" depth="3" NCoef="0" IVar="-1" Cut="0.0000000000000000e+00" cType="1" res="-2.9697909951210022e-02" rms="2.9086917638778687e-01" purity="3.3211427927017212e-01" nType="-99"/>
            <Node pos="r" depth="3" NCoef="0" IVar="-1" Cut="0.0000000000000000e+00" cType="1" res="-6.5835509449243546e-03" rms="2.9396921396255493e-01" purity="3.4181767702102661e-01" nType="-99"/>
          </Node>
        </Node>
      </Node>
    </BinaryTree>
    <BinaryTree type="DecisionTree" boostWeight="1.0000000000000000e+00" itree="642">
      <Node pos="s" depth="0" NCoef="0" IVar="0" Cut="4.5299533081054688e+02" cType="1" res="-2.9928442090749741e-03" rms="2.9129010438919067e-01" purity="4.9485757946968079e-01" nType="0">
        <Node pos="l" depth="1" NCoef="0" IVar="4" Cut="3.2809973144531250e+02" cType="1" res="-7.4983984231948853e-03" rms="2.9083472490310669e-01" purity="2.2672228515148163e-01" nType="0">
          <Node pos="l" depth="2" NCoef="0" IVar="0" Cut="3.5828442382812500e+02" cType="1" res="-9.8679121583700180e-03" rms="2.8058528900146484e-01" purity="1.7793855071067810e-01" nType="0">
            <Node pos="l" depth="3" NCoef="0" IVar="-1" Cut="0.0000000000000000e+00" cType="1" res="-4.8766741529107094e-03" rms="2.5766795873641968e-01" purity="1.2892046570777893e-01" nType="-99"/>
            <Node pos="r" depth="3" NCoef="0" IVar="-1" Cut="0.0000000000000000e+00" cType="1" res="-1.6424419358372688e-02" rms="3.0297851562500000e-01" purity="2.3022237420082092e-01" nType="-99"/>
          </Node>
          <Node pos="r" depth="2" NCoef="0" IVar="6" Cut="9.9693153381347656e+01" cType="1" res="1.1158956214785576e-02" rms="3.6098194122314453e-01" purity="6.1084121465682983e-01" nType="0">
            <Node pos="l" depth="3" NCoef="0" IVar="-1" Cut="0.0000000000000000e+00" cType="1" res="-1.0598781518638134e-02" rms="3.8940241932868958e-01" purity="3.8311094045639038e-01" nType="-99"/>
            <Node pos="r" depth="3" NCoef="0" IVar="-1" Cut="0.0000000000000000e+00" cType="1" res="2.6103461161255836e-02" rms="3.3499652147293091e-01" purity="7.9217988252639771e-01" nType="-99"/>
          </Node>
        </Node>
        <Node pos="r" depth="1" NCoef="0" IVar="10" Cut="1.7333506345748901e+00" cType="1" res="1.6578040085732937e-03" rms="2.9168638586997986e-01" purity="7.7162772417068481e-01" nType="0">
          <Node pos="l" depth="2" NCoef="0" IVar="7" Cut="4.2523053288459778e-01" cType="1" res="4.1182563290931284e-04" rms="2.8725817799568176e-01" purity="7.7956765890121460e-01" nType="0">
            <Node pos="l" depth="3" NCoef="0" IVar="-1" Cut="0.0000000000000000e+00" cType="1" res="3.7091437261551619e-03" rms="2.8323519229888916e-01" purity="8.0490452051162720e-01" nType="-99"/>
            <Node pos="r" depth="3" NCoef="0" IVar="-1" Cut="0.0000000000000000e+00" cType="1" res="-7.2369645349681377e-03" rms="2.9756724834442139e-01" purity="7.1230196952819824e-01" nType="-99"/>
          </Node>
          <Node pos="r" depth="2" NCoef="0" IVar="-1" Cut="0.0000000000000000e+00" cType="1" res="1.6376106068491936e-02" rms="3.4531623125076294e-01" purity="6.6489142179489136e-01" nType="-99"/>
        </Node>
      </Node>
    </BinaryTree>
    <BinaryTree type="DecisionTree" boostWeight="1.0000000000000000e+00" itree="643">
      <Node pos="s" depth="0" NCoef="0" IVar="8" Cut="-1.3338731229305267e-01" cType="1" res="8.3912641275674105e-04" rms="2.9397493600845337e-01" purity="5.0133997201919556e-01" nType="0">
        <Node pos="l" depth="1" NCoef="0" IVar="5" Cut="1.4134704589843750e+02" cType="1" res="-4.2464085854589939e-03" rms="2.9178163409233093e-01" purity="4.8204815387725830e-01" nType="0">
          <Node pos="l" depth="2" NCoef="0" IVar="5" Cut="9.3530204772949219e+01" cType="1" res="-1.0241148993372917e-02" rms="2.8190883994102478e-01" purity="1.9732624292373657e-01" nType="0">
            <Node pos="l" depth="3" NCoef="0" IVar="-1" Cut="0.0000000000000000e+00" cType="1" res="2.6356242597103119e-03" rms="2.3857286572456360e-01" purity="1.1022597551345825e-01" nType="-99"/>
            <Node pos="r" depth="3" NCoef="0" IVar="-1" Cut="0.0000000000000000e+00" cType="1" res="-1.9236544147133827e-02" rms="3.1614419817924500e-01" purity="2.7733734250068665e-01" nType="-99"/>
          </Node>
          <Node pos="r" depth="2" NCoef="0" IVar="9" Cut="-1.1989458799362183e+00" cType="1" res="1.6703965375199914e-03" rms="3.0109193921089172e-01" purity="7.6306855678558350e-01" nType="0">
            <Node pos="l" depth="3" NCoef="0" IVar="-1" Cut="0.0000000000000000e+00" cType="1" res="2.5498898699879646e-02" rms="3.3649361133575439e-01" purity="6.6267460584640503e-01" nType="-99"/>
            <Node pos="r" depth="3" NCoef="0" IVar="-1" Cut="0.0000000000000000e+00" cType="1" res="-2.8201329987496138e-03" rms="2.9502737522125244e-01" purity="7.7858442068099976e-01" nType="-99"/>
          </Node>
        </Node>
        <Node pos="r" depth="1" NCoef="0" IVar="1" Cut="1.0762508544921875e+03" cType="1" res="4.9842903390526772e-03" rms="2.9568594694137573e-01" purity="5.1706457138061523e-01" nType="0">
          <Node pos="l" depth="2" NCoef="0" IVar="10" Cut="-1.3343134522438049e-01" cType="1" res="-2.3017767816781998e-03" rms="2.0192274451255798e-01" purity="4.5703858137130737e-02" nType="0">
            <Node pos="l" depth="3" NCoef="0" IVar="-1" Cut="0.0000000000000000e+00" cType="1" res="-2.6623500511050224e-02" rms="1.9540032744407654e-01" purity="4.2284388095140457e-02" nType="-99"/>
            <Node pos="r" depth="3" NCoef="0" IVar="-1" Cut="0.0000000000000000e+00" cType="1" res="1.2458978220820427e-02" rms="2.0591039955615997e-01" purity="4.8011064529418945e-02" nType="-99"/>
          </Node>
          <Node pos="r" depth="2" NCoef="0" IVar="0" Cut="4.2762872314453125e+02" cType="1" res="7.0634130388498306e-03" rms="3.1737148761749268e-01" purity="6.5157008171081543e-01" nType="0">
            <Node pos="l" depth="3" NCoef="0" IVar="-1" Cut="0.0000000000000000e+00" cType="1" res="1.2931013479828835e-02" rms="3.7111377716064453e-01" purity="3.7753036618232727e-01" nType="-99"/>
            <Node pos="r" depth="3" NCoef="0" IVar="-1" Cut="0.0000000000000000e+00" cType="1" res="2.8817788697779179e-03" rms="2.9007685184478760e-01" purity="7.7386808395385742e-01" nType="-99"/>
          </Node>
        </Node>
      </Node>
    </BinaryTree>
    <BinaryTree type="DecisionTree" boostWeight="1.0000000000000000e+00" itree="644">
      <Node pos="s" depth="0" NCoef="0" IVar="10" Cut="1.7333331108093262e+00" cType="1" res="-1.7305816290900111e-03" rms="2.9546374082565308e-01" purity="4.9725037813186646e-01" nType="0">
        <Node pos="l" depth="1" NCoef="0" IVar="8" Cut="-1.7332259416580200e+00" cType="1" res="-3.0788892763666809e-04" rms="2.9509547352790833e-01" purity="5.1143360137939453e-01" nType="0">
          <Node pos="l" depth="2" NCoef="0" IVar="-1" Cut="0.0000000000000000e+00" cType="1" res="-3.0684024095535278e-02" rms="2.3596854507923126e-01" purity="1.3426309823989868e-01" nType="-99"/>
          <Node pos="r" depth="2" NCoef="0" IVar="9" Cut="6.6644513607025146e-01" cType="1" res="8.1279076403006911e-04" rms="2.9797393083572388e-01" purity="5.3222787380218506e-01" nType="0">
            <Node pos="l" depth="3" NCoef="0" IVar="-1" Cut="0.0000000000000000e+00" cType="1" res="3.3241366036236286e-03" rms="2.9649254679679871e-01" purity="5.5693113803863525e-01" nType="-99"/>
            <Node pos="r" depth="3" NCoef="0" IVar="-1" Cut="0.0000000000000000e+00" cType="1" res="-5.2434536628425121e-03" rms="3.0180361866950989e-01" purity="4.6657848358154297e-01" nType="-99"/>
          </Node>
        </Node>
        <Node pos="r" depth="1" NCoef="0" IVar="1" Cut="1.3132445068359375e+03" cType="1" res="-1.8005758523941040e-02" rms="2.9916319251060486e-01" purity="3.3499827980995178e-01" nType="0">
          <Node pos="l" depth="2" NCoef="0" IVar="-1" Cut="0.0000000000000000e+00" cType="1" res="-1.1818110942840576e-02" rms="2.5804781913757324e-01" purity="1.0292765498161316e-01" nType="-99"/>
          <Node pos="r" depth="2" NCoef="0" IVar="-1" Cut="0.0000000000000000e+00" cType="1" res="-2.6596395298838615e-02" rms="3.4684860706329346e-01" purity="6.4995723962783813e-01" nType="-99"/>
        </Node>
      </Node>
    </BinaryTree>
    <BinaryTree type="DecisionTree" boostWeight="1.0000000000000000e+00" itree="645">
      <Node pos="s" depth="0" NCoef="0" IVar="2" Cut="2.1316707134246826e-02" cType="1" res="2.3485890123993158e-03" rms="2.9665237665176392e-01" purity="5.0002402067184448e-01" nType="0">
        <Node pos="l" depth="1" NCoef="0" IVar="2" Cut="1.8271485343575478e-02" cType="1" res="-3.4693274646997452e-03" rms="2.7287253737449646e-01" purity="2.4062582850456238e-01" nType="0">
          <Node pos="l" depth="2" NCoef="0" IVar="4" Cut="3.2209634399414062e+02" cType="1" res="-5.6085162796080112e-03" rms="2.6664739847183228e-01" purity="2.2199630737304688e-01" nType="0">
            <Node pos="l" depth="3" NCoef="0" IVar="-1" Cut="0.0000000000000000e+00" cType="1" res="-3.8005327805876732e-03" rms="2.5372445583343506e-01" purity="1.4781908690929413e-01" nType="-99"/>
            <Node pos="r" depth="3" NCoef="0" IVar="-1" Cut="0.0000000000000000e+00" cType="1" res="-1.8296901136636734e-02" rms="3.2402646541595459e-01" purity="5.9906256198883057e-01" nType="-99"/>
          </Node>
          <Node pos="r" depth="2" NCoef="0" IVar="-1" Cut="0.0000000000000000e+00" cType="1" res="1.4507339335978031e-02" rms="3.2078537344932556e-01" purity="4.0048632025718689e-01" nType="-99"/>
        </Node>
        <Node pos="r" depth="1" NCoef="0" IVar="4" Cut="2.3021112060546875e+02" cType="1" res="5.5788867175579071e-03" rms="3.0901947617530823e-01" purity="6.4405035972595215e-01" nType="0">
          <Node pos="l" depth="2" NCoef="0" IVar="9" Cut="1.2000030279159546e+00" cType="1" res="1.3602648861706257e-02" rms="3.4903290867805481e-01" purity="3.5310593247413635e-01" nType="0">
            <Node pos="l" depth="3" NCoef="0" IVar="-1" Cut="0.0000000000000000e+00" cType="1" res="7.0695318281650543e-03" rms="3.4868457913398743e-01" purity="3.5575589537620544e-01" nType="-99"/>
            <Node pos="r" depth="3" NCoef="0" IVar="-1" Cut="0.0000000000000000e+00" cType="1" res="3.3533059060573578e-02" rms="3.4960132837295532e-01" purity="3.4020385146141052e-01" nType="-99"/>
          </Node>
          <Node pos="r" depth="2" NCoef="0" IVar="5" Cut="2.1527040100097656e+02" cType="1" res="-1.6674135986249894e-04" rms="2.7669289708137512e-01" purity="8.5238891839981079e-01" nType="0">
            <Node pos="l" depth="3" NCoef="0" IVar="-1" Cut="0.0000000000000000e+00" cType="1" res="-5.0760083831846714e-03" rms="3.2786390185356140e-01" purity="7.6731240749359131e-01" nType="-99"/>
            <Node pos="r" depth="3" NCoef="0" IVar="-1" Cut="0.0000000000000000e+00" cType="1" res="9.2265158891677856e-03" rms="2.1947912871837616e-01" purity="9.3032014369964600e-01" nType="-99"/>
          </Node>
        </Node>
      </Node>
    </BinaryTree>
    <BinaryTree type="DecisionTree" boostWeight="1.0000000000000000e+00" itree="646">
      <Node pos="s" depth="0" NCoef="0" IVar="8" Cut="-1.4666310548782349e+00" cType="1" res="-1.0562390089035034e-03" rms="2.9343169927597046e-01" purity="4.9928453564643860e-01" nType="0">
        <Node pos="l" depth="1" NCoef="0" IVar="1" Cut="1.1148636474609375e+03" cType="1" res="-1.7457613721489906e-02" rms="2.5359150767326355e-01" purity="1.7947703599929810e-01" nType="0">
          <Node pos="l" depth="2" NCoef="0" IVar="-1" Cut="0.0000000000000000e+00" cType="1" res="-7.4218036606907845e-03" rms="1.4619544148445129e-01" purity="2.4584002792835236e-02" nType="-99"/>
          <Node pos="r" depth="2" NCoef="0" IVar="-1" Cut="0.0000000000000000e+00" cType="1" res="-2.7531629428267479e-02" rms="3.1581988930702209e-01" purity="3.0866926908493042e-01" nType="-99"/>
        </Node>
        <Node pos="r" depth="1" NCoef="0" IVar="5" Cut="1.6115397644042969e+02" cType="1" res="3.9287976687774062e-04" rms="2.9665100574493408e-01" purity="5.2754062414169312e-01" nType="0">
          <Node pos="l" depth="2" NCoef="0" IVar="6" Cut="1.0259318542480469e+02" cType="1" res="-3.8734141271561384e-03" rms="3.0716273188591003e-01" purity="2.7915185689926147e-01" nType="0">
            <Node pos="l" depth="3" NCoef="0" IVar="-1" Cut="0.0000000000000000e+00" cType="1" res="-1.5058378921821713e-03" rms="2.9855310916900635e-01" purity="2.2281168401241302e-01" nType="-99"/>
            <Node pos="r" depth="3" NCoef="0" IVar="-1" Cut="0.0000000000000000e+00" cType="1" res="-1.3206812553107738e-02" rms="3.4796398878097534e-01" purity="5.7008272409439087e-01" nType="-99"/>
          </Node>
          <Node pos="r" depth="2" NCoef="0" IVar="6" Cut="1.4537678527832031e+02" cType="1" res="5.6540956720709801e-03" rms="2.8306251764297485e-01" purity="8.3385497331619263e-01" nType="0">
            <Node pos="l" depth="3" NCoef="0" IVar="-1" Cut="0.0000000000000000e+00" cType="1" res="1.1337034404277802e-02" rms="3.2626354694366455e-01" purity="7.5511187314987183e-01" nType="-99"/>
            <Node pos="r" depth="3" NCoef="0" IVar="-1" Cut="0.0000000000000000e+00" cType="1" res="-3.0947607010602951e-03" rms="2.2633896768093109e-01" purity="9.1999512910842896e-01" nType="-99"/>
          </Node>
        </Node>
      </Node>
    </BinaryTree>
    <BinaryTree type="DecisionTree" boostWeight="1.0000000000000000e+00" itree="647">
      <Node pos="s" depth="0" NCoef="0" IVar="10" Cut="9.3333321809768677e-01" cType="1" res="-1.2045965995639563e-03" rms="2.9472264647483826e-01" purity="4.9935525655746460e-01" nType="0">
        <Node pos="l" depth="1" NCoef="0" IVar="10" Cut="5.7774907350540161e-01" cType="1" res="1.4786038082093000e-03" rms="2.9564571380615234e-01" purity="5.1698130369186401e-01" nType="0">
          <Node pos="l" depth="2" NCoef="0" IVar="7" Cut="-6.3675016164779663e-01" cType="1" res="-4.4706830522045493e-04" rms="2.9528132081031799e-01" purity="5.1141119003295898e-01" nType="0">
            <Node pos="l" depth="3" NCoef="0" IVar="-1" Cut="0.0000000000000000e+00" cType="1" res="-1.0807830840349197e-02" rms="2.8350931406021118e-01" purity="3.4201297163963318e-01" nType="-99"/>
            <Node pos="r" depth="3" NCoef="0" IVar="-1" Cut="0.0000000000000000e+00" cType="1" res="2.6155300438404083e-03" rms="2.9896786808967590e-01" purity="5.6665909290313721e-01" nType="-99"/>
          </Node>
          <Node pos="r" depth="2" NCoef="0" IVar="0" Cut="5.3257580566406250e+02" cType="1" res="1.5194626525044441e-02" rms="2.9786831140518188e-01" purity="5.5665522813796997e-01" nType="0">
            <Node pos="l" depth="3" NCoef="0" IVar="-1" Cut="0.0000000000000000e+00" cType="1" res="2.3675357922911644e-02" rms="3.2091706991195679e-01" purity="3.5506659746170044e-01" nType="-99"/>
            <Node pos="r" depth="3" NCoef="0" IVar="-1" Cut="0.0000000000000000e+00" cType="1" res="3.2100547105073929e-03" rms="2.5705972313880920e-01" purity="8.7273579835891724e-01" nType="-99"/>
          </Node>
        </Node>
        <Node pos="r" depth="1" NCoef="0" IVar="9" Cut="-3.9994230866432190e-01" cType="1" res="-9.9281398579478264e-03" rms="2.9153087735176086e-01" purity="4.4204995036125183e-01" nType="0">
          <Node pos="l" depth="2" NCoef="0" IVar="8" Cut="1.3585245609283447e-01" cType="1" res="-1.9617373123764992e-02" rms="2.9427820444107056e-01" purity="4.2945301532745361e-01" nType="0">
            <Node pos="l" depth="3" NCoef="0" IVar="-1" Cut="0.0000000000000000e+00" cType="1" res="-1.3338258489966393e-02" rms="2.9863092303276062e-01" purity="4.5718222856521606e-01" nType="-99"/>
            <Node pos="r" depth="3" NCoef="0" IVar="-1" Cut="0.0000000000000000e+00" cType="1" res="-3.2420456409454346e-02" rms="2.8867164254188538e-01" purity="3.9596211910247803e-01" nType="-99"/>
          </Node>
          <Node pos="r" depth="2" NCoef="0" IVar="10" Cut="1.9111090898513794e+00" cType="1" res="-5.5395136587321758e-03" rms="2.9017150402069092e-01" purity="4.4775560498237610e-01" nType="0">
            <Node pos="l" depth="3" NCoef="0" IVar="-1" Cut="0.0000000000000000e+00" cType="1" res="-1.2982280924916267e-02" rms="2.8345984220504761e-01" purity="4.7764623165130615e-01" nType="-99"/>
            <Node pos="r" depth="3" NCoef="0" IVar="-1" Cut="0.0000000000000000e+00" cType="1" res="1.0346413590013981e-02" rms="3.0801665782928467e-01" purity="3.6244145035743713e-01" nType="-99"/>
          </Node>
        </Node>
      </Node>
    </BinaryTree>
    <BinaryTree type="DecisionTree" boostWeight="1.0000000000000000e+00" itree="648">
      <Node pos="s" depth="0" NCoef="0" IVar="9" Cut="-2.0000078678131104e+00" cType="1" res="2.4788249284029007e-03" rms="2.9814830422401428e-01" purity="5.0209695100784302e-01" nType="0">
        <Node pos="l" depth="1" NCoef="0" IVar="-1" Cut="0.0000000000000000e+00" cType="1" res="-2.6025377213954926e-02" rms="2.7063500881195068e-01" purity="1.8898896872997284e-01" nType="-99"/>
        <Node pos="r" depth="1" NCoef="0" IVar="10" Cut="-1.3320401310920715e-01" cType="1" res="3.4200251102447510e-03" rms="2.9916906356811523e-01" purity="5.1475244760513306e-01" nType="0">
          <Node pos="l" depth="2" NCoef="0" IVar="5" Cut="1.8483346557617188e+02" cType="1" res="8.5124885663390160e-03" rms="3.0015268921852112e-01" purity="5.1888704299926758e-01" nType="0">
            <Node pos="l" depth="3" NCoef="0" IVar="-1" Cut="0.0000000000000000e+00" cType="1" res="1.1919880285859108e-02" rms="3.1863212585449219e-01" purity="3.3890920877456665e-01" nType="-99"/>
            <Node pos="r" depth="3" NCoef="0" IVar="-1" Cut="0.0000000000000000e+00" cType="1" res="2.7964953333139420e-03" rms="2.6109850406646729e-01" purity="8.6287933588027954e-01" nType="-99"/>
          </Node>
          <Node pos="r" depth="2" NCoef="0" IVar="10" Cut="1.8222649097442627e+00" cType="1" res="-8.9737295638769865e-04" rms="2.9826453328132629e-01" purity="5.1124715805053711e-01" nType="0">
            <Node pos="l" depth="3" NCoef="0" IVar="-1" Cut="0.0000000000000000e+00" cType="1" res="-4.0698121301829815e-03" rms="2.9399159550666809e-01" purity="5.3530472517013550e-01" nType="-99"/>
            <Node pos="r" depth="3" NCoef="0" IVar="-1" Cut="0.0000000000000000e+00" cType="1" res="1.7125260084867477e-02" rms="3.2436010241508484e-01" purity="3.5355523228645325e-01" nType="-99"/>
          </Node>
        </Node>
      </Node>
    </BinaryTree>
    <BinaryTree type="DecisionTree" boostWeight="1.0000000000000000e+00" itree="649">
      <Node pos="s" depth="0" NCoef="0" IVar="10" Cut="-2.2666554450988770e+00" cType="1" res="1.2546299258247018e-03" rms="2.9699823260307312e-01" purity="5.0191164016723633e-01" nType="0">
        <Node pos="l" depth="1" NCoef="0" IVar="-1" Cut="0.0000000000000000e+00" cType="1" res="3.6269668489694595e-02" rms="3.1443604826927185e-01" purity="3.2000797986984253e-01" nType="-99"/>
        <Node pos="r" depth="1" NCoef="0" IVar="9" Cut="6.6663962602615356e-01" cType="1" res="3.5121457767672837e-04" rms="2.9639926552772522e-01" purity="5.0750917196273804e-01" nType="0">
          <Node pos="l" depth="2" NCoef="0" IVar="5" Cut="1.4369297790527344e+02" cType="1" res="2.2008351515978575e-03" rms="2.9447320103645325e-01" purity="5.3809916973114014e-01" nType="0">
            <Node pos="l" depth="3" NCoef="0" IVar="-1" Cut="0.0000000000000000e+00" cType="1" res="8.1243887543678284e-03" rms="3.0139154195785522e-01" purity="2.4432627856731415e-01" nType="-99"/>
            <Node pos="r" depth="3" NCoef="0" IVar="-1" Cut="0.0000000000000000e+00" cType="1" res="-2.8045175131410360e-03" rms="2.8815641999244690e-01" purity="7.9720389842987061e-01" nType="-99"/>
          </Node>
          <Node pos="r" depth="2" NCoef="0" IVar="8" Cut="-3.9994475245475769e-01" cType="1" res="-4.4840639457106590e-03" rms="3.0132260918617249e-01" purity="4.2754080891609192e-01" nType="0">
            <Node pos="l" depth="3" NCoef="0" IVar="-1" Cut="0.0000000000000000e+00" cType="1" res="4.6509071253240108e-03" rms="3.2143384218215942e-01" purity="3.8917025923728943e-01" nType="-99"/>
            <Node pos="r" depth="3" NCoef="0" IVar="-1" Cut="0.0000000000000000e+00" cType="1" res="-9.3909678980708122e-03" rms="2.9191556572914124e-01" purity="4.4448503851890564e-01" nType="-99"/>
          </Node>
        </Node>
      </Node>
    </BinaryTree>
    <BinaryTree type="DecisionTree" boostWeight="1.0000000000000000e+00" itree="650">
      <Node pos="s" depth="0" NCoef="0" IVar="7" Cut="1.4689526557922363e+00" cType="1" res="3.4847683855332434e-04" rms="2.9494762420654297e-01" purity="4.9852886795997620e-01" nType="0">
        <Node pos="l" depth="1" NCoef="0" IVar="8" Cut="1.7333317995071411e+00" cType="1" res="1.1035574134439230e-03" rms="3.0004450678825378e-01" purity="5.2481979131698608e-01" nType="0">
          <Node pos="l" depth="2" NCoef="0" IVar="8" Cut="1.0857098102569580e+00" cType="1" res="3.9826944703236222e-04" rms="3.0121260881423950e-01" purity="5.4440695047378540e-01" nType="0">
            <Node pos="l" depth="3" NCoef="0" IVar="-1" Cut="0.0000000000000000e+00" cType="1" res="1.8010714557021856e-03" rms="3.0005070567131042e-01" purity="5.6073135137557983e-01" nType="-99"/>
            <Node pos="r" depth="3" NCoef="0" IVar="-1" Cut="0.0000000000000000e+00" cType="1" res="-1.0491278953850269e-02" rms="3.1120201945304871e-01" purity="3.9826771616935730e-01" nType="-99"/>
          </Node>
          <Node pos="r" depth="2" NCoef="0" IVar="-1" Cut="0.0000000000000000e+00" cType="1" res="1.9767245277762413e-02" rms="2.7743372321128845e-01" purity="1.6559195518493652e-01" nType="-99"/>
        </Node>
        <Node pos="r" depth="1" NCoef="0" IVar="4" Cut="1.7827542114257812e+02" cType="1" res="-1.1154495179653168e-02" rms="2.0162811875343323e-01" purity="9.8009943962097168e-02" nType="0">
          <Node pos="l" depth="2" NCoef="0" IVar="-1" Cut="0.0000000000000000e+00" cType="1" res="-9.3214167281985283e-03" rms="1.1971982568502426e-01" purity="2.4644751101732254e-02" nType="-99"/>
          <Node pos="r" depth="2" NCoef="0" IVar="-1" Cut="0.0000000000000000e+00" cType="1" res="-2.5753209367394447e-02" rms="2.6371523737907410e-01" purity="1.7909827828407288e-01" nType="-99"/>
        </Node>
      </Node>
    </BinaryTree>
    <BinaryTree type="DecisionTree" boostWeight="1.0000000000000000e+00" itree="651">
      <Node pos="s" depth="0" NCoef="0" IVar="9" Cut="-1.3334581255912781e-01" cType="1" res="2.2727920440956950e-04" rms="2.9619169235229492e-01" purity="5.0075948238372803e-01" nType="0">
        <Node pos="l" depth="1" NCoef="0" IVar="0" Cut="6.0413549804687500e+02" cType="1" res="-4.1452385485172272e-03" rms="2.9525518417358398e-01" purity="4.8759430646896362e-01" nType="0">
          <Node pos="l" depth="2" NCoef="0" IVar="0" Cut="3.4344842529296875e+02" cType="1" res="-6.4569530077278614e-03" rms="3.0935052037239075e-01" purity="3.4085619449615479e-01" nType="0">
            <Node pos="l" depth="3" NCoef="0" IVar="-1" Cut="0.0000000000000000e+00" cType="1" res="4.9647716805338860e-03" rms="2.7671772241592407e-01" purity="1.3793164491653442e-01" nType="-99"/>
            <Node pos="r" depth="3" NCoef="0" IVar="-1" Cut="0.0000000000000000e+00" cType="1" res="-9.5446081832051277e-03" rms="3.2061681151390076e-01" purity="4.1672167181968689e-01" nType="-99"/>
          </Node>
          <Node pos="r" depth="2" NCoef="0" IVar="2" Cut="4.2657505720853806e-02" cType="1" res="2.2302544675767422e-03" rms="2.5222417712211609e-01" purity="8.9228421449661255e-01" nType="0">
            <Node pos="l" depth="3" NCoef="0" IVar="-1" Cut="0.0000000000000000e+00" cType="1" res="9.4532594084739685e-03" rms="3.2187306880950928e-01" purity="8.0189311504364014e-01" nType="-99"/>
            <Node pos="r" depth="3" NCoef="0" IVar="-1" Cut="0.0000000000000000e+00" cType="1" res="-1.0993170551955700e-02" rms="1.8518453836441040e-01" purity="9.5839548110961914e-01" nType="-99"/>
          </Node>
        </Node>
        <Node pos="r" depth="1" NCoef="0" IVar="9" Cut="6.3482099212706089e-03" cType="1" res="3.7998785264790058e-03" rms="2.9690691828727722e-01" purity="5.1151627302169800e-01" nType="0">
          <Node pos="l" depth="2" NCoef="0" IVar="-1" Cut="0.0000000000000000e+00" cType="1" res="2.1428998559713364e-02" rms="2.8780713677406311e-01" purity="6.2450963258743286e-01" nType="-99"/>
          <Node pos="r" depth="2" NCoef="0" IVar="7" Cut="-9.2586350440979004e-01" cType="1" res="2.3114150390028954e-03" rms="2.9776769876480103e-01" purity="5.0013160705566406e-01" nType="0">
            <Node pos="l" depth="3" NCoef="0" IVar="-1" Cut="0.0000000000000000e+00" cType="1" res="2.0744740962982178e-02" rms="2.9336422681808472e-01" purity="2.8590530157089233e-01" nType="-99"/>
            <Node pos="r" depth="3" NCoef="0" IVar="-1" Cut="0.0000000000000000e+00" cType="1" res="1.1960889241890982e-04" rms="2.9837813973426819e-01" purity="5.3307813405990601e-01" nType="-99"/>
          </Node>
        </Node>
      </Node>
    </BinaryTree>
    <BinaryTree type="DecisionTree" boostWeight="1.0000000000000000e+00" itree="652">
      <Node pos="s" depth="0" NCoef="0" IVar="10" Cut="-1.9997859001159668e+00" cType="1" res="-7.4787682387977839e-04" rms="2.9314962029457092e-01" purity="5.0361567735671997e-01" nType="0">
        <Node pos="l" depth="1" NCoef="0" IVar="8" Cut="-1.3338032364845276e-01" cType="1" res="-1.5522946603596210e-02" rms="2.8918868303298950e-01" purity="3.2354503870010376e-01" nType="0">
          <Node pos="l" depth="2" NCoef="0" IVar="-1" Cut="0.0000000000000000e+00" cType="1" res="-3.2185610383749008e-02" rms="2.7630731463432312e-01" purity="2.9265075922012329e-01" nType="-99"/>
          <Node pos="r" depth="2" NCoef="0" IVar="-1" Cut="0.0000000000000000e+00" cType="1" res="-4.5437971130013466e-03" rms="3.0082839727401733e-01" purity="3.5377186536788940e-01" nType="-99"/>
        </Node>
        <Node pos="r" depth="1" NCoef="0" IVar="6" Cut="7.8846519470214844e+01" cType="1" res="4.2739589844131842e-05" rms="2.9333907365798950e-01" purity="5.1325124502182007e-01" nType="0">
          <Node pos="l" depth="2" NCoef="0" IVar="4" Cut="2.4130744934082031e+02" cType="1" res="-4.4544683769345284e-03" rms="2.8107595443725586e-01" purity="2.2609098255634308e-01" nType="0">
            <Node pos="l" depth="3" NCoef="0" IVar="-1" Cut="0.0000000000000000e+00" cType="1" res="-1.3242369517683983e-02" rms="2.4679663777351379e-01" purity="1.1194441467523575e-01" nType="-99"/>
            <Node pos="r" depth="3" NCoef="0" IVar="-1" Cut="0.0000000000000000e+00" cType="1" res="6.0370801948010921e-03" rms="3.5849028825759888e-01" purity="5.3969013690948486e-01" nType="-99"/>
          </Node>
          <Node pos="r" depth="2" NCoef="0" IVar="9" Cut="6.6601145267486572e-01" cType="1" res="3.0574256088584661e-03" rms="3.0124270915985107e-01" purity="7.0574814081192017e-01" nType="0">
            <Node pos="l" depth="3" NCoef="0" IVar="-1" Cut="0.0000000000000000e+00" cType="1" res="1.2354701175354421e-04" rms="2.9324814677238464e-01" purity="7.2526305913925171e-01" nType="-99"/>
            <Node pos="r" depth="3" NCoef="0" IVar="-1" Cut="0.0000000000000000e+00" cType="1" res="1.1285008862614632e-02" rms="3.2273715734481812e-01" purity="6.5028721094131470e-01" nType="-99"/>
          </Node>
        </Node>
      </Node>
    </BinaryTree>
    <BinaryTree type="DecisionTree" boostWeight="1.0000000000000000e+00" itree="653">
      <Node pos="s" depth="0" NCoef="0" IVar="2" Cut="1.2789914011955261e-01" cType="1" res="2.5490290136076510e-04" rms="2.9702618718147278e-01" purity="4.9628615379333496e-01" nType="0">
        <Node pos="l" depth="1" NCoef="0" IVar="8" Cut="-1.1999002695083618e+00" cType="1" res="-1.4547990867868066e-03" rms="3.0233711004257202e-01" purity="4.4378215074539185e-01" nType="0">
          <Node pos="l" depth="2" NCoef="0" IVar="7" Cut="-8.9525604248046875e-01" cType="1" res="9.3259476125240326e-03" rms="2.9249483346939087e-01" purity="2.6620012521743774e-01" nType="0">
            <Node pos="l" depth="3" NCoef="0" IVar="-1" Cut="0.0000000000000000e+00" cType="1" res="-1.3219060376286507e-02" rms="2.2941277921199799e-01" purity="1.0783364623785019e-01" nType="-99"/>
            <Node pos="r" depth="3" NCoef="0" IVar="-1" Cut="0.0000000000000000e+00" cType="1" res="1.5969295054674149e-02" rms="3.0853345990180969e-01" purity="3.1307938694953918e-01" nType="-99"/>
          </Node>
          <Node pos="r" depth="2" NCoef="0" IVar="5" Cut="1.4368092346191406e+02" cType="1" res="-3.3016533125191927e-03" rms="3.0395287275314331e-01" purity="4.7420379519462585e-01" nType="0">
            <Node pos="l" depth="3" NCoef="0" IVar="-1" Cut="0.0000000000000000e+00" cType="1" res="-4.7950452426448464e-04" rms="2.9840964078903198e-01" purity="2.2408896684646606e-01" nType="-99"/>
            <Node pos="r" depth="3" NCoef="0" IVar="-1" Cut="0.0000000000000000e+00" cType="1" res="-6.7889201454818249e-03" rms="3.0996724963188171e-01" purity="7.5223553180694580e-01" nType="-99"/>
          </Node>
        </Node>
        <Node pos="r" depth="1" NCoef="0" IVar="-1" Cut="0.0000000000000000e+00" cType="1" res="1.6772678121924400e-02" rms="2.5743606686592102e-01" purity="8.5576313734054565e-01" nType="-99"/>
      </Node>
    </BinaryTree>
    <BinaryTree type="DecisionTree" boostWeight="1.0000000000000000e+00" itree="654">
      <Node pos="s" depth="0" NCoef="0" IVar="8" Cut="1.4665715694427490e+00" cType="1" res="4.5049656182527542e-03" rms="2.9722586274147034e-01" purity="5.0526064634323120e-01" nType="0">
        <Node pos="l" depth="1" NCoef="0" IVar="7" Cut="1.4501254260540009e-01" cType="1" res="5.5416552349925041e-03" rms="2.9999279975891113e-01" purity="5.3403174877166748e-01" nType="0">
          <Node pos="l" depth="2" NCoef="0" IVar="7" Cut="-6.8923521041870117e-01" cType="1" res="2.2047378588467836e-03" rms="2.9944962263107300e-01" purity="5.4946416616439819e-01" nType="0">
            <Node pos="l" depth="3" NCoef="0" IVar="-1" Cut="0.0000000000000000e+00" cType="1" res="1.0340677574276924e-02" rms="2.9636868834495544e-01" purity="3.6821681261062622e-01" nType="-99"/>
            <Node pos="r" depth="3" NCoef="0" IVar="-1" Cut="0.0000000000000000e+00" cType="1" res="-2.2873887792229652e-03" rms="3.0123162269592285e-01" purity="6.5996694564819336e-01" nType="-99"/>
          </Node>
          <Node pos="r" depth="2" NCoef="0" IVar="7" Cut="2.7141475677490234e-01" cType="1" res="9.8341125994920731e-03" rms="3.0063560605049133e-01" purity="5.1418012380599976e-01" nType="0">
            <Node pos="l" depth="3" NCoef="0" IVar="-1" Cut="0.0000000000000000e+00" cType="1" res="2.9309749603271484e-02" rms="3.2443499565124512e-01" purity="6.7024433612823486e-01" nType="-99"/>
            <Node pos="r" depth="3" NCoef="0" IVar="-1" Cut="0.0000000000000000e+00" cType="1" res="8.3567099645733833e-03" rms="2.9678952693939209e-01" purity="4.9053061008453369e-01" nType="-99"/>
          </Node>
        </Node>
        <Node pos="r" depth="1" NCoef="0" IVar="7" Cut="-5.3909529000520706e-02" cType="1" res="-6.9709229283034801e-03" rms="2.6439991593360901e-01" purity="1.8677127361297607e-01" nType="0">
          <Node pos="l" depth="2" NCoef="0" IVar="-1" Cut="0.0000000000000000e+00" cType="1" res="6.6929091699421406e-03" rms="2.8873771429061890e-01" purity="1.8442904949188232e-01" nType="-99"/>
          <Node pos="r" depth="2" NCoef="0" IVar="-1" Cut="0.0000000000000000e+00" cType="1" res="-2.4117421358823776e-02" rms="2.4158361554145813e-01" purity="1.8874104321002960e-01" nType="-99"/>
        </Node>
      </Node>
    </BinaryTree>
    <BinaryTree type="DecisionTree" boostWeight="1.0000000000000000e+00" itree="655">
      <Node pos="s" depth="0" NCoef="0" IVar="9" Cut="3.9993911981582642e-01" cType="1" res="3.7949712714180350e-04" rms="2.9796880483627319e-01" purity="4.9899786710739136e-01" nType="0">
        <Node pos="l" depth="1" NCoef="0" IVar="8" Cut="-1.4667006731033325e+00" cType="1" res="-2.1451592911034822e-03" rms="2.9372087121009827e-01" purity="5.1590353250503540e-01" nType="0">
          <Node pos="l" depth="2" NCoef="0" IVar="6" Cut="7.0125885009765625e+01" cType="1" res="-1.8292548134922981e-02" rms="2.6639994978904724e-01" purity="1.7321957647800446e-01" nType="0">
            <Node pos="l" depth="3" NCoef="0" IVar="-1" Cut="0.0000000000000000e+00" cType="1" res="-3.1797240953892469e-03" rms="2.0918819308280945e-01" purity="6.7826934158802032e-02" nType="-99"/>
            <Node pos="r" depth="3" NCoef="0" IVar="-1" Cut="0.0000000000000000e+00" cType="1" res="-3.4903325140476227e-02" rms="3.0645161867141724e-01" purity="2.6386055350303650e-01" nType="-99"/>
          </Node>
          <Node pos="r" depth="2" NCoef="0" IVar="8" Cut="-2.4766750633716583e-01" cType="1" res="-5.9195794165134430e-04" rms="2.9616960883140564e-01" purity="5.4886597394943237e-01" nType="0">
            <Node pos="l" depth="3" NCoef="0" IVar="-1" Cut="0.0000000000000000e+00" cType="1" res="6.7524183541536331e-03" rms="3.0363121628761292e-01" purity="5.5744653940200806e-01" nType="-99"/>
            <Node pos="r" depth="3" NCoef="0" IVar="-1" Cut="0.0000000000000000e+00" cType="1" res="-5.4291109554469585e-03" rms="2.9152610898017883e-01" purity="5.4372125864028931e-01" nType="-99"/>
          </Node>
        </Node>
        <Node pos="r" depth="1" NCoef="0" IVar="9" Cut="1.0856405496597290e+00" cType="1" res="4.7005489468574524e-03" rms="3.0505365133285522e-01" purity="4.7006320953369141e-01" nType="0">
          <Node pos="l" depth="2" NCoef="0" IVar="7" Cut="-6.1128193140029907e-01" cType="1" res="1.3193977065384388e-02" rms="3.0727875232696533e-01" purity="5.6562244892120361e-01" nType="0">
            <Node pos="l" depth="3" NCoef="0" IVar="-1" Cut="0.0000000000000000e+00" cType="1" res="3.8573563098907471e-02" rms="3.2621160149574280e-01" purity="4.6951884031295776e-01" nType="-99"/>
            <Node pos="r" depth="3" NCoef="0" IVar="-1" Cut="0.0000000000000000e+00" cType="1" res="8.7309144437313080e-03" rms="3.0184990167617798e-01" purity="5.9092432260513306e-01" nType="-99"/>
          </Node>
          <Node pos="r" depth="2" NCoef="0" IVar="9" Cut="1.4937980175018311e+00" cType="1" res="-5.1148128695785999e-03" rms="3.0216461420059204e-01" purity="3.5963091254234314e-01" nType="0">
            <Node pos="l" depth="3" NCoef="0" IVar="-1" Cut="0.0000000000000000e+00" cType="1" res="-1.7413353547453880e-02" rms="3.0091589689254761e-01" purity="4.4284045696258545e-01" nType="-99"/>
            <Node pos="r" depth="3" NCoef="0" IVar="-1" Cut="0.0000000000000000e+00" cType="1" res="4.0068589150905609e-03" rms="3.0283716320991516e-01" purity="2.9555040597915649e-01" nType="-99"/>
          </Node>
        </Node>
      </Node>
    </BinaryTree>
    <BinaryTree type="DecisionTree" boostWeight="1.0000000000000000e+00" itree="656">
      <Node pos="s" depth="0" NCoef="0" IVar="9" Cut="-9.3333536386489868e-01" cType="1" res="2.9276052373461425e-04" rms="2.9760342836380005e-01" purity="4.9988377094268799e-01" nType="0">
        <Node pos="l" depth="1" NCoef="0" IVar="5" Cut="1.3116323852539062e+02" cType="1" res="-7.7907261438667774e-03" rms="2.9673629999160767e-01" purity="3.8283360004425049e-01" nType="0">
          <Node pos="l" depth="2" NCoef="0" IVar="9" Cut="-1.3777744770050049e+00" cType="1" res="-1.1991873179795220e-04" rms="2.7294570207595825e-01" purity="1.7718715965747833e-01" nType="0">
            <Node pos="l" depth="3" NCoef="0" IVar="-1" Cut="0.0000000000000000e+00" cType="1" res="1.4317560940980911e-02" rms="2.7449721097946167e-01" purity="1.7352896928787231e-01" nType="-99"/>
            <Node pos="r" depth="3" NCoef="0" IVar="-1" Cut="0.0000000000000000e+00" cType="1" res="-2.1712563931941986e-02" rms="2.6936405897140503e-01" purity="1.8337070941925049e-01" nType="-99"/>
          </Node>
          <Node pos="r" depth="2" NCoef="0" IVar="2" Cut="3.8255110383033752e-02" cType="1" res="-1.7159141600131989e-02" rms="3.2317993044853210e-01" purity="6.3399124145507812e-01" nType="0">
            <Node pos="l" depth="3" NCoef="0" IVar="-1" Cut="0.0000000000000000e+00" cType="1" res="-2.4294560775160789e-02" rms="3.3804863691329956e-01" purity="4.1182661056518555e-01" nType="-99"/>
            <Node pos="r" depth="3" NCoef="0" IVar="-1" Cut="0.0000000000000000e+00" cType="1" res="-8.7679931893944740e-03" rms="3.1192919611930847e-01" purity="7.9137766361236572e-01" nType="-99"/>
          </Node>
        </Node>
        <Node pos="r" depth="1" NCoef="0" IVar="8" Cut="1.4666432142257690e+00" cType="1" res="2.4231821298599243e-03" rms="2.9779499769210815e-01" purity="5.3073263168334961e-01" nType="0">
          <Node pos="l" depth="2" NCoef="0" IVar="10" Cut="-1.7332942485809326e+00" cType="1" res="1.3394606066867709e-03" rms="2.9776650667190552e-01" purity="5.5806189775466919e-01" nType="0">
            <Node pos="l" depth="3" NCoef="0" IVar="-1" Cut="0.0000000000000000e+00" cType="1" res="-1.1987376026809216e-02" rms="2.9623776674270630e-01" purity="4.2590686678886414e-01" nType="-99"/>
            <Node pos="r" depth="3" NCoef="0" IVar="-1" Cut="0.0000000000000000e+00" cType="1" res="2.7033374644815922e-03" rms="2.9786992073059082e-01" purity="5.6909060478210449e-01" nType="-99"/>
          </Node>
          <Node pos="r" depth="2" NCoef="0" IVar="6" Cut="7.3818382263183594e+01" cType="1" res="1.4342190697789192e-02" rms="2.9784801602363586e-01" purity="2.3015937209129333e-01" nType="0">
            <Node pos="l" depth="3" NCoef="0" IVar="-1" Cut="0.0000000000000000e+00" cType="1" res="2.0467208232730627e-03" rms="2.2969208657741547e-01" purity="8.9656412601470947e-02" nType="-99"/>
            <Node pos="r" depth="3" NCoef="0" IVar="-1" Cut="0.0000000000000000e+00" cType="1" res="2.6204122230410576e-02" rms="3.5299736261367798e-01" purity="3.7181216478347778e-01" nType="-99"/>
          </Node>
        </Node>
      </Node>
    </BinaryTree>
    <BinaryTree type="DecisionTree" boostWeight="1.0000000000000000e+00" itree="657">
      <Node pos="s" depth="0" NCoef="0" IVar="9" Cut="3.9999222755432129e-01" cType="1" res="-7.8430090798065066e-04" rms="2.9698231816291809e-01" purity="4.9440109729766846e-01" nType="0">
        <Node pos="l" depth="1" NCoef="0" IVar="10" Cut="6.6675925254821777e-01" cType="1" res="2.5375392287969589e-03" rms="2.9573151469230652e-01" purity="5.1334911584854126e-01" nType="0">
          <Node pos="l" depth="2" NCoef="0" IVar="5" Cut="1.4369297790527344e+02" cType="1" res="5.0576478242874146e-03" rms="2.9731461405754089e-01" purity="5.1488363742828369e-01" nType="0">
            <Node pos="l" depth="3" NCoef="0" IVar="-1" Cut="0.0000000000000000e+00" cType="1" res="1.4330327510833740e-02" rms="3.0220326781272888e-01" purity="2.3086665570735931e-01" nType="-99"/>
            <Node pos="r" depth="3" NCoef="0" IVar="-1" Cut="0.0000000000000000e+00" cType="1" res="-2.1823549177497625e-03" rms="2.9245355725288391e-01" purity="7.8301936388015747e-01" nType="-99"/>
          </Node>
          <Node pos="r" depth="2" NCoef="0" IVar="1" Cut="1.1001440429687500e+03" cType="1" res="-3.8674697279930115e-03" rms="2.9157122969627380e-01" purity="5.0944918394088745e-01" nType="0">
            <Node pos="l" depth="3" NCoef="0" IVar="-1" Cut="0.0000000000000000e+00" cType="1" res="2.3460043594241142e-02" rms="2.3344253003597260e-01" purity="7.3589272797107697e-02" nType="-99"/>
            <Node pos="r" depth="3" NCoef="0" IVar="-1" Cut="0.0000000000000000e+00" cType="1" res="-9.1462880373001099e-03" rms="3.0912029743194580e-01" purity="6.6165411472320557e-01" nType="-99"/>
          </Node>
        </Node>
        <Node pos="r" depth="1" NCoef="0" IVar="8" Cut="-1.4663928747177124e+00" cType="1" res="-6.6023962572216988e-03" rms="2.9907160997390747e-01" purity="4.6121418476104736e-01" nType="0">
          <Node pos="l" depth="2" NCoef="0" IVar="-1" Cut="0.0000000000000000e+00" cType="1" res="1.5613926574587822e-02" rms="2.8574666380882263e-01" purity="2.0277857780456543e-01" nType="-99"/>
          <Node pos="r" depth="2" NCoef="0" IVar="8" Cut="1.5810207128524780e+00" cType="1" res="-8.1903645768761635e-03" rms="3.0010455846786499e-01" purity="4.8282402753829956e-01" nType="0">
            <Node pos="l" depth="3" NCoef="0" IVar="-1" Cut="0.0000000000000000e+00" cType="1" res="-1.0919543914496899e-02" rms="3.0295404791831970e-01" purity="5.1543468236923218e-01" nType="-99"/>
            <Node pos="r" depth="3" NCoef="0" IVar="-1" Cut="0.0000000000000000e+00" cType="1" res="1.3584110885858536e-02" rms="2.7067458629608154e-01" purity="1.7059427499771118e-01" nType="-99"/>
          </Node>
        </Node>
      </Node>
    </BinaryTree>
    <BinaryTree type="DecisionTree" boostWeight="1.0000000000000000e+00" itree="658">
      <Node pos="s" depth="0" NCoef="0" IVar="10" Cut="1.4666606187820435e+00" cType="1" res="-1.4557004906237125e-03" rms="2.9342672228813171e-01" purity="5.0215667486190796e-01" nType="0">
        <Node pos="l" depth="1" NCoef="0" IVar="9" Cut="1.9999133348464966e+00" cType="1" res="-2.9203775338828564e-03" rms="2.9199811816215515e-01" purity="5.1480722427368164e-01" nType="0">
          <Node pos="l" depth="2" NCoef="0" IVar="7" Cut="4.0478047728538513e-01" cType="1" res="-3.8527054712176323e-03" rms="2.9130396246910095e-01" purity="5.2527195215225220e-01" nType="0">
            <Node pos="l" depth="3" NCoef="0" IVar="-1" Cut="0.0000000000000000e+00" cType="1" res="-8.9920137543231249e-04" rms="2.9418000578880310e-01" purity="5.6277894973754883e-01" nType="-99"/>
            <Node pos="r" depth="3" NCoef="0" IVar="-1" Cut="0.0000000000000000e+00" cType="1" res="-1.2453367933630943e-02" rms="2.8460279107093811e-01" purity="4.4082877039909363e-01" nType="-99"/>
          </Node>
          <Node pos="r" depth="2" NCoef="0" IVar="-1" Cut="0.0000000000000000e+00" cType="1" res="2.3406198248267174e-02" rms="3.0795070528984070e-01" purity="2.5280299782752991e-01" nType="-99"/>
        </Node>
        <Node pos="r" depth="1" NCoef="0" IVar="8" Cut="9.3386155366897583e-01" cType="1" res="8.7401093915104866e-03" rms="3.0298876762390137e-01" purity="4.1409438848495483e-01" nType="0">
          <Node pos="l" depth="2" NCoef="0" IVar="8" Cut="-6.6559833288192749e-01" cType="1" res="1.2582504190504551e-02" rms="3.1430768966674805e-01" purity="4.7044047713279724e-01" nType="0">
            <Node pos="l" depth="3" NCoef="0" IVar="-1" Cut="0.0000000000000000e+00" cType="1" res="-4.6751414629397914e-05" rms="3.0092784762382507e-01" purity="3.2901263236999512e-01" nType="-99"/>
            <Node pos="r" depth="3" NCoef="0" IVar="-1" Cut="0.0000000000000000e+00" cType="1" res="1.8084021285176277e-02" rms="3.1986442208290100e-01" purity="5.3272080421447754e-01" nType="-99"/>
          </Node>
          <Node pos="r" depth="2" NCoef="0" IVar="-1" Cut="0.0000000000000000e+00" cType="1" res="-4.6327309682965279e-03" rms="2.6347452402114868e-01" purity="2.3516774177551270e-01" nType="-99"/>
        </Node>
      </Node>
    </BinaryTree>
    <BinaryTree type="DecisionTree" boostWeight="1.0000000000000000e+00" itree="659">
      <Node pos="s" depth="0" NCoef="0" IVar="2" Cut="2.0917132496833801e-02" cType="1" res="3.1173080787993968e-04" rms="2.9589331150054932e-01" purity="4.9714702367782593e-01" nType="0">
        <Node pos="l" depth="1" NCoef="0" IVar="5" Cut="1.3395858764648438e+02" cType="1" res="7.3650605045258999e-03" rms="2.8228005766868591e-01" purity="2.4978402256965637e-01" nType="0">
          <Node pos="l" depth="2" NCoef="0" IVar="5" Cut="1.1797650909423828e+02" cType="1" res="2.0329616963863373e-03" rms="2.4616396427154541e-01" purity="1.1798644065856934e-01" nType="0">
            <Node pos="l" depth="3" NCoef="0" IVar="-1" Cut="0.0000000000000000e+00" cType="1" res="1.2167878448963165e-02" rms="2.4123317003250122e-01" purity="1.0535973310470581e-01" nType="-99"/>
            <Node pos="r" depth="3" NCoef="0" IVar="-1" Cut="0.0000000000000000e+00" cType="1" res="-3.3104747533798218e-02" rms="2.7537694573402405e-01" purity="2.0394147932529449e-01" nType="-99"/>
          </Node>
          <Node pos="r" depth="2" NCoef="0" IVar="10" Cut="9.3355304002761841e-01" cType="1" res="1.7971299588680267e-02" rms="3.4274804592132568e-01" purity="5.1194649934768677e-01" nType="0">
            <Node pos="l" depth="3" NCoef="0" IVar="-1" Cut="0.0000000000000000e+00" cType="1" res="8.0911880359053612e-03" rms="3.3941110968589783e-01" purity="5.2615076303482056e-01" nType="-99"/>
            <Node pos="r" depth="3" NCoef="0" IVar="-1" Cut="0.0000000000000000e+00" cType="1" res="3.9987783879041672e-02" rms="3.5229700803756714e-01" purity="4.6437978744506836e-01" nType="-99"/>
          </Node>
        </Node>
        <Node pos="r" depth="1" NCoef="0" IVar="1" Cut="1.3524866943359375e+03" cType="1" res="-3.6510084755718708e-03" rms="3.0320158600807190e-01" purity="6.3612186908721924e-01" nType="0">
          <Node pos="l" depth="2" NCoef="0" IVar="0" Cut="3.8039459228515625e+02" cType="1" res="-1.2894048355519772e-02" rms="3.4006023406982422e-01" purity="2.1529476344585419e-01" nType="0">
            <Node pos="l" depth="3" NCoef="0" IVar="-1" Cut="0.0000000000000000e+00" cType="1" res="-3.3381269313395023e-03" rms="3.0591318011283875e-01" purity="1.5851858258247375e-01" nType="-99"/>
            <Node pos="r" depth="3" NCoef="0" IVar="-1" Cut="0.0000000000000000e+00" cType="1" res="-1.6577858477830887e-02" rms="3.8130381703376770e-01" purity="2.9262986779212952e-01" nType="-99"/>
          </Node>
          <Node pos="r" depth="2" NCoef="0" IVar="7" Cut="9.1174882650375366e-01" cType="1" res="1.6424572095274925e-03" rms="2.7977803349494934e-01" purity="8.7712848186492920e-01" nType="0">
            <Node pos="l" depth="3" NCoef="0" IVar="-1" Cut="0.0000000000000000e+00" cType="1" res="5.5820803390815854e-04" rms="2.7498245239257812e-01" purity="8.8362890481948853e-01" nType="-99"/>
            <Node pos="r" depth="3" NCoef="0" IVar="-1" Cut="0.0000000000000000e+00" cType="1" res="1.3893144205212593e-02" rms="3.2965135574340820e-01" purity="8.0233561992645264e-01" nType="-99"/>
          </Node>
        </Node>
      </Node>
    </BinaryTree>
    <BinaryTree type="DecisionTree" boostWeight="1.0000000000000000e+00" itree="660">
      <Node pos="s" depth="0" NCoef="0" IVar="8" Cut="-6.6659659147262573e-01" cType="1" res="2.0821322686970234e-03" rms="2.9573398828506470e-01" purity="5.0355845689773560e-01" nType="0">
        <Node pos="l" depth="1" NCoef="0" IVar="5" Cut="8.9458351135253906e+01" cType="1" res="7.1811028756201267e-03" rms="2.9856911301612854e-01" purity="4.0369665622711182e-01" nType="0">
          <Node pos="l" depth="2" NCoef="0" IVar="7" Cut="-3.8597419857978821e-01" cType="1" res="-1.0500817559659481e-02" rms="2.0147447288036346e-01" purity="6.9282211363315582e-02" nType="0">
            <Node pos="l" depth="3" NCoef="0" IVar="-1" Cut="0.0000000000000000e+00" cType="1" res="-4.9805813468992710e-03" rms="1.9417481124401093e-01" purity="6.5571427345275879e-02" nType="-99"/>
            <Node pos="r" depth="3" NCoef="0" IVar="-1" Cut="0.0000000000000000e+00" cType="1" res="-3.2238274812698364e-02" rms="2.0679095387458801e-01" purity="7.2196759283542633e-02" nType="-99"/>
          </Node>
          <Node pos="r" depth="2" NCoef="0" IVar="10" Cut="-1.2000030279159546e+00" cType="1" res="1.2791617773473263e-02" rms="3.2313826680183411e-01" purity="5.0980710983276367e-01" nType="0">
            <Node pos="l" depth="3" NCoef="0" IVar="-1" Cut="0.0000000000000000e+00" cType="1" res="-6.0520744882524014e-03" rms="3.0918812751770020e-01" purity="3.8807630538940430e-01" nType="-99"/>
            <Node pos="r" depth="3" NCoef="0" IVar="-1" Cut="0.0000000000000000e+00" cType="1" res="1.6545141115784645e-02" rms="3.2619082927703857e-01" purity="5.3859686851501465e-01" nType="-99"/>
          </Node>
        </Node>
        <Node pos="r" depth="1" NCoef="0" IVar="9" Cut="1.4666552543640137e+00" cType="1" res="2.7265437529422343e-04" rms="2.9470014572143555e-01" purity="5.3899651765823364e-01" nType="0">
          <Node pos="l" depth="2" NCoef="0" IVar="5" Cut="1.8698686218261719e+02" cType="1" res="-1.3071908615529537e-03" rms="2.9239892959594727e-01" purity="5.6386673450469971e-01" nType="0">
            <Node pos="l" depth="3" NCoef="0" IVar="-1" Cut="0.0000000000000000e+00" cType="1" res="-5.0410740077495575e-03" rms="3.1785422563552856e-01" purity="3.5913217067718506e-01" nType="-99"/>
            <Node pos="r" depth="3" NCoef="0" IVar="-1" Cut="0.0000000000000000e+00" cType="1" res="7.4174301698803902e-03" rms="2.4639771878719330e-01" purity="8.8973063230514526e-01" nType="-99"/>
          </Node>
          <Node pos="r" depth="2" NCoef="0" IVar="8" Cut="4.8895323276519775e-01" cType="1" res="1.3569255359470844e-02" rms="3.1308352947235107e-01" purity="3.2967880368232727e-01" nType="0">
            <Node pos="l" depth="3" NCoef="0" IVar="-1" Cut="0.0000000000000000e+00" cType="1" res="5.6256691459566355e-04" rms="3.1994718313217163e-01" purity="4.1897776722908020e-01" nType="-99"/>
            <Node pos="r" depth="3" NCoef="0" IVar="-1" Cut="0.0000000000000000e+00" cType="1" res="3.0660852789878845e-02" rms="3.0650886893272400e-01" purity="2.5162866711616516e-01" nType="-99"/>
          </Node>
        </Node>
      </Node>
    </BinaryTree>
    <BinaryTree type="DecisionTree" boostWeight="1.0000000000000000e+00" itree="661">
      <Node pos="s" depth="0" NCoef="0" IVar="5" Cut="1.6115164184570312e+02" cType="1" res="4.1410324047319591e-04" rms="2.9872059822082520e-01" purity="4.9655014276504517e-01" nType="0">
        <Node pos="l" depth="1" NCoef="0" IVar="2" Cut="1.0458468645811081e-01" cType="1" res="4.0790187194943428e-03" rms="3.0795103311538696e-01" purity="2.6919704675674438e-01" nType="0">
          <Node pos="l" depth="2" NCoef="0" IVar="8" Cut="1.3320875167846680e-01" cType="1" res="2.3523878771811724e-03" rms="2.9953631758689880e-01" purity="2.3725447058677673e-01" nType="0">
            <Node pos="l" depth="3" NCoef="0" IVar="-1" Cut="0.0000000000000000e+00" cType="1" res="-3.0918854754418135e-03" rms="2.9350030422210693e-01" purity="2.4136264622211456e-01" nType="-99"/>
            <Node pos="r" depth="3" NCoef="0" IVar="-1" Cut="0.0000000000000000e+00" cType="1" res="9.3873888254165649e-03" rms="3.0632975697517395e-01" purity="2.3245407640933990e-01" nType="-99"/>
          </Node>
          <Node pos="r" depth="2" NCoef="0" IVar="-1" Cut="0.0000000000000000e+00" cType="1" res="1.4890320599079132e-02" rms="3.8099622726440430e-01" purity="5.8567512035369873e-01" nType="-99"/>
        </Node>
        <Node pos="r" depth="1" NCoef="0" IVar="7" Cut="-1.1476472616195679e+00" cType="1" res="-4.6115070581436157e-03" rms="2.8550198674201965e-01" purity="8.0831396579742432e-01" nType="0">
          <Node pos="l" depth="2" NCoef="0" IVar="-1" Cut="0.0000000000000000e+00" cType="1" res="-2.1208776161074638e-02" rms="3.4507423639297485e-01" purity="4.6544963121414185e-01" nType="-99"/>
          <Node pos="r" depth="2" NCoef="0" IVar="8" Cut="1.1996892690658569e+00" cType="1" res="-3.0999914743006229e-03" rms="2.8088632225990295e-01" purity="8.3185029029846191e-01" nType="0">
            <Node pos="l" depth="3" NCoef="0" IVar="-1" Cut="0.0000000000000000e+00" cType="1" res="-2.8261723928153515e-03" rms="2.7645841240882874e-01" purity="8.4885078668594360e-01" nType="-99"/>
            <Node pos="r" depth="3" NCoef="0" IVar="-1" Cut="0.0000000000000000e+00" cType="1" res="-1.2815520167350769e-02" rms="3.3211824297904968e-01" purity="6.1440545320510864e-01" nType="-99"/>
          </Node>
        </Node>
      </Node>
    </BinaryTree>
    <BinaryTree type="DecisionTree" boostWeight="1.0000000000000000e+00" itree="662">
      <Node pos="s" depth="0" NCoef="0" IVar="8" Cut="-6.6672617197036743e-01" cType="1" res="-5.8735877973958850e-04" rms="2.9459640383720398e-01" purity="5.0435012578964233e-01" nType="0">
        <Node pos="l" depth="1" NCoef="0" IVar="4" Cut="1.2107706451416016e+02" cType="1" res="-7.1047106757760048e-03" rms="2.9136303067207336e-01" purity="3.9365336298942566e-01" nType="0">
          <Node pos="l" depth="2" NCoef="0" IVar="-1" Cut="0.0000000000000000e+00" cType="1" res="3.4920874983072281e-02" rms="2.0047816634178162e-01" purity="5.4538466036319733e-02" nType="-99"/>
          <Node pos="r" depth="2" NCoef="0" IVar="10" Cut="-6.6667497158050537e-01" cType="1" res="-1.0296854190528393e-02" rms="3.0431517958641052e-01" purity="4.5270535349845886e-01" nType="0">
            <Node pos="l" depth="3" NCoef="0" IVar="-1" Cut="0.0000000000000000e+00" cType="1" res="1.3739253627136350e-03" rms="3.0570125579833984e-01" purity="3.9906135201454163e-01" nType="-99"/>
            <Node pos="r" depth="3" NCoef="0" IVar="-1" Cut="0.0000000000000000e+00" cType="1" res="-1.6950815916061401e-02" rms="3.0337247252464294e-01" purity="4.8185694217681885e-01" nType="-99"/>
          </Node>
        </Node>
        <Node pos="r" depth="1" NCoef="0" IVar="2" Cut="1.4393414556980133e-01" cType="1" res="1.6686560120433569e-03" rms="2.9567393660545349e-01" purity="5.4266834259033203e-01" nType="0">
          <Node pos="l" depth="2" NCoef="0" IVar="3" Cut="4.6587246704101562e+02" cType="1" res="3.2611628994345665e-03" rms="3.0095103383064270e-01" purity="5.0194334983825684e-01" nType="0">
            <Node pos="l" depth="3" NCoef="0" IVar="-1" Cut="0.0000000000000000e+00" cType="1" res="7.2967680171132088e-03" rms="3.0733487010002136e-01" purity="3.7566640973091125e-01" nType="-99"/>
            <Node pos="r" depth="3" NCoef="0" IVar="-1" Cut="0.0000000000000000e+00" cType="1" res="-3.5172556526958942e-03" rms="2.8934499621391296e-01" purity="7.2270357608795166e-01" nType="-99"/>
          </Node>
          <Node pos="r" depth="2" NCoef="0" IVar="-1" Cut="0.0000000000000000e+00" cType="1" res="-1.8099619075655937e-02" rms="2.4978968501091003e-01" purity="8.6410325765609741e-01" nType="-99"/>
        </Node>
      </Node>
    </BinaryTree>
    <BinaryTree type="DecisionTree" boostWeight="1.0000000000000000e+00" itree="663">
      <Node pos="s" depth="0" NCoef="0" IVar="10" Cut="-2.2666554450988770e+00" cType="1" res="-6.7592231789603829e-04" rms="2.9685869812965393e-01" purity="4.9545747041702271e-01" nType="0">
        <Node pos="l" depth="1" NCoef="0" IVar="-1" Cut="0.0000000000000000e+00" cType="1" res="1.9310358911752701e-02" rms="3.0528667569160461e-01" purity="3.0547738075256348e-01" nType="-99"/>
        <Node pos="r" depth="1" NCoef="0" IVar="7" Cut="-1.4474570751190186e+00" cType="1" res="-1.2057131389155984e-03" rms="2.9658097028732300e-01" purity="5.0127351284027100e-01" nType="0">
          <Node pos="l" depth="2" NCoef="0" IVar="9" Cut="-1.3305380940437317e-01" cType="1" res="1.2081847526133060e-02" rms="2.4061508476734161e-01" purity="1.2758934497833252e-01" nType="0">
            <Node pos="l" depth="3" NCoef="0" IVar="-1" Cut="0.0000000000000000e+00" cType="1" res="-1.3517346233129501e-03" rms="2.1547274291515350e-01" purity="9.8968401551246643e-02" nType="-99"/>
            <Node pos="r" depth="3" NCoef="0" IVar="-1" Cut="0.0000000000000000e+00" cType="1" res="4.2065210640430450e-02" rms="2.6452624797821045e-01" purity="1.5865324437618256e-01" nType="-99"/>
          </Node>
          <Node pos="r" depth="2" NCoef="0" IVar="8" Cut="-6.6671001911163330e-01" cType="1" res="-2.0632350351661444e-03" rms="2.9981392621994019e-01" purity="5.2538949251174927e-01" nType="0">
            <Node pos="l" depth="3" NCoef="0" IVar="-1" Cut="0.0000000000000000e+00" cType="1" res="3.4391048830002546e-03" rms="3.0926412343978882e-01" purity="4.2577379941940308e-01" nType="-99"/>
            <Node pos="r" depth="3" NCoef="0" IVar="-1" Cut="0.0000000000000000e+00" cType="1" res="-4.3114116415381432e-03" rms="2.9656803607940674e-01" purity="5.5867254734039307e-01" nType="-99"/>
          </Node>
        </Node>
      </Node>
    </BinaryTree>
    <BinaryTree type="DecisionTree" boostWeight="1.0000000000000000e+00" itree="664">
      <Node pos="s" depth="0" NCoef="0" IVar="9" Cut="-1.2000035047531128e+00" cType="1" res="-8.4132349002175033e-05" rms="2.9808703064918518e-01" purity="4.9558770656585693e-01" nType="0">
        <Node pos="l" depth="1" NCoef="0" IVar="7" Cut="1.5589976310729980e-01" cType="1" res="-7.8634172677993774e-03" rms="3.0121260881423950e-01" purity="3.2400533556938171e-01" nType="0">
          <Node pos="l" depth="2" NCoef="0" IVar="9" Cut="-1.8857127428054810e+00" cType="1" res="-1.9400514662265778e-02" rms="3.0498024821281433e-01" purity="3.2203018665313721e-01" nType="0">
            <Node pos="l" depth="3" NCoef="0" IVar="-1" Cut="0.0000000000000000e+00" cType="1" res="5.1236371509730816e-03" rms="3.1640028953552246e-01" purity="2.4325630068778992e-01" nType="-99"/>
            <Node pos="r" depth="3" NCoef="0" IVar="-1" Cut="0.0000000000000000e+00" cType="1" res="-3.3804040402173996e-02" rms="2.9820755124092102e-01" purity="3.6250954866409302e-01" nType="-99"/>
          </Node>
          <Node pos="r" depth="2" NCoef="0" IVar="8" Cut="-1.3444527983665466e-01" cType="1" res="9.4960033893585205e-03" rms="2.9460296034812927e-01" purity="3.2697731256484985e-01" nType="0">
            <Node pos="l" depth="3" NCoef="0" IVar="-1" Cut="0.0000000000000000e+00" cType="1" res="2.8399178758263588e-02" rms="3.0327615141868591e-01" purity="3.1689861416816711e-01" nType="-99"/>
            <Node pos="r" depth="3" NCoef="0" IVar="-1" Cut="0.0000000000000000e+00" cType="1" res="-4.7203167341649532e-03" rms="2.8541210293769836e-01" purity="3.3660942316055298e-01" nType="-99"/>
          </Node>
        </Node>
        <Node pos="r" depth="1" NCoef="0" IVar="9" Cut="5.1427274942398071e-01" cType="1" res="1.2672817101702094e-03" rms="2.9751998186111450e-01" purity="5.2539497613906860e-01" nType="0">
          <Node pos="l" depth="2" NCoef="0" IVar="10" Cut="-9.3310147523880005e-01" cType="1" res="4.4691083021461964e-03" rms="2.9497468471527100e-01" purity="5.7220298051834106e-01" nType="0">
            <Node pos="l" depth="3" NCoef="0" IVar="-1" Cut="0.0000000000000000e+00" cType="1" res="1.3664740137755871e-02" rms="3.0651387572288513e-01" purity="5.2187448740005493e-01" nType="-99"/>
            <Node pos="r" depth="3" NCoef="0" IVar="-1" Cut="0.0000000000000000e+00" cType="1" res="2.2406380157917738e-03" rms="2.9127877950668335e-01" purity="5.8771580457687378e-01" nType="-99"/>
          </Node>
          <Node pos="r" depth="2" NCoef="0" IVar="9" Cut="1.9292353391647339e+00" cType="1" res="-3.9453580975532532e-03" rms="3.0154508352279663e-01" purity="4.4919043779373169e-01" nType="0">
            <Node pos="l" depth="3" NCoef="0" IVar="-1" Cut="0.0000000000000000e+00" cType="1" res="-1.9694382790476084e-03" rms="3.0524149537086487e-01" purity="4.8970326781272888e-01" nType="-99"/>
            <Node pos="r" depth="3" NCoef="0" IVar="-1" Cut="0.0000000000000000e+00" cType="1" res="-2.0678939297795296e-02" rms="2.7762499451637268e-01" purity="2.0235401391983032e-01" nType="-99"/>
          </Node>
        </Node>
      </Node>
    </BinaryTree>
    <BinaryTree type="DecisionTree" boostWeight="1.0000000000000000e+00" itree="665">
      <Node pos="s" depth="0" NCoef="0" IVar="9" Cut="-6.6667610406875610e-01" cType="1" res="1.2359217507764697e-03" rms="2.9572927951812744e-01" purity="5.0251901149749756e-01" nType="0">
        <Node pos="l" depth="1" NCoef="0" IVar="0" Cut="5.5563513183593750e+02" cType="1" res="1.2146865949034691e-02" rms="3.0333328247070312e-01" purity="4.4325408339500427e-01" nType="0">
          <Node pos="l" depth="2" NCoef="0" IVar="3" Cut="2.9846591186523438e+02" cType="1" res="1.6562206670641899e-02" rms="3.1262299418449402e-01" purity="2.8552189469337463e-01" nType="0">
            <Node pos="l" depth="3" NCoef="0" IVar="-1" Cut="0.0000000000000000e+00" cType="1" res="2.1198850590735674e-03" rms="2.7432620525360107e-01" purity="1.4761447906494141e-01" nType="-99"/>
            <Node pos="r" depth="3" NCoef="0" IVar="-1" Cut="0.0000000000000000e+00" cType="1" res="2.3097198456525803e-02" rms="3.3185204863548279e-01" purity="3.6274942755699158e-01" nType="-99"/>
          </Node>
          <Node pos="r" depth="2" NCoef="0" IVar="6" Cut="9.4238471984863281e+01" cType="1" res="1.0101832449436188e-03" rms="2.7821817994117737e-01" purity="8.4109711647033691e-01" nType="0">
            <Node pos="l" depth="3" NCoef="0" IVar="-1" Cut="0.0000000000000000e+00" cType="1" res="-1.0542425327003002e-02" rms="3.5700261592864990e-01" purity="6.7523300647735596e-01" nType="-99"/>
            <Node pos="r" depth="3" NCoef="0" IVar="-1" Cut="0.0000000000000000e+00" cType="1" res="1.7386922612786293e-02" rms="2.2065837681293488e-01" purity="9.3564957380294800e-01" nType="-99"/>
          </Node>
        </Node>
        <Node pos="r" depth="1" NCoef="0" IVar="8" Cut="3.9987182617187500e-01" cType="1" res="-3.1142365187406540e-03" rms="2.9252907633781433e-01" purity="5.2614778280258179e-01" nType="0">
          <Node pos="l" depth="2" NCoef="0" IVar="9" Cut="-1.7142641544342041e-01" cType="1" res="3.5071943420916796e-04" rms="2.9562762379646301e-01" purity="5.6536221504211426e-01" nType="0">
            <Node pos="l" depth="3" NCoef="0" IVar="-1" Cut="0.0000000000000000e+00" cType="1" res="9.0716062113642693e-03" rms="2.9183802008628845e-01" purity="6.1030077934265137e-01" nType="-99"/>
            <Node pos="r" depth="3" NCoef="0" IVar="-1" Cut="0.0000000000000000e+00" cType="1" res="-2.2765097673982382e-03" rms="2.9677423834800720e-01" purity="5.5117976665496826e-01" nType="-99"/>
          </Node>
          <Node pos="r" depth="2" NCoef="0" IVar="9" Cut="1.1488065719604492e+00" cType="1" res="-9.1367689892649651e-03" rms="2.8696426749229431e-01" purity="4.5798802375793457e-01" nType="0">
            <Node pos="l" depth="3" NCoef="0" IVar="-1" Cut="0.0000000000000000e+00" cType="1" res="-4.9231564626097679e-03" rms="2.9295554757118225e-01" purity="5.2161902189254761e-01" nType="-99"/>
            <Node pos="r" depth="3" NCoef="0" IVar="-1" Cut="0.0000000000000000e+00" cType="1" res="-2.7732580900192261e-02" rms="2.6796588301658630e-01" purity="2.6993346214294434e-01" nType="-99"/>
          </Node>
        </Node>
      </Node>
    </BinaryTree>
    <BinaryTree type="DecisionTree" boostWeight="1.0000000000000000e+00" itree="666">
      <Node pos="s" depth="0" NCoef="0" IVar="9" Cut="-4.0000647306442261e-01" cType="1" res="-1.2725655687972903e-03" rms="2.9653385281562805e-01" purity="4.9602818489074707e-01" nType="0">
        <Node pos="l" depth="1" NCoef="0" IVar="10" Cut="-1.4665974378585815e+00" cType="1" res="4.1382983326911926e-03" rms="3.0206418037414551e-01" purity="4.6641176939010620e-01" nType="0">
          <Node pos="l" depth="2" NCoef="0" IVar="4" Cut="1.9867700195312500e+02" cType="1" res="-1.0952477343380451e-02" rms="2.9209688305854797e-01" purity="3.1979727745056152e-01" nType="0">
            <Node pos="l" depth="3" NCoef="0" IVar="-1" Cut="0.0000000000000000e+00" cType="1" res="-2.5402300059795380e-02" rms="2.3991119861602783e-01" purity="1.1242441833019257e-01" nType="-99"/>
            <Node pos="r" depth="3" NCoef="0" IVar="-1" Cut="0.0000000000000000e+00" cType="1" res="-4.3711061589419842e-03" rms="3.3844795823097229e-01" purity="5.3860157728195190e-01" nType="-99"/>
          </Node>
          <Node pos="r" depth="2" NCoef="0" IVar="4" Cut="3.3698907470703125e+02" cType="1" res="6.6155232489109039e-03" rms="3.0359745025634766e-01" purity="4.9047926068305969e-01" nType="0">
            <Node pos="l" depth="3" NCoef="0" IVar="-1" Cut="0.0000000000000000e+00" cType="1" res="9.9095795303583145e-03" rms="3.1123539805412292e-01" purity="3.9814132452011108e-01" nType="-99"/>
            <Node pos="r" depth="3" NCoef="0" IVar="-1" Cut="0.0000000000000000e+00" cType="1" res="-6.6226399503648281e-03" rms="2.7235823869705200e-01" purity="8.4101980924606323e-01" nType="-99"/>
          </Node>
        </Node>
        <Node pos="r" depth="1" NCoef="0" IVar="5" Cut="1.5985702514648438e+02" cType="1" res="-4.4113243930041790e-03" rms="2.9323226213455200e-01" purity="5.1320821046829224e-01" nType="0">
          <Node pos="l" depth="2" NCoef="0" IVar="1" Cut="1.0578626708984375e+03" cType="1" res="-8.4484275430440903e-03" rms="3.0172625184059143e-01" purity="2.5340244174003601e-01" nType="0">
            <Node pos="l" depth="3" NCoef="0" IVar="-1" Cut="0.0000000000000000e+00" cType="1" res="8.8415862992405891e-03" rms="2.0132194459438324e-01" purity="4.8920232802629471e-02" nType="-99"/>
            <Node pos="r" depth="3" NCoef="0" IVar="-1" Cut="0.0000000000000000e+00" cType="1" res="-1.2324213981628418e-02" rms="3.4757220745086670e-01" purity="3.7446478009223938e-01" nType="-99"/>
          </Node>
          <Node pos="r" depth="2" NCoef="0" IVar="7" Cut="9.6329909563064575e-01" cType="1" res="4.5742641668766737e-04" rms="2.8257244825363159e-01" purity="8.2653427124023438e-01" nType="0">
            <Node pos="l" depth="3" NCoef="0" IVar="-1" Cut="0.0000000000000000e+00" cType="1" res="-3.1094227451831102e-03" rms="2.7256327867507935e-01" purity="8.4809309244155884e-01" nType="-99"/>
            <Node pos="r" depth="3" NCoef="0" IVar="-1" Cut="0.0000000000000000e+00" cType="1" res="2.0785365253686905e-02" rms="3.5852682590484619e-01" purity="6.3506335020065308e-01" nType="-99"/>
          </Node>
        </Node>
      </Node>
    </BinaryTree>
    <BinaryTree type="DecisionTree" boostWeight="1.0000000000000000e+00" itree="667">
      <Node pos="s" depth="0" NCoef="0" IVar="1" Cut="1.4400654296875000e+03" cType="1" res="1.0228697210550308e-03" rms="2.9801261425018311e-01" purity="5.0160413980484009e-01" nType="0">
        <Node pos="l" depth="1" NCoef="0" IVar="0" Cut="3.9123846435546875e+02" cType="1" res="5.3034201264381409e-03" rms="3.1053680181503296e-01" purity="1.8595087528228760e-01" nType="0">
          <Node pos="l" depth="2" NCoef="0" IVar="0" Cut="3.0868930053710938e+02" cType="1" res="-1.8685344839468598e-03" rms="2.6737621426582336e-01" purity="1.2218392640352249e-01" nType="0">
            <Node pos="l" depth="3" NCoef="0" IVar="-1" Cut="0.0000000000000000e+00" cType="1" res="-4.6824678778648376e-02" rms="2.0125602185726166e-01" purity="6.8115234375000000e-02" nType="-99"/>
            <Node pos="r" depth="3" NCoef="0" IVar="-1" Cut="0.0000000000000000e+00" cType="1" res="2.8305409941822290e-03" rms="2.7544677257537842e-01" purity="1.3004797697067261e-01" nType="-99"/>
          </Node>
          <Node pos="r" depth="2" NCoef="0" IVar="10" Cut="9.3331146240234375e-01" cType="1" res="1.6077209264039993e-02" rms="3.6566311120986938e-01" purity="2.8174224495887756e-01" nType="0">
            <Node pos="l" depth="3" NCoef="0" IVar="-1" Cut="0.0000000000000000e+00" cType="1" res="7.4670673348009586e-03" rms="3.6195838451385498e-01" purity="2.7913963794708252e-01" nType="-99"/>
            <Node pos="r" depth="3" NCoef="0" IVar="-1" Cut="0.0000000000000000e+00" cType="1" res="2.8036599978804588e-02" rms="3.7516456842422485e-01" purity="2.8897652029991150e-01" nType="-99"/>
          </Node>
        </Node>
        <Node pos="r" depth="1" NCoef="0" IVar="0" Cut="4.5207928466796875e+02" cType="1" res="-3.4776879474520683e-03" rms="2.8418073058128357e-01" purity="8.3348101377487183e-01" nType="0">
          <Node pos="l" depth="2" NCoef="0" IVar="9" Cut="1.3327775895595551e-01" cType="1" res="-1.5162173658609390e-02" rms="3.6311271786689758e-01" purity="6.2569296360015869e-01" nType="0">
            <Node pos="l" depth="3" NCoef="0" IVar="-1" Cut="0.0000000000000000e+00" cType="1" res="-1.1711826082319021e-03" rms="3.6463922262191772e-01" purity="6.4361208677291870e-01" nType="-99"/>
            <Node pos="r" depth="3" NCoef="0" IVar="-1" Cut="0.0000000000000000e+00" cType="1" res="-2.3757267743349075e-02" rms="3.6039355397224426e-01" purity="6.0263764858245850e-01" nType="-99"/>
          </Node>
          <Node pos="r" depth="2" NCoef="0" IVar="2" Cut="2.0562749356031418e-02" cType="1" res="-8.5514487000182271e-04" rms="2.6316097378730774e-01" purity="8.8011831045150757e-01" nType="0">
            <Node pos="l" depth="3" NCoef="0" IVar="-1" Cut="0.0000000000000000e+00" cType="1" res="6.1385640874505043e-03" rms="3.5850378870964050e-01" purity="6.9866520166397095e-01" nType="-99"/>
            <Node pos="r" depth="3" NCoef="0" IVar="-1" Cut="0.0000000000000000e+00" cType="1" res="-6.4789210446178913e-03" rms="2.2956360876560211e-01" purity="9.3071150779724121e-01" nType="-99"/>
          </Node>
        </Node>
      </Node>
    </BinaryTree>
    <BinaryTree type="DecisionTree" boostWeight="1.0000000000000000e+00" itree="668">
      <Node pos="s" depth="0" NCoef="0" IVar="9" Cut="9.3331480026245117e-01" cType="1" res="1.3762983726337552e-03" rms="2.9986810684204102e-01" purity="5.0173175334930420e-01" nType="0">
        <Node pos="l" depth="1" NCoef="0" IVar="10" Cut="1.7333509922027588e+00" cType="1" res="-1.5796549851074815e-03" rms="2.9676201939582825e-01" purity="5.2750700712203979e-01" nType="0">
          <Node pos="l" depth="2" NCoef="0" IVar="2" Cut="2.1316925063729286e-02" cType="1" res="-3.6262036883272231e-04" rms="2.9600629210472107e-01" purity="5.3824156522750854e-01" nType="0">
            <Node pos="l" depth="3" NCoef="0" IVar="-1" Cut="0.0000000000000000e+00" cType="1" res="7.3270713910460472e-03" rms="2.9011520743370056e-01" purity="2.9665994644165039e-01" nType="-99"/>
            <Node pos="r" depth="3" NCoef="0" IVar="-1" Cut="0.0000000000000000e+00" cType="1" res="-4.3686884455382824e-03" rms="2.9909539222717285e-01" purity="6.6935074329376221e-01" nType="-99"/>
          </Node>
          <Node pos="r" depth="2" NCoef="0" IVar="9" Cut="-4.8921436071395874e-01" cType="1" res="-1.6513291746377945e-02" rms="3.0548861622810364e-01" purity="3.9578837156295776e-01" nType="0">
            <Node pos="l" depth="3" NCoef="0" IVar="-1" Cut="0.0000000000000000e+00" cType="1" res="-3.3563976176083088e-03" rms="3.1370162963867188e-01" purity="3.3933869004249573e-01" nType="-99"/>
            <Node pos="r" depth="3" NCoef="0" IVar="-1" Cut="0.0000000000000000e+00" cType="1" res="-2.7688082307577133e-02" rms="2.9889413714408875e-01" purity="4.3752449750900269e-01" nType="-99"/>
          </Node>
        </Node>
        <Node pos="r" depth="1" NCoef="0" IVar="0" Cut="7.1231982421875000e+02" cType="1" res="1.2216513045132160e-02" rms="3.1075301766395569e-01" purity="4.0720734000205994e-01" nType="0">
          <Node pos="l" depth="2" NCoef="0" IVar="6" Cut="8.9884170532226562e+01" cType="1" res="1.5243108384311199e-02" rms="3.1837436556816101e-01" purity="3.3331611752510071e-01" nType="0">
            <Node pos="l" depth="3" NCoef="0" IVar="-1" Cut="0.0000000000000000e+00" cType="1" res="7.6225879602134228e-03" rms="2.8923588991165161e-01" purity="1.7336377501487732e-01" nType="-99"/>
            <Node pos="r" depth="3" NCoef="0" IVar="-1" Cut="0.0000000000000000e+00" cType="1" res="2.3369507864117622e-02" rms="3.6026436090469360e-01" purity="5.9316086769104004e-01" nType="-99"/>
          </Node>
          <Node pos="r" depth="2" NCoef="0" IVar="-1" Cut="0.0000000000000000e+00" cType="1" res="-1.2834710069000721e-02" rms="2.5325182080268860e-01" purity="8.9977586269378662e-01" nType="-99"/>
        </Node>
      </Node>
    </BinaryTree>
    <BinaryTree type="DecisionTree" boostWeight="1.0000000000000000e+00" itree="669">
      <Node pos="s" depth="0" NCoef="0" IVar="9" Cut="-9.3334126472473145e-01" cType="1" res="-1.9447349477559328e-03" rms="2.9509532451629639e-01" purity="4.9932456016540527e-01" nType="0">
        <Node pos="l" depth="1" NCoef="0" IVar="0" Cut="6.8288525390625000e+02" cType="1" res="-1.0499780997633934e-02" rms="2.9874831438064575e-01" purity="3.7681782245635986e-01" nType="0">
          <Node pos="l" depth="2" NCoef="0" IVar="4" Cut="2.4224397277832031e+02" cType="1" res="-1.4873240143060684e-02" rms="3.0147978663444519e-01" purity="2.8490740060806274e-01" nType="0">
            <Node pos="l" depth="3" NCoef="0" IVar="-1" Cut="0.0000000000000000e+00" cType="1" res="-8.6534852162003517e-03" rms="2.7842101454734802e-01" purity="1.7873531579971313e-01" nType="-99"/>
            <Node pos="r" depth="3" NCoef="0" IVar="-1" Cut="0.0000000000000000e+00" cType="1" res="-2.7381705120205879e-02" rms="3.5089796781539917e-01" purity="5.4494005441665649e-01" nType="-99"/>
          </Node>
          <Node pos="r" depth="2" NCoef="0" IVar="-1" Cut="0.0000000000000000e+00" cType="1" res="1.8156018108129501e-02" rms="2.8193190693855286e-01" purity="8.8546520471572876e-01" nType="-99"/>
        </Node>
        <Node pos="r" depth="1" NCoef="0" IVar="10" Cut="-1.9999617338180542e+00" cType="1" res="2.5566489784978330e-04" rms="2.9410818219184875e-01" purity="5.3083395957946777e-01" nType="0">
          <Node pos="l" depth="2" NCoef="0" IVar="-1" Cut="0.0000000000000000e+00" cType="1" res="-2.2931834682822227e-02" rms="2.9169636964797974e-01" purity="3.4340381622314453e-01" nType="-99"/>
          <Node pos="r" depth="2" NCoef="0" IVar="2" Cut="1.2789915502071381e-01" cType="1" res="1.2303626863285899e-03" rms="2.9418462514877319e-01" purity="5.3961503505706787e-01" nType="0">
            <Node pos="l" depth="3" NCoef="0" IVar="-1" Cut="0.0000000000000000e+00" cType="1" res="-3.9121342706494033e-04" rms="2.9969033598899841e-01" purity="4.8842164874076843e-01" nType="-99"/>
            <Node pos="r" depth="3" NCoef="0" IVar="-1" Cut="0.0000000000000000e+00" cType="1" res="1.7508734017610550e-02" rms="2.5536912679672241e-01" purity="8.7167638540267944e-01" nType="-99"/>
          </Node>
        </Node>
      </Node>
    </BinaryTree>
    <BinaryTree type="DecisionTree" boostWeight="1.0000000000000000e+00" itree="670">
      <Node pos="s" depth="0" NCoef="0" IVar="4" Cut="2.4120411682128906e+02" cType="1" res="-5.0041195936501026e-04" rms="2.9359537363052368e-01" purity="5.0050181150436401e-01" nType="0">
        <Node pos="l" depth="1" NCoef="0" IVar="2" Cut="4.1002441197633743e-02" cType="1" res="-6.9187614135444164e-03" rms="2.9579049348831177e-01" purity="2.4340847134590149e-01" nType="0">
          <Node pos="l" depth="2" NCoef="0" IVar="8" Cut="9.3326473236083984e-01" cType="1" res="-1.0596096981316805e-03" rms="2.6471686363220215e-01" purity="1.4471325278282166e-01" nType="0">
            <Node pos="l" depth="3" NCoef="0" IVar="-1" Cut="0.0000000000000000e+00" cType="1" res="-9.4261365011334419e-03" rms="2.6224574446678162e-01" purity="1.4667002856731415e-01" nType="-99"/>
            <Node pos="r" depth="3" NCoef="0" IVar="-1" Cut="0.0000000000000000e+00" cType="1" res="2.1276034414768219e-02" rms="2.7034083008766174e-01" purity="1.3971854746341705e-01" nType="-99"/>
          </Node>
          <Node pos="r" depth="2" NCoef="0" IVar="1" Cut="1.3623166503906250e+03" cType="1" res="-1.8122721463441849e-02" rms="3.4728363156318665e-01" purity="4.3213498592376709e-01" nType="0">
            <Node pos="l" depth="3" NCoef="0" IVar="-1" Cut="0.0000000000000000e+00" cType="1" res="-1.8983764573931694e-02" rms="3.5638356208801270e-01" purity="2.4105660617351532e-01" nType="-99"/>
            <Node pos="r" depth="3" NCoef="0" IVar="-1" Cut="0.0000000000000000e+00" cType="1" res="-1.4769849367439747e-03" rms="3.2658749818801880e-01" purity="8.3628189563751221e-01" nType="-99"/>
          </Node>
        </Node>
        <Node pos="r" depth="1" NCoef="0" IVar="0" Cut="5.5700848388671875e+02" cType="1" res="6.5890988335013390e-03" rms="2.9098695516586304e-01" purity="7.8447914123535156e-01" nType="0">
          <Node pos="l" depth="2" NCoef="0" IVar="9" Cut="-1.3343475759029388e-01" cType="1" res="1.3180058449506760e-02" rms="3.5755729675292969e-01" purity="6.1662375926971436e-01" nType="0">
            <Node pos="l" depth="3" NCoef="0" IVar="-1" Cut="0.0000000000000000e+00" cType="1" res="-1.0398927406640723e-04" rms="3.5056635737419128e-01" purity="6.0101711750030518e-01" nType="-99"/>
            <Node pos="r" depth="3" NCoef="0" IVar="-1" Cut="0.0000000000000000e+00" cType="1" res="1.8192576244473457e-02" rms="3.6289644241333008e-01" purity="6.2960129976272583e-01" nType="-99"/>
          </Node>
          <Node pos="r" depth="2" NCoef="0" IVar="7" Cut="7.2453093528747559e-01" cType="1" res="6.7752244649454951e-04" rms="2.1418672800064087e-01" purity="9.3503236770629883e-01" nType="0">
            <Node pos="l" depth="3" NCoef="0" IVar="-1" Cut="0.0000000000000000e+00" cType="1" res="-3.7577250041067600e-03" rms="2.0398738980293274e-01" purity="9.4272601604461670e-01" nType="-99"/>
            <Node pos="r" depth="3" NCoef="0" IVar="-1" Cut="0.0000000000000000e+00" cType="1" res="1.8588183447718620e-02" rms="2.6674914360046387e-01" purity="8.8904654979705811e-01" nType="-99"/>
          </Node>
        </Node>
      </Node>
    </BinaryTree>
    <BinaryTree type="DecisionTree" boostWeight="1.0000000000000000e+00" itree="671">
      <Node pos="s" depth="0" NCoef="0" IVar="2" Cut="2.0917113870382309e-02" cType="1" res="1.2598175089806318e-03" rms="2.9579278826713562e-01" purity="5.0175929069519043e-01" nType="0">
        <Node pos="l" depth="1" NCoef="0" IVar="6" Cut="6.9686111450195312e+01" cType="1" res="-5.4949061013758183e-03" rms="2.7611640095710754e-01" purity="2.4216207861900330e-01" nType="0">
          <Node pos="l" depth="2" NCoef="0" IVar="6" Cut="6.1249057769775391e+01" cType="1" res="2.6295643765479326e-03" rms="2.4483379721641541e-01" purity="1.3652876019477844e-01" nType="0">
            <Node pos="l" depth="3" NCoef="0" IVar="-1" Cut="0.0000000000000000e+00" cType="1" res="1.9252264872193336e-02" rms="2.4552184343338013e-01" purity="1.3051708042621613e-01" nType="-99"/>
            <Node pos="r" depth="3" NCoef="0" IVar="-1" Cut="0.0000000000000000e+00" cType="1" res="-2.0924171432852745e-02" rms="2.4256260693073273e-01" purity="1.4856609702110291e-01" nType="-99"/>
          </Node>
          <Node pos="r" depth="2" NCoef="0" IVar="7" Cut="4.2377829551696777e-01" cType="1" res="-1.3791495002806187e-02" rms="3.0454221367835999e-01" purity="3.5003325343132019e-01" nType="0">
            <Node pos="l" depth="3" NCoef="0" IVar="-1" Cut="0.0000000000000000e+00" cType="1" res="-1.9803686067461967e-02" rms="3.0860355496406555e-01" purity="3.8726595044136047e-01" nType="-99"/>
            <Node pos="r" depth="3" NCoef="0" IVar="-1" Cut="0.0000000000000000e+00" cType="1" res="-4.9477810971438885e-03" rms="2.9757747054100037e-01" purity="2.8942483663558960e-01" nType="-99"/>
          </Node>
        </Node>
        <Node pos="r" depth="1" NCoef="0" IVar="9" Cut="9.3326848745346069e-01" cType="1" res="4.9639837816357613e-03" rms="3.0598303675651550e-01" purity="6.4411765336990356e-01" nType="0">
          <Node pos="l" depth="2" NCoef="0" IVar="8" Cut="1.2632845342159271e-01" cType="1" res="2.3255671840161085e-03" rms="2.9817837476730347e-01" purity="6.6257339715957642e-01" nType="0">
            <Node pos="l" depth="3" NCoef="0" IVar="-1" Cut="0.0000000000000000e+00" cType="1" res="-2.7877874672412872e-03" rms="2.9406082630157471e-01" purity="6.6032862663269043e-01" nType="-99"/>
            <Node pos="r" depth="3" NCoef="0" IVar="-1" Cut="0.0000000000000000e+00" cType="1" res="9.1302422806620598e-03" rms="3.0329823493957520e-01" purity="6.6547161340713501e-01" nType="-99"/>
          </Node>
          <Node pos="r" depth="2" NCoef="0" IVar="0" Cut="6.0028442382812500e+02" cType="1" res="1.5832951292395592e-02" rms="3.3601096272468567e-01" purity="5.6808906793594360e-01" nType="0">
            <Node pos="l" depth="3" NCoef="0" IVar="-1" Cut="0.0000000000000000e+00" cType="1" res="1.8836239352822304e-02" rms="3.6408266425132751e-01" purity="4.3699607253074646e-01" nType="-99"/>
            <Node pos="r" depth="3" NCoef="0" IVar="-1" Cut="0.0000000000000000e+00" cType="1" res="-1.2009983882308006e-02" rms="2.4457769095897675e-01" purity="9.1752785444259644e-01" nType="-99"/>
          </Node>
        </Node>
      </Node>
    </BinaryTree>
    <BinaryTree type="DecisionTree" boostWeight="1.0000000000000000e+00" itree="672">
      <Node pos="s" depth="0" NCoef="0" IVar="7" Cut="1.2068296670913696e+00" cType="1" res="-2.1053364034742117e-03" rms="2.9568168520927429e-01" purity="4.9758866429328918e-01" nType="0">
        <Node pos="l" depth="1" NCoef="0" IVar="3" Cut="3.3999176025390625e+02" cType="1" res="-6.8739644484594464e-04" rms="3.0114877223968506e-01" purity="5.3430312871932983e-01" nType="0">
          <Node pos="l" depth="2" NCoef="0" IVar="9" Cut="-1.2000223398208618e+00" cType="1" res="5.2376217208802700e-03" rms="3.1198287010192871e-01" purity="2.9785606265068054e-01" nType="0">
            <Node pos="l" depth="3" NCoef="0" IVar="-1" Cut="0.0000000000000000e+00" cType="1" res="2.5121266022324562e-02" rms="2.9928484559059143e-01" purity="2.0752093195915222e-01" nType="-99"/>
            <Node pos="r" depth="3" NCoef="0" IVar="-1" Cut="0.0000000000000000e+00" cType="1" res="1.8709130818024278e-03" rms="3.1467935442924500e-01" purity="3.1824138760566711e-01" nType="-99"/>
          </Node>
          <Node pos="r" depth="2" NCoef="0" IVar="8" Cut="1.4664930105209351e+00" cType="1" res="-3.8083952385932207e-03" rms="2.9523429274559021e-01" purity="6.5885138511657715e-01" nType="0">
            <Node pos="l" depth="3" NCoef="0" IVar="-1" Cut="0.0000000000000000e+00" cType="1" res="-2.1876867394894361e-03" rms="2.9539731144905090e-01" purity="6.8451547622680664e-01" nType="-99"/>
            <Node pos="r" depth="3" NCoef="0" IVar="-1" Cut="0.0000000000000000e+00" cType="1" res="-3.4380856901407242e-02" rms="2.9113611578941345e-01" purity="2.6045578718185425e-01" nType="-99"/>
          </Node>
        </Node>
        <Node pos="r" depth="1" NCoef="0" IVar="1" Cut="1.2449102783203125e+03" cType="1" res="-1.5479103662073612e-02" rms="2.3760160803794861e-01" purity="1.5130430459976196e-01" nType="0">
          <Node pos="l" depth="2" NCoef="0" IVar="0" Cut="3.6775430297851562e+02" cType="1" res="-7.0049799978733063e-03" rms="1.6784550249576569e-01" purity="3.4769296646118164e-02" nType="0">
            <Node pos="l" depth="3" NCoef="0" IVar="-1" Cut="0.0000000000000000e+00" cType="1" res="2.2668573074042797e-03" rms="1.6205638647079468e-01" purity="3.3074915409088135e-02" nType="-99"/>
            <Node pos="r" depth="3" NCoef="0" IVar="-1" Cut="0.0000000000000000e+00" cType="1" res="-3.9075247943401337e-02" rms="1.7472730576992035e-01" purity="3.7020657211542130e-02" nType="-99"/>
          </Node>
          <Node pos="r" depth="2" NCoef="0" IVar="-1" Cut="0.0000000000000000e+00" cType="1" res="-2.6140954345464706e-02" rms="3.2613000273704529e-01" purity="3.5839858651161194e-01" nType="-99"/>
        </Node>
      </Node>
    </BinaryTree>
    <BinaryTree type="DecisionTree" boostWeight="1.0000000000000000e+00" itree="673">
      <Node pos="s" depth="0" NCoef="0" IVar="9" Cut="-1.4666963815689087e+00" cType="1" res="2.5748182088136673e-03" rms="2.9554921388626099e-01" purity="5.0410503149032593e-01" nType="0">
        <Node pos="l" depth="1" NCoef="0" IVar="7" Cut="-3.7272009253501892e-01" cType="1" res="-1.4385673217475414e-02" rms="2.8602269291877747e-01" purity="2.8181374073028564e-01" nType="0">
          <Node pos="l" depth="2" NCoef="0" IVar="-1" Cut="0.0000000000000000e+00" cType="1" res="-1.6137134516611695e-03" rms="2.7843812108039856e-01" purity="2.4833299219608307e-01" nType="-99"/>
          <Node pos="r" depth="2" NCoef="0" IVar="9" Cut="-1.9111665487289429e+00" cType="1" res="-2.3477185517549515e-02" rms="2.9086104035377502e-01" purity="3.0521312355995178e-01" nType="0">
            <Node pos="l" depth="3" NCoef="0" IVar="-1" Cut="0.0000000000000000e+00" cType="1" res="-3.7970654666423798e-02" rms="2.6078447699546814e-01" purity="2.1952764689922333e-01" nType="-99"/>
            <Node pos="r" depth="3" NCoef="0" IVar="-1" Cut="0.0000000000000000e+00" cType="1" res="-1.5570984221994877e-02" rms="3.1633090972900391e-01" purity="3.8575512170791626e-01" nType="-99"/>
          </Node>
        </Node>
        <Node pos="r" depth="1" NCoef="0" IVar="8" Cut="-9.3337017297744751e-01" cType="1" res="4.4074244797229767e-03" rms="2.9650217294692993e-01" purity="5.2812391519546509e-01" nType="0">
          <Node pos="l" depth="2" NCoef="0" IVar="10" Cut="1.2000046968460083e+00" cType="1" res="1.4881469309329987e-02" rms="3.1129869818687439e-01" purity="3.7273931503295898e-01" nType="0">
            <Node pos="l" depth="3" NCoef="0" IVar="-1" Cut="0.0000000000000000e+00" cType="1" res="2.0306378602981567e-02" rms="3.1336316466331482e-01" purity="3.8631391525268555e-01" nType="-99"/>
            <Node pos="r" depth="3" NCoef="0" IVar="-1" Cut="0.0000000000000000e+00" cType="1" res="-6.0034994967281818e-03" rms="2.9913553595542908e-01" purity="2.9979217052459717e-01" nType="-99"/>
          </Node>
          <Node pos="r" depth="2" NCoef="0" IVar="10" Cut="6.6666859388351440e-01" cType="1" res="2.1531356032937765e-03" rms="2.9317098855972290e-01" purity="5.6156677007675171e-01" nType="0">
            <Node pos="l" depth="3" NCoef="0" IVar="-1" Cut="0.0000000000000000e+00" cType="1" res="5.8442926965653896e-03" rms="2.9540064930915833e-01" purity="5.8630084991455078e-01" nType="-99"/>
            <Node pos="r" depth="3" NCoef="0" IVar="-1" Cut="0.0000000000000000e+00" cType="1" res="-5.1138494163751602e-03" rms="2.8819051384925842e-01" purity="5.0818490982055664e-01" nType="-99"/>
          </Node>
        </Node>
      </Node>
    </BinaryTree>
    <BinaryTree type="DecisionTree" boostWeight="1.0000000000000000e+00" itree="674">
      <Node pos="s" depth="0" NCoef="0" IVar="6" Cut="7.8846466064453125e+01" cType="1" res="1.8396916566416621e-03" rms="2.9448285698890686e-01" purity="5.0418239831924438e-01" nType="0">
        <Node pos="l" depth="1" NCoef="0" IVar="6" Cut="5.1373664855957031e+01" cType="1" res="-1.7125284066423774e-03" rms="2.8464058041572571e-01" purity="2.2507847845554352e-01" nType="0">
          <Node pos="l" depth="2" NCoef="0" IVar="-1" Cut="0.0000000000000000e+00" cType="1" res="3.6630384624004364e-02" rms="2.7286538481712341e-01" purity="1.7801021039485931e-01" nType="-99"/>
          <Node pos="r" depth="2" NCoef="0" IVar="7" Cut="9.5747441053390503e-01" cType="1" res="-3.6606215871870518e-03" rms="2.8539666533470154e-01" purity="2.2856336832046509e-01" nType="0">
            <Node pos="l" depth="3" NCoef="0" IVar="-1" Cut="0.0000000000000000e+00" cType="1" res="-8.0268606543540955e-03" rms="2.9494500160217285e-01" purity="2.5668475031852722e-01" nType="-99"/>
            <Node pos="r" depth="3" NCoef="0" IVar="-1" Cut="0.0000000000000000e+00" cType="1" res="2.2306267172098160e-02" rms="2.4045698344707489e-01" purity="1.1011993885040283e-01" nType="-99"/>
          </Node>
        </Node>
        <Node pos="r" depth="1" NCoef="0" IVar="9" Cut="6.6654634475708008e-01" cType="1" res="4.3261544778943062e-03" rms="3.0115598440170288e-01" purity="6.9954800605773926e-01" nType="0">
          <Node pos="l" depth="2" NCoef="0" IVar="8" Cut="1.1998351812362671e+00" cType="1" res="2.0834584720432758e-03" rms="2.9563331604003906e-01" purity="7.1476966142654419e-01" nType="0">
            <Node pos="l" depth="3" NCoef="0" IVar="-1" Cut="0.0000000000000000e+00" cType="1" res="-1.9445148063823581e-04" rms="2.9177466034889221e-01" purity="7.3640763759613037e-01" nType="-99"/>
            <Node pos="r" depth="3" NCoef="0" IVar="-1" Cut="0.0000000000000000e+00" cType="1" res="1.9631255418062210e-02" rms="3.2770764827728271e-01" purity="5.1951605081558228e-01" nType="-99"/>
          </Node>
          <Node pos="r" depth="2" NCoef="0" IVar="4" Cut="3.1422003173828125e+02" cType="1" res="1.0400064289569855e-02" rms="3.1554815173149109e-01" purity="6.5832293033599854e-01" nType="0">
            <Node pos="l" depth="3" NCoef="0" IVar="-1" Cut="0.0000000000000000e+00" cType="1" res="1.4984349720180035e-02" rms="3.4071534872055054e-01" purity="5.5343639850616455e-01" nType="-99"/>
            <Node pos="r" depth="3" NCoef="0" IVar="-1" Cut="0.0000000000000000e+00" cType="1" res="-5.1619643345475197e-03" rms="2.5614178180694580e-01" purity="8.7221539020538330e-01" nType="-99"/>
          </Node>
        </Node>
      </Node>
    </BinaryTree>
    <BinaryTree type="DecisionTree" boostWeight="1.0000000000000000e+00" itree="675">
      <Node pos="s" depth="0" NCoef="0" IVar="9" Cut="-6.6670429706573486e-01" cType="1" res="1.6211699694395065e-03" rms="2.9754668474197388e-01" purity="4.9674394726753235e-01" nType="0">
        <Node pos="l" depth="1" NCoef="0" IVar="0" Cut="6.4527917480468750e+02" cType="1" res="7.3068076744675636e-03" rms="3.0747795104980469e-01" purity="4.3065583705902100e-01" nType="0">
          <Node pos="l" depth="2" NCoef="0" IVar="8" Cut="1.3317781686782837e-01" cType="1" res="1.1747675947844982e-02" rms="3.1700542569160461e-01" purity="3.2742896676063538e-01" nType="0">
            <Node pos="l" depth="3" NCoef="0" IVar="-1" Cut="0.0000000000000000e+00" cType="1" res="4.8423251137137413e-03" rms="3.0939689278602600e-01" purity="3.1561979651451111e-01" nType="-99"/>
            <Node pos="r" depth="3" NCoef="0" IVar="-1" Cut="0.0000000000000000e+00" cType="1" res="2.1357290446758270e-02" rms="3.2731360197067261e-01" purity="3.4434035420417786e-01" nType="-99"/>
          </Node>
          <Node pos="r" depth="2" NCoef="0" IVar="8" Cut="-1.3337273895740509e-01" cType="1" res="-1.1932196095585823e-02" rms="2.6136422157287598e-01" purity="8.7786161899566650e-01" nType="0">
            <Node pos="l" depth="3" NCoef="0" IVar="-1" Cut="0.0000000000000000e+00" cType="1" res="-2.6370750740170479e-02" rms="2.6844051480293274e-01" purity="8.6892515420913696e-01" nType="-99"/>
            <Node pos="r" depth="3" NCoef="0" IVar="-1" Cut="0.0000000000000000e+00" cType="1" res="-1.0863434523344040e-02" rms="2.5455096364021301e-01" purity="8.8611996173858643e-01" nType="-99"/>
          </Node>
        </Node>
        <Node pos="r" depth="1" NCoef="0" IVar="10" Cut="1.3333514332771301e-01" cType="1" res="-6.0167582705616951e-04" rms="2.9354271292686462e-01" purity="5.2258163690567017e-01" nType="0">
          <Node pos="l" depth="2" NCoef="0" IVar="10" Cut="-5.6507945060729980e-01" cType="1" res="1.9374346593394876e-03" rms="2.9584658145904541e-01" purity="5.4293656349182129e-01" nType="0">
            <Node pos="l" depth="3" NCoef="0" IVar="-1" Cut="0.0000000000000000e+00" cType="1" res="-3.2988351304084063e-03" rms="2.9129004478454590e-01" purity="5.1665002107620239e-01" nType="-99"/>
            <Node pos="r" depth="3" NCoef="0" IVar="-1" Cut="0.0000000000000000e+00" cType="1" res="1.0361360386013985e-02" rms="3.0242052674293518e-01" purity="5.8247536420822144e-01" nType="-99"/>
          </Node>
          <Node pos="r" depth="2" NCoef="0" IVar="7" Cut="-1.1393891572952271e+00" cType="1" res="-3.3152943942695856e-03" rms="2.9103586077690125e-01" purity="5.0082778930664062e-01" nType="0">
            <Node pos="l" depth="3" NCoef="0" IVar="-1" Cut="0.0000000000000000e+00" cType="1" res="-3.0487082898616791e-02" rms="2.5052255392074585e-01" purity="1.9044192135334015e-01" nType="-99"/>
            <Node pos="r" depth="3" NCoef="0" IVar="-1" Cut="0.0000000000000000e+00" cType="1" res="-1.9542670343071222e-03" rms="2.9447734355926514e-01" purity="5.2976208925247192e-01" nType="-99"/>
          </Node>
        </Node>
      </Node>
    </BinaryTree>
    <BinaryTree type="DecisionTree" boostWeight="1.0000000000000000e+00" itree="676">
      <Node pos="s" depth="0" NCoef="0" IVar="9" Cut="1.1997777223587036e+00" cType="1" res="5.3419382311403751e-04" rms="2.9483285546302795e-01" purity="5.0164759159088135e-01" nType="0">
        <Node pos="l" depth="1" NCoef="0" IVar="4" Cut="2.0500872802734375e+02" cType="1" res="2.8956150636076927e-03" rms="2.9486504197120667e-01" purity="5.2945870161056519e-01" nType="0">
          <Node pos="l" depth="2" NCoef="0" IVar="1" Cut="1.2575806884765625e+03" cType="1" res="9.5995850861072540e-03" rms="2.9274702072143555e-01" purity="1.9382043182849884e-01" nType="0">
            <Node pos="l" depth="3" NCoef="0" IVar="-1" Cut="0.0000000000000000e+00" cType="1" res="8.4403399378061295e-03" rms="2.5554898381233215e-01" purity="9.3776576220989227e-02" nType="-99"/>
            <Node pos="r" depth="3" NCoef="0" IVar="-1" Cut="0.0000000000000000e+00" cType="1" res="1.5540222637355328e-02" rms="3.8918346166610718e-01" purity="5.1761102676391602e-01" nType="-99"/>
          </Node>
          <Node pos="r" depth="2" NCoef="0" IVar="5" Cut="1.4381336975097656e+02" cType="1" res="-1.3471759157255292e-03" rms="2.9611927270889282e-01" purity="7.4187660217285156e-01" nType="0">
            <Node pos="l" depth="3" NCoef="0" IVar="-1" Cut="0.0000000000000000e+00" cType="1" res="-1.0388049297034740e-02" rms="3.5275328159332275e-01" purity="4.3299880623817444e-01" nType="-99"/>
            <Node pos="r" depth="3" NCoef="0" IVar="-1" Cut="0.0000000000000000e+00" cType="1" res="3.0019809491932392e-03" rms="2.7629637718200684e-01" purity="8.3675962686538696e-01" nType="-99"/>
          </Node>
        </Node>
        <Node pos="r" depth="1" NCoef="0" IVar="10" Cut="-3.9962631464004517e-01" cType="1" res="-1.3278040103614330e-02" rms="2.9426512122154236e-01" purity="3.3897712826728821e-01" nType="0">
          <Node pos="l" depth="2" NCoef="0" IVar="-1" Cut="0.0000000000000000e+00" cType="1" res="-3.0243506655097008e-02" rms="2.9689139127731323e-01" purity="3.5214620828628540e-01" nType="-99"/>
          <Node pos="r" depth="2" NCoef="0" IVar="10" Cut="9.7162687778472900e-01" cType="1" res="-6.1521120369434357e-03" rms="2.9273927211761475e-01" purity="3.3271637558937073e-01" nType="0">
            <Node pos="l" depth="3" NCoef="0" IVar="-1" Cut="0.0000000000000000e+00" cType="1" res="4.0468126535415649e-03" rms="3.0801087617874146e-01" purity="4.0856689214706421e-01" nType="-99"/>
            <Node pos="r" depth="3" NCoef="0" IVar="-1" Cut="0.0000000000000000e+00" cType="1" res="-2.5231899693608284e-02" rms="2.6984190940856934e-01" purity="2.2892555594444275e-01" nType="-99"/>
          </Node>
        </Node>
      </Node>
    </BinaryTree>
    <BinaryTree type="DecisionTree" boostWeight="1.0000000000000000e+00" itree="677">
      <Node pos="s" depth="0" NCoef="0" IVar="8" Cut="1.1999685764312744e+00" cType="1" res="-5.4145958274602890e-03" rms="2.9339560866355896e-01" purity="4.9450343847274780e-01" nType="0">
        <Node pos="l" depth="1" NCoef="0" IVar="8" Cut="-1.2760866880416870e+00" cType="1" res="-3.8093496114015579e-03" rms="2.9626235365867615e-01" purity="5.3067094087600708e-01" nType="0">
          <Node pos="l" depth="2" NCoef="0" IVar="5" Cut="1.2822138977050781e+02" cType="1" res="-1.6217989847064018e-02" rms="2.6813694834709167e-01" purity="2.2547972202301025e-01" nType="0">
            <Node pos="l" depth="3" NCoef="0" IVar="-1" Cut="0.0000000000000000e+00" cType="1" res="-9.1952625662088394e-03" rms="2.2561624646186829e-01" purity="8.7592355906963348e-02" nType="-99"/>
            <Node pos="r" depth="3" NCoef="0" IVar="-1" Cut="0.0000000000000000e+00" cType="1" res="-2.8932360932230949e-02" rms="3.2320237159729004e-01" purity="4.4259580969810486e-01" nType="-99"/>
          </Node>
          <Node pos="r" depth="2" NCoef="0" IVar="9" Cut="1.1999830007553101e+00" cType="1" res="-1.9788416102528572e-03" rms="3.0014500021934509e-01" purity="5.7569241523742676e-01" nType="0">
            <Node pos="l" depth="3" NCoef="0" IVar="-1" Cut="0.0000000000000000e+00" cType="1" res="-4.0234010666608810e-03" rms="2.9629474878311157e-01" purity="5.9798097610473633e-01" nType="-99"/>
            <Node pos="r" depth="3" NCoef="0" IVar="-1" Cut="0.0000000000000000e+00" cType="1" res="7.4860714375972748e-03" rms="3.2271820306777954e-01" purity="4.3818515539169312e-01" nType="-99"/>
          </Node>
        </Node>
        <Node pos="r" depth="1" NCoef="0" IVar="7" Cut="-3.5208901762962341e-01" cType="1" res="-1.6513546928763390e-02" rms="2.7249273657798767e-01" purity="2.4443484842777252e-01" nType="0">
          <Node pos="l" depth="2" NCoef="0" IVar="-1" Cut="0.0000000000000000e+00" cType="1" res="-4.3507676571607590e-02" rms="2.4585418403148651e-01" purity="1.7673587799072266e-01" nType="-99"/>
          <Node pos="r" depth="2" NCoef="0" IVar="7" Cut="6.9800078868865967e-01" cType="1" res="-7.1091293357312679e-03" rms="2.8506076335906982e-01" purity="2.8004893660545349e-01" nType="0">
            <Node pos="l" depth="3" NCoef="0" IVar="-1" Cut="0.0000000000000000e+00" cType="1" res="4.6792882494628429e-03" rms="3.2473742961883545e-01" purity="4.0016770362854004e-01" nType="-99"/>
            <Node pos="r" depth="3" NCoef="0" IVar="-1" Cut="0.0000000000000000e+00" cType="1" res="-3.6205891519784927e-02" rms="2.2398310899734497e-01" purity="1.2775485217571259e-01" nType="-99"/>
          </Node>
        </Node>
      </Node>
    </BinaryTree>
    <BinaryTree type="DecisionTree" boostWeight="1.0000000000000000e+00" itree="678">
      <Node pos="s" depth="0" NCoef="0" IVar="8" Cut="-1.4666905403137207e+00" cType="1" res="3.3348952420055866e-03" rms="2.9679554700851440e-01" purity="5.0628751516342163e-01" nType="0">
        <Node pos="l" depth="1" NCoef="0" IVar="0" Cut="4.0163165283203125e+02" cType="1" res="1.7849514260888100e-02" rms="2.8193920850753784e-01" purity="2.1781148016452789e-01" nType="0">
          <Node pos="l" depth="2" NCoef="0" IVar="-1" Cut="0.0000000000000000e+00" cType="1" res="5.6386068463325500e-03" rms="2.1139252185821533e-01" purity="6.3700273633003235e-02" nType="-99"/>
          <Node pos="r" depth="2" NCoef="0" IVar="-1" Cut="0.0000000000000000e+00" cType="1" res="3.1114140525460243e-02" rms="3.4692534804344177e-01" purity="4.0152302384376526e-01" nType="-99"/>
        </Node>
        <Node pos="r" depth="1" NCoef="0" IVar="9" Cut="1.1999899148941040e+00" cType="1" res="1.9739756826311350e-03" rms="2.9811429977416992e-01" purity="5.3333556652069092e-01" nType="0">
          <Node pos="l" depth="2" NCoef="0" IVar="7" Cut="1.3862614333629608e-01" cType="1" res="3.0730797443538904e-03" rms="2.9729783535003662e-01" purity="5.6257802248001099e-01" nType="0">
            <Node pos="l" depth="3" NCoef="0" IVar="-1" Cut="0.0000000000000000e+00" cType="1" res="-1.2353993042779621e-05" rms="2.9044032096862793e-01" purity="5.7587778568267822e-01" nType="-99"/>
            <Node pos="r" depth="3" NCoef="0" IVar="-1" Cut="0.0000000000000000e+00" cType="1" res="7.9898722469806671e-03" rms="3.0627459287643433e-01" purity="5.4459941387176514e-01" nType="-99"/>
          </Node>
          <Node pos="r" depth="2" NCoef="0" IVar="8" Cut="-4.5072388648986816e-01" cType="1" res="-4.3878150172531605e-03" rms="3.0271852016448975e-01" purity="3.6407542228698730e-01" nType="0">
            <Node pos="l" depth="3" NCoef="0" IVar="-1" Cut="0.0000000000000000e+00" cType="1" res="-1.8527019768953323e-02" rms="3.0638280510902405e-01" purity="3.6188963055610657e-01" nType="-99"/>
            <Node pos="r" depth="3" NCoef="0" IVar="-1" Cut="0.0000000000000000e+00" cType="1" res="2.9021152295172215e-04" rms="3.0141744017601013e-01" purity="3.6475580930709839e-01" nType="-99"/>
          </Node>
        </Node>
      </Node>
    </BinaryTree>
    <BinaryTree type="DecisionTree" boostWeight="1.0000000000000000e+00" itree="679">
      <Node pos="s" depth="0" NCoef="0" IVar="10" Cut="-9.3332630395889282e-01" cType="1" res="-8.8817570940591395e-05" rms="2.9669594764709473e-01" purity="4.9810099601745605e-01" nType="0">
        <Node pos="l" depth="1" NCoef="0" IVar="1" Cut="1.6831298828125000e+03" cType="1" res="7.0255179889500141e-03" rms="3.0459046363830566e-01" purity="4.5784711837768555e-01" nType="0">
          <Node pos="l" depth="2" NCoef="0" IVar="0" Cut="4.1545809936523438e+02" cType="1" res="1.0985504835844040e-02" rms="3.2130944728851318e-01" purity="2.8276437520980835e-01" nType="0">
            <Node pos="l" depth="3" NCoef="0" IVar="-1" Cut="0.0000000000000000e+00" cType="1" res="3.8824016228318214e-03" rms="2.8607499599456787e-01" purity="1.6405886411666870e-01" nType="-99"/>
            <Node pos="r" depth="3" NCoef="0" IVar="-1" Cut="0.0000000000000000e+00" cType="1" res="1.7232231795787811e-02" rms="3.6892166733741760e-01" purity="4.6640732884407043e-01" nType="-99"/>
          </Node>
          <Node pos="r" depth="2" NCoef="0" IVar="4" Cut="3.5990704345703125e+02" cType="1" res="-2.5594285689294338e-03" rms="2.5945514440536499e-01" purity="8.8162600994110107e-01" nType="0">
            <Node pos="l" depth="3" NCoef="0" IVar="-1" Cut="0.0000000000000000e+00" cType="1" res="-1.6335032880306244e-02" rms="2.6951262354850769e-01" purity="8.6602926254272461e-01" nType="-99"/>
            <Node pos="r" depth="3" NCoef="0" IVar="-1" Cut="0.0000000000000000e+00" cType="1" res="1.1322577483952045e-02" rms="2.4775473773479462e-01" purity="8.9846396446228027e-01" nType="-99"/>
          </Node>
        </Node>
        <Node pos="r" depth="1" NCoef="0" IVar="7" Cut="1.4692428112030029e+00" cType="1" res="-2.2972873412072659e-03" rms="2.9416722059249878e-01" purity="5.1059687137603760e-01" nType="0">
          <Node pos="l" depth="2" NCoef="0" IVar="10" Cut="1.5555633306503296e+00" cType="1" res="-3.4718359820544720e-03" rms="2.9745391011238098e-01" purity="5.3673076629638672e-01" nType="0">
            <Node pos="l" depth="3" NCoef="0" IVar="-1" Cut="0.0000000000000000e+00" cType="1" res="-2.1057017147541046e-03" rms="2.9620695114135742e-01" purity="5.5833780765533447e-01" nType="-99"/>
            <Node pos="r" depth="3" NCoef="0" IVar="-1" Cut="0.0000000000000000e+00" cType="1" res="-1.3886204920709133e-02" rms="3.0516919493675232e-01" purity="3.9749953150749207e-01" nType="-99"/>
          </Node>
          <Node pos="r" depth="2" NCoef="0" IVar="0" Cut="3.7609478759765625e+02" cType="1" res="1.4377999119460583e-02" rms="2.4213790893554688e-01" purity="1.3956847786903381e-01" nType="0">
            <Node pos="l" depth="3" NCoef="0" IVar="-1" Cut="0.0000000000000000e+00" cType="1" res="3.4743063151836395e-02" rms="1.9437071681022644e-01" purity="5.1966335624456406e-02" nType="-99"/>
            <Node pos="r" depth="3" NCoef="0" IVar="-1" Cut="0.0000000000000000e+00" cType="1" res="2.4043878540396690e-02" rms="2.8204199671745300e-01" purity="2.2755837440490723e-01" nType="-99"/>
          </Node>
        </Node>
      </Node>
    </BinaryTree>
    <BinaryTree type="DecisionTree" boostWeight="1.0000000000000000e+00" itree="680">
      <Node pos="s" depth="0" NCoef="0" IVar="2" Cut="2.1328777074813843e-02" cType="1" res="1.8348137382417917e-03" rms="2.9900410771369934e-01" purity="5.0348967313766479e-01" nType="0">
        <Node pos="l" depth="1" NCoef="0" IVar="10" Cut="-9.3328738212585449e-01" cType="1" res="7.8238649293780327e-03" rms="2.8977409005165100e-01" purity="2.5316825509071350e-01" nType="0">
          <Node pos="l" depth="2" NCoef="0" IVar="2" Cut="5.0790933892130852e-03" cType="1" res="-2.9492799658328295e-03" rms="2.6623991131782532e-01" purity="1.9141325354576111e-01" nType="0">
            <Node pos="l" depth="3" NCoef="0" IVar="-1" Cut="0.0000000000000000e+00" cType="1" res="-3.3506862819194794e-02" rms="2.1411660313606262e-01" purity="8.1032887101173401e-02" nType="-99"/>
            <Node pos="r" depth="3" NCoef="0" IVar="-1" Cut="0.0000000000000000e+00" cType="1" res="4.9654087051749229e-03" rms="2.8770738840103149e-01" purity="2.4452380836009979e-01" nType="-99"/>
          </Node>
          <Node pos="r" depth="2" NCoef="0" IVar="5" Cut="1.7608085632324219e+02" cType="1" res="1.1172623373568058e-02" rms="2.9662978649139404e-01" purity="2.7236437797546387e-01" nType="0">
            <Node pos="l" depth="3" NCoef="0" IVar="-1" Cut="0.0000000000000000e+00" cType="1" res="1.9640855491161346e-02" rms="2.8718954324722290e-01" purity="1.8418712913990021e-01" nType="-99"/>
            <Node pos="r" depth="3" NCoef="0" IVar="-1" Cut="0.0000000000000000e+00" cType="1" res="-3.1320133712142706e-03" rms="3.3370727300643921e-01" purity="6.5048426389694214e-01" nType="-99"/>
          </Node>
        </Node>
        <Node pos="r" depth="1" NCoef="0" IVar="10" Cut="-1.4665168523788452e+00" cType="1" res="-1.5509666409343481e-03" rms="3.0404597520828247e-01" purity="6.4500343799591064e-01" nType="0">
          <Node pos="l" depth="2" NCoef="0" IVar="6" Cut="8.4784614562988281e+01" cType="1" res="-1.2842905707657337e-02" rms="3.2380217313766479e-01" purity="5.2961599826812744e-01" nType="0">
            <Node pos="l" depth="3" NCoef="0" IVar="-1" Cut="0.0000000000000000e+00" cType="1" res="-5.0314846448600292e-03" rms="3.2062786817550659e-01" purity="3.4041169285774231e-01" nType="-99"/>
            <Node pos="r" depth="3" NCoef="0" IVar="-1" Cut="0.0000000000000000e+00" cType="1" res="-1.9509121775627136e-02" rms="3.2672032713890076e-01" purity="7.1502989530563354e-01" nType="-99"/>
          </Node>
          <Node pos="r" depth="2" NCoef="0" IVar="9" Cut="9.3331772089004517e-01" cType="1" res="-8.0169404100161046e-05" rms="3.0134624242782593e-01" purity="6.6003292798995972e-01" nType="0">
            <Node pos="l" depth="3" NCoef="0" IVar="-1" Cut="0.0000000000000000e+00" cType="1" res="-2.3710774257779121e-03" rms="2.9414698481559753e-01" purity="6.8134045600891113e-01" nType="-99"/>
            <Node pos="r" depth="3" NCoef="0" IVar="-1" Cut="0.0000000000000000e+00" cType="1" res="7.3311924934387207e-03" rms="3.2842969894409180e-01" purity="5.7486474514007568e-01" nType="-99"/>
          </Node>
        </Node>
      </Node>
    </BinaryTree>
    <BinaryTree type="DecisionTree" boostWeight="1.0000000000000000e+00" itree="681">
      <Node pos="s" depth="0" NCoef="0" IVar="10" Cut="1.3333526253700256e-01" cType="1" res="3.5947610740549862e-04" rms="2.9688206315040588e-01" purity="4.9965426325798035e-01" nType="0">
        <Node pos="l" depth="1" NCoef="0" IVar="9" Cut="1.1998661756515503e+00" cType="1" res="-3.3896996174007654e-03" rms="2.9691979289054871e-01" purity="5.0112336874008179e-01" nType="0">
          <Node pos="l" depth="2" NCoef="0" IVar="9" Cut="2.4750509858131409e-01" cType="1" res="-1.5688022831454873e-03" rms="2.9731181263923645e-01" purity="5.2011072635650635e-01" nType="0">
            <Node pos="l" depth="3" NCoef="0" IVar="-1" Cut="0.0000000000000000e+00" cType="1" res="-6.8769403733313084e-03" rms="2.9097720980644226e-01" purity="4.9926233291625977e-01" nType="-99"/>
            <Node pos="r" depth="3" NCoef="0" IVar="-1" Cut="0.0000000000000000e+00" cType="1" res="1.0057513602077961e-02" rms="3.1180813908576965e-01" purity="5.7042217254638672e-01" nType="-99"/>
          </Node>
          <Node pos="r" depth="2" NCoef="0" IVar="2" Cut="1.9090551882982254e-02" cType="1" res="-1.5107633545994759e-02" rms="2.9411497712135315e-01" purity="3.7893450260162354e-01" nType="0">
            <Node pos="l" depth="3" NCoef="0" IVar="-1" Cut="0.0000000000000000e+00" cType="1" res="-4.0454212576150894e-02" rms="2.3417025804519653e-01" purity="1.2035320699214935e-01" nType="-99"/>
            <Node pos="r" depth="3" NCoef="0" IVar="-1" Cut="0.0000000000000000e+00" cType="1" res="-7.1640959940850735e-03" rms="3.2400742173194885e-01" purity="5.3093129396438599e-01" nType="-99"/>
          </Node>
        </Node>
        <Node pos="r" depth="1" NCoef="0" IVar="6" Cut="7.5030204772949219e+01" cType="1" res="4.6554263681173325e-03" rms="2.9678058624267578e-01" purity="4.9797093868255615e-01" nType="0">
          <Node pos="l" depth="2" NCoef="0" IVar="6" Cut="6.0727130889892578e+01" cType="1" res="-1.5498797874897718e-03" rms="2.7731281518936157e-01" purity="2.1058405935764313e-01" nType="0">
            <Node pos="l" depth="3" NCoef="0" IVar="-1" Cut="0.0000000000000000e+00" cType="1" res="7.9958327114582062e-03" rms="2.6777410507202148e-01" purity="1.7709505558013916e-01" nType="-99"/>
            <Node pos="r" depth="3" NCoef="0" IVar="-1" Cut="0.0000000000000000e+00" cType="1" res="-9.9831083789467812e-03" rms="2.8677487373352051e-01" purity="2.4567084014415741e-01" nType="-99"/>
          </Node>
          <Node pos="r" depth="2" NCoef="0" IVar="9" Cut="1.4663056135177612e+00" cType="1" res="8.3916904404759407e-03" rms="3.0784887075424194e-01" purity="6.7100882530212402e-01" nType="0">
            <Node pos="l" depth="3" NCoef="0" IVar="-1" Cut="0.0000000000000000e+00" cType="1" res="6.4746565185487270e-03" rms="3.0389890074729919e-01" purity="6.9325178861618042e-01" nType="-99"/>
            <Node pos="r" depth="3" NCoef="0" IVar="-1" Cut="0.0000000000000000e+00" cType="1" res="2.7599332854151726e-02" rms="3.4258237481117249e-01" purity="4.5787966251373291e-01" nType="-99"/>
          </Node>
        </Node>
      </Node>
    </BinaryTree>
    <BinaryTree type="DecisionTree" boostWeight="1.0000000000000000e+00" itree="682">
      <Node pos="s" depth="0" NCoef="0" IVar="9" Cut="-4.0003916621208191e-01" cType="1" res="-2.9107758309692144e-03" rms="2.9520395398139954e-01" purity="4.9626138806343079e-01" nType="0">
        <Node pos="l" depth="1" NCoef="0" IVar="7" Cut="6.8757390975952148e-01" cType="1" res="-8.4228524938225746e-03" rms="2.9570066928863525e-01" purity="4.5017945766448975e-01" nType="0">
          <Node pos="l" depth="2" NCoef="0" IVar="7" Cut="1.9778171181678772e-01" cType="1" res="-6.0698380693793297e-03" rms="3.0162495374679565e-01" purity="4.8782879114151001e-01" nType="0">
            <Node pos="l" depth="3" NCoef="0" IVar="-1" Cut="0.0000000000000000e+00" cType="1" res="-1.0255093686282635e-02" rms="2.9778730869293213e-01" purity="4.6288812160491943e-01" nType="-99"/>
            <Node pos="r" depth="3" NCoef="0" IVar="-1" Cut="0.0000000000000000e+00" cType="1" res="5.7400828227400780e-03" rms="3.1516423821449280e-01" purity="5.8028829097747803e-01" nType="-99"/>
          </Node>
          <Node pos="r" depth="2" NCoef="0" IVar="9" Cut="-1.0857642889022827e+00" cType="1" res="-1.8208146095275879e-02" rms="2.6945114135742188e-01" purity="2.9361012578010559e-01" nType="0">
            <Node pos="l" depth="3" NCoef="0" IVar="-1" Cut="0.0000000000000000e+00" cType="1" res="-8.9590707793831825e-03" rms="2.6312658190727234e-01" purity="2.0753557980060577e-01" nType="-99"/>
            <Node pos="r" depth="3" NCoef="0" IVar="-1" Cut="0.0000000000000000e+00" cType="1" res="-3.2744068652391434e-02" rms="2.7533018589019775e-01" purity="3.8271284103393555e-01" nType="-99"/>
          </Node>
        </Node>
        <Node pos="r" depth="1" NCoef="0" IVar="8" Cut="-6.6659659147262573e-01" cType="1" res="1.3460636546369642e-04" rms="2.9488494992256165e-01" purity="5.2172136306762695e-01" nType="0">
          <Node pos="l" depth="2" NCoef="0" IVar="6" Cut="1.0034957122802734e+02" cType="1" res="1.1031142435967922e-02" rms="3.1202611327171326e-01" purity="4.4432404637336731e-01" nType="0">
            <Node pos="l" depth="3" NCoef="0" IVar="-1" Cut="0.0000000000000000e+00" cType="1" res="2.0674323663115501e-02" rms="3.1308910250663757e-01" purity="2.6883456110954285e-01" nType="-99"/>
            <Node pos="r" depth="3" NCoef="0" IVar="-1" Cut="0.0000000000000000e+00" cType="1" res="-2.7931092772632837e-03" rms="3.0974802374839783e-01" purity="7.3965692520141602e-01" nType="-99"/>
          </Node>
          <Node pos="r" depth="2" NCoef="0" IVar="0" Cut="5.7280004882812500e+02" cType="1" res="-3.3301452640444040e-03" rms="2.8913578391075134e-01" purity="5.4633116722106934e-01" nType="0">
            <Node pos="l" depth="3" NCoef="0" IVar="-1" Cut="0.0000000000000000e+00" cType="1" res="-6.7231450229883194e-03" rms="3.1202104687690735e-01" purity="3.5719415545463562e-01" nType="-99"/>
            <Node pos="r" depth="3" NCoef="0" IVar="-1" Cut="0.0000000000000000e+00" cType="1" res="5.8613652363419533e-03" rms="2.4015294015407562e-01" purity="9.0182387828826904e-01" nType="-99"/>
          </Node>
        </Node>
      </Node>
    </BinaryTree>
    <BinaryTree type="DecisionTree" boostWeight="1.0000000000000000e+00" itree="683">
      <Node pos="s" depth="0" NCoef="0" IVar="8" Cut="-9.3329626321792603e-01" cType="1" res="-4.3129792175022885e-05" rms="2.9614561796188354e-01" purity="5.0039768218994141e-01" nType="0">
        <Node pos="l" depth="1" NCoef="0" IVar="7" Cut="7.0230835676193237e-01" cType="1" res="-7.6820910908281803e-03" rms="2.9545769095420837e-01" purity="3.3680692315101624e-01" nType="0">
          <Node pos="l" depth="2" NCoef="0" IVar="9" Cut="3.9991107583045959e-01" cType="1" res="-1.2329138815402985e-02" rms="2.9914447665214539e-01" purity="3.6926868557929993e-01" nType="0">
            <Node pos="l" depth="3" NCoef="0" IVar="-1" Cut="0.0000000000000000e+00" cType="1" res="-7.3020905256271362e-03" rms="2.9605892300605774e-01" purity="3.8290077447891235e-01" nType="-99"/>
            <Node pos="r" depth="3" NCoef="0" IVar="-1" Cut="0.0000000000000000e+00" cType="1" res="-2.7324993163347244e-02" rms="3.0601119995117188e-01" purity="3.3632594347000122e-01" nType="-99"/>
          </Node>
          <Node pos="r" depth="2" NCoef="0" IVar="-1" Cut="0.0000000000000000e+00" cType="1" res="1.1029309593141079e-02" rms="2.8173103928565979e-01" purity="2.2442486882209778e-01" nType="-99"/>
        </Node>
        <Node pos="r" depth="1" NCoef="0" IVar="9" Cut="-1.9999562501907349e+00" cType="1" res="1.6870475374162197e-03" rms="2.9627382755279541e-01" purity="5.3744995594024658e-01" nType="0">
          <Node pos="l" depth="2" NCoef="0" IVar="-1" Cut="0.0000000000000000e+00" cType="1" res="2.0833531394600868e-02" rms="3.1215992569923401e-01" purity="2.6019692420959473e-01" nType="-99"/>
          <Node pos="r" depth="2" NCoef="0" IVar="9" Cut="-1.5428189039230347e+00" cType="1" res="1.0694928932934999e-03" rms="2.9563632607460022e-01" purity="5.4797512292861938e-01" nType="0">
            <Node pos="l" depth="3" NCoef="0" IVar="-1" Cut="0.0000000000000000e+00" cType="1" res="-2.0454598590731621e-02" rms="2.9948565363883972e-01" purity="3.6867195367813110e-01" nType="-99"/>
            <Node pos="r" depth="3" NCoef="0" IVar="-1" Cut="0.0000000000000000e+00" cType="1" res="2.2626274731010199e-03" rms="2.9542422294616699e-01" purity="5.5617815256118774e-01" nType="-99"/>
          </Node>
        </Node>
      </Node>
    </BinaryTree>
    <BinaryTree type="DecisionTree" boostWeight="1.0000000000000000e+00" itree="684">
      <Node pos="s" depth="0" NCoef="0" IVar="8" Cut="3.9990657567977905e-01" cType="1" res="-4.0519289905205369e-04" rms="2.9369539022445679e-01" purity="5.0078892707824707e-01" nType="0">
        <Node pos="l" depth="1" NCoef="0" IVar="7" Cut="9.3701529502868652e-01" cType="1" res="-3.0499401036649942e-03" rms="2.9104381799697876e-01" purity="5.2604514360427856e-01" nType="0">
          <Node pos="l" depth="2" NCoef="0" IVar="9" Cut="-1.7332586050033569e+00" cType="1" res="-8.5331650916486979e-04" rms="2.9404631257057190e-01" purity="5.6653428077697754e-01" nType="0">
            <Node pos="l" depth="3" NCoef="0" IVar="-1" Cut="0.0000000000000000e+00" cType="1" res="1.7987893894314766e-02" rms="3.1514254212379456e-01" purity="3.0127289891242981e-01" nType="-99"/>
            <Node pos="r" depth="3" NCoef="0" IVar="-1" Cut="0.0000000000000000e+00" cType="1" res="-2.5104221422225237e-03" rms="2.9231891036033630e-01" purity="5.8690339326858521e-01" nType="-99"/>
          </Node>
          <Node pos="r" depth="2" NCoef="0" IVar="6" Cut="9.5939270019531250e+01" cType="1" res="-1.6916157677769661e-02" rms="2.7091389894485474e-01" purity="2.7045744657516479e-01" nType="0">
            <Node pos="l" depth="3" NCoef="0" IVar="-1" Cut="0.0000000000000000e+00" cType="1" res="-9.6445865929126740e-03" rms="2.4503628909587860e-01" purity="1.2613292038440704e-01" nType="-99"/>
            <Node pos="r" depth="3" NCoef="0" IVar="-1" Cut="0.0000000000000000e+00" cType="1" res="-3.3614207059144974e-02" rms="3.1231352686882019e-01" purity="5.3777396678924561e-01" nType="-99"/>
          </Node>
        </Node>
        <Node pos="r" depth="1" NCoef="0" IVar="8" Cut="1.9998561143875122e+00" cType="1" res="4.4199647381901741e-03" rms="2.9841196537017822e-01" purity="4.5471057295799255e-01" nType="0">
          <Node pos="l" depth="2" NCoef="0" IVar="9" Cut="1.1999336481094360e+00" cType="1" res="6.6095325164496899e-03" rms="3.0674165487289429e-01" purity="4.9086529016494751e-01" nType="0">
            <Node pos="l" depth="3" NCoef="0" IVar="-1" Cut="0.0000000000000000e+00" cType="1" res="3.7343027070164680e-03" rms="3.0625283718109131e-01" purity="5.2170878648757935e-01" nType="-99"/>
            <Node pos="r" depth="3" NCoef="0" IVar="-1" Cut="0.0000000000000000e+00" cType="1" res="2.2283995524048805e-02" rms="3.0856758356094360e-01" purity="3.5173770785331726e-01" nType="-99"/>
          </Node>
          <Node pos="r" depth="2" NCoef="0" IVar="-1" Cut="0.0000000000000000e+00" cType="1" res="-4.0393605828285217e-02" rms="1.8444667756557465e-01" purity="6.4392797648906708e-02" nType="-99"/>
        </Node>
      </Node>
    </BinaryTree>
    <BinaryTree type="DecisionTree" boostWeight="1.0000000000000000e+00" itree="685">
      <Node pos="s" depth="0" NCoef="0" IVar="8" Cut="-1.9998694658279419e+00" cType="1" res="-2.5891589466482401e-03" rms="2.9162123799324036e-01" purity="5.0137686729431152e-01" nType="0">
        <Node pos="l" depth="1" NCoef="0" IVar="-1" Cut="0.0000000000000000e+00" cType="1" res="-4.5831691473722458e-02" rms="1.9512297213077545e-01" purity="7.7724143862724304e-02" nType="-99"/>
        <Node pos="r" depth="1" NCoef="0" IVar="9" Cut="1.4665942192077637e+00" cType="1" res="-1.8844229634851217e-03" rms="2.9412153363227844e-01" purity="5.1473289728164673e-01" nType="0">
          <Node pos="l" depth="2" NCoef="0" IVar="8" Cut="1.4284938573837280e+00" cType="1" res="-8.0383702879771590e-04" rms="2.9397988319396973e-01" purity="5.3840261697769165e-01" nType="0">
            <Node pos="l" depth="3" NCoef="0" IVar="-1" Cut="0.0000000000000000e+00" cType="1" res="-2.2363702300935984e-03" rms="2.9465323686599731e-01" purity="5.6681674718856812e-01" nType="-99"/>
            <Node pos="r" depth="3" NCoef="0" IVar="-1" Cut="0.0000000000000000e+00" cType="1" res="1.4643427915871143e-02" rms="2.8643923997879028e-01" purity="2.3724806308746338e-01" nType="-99"/>
          </Node>
          <Node pos="r" depth="2" NCoef="0" IVar="3" Cut="4.4430120849609375e+02" cType="1" res="-1.1565376073122025e-02" rms="2.9521098732948303e-01" purity="3.0267637968063354e-01" nType="0">
            <Node pos="l" depth="3" NCoef="0" IVar="-1" Cut="0.0000000000000000e+00" cType="1" res="-2.2872116416692734e-02" rms="2.7643850445747375e-01" purity="2.0982214808464050e-01" nType="-99"/>
            <Node pos="r" depth="3" NCoef="0" IVar="-1" Cut="0.0000000000000000e+00" cType="1" res="4.7556310892105103e-03" rms="3.3233579993247986e-01" purity="5.0776326656341553e-01" nType="-99"/>
          </Node>
        </Node>
      </Node>
    </BinaryTree>
    <BinaryTree type="DecisionTree" boostWeight="1.0000000000000000e+00" itree="686">
      <Node pos="s" depth="0" NCoef="0" IVar="10" Cut="-1.3333073258399963e-01" cType="1" res="-2.2044801153242588e-03" rms="2.9424351453781128e-01" purity="4.9678561091423035e-01" nType="0">
        <Node pos="l" depth="1" NCoef="0" IVar="4" Cut="2.4120411682128906e+02" cType="1" res="1.8166874069720507e-03" rms="2.9633319377899170e-01" purity="4.9496516585350037e-01" nType="0">
          <Node pos="l" depth="2" NCoef="0" IVar="3" Cut="3.2725262451171875e+02" cType="1" res="5.6922552175819874e-03" rms="3.0585533380508423e-01" purity="2.5252100825309753e-01" nType="0">
            <Node pos="l" depth="3" NCoef="0" IVar="-1" Cut="0.0000000000000000e+00" cType="1" res="-4.4025504030287266e-03" rms="2.8716811537742615e-01" purity="1.7422832548618317e-01" nType="-99"/>
            <Node pos="r" depth="3" NCoef="0" IVar="-1" Cut="0.0000000000000000e+00" cType="1" res="1.5015485696494579e-02" rms="3.2434305548667908e-01" purity="3.3620080351829529e-01" nType="-99"/>
          </Node>
          <Node pos="r" depth="2" NCoef="0" IVar="2" Cut="3.8616720587015152e-02" cType="1" res="-2.6513591874390841e-03" rms="2.8489536046981812e-01" purity="7.7447307109832764e-01" nType="0">
            <Node pos="l" depth="3" NCoef="0" IVar="-1" Cut="0.0000000000000000e+00" cType="1" res="-1.1732385493814945e-02" rms="3.3011063933372498e-01" purity="5.8015960454940796e-01" nType="-99"/>
            <Node pos="r" depth="3" NCoef="0" IVar="-1" Cut="0.0000000000000000e+00" cType="1" res="5.9505705721676350e-03" rms="2.5267338752746582e-01" purity="8.9471113681793213e-01" nType="-99"/>
          </Node>
        </Node>
        <Node pos="r" depth="1" NCoef="0" IVar="8" Cut="-9.3333888053894043e-01" cType="1" res="-5.6099374778568745e-03" rms="2.9241886734962463e-01" purity="4.9832722544670105e-01" nType="0">
          <Node pos="l" depth="2" NCoef="0" IVar="2" Cut="1.9243171438574791e-02" cType="1" res="-1.6210563480854034e-02" rms="2.8907227516174316e-01" purity="3.4785664081573486e-01" nType="0">
            <Node pos="l" depth="3" NCoef="0" IVar="-1" Cut="0.0000000000000000e+00" cType="1" res="1.2485034530982375e-03" rms="2.6705941557884216e-01" purity="1.6576878726482391e-01" nType="-99"/>
            <Node pos="r" depth="3" NCoef="0" IVar="-1" Cut="0.0000000000000000e+00" cType="1" res="-3.0223617330193520e-02" rms="3.0650514364242554e-01" purity="5.0957202911376953e-01" nType="-99"/>
          </Node>
          <Node pos="r" depth="2" NCoef="0" IVar="9" Cut="4.0001255273818970e-01" cType="1" res="-3.5579085815697908e-03" rms="2.9301795363426208e-01" purity="5.2745479345321655e-01" nType="0">
            <Node pos="l" depth="3" NCoef="0" IVar="-1" Cut="0.0000000000000000e+00" cType="1" res="-8.6370073258876801e-03" rms="2.8819084167480469e-01" purity="5.6574833393096924e-01" nType="-99"/>
            <Node pos="r" depth="3" NCoef="0" IVar="-1" Cut="0.0000000000000000e+00" cType="1" res="2.4803457781672478e-03" rms="2.9992821812629700e-01" purity="4.7077587246894836e-01" nType="-99"/>
          </Node>
        </Node>
      </Node>
    </BinaryTree>
    <BinaryTree type="DecisionTree" boostWeight="1.0000000000000000e+00" itree="687">
      <Node pos="s" depth="0" NCoef="0" IVar="7" Cut="1.2032437324523926e+00" cType="1" res="1.4586758334189653e-03" rms="2.9603621363639832e-01" purity="5.0062501430511475e-01" nType="0">
        <Node pos="l" depth="1" NCoef="0" IVar="9" Cut="1.9999849796295166e+00" cType="1" res="-2.0020444935653359e-04" rms="2.9885151982307434e-01" purity="5.3562855720520020e-01" nType="0">
          <Node pos="l" depth="2" NCoef="0" IVar="4" Cut="2.4044160461425781e+02" cType="1" res="-9.3371683033183217e-04" rms="2.9852268099784851e-01" purity="5.4687708616256714e-01" nType="0">
            <Node pos="l" depth="3" NCoef="0" IVar="-1" Cut="0.0000000000000000e+00" cType="1" res="-4.7846850939095020e-03" rms="3.0989742279052734e-01" purity="2.7913075685501099e-01" nType="-99"/>
            <Node pos="r" depth="3" NCoef="0" IVar="-1" Cut="0.0000000000000000e+00" cType="1" res="3.3472953364253044e-03" rms="2.8702032566070557e-01" purity="8.0634874105453491e-01" nType="-99"/>
          </Node>
          <Node pos="r" depth="2" NCoef="0" IVar="-1" Cut="0.0000000000000000e+00" cType="1" res="2.0801750943064690e-02" rms="3.0629557371139526e-01" purity="2.5819113850593567e-01" nType="-99"/>
        </Node>
        <Node pos="r" depth="1" NCoef="0" IVar="7" Cut="1.3553205728530884e+00" cType="1" res="1.6246452927589417e-02" rms="2.6919257640838623e-01" purity="1.8859279155731201e-01" nType="0">
          <Node pos="l" depth="2" NCoef="0" IVar="-1" Cut="0.0000000000000000e+00" cType="1" res="5.8469358831644058e-02" rms="3.4532940387725830e-01" purity="3.3934026956558228e-01" nType="-99"/>
          <Node pos="r" depth="2" NCoef="0" IVar="9" Cut="1.3283322751522064e-01" cType="1" res="2.7280859649181366e-03" rms="2.3696520924568176e-01" purity="1.3839295506477356e-01" nType="0">
            <Node pos="l" depth="3" NCoef="0" IVar="-1" Cut="0.0000000000000000e+00" cType="1" res="-1.7462939023971558e-02" rms="2.2681203484535217e-01" purity="1.3463973999023438e-01" nType="-99"/>
            <Node pos="r" depth="3" NCoef="0" IVar="-1" Cut="0.0000000000000000e+00" cType="1" res="2.5584487244486809e-02" rms="2.4456745386123657e-01" purity="1.4151898026466370e-01" nType="-99"/>
          </Node>
        </Node>
      </Node>
    </BinaryTree>
    <BinaryTree type="DecisionTree" boostWeight="1.0000000000000000e+00" itree="688">
      <Node pos="s" depth="0" NCoef="0" IVar="6" Cut="8.5090904235839844e+01" cType="1" res="1.6369017248507589e-04" rms="2.9516467452049255e-01" purity="4.9854165315628052e-01" nType="0">
        <Node pos="l" depth="1" NCoef="0" IVar="8" Cut="-1.7331869602203369e+00" cType="1" res="4.8310020938515663e-03" rms="2.9709428548812866e-01" purity="2.4701642990112305e-01" nType="0">
          <Node pos="l" depth="2" NCoef="0" IVar="-1" Cut="0.0000000000000000e+00" cType="1" res="4.8874109983444214e-02" rms="2.4692752957344055e-01" purity="8.8737890124320984e-02" nType="-99"/>
          <Node pos="r" depth="2" NCoef="0" IVar="9" Cut="-1.3333395123481750e-01" cType="1" res="3.3125765621662140e-03" rms="3.0094110965728760e-01" purity="2.6052841544151306e-01" nType="0">
            <Node pos="l" depth="3" NCoef="0" IVar="-1" Cut="0.0000000000000000e+00" cType="1" res="-2.6187070179730654e-03" rms="2.9296031594276428e-01" purity="2.5148454308509827e-01" nType="-99"/>
            <Node pos="r" depth="3" NCoef="0" IVar="-1" Cut="0.0000000000000000e+00" cType="1" res="8.6106127128005028e-03" rms="3.0717739462852478e-01" purity="2.6785361766815186e-01" nType="-99"/>
          </Node>
        </Node>
        <Node pos="r" depth="1" NCoef="0" IVar="1" Cut="1.4303021240234375e+03" cType="1" res="-4.0627294220030308e-03" rms="2.9334232211112976e-01" purity="7.2630679607391357e-01" nType="0">
          <Node pos="l" depth="2" NCoef="0" IVar="2" Cut="6.1504479497671127e-02" cType="1" res="-1.5421259216964245e-02" rms="3.7276422977447510e-01" purity="3.1432542204856873e-01" nType="0">
            <Node pos="l" depth="3" NCoef="0" IVar="-1" Cut="0.0000000000000000e+00" cType="1" res="-2.6129500474780798e-03" rms="3.4698355197906494e-01" purity="2.1619519591331482e-01" nType="-99"/>
            <Node pos="r" depth="3" NCoef="0" IVar="-1" Cut="0.0000000000000000e+00" cType="1" res="-2.2045569494366646e-02" rms="4.1917321085929871e-01" purity="5.1356005668640137e-01" nType="-99"/>
          </Node>
          <Node pos="r" depth="2" NCoef="0" IVar="7" Cut="7.0249378681182861e-01" cType="1" res="2.3866565607022494e-04" rms="2.5680381059646606e-01" purity="8.8232123851776123e-01" nType="0">
            <Node pos="l" depth="3" NCoef="0" IVar="-1" Cut="0.0000000000000000e+00" cType="1" res="-2.9344491194933653e-03" rms="2.4541488289833069e-01" purity="8.9857465028762817e-01" nType="-99"/>
            <Node pos="r" depth="3" NCoef="0" IVar="-1" Cut="0.0000000000000000e+00" cType="1" res="1.2034277431666851e-02" rms="3.1242039799690247e-01" purity="7.9192906618118286e-01" nType="-99"/>
          </Node>
        </Node>
      </Node>
    </BinaryTree>
    <BinaryTree type="DecisionTree" boostWeight="1.0000000000000000e+00" itree="689">
      <Node pos="s" depth="0" NCoef="0" IVar="9" Cut="9.3323796987533569e-01" cType="1" res="5.8865110622718930e-04" rms="2.9544016718864441e-01" purity="4.9781888723373413e-01" nType="0">
        <Node pos="l" depth="1" NCoef="0" IVar="10" Cut="-1.3332132995128632e-01" cType="1" res="2.4313116446137428e-03" rms="2.9495558142662048e-01" purity="5.2594041824340820e-01" nType="0">
          <Node pos="l" depth="2" NCoef="0" IVar="6" Cut="1.0684898376464844e+02" cType="1" res="-3.4557911567389965e-03" rms="2.8938463330268860e-01" purity="5.0170767307281494e-01" nType="0">
            <Node pos="l" depth="3" NCoef="0" IVar="-1" Cut="0.0000000000000000e+00" cType="1" res="-8.8177863508462906e-03" rms="2.9755267500877380e-01" purity="2.9925501346588135e-01" nType="-99"/>
            <Node pos="r" depth="3" NCoef="0" IVar="-1" Cut="0.0000000000000000e+00" cType="1" res="5.3745466284453869e-03" rms="2.7568715810775757e-01" purity="8.2459419965744019e-01" nType="-99"/>
          </Node>
          <Node pos="r" depth="2" NCoef="0" IVar="9" Cut="-1.5554801225662231e+00" cType="1" res="7.5657372362911701e-03" rms="2.9963532090187073e-01" purity="5.4707497358322144e-01" nType="0">
            <Node pos="l" depth="3" NCoef="0" IVar="-1" Cut="0.0000000000000000e+00" cType="1" res="-1.4844056218862534e-02" rms="2.8666946291923523e-01" purity="2.9609873890876770e-01" nType="-99"/>
            <Node pos="r" depth="3" NCoef="0" IVar="-1" Cut="0.0000000000000000e+00" cType="1" res="1.1162520386278629e-02" rms="3.0093261599540710e-01" purity="5.7462984323501587e-01" nType="-99"/>
          </Node>
        </Node>
        <Node pos="r" depth="1" NCoef="0" IVar="8" Cut="-3.9990204572677612e-01" cType="1" res="-6.3694873824715614e-03" rms="2.9715982079505920e-01" purity="3.9162817597389221e-01" nType="0">
          <Node pos="l" depth="2" NCoef="0" IVar="8" Cut="-1.0856080055236816e+00" cType="1" res="-1.8163969740271568e-02" rms="2.9881063103675842e-01" purity="3.2753428816795349e-01" nType="0">
            <Node pos="l" depth="3" NCoef="0" IVar="-1" Cut="0.0000000000000000e+00" cType="1" res="-5.4437979124486446e-03" rms="2.9080134630203247e-01" purity="2.0645694434642792e-01" nType="-99"/>
            <Node pos="r" depth="3" NCoef="0" IVar="-1" Cut="0.0000000000000000e+00" cType="1" res="-3.0241506174206734e-02" rms="3.0507379770278931e-01" purity="4.3225163221359253e-01" nType="-99"/>
          </Node>
          <Node pos="r" depth="2" NCoef="0" IVar="5" Cut="8.9220962524414062e+01" cType="1" res="-1.0941548971459270e-03" rms="2.9626652598381042e-01" purity="4.2029556632041931e-01" nType="0">
            <Node pos="l" depth="3" NCoef="0" IVar="-1" Cut="0.0000000000000000e+00" cType="1" res="-3.0051905661821365e-02" rms="2.1047607064247131e-01" purity="8.5108675062656403e-02" nType="-99"/>
            <Node pos="r" depth="3" NCoef="0" IVar="-1" Cut="0.0000000000000000e+00" cType="1" res="4.2579593136906624e-03" rms="3.1976482272148132e-01" purity="5.3282022476196289e-01" nType="-99"/>
          </Node>
        </Node>
      </Node>
    </BinaryTree>
    <BinaryTree type="DecisionTree" boostWeight="1.0000000000000000e+00" itree="690">
      <Node pos="s" depth="0" NCoef="0" IVar="2" Cut="2.1328857168555260e-02" cType="1" res="2.1728184074163437e-03" rms="2.9417756199836731e-01" purity="5.0344794988632202e-01" nType="0">
        <Node pos="l" depth="1" NCoef="0" IVar="7" Cut="-1.4286788702011108e+00" cType="1" res="-4.7766636125743389e-03" rms="2.7498328685760498e-01" purity="2.4024894833564758e-01" nType="0">
          <Node pos="l" depth="2" NCoef="0" IVar="-1" Cut="0.0000000000000000e+00" cType="1" res="1.7656870186328888e-02" rms="2.0859383046627045e-01" purity="7.7451296150684357e-02" nType="-99"/>
          <Node pos="r" depth="2" NCoef="0" IVar="8" Cut="-3.9998465776443481e-01" cType="1" res="-6.7870095372200012e-03" rms="2.8432041406631470e-01" purity="2.6687633991241455e-01" nType="0">
            <Node pos="l" depth="3" NCoef="0" IVar="-1" Cut="0.0000000000000000e+00" cType="1" res="6.4016121905297041e-04" rms="2.8808778524398804e-01" purity="2.4622675776481628e-01" nType="-99"/>
            <Node pos="r" depth="3" NCoef="0" IVar="-1" Cut="0.0000000000000000e+00" cType="1" res="-1.3616870157420635e-02" rms="2.8176766633987427e-01" purity="2.8017091751098633e-01" nType="-99"/>
          </Node>
        </Node>
        <Node pos="r" depth="1" NCoef="0" IVar="6" Cut="8.5090904235839844e+01" cType="1" res="6.0421675443649292e-03" rms="3.0427160859107971e-01" purity="6.4999246597290039e-01" nType="0">
          <Node pos="l" depth="2" NCoef="0" IVar="8" Cut="-9.2480629682540894e-01" cType="1" res="-1.3090639840811491e-03" rms="3.2391470670700073e-01" purity="3.4978237748146057e-01" nType="0">
            <Node pos="l" depth="3" NCoef="0" IVar="-1" Cut="0.0000000000000000e+00" cType="1" res="-2.2072685882449150e-02" rms="2.9458478093147278e-01" purity="2.3525094985961914e-01" nType="-99"/>
            <Node pos="r" depth="3" NCoef="0" IVar="-1" Cut="0.0000000000000000e+00" cType="1" res="2.3968310561031103e-03" rms="3.2921242713928223e-01" purity="3.7224006652832031e-01" nType="-99"/>
          </Node>
          <Node pos="r" depth="2" NCoef="0" IVar="0" Cut="4.2404669189453125e+02" cType="1" res="9.8227858543395996e-03" rms="2.9358664155006409e-01" purity="8.0438566207885742e-01" nType="0">
            <Node pos="l" depth="3" NCoef="0" IVar="-1" Cut="0.0000000000000000e+00" cType="1" res="1.6314081847667694e-02" rms="3.9513510465621948e-01" purity="5.3344690799713135e-01" nType="-99"/>
            <Node pos="r" depth="3" NCoef="0" IVar="-1" Cut="0.0000000000000000e+00" cType="1" res="6.3359932973980904e-03" rms="2.4225725233554840e-01" purity="9.1043776273727417e-01" nType="-99"/>
          </Node>
        </Node>
      </Node>
    </BinaryTree>
    <BinaryTree type="DecisionTree" boostWeight="1.0000000000000000e+00" itree="691">
      <Node pos="s" depth="0" NCoef="0" IVar="8" Cut="-1.4665950536727905e+00" cType="1" res="8.2575250416994095e-05" rms="2.9544106125831604e-01" purity="4.9900180101394653e-01" nType="0">
        <Node pos="l" depth="1" NCoef="0" IVar="3" Cut="3.5190725708007812e+02" cType="1" res="-1.1001099832355976e-02" rms="2.5442719459533691e-01" purity="1.7927286028862000e-01" nType="0">
          <Node pos="l" depth="2" NCoef="0" IVar="-1" Cut="0.0000000000000000e+00" cType="1" res="8.8463360443711281e-03" rms="2.3516935110092163e-01" purity="1.1775104701519012e-01" nType="-99"/>
          <Node pos="r" depth="2" NCoef="0" IVar="-1" Cut="0.0000000000000000e+00" cType="1" res="-3.3533256500959396e-02" rms="2.7439060807228088e-01" purity="2.5262627005577087e-01" nType="-99"/>
        </Node>
        <Node pos="r" depth="1" NCoef="0" IVar="4" Cut="2.2906575012207031e+02" cType="1" res="1.0672847274690866e-03" rms="2.9879280924797058e-01" purity="5.2740752696990967e-01" nType="0">
          <Node pos="l" depth="2" NCoef="0" IVar="4" Cut="1.9514332580566406e+02" cType="1" res="-2.6578914839774370e-03" rms="3.0297413468360901e-01" purity="2.3778156936168671e-01" nType="0">
            <Node pos="l" depth="3" NCoef="0" IVar="-1" Cut="0.0000000000000000e+00" cType="1" res="3.1505583319813013e-03" rms="2.8307345509529114e-01" purity="1.7114761471748352e-01" nType="-99"/>
            <Node pos="r" depth="3" NCoef="0" IVar="-1" Cut="0.0000000000000000e+00" cType="1" res="-1.4743270352482796e-02" rms="3.5688737034797668e-01" purity="4.4299709796905518e-01" nType="-99"/>
          </Node>
          <Node pos="r" depth="2" NCoef="0" IVar="5" Cut="1.5998948669433594e+02" cType="1" res="4.3148985132575035e-03" rms="2.9506081342697144e-01" purity="7.7990388870239258e-01" nType="0">
            <Node pos="l" depth="3" NCoef="0" IVar="-1" Cut="0.0000000000000000e+00" cType="1" res="1.3467190787196159e-02" rms="3.6316052079200745e-01" purity="5.7393068075180054e-01" nType="-99"/>
            <Node pos="r" depth="3" NCoef="0" IVar="-1" Cut="0.0000000000000000e+00" cType="1" res="-1.8182713538408279e-03" rms="2.6162075996398926e-01" purity="8.6495333909988403e-01" nType="-99"/>
          </Node>
        </Node>
      </Node>
    </BinaryTree>
    <BinaryTree type="DecisionTree" boostWeight="1.0000000000000000e+00" itree="692">
      <Node pos="s" depth="0" NCoef="0" IVar="9" Cut="1.3337281346321106e-01" cType="1" res="1.0080822976306081e-03" rms="2.9594701528549194e-01" purity="4.9712526798248291e-01" nType="0">
        <Node pos="l" depth="1" NCoef="0" IVar="7" Cut="-8.9398604631423950e-01" cType="1" res="4.3794605880975723e-03" rms="2.9683083295822144e-01" purity="5.0458914041519165e-01" nType="0">
          <Node pos="l" depth="2" NCoef="0" IVar="7" Cut="-1.2457892894744873e+00" cType="1" res="1.5073318034410477e-02" rms="2.7965548634529114e-01" purity="2.7628013491630554e-01" nType="0">
            <Node pos="l" depth="3" NCoef="0" IVar="-1" Cut="0.0000000000000000e+00" cType="1" res="-1.6329056816175580e-03" rms="2.4058386683464050e-01" purity="1.4626364409923553e-01" nType="-99"/>
            <Node pos="r" depth="3" NCoef="0" IVar="-1" Cut="0.0000000000000000e+00" cType="1" res="3.3528178930282593e-02" rms="3.1895631551742554e-01" purity="4.3107965588569641e-01" nType="-99"/>
          </Node>
          <Node pos="r" depth="2" NCoef="0" IVar="8" Cut="1.1997836828231812e+00" cType="1" res="2.0165145397186279e-03" rms="3.0044221878051758e-01" purity="5.5503702163696289e-01" nType="0">
            <Node pos="l" depth="3" NCoef="0" IVar="-1" Cut="0.0000000000000000e+00" cType="1" res="1.7688218213152140e-04" rms="2.9808339476585388e-01" purity="5.8181709051132202e-01" nType="-99"/>
            <Node pos="r" depth="3" NCoef="0" IVar="-1" Cut="0.0000000000000000e+00" cType="1" res="1.7738379538059235e-02" rms="3.1814849376678467e-01" purity="3.4264129400253296e-01" nType="-99"/>
          </Node>
        </Node>
        <Node pos="r" depth="1" NCoef="0" IVar="7" Cut="-3.6863270401954651e-01" cType="1" res="-3.0385928694158792e-03" rms="2.9483178257942200e-01" purity="4.8816630244255066e-01" nType="0">
          <Node pos="l" depth="2" NCoef="0" IVar="2" Cut="3.6684121936559677e-02" cType="1" res="-8.5989786311984062e-03" rms="2.9481104016304016e-01" purity="4.2679008841514587e-01" nType="0">
            <Node pos="l" depth="3" NCoef="0" IVar="-1" Cut="0.0000000000000000e+00" cType="1" res="-1.6836544964462519e-03" rms="2.8426122665405273e-01" purity="2.5067254900932312e-01" nType="-99"/>
            <Node pos="r" depth="3" NCoef="0" IVar="-1" Cut="0.0000000000000000e+00" cType="1" res="-1.9678706303238869e-02" rms="3.0845063924789429e-01" purity="6.6878992319107056e-01" nType="-99"/>
          </Node>
          <Node pos="r" depth="2" NCoef="0" IVar="2" Cut="4.1834238916635513e-02" cType="1" res="-7.3108903598040342e-04" rms="2.9480960965156555e-01" purity="5.1363676786422729e-01" nType="0">
            <Node pos="l" depth="3" NCoef="0" IVar="-1" Cut="0.0000000000000000e+00" cType="1" res="-7.7414396218955517e-03" rms="2.8879445791244507e-01" purity="3.2000982761383057e-01" nType="-99"/>
            <Node pos="r" depth="3" NCoef="0" IVar="-1" Cut="0.0000000000000000e+00" cType="1" res="6.4421482384204865e-03" rms="3.0116981267929077e-01" purity="7.2716039419174194e-01" nType="-99"/>
          </Node>
        </Node>
      </Node>
    </BinaryTree>
    <BinaryTree type="DecisionTree" boostWeight="1.0000000000000000e+00" itree="693">
      <Node pos="s" depth="0" NCoef="0" IVar="7" Cut="1.2032437324523926e+00" cType="1" res="-9.1186934150755405e-04" rms="2.9499617218971252e-01" purity="4.9658361077308655e-01" nType="0">
        <Node pos="l" depth="1" NCoef="0" IVar="8" Cut="-9.3325084447860718e-01" cType="1" res="7.2623800951987505e-04" rms="3.0121082067489624e-01" purity="5.3333652019500732e-01" nType="0">
          <Node pos="l" depth="2" NCoef="0" IVar="9" Cut="6.6667211055755615e-01" cType="1" res="1.0581865906715393e-02" rms="3.0657619237899780e-01" purity="3.7599435448646545e-01" nType="0">
            <Node pos="l" depth="3" NCoef="0" IVar="-1" Cut="0.0000000000000000e+00" cType="1" res="1.8793297931551933e-02" rms="3.0942520499229431e-01" purity="3.9420887827873230e-01" nType="-99"/>
            <Node pos="r" depth="3" NCoef="0" IVar="-1" Cut="0.0000000000000000e+00" cType="1" res="-1.2804266065359116e-02" rms="2.9606440663337708e-01" purity="3.1700074672698975e-01" nType="-99"/>
          </Node>
          <Node pos="r" depth="2" NCoef="0" IVar="10" Cut="1.2000532150268555e+00" cType="1" res="-1.5477646375074983e-03" rms="2.9991325736045837e-01" purity="5.6964027881622314e-01" nType="0">
            <Node pos="l" depth="3" NCoef="0" IVar="-1" Cut="0.0000000000000000e+00" cType="1" res="-3.5676979459822178e-03" rms="2.9781848192214966e-01" purity="5.8220010995864868e-01" nType="-99"/>
            <Node pos="r" depth="3" NCoef="0" IVar="-1" Cut="0.0000000000000000e+00" cType="1" res="6.6724219359457493e-03" rms="3.0951422452926636e-01" purity="5.1017260551452637e-01" nType="-99"/>
          </Node>
        </Node>
        <Node pos="r" depth="1" NCoef="0" IVar="5" Cut="1.2999530029296875e+02" cType="1" res="-1.5857553109526634e-02" rms="2.3015053570270538e-01" purity="1.6125924885272980e-01" nType="0">
          <Node pos="l" depth="2" NCoef="0" IVar="8" Cut="-1.3243824243545532e-01" cType="1" res="-8.5602486506104469e-03" rms="1.6786561906337738e-01" purity="4.4715553522109985e-02" nType="0">
            <Node pos="l" depth="3" NCoef="0" IVar="-1" Cut="0.0000000000000000e+00" cType="1" res="-5.8543924242258072e-02" rms="1.3988959789276123e-01" purity="3.7647902965545654e-02" nType="-99"/>
            <Node pos="r" depth="3" NCoef="0" IVar="-1" Cut="0.0000000000000000e+00" cType="1" res="6.8936066236346960e-04" rms="1.8418650329113007e-01" purity="4.9588073045015335e-02" nType="-99"/>
          </Node>
          <Node pos="r" depth="2" NCoef="0" IVar="-1" Cut="0.0000000000000000e+00" cType="1" res="-2.5481080636382103e-02" rms="3.0767235159873962e-01" purity="3.5840463638305664e-01" nType="-99"/>
        </Node>
      </Node>
    </BinaryTree>
    <BinaryTree type="DecisionTree" boostWeight="1.0000000000000000e+00" itree="694">
      <Node pos="s" depth="0" NCoef="0" IVar="8" Cut="1.3327310979366302e-01" cType="1" res="-7.0588482776656747e-04" rms="2.9510751366615295e-01" purity="4.9614423513412476e-01" nType="0">
        <Node pos="l" depth="1" NCoef="0" IVar="9" Cut="-1.2000916004180908e+00" cType="1" res="3.7628842983394861e-03" rms="2.9508209228515625e-01" purity="5.1534378528594971e-01" nType="0">
          <Node pos="l" depth="2" NCoef="0" IVar="2" Cut="1.9128940999507904e-02" cType="1" res="2.0307272672653198e-02" rms="3.0854922533035278e-01" purity="3.6888247728347778e-01" nType="0">
            <Node pos="l" depth="3" NCoef="0" IVar="-1" Cut="0.0000000000000000e+00" cType="1" res="5.1173996180295944e-03" rms="2.5946322083473206e-01" purity="1.4068436622619629e-01" nType="-99"/>
            <Node pos="r" depth="3" NCoef="0" IVar="-1" Cut="0.0000000000000000e+00" cType="1" res="2.9845327138900757e-02" rms="3.3726808428764343e-01" purity="5.2334874868392944e-01" nType="-99"/>
          </Node>
          <Node pos="r" depth="2" NCoef="0" IVar="10" Cut="-3.9999467134475708e-01" cType="1" res="5.2259117364883423e-04" rms="2.9226222634315491e-01" purity="5.4402893781661987e-01" nType="0">
            <Node pos="l" depth="3" NCoef="0" IVar="-1" Cut="0.0000000000000000e+00" cType="1" res="8.7934704497456551e-03" rms="2.9911196231842041e-01" purity="5.1639449596405029e-01" nType="-99"/>
            <Node pos="r" depth="3" NCoef="0" IVar="-1" Cut="0.0000000000000000e+00" cType="1" res="-4.9417652189731598e-03" rms="2.8756228089332581e-01" purity="5.6222349405288696e-01" nType="-99"/>
          </Node>
        </Node>
        <Node pos="r" depth="1" NCoef="0" IVar="9" Cut="-9.3336004018783569e-01" cType="1" res="-6.3492706976830959e-03" rms="2.9504293203353882e-01" purity="4.7189801931381226e-01" nType="0">
          <Node pos="l" depth="2" NCoef="0" IVar="8" Cut="7.6811558008193970e-01" cType="1" res="-1.9084215164184570e-02" rms="2.9676178097724915e-01" purity="3.5632973909378052e-01" nType="0">
            <Node pos="l" depth="3" NCoef="0" IVar="-1" Cut="0.0000000000000000e+00" cType="1" res="-3.5626586526632309e-02" rms="3.0830875039100647e-01" purity="4.6997731924057007e-01" nType="-99"/>
            <Node pos="r" depth="3" NCoef="0" IVar="-1" Cut="0.0000000000000000e+00" cType="1" res="-6.6230413503944874e-03" rms="2.8574356436729431e-01" purity="2.5823256373405457e-01" nType="-99"/>
          </Node>
          <Node pos="r" depth="2" NCoef="0" IVar="2" Cut="6.0466844588518143e-02" cType="1" res="-3.5252030938863754e-03" rms="2.9458582401275635e-01" purity="4.9752616882324219e-01" nType="0">
            <Node pos="l" depth="3" NCoef="0" IVar="-1" Cut="0.0000000000000000e+00" cType="1" res="-8.7727149948477745e-03" rms="2.9292547702789307e-01" purity="3.6411184072494507e-01" nType="-99"/>
            <Node pos="r" depth="3" NCoef="0" IVar="-1" Cut="0.0000000000000000e+00" cType="1" res="6.2499851919710636e-03" rms="2.9774150252342224e-01" purity="7.6956647634506226e-01" nType="-99"/>
          </Node>
        </Node>
      </Node>
    </BinaryTree>
    <BinaryTree type="DecisionTree" boostWeight="1.0000000000000000e+00" itree="695">
      <Node pos="s" depth="0" NCoef="0" IVar="4" Cut="1.4608894348144531e+02" cType="1" res="-5.2554946159943938e-04" rms="2.9710736870765686e-01" purity="4.9232995510101318e-01" nType="0">
        <Node pos="l" depth="1" NCoef="0" IVar="2" Cut="3.8485683500766754e-02" cType="1" res="6.9893118925392628e-03" rms="2.3688827455043793e-01" purity="8.9346028864383698e-02" nType="0">
          <Node pos="l" depth="2" NCoef="0" IVar="9" Cut="9.3328809738159180e-01" cType="1" res="2.3143126163631678e-03" rms="2.0490445196628571e-01" purity="6.3910841941833496e-02" nType="0">
            <Node pos="l" depth="3" NCoef="0" IVar="-1" Cut="0.0000000000000000e+00" cType="1" res="1.7381912097334862e-02" rms="2.1103224158287048e-01" purity="6.7398153245449066e-02" nType="-99"/>
            <Node pos="r" depth="3" NCoef="0" IVar="-1" Cut="0.0000000000000000e+00" cType="1" res="-2.4593463167548180e-02" rms="1.8655236065387726e-01" purity="5.4399244487285614e-02" nType="-99"/>
          </Node>
          <Node pos="r" depth="2" NCoef="0" IVar="-1" Cut="0.0000000000000000e+00" cType="1" res="2.3412846028804779e-02" rms="3.1470054388046265e-01" purity="1.6709297895431519e-01" nType="-99"/>
        </Node>
        <Node pos="r" depth="1" NCoef="0" IVar="7" Cut="-1.2730374932289124e-01" cType="1" res="-2.4949836079031229e-03" rms="3.1093645095825195e-01" purity="5.9794074296951294e-01" nType="0">
          <Node pos="l" depth="2" NCoef="0" IVar="8" Cut="-3.9955037832260132e-01" cType="1" res="1.5510702505707741e-03" rms="3.1906586885452271e-01" purity="5.7814860343933105e-01" nType="0">
            <Node pos="l" depth="3" NCoef="0" IVar="-1" Cut="0.0000000000000000e+00" cType="1" res="-1.0106833651661873e-02" rms="3.1816086173057556e-01" purity="5.1458346843719482e-01" nType="-99"/>
            <Node pos="r" depth="3" NCoef="0" IVar="-1" Cut="0.0000000000000000e+00" cType="1" res="8.0729508772492409e-03" rms="3.1936973333358765e-01" purity="6.1279714107513428e-01" nType="-99"/>
          </Node>
          <Node pos="r" depth="2" NCoef="0" IVar="0" Cut="4.5299685668945312e+02" cType="1" res="-5.6423339992761612e-03" rms="3.0442550778388977e-01" purity="6.1333668231964111e-01" nType="0">
            <Node pos="l" depth="3" NCoef="0" IVar="-1" Cut="0.0000000000000000e+00" cType="1" res="-1.2861332856118679e-02" rms="3.3119803667068481e-01" purity="3.1853514909744263e-01" nType="-99"/>
            <Node pos="r" depth="3" NCoef="0" IVar="-1" Cut="0.0000000000000000e+00" cType="1" res="1.6615595668554306e-03" rms="2.8275659680366516e-01" purity="8.3179658651351929e-01" nType="-99"/>
          </Node>
        </Node>
      </Node>
    </BinaryTree>
    <BinaryTree type="DecisionTree" boostWeight="1.0000000000000000e+00" itree="696">
      <Node pos="s" depth="0" NCoef="0" IVar="4" Cut="1.4683314514160156e+02" cType="1" res="-1.5077734133228660e-03" rms="2.9238009452819824e-01" purity="4.9905177950859070e-01" nType="0">
        <Node pos="l" depth="1" NCoef="0" IVar="9" Cut="-3.9998301863670349e-01" cType="1" res="-1.1501870118081570e-02" rms="2.0818389952182770e-01" purity="7.1779973804950714e-02" nType="0">
          <Node pos="l" depth="2" NCoef="0" IVar="5" Cut="9.6094276428222656e+01" cType="1" res="-2.4794077035039663e-03" rms="2.0579965412616730e-01" purity="7.3390811681747437e-02" nType="0">
            <Node pos="l" depth="3" NCoef="0" IVar="-1" Cut="0.0000000000000000e+00" cType="1" res="-2.9595987871289253e-02" rms="1.4858199656009674e-01" purity="3.3013485372066498e-02" nType="-99"/>
            <Node pos="r" depth="3" NCoef="0" IVar="-1" Cut="0.0000000000000000e+00" cType="1" res="1.5387879684567451e-02" rms="2.9143780469894409e-01" purity="1.5883812308311462e-01" nType="-99"/>
          </Node>
          <Node pos="r" depth="2" NCoef="0" IVar="2" Cut="1.6742559149861336e-02" cType="1" res="-1.7321491613984108e-02" rms="2.0950134098529816e-01" purity="7.0740953087806702e-02" nType="0">
            <Node pos="l" depth="3" NCoef="0" IVar="-1" Cut="0.0000000000000000e+00" cType="1" res="-1.5866667032241821e-02" rms="1.6018456220626831e-01" purity="4.0096547454595566e-02" nType="-99"/>
            <Node pos="r" depth="3" NCoef="0" IVar="-1" Cut="0.0000000000000000e+00" cType="1" res="-3.7168361246585846e-02" rms="2.4751177430152893e-01" purity="1.0042750835418701e-01" nType="-99"/>
          </Node>
        </Node>
        <Node pos="r" depth="1" NCoef="0" IVar="9" Cut="1.7332732677459717e+00" cType="1" res="1.0349735384806991e-03" rms="3.1012436747550964e-01" purity="6.0776036977767944e-01" nType="0">
          <Node pos="l" depth="2" NCoef="0" IVar="9" Cut="-1.5046764612197876e+00" cType="1" res="-5.4060883121564984e-04" rms="3.0779853463172913e-01" purity="6.2230646610260010e-01" nType="0">
            <Node pos="l" depth="3" NCoef="0" IVar="-1" Cut="0.0000000000000000e+00" cType="1" res="-1.2931564822793007e-02" rms="3.0869537591934204e-01" purity="3.8428857922554016e-01" nType="-99"/>
            <Node pos="r" depth="3" NCoef="0" IVar="-1" Cut="0.0000000000000000e+00" cType="1" res="7.6903408626094460e-04" rms="3.0768108367919922e-01" purity="6.4554959535598755e-01" nType="-99"/>
          </Node>
          <Node pos="r" depth="2" NCoef="0" IVar="-1" Cut="0.0000000000000000e+00" cType="1" res="2.5606244802474976e-02" rms="3.4493613243103027e-01" purity="3.6982318758964539e-01" nType="-99"/>
        </Node>
      </Node>
    </BinaryTree>
    <BinaryTree type="DecisionTree" boostWeight="1.0000000000000000e+00" itree="697">
      <Node pos="s" depth="0" NCoef="0" IVar="7" Cut="-1.7129100561141968e+00" cType="1" res="4.1141267865896225e-03" rms="2.9507687687873840e-01" purity="5.0723707675933838e-01" nType="0">
        <Node pos="l" depth="1" NCoef="0" IVar="-1" Cut="0.0000000000000000e+00" cType="1" res="-4.8911187797784805e-02" rms="1.5755574405193329e-01" purity="5.6751310825347900e-02" nType="-99"/>
        <Node pos="r" depth="1" NCoef="0" IVar="7" Cut="-2.0869739353656769e-01" cType="1" res="4.9272417090833187e-03" rms="2.9868146777153015e-01" purity="5.2286899089813232e-01" nType="0">
          <Node pos="l" depth="2" NCoef="0" IVar="0" Cut="5.3906298828125000e+02" cType="1" res="1.1253708973526955e-02" rms="3.0799767374992371e-01" purity="5.1351541280746460e-01" nType="0">
            <Node pos="l" depth="3" NCoef="0" IVar="-1" Cut="0.0000000000000000e+00" cType="1" res="1.6559753566980362e-02" rms="3.2867774367332458e-01" purity="3.2924845814704895e-01" nType="-99"/>
            <Node pos="r" depth="3" NCoef="0" IVar="-1" Cut="0.0000000000000000e+00" cType="1" res="2.1234102314338088e-04" rms="2.6494845747947693e-01" purity="8.5605406761169434e-01" nType="-99"/>
          </Node>
          <Node pos="r" depth="2" NCoef="0" IVar="10" Cut="1.3345071673393250e-01" cType="1" res="9.9058623891323805e-04" rms="2.9266580939292908e-01" purity="5.2868920564651489e-01" nType="0">
            <Node pos="l" depth="3" NCoef="0" IVar="-1" Cut="0.0000000000000000e+00" cType="1" res="6.3570663332939148e-03" rms="2.9906034469604492e-01" purity="5.4844355583190918e-01" nType="-99"/>
            <Node pos="r" depth="3" NCoef="0" IVar="-1" Cut="0.0000000000000000e+00" cType="1" res="-4.5281331986188889e-03" rms="2.8580316901206970e-01" purity="5.0820356607437134e-01" nType="-99"/>
          </Node>
        </Node>
      </Node>
    </BinaryTree>
    <BinaryTree type="DecisionTree" boostWeight="1.0000000000000000e+00" itree="698">
      <Node pos="s" depth="0" NCoef="0" IVar="3" Cut="3.5189874267578125e+02" cType="1" res="2.4357340298593044e-03" rms="2.9776686429977417e-01" purity="4.9936720728874207e-01" nType="0">
        <Node pos="l" depth="1" NCoef="0" IVar="1" Cut="1.3008653564453125e+03" cType="1" res="7.5908815488219261e-03" rms="3.0609527230262756e-01" purity="2.8420400619506836e-01" nType="0">
          <Node pos="l" depth="2" NCoef="0" IVar="1" Cut="1.0862066650390625e+03" cType="1" res="1.0850170627236366e-02" rms="2.9423874616622925e-01" purity="1.4217765629291534e-01" nType="0">
            <Node pos="l" depth="3" NCoef="0" IVar="-1" Cut="0.0000000000000000e+00" cType="1" res="6.4442162401974201e-03" rms="2.1903030574321747e-01" purity="5.8167621493339539e-02" nType="-99"/>
            <Node pos="r" depth="3" NCoef="0" IVar="-1" Cut="0.0000000000000000e+00" cType="1" res="1.7209870740771294e-02" rms="4.0660241246223450e-01" purity="3.1439152359962463e-01" nType="-99"/>
          </Node>
          <Node pos="r" depth="2" NCoef="0" IVar="0" Cut="5.0331674194335938e+02" cType="1" res="-3.5523439291864634e-03" rms="3.4332090616226196e-01" purity="7.6977950334548950e-01" nType="0">
            <Node pos="l" depth="3" NCoef="0" IVar="-1" Cut="0.0000000000000000e+00" cType="1" res="-8.3312904462218285e-03" rms="3.8872337341308594e-01" purity="6.6633266210556030e-01" nType="-99"/>
            <Node pos="r" depth="3" NCoef="0" IVar="-1" Cut="0.0000000000000000e+00" cType="1" res="3.2220697030425072e-03" rms="3.0478084087371826e-01" purity="8.4721022844314575e-01" nType="-99"/>
          </Node>
        </Node>
        <Node pos="r" depth="1" NCoef="0" IVar="9" Cut="3.9999049901962280e-01" cType="1" res="-9.3847932294011116e-04" rms="2.9213786125183105e-01" purity="6.4019858837127686e-01" nType="0">
          <Node pos="l" depth="2" NCoef="0" IVar="8" Cut="3.9999151229858398e-01" cType="1" res="2.7127170469611883e-03" rms="2.8910341858863831e-01" purity="6.6221153736114502e-01" nType="0">
            <Node pos="l" depth="3" NCoef="0" IVar="-1" Cut="0.0000000000000000e+00" cType="1" res="9.2723285779356956e-03" rms="2.8832700848579407e-01" purity="6.8246597051620483e-01" nType="-99"/>
            <Node pos="r" depth="3" NCoef="0" IVar="-1" Cut="0.0000000000000000e+00" cType="1" res="-1.0904670692980289e-02" rms="2.9051905870437622e-01" purity="6.1546480655670166e-01" nType="-99"/>
          </Node>
          <Node pos="r" depth="2" NCoef="0" IVar="0" Cut="4.2253479003906250e+02" cType="1" res="-7.8585837036371231e-03" rms="2.9768142104148865e-01" purity="5.9847742319107056e-01" nType="0">
            <Node pos="l" depth="3" NCoef="0" IVar="-1" Cut="0.0000000000000000e+00" cType="1" res="-1.7763331532478333e-02" rms="3.0916821956634521e-01" purity="2.4751485884189606e-01" nType="-99"/>
            <Node pos="r" depth="3" NCoef="0" IVar="-1" Cut="0.0000000000000000e+00" cType="1" res="-4.0082619525492191e-03" rms="2.9221603274345398e-01" purity="7.5753623247146606e-01" nType="-99"/>
          </Node>
        </Node>
      </Node>
    </BinaryTree>
    <BinaryTree type="DecisionTree" boostWeight="1.0000000000000000e+00" itree="699">
      <Node pos="s" depth="0" NCoef="0" IVar="7" Cut="6.7563849687576294e-01" cType="1" res="-9.6451891295146197e-05" rms="2.9418525099754333e-01" purity="4.9835622310638428e-01" nType="0">
        <Node pos="l" depth="1" NCoef="0" IVar="1" Cut="1.1148211669921875e+03" cType="1" res="-1.9425813807174563e-03" rms="2.9498198628425598e-01" purity="5.4421365261077881e-01" nType="0">
          <Node pos="l" depth="2" NCoef="0" IVar="1" Cut="1.0248730468750000e+03" cType="1" res="-1.0574828833341599e-02" rms="2.1143077313899994e-01" purity="5.2817307412624359e-02" nType="0">
            <Node pos="l" depth="3" NCoef="0" IVar="-1" Cut="0.0000000000000000e+00" cType="1" res="-5.9639033861458302e-03" rms="1.8767592310905457e-01" purity="4.0727112442255020e-02" nType="-99"/>
            <Node pos="r" depth="3" NCoef="0" IVar="-1" Cut="0.0000000000000000e+00" cType="1" res="-3.4068979322910309e-02" rms="2.5543642044067383e-01" purity="7.9643175005912781e-02" nType="-99"/>
          </Node>
          <Node pos="r" depth="2" NCoef="0" IVar="8" Cut="9.3346691131591797e-01" cType="1" res="7.6977396383881569e-04" rms="3.1666755676269531e-01" purity="6.9861620664596558e-01" nType="0">
            <Node pos="l" depth="3" NCoef="0" IVar="-1" Cut="0.0000000000000000e+00" cType="1" res="-1.5310412272810936e-03" rms="3.1174331903457642e-01" purity="7.2693043947219849e-01" nType="-99"/>
            <Node pos="r" depth="3" NCoef="0" IVar="-1" Cut="0.0000000000000000e+00" cType="1" res="1.1034696362912655e-02" rms="3.4191784262657166e-01" purity="5.4478085041046143e-01" nType="-99"/>
          </Node>
        </Node>
        <Node pos="r" depth="1" NCoef="0" IVar="5" Cut="1.8494752502441406e+02" cType="1" res="6.1163771897554398e-03" rms="2.9140213131904602e-01" purity="3.4403106570243835e-01" nType="0">
          <Node pos="l" depth="2" NCoef="0" IVar="6" Cut="6.2792888641357422e+01" cType="1" res="1.1446445249021053e-02" rms="2.8796732425689697e-01" purity="2.0921449363231659e-01" nType="0">
            <Node pos="l" depth="3" NCoef="0" IVar="-1" Cut="0.0000000000000000e+00" cType="1" res="-1.1451867409050465e-02" rms="1.9945870339870453e-01" purity="7.1453176438808441e-02" nType="-99"/>
            <Node pos="r" depth="3" NCoef="0" IVar="-1" Cut="0.0000000000000000e+00" cType="1" res="2.0365629345178604e-02" rms="3.2222503423690796e-01" purity="2.7661493420600891e-01" nType="-99"/>
          </Node>
          <Node pos="r" depth="2" NCoef="0" IVar="9" Cut="1.3010151684284210e-01" cType="1" res="-1.0037631727755070e-02" rms="3.0099728703498840e-01" purity="7.5262409448623657e-01" nType="0">
            <Node pos="l" depth="3" NCoef="0" IVar="-1" Cut="0.0000000000000000e+00" cType="1" res="-4.0971310809254646e-03" rms="2.9753169417381287e-01" purity="7.5370889902114868e-01" nType="-99"/>
            <Node pos="r" depth="3" NCoef="0" IVar="-1" Cut="0.0000000000000000e+00" cType="1" res="-1.7987653613090515e-02" rms="3.0440732836723328e-01" purity="7.5150370597839355e-01" nType="-99"/>
          </Node>
        </Node>
      </Node>
    </BinaryTree>
    <BinaryTree type="DecisionTree" boostWeight="1.0000000000000000e+00" itree="700">
      <Node pos="s" depth="0" NCoef="0" IVar="9" Cut="1.4665237665176392e+00" cType="1" res="2.8203041292726994e-03" rms="2.9678586125373840e-01" purity="5.0392138957977295e-01" nType="0">
        <Node pos="l" depth="1" NCoef="0" IVar="9" Cut="1.2633132934570312e+00" cType="1" res="3.8276414852589369e-03" rms="2.9686057567596436e-01" purity="5.2755308151245117e-01" nType="0">
          <Node pos="l" depth="2" NCoef="0" IVar="10" Cut="1.4667174816131592e+00" cType="1" res="3.0406448058784008e-03" rms="2.9574656486511230e-01" purity="5.3016936779022217e-01" nType="0">
            <Node pos="l" depth="3" NCoef="0" IVar="-1" Cut="0.0000000000000000e+00" cType="1" res="4.7738542780280113e-03" rms="2.9527658224105835e-01" purity="5.4193520545959473e-01" nType="-99"/>
            <Node pos="r" depth="3" NCoef="0" IVar="-1" Cut="0.0000000000000000e+00" cType="1" res="-6.4507103525102139e-03" rms="2.9917752742767334e-01" purity="4.3981367349624634e-01" nType="-99"/>
          </Node>
          <Node pos="r" depth="2" NCoef="0" IVar="-1" Cut="0.0000000000000000e+00" cType="1" res="2.4013379588723183e-02" rms="3.2342234253883362e-01" purity="4.6058654785156250e-01" nType="-99"/>
        </Node>
        <Node pos="r" depth="1" NCoef="0" IVar="4" Cut="2.1011885070800781e+02" cType="1" res="-6.2184687703847885e-03" rms="2.9596135020256042e-01" purity="2.9187569022178650e-01" nType="0">
          <Node pos="l" depth="2" NCoef="0" IVar="4" Cut="1.4976426696777344e+02" cType="1" res="5.6336186826229095e-03" rms="2.5977200269699097e-01" purity="1.2870444357395172e-01" nType="0">
            <Node pos="l" depth="3" NCoef="0" IVar="-1" Cut="0.0000000000000000e+00" cType="1" res="-1.3272465206682682e-02" rms="2.1114754676818848e-01" purity="6.7300230264663696e-02" nType="-99"/>
            <Node pos="r" depth="3" NCoef="0" IVar="-1" Cut="0.0000000000000000e+00" cType="1" res="2.1368298679590225e-02" rms="3.0577397346496582e-01" purity="1.9942839443683624e-01" nType="-99"/>
          </Node>
          <Node pos="r" depth="2" NCoef="0" IVar="-1" Cut="0.0000000000000000e+00" cType="1" res="-2.0323265343904495e-02" rms="3.3982717990875244e-01" purity="5.2202516794204712e-01" nType="-99"/>
        </Node>
      </Node>
    </BinaryTree>
    <BinaryTree type="DecisionTree" boostWeight="1.0000000000000000e+00" itree="701">
      <Node pos="s" depth="0" NCoef="0" IVar="8" Cut="1.1999663114547729e+00" cType="1" res="-2.0308524835854769e-03" rms="2.9522797465324402e-01" purity="4.9209323525428772e-01" nType="0">
        <Node pos="l" depth="1" NCoef="0" IVar="4" Cut="1.4697593688964844e+02" cType="1" res="-3.2814417500048876e-04" rms="2.9788416624069214e-01" purity="5.2713769674301147e-01" nType="0">
          <Node pos="l" depth="2" NCoef="0" IVar="4" Cut="1.1528260040283203e+02" cType="1" res="7.6069645583629608e-03" rms="2.4170556664466858e-01" purity="9.1405399143695831e-02" nType="0">
            <Node pos="l" depth="3" NCoef="0" IVar="-1" Cut="0.0000000000000000e+00" cType="1" res="-8.1558795645833015e-03" rms="1.7873543500900269e-01" purity="3.9436116814613342e-02" nType="-99"/>
            <Node pos="r" depth="3" NCoef="0" IVar="-1" Cut="0.0000000000000000e+00" cType="1" res="2.3472737520933151e-02" rms="2.8928735852241516e-01" purity="1.4139685034751892e-01" nType="-99"/>
          </Node>
          <Node pos="r" depth="2" NCoef="0" IVar="4" Cut="2.3752119445800781e+02" cType="1" res="-2.2315932437777519e-03" rms="3.0981886386871338e-01" purity="6.3165980577468872e-01" nType="0">
            <Node pos="l" depth="3" NCoef="0" IVar="-1" Cut="0.0000000000000000e+00" cType="1" res="-6.9571840576827526e-03" rms="3.4135931730270386e-01" purity="3.5363590717315674e-01" nType="-99"/>
            <Node pos="r" depth="3" NCoef="0" IVar="-1" Cut="0.0000000000000000e+00" cType="1" res="1.4790005516260862e-03" rms="2.8973731398582458e-01" purity="7.9419428110122681e-01" nType="-99"/>
          </Node>
        </Node>
        <Node pos="r" depth="1" NCoef="0" IVar="8" Cut="2.0380237102508545e+00" cType="1" res="-1.3698370195925236e-02" rms="2.7605846524238586e-01" purity="2.5195696949958801e-01" nType="0">
          <Node pos="l" depth="2" NCoef="0" IVar="3" Cut="4.5913497924804688e+02" cType="1" res="-1.8410556018352509e-02" rms="2.9096761345863342e-01" purity="2.9937547445297241e-01" nType="0">
            <Node pos="l" depth="3" NCoef="0" IVar="-1" Cut="0.0000000000000000e+00" cType="1" res="-2.7100728824734688e-02" rms="2.7806431055068970e-01" purity="2.0878349244594574e-01" nType="-99"/>
            <Node pos="r" depth="3" NCoef="0" IVar="-1" Cut="0.0000000000000000e+00" cType="1" res="-5.1897214725613594e-03" rms="3.2144165039062500e-01" purity="5.3241872787475586e-01" nType="-99"/>
          </Node>
          <Node pos="r" depth="2" NCoef="0" IVar="-1" Cut="0.0000000000000000e+00" cType="1" res="4.0538525208830833e-03" rms="2.1877290308475494e-01" purity="9.4740211963653564e-02" nType="-99"/>
        </Node>
      </Node>
    </BinaryTree>
    <BinaryTree type="DecisionTree" boostWeight="1.0000000000000000e+00" itree="702">
      <Node pos="s" depth="0" NCoef="0" IVar="4" Cut="3.3301843261718750e+02" cType="1" res="-2.4293630849570036e-03" rms="2.9282781481742859e-01" purity="4.9684110283851624e-01" nType="0">
        <Node pos="l" depth="1" NCoef="0" IVar="7" Cut="1.2067066431045532e+00" cType="1" res="-4.7488547861576080e-03" rms="3.0185011029243469e-01" purity="3.8751038908958435e-01" nType="0">
          <Node pos="l" depth="2" NCoef="0" IVar="5" Cut="1.9798602294921875e+02" cType="1" res="-6.3831927254796028e-03" rms="3.0768701434135437e-01" purity="4.2067387700080872e-01" nType="0">
            <Node pos="l" depth="3" NCoef="0" IVar="-1" Cut="0.0000000000000000e+00" cType="1" res="-8.5711032152175903e-03" rms="3.1396403908729553e-01" purity="3.1571012735366821e-01" nType="-99"/>
            <Node pos="r" depth="3" NCoef="0" IVar="-1" Cut="0.0000000000000000e+00" cType="1" res="4.2522880248725414e-03" rms="2.8070151805877686e-01" purity="8.4453457593917847e-01" nType="-99"/>
          </Node>
          <Node pos="r" depth="2" NCoef="0" IVar="0" Cut="3.7608288574218750e+02" cType="1" res="7.2918911464512348e-03" rms="2.5443497300148010e-01" purity="1.4318330585956573e-01" nType="0">
            <Node pos="l" depth="3" NCoef="0" IVar="-1" Cut="0.0000000000000000e+00" cType="1" res="-2.2152803838253021e-02" rms="1.7407871782779694e-01" purity="3.9268318563699722e-02" nType="-99"/>
            <Node pos="r" depth="3" NCoef="0" IVar="-1" Cut="0.0000000000000000e+00" cType="1" res="2.6711625978350639e-02" rms="3.1445211172103882e-01" purity="2.4765554070472717e-01" nType="-99"/>
          </Node>
        </Node>
        <Node pos="r" depth="1" NCoef="0" IVar="2" Cut="6.1429664492607117e-02" cType="1" res="5.1863756962120533e-03" rms="2.6087549328804016e-01" purity="8.5581386089324951e-01" nType="0">
          <Node pos="l" depth="2" NCoef="0" IVar="0" Cut="4.3905575561523438e+02" cType="1" res="1.1525772511959076e-02" rms="3.0497929453849792e-01" purity="7.7654981613159180e-01" nType="0">
            <Node pos="l" depth="3" NCoef="0" IVar="-1" Cut="0.0000000000000000e+00" cType="1" res="2.1250801160931587e-02" rms="3.9930778741836548e-01" purity="4.6828413009643555e-01" nType="-99"/>
            <Node pos="r" depth="3" NCoef="0" IVar="-1" Cut="0.0000000000000000e+00" cType="1" res="5.4823402315378189e-03" rms="2.6598855853080750e-01" purity="8.7883847951889038e-01" nType="-99"/>
          </Node>
          <Node pos="r" depth="2" NCoef="0" IVar="-1" Cut="0.0000000000000000e+00" cType="1" res="-6.8665626458823681e-03" rms="1.9410078227519989e-01" purity="9.5196413993835449e-01" nType="-99"/>
        </Node>
      </Node>
    </BinaryTree>
    <BinaryTree type="DecisionTree" boostWeight="1.0000000000000000e+00" itree="703">
      <Node pos="s" depth="0" NCoef="0" IVar="10" Cut="1.2000055313110352e+00" cType="1" res="1.1738179018720984e-03" rms="2.9433384537696838e-01" purity="5.0033801794052124e-01" nType="0">
        <Node pos="l" depth="1" NCoef="0" IVar="10" Cut="-5.1427018642425537e-01" cType="1" res="-1.1045733699575067e-03" rms="2.9146197438240051e-01" purity="5.1565444469451904e-01" nType="0">
          <Node pos="l" depth="2" NCoef="0" IVar="5" Cut="1.4373213195800781e+02" cType="1" res="4.8152562230825424e-03" rms="2.9701051115989685e-01" purity="4.8497641086578369e-01" nType="0">
            <Node pos="l" depth="3" NCoef="0" IVar="-1" Cut="0.0000000000000000e+00" cType="1" res="-1.2615440646186471e-03" rms="2.9114732146263123e-01" purity="2.1730330586433411e-01" nType="-99"/>
            <Node pos="r" depth="3" NCoef="0" IVar="-1" Cut="0.0000000000000000e+00" cType="1" res="1.1831442825496197e-02" rms="3.0291184782981873e-01" purity="7.6563096046447754e-01" nType="-99"/>
          </Node>
          <Node pos="r" depth="2" NCoef="0" IVar="7" Cut="6.9921594858169556e-01" cType="1" res="-5.5175605230033398e-03" rms="2.8717669844627380e-01" purity="5.3852361440658569e-01" nType="0">
            <Node pos="l" depth="3" NCoef="0" IVar="-1" Cut="0.0000000000000000e+00" cType="1" res="-1.1475282721221447e-02" rms="2.8614372014999390e-01" purity="5.8008539676666260e-01" nType="-99"/>
            <Node pos="r" depth="3" NCoef="0" IVar="-1" Cut="0.0000000000000000e+00" cType="1" res="1.1852215044200420e-02" rms="2.9024913907051086e-01" purity="3.9294365048408508e-01" nType="-99"/>
          </Node>
        </Node>
        <Node pos="r" depth="1" NCoef="0" IVar="6" Cut="9.0713066101074219e+01" cType="1" res="1.1749096214771271e-02" rms="3.0709129571914673e-01" purity="4.2924582958221436e-01" nType="0">
          <Node pos="l" depth="2" NCoef="0" IVar="1" Cut="1.4002580566406250e+03" cType="1" res="2.0841103978455067e-03" rms="2.9148417711257935e-01" purity="2.4315641820430756e-01" nType="0">
            <Node pos="l" depth="3" NCoef="0" IVar="-1" Cut="0.0000000000000000e+00" cType="1" res="-1.2048956938087940e-02" rms="2.5069773197174072e-01" purity="9.7159139811992645e-02" nType="-99"/>
            <Node pos="r" depth="3" NCoef="0" IVar="-1" Cut="0.0000000000000000e+00" cType="1" res="2.2806400433182716e-02" rms="3.8311943411827087e-01" purity="6.5873938798904419e-01" nType="-99"/>
          </Node>
          <Node pos="r" depth="2" NCoef="0" IVar="1" Cut="1.5538747558593750e+03" cType="1" res="2.5858441367745399e-02" rms="3.2803583145141602e-01" purity="7.0090687274932861e-01" nType="0">
            <Node pos="l" depth="3" NCoef="0" IVar="-1" Cut="0.0000000000000000e+00" cType="1" res="4.1921325027942657e-02" rms="4.0297219157218933e-01" purity="4.6236264705657959e-01" nType="-99"/>
            <Node pos="r" depth="3" NCoef="0" IVar="-1" Cut="0.0000000000000000e+00" cType="1" res="-3.9778987411409616e-04" rms="2.5358790159225464e-01" purity="8.8259685039520264e-01" nType="-99"/>
          </Node>
        </Node>
      </Node>
    </BinaryTree>
    <BinaryTree type="DecisionTree" boostWeight="1.0000000000000000e+00" itree="704">
      <Node pos="s" depth="0" NCoef="0" IVar="7" Cut="-1.4582134485244751e+00" cType="1" res="-2.3546472948510200e-04" rms="2.9511258006095886e-01" purity="5.0226032733917236e-01" nType="0">
        <Node pos="l" depth="1" NCoef="0" IVar="9" Cut="-1.3305380940437317e-01" cType="1" res="1.4119490049779415e-02" rms="2.3978409171104431e-01" purity="1.2487397342920303e-01" nType="0">
          <Node pos="l" depth="2" NCoef="0" IVar="-1" Cut="0.0000000000000000e+00" cType="1" res="-1.0856443550437689e-03" rms="2.0434495806694031e-01" purity="8.7602108716964722e-02" nType="-99"/>
          <Node pos="r" depth="2" NCoef="0" IVar="-1" Cut="0.0000000000000000e+00" cType="1" res="4.8574432730674744e-02" rms="2.7105236053466797e-01" purity="1.6377668082714081e-01" nType="-99"/>
        </Node>
        <Node pos="r" depth="1" NCoef="0" IVar="7" Cut="-1.0527529716491699e+00" cType="1" res="-1.1365138925611973e-03" rms="2.9822030663490295e-01" purity="5.2594858407974243e-01" nType="0">
          <Node pos="l" depth="2" NCoef="0" IVar="8" Cut="-4.0011316537857056e-01" cType="1" res="-1.1573873460292816e-02" rms="2.9155030846595764e-01" purity="3.0486005544662476e-01" nType="0">
            <Node pos="l" depth="3" NCoef="0" IVar="-1" Cut="0.0000000000000000e+00" cType="1" res="7.0630302652716637e-03" rms="3.0399593710899353e-01" purity="2.9738366603851318e-01" nType="-99"/>
            <Node pos="r" depth="3" NCoef="0" IVar="-1" Cut="0.0000000000000000e+00" cType="1" res="-2.6489999145269394e-02" rms="2.8121346235275269e-01" purity="3.1040903925895691e-01" nType="-99"/>
          </Node>
          <Node pos="r" depth="2" NCoef="0" IVar="8" Cut="-1.9998359680175781e+00" cType="1" res="-3.7666404386982322e-04" rms="2.9868581891059875e-01" purity="5.4204404354095459e-01" nType="0">
            <Node pos="l" depth="3" NCoef="0" IVar="-1" Cut="0.0000000000000000e+00" cType="1" res="-3.2966978847980499e-02" rms="2.0751389861106873e-01" purity="9.9751509726047516e-02" nType="-99"/>
            <Node pos="r" depth="3" NCoef="0" IVar="-1" Cut="0.0000000000000000e+00" cType="1" res="2.1780539827886969e-04" rms="3.0094853043556213e-01" purity="5.5515676736831665e-01" nType="-99"/>
          </Node>
        </Node>
      </Node>
    </BinaryTree>
    <BinaryTree type="DecisionTree" boostWeight="1.0000000000000000e+00" itree="705">
      <Node pos="s" depth="0" NCoef="0" IVar="8" Cut="-6.6670817136764526e-01" cType="1" res="3.5135357175022364e-03" rms="2.9902440309524536e-01" purity="5.0330537557601929e-01" nType="0">
        <Node pos="l" depth="1" NCoef="0" IVar="0" Cut="4.5206835937500000e+02" cType="1" res="1.0153732262551785e-02" rms="3.0921429395675659e-01" purity="4.0065357089042664e-01" nType="0">
          <Node pos="l" depth="2" NCoef="0" IVar="5" Cut="1.3511587524414062e+02" cType="1" res="1.6245709732174873e-02" rms="2.9555422067642212e-01" purity="1.9106389582157135e-01" nType="0">
            <Node pos="l" depth="3" NCoef="0" IVar="-1" Cut="0.0000000000000000e+00" cType="1" res="1.0935627855360508e-02" rms="2.2605760395526886e-01" purity="7.1246787905693054e-02" nType="-99"/>
            <Node pos="r" depth="3" NCoef="0" IVar="-1" Cut="0.0000000000000000e+00" cType="1" res="2.5956282392144203e-02" rms="3.9464122056961060e-01" purity="4.1927763819694519e-01" nType="-99"/>
          </Node>
          <Node pos="r" depth="2" NCoef="0" IVar="6" Cut="7.5175285339355469e+01" cType="1" res="1.8481527222320437e-03" rms="3.2673671841621399e-01" purity="6.8640047311782837e-01" nType="0">
            <Node pos="l" depth="3" NCoef="0" IVar="-1" Cut="0.0000000000000000e+00" cType="1" res="1.5790566802024841e-02" rms="3.9012569189071655e-01" purity="3.9959824085235596e-01" nType="-99"/>
            <Node pos="r" depth="3" NCoef="0" IVar="-1" Cut="0.0000000000000000e+00" cType="1" res="-7.0041976869106293e-03" rms="2.9482692480087280e-01" purity="8.1020313501358032e-01" nType="-99"/>
          </Node>
        </Node>
        <Node pos="r" depth="1" NCoef="0" IVar="7" Cut="-1.4577178955078125e+00" cType="1" res="1.1780681088566780e-03" rms="2.9532140493392944e-01" purity="5.3940969705581665e-01" nType="0">
          <Node pos="l" depth="2" NCoef="0" IVar="-1" Cut="0.0000000000000000e+00" cType="1" res="-2.5235041975975037e-02" rms="2.0946002006530762e-01" purity="1.2415586411952972e-01" nType="-99"/>
          <Node pos="r" depth="2" NCoef="0" IVar="3" Cut="7.8387652587890625e+02" cType="1" res="2.0720371976494789e-03" rms="2.9924046993255615e-01" purity="5.6188374757766724e-01" nType="0">
            <Node pos="l" depth="3" NCoef="0" IVar="-1" Cut="0.0000000000000000e+00" cType="1" res="1.3702925061807036e-03" rms="3.0020615458488464e-01" purity="5.4370075464248657e-01" nType="-99"/>
            <Node pos="r" depth="3" NCoef="0" IVar="-1" Cut="0.0000000000000000e+00" cType="1" res="1.7994839698076248e-02" rms="2.8261986374855042e-01" purity="8.5924923419952393e-01" nType="-99"/>
          </Node>
        </Node>
      </Node>
    </BinaryTree>
    <BinaryTree type="DecisionTree" boostWeight="1.0000000000000000e+00" itree="706">
      <Node pos="s" depth="0" NCoef="0" IVar="8" Cut="-1.4665461778640747e+00" cType="1" res="-1.2094951234757900e-03" rms="2.9195424914360046e-01" purity="5.0171661376953125e-01" nType="0">
        <Node pos="l" depth="1" NCoef="0" IVar="2" Cut="1.0823284275829792e-02" cType="1" res="1.6243286430835724e-02" rms="2.8191041946411133e-01" purity="2.1601238846778870e-01" nType="0">
          <Node pos="l" depth="2" NCoef="0" IVar="-1" Cut="0.0000000000000000e+00" cType="1" res="7.2555639781057835e-03" rms="2.2242619097232819e-01" purity="8.7459363043308258e-02" nType="-99"/>
          <Node pos="r" depth="2" NCoef="0" IVar="-1" Cut="0.0000000000000000e+00" cType="1" res="2.6546603068709373e-02" rms="3.2146418094635010e-01" purity="3.1927177309989929e-01" nType="-99"/>
        </Node>
        <Node pos="r" depth="1" NCoef="0" IVar="1" Cut="1.4400631103515625e+03" cType="1" res="-2.8669747989624739e-03" rms="2.9283612966537476e-01" purity="5.2884972095489502e-01" nType="0">
          <Node pos="l" depth="2" NCoef="0" IVar="4" Cut="1.3686654663085938e+02" cType="1" res="-7.7229454182088375e-03" rms="3.0527505278587341e-01" purity="1.8873661756515503e-01" nType="0">
            <Node pos="l" depth="3" NCoef="0" IVar="-1" Cut="0.0000000000000000e+00" cType="1" res="8.6474884301424026e-03" rms="2.0850543677806854e-01" purity="5.9621401131153107e-02" nType="-99"/>
            <Node pos="r" depth="3" NCoef="0" IVar="-1" Cut="0.0000000000000000e+00" cType="1" res="-1.0503567755222321e-02" rms="3.4042194485664368e-01" purity="2.4789936840534210e-01" nType="-99"/>
          </Node>
          <Node pos="r" depth="2" NCoef="0" IVar="9" Cut="-1.2000228166580200e+00" cType="1" res="1.6855794237926602e-03" rms="2.8059786558151245e-01" purity="8.4771162271499634e-01" nType="0">
            <Node pos="l" depth="3" NCoef="0" IVar="-1" Cut="0.0000000000000000e+00" cType="1" res="1.8857929855585098e-02" rms="3.3665063977241516e-01" purity="7.6803487539291382e-01" nType="-99"/>
            <Node pos="r" depth="3" NCoef="0" IVar="-1" Cut="0.0000000000000000e+00" cType="1" res="-9.4859144883230329e-04" rms="2.7301242947578430e-01" purity="8.5725831985473633e-01" nType="-99"/>
          </Node>
        </Node>
      </Node>
    </BinaryTree>
    <BinaryTree type="DecisionTree" boostWeight="1.0000000000000000e+00" itree="707">
      <Node pos="s" depth="0" NCoef="0" IVar="2" Cut="8.5266172885894775e-02" cType="1" res="4.0161390788853168e-03" rms="2.9989340901374817e-01" purity="5.0458514690399170e-01" nType="0">
        <Node pos="l" depth="1" NCoef="0" IVar="2" Cut="2.4361686781048775e-02" cType="1" res="6.7386282607913017e-03" rms="3.0522984266281128e-01" purity="4.1407802700996399e-01" nType="0">
          <Node pos="l" depth="2" NCoef="0" IVar="5" Cut="1.3409558105468750e+02" cType="1" res="1.9337570993229747e-03" rms="2.7971541881561279e-01" purity="2.6257398724555969e-01" nType="0">
            <Node pos="l" depth="3" NCoef="0" IVar="-1" Cut="0.0000000000000000e+00" cType="1" res="-3.7998014595359564e-03" rms="2.4307461082935333e-01" purity="1.1888128519058228e-01" nType="-99"/>
            <Node pos="r" depth="3" NCoef="0" IVar="-1" Cut="0.0000000000000000e+00" cType="1" res="8.5107507184147835e-03" rms="3.3765301108360291e-01" purity="5.3161901235580444e-01" nType="-99"/>
          </Node>
          <Node pos="r" depth="2" NCoef="0" IVar="0" Cut="4.2644381713867188e+02" cType="1" res="1.1818226426839828e-02" rms="3.2998928427696228e-01" purity="5.7424455881118774e-01" nType="0">
            <Node pos="l" depth="3" NCoef="0" IVar="-1" Cut="0.0000000000000000e+00" cType="1" res="1.8768653273582458e-02" rms="3.5423517227172852e-01" purity="2.7958029508590698e-01" nType="-99"/>
            <Node pos="r" depth="3" NCoef="0" IVar="-1" Cut="0.0000000000000000e+00" cType="1" res="4.8452611081302166e-03" rms="3.1097549200057983e-01" purity="7.8855717182159424e-01" nType="-99"/>
          </Node>
        </Node>
        <Node pos="r" depth="1" NCoef="0" IVar="2" Cut="1.5429189801216125e-01" cType="1" res="-4.9747712910175323e-03" rms="2.8136536478996277e-01" purity="8.0348116159439087e-01" nType="0">
          <Node pos="l" depth="2" NCoef="0" IVar="9" Cut="3.9834144711494446e-01" cType="1" res="-1.0490311309695244e-02" rms="2.9690548777580261e-01" purity="7.6520824432373047e-01" nType="0">
            <Node pos="l" depth="3" NCoef="0" IVar="-1" Cut="0.0000000000000000e+00" cType="1" res="-6.1047752387821674e-03" rms="2.9508799314498901e-01" purity="7.7827036380767822e-01" nType="-99"/>
            <Node pos="r" depth="3" NCoef="0" IVar="-1" Cut="0.0000000000000000e+00" cType="1" res="-2.4045990779995918e-02" rms="3.0008015036582947e-01" purity="7.4028325080871582e-01" nType="-99"/>
          </Node>
          <Node pos="r" depth="2" NCoef="0" IVar="-1" Cut="0.0000000000000000e+00" cType="1" res="7.6984316110610962e-03" rms="2.5067853927612305e-01" purity="8.7236362695693970e-01" nType="-99"/>
        </Node>
      </Node>
    </BinaryTree>
    <BinaryTree type="DecisionTree" boostWeight="1.0000000000000000e+00" itree="708">
      <Node pos="s" depth="0" NCoef="0" IVar="7" Cut="-6.3663411140441895e-01" cType="1" res="-1.1548126349225640e-03" rms="2.9361823201179504e-01" purity="5.0245112180709839e-01" nType="0">
        <Node pos="l" depth="1" NCoef="0" IVar="1" Cut="1.3006339111328125e+03" cType="1" res="5.1425625570118427e-03" rms="2.8996977210044861e-01" purity="3.6805564165115356e-01" nType="0">
          <Node pos="l" depth="2" NCoef="0" IVar="8" Cut="3.9929971098899841e-01" cType="1" res="-2.7471529319882393e-03" rms="2.4242202937602997e-01" purity="8.4523551166057587e-02" nType="0">
            <Node pos="l" depth="3" NCoef="0" IVar="-1" Cut="0.0000000000000000e+00" cType="1" res="9.8871449008584023e-03" rms="2.5775891542434692e-01" purity="9.8993793129920959e-02" nType="-99"/>
            <Node pos="r" depth="3" NCoef="0" IVar="-1" Cut="0.0000000000000000e+00" cType="1" res="-3.8089256733655930e-02" rms="2.0666232705116272e-01" purity="5.5178888142108917e-02" nType="-99"/>
          </Node>
          <Node pos="r" depth="2" NCoef="0" IVar="1" Cut="1.7535739746093750e+03" cType="1" res="1.3685267418622971e-02" rms="3.3369332551956177e-01" purity="6.7505419254302979e-01" nType="0">
            <Node pos="l" depth="3" NCoef="0" IVar="-1" Cut="0.0000000000000000e+00" cType="1" res="1.9402807578444481e-02" rms="3.7582463026046753e-01" purity="5.3771972656250000e-01" nType="-99"/>
            <Node pos="r" depth="3" NCoef="0" IVar="-1" Cut="0.0000000000000000e+00" cType="1" res="-8.0944113433361053e-03" rms="2.6593002676963806e-01" purity="8.5863214731216431e-01" nType="-99"/>
          </Node>
        </Node>
        <Node pos="r" depth="1" NCoef="0" IVar="9" Cut="-9.3333774805068970e-01" cType="1" res="-3.1410125084221363e-03" rms="2.9473167657852173e-01" purity="5.4483968019485474e-01" nType="0">
          <Node pos="l" depth="2" NCoef="0" IVar="10" Cut="-1.1994100809097290e+00" cType="1" res="6.7739794030785561e-03" rms="3.0982473492622375e-01" purity="4.6267992258071899e-01" nType="0">
            <Node pos="l" depth="3" NCoef="0" IVar="-1" Cut="0.0000000000000000e+00" cType="1" res="-1.2637167237699032e-02" rms="3.0348804593086243e-01" purity="3.5866591334342957e-01" nType="-99"/>
            <Node pos="r" depth="3" NCoef="0" IVar="-1" Cut="0.0000000000000000e+00" cType="1" res="1.1763320304453373e-02" rms="3.1114450097084045e-01" purity="4.8737004399299622e-01" nType="-99"/>
          </Node>
          <Node pos="r" depth="2" NCoef="0" IVar="9" Cut="1.1999976634979248e+00" cType="1" res="-5.5492925457656384e-03" rms="2.9089653491973877e-01" purity="5.6479561328887939e-01" nType="0">
            <Node pos="l" depth="3" NCoef="0" IVar="-1" Cut="0.0000000000000000e+00" cType="1" res="-8.7024029344320297e-03" rms="2.8865411877632141e-01" purity="6.0709029436111450e-01" nType="-99"/>
            <Node pos="r" depth="3" NCoef="0" IVar="-1" Cut="0.0000000000000000e+00" cType="1" res="2.7733405586332083e-03" rms="3.0011805891990662e-01" purity="3.8480272889137268e-01" nType="-99"/>
          </Node>
        </Node>
      </Node>
    </BinaryTree>
    <BinaryTree type="DecisionTree" boostWeight="1.0000000000000000e+00" itree="709">
      <Node pos="s" depth="0" NCoef="0" IVar="9" Cut="1.4666540622711182e+00" cType="1" res="1.7294612480327487e-03" rms="2.9676154255867004e-01" purity="5.0473308563232422e-01" nType="0">
        <Node pos="l" depth="1" NCoef="0" IVar="9" Cut="1.0603029727935791e+00" cType="1" res="2.9963678680360317e-03" rms="2.9713258147239685e-01" purity="5.2851098775863647e-01" nType="0">
          <Node pos="l" depth="2" NCoef="0" IVar="3" Cut="5.8667224121093750e+02" cType="1" res="1.4663911424577236e-03" rms="2.9502835869789124e-01" purity="5.3223651647567749e-01" nType="0">
            <Node pos="l" depth="3" NCoef="0" IVar="-1" Cut="0.0000000000000000e+00" cType="1" res="3.7837345153093338e-03" rms="2.9842334985733032e-01" purity="4.7806361317634583e-01" nType="-99"/>
            <Node pos="r" depth="3" NCoef="0" IVar="-1" Cut="0.0000000000000000e+00" cType="1" res="-9.1057652607560158e-03" rms="2.7836605906486511e-01" purity="7.8654479980468750e-01" nType="-99"/>
          </Node>
          <Node pos="r" depth="2" NCoef="0" IVar="2" Cut="2.0476581528782845e-02" cType="1" res="1.8439974635839462e-02" rms="3.1718000769615173e-01" purity="4.9090558290481567e-01" nType="0">
            <Node pos="l" depth="3" NCoef="0" IVar="-1" Cut="0.0000000000000000e+00" cType="1" res="4.4290725141763687e-02" rms="3.1693011522293091e-01" purity="2.3481190204620361e-01" nType="-99"/>
            <Node pos="r" depth="3" NCoef="0" IVar="-1" Cut="0.0000000000000000e+00" cType="1" res="6.8729813210666180e-03" rms="3.1677258014678955e-01" purity="6.3022160530090332e-01" nType="-99"/>
          </Node>
        </Node>
        <Node pos="r" depth="1" NCoef="0" IVar="7" Cut="4.7134274244308472e-01" cType="1" res="-9.7473124042153358e-03" rms="2.9312968254089355e-01" purity="2.8933140635490417e-01" nType="0">
          <Node pos="l" depth="2" NCoef="0" IVar="8" Cut="-1.3367335498332977e-01" cType="1" res="-1.8276546150445938e-02" rms="2.9787597060203552e-01" purity="3.3177345991134644e-01" nType="0">
            <Node pos="l" depth="3" NCoef="0" IVar="-1" Cut="0.0000000000000000e+00" cType="1" res="-3.7652745842933655e-02" rms="2.8266531229019165e-01" purity="3.0388006567955017e-01" nType="-99"/>
            <Node pos="r" depth="3" NCoef="0" IVar="-1" Cut="0.0000000000000000e+00" cType="1" res="-6.5121548250317574e-03" rms="3.0773028731346130e-01" purity="3.5174611210823059e-01" nType="-99"/>
          </Node>
          <Node pos="r" depth="2" NCoef="0" IVar="-1" Cut="0.0000000000000000e+00" cType="1" res="6.3005699776113033e-03" rms="2.8428721427917480e-01" purity="2.1713601052761078e-01" nType="-99"/>
        </Node>
      </Node>
    </BinaryTree>
    <BinaryTree type="DecisionTree" boostWeight="1.0000000000000000e+00" itree="710">
      <Node pos="s" depth="0" NCoef="0" IVar="9" Cut="9.3332177400588989e-01" cType="1" res="-2.1726217528339475e-04" rms="2.9313665628433228e-01" purity="5.0359439849853516e-01" nType="0">
        <Node pos="l" depth="1" NCoef="0" IVar="8" Cut="-4.0004977583885193e-01" cType="1" res="-2.8810347430408001e-03" rms="2.9010745882987976e-01" purity="5.2821320295333862e-01" nType="0">
          <Node pos="l" depth="2" NCoef="0" IVar="9" Cut="-4.8890236020088196e-01" cType="1" res="-1.1253350414335728e-02" rms="2.8829497098922729e-01" purity="4.6191135048866272e-01" nType="0">
            <Node pos="l" depth="3" NCoef="0" IVar="-1" Cut="0.0000000000000000e+00" cType="1" res="-2.3516852408647537e-02" rms="2.7931728959083557e-01" purity="3.7163543701171875e-01" nType="-99"/>
            <Node pos="r" depth="3" NCoef="0" IVar="-1" Cut="0.0000000000000000e+00" cType="1" res="-3.3733109012246132e-03" rms="2.9567149281501770e-01" purity="5.4084223508834839e-01" nType="-99"/>
          </Node>
          <Node pos="r" depth="2" NCoef="0" IVar="10" Cut="-9.3310350179672241e-01" cType="1" res="1.7769044497981668e-03" rms="2.9100668430328369e-01" purity="5.6510025262832642e-01" nType="0">
            <Node pos="l" depth="3" NCoef="0" IVar="-1" Cut="0.0000000000000000e+00" cType="1" res="1.1297169141471386e-02" rms="3.0374893546104431e-01" purity="5.2849894762039185e-01" nType="-99"/>
            <Node pos="r" depth="3" NCoef="0" IVar="-1" Cut="0.0000000000000000e+00" cType="1" res="-7.4964435771107674e-04" rms="2.8722801804542542e-01" purity="5.7552629709243774e-01" nType="-99"/>
          </Node>
        </Node>
        <Node pos="r" depth="1" NCoef="0" IVar="6" Cut="9.9661529541015625e+01" cType="1" res="9.6039287745952606e-03" rms="3.0384287238121033e-01" purity="4.1282606124877930e-01" nType="0">
          <Node pos="l" depth="2" NCoef="0" IVar="0" Cut="4.0453936767578125e+02" cType="1" res="1.4514735899865627e-02" rms="3.0136948823928833e-01" purity="2.5644865632057190e-01" nType="0">
            <Node pos="l" depth="3" NCoef="0" IVar="-1" Cut="0.0000000000000000e+00" cType="1" res="3.6306304391473532e-03" rms="2.3475924134254456e-01" purity="8.4056288003921509e-02" nType="-99"/>
            <Node pos="r" depth="3" NCoef="0" IVar="-1" Cut="0.0000000000000000e+00" cType="1" res="2.2690521553158760e-02" rms="3.6140060424804688e-01" purity="4.5031240582466125e-01" nType="-99"/>
          </Node>
          <Node pos="r" depth="2" NCoef="0" IVar="8" Cut="1.3310506939888000e-01" cType="1" res="1.1658838775474578e-04" rms="3.0834364891052246e-01" purity="7.1493643522262573e-01" nType="0">
            <Node pos="l" depth="3" NCoef="0" IVar="-1" Cut="0.0000000000000000e+00" cType="1" res="9.1877141967415810e-03" rms="3.1249779462814331e-01" purity="7.3561364412307739e-01" nType="-99"/>
            <Node pos="r" depth="3" NCoef="0" IVar="-1" Cut="0.0000000000000000e+00" cType="1" res="-9.7740879282355309e-03" rms="3.0336359143257141e-01" purity="6.9194436073303223e-01" nType="-99"/>
          </Node>
        </Node>
      </Node>
    </BinaryTree>
    <BinaryTree type="DecisionTree" boostWeight="1.0000000000000000e+00" itree="711">
      <Node pos="s" depth="0" NCoef="0" IVar="1" Cut="1.1200286865234375e+03" cType="1" res="-1.6571189044043422e-03" rms="2.9475635290145874e-01" purity="4.9617186188697815e-01" nType="0">
        <Node pos="l" depth="1" NCoef="0" IVar="2" Cut="5.7845745235681534e-02" cType="1" res="3.7398575805127621e-03" rms="2.2046795487403870e-01" purity="6.2511771917343140e-02" nType="0">
          <Node pos="l" depth="2" NCoef="0" IVar="1" Cut="1.0133493652343750e+03" cType="1" res="-1.9177420763298869e-03" rms="1.7987838387489319e-01" purity="3.6262743175029755e-02" nType="0">
            <Node pos="l" depth="3" NCoef="0" IVar="-1" Cut="0.0000000000000000e+00" cType="1" res="2.1486686542630196e-02" rms="1.6226282715797424e-01" purity="2.8693862259387970e-02" nType="-99"/>
            <Node pos="r" depth="3" NCoef="0" IVar="-1" Cut="0.0000000000000000e+00" cType="1" res="-2.5441111996769905e-02" rms="2.0723490417003632e-01" purity="4.9850802868604660e-02" nType="-99"/>
          </Node>
          <Node pos="r" depth="2" NCoef="0" IVar="-1" Cut="0.0000000000000000e+00" cType="1" res="2.4964917451143265e-02" rms="3.4201070666313171e-01" purity="1.7409868538379669e-01" nType="-99"/>
        </Node>
        <Node pos="r" depth="1" NCoef="0" IVar="0" Cut="4.5299533081054688e+02" cType="1" res="-3.7193919997662306e-03" rms="3.1857731938362122e-01" purity="6.6188049316406250e-01" nType="0">
          <Node pos="l" depth="2" NCoef="0" IVar="10" Cut="-1.4665108919143677e+00" cType="1" res="-8.7954513728618622e-03" rms="3.6487504839897156e-01" purity="4.0678137540817261e-01" nType="0">
            <Node pos="l" depth="3" NCoef="0" IVar="-1" Cut="0.0000000000000000e+00" cType="1" res="9.4020888209342957e-03" rms="3.7010231614112854e-01" purity="3.4905517101287842e-01" nType="-99"/>
            <Node pos="r" depth="3" NCoef="0" IVar="-1" Cut="0.0000000000000000e+00" cType="1" res="-8.5931401699781418e-03" rms="3.6399275064468384e-01" purity="4.1529527306556702e-01" nType="-99"/>
          </Node>
          <Node pos="r" depth="2" NCoef="0" IVar="7" Cut="6.9064599275588989e-01" cType="1" res="-1.0582293616607785e-03" rms="2.9134550690650940e-01" purity="7.9561811685562134e-01" nType="0">
            <Node pos="l" depth="3" NCoef="0" IVar="-1" Cut="0.0000000000000000e+00" cType="1" res="6.2070495914667845e-04" rms="2.8571334481239319e-01" purity="8.1998848915100098e-01" nType="-99"/>
            <Node pos="r" depth="3" NCoef="0" IVar="-1" Cut="0.0000000000000000e+00" cType="1" res="-8.6838025599718094e-03" rms="3.1751421093940735e-01" purity="6.7560863494873047e-01" nType="-99"/>
          </Node>
        </Node>
      </Node>
    </BinaryTree>
    <BinaryTree type="DecisionTree" boostWeight="1.0000000000000000e+00" itree="712">
      <Node pos="s" depth="0" NCoef="0" IVar="10" Cut="-9.3330198526382446e-01" cType="1" res="-2.1307647693902254e-03" rms="2.9673638939857483e-01" purity="4.9855390191078186e-01" nType="0">
        <Node pos="l" depth="1" NCoef="0" IVar="10" Cut="-1.2888637781143188e+00" cType="1" res="-7.9487590119242668e-03" rms="2.9528617858886719e-01" purity="4.4790890812873840e-01" nType="0">
          <Node pos="l" depth="2" NCoef="0" IVar="10" Cut="-2.0084443092346191e+00" cType="1" res="-3.5698071587830782e-03" rms="2.9727655649185181e-01" purity="4.3161949515342712e-01" nType="0">
            <Node pos="l" depth="3" NCoef="0" IVar="-1" Cut="0.0000000000000000e+00" cType="1" res="-1.8369603902101517e-02" rms="2.8444969654083252e-01" purity="3.0014243721961975e-01" nType="-99"/>
            <Node pos="r" depth="3" NCoef="0" IVar="-1" Cut="0.0000000000000000e+00" cType="1" res="2.1799963433295488e-03" rms="3.0279853940010071e-01" purity="4.9175915122032166e-01" nType="-99"/>
          </Node>
          <Node pos="r" depth="2" NCoef="0" IVar="0" Cut="5.2058618164062500e+02" cType="1" res="-1.6911188140511513e-02" rms="2.9096466302871704e-01" purity="4.8124867677688599e-01" nType="0">
            <Node pos="l" depth="3" NCoef="0" IVar="-1" Cut="0.0000000000000000e+00" cType="1" res="-2.4047518149018288e-02" rms="2.9558083415031433e-01" purity="2.7717697620391846e-01" nType="-99"/>
            <Node pos="r" depth="3" NCoef="0" IVar="-1" Cut="0.0000000000000000e+00" cType="1" res="-6.2554026953876019e-03" rms="2.8234279155731201e-01" purity="8.3626663684844971e-01" nType="-99"/>
          </Node>
        </Node>
        <Node pos="r" depth="1" NCoef="0" IVar="4" Cut="1.4559230041503906e+02" cType="1" res="-3.3907650504261255e-04" rms="2.9715862870216370e-01" purity="5.1415038108825684e-01" nType="0">
          <Node pos="l" depth="2" NCoef="0" IVar="7" Cut="-3.8586857914924622e-01" cType="1" res="7.4572805315256119e-03" rms="2.4469263851642609e-01" purity="8.5644073784351349e-02" nType="0">
            <Node pos="l" depth="3" NCoef="0" IVar="-1" Cut="0.0000000000000000e+00" cType="1" res="-1.6246458515524864e-02" rms="1.9702370464801788e-01" purity="5.5952742695808411e-02" nType="-99"/>
            <Node pos="r" depth="3" NCoef="0" IVar="-1" Cut="0.0000000000000000e+00" cType="1" res="2.6648391038179398e-02" rms="2.6586741209030151e-01" purity="1.0112512111663818e-01" nType="-99"/>
          </Node>
          <Node pos="r" depth="2" NCoef="0" IVar="9" Cut="-1.4667121171951294e+00" cType="1" res="-2.2003459744155407e-03" rms="3.0833786725997925e-01" purity="6.1645013093948364e-01" nType="0">
            <Node pos="l" depth="3" NCoef="0" IVar="-1" Cut="0.0000000000000000e+00" cType="1" res="1.1669779196381569e-02" rms="3.3448705077171326e-01" purity="4.5909410715103149e-01" nType="-99"/>
            <Node pos="r" depth="3" NCoef="0" IVar="-1" Cut="0.0000000000000000e+00" cType="1" res="-3.8518693763762712e-03" rms="3.0568614602088928e-01" purity="6.3146841526031494e-01" nType="-99"/>
          </Node>
        </Node>
      </Node>
    </BinaryTree>
    <BinaryTree type="DecisionTree" boostWeight="1.0000000000000000e+00" itree="713">
      <Node pos="s" depth="0" NCoef="0" IVar="8" Cut="-1.3332389295101166e-01" cType="1" res="5.5000121938064694e-04" rms="2.9581949114799500e-01" purity="4.9935209751129150e-01" nType="0">
        <Node pos="l" depth="1" NCoef="0" IVar="5" Cut="1.4369802856445312e+02" cType="1" res="5.3338697180151939e-03" rms="3.0111950635910034e-01" purity="4.9222779273986816e-01" nType="0">
          <Node pos="l" depth="2" NCoef="0" IVar="4" Cut="1.4220555114746094e+02" cType="1" res="1.0423406027257442e-02" rms="3.0282852053642273e-01" purity="2.2489844262599945e-01" nType="0">
            <Node pos="l" depth="3" NCoef="0" IVar="-1" Cut="0.0000000000000000e+00" cType="1" res="-5.2610039710998535e-03" rms="2.1527211368083954e-01" purity="7.4060685932636261e-02" nType="-99"/>
            <Node pos="r" depth="3" NCoef="0" IVar="-1" Cut="0.0000000000000000e+00" cType="1" res="1.6290390864014626e-02" rms="3.4534612298011780e-01" purity="3.1709209084510803e-01" nType="-99"/>
          </Node>
          <Node pos="r" depth="2" NCoef="0" IVar="6" Cut="8.0216300964355469e+01" cType="1" res="8.0258301750291139e-05" rms="2.9925438761711121e-01" purity="7.6817524433135986e-01" nType="0">
            <Node pos="l" depth="3" NCoef="0" IVar="-1" Cut="0.0000000000000000e+00" cType="1" res="-1.1243484914302826e-02" rms="3.5716909170150757e-01" purity="5.2913612127304077e-01" nType="-99"/>
            <Node pos="r" depth="3" NCoef="0" IVar="-1" Cut="0.0000000000000000e+00" cType="1" res="3.4412702079862356e-03" rms="2.8666749596595764e-01" purity="8.1424278020858765e-01" nType="-99"/>
          </Node>
        </Node>
        <Node pos="r" depth="1" NCoef="0" IVar="3" Cut="3.3545700073242188e+02" cType="1" res="-3.4424338955432177e-03" rms="2.9126235842704773e-01" purity="5.0529778003692627e-01" nType="0">
          <Node pos="l" depth="2" NCoef="0" IVar="1" Cut="1.2761289062500000e+03" cType="1" res="-1.1875920929014683e-02" rms="2.8599101305007935e-01" purity="2.5272125005722046e-01" nType="0">
            <Node pos="l" depth="3" NCoef="0" IVar="-1" Cut="0.0000000000000000e+00" cType="1" res="-2.2421203553676605e-02" rms="2.6249668002128601e-01" purity="1.0159728676080704e-01" nType="-99"/>
            <Node pos="r" depth="3" NCoef="0" IVar="-1" Cut="0.0000000000000000e+00" cType="1" res="5.4334746673703194e-03" rms="3.5258668661117554e-01" purity="7.5675028562545776e-01" nType="-99"/>
          </Node>
          <Node pos="r" depth="2" NCoef="0" IVar="8" Cut="1.1237535476684570e+00" cType="1" res="8.8967365445569158e-04" rms="2.9383930563926697e-01" purity="6.3504111766815186e-01" nType="0">
            <Node pos="l" depth="3" NCoef="0" IVar="-1" Cut="0.0000000000000000e+00" cType="1" res="-4.0308162569999695e-03" rms="2.8589749336242676e-01" purity="6.9988447427749634e-01" nType="-99"/>
            <Node pos="r" depth="3" NCoef="0" IVar="-1" Cut="0.0000000000000000e+00" cType="1" res="1.5650467947125435e-02" rms="3.1923407316207886e-01" purity="4.1202735900878906e-01" nType="-99"/>
          </Node>
        </Node>
      </Node>
    </BinaryTree>
    <BinaryTree type="DecisionTree" boostWeight="1.0000000000000000e+00" itree="714">
      <Node pos="s" depth="0" NCoef="0" IVar="10" Cut="-1.3330002129077911e-01" cType="1" res="-2.8205537237226963e-03" rms="2.9394856095314026e-01" purity="4.9760922789573669e-01" nType="0">
        <Node pos="l" depth="1" NCoef="0" IVar="9" Cut="6.6660201549530029e-01" cType="1" res="-7.5129708275198936e-03" rms="2.9280808568000793e-01" purity="4.8356044292449951e-01" nType="0">
          <Node pos="l" depth="2" NCoef="0" IVar="10" Cut="-2.0379102230072021e+00" cType="1" res="-1.0672601871192455e-02" rms="2.8628483414649963e-01" purity="4.9111682176589966e-01" nType="0">
            <Node pos="l" depth="3" NCoef="0" IVar="-1" Cut="0.0000000000000000e+00" cType="1" res="9.1981468722224236e-03" rms="2.8606593608856201e-01" purity="3.4188506007194519e-01" nType="-99"/>
            <Node pos="r" depth="3" NCoef="0" IVar="-1" Cut="0.0000000000000000e+00" cType="1" res="-1.4907886274158955e-02" rms="2.8622722625732422e-01" purity="5.0956046581268311e-01" nType="-99"/>
          </Node>
          <Node pos="r" depth="2" NCoef="0" IVar="1" Cut="1.3887604980468750e+03" cType="1" res="1.7451990861445665e-03" rms="3.1095084547996521e-01" purity="4.6141910552978516e-01" nType="0">
            <Node pos="l" depth="3" NCoef="0" IVar="-1" Cut="0.0000000000000000e+00" cType="1" res="1.2046868912875652e-02" rms="3.1265550851821899e-01" purity="1.7062012851238251e-01" nType="-99"/>
            <Node pos="r" depth="3" NCoef="0" IVar="-1" Cut="0.0000000000000000e+00" cType="1" res="-9.4053847715258598e-03" rms="3.0869394540786743e-01" purity="7.8532117605209351e-01" nType="-99"/>
          </Node>
        </Node>
        <Node pos="r" depth="1" NCoef="0" IVar="9" Cut="-1.2001023292541504e+00" cType="1" res="1.0462213540449739e-03" rms="2.9482892155647278e-01" purity="5.0918608903884888e-01" nType="0">
          <Node pos="l" depth="2" NCoef="0" IVar="1" Cut="1.4941491699218750e+03" cType="1" res="-1.0516620241105556e-02" rms="2.9248449206352234e-01" purity="3.7617617845535278e-01" nType="0">
            <Node pos="l" depth="3" NCoef="0" IVar="-1" Cut="0.0000000000000000e+00" cType="1" res="-2.2041844204068184e-02" rms="2.7539753913879395e-01" purity="1.4522814750671387e-01" nType="-99"/>
            <Node pos="r" depth="3" NCoef="0" IVar="-1" Cut="0.0000000000000000e+00" cType="1" res="3.9407666772603989e-03" rms="3.1981438398361206e-01" purity="7.8246766328811646e-01" nType="-99"/>
          </Node>
          <Node pos="r" depth="2" NCoef="0" IVar="9" Cut="-6.2871360778808594e-01" cType="1" res="2.7439692057669163e-03" rms="2.9513344168663025e-01" purity="5.2871567010879517e-01" nType="0">
            <Node pos="l" depth="3" NCoef="0" IVar="-1" Cut="0.0000000000000000e+00" cType="1" res="2.0882228389382362e-02" rms="3.1258934736251831e-01" purity="5.7509416341781616e-01" nType="-99"/>
            <Node pos="r" depth="3" NCoef="0" IVar="-1" Cut="0.0000000000000000e+00" cType="1" res="-4.3420706060715020e-04" rms="2.9169738292694092e-01" purity="5.2017337083816528e-01" nType="-99"/>
          </Node>
        </Node>
      </Node>
    </BinaryTree>
    <BinaryTree type="DecisionTree" boostWeight="1.0000000000000000e+00" itree="715">
      <Node pos="s" depth="0" NCoef="0" IVar="10" Cut="2.2666635513305664e+00" cType="1" res="5.3413725254358724e-05" rms="2.9289731383323669e-01" purity="5.0116574764251709e-01" nType="0">
        <Node pos="l" depth="1" NCoef="0" IVar="10" Cut="8.1904447078704834e-01" cType="1" res="-5.9946725377812982e-04" rms="2.9215374588966370e-01" purity="5.0724703073501587e-01" nType="0">
          <Node pos="l" depth="2" NCoef="0" IVar="10" Cut="-1.4213088750839233e+00" cType="1" res="1.3870140537619591e-03" rms="2.9345017671585083e-01" purity="5.1741212606430054e-01" nType="0">
            <Node pos="l" depth="3" NCoef="0" IVar="-1" Cut="0.0000000000000000e+00" cType="1" res="-9.4105545431375504e-03" rms="2.9288858175277710e-01" purity="3.9012289047241211e-01" nType="-99"/>
            <Node pos="r" depth="3" NCoef="0" IVar="-1" Cut="0.0000000000000000e+00" cType="1" res="3.9270571433007717e-03" rms="2.9353004693984985e-01" purity="5.4502636194229126e-01" nType="-99"/>
          </Node>
          <Node pos="r" depth="2" NCoef="0" IVar="1" Cut="1.7003959960937500e+03" cType="1" res="-6.7878244444727898e-03" rms="2.8798979520797729e-01" purity="4.7558033466339111e-01" nType="0">
            <Node pos="l" depth="3" NCoef="0" IVar="-1" Cut="0.0000000000000000e+00" cType="1" res="-1.2968783266842365e-02" rms="3.0627736449241638e-01" purity="2.7388229966163635e-01" nType="-99"/>
            <Node pos="r" depth="3" NCoef="0" IVar="-1" Cut="0.0000000000000000e+00" cType="1" res="1.0578066110610962e-02" rms="2.4428053200244904e-01" purity="9.0253394842147827e-01" nType="-99"/>
          </Node>
        </Node>
        <Node pos="r" depth="1" NCoef="0" IVar="-1" Cut="0.0000000000000000e+00" cType="1" res="2.4631118401885033e-02" rms="3.1577572226524353e-01" purity="2.9976519942283630e-01" nType="-99"/>
      </Node>
    </BinaryTree>
    <BinaryTree type="DecisionTree" boostWeight="1.0000000000000000e+00" itree="716">
      <Node pos="s" depth="0" NCoef="0" IVar="8" Cut="6.6669124364852905e-01" cType="1" res="2.9016148764640093e-03" rms="2.9473882913589478e-01" purity="5.0482392311096191e-01" nType="0">
        <Node pos="l" depth="1" NCoef="0" IVar="10" Cut="-1.9999593496322632e+00" cType="1" res="4.7164148418232799e-04" rms="2.9262983798980713e-01" purity="5.3935074806213379e-01" nType="0">
          <Node pos="l" depth="2" NCoef="0" IVar="-1" Cut="0.0000000000000000e+00" cType="1" res="2.5941068306565285e-02" rms="3.1107410788536072e-01" purity="3.6357325315475464e-01" nType="-99"/>
          <Node pos="r" depth="2" NCoef="0" IVar="2" Cut="2.0501550287008286e-02" cType="1" res="-7.4970495188608766e-04" rms="2.9154661297798157e-01" purity="5.4888236522674561e-01" nType="0">
            <Node pos="l" depth="3" NCoef="0" IVar="-1" Cut="0.0000000000000000e+00" cType="1" res="-1.0541563853621483e-02" rms="2.7168256044387817e-01" purity="2.6782891154289246e-01" nType="-99"/>
            <Node pos="r" depth="3" NCoef="0" IVar="-1" Cut="0.0000000000000000e+00" cType="1" res="3.0153633560985327e-03" rms="3.0000808835029602e-01" purity="6.7561441659927368e-01" nType="-99"/>
          </Node>
        </Node>
        <Node pos="r" depth="1" NCoef="0" IVar="10" Cut="-1.4665251970291138e+00" cType="1" res="9.8055591806769371e-03" rms="3.0054286122322083e-01" purity="4.0672773122787476e-01" nType="0">
          <Node pos="l" depth="2" NCoef="0" IVar="-1" Cut="0.0000000000000000e+00" cType="1" res="-1.5054157935082912e-02" rms="2.7795520424842834e-01" purity="3.0463227629661560e-01" nType="-99"/>
          <Node pos="r" depth="2" NCoef="0" IVar="1" Cut="1.6228765869140625e+03" cType="1" res="1.2577680870890617e-02" rms="3.0304291844367981e-01" purity="4.1907456517219543e-01" nType="0">
            <Node pos="l" depth="3" NCoef="0" IVar="-1" Cut="0.0000000000000000e+00" cType="1" res="1.9264953210949898e-02" rms="3.0854523181915283e-01" purity="2.4036230146884918e-01" nType="-99"/>
            <Node pos="r" depth="3" NCoef="0" IVar="-1" Cut="0.0000000000000000e+00" cType="1" res="-8.6516450392082334e-04" rms="2.8917196393013000e-01" purity="8.4199881553649902e-01" nType="-99"/>
          </Node>
        </Node>
      </Node>
    </BinaryTree>
    <BinaryTree type="DecisionTree" boostWeight="1.0000000000000000e+00" itree="717">
      <Node pos="s" depth="0" NCoef="0" IVar="7" Cut="-6.5942943096160889e-01" cType="1" res="8.5560884326696396e-04" rms="2.9762756824493408e-01" purity="4.9980911612510681e-01" nType="0">
        <Node pos="l" depth="1" NCoef="0" IVar="8" Cut="-1.3343381881713867e-01" cType="1" res="1.0822068899869919e-02" rms="2.9332408308982849e-01" purity="3.5816663503646851e-01" nType="0">
          <Node pos="l" depth="2" NCoef="0" IVar="1" Cut="1.0237556152343750e+03" cType="1" res="1.9671138375997543e-02" rms="2.9631990194320679e-01" purity="3.5428428649902344e-01" nType="0">
            <Node pos="l" depth="3" NCoef="0" IVar="-1" Cut="0.0000000000000000e+00" cType="1" res="-6.7607630044221878e-03" rms="1.4510820806026459e-01" purity="2.6242211461067200e-02" nType="-99"/>
            <Node pos="r" depth="3" NCoef="0" IVar="-1" Cut="0.0000000000000000e+00" cType="1" res="2.5142954662442207e-02" rms="3.3213496208190918e-01" purity="4.6592658758163452e-01" nType="-99"/>
          </Node>
          <Node pos="r" depth="2" NCoef="0" IVar="8" Cut="8.4426629543304443e-01" cType="1" res="1.6846684738993645e-03" rms="2.8991490602493286e-01" purity="3.6217540502548218e-01" nType="0">
            <Node pos="l" depth="3" NCoef="0" IVar="-1" Cut="0.0000000000000000e+00" cType="1" res="-6.9521521218121052e-03" rms="2.9118722677230835e-01" purity="4.6084985136985779e-01" nType="-99"/>
            <Node pos="r" depth="3" NCoef="0" IVar="-1" Cut="0.0000000000000000e+00" cType="1" res="1.7770592123270035e-02" rms="2.8771999478340149e-01" purity="2.2345383465290070e-01" nType="-99"/>
          </Node>
        </Node>
        <Node pos="r" depth="1" NCoef="0" IVar="9" Cut="-2.0000095367431641e+00" cType="1" res="-2.1893184166401625e-03" rms="2.9886370897293091e-01" purity="5.4308336973190308e-01" nType="0">
          <Node pos="l" depth="2" NCoef="0" IVar="-1" Cut="0.0000000000000000e+00" cType="1" res="-2.4209545925259590e-02" rms="2.7163323760032654e-01" purity="2.4629259109497070e-01" nType="-99"/>
          <Node pos="r" depth="2" NCoef="0" IVar="9" Cut="9.7133773565292358e-01" cType="1" res="-1.4620276633650064e-03" rms="2.9984849691390991e-01" purity="5.5461770296096802e-01" nType="0">
            <Node pos="l" depth="3" NCoef="0" IVar="-1" Cut="0.0000000000000000e+00" cType="1" res="5.0244614249095321e-04" rms="2.9890015721321106e-01" purity="5.9052288532257080e-01" nType="-99"/>
            <Node pos="r" depth="3" NCoef="0" IVar="-1" Cut="0.0000000000000000e+00" cType="1" res="-9.2455111443996429e-03" rms="3.0322799086570740e-01" purity="4.2172932624816895e-01" nType="-99"/>
          </Node>
        </Node>
      </Node>
    </BinaryTree>
    <BinaryTree type="DecisionTree" boostWeight="1.0000000000000000e+00" itree="718">
      <Node pos="s" depth="0" NCoef="0" IVar="6" Cut="8.5090904235839844e+01" cType="1" res="-1.5561326290480793e-04" rms="2.9621261358261108e-01" purity="5.0339776277542114e-01" nType="0">
        <Node pos="l" depth="1" NCoef="0" IVar="8" Cut="-1.2000290155410767e+00" cType="1" res="3.1912054400891066e-03" rms="2.9601359367370605e-01" purity="2.4748285114765167e-01" nType="0">
          <Node pos="l" depth="2" NCoef="0" IVar="1" Cut="1.0198077392578125e+03" cType="1" res="-9.0373875573277473e-03" rms="2.4790330231189728e-01" purity="1.0507262498140335e-01" nType="0">
            <Node pos="l" depth="3" NCoef="0" IVar="-1" Cut="0.0000000000000000e+00" cType="1" res="4.4069651514291763e-02" rms="1.6418682038784027e-01" purity="2.8534064069390297e-02" nType="-99"/>
            <Node pos="r" depth="3" NCoef="0" IVar="-1" Cut="0.0000000000000000e+00" cType="1" res="-2.3366577923297882e-02" rms="2.9473629593849182e-01" purity="1.6233804821968079e-01" nType="-99"/>
          </Node>
          <Node pos="r" depth="2" NCoef="0" IVar="8" Cut="-4.3813437223434448e-01" cType="1" res="5.4968618787825108e-03" rms="3.0417826771736145e-01" purity="2.7433377504348755e-01" nType="0">
            <Node pos="l" depth="3" NCoef="0" IVar="-1" Cut="0.0000000000000000e+00" cType="1" res="1.8044203519821167e-02" rms="3.2759323716163635e-01" purity="3.1044980883598328e-01" nType="-99"/>
            <Node pos="r" depth="3" NCoef="0" IVar="-1" Cut="0.0000000000000000e+00" cType="1" res="1.7463375115767121e-03" rms="2.9625877737998962e-01" purity="2.6288235187530518e-01" nType="-99"/>
          </Node>
        </Node>
        <Node pos="r" depth="1" NCoef="0" IVar="1" Cut="1.4303021240234375e+03" cType="1" res="-3.0990946106612682e-03" rms="2.9635629057884216e-01" purity="7.2847139835357666e-01" nType="0">
          <Node pos="l" depth="2" NCoef="0" IVar="1" Cut="1.1005227050781250e+03" cType="1" res="-1.0754703544080257e-02" rms="3.7511193752288818e-01" purity="3.2721427083015442e-01" nType="0">
            <Node pos="l" depth="3" NCoef="0" IVar="-1" Cut="0.0000000000000000e+00" cType="1" res="2.2440845146775246e-02" rms="2.9846486449241638e-01" purity="1.2810492515563965e-01" nType="-99"/>
            <Node pos="r" depth="3" NCoef="0" IVar="-1" Cut="0.0000000000000000e+00" cType="1" res="-1.2622401118278503e-02" rms="3.9690417051315308e-01" purity="3.9362004399299622e-01" nType="-99"/>
          </Node>
          <Node pos="r" depth="2" NCoef="0" IVar="7" Cut="-8.6101406812667847e-01" cType="1" res="-1.6780431906227022e-04" rms="2.5989964604377747e-01" purity="8.8211053609848022e-01" nType="0">
            <Node pos="l" depth="3" NCoef="0" IVar="-1" Cut="0.0000000000000000e+00" cType="1" res="-1.1914697475731373e-02" rms="3.2102903723716736e-01" purity="7.4321883916854858e-01" nType="-99"/>
            <Node pos="r" depth="3" NCoef="0" IVar="-1" Cut="0.0000000000000000e+00" cType="1" res="1.9410261884331703e-03" rms="2.5192338228225708e-01" purity="8.9800339937210083e-01" nType="-99"/>
          </Node>
        </Node>
      </Node>
    </BinaryTree>
    <BinaryTree type="DecisionTree" boostWeight="1.0000000000000000e+00" itree="719">
      <Node pos="s" depth="0" NCoef="0" IVar="8" Cut="9.3329304456710815e-01" cType="1" res="1.0231850901618600e-03" rms="2.9523694515228271e-01" purity="5.0038373470306396e-01" nType="0">
        <Node pos="l" depth="1" NCoef="0" IVar="8" Cut="-1.3333971798419952e-01" cType="1" res="2.3569485638290644e-03" rms="2.9645571112632751e-01" purity="5.4095602035522461e-01" nType="0">
          <Node pos="l" depth="2" NCoef="0" IVar="9" Cut="1.1997489929199219e+00" cType="1" res="-1.9735037349164486e-03" rms="2.9355788230895996e-01" purity="4.8577377200126648e-01" nType="0">
            <Node pos="l" depth="3" NCoef="0" IVar="-1" Cut="0.0000000000000000e+00" cType="1" res="7.8575831139460206e-04" rms="2.9401090741157532e-01" purity="5.0902283191680908e-01" nType="-99"/>
            <Node pos="r" depth="3" NCoef="0" IVar="-1" Cut="0.0000000000000000e+00" cType="1" res="-2.1615816280245781e-02" rms="2.8979599475860596e-01" purity="3.2724234461784363e-01" nType="-99"/>
          </Node>
          <Node pos="r" depth="2" NCoef="0" IVar="3" Cut="3.3999197387695312e+02" cType="1" res="7.6633854769170284e-03" rms="2.9988327622413635e-01" purity="6.0857498645782471e-01" nType="0">
            <Node pos="l" depth="3" NCoef="0" IVar="-1" Cut="0.0000000000000000e+00" cType="1" res="1.9934095442295074e-02" rms="3.3313757181167603e-01" purity="3.6107805371284485e-01" nType="-99"/>
            <Node pos="r" depth="3" NCoef="0" IVar="-1" Cut="0.0000000000000000e+00" cType="1" res="2.3202910088002682e-03" rms="2.8323400020599365e-01" purity="7.2147613763809204e-01" nType="-99"/>
          </Node>
        </Node>
        <Node pos="r" depth="1" NCoef="0" IVar="3" Cut="5.3362689208984375e+02" cType="1" res="-4.7402423806488514e-03" rms="2.8984087705612183e-01" purity="3.2506382465362549e-01" nType="0">
          <Node pos="l" depth="2" NCoef="0" IVar="0" Cut="3.6826184082031250e+02" cType="1" res="-1.1576371267437935e-02" rms="2.7892127633094788e-01" purity="2.5358095765113831e-01" nType="0">
            <Node pos="l" depth="3" NCoef="0" IVar="-1" Cut="0.0000000000000000e+00" cType="1" res="-6.2425192445516586e-03" rms="2.3340237140655518e-01" purity="9.3697220087051392e-02" nType="-99"/>
            <Node pos="r" depth="3" NCoef="0" IVar="-1" Cut="0.0000000000000000e+00" cType="1" res="-1.7476847395300865e-02" rms="3.0780079960823059e-01" purity="3.7028729915618896e-01" nType="-99"/>
          </Node>
          <Node pos="r" depth="2" NCoef="0" IVar="-1" Cut="0.0000000000000000e+00" cType="1" res="2.2688649594783783e-02" rms="3.3161503076553345e-01" purity="6.3641166687011719e-01" nType="-99"/>
        </Node>
      </Node>
    </BinaryTree>
    <BinaryTree type="DecisionTree" boostWeight="1.0000000000000000e+00" itree="720">
      <Node pos="s" depth="0" NCoef="0" IVar="9" Cut="1.7333102226257324e+00" cType="1" res="1.4624352334067225e-03" rms="2.9585701227188110e-01" purity="5.0362908840179443e-01" nType="0">
        <Node pos="l" depth="1" NCoef="0" IVar="9" Cut="1.3015279769897461e+00" cType="1" res="2.5098125915974379e-03" rms="2.9722350835800171e-01" purity="5.2234756946563721e-01" nType="0">
          <Node pos="l" depth="2" NCoef="0" IVar="10" Cut="-1.1998238563537598e+00" cType="1" res="1.3509069103747606e-03" rms="2.9553037881851196e-01" purity="5.2915316820144653e-01" nType="0">
            <Node pos="l" depth="3" NCoef="0" IVar="-1" Cut="0.0000000000000000e+00" cType="1" res="9.8073380067944527e-03" rms="3.0656120181083679e-01" purity="4.5554074645042419e-01" nType="-99"/>
            <Node pos="r" depth="3" NCoef="0" IVar="-1" Cut="0.0000000000000000e+00" cType="1" res="-3.4501362824812531e-04" rms="2.9303035140037537e-01" purity="5.4529279470443726e-01" nType="-99"/>
          </Node>
          <Node pos="r" depth="2" NCoef="0" IVar="8" Cut="4.0146461129188538e-01" cType="1" res="1.8211465328931808e-02" rms="3.1886461377143860e-01" purity="4.3014124035835266e-01" nType="0">
            <Node pos="l" depth="3" NCoef="0" IVar="-1" Cut="0.0000000000000000e+00" cType="1" res="3.2064657658338547e-02" rms="3.3315727114677429e-01" purity="4.9493059515953064e-01" nType="-99"/>
            <Node pos="r" depth="3" NCoef="0" IVar="-1" Cut="0.0000000000000000e+00" cType="1" res="-4.5384112745523453e-03" rms="2.9570505023002625e-01" purity="3.3704644441604614e-01" nType="-99"/>
          </Node>
        </Node>
        <Node pos="r" depth="1" NCoef="0" IVar="0" Cut="4.2254461669921875e+02" cType="1" res="-1.3795660808682442e-02" rms="2.7472919225692749e-01" purity="2.3093904554843903e-01" nType="0">
          <Node pos="l" depth="2" NCoef="0" IVar="-1" Cut="0.0000000000000000e+00" cType="1" res="-5.4888078011572361e-03" rms="2.2402344644069672e-01" purity="8.2771763205528259e-02" nType="-99"/>
          <Node pos="r" depth="2" NCoef="0" IVar="-1" Cut="0.0000000000000000e+00" cType="1" res="-2.5941239669919014e-02" rms="3.3335933089256287e-01" purity="4.4214192032814026e-01" nType="-99"/>
        </Node>
      </Node>
    </BinaryTree>
    <BinaryTree type="DecisionTree" boostWeight="1.0000000000000000e+00" itree="721">
      <Node pos="s" depth="0" NCoef="0" IVar="1" Cut="1.4400612792968750e+03" cType="1" res="1.3887201203033328e-03" rms="2.9839292168617249e-01" purity="4.9840068817138672e-01" nType="0">
        <Node pos="l" depth="1" NCoef="0" IVar="6" Cut="8.7978004455566406e+01" cType="1" res="5.0619230605661869e-03" rms="3.0828604102134705e-01" purity="1.8725739419460297e-01" nType="0">
          <Node pos="l" depth="2" NCoef="0" IVar="4" Cut="2.6346014404296875e+02" cType="1" res="1.3289618073031306e-03" rms="2.6993519067764282e-01" purity="1.1672200262546539e-01" nType="0">
            <Node pos="l" depth="3" NCoef="0" IVar="-1" Cut="0.0000000000000000e+00" cType="1" res="4.9821357242763042e-03" rms="2.6049855351448059e-01" purity="1.0417217761278152e-01" nType="-99"/>
            <Node pos="r" depth="3" NCoef="0" IVar="-1" Cut="0.0000000000000000e+00" cType="1" res="-1.5493797138333321e-02" rms="3.5901561379432678e-01" purity="2.5861793756484985e-01" nType="-99"/>
          </Node>
          <Node pos="r" depth="2" NCoef="0" IVar="2" Cut="6.0125317424535751e-02" cType="1" res="1.4861715026199818e-02" rms="3.9130845665931702e-01" purity="3.7242734432220459e-01" nType="0">
            <Node pos="l" depth="3" NCoef="0" IVar="-1" Cut="0.0000000000000000e+00" cType="1" res="2.0649181678891182e-02" rms="3.6999318003654480e-01" purity="2.6773840188980103e-01" nType="-99"/>
            <Node pos="r" depth="3" NCoef="0" IVar="-1" Cut="0.0000000000000000e+00" cType="1" res="-3.5741843748837709e-03" rms="4.2613133788108826e-01" purity="5.6071799993515015e-01" nType="-99"/>
          </Node>
        </Node>
        <Node pos="r" depth="1" NCoef="0" IVar="6" Cut="8.1792213439941406e+01" cType="1" res="-2.5415213312953711e-03" rms="2.8737866878509521e-01" purity="8.3131670951843262e-01" nType="0">
          <Node pos="l" depth="2" NCoef="0" IVar="9" Cut="6.6636520624160767e-01" cType="1" res="-1.2455067597329617e-02" rms="3.6695557832717896e-01" purity="6.4854121208190918e-01" nType="0">
            <Node pos="l" depth="3" NCoef="0" IVar="-1" Cut="0.0000000000000000e+00" cType="1" res="-1.4117220416665077e-02" rms="3.5749265551567078e-01" purity="6.6262453794479370e-01" nType="-99"/>
            <Node pos="r" depth="3" NCoef="0" IVar="-1" Cut="0.0000000000000000e+00" cType="1" res="2.4502838496118784e-03" rms="3.9078989624977112e-01" purity="6.1071532964706421e-01" nType="-99"/>
          </Node>
          <Node pos="r" depth="2" NCoef="0" IVar="7" Cut="-5.7700133323669434e-01" cType="1" res="-7.9466526585747488e-06" rms="2.6314941048622131e-01" purity="8.7802809476852417e-01" nType="0">
            <Node pos="l" depth="3" NCoef="0" IVar="-1" Cut="0.0000000000000000e+00" cType="1" res="-8.2162236794829369e-03" rms="3.0742001533508301e-01" purity="8.0490034818649292e-01" nType="-99"/>
            <Node pos="r" depth="3" NCoef="0" IVar="-1" Cut="0.0000000000000000e+00" cType="1" res="2.8853670228272676e-03" rms="2.5112894177436829e-01" purity="8.9587414264678955e-01" nType="-99"/>
          </Node>
        </Node>
      </Node>
    </BinaryTree>
    <BinaryTree type="DecisionTree" boostWeight="1.0000000000000000e+00" itree="722">
      <Node pos="s" depth="0" NCoef="0" IVar="7" Cut="6.7089605331420898e-01" cType="1" res="-1.1373362503945827e-03" rms="2.9609853029251099e-01" purity="4.9732324481010437e-01" nType="0">
        <Node pos="l" depth="1" NCoef="0" IVar="7" Cut="-3.1753918528556824e-01" cType="1" res="6.9039780646562576e-04" rms="2.9931083321571350e-01" purity="5.4492133855819702e-01" nType="0">
          <Node pos="l" depth="2" NCoef="0" IVar="7" Cut="-6.7056250572204590e-01" cType="1" res="-3.5047011915594339e-03" rms="2.9484906792640686e-01" purity="4.3504628539085388e-01" nType="0">
            <Node pos="l" depth="3" NCoef="0" IVar="-1" Cut="0.0000000000000000e+00" cType="1" res="2.1923626773059368e-03" rms="2.9162752628326416e-01" purity="3.3916753530502319e-01" nType="-99"/>
            <Node pos="r" depth="3" NCoef="0" IVar="-1" Cut="0.0000000000000000e+00" cType="1" res="-1.3537661172449589e-02" rms="3.0003887414932251e-01" purity="5.9843713045120239e-01" nType="-99"/>
          </Node>
          <Node pos="r" depth="2" NCoef="0" IVar="10" Cut="1.7333254814147949e+00" cType="1" res="4.3187541887164116e-03" rms="3.0307000875473022e-01" purity="6.3995260000228882e-01" nType="0">
            <Node pos="l" depth="3" NCoef="0" IVar="-1" Cut="0.0000000000000000e+00" cType="1" res="2.9051750898361206e-03" rms="2.9927599430084229e-01" purity="6.5032935142517090e-01" nType="-99"/>
            <Node pos="r" depth="3" NCoef="0" IVar="-1" Cut="0.0000000000000000e+00" cType="1" res="2.3077102378010750e-02" rms="3.4609130024909973e-01" purity="5.1099073886871338e-01" nType="-99"/>
          </Node>
        </Node>
        <Node pos="r" depth="1" NCoef="0" IVar="6" Cut="7.7054916381835938e+01" cType="1" res="-7.3504173196852207e-03" rms="2.8482049703598022e-01" purity="3.3552160859107971e-01" nType="0">
          <Node pos="l" depth="2" NCoef="0" IVar="10" Cut="3.9998915791511536e-01" cType="1" res="3.6860401742160320e-03" rms="2.5259169936180115e-01" purity="1.3372887670993805e-01" nType="0">
            <Node pos="l" depth="3" NCoef="0" IVar="-1" Cut="0.0000000000000000e+00" cType="1" res="1.7862269654870033e-02" rms="2.6829347014427185e-01" purity="1.5597657859325409e-01" nType="-99"/>
            <Node pos="r" depth="3" NCoef="0" IVar="-1" Cut="0.0000000000000000e+00" cType="1" res="-1.0547549463808537e-02" rms="2.3309759795665741e-01" purity="1.0844398289918900e-01" nType="-99"/>
          </Node>
          <Node pos="r" depth="2" NCoef="0" IVar="4" Cut="2.1063996887207031e+02" cType="1" res="-1.7403779551386833e-02" rms="3.1094697117805481e-01" purity="5.1933920383453369e-01" nType="0">
            <Node pos="l" depth="3" NCoef="0" IVar="-1" Cut="0.0000000000000000e+00" cType="1" res="-3.0287701636552811e-02" rms="2.9181754589080811e-01" purity="2.0057260990142822e-01" nType="-99"/>
            <Node pos="r" depth="3" NCoef="0" IVar="-1" Cut="0.0000000000000000e+00" cType="1" res="-9.5542678609490395e-03" rms="3.2075935602188110e-01" purity="6.9524222612380981e-01" nType="-99"/>
          </Node>
        </Node>
      </Node>
    </BinaryTree>
    <BinaryTree type="DecisionTree" boostWeight="1.0000000000000000e+00" itree="723">
      <Node pos="s" depth="0" NCoef="0" IVar="8" Cut="1.9999140501022339e+00" cType="1" res="-2.1622965577989817e-03" rms="2.9243728518486023e-01" purity="5.0023168325424194e-01" nType="0">
        <Node pos="l" depth="1" NCoef="0" IVar="8" Cut="-9.7138124704360962e-01" cType="1" res="-2.7222251519560814e-03" rms="2.9396808147430420e-01" purity="5.1359301805496216e-01" nType="0">
          <Node pos="l" depth="2" NCoef="0" IVar="9" Cut="-3.9958357810974121e-01" cType="1" res="-8.4872283041477203e-03" rms="2.8704124689102173e-01" purity="3.2659819722175598e-01" nType="0">
            <Node pos="l" depth="3" NCoef="0" IVar="-1" Cut="0.0000000000000000e+00" cType="1" res="1.1859484948217869e-03" rms="2.8558570146560669e-01" purity="2.9360273480415344e-01" nType="-99"/>
            <Node pos="r" depth="3" NCoef="0" IVar="-1" Cut="0.0000000000000000e+00" cType="1" res="-1.8084697425365448e-02" rms="2.8795266151428223e-01" purity="3.5229992866516113e-01" nType="-99"/>
          </Node>
          <Node pos="r" depth="2" NCoef="0" IVar="10" Cut="-6.6667181253433228e-01" cType="1" res="-1.4348517870530486e-03" rms="2.9547736048698425e-01" purity="5.5535054206848145e-01" nType="0">
            <Node pos="l" depth="3" NCoef="0" IVar="-1" Cut="0.0000000000000000e+00" cType="1" res="-6.6601745784282684e-03" rms="2.9803159832954407e-01" purity="5.3595852851867676e-01" nType="-99"/>
            <Node pos="r" depth="3" NCoef="0" IVar="-1" Cut="0.0000000000000000e+00" cType="1" res="5.3777592256665230e-04" rms="2.9439744353294373e-01" purity="5.6333881616592407e-01" nType="-99"/>
          </Node>
        </Node>
        <Node pos="r" depth="1" NCoef="0" IVar="-1" Cut="0.0000000000000000e+00" cType="1" res="3.0290326103568077e-02" rms="2.4162080883979797e-01" purity="1.0059449076652527e-01" nType="-99"/>
      </Node>
    </BinaryTree>
    <BinaryTree type="DecisionTree" boostWeight="1.0000000000000000e+00" itree="724">
      <Node pos="s" depth="0" NCoef="0" IVar="10" Cut="-1.9999939203262329e+00" cType="1" res="2.2052160929888487e-03" rms="2.9738196730613708e-01" purity="4.9908226728439331e-01" nType="0">
        <Node pos="l" depth="1" NCoef="0" IVar="5" Cut="1.2062551879882812e+02" cType="1" res="1.8398063257336617e-02" rms="3.0905857682228088e-01" purity="3.5856744647026062e-01" nType="0">
          <Node pos="l" depth="2" NCoef="0" IVar="-1" Cut="0.0000000000000000e+00" cType="1" res="9.5372898504137993e-03" rms="2.6129236817359924e-01" purity="1.4581458270549774e-01" nType="-99"/>
          <Node pos="r" depth="2" NCoef="0" IVar="-1" Cut="0.0000000000000000e+00" cType="1" res="2.7592090889811516e-02" rms="3.5384368896484375e-01" purity="5.9292167425155640e-01" nType="-99"/>
        </Node>
        <Node pos="r" depth="1" NCoef="0" IVar="9" Cut="4.0000018477439880e-01" cType="1" res="1.2743955012410879e-03" rms="2.9666993021965027e-01" purity="5.0715959072113037e-01" nType="0">
          <Node pos="l" depth="2" NCoef="0" IVar="1" Cut="1.1148192138671875e+03" cType="1" res="-1.3570958981290460e-03" rms="2.9121410846710205e-01" purity="5.2997213602066040e-01" nType="0">
            <Node pos="l" depth="3" NCoef="0" IVar="-1" Cut="0.0000000000000000e+00" cType="1" res="1.4848529361188412e-02" rms="2.2868037223815918e-01" purity="6.6635258495807648e-02" nType="-99"/>
            <Node pos="r" depth="3" NCoef="0" IVar="-1" Cut="0.0000000000000000e+00" cType="1" res="-4.2850226163864136e-03" rms="3.0925041437149048e-01" purity="6.8479901552200317e-01" nType="-99"/>
          </Node>
          <Node pos="r" depth="2" NCoef="0" IVar="7" Cut="9.3701165914535522e-01" cType="1" res="5.8608367107808590e-03" rms="3.0589237809181213e-01" purity="4.6739932894706726e-01" nType="0">
            <Node pos="l" depth="3" NCoef="0" IVar="-1" Cut="0.0000000000000000e+00" cType="1" res="9.9396901205182076e-03" rms="3.1492805480957031e-01" purity="5.2685821056365967e-01" nType="-99"/>
            <Node pos="r" depth="3" NCoef="0" IVar="-1" Cut="0.0000000000000000e+00" cType="1" res="-1.3191289268434048e-02" rms="2.6216888427734375e-01" purity="2.0722945034503937e-01" nType="-99"/>
          </Node>
        </Node>
      </Node>
    </BinaryTree>
    <BinaryTree type="DecisionTree" boostWeight="1.0000000000000000e+00" itree="725">
      <Node pos="s" depth="0" NCoef="0" IVar="10" Cut="1.3333150744438171e-01" cType="1" res="3.3848085440695286e-03" rms="2.9765331745147705e-01" purity="5.0669717788696289e-01" nType="0">
        <Node pos="l" depth="1" NCoef="0" IVar="0" Cut="4.2781573486328125e+02" cType="1" res="-1.2329898308962584e-03" rms="2.9564514756202698e-01" purity="5.0120359659194946e-01" nType="0">
          <Node pos="l" depth="2" NCoef="0" IVar="9" Cut="6.6670238971710205e-01" cType="1" res="3.1033025588840246e-03" rms="3.0034536123275757e-01" purity="2.1824392676353455e-01" nType="0">
            <Node pos="l" depth="3" NCoef="0" IVar="-1" Cut="0.0000000000000000e+00" cType="1" res="-2.3223396856337786e-03" rms="2.9183977842330933e-01" purity="2.1754485368728638e-01" nType="-99"/>
            <Node pos="r" depth="3" NCoef="0" IVar="-1" Cut="0.0000000000000000e+00" cType="1" res="1.7867073416709900e-02" rms="3.2194057106971741e-01" purity="2.2014734148979187e-01" nType="-99"/>
          </Node>
          <Node pos="r" depth="2" NCoef="0" IVar="5" Cut="1.4374237060546875e+02" cType="1" res="-4.7984491102397442e-03" rms="2.9167541861534119e-01" purity="7.3386347293853760e-01" nType="0">
            <Node pos="l" depth="3" NCoef="0" IVar="-1" Cut="0.0000000000000000e+00" cType="1" res="-1.1645896360278130e-02" rms="3.5612863302230835e-01" purity="4.3339857459068298e-01" nType="-99"/>
            <Node pos="r" depth="3" NCoef="0" IVar="-1" Cut="0.0000000000000000e+00" cType="1" res="1.0081598302349448e-03" rms="2.5106894969940186e-01" purity="8.9183902740478516e-01" nType="-99"/>
          </Node>
        </Node>
        <Node pos="r" depth="1" NCoef="0" IVar="10" Cut="1.2761886119842529e+00" cType="1" res="8.6230849847197533e-03" rms="2.9982900619506836e-01" purity="5.1292902231216431e-01" nType="0">
          <Node pos="l" depth="2" NCoef="0" IVar="9" Cut="-1.4663664102554321e+00" cType="1" res="1.3050070963799953e-02" rms="3.0137503147125244e-01" purity="5.5963301658630371e-01" nType="0">
            <Node pos="l" depth="3" NCoef="0" IVar="-1" Cut="0.0000000000000000e+00" cType="1" res="4.0858428925275803e-02" rms="3.2268434762954712e-01" purity="4.0958347916603088e-01" nType="-99"/>
            <Node pos="r" depth="3" NCoef="0" IVar="-1" Cut="0.0000000000000000e+00" cType="1" res="1.1955371126532555e-02" rms="2.9899615049362183e-01" purity="5.7486373186111450e-01" nType="-99"/>
          </Node>
          <Node pos="r" depth="2" NCoef="0" IVar="9" Cut="-9.3307471275329590e-01" cType="1" res="1.1721862392732874e-05" rms="2.9660934209823608e-01" purity="4.2208051681518555e-01" nType="0">
            <Node pos="l" depth="3" NCoef="0" IVar="-1" Cut="0.0000000000000000e+00" cType="1" res="-2.4628883227705956e-02" rms="2.8608852624893188e-01" purity="3.0951792001724243e-01" nType="-99"/>
            <Node pos="r" depth="3" NCoef="0" IVar="-1" Cut="0.0000000000000000e+00" cType="1" res="5.4856124334037304e-03" rms="2.9865610599517822e-01" purity="4.4688385725021362e-01" nType="-99"/>
          </Node>
        </Node>
      </Node>
    </BinaryTree>
    <BinaryTree type="DecisionTree" boostWeight="1.0000000000000000e+00" itree="726">
      <Node pos="s" depth="0" NCoef="0" IVar="7" Cut="-9.2584401369094849e-01" cType="1" res="1.0430294787511230e-03" rms="2.9682958126068115e-01" purity="5.0209653377532959e-01" nType="0">
        <Node pos="l" depth="1" NCoef="0" IVar="2" Cut="1.3058683834969997e-02" cType="1" res="-1.0133223608136177e-02" rms="2.7294066548347473e-01" purity="2.3951075971126556e-01" nType="0">
          <Node pos="l" depth="2" NCoef="0" IVar="0" Cut="4.1387500000000000e+02" cType="1" res="2.9219712596386671e-03" rms="2.1590568125247955e-01" purity="1.0367131978273392e-01" nType="0">
            <Node pos="l" depth="3" NCoef="0" IVar="-1" Cut="0.0000000000000000e+00" cType="1" res="-2.8162427246570587e-02" rms="1.3326941430568695e-01" purity="2.4317499250173569e-02" nType="-99"/>
            <Node pos="r" depth="3" NCoef="0" IVar="-1" Cut="0.0000000000000000e+00" cType="1" res="2.0152809098362923e-02" rms="3.0814683437347412e-01" purity="2.3788335919380188e-01" nType="-99"/>
          </Node>
          <Node pos="r" depth="2" NCoef="0" IVar="8" Cut="1.2767180800437927e-01" cType="1" res="-2.2065112367272377e-02" rms="3.1572270393371582e-01" purity="3.6366221308708191e-01" nType="0">
            <Node pos="l" depth="3" NCoef="0" IVar="-1" Cut="0.0000000000000000e+00" cType="1" res="-3.3513437956571579e-02" rms="3.0932739377021790e-01" purity="3.5892349481582642e-01" nType="-99"/>
            <Node pos="r" depth="3" NCoef="0" IVar="-1" Cut="0.0000000000000000e+00" cType="1" res="-6.0660224407911301e-03" rms="3.2363426685333252e-01" purity="3.7016621232032776e-01" nType="-99"/>
          </Node>
        </Node>
        <Node pos="r" depth="1" NCoef="0" IVar="9" Cut="3.9998826384544373e-01" cType="1" res="3.0052873771637678e-03" rms="3.0078527331352234e-01" purity="5.4819971323013306e-01" nType="0">
          <Node pos="l" depth="2" NCoef="0" IVar="0" Cut="4.3640087890625000e+02" cType="1" res="6.6337776370346546e-03" rms="3.0149009823799133e-01" purity="5.7473260164260864e-01" nType="0">
            <Node pos="l" depth="3" NCoef="0" IVar="-1" Cut="0.0000000000000000e+00" cType="1" res="1.4238346368074417e-02" rms="3.2808378338813782e-01" purity="2.8486788272857666e-01" nType="-99"/>
            <Node pos="r" depth="3" NCoef="0" IVar="-1" Cut="0.0000000000000000e+00" cType="1" res="8.5952290100976825e-04" rms="2.7976670861244202e-01" purity="7.9191714525222778e-01" nType="-99"/>
          </Node>
          <Node pos="r" depth="2" NCoef="0" IVar="8" Cut="4.0008845925331116e-01" cType="1" res="-3.1407102942466736e-03" rms="2.9948738217353821e-01" purity="5.0325775146484375e-01" nType="0">
            <Node pos="l" depth="3" NCoef="0" IVar="-1" Cut="0.0000000000000000e+00" cType="1" res="3.0844744760543108e-03" rms="3.0641952157020569e-01" purity="5.5574142932891846e-01" nType="-99"/>
            <Node pos="r" depth="3" NCoef="0" IVar="-1" Cut="0.0000000000000000e+00" cType="1" res="-1.4084984548389912e-02" rms="2.8825154900550842e-01" purity="4.2249241471290588e-01" nType="-99"/>
          </Node>
        </Node>
      </Node>
    </BinaryTree>
    <BinaryTree type="DecisionTree" boostWeight="1.0000000000000000e+00" itree="727">
      <Node pos="s" depth="0" NCoef="0" IVar="9" Cut="-6.6670173406600952e-01" cType="1" res="-1.9428009400144219e-03" rms="2.9535800218582153e-01" purity="5.0029158592224121e-01" nType="0">
        <Node pos="l" depth="1" NCoef="0" IVar="10" Cut="1.3313475251197815e-01" cType="1" res="-8.0045908689498901e-03" rms="2.9923880100250244e-01" purity="4.2032188177108765e-01" nType="0">
          <Node pos="l" depth="2" NCoef="0" IVar="9" Cut="-9.7146368026733398e-01" cType="1" res="-1.0022002970799804e-03" rms="2.9956167936325073e-01" purity="4.1148456931114197e-01" nType="0">
            <Node pos="l" depth="3" NCoef="0" IVar="-1" Cut="0.0000000000000000e+00" cType="1" res="-6.7174308933317661e-03" rms="2.9920759797096252e-01" purity="3.5776877403259277e-01" nType="-99"/>
            <Node pos="r" depth="3" NCoef="0" IVar="-1" Cut="0.0000000000000000e+00" cType="1" res="1.2284752912819386e-02" rms="3.0009043216705322e-01" purity="5.4639923572540283e-01" nType="-99"/>
          </Node>
          <Node pos="r" depth="2" NCoef="0" IVar="6" Cut="9.0538917541503906e+01" cType="1" res="-1.8225107342004776e-02" rms="2.9847219586372375e-01" purity="4.3322059512138367e-01" nType="0">
            <Node pos="l" depth="3" NCoef="0" IVar="-1" Cut="0.0000000000000000e+00" cType="1" res="-3.2023716717958450e-02" rms="2.7544543147087097e-01" purity="2.0380038022994995e-01" nType="-99"/>
            <Node pos="r" depth="3" NCoef="0" IVar="-1" Cut="0.0000000000000000e+00" cType="1" res="-6.6308649256825447e-03" rms="3.2399269938468933e-01" purity="7.1324896812438965e-01" nType="-99"/>
          </Node>
        </Node>
        <Node pos="r" depth="1" NCoef="0" IVar="9" Cut="-3.3654779195785522e-01" cType="1" res="3.7008168874308467e-04" rms="2.9383081197738647e-01" purity="5.3080409765243530e-01" nType="0">
          <Node pos="l" depth="2" NCoef="0" IVar="8" Cut="3.9841595292091370e-01" cType="1" res="8.7067550048232079e-03" rms="2.9269468784332275e-01" purity="5.9740662574768066e-01" nType="0">
            <Node pos="l" depth="3" NCoef="0" IVar="-1" Cut="0.0000000000000000e+00" cType="1" res="1.1032486800104380e-03" rms="2.8262355923652649e-01" purity="6.0453385114669800e-01" nType="-99"/>
            <Node pos="r" depth="3" NCoef="0" IVar="-1" Cut="0.0000000000000000e+00" cType="1" res="2.4804886430501938e-02" rms="3.1146395206451416e-01" purity="5.8300513029098511e-01" nType="-99"/>
          </Node>
          <Node pos="r" depth="2" NCoef="0" IVar="4" Cut="1.3603315734863281e+02" cType="1" res="-1.0696722893044353e-03" rms="2.9400262236595154e-01" purity="5.1930177211761475e-01" nType="0">
            <Node pos="l" depth="3" NCoef="0" IVar="-1" Cut="0.0000000000000000e+00" cType="1" res="-1.9602328538894653e-02" rms="2.0791547000408173e-01" purity="6.3480511307716370e-02" nType="-99"/>
            <Node pos="r" depth="3" NCoef="0" IVar="-1" Cut="0.0000000000000000e+00" cType="1" res="6.7251513246446848e-04" rms="3.0771157145500183e-01" purity="6.0651206970214844e-01" nType="-99"/>
          </Node>
        </Node>
      </Node>
    </BinaryTree>
    <BinaryTree type="DecisionTree" boostWeight="1.0000000000000000e+00" itree="728">
      <Node pos="s" depth="0" NCoef="0" IVar="2" Cut="4.2657312005758286e-02" cType="1" res="3.2685426995158195e-03" rms="2.9901757836341858e-01" purity="5.0095295906066895e-01" nType="0">
        <Node pos="l" depth="1" NCoef="0" IVar="2" Cut="1.2187805026769638e-02" cType="1" res="6.7531215026974678e-03" rms="2.9970917105674744e-01" purity="3.2450756430625916e-01" nType="0">
          <Node pos="l" depth="2" NCoef="0" IVar="6" Cut="1.0756827545166016e+02" cType="1" res="1.1989470571279526e-02" rms="2.7485385537147522e-01" purity="2.1193349361419678e-01" nType="0">
            <Node pos="l" depth="3" NCoef="0" IVar="-1" Cut="0.0000000000000000e+00" cType="1" res="8.9433174580335617e-03" rms="2.5901699066162109e-01" purity="1.5436926484107971e-01" nType="-99"/>
            <Node pos="r" depth="3" NCoef="0" IVar="-1" Cut="0.0000000000000000e+00" cType="1" res="4.4430166482925415e-02" rms="3.5619801282882690e-01" purity="5.7321542501449585e-01" nType="-99"/>
          </Node>
          <Node pos="r" depth="2" NCoef="0" IVar="9" Cut="1.1999825239181519e+00" cType="1" res="2.7052452787756920e-03" rms="3.1753370165824890e-01" purity="4.1153118014335632e-01" nType="0">
            <Node pos="l" depth="3" NCoef="0" IVar="-1" Cut="0.0000000000000000e+00" cType="1" res="-9.8469911608844995e-04" rms="3.1418848037719727e-01" purity="4.3312352895736694e-01" nType="-99"/>
            <Node pos="r" depth="3" NCoef="0" IVar="-1" Cut="0.0000000000000000e+00" cType="1" res="2.1121500059962273e-02" rms="3.3381560444831848e-01" purity="2.9859369993209839e-01" nType="-99"/>
          </Node>
        </Node>
        <Node pos="r" depth="1" NCoef="0" IVar="4" Cut="1.3388499450683594e+02" cType="1" res="-1.1094891233369708e-03" rms="2.9808863997459412e-01" purity="7.2263938188552856e-01" nType="0">
          <Node pos="l" depth="2" NCoef="0" IVar="-1" Cut="0.0000000000000000e+00" cType="1" res="-2.7810487896203995e-02" rms="2.5161767005920410e-01" purity="1.1200486868619919e-01" nType="-99"/>
          <Node pos="r" depth="2" NCoef="0" IVar="3" Cut="3.0637725830078125e+02" cType="1" res="6.0539232799783349e-04" rms="3.0125182867050171e-01" purity="7.6895433664321899e-01" nType="0">
            <Node pos="l" depth="3" NCoef="0" IVar="-1" Cut="0.0000000000000000e+00" cType="1" res="1.0002332739531994e-02" rms="3.7613177299499512e-01" purity="4.9350899457931519e-01" nType="-99"/>
            <Node pos="r" depth="3" NCoef="0" IVar="-1" Cut="0.0000000000000000e+00" cType="1" res="-4.1583813726902008e-03" rms="2.7702650427818298e-01" purity="8.4467095136642456e-01" nType="-99"/>
          </Node>
        </Node>
      </Node>
    </BinaryTree>
    <BinaryTree type="DecisionTree" boostWeight="1.0000000000000000e+00" itree="729">
      <Node pos="s" depth="0" NCoef="0" IVar="4" Cut="1.4558676147460938e+02" cType="1" res="-4.1320454329252243e-04" rms="2.9641979932785034e-01" purity="5.0099945068359375e-01" nType="0">
        <Node pos="l" depth="1" NCoef="0" IVar="5" Cut="1.0911523437500000e+02" cType="1" res="7.5216623954474926e-03" rms="2.4120429158210754e-01" purity="9.0144798159599304e-02" nType="0">
          <Node pos="l" depth="2" NCoef="0" IVar="0" Cut="4.5206890869140625e+02" cType="1" res="2.6219571009278297e-03" rms="2.1720157563686371e-01" purity="6.2487497925758362e-02" nType="0">
            <Node pos="l" depth="3" NCoef="0" IVar="-1" Cut="0.0000000000000000e+00" cType="1" res="2.9549406841397285e-02" rms="1.9298805296421051e-01" purity="4.4061671942472458e-02" nType="-99"/>
            <Node pos="r" depth="3" NCoef="0" IVar="-1" Cut="0.0000000000000000e+00" cType="1" res="-2.3368665948510170e-02" rms="2.9313009977340698e-01" purity="1.3591873645782471e-01" nType="-99"/>
          </Node>
          <Node pos="r" depth="2" NCoef="0" IVar="-1" Cut="0.0000000000000000e+00" cType="1" res="3.1969048082828522e-02" rms="3.3656254410743713e-01" purity="2.3049232363700867e-01" nType="-99"/>
        </Node>
        <Node pos="r" depth="1" NCoef="0" IVar="9" Cut="1.1997252702713013e+00" cType="1" res="-2.4208964314311743e-03" rms="3.0879724025726318e-01" purity="6.0495454072952271e-01" nType="0">
          <Node pos="l" depth="2" NCoef="0" IVar="4" Cut="3.2443133544921875e+02" cType="1" res="-2.6134570362046361e-04" rms="3.0750128626823425e-01" purity="6.3012355566024780e-01" nType="0">
            <Node pos="l" depth="3" NCoef="0" IVar="-1" Cut="0.0000000000000000e+00" cType="1" res="-2.8905465733259916e-03" rms="3.2811886072158813e-01" purity="5.1811641454696655e-01" nType="-99"/>
            <Node pos="r" depth="3" NCoef="0" IVar="-1" Cut="0.0000000000000000e+00" cType="1" res="8.7661212310194969e-03" rms="2.5871720910072327e-01" purity="8.6572653055191040e-01" nType="-99"/>
          </Node>
          <Node pos="r" depth="2" NCoef="0" IVar="9" Cut="1.5806393623352051e+00" cType="1" res="-1.6653334721922874e-02" rms="3.1683790683746338e-01" purity="4.3907883763313293e-01" nType="0">
            <Node pos="l" depth="3" NCoef="0" IVar="-1" Cut="0.0000000000000000e+00" cType="1" res="-3.2053094357252121e-02" rms="3.0981382727622986e-01" purity="5.0868564844131470e-01" nType="-99"/>
            <Node pos="r" depth="3" NCoef="0" IVar="-1" Cut="0.0000000000000000e+00" cType="1" res="-3.5457191988825798e-03" rms="3.2137644290924072e-01" purity="3.8709509372711182e-01" nType="-99"/>
          </Node>
        </Node>
      </Node>
    </BinaryTree>
    <BinaryTree type="DecisionTree" boostWeight="1.0000000000000000e+00" itree="730">
      <Node pos="s" depth="0" NCoef="0" IVar="7" Cut="-3.8561749458312988e-01" cType="1" res="-1.4998847618699074e-03" rms="2.9612407088279724e-01" purity="4.9867817759513855e-01" nType="0">
        <Node pos="l" depth="1" NCoef="0" IVar="6" Cut="8.5090904235839844e+01" cType="1" res="2.8464375063776970e-03" rms="2.9694813489913940e-01" purity="4.2303678393363953e-01" nType="0">
          <Node pos="l" depth="2" NCoef="0" IVar="10" Cut="1.2001221179962158e+00" cType="1" res="1.0509531944990158e-02" rms="2.8507325053215027e-01" purity="2.1106398105621338e-01" nType="0">
            <Node pos="l" depth="3" NCoef="0" IVar="-1" Cut="0.0000000000000000e+00" cType="1" res="6.2183733098208904e-03" rms="2.8027731180191040e-01" purity="2.0398996770381927e-01" nType="-99"/>
            <Node pos="r" depth="3" NCoef="0" IVar="-1" Cut="0.0000000000000000e+00" cType="1" res="4.6077173203229904e-02" rms="3.0481839179992676e-01" purity="2.4345493316650391e-01" nType="-99"/>
          </Node>
          <Node pos="r" depth="2" NCoef="0" IVar="9" Cut="3.9943858981132507e-01" cType="1" res="-5.4939524270594120e-03" rms="3.0913913249969482e-01" purity="6.5374463796615601e-01" nType="0">
            <Node pos="l" depth="3" NCoef="0" IVar="-1" Cut="0.0000000000000000e+00" cType="1" res="8.1992160994559526e-04" rms="3.0490961670875549e-01" purity="6.7128646373748779e-01" nType="-99"/>
            <Node pos="r" depth="3" NCoef="0" IVar="-1" Cut="0.0000000000000000e+00" cType="1" res="-1.8569868057966232e-02" rms="3.1772893667221069e-01" purity="6.1552500724792480e-01" nType="-99"/>
          </Node>
        </Node>
        <Node pos="r" depth="1" NCoef="0" IVar="1" Cut="1.0959008789062500e+03" cType="1" res="-3.6285438109189272e-03" rms="2.9569634795188904e-01" purity="5.3572434186935425e-01" nType="0">
          <Node pos="l" depth="2" NCoef="0" IVar="6" Cut="7.2261344909667969e+01" cType="1" res="-1.1678099632263184e-02" rms="1.9860410690307617e-01" purity="4.7272313386201859e-02" nType="0">
            <Node pos="l" depth="3" NCoef="0" IVar="-1" Cut="0.0000000000000000e+00" cType="1" res="-1.1614516377449036e-02" rms="1.7977495491504669e-01" purity="3.7589456886053085e-02" nType="-99"/>
            <Node pos="r" depth="3" NCoef="0" IVar="-1" Cut="0.0000000000000000e+00" cType="1" res="-3.6018230020999908e-02" rms="2.3411966860294342e-01" purity="6.8683236837387085e-02" nType="-99"/>
          </Node>
          <Node pos="r" depth="2" NCoef="0" IVar="4" Cut="1.4697593688964844e+02" cType="1" res="-1.2719309888780117e-03" rms="3.1853151321411133e-01" purity="6.7872512340545654e-01" nType="0">
            <Node pos="l" depth="3" NCoef="0" IVar="-1" Cut="0.0000000000000000e+00" cType="1" res="1.7675923183560371e-02" rms="3.7311491370201111e-01" purity="2.5258961319923401e-01" nType="-99"/>
            <Node pos="r" depth="3" NCoef="0" IVar="-1" Cut="0.0000000000000000e+00" cType="1" res="-3.0555897392332554e-03" rms="3.1382527947425842e-01" purity="7.1184003353118896e-01" nType="-99"/>
          </Node>
        </Node>
      </Node>
    </BinaryTree>
    <BinaryTree type="DecisionTree" boostWeight="1.0000000000000000e+00" itree="731">
      <Node pos="s" depth="0" NCoef="0" IVar="8" Cut="1.2000100612640381e+00" cType="1" res="-1.7309993272647262e-03" rms="2.9372501373291016e-01" purity="4.9942699074745178e-01" nType="0">
        <Node pos="l" depth="1" NCoef="0" IVar="5" Cut="1.0496289062500000e+02" cType="1" res="-1.6890301776584238e-04" rms="2.9673069715499878e-01" purity="5.3455477952957153e-01" nType="0">
          <Node pos="l" depth="2" NCoef="0" IVar="8" Cut="5.7166986167430878e-02" cType="1" res="6.8398099392652512e-03" rms="2.7573806047439575e-01" purity="1.5031370520591736e-01" nType="0">
            <Node pos="l" depth="3" NCoef="0" IVar="-1" Cut="0.0000000000000000e+00" cType="1" res="-1.4355989405885339e-03" rms="2.5779515504837036e-01" purity="1.3525365293025970e-01" nType="-99"/>
            <Node pos="r" depth="3" NCoef="0" IVar="-1" Cut="0.0000000000000000e+00" cType="1" res="2.4871237576007843e-02" rms="3.0386844277381897e-01" purity="1.7642031610012054e-01" nType="-99"/>
          </Node>
          <Node pos="r" depth="2" NCoef="0" IVar="8" Cut="4.3811181187629700e-01" cType="1" res="-2.8515250887721777e-03" rms="3.0434012413024902e-01" purity="6.8162512779235840e-01" nType="0">
            <Node pos="l" depth="3" NCoef="0" IVar="-1" Cut="0.0000000000000000e+00" cType="1" res="2.3774050350766629e-04" rms="3.0431735515594482e-01" purity="6.8213737010955811e-01" nType="-99"/>
            <Node pos="r" depth="3" NCoef="0" IVar="-1" Cut="0.0000000000000000e+00" cType="1" res="-1.3190081343054771e-02" rms="3.0420088768005371e-01" purity="6.7996984720230103e-01" nType="-99"/>
          </Node>
        </Node>
        <Node pos="r" depth="1" NCoef="0" IVar="10" Cut="4.0037915110588074e-01" cType="1" res="-1.2618436478078365e-02" rms="2.7160543203353882e-01" purity="2.5459438562393188e-01" nType="0">
          <Node pos="l" depth="2" NCoef="0" IVar="6" Cut="6.8337959289550781e+01" cType="1" res="-2.4416934698820114e-02" rms="2.7474620938301086e-01" purity="2.5992301106452942e-01" nType="0">
            <Node pos="l" depth="3" NCoef="0" IVar="-1" Cut="0.0000000000000000e+00" cType="1" res="-2.2623164579272270e-02" rms="2.2313569486141205e-01" purity="7.8080780804157257e-02" nType="-99"/>
            <Node pos="r" depth="3" NCoef="0" IVar="-1" Cut="0.0000000000000000e+00" cType="1" res="-2.9324272647500038e-02" rms="3.0183419585227966e-01" purity="3.7134486436843872e-01" nType="-99"/>
          </Node>
          <Node pos="r" depth="2" NCoef="0" IVar="2" Cut="1.4398145489394665e-02" cType="1" res="1.2595033040270209e-03" rms="2.6719799637794495e-01" purity="2.4832661449909210e-01" nType="0">
            <Node pos="l" depth="3" NCoef="0" IVar="-1" Cut="0.0000000000000000e+00" cType="1" res="-1.9923243671655655e-02" rms="2.1076190471649170e-01" purity="9.0072579681873322e-02" nType="-99"/>
            <Node pos="r" depth="3" NCoef="0" IVar="-1" Cut="0.0000000000000000e+00" cType="1" res="1.1907279491424561e-02" rms="3.0935630202293396e-01" purity="3.9227777719497681e-01" nType="-99"/>
          </Node>
        </Node>
      </Node>
    </BinaryTree>
    <BinaryTree type="DecisionTree" boostWeight="1.0000000000000000e+00" itree="732">
      <Node pos="s" depth="0" NCoef="0" IVar="9" Cut="9.3333196640014648e-01" cType="1" res="4.4907635310664773e-04" rms="2.9665705561637878e-01" purity="5.0157260894775391e-01" nType="0">
        <Node pos="l" depth="1" NCoef="0" IVar="1" Cut="1.1200286865234375e+03" cType="1" res="-1.2818578397855163e-03" rms="2.9303368926048279e-01" purity="5.2970671653747559e-01" nType="0">
          <Node pos="l" depth="2" NCoef="0" IVar="5" Cut="1.0336859893798828e+02" cType="1" res="3.6748480051755905e-03" rms="2.2813326120376587e-01" purity="6.5737031400203705e-02" nType="0">
            <Node pos="l" depth="3" NCoef="0" IVar="-1" Cut="0.0000000000000000e+00" cType="1" res="-8.4149073809385300e-03" rms="1.7945158481597900e-01" purity="3.7188898772001266e-02" nType="-99"/>
            <Node pos="r" depth="3" NCoef="0" IVar="-1" Cut="0.0000000000000000e+00" cType="1" res="2.0483152940869331e-02" rms="3.0343988537788391e-01" purity="1.2372711300849915e-01" nType="-99"/>
          </Node>
          <Node pos="r" depth="2" NCoef="0" IVar="4" Cut="2.3947949218750000e+02" cType="1" res="-2.9734759591519833e-03" rms="3.1209114193916321e-01" purity="6.8804961442947388e-01" nType="0">
            <Node pos="l" depth="3" NCoef="0" IVar="-1" Cut="0.0000000000000000e+00" cType="1" res="-7.7924737706780434e-03" rms="3.5726270079612732e-01" purity="4.5097604393959045e-01" nType="-99"/>
            <Node pos="r" depth="3" NCoef="0" IVar="-1" Cut="0.0000000000000000e+00" cType="1" res="9.7643589833751321e-04" rms="2.8723621368408203e-01" purity="8.0450803041458130e-01" nType="-99"/>
          </Node>
        </Node>
        <Node pos="r" depth="1" NCoef="0" IVar="8" Cut="1.2001795768737793e+00" cType="1" res="6.9904830306768417e-03" rms="3.0988073348999023e-01" purity="3.9525070786476135e-01" nType="0">
          <Node pos="l" depth="2" NCoef="0" IVar="10" Cut="-1.1999989748001099e+00" cType="1" res="1.8090816447511315e-03" rms="3.1080806255340576e-01" purity="4.3493503332138062e-01" nType="0">
            <Node pos="l" depth="3" NCoef="0" IVar="-1" Cut="0.0000000000000000e+00" cType="1" res="-2.4466136470437050e-02" rms="2.9302051663398743e-01" purity="3.7773874402046204e-01" nType="-99"/>
            <Node pos="r" depth="3" NCoef="0" IVar="-1" Cut="0.0000000000000000e+00" cType="1" res="6.4236614853143692e-03" rms="3.1365698575973511e-01" purity="4.4512414932250977e-01" nType="-99"/>
          </Node>
          <Node pos="r" depth="2" NCoef="0" IVar="-1" Cut="0.0000000000000000e+00" cType="1" res="4.0809489786624908e-02" rms="3.0448234081268311e-01" purity="2.1376375854015350e-01" nType="-99"/>
        </Node>
      </Node>
    </BinaryTree>
    <BinaryTree type="DecisionTree" boostWeight="1.0000000000000000e+00" itree="733">
      <Node pos="s" depth="0" NCoef="0" IVar="8" Cut="-1.7333933115005493e+00" cType="1" res="-8.6237612413242459e-04" rms="2.9422602057456970e-01" purity="4.9712634086608887e-01" nType="0">
        <Node pos="l" depth="1" NCoef="0" IVar="8" Cut="-2.0889272689819336e+00" cType="1" res="1.5627553686499596e-02" rms="2.6570579409599304e-01" purity="1.5281407535076141e-01" nType="0">
          <Node pos="l" depth="2" NCoef="0" IVar="-1" Cut="0.0000000000000000e+00" cType="1" res="6.0487547889351845e-03" rms="2.2397617995738983e-01" purity="8.7423332035541534e-02" nType="-99"/>
          <Node pos="r" depth="2" NCoef="0" IVar="-1" Cut="0.0000000000000000e+00" cType="1" res="3.3541537821292877e-02" rms="2.9968896508216858e-01" purity="2.1521629393100739e-01" nType="-99"/>
        </Node>
        <Node pos="r" depth="1" NCoef="0" IVar="9" Cut="-4.0004262328147888e-01" cType="1" res="-1.8119253218173981e-03" rms="2.9575660824775696e-01" purity="5.1695311069488525e-01" nType="0">
          <Node pos="l" depth="2" NCoef="0" IVar="9" Cut="-2.1142976284027100e+00" cType="1" res="3.6442959681153297e-03" rms="3.0107846856117249e-01" purity="4.9012729525566101e-01" nType="0">
            <Node pos="l" depth="3" NCoef="0" IVar="-1" Cut="0.0000000000000000e+00" cType="1" res="-3.0966060236096382e-02" rms="2.6010060310363770e-01" purity="1.7161442339420319e-01" nType="-99"/>
            <Node pos="r" depth="3" NCoef="0" IVar="-1" Cut="0.0000000000000000e+00" cType="1" res="6.4827748574316502e-03" rms="3.0435726046562195e-01" purity="5.1865983009338379e-01" nType="-99"/>
          </Node>
          <Node pos="r" depth="2" NCoef="0" IVar="10" Cut="2.0000057220458984e+00" cType="1" res="-4.8694931901991367e-03" rms="2.9268756508827209e-01" purity="5.3198570013046265e-01" nType="0">
            <Node pos="l" depth="3" NCoef="0" IVar="-1" Cut="0.0000000000000000e+00" cType="1" res="-4.5273043215274811e-03" rms="2.9285666346549988e-01" purity="5.4391843080520630e-01" nType="-99"/>
            <Node pos="r" depth="3" NCoef="0" IVar="-1" Cut="0.0000000000000000e+00" cType="1" res="-2.2113965824246407e-02" rms="2.8935015201568604e-01" purity="3.2817542552947998e-01" nType="-99"/>
          </Node>
        </Node>
      </Node>
    </BinaryTree>
    <BinaryTree type="DecisionTree" boostWeight="1.0000000000000000e+00" itree="734">
      <Node pos="s" depth="0" NCoef="0" IVar="2" Cut="2.1328758448362350e-02" cType="1" res="7.6079304562881589e-04" rms="2.9574289917945862e-01" purity="5.0409603118896484e-01" nType="0">
        <Node pos="l" depth="1" NCoef="0" IVar="2" Cut="1.3203470967710018e-02" cType="1" res="-3.8585343863815069e-03" rms="2.7440461516380310e-01" purity="2.4316726624965668e-01" nType="0">
          <Node pos="l" depth="2" NCoef="0" IVar="10" Cut="-3.9973810315132141e-01" cType="1" res="-8.2185035571455956e-03" rms="2.5596272945404053e-01" purity="2.0041865110397339e-01" nType="0">
            <Node pos="l" depth="3" NCoef="0" IVar="-1" Cut="0.0000000000000000e+00" cType="1" res="2.4905535392463207e-03" rms="2.5767934322357178e-01" purity="1.9423761963844299e-01" nType="-99"/>
            <Node pos="r" depth="3" NCoef="0" IVar="-1" Cut="0.0000000000000000e+00" cType="1" res="-2.0454881712794304e-02" rms="2.5464591383934021e-01" purity="2.0438691973686218e-01" nType="-99"/>
          </Node>
          <Node pos="r" depth="2" NCoef="0" IVar="8" Cut="3.9909037947654724e-01" cType="1" res="6.6156899556517601e-03" rms="3.1406995654106140e-01" purity="3.4586495161056519e-01" nType="0">
            <Node pos="l" depth="3" NCoef="0" IVar="-1" Cut="0.0000000000000000e+00" cType="1" res="-6.6146049648523331e-03" rms="2.9714614152908325e-01" purity="3.5583132505416870e-01" nType="-99"/>
            <Node pos="r" depth="3" NCoef="0" IVar="-1" Cut="0.0000000000000000e+00" cType="1" res="2.7609525248408318e-02" rms="3.3816856145858765e-01" purity="3.3006811141967773e-01" nType="-99"/>
          </Node>
        </Node>
        <Node pos="r" depth="1" NCoef="0" IVar="8" Cut="9.3336421251296997e-01" cType="1" res="3.3387208823114634e-03" rms="3.0697694420814514e-01" purity="6.4971357583999634e-01" nType="0">
          <Node pos="l" depth="2" NCoef="0" IVar="8" Cut="-1.3709288835525513e+00" cType="1" res="1.0192715562880039e-03" rms="3.0305460095405579e-01" purity="6.7020475864410400e-01" nType="0">
            <Node pos="l" depth="3" NCoef="0" IVar="-1" Cut="0.0000000000000000e+00" cType="1" res="1.7114041373133659e-02" rms="3.3056700229644775e-01" purity="4.4606703519821167e-01" nType="-99"/>
            <Node pos="r" depth="3" NCoef="0" IVar="-1" Cut="0.0000000000000000e+00" cType="1" res="-3.5718578146770597e-04" rms="3.0095905065536499e-01" purity="6.8612891435623169e-01" nType="-99"/>
          </Node>
          <Node pos="r" depth="2" NCoef="0" IVar="8" Cut="1.3765200376510620e+00" cType="1" res="1.7105672508478165e-02" rms="3.2896107435226440e-01" purity="5.2808964252471924e-01" nType="0">
            <Node pos="l" depth="3" NCoef="0" IVar="-1" Cut="0.0000000000000000e+00" cType="1" res="2.5582544505596161e-02" rms="3.3214241266250610e-01" purity="6.1891424655914307e-01" nType="-99"/>
            <Node pos="r" depth="3" NCoef="0" IVar="-1" Cut="0.0000000000000000e+00" cType="1" res="-1.2018792331218719e-03" rms="3.2257330417633057e-01" purity="3.7149164080619812e-01" nType="-99"/>
          </Node>
        </Node>
      </Node>
    </BinaryTree>
    <BinaryTree type="DecisionTree" boostWeight="1.0000000000000000e+00" itree="735">
      <Node pos="s" depth="0" NCoef="0" IVar="7" Cut="6.9151347875595093e-01" cType="1" res="-1.8506258493289351e-03" rms="2.9410439729690552e-01" purity="4.9580234289169312e-01" nType="0">
        <Node pos="l" depth="1" NCoef="0" IVar="9" Cut="-1.4664821624755859e+00" cType="1" res="-4.1672606021165848e-03" rms="2.9536801576614380e-01" purity="5.4010450839996338e-01" nType="0">
          <Node pos="l" depth="2" NCoef="0" IVar="8" Cut="1.3329695165157318e-01" cType="1" res="1.0648498311638832e-02" rms="3.0685028433799744e-01" purity="3.5007277131080627e-01" nType="0">
            <Node pos="l" depth="3" NCoef="0" IVar="-1" Cut="0.0000000000000000e+00" cType="1" res="-8.5187162039801478e-04" rms="2.9469290375709534e-01" purity="3.3871075510978699e-01" nType="-99"/>
            <Node pos="r" depth="3" NCoef="0" IVar="-1" Cut="0.0000000000000000e+00" cType="1" res="2.8438897803425789e-02" rms="3.2457968592643738e-01" purity="3.6831665039062500e-01" nType="-99"/>
          </Node>
          <Node pos="r" depth="2" NCoef="0" IVar="5" Cut="1.5986909484863281e+02" cType="1" res="-5.8733876794576645e-03" rms="2.9396900534629822e-01" purity="5.6198787689208984e-01" nType="0">
            <Node pos="l" depth="3" NCoef="0" IVar="-1" Cut="0.0000000000000000e+00" cType="1" res="-1.1372190900146961e-02" rms="3.1102561950683594e-01" purity="2.9672461748123169e-01" nType="-99"/>
            <Node pos="r" depth="3" NCoef="0" IVar="-1" Cut="0.0000000000000000e+00" cType="1" res="5.8440276188775897e-04" rms="2.7438351511955261e-01" purity="8.4615230560302734e-01" nType="-99"/>
          </Node>
        </Node>
        <Node pos="r" depth="1" NCoef="0" IVar="9" Cut="9.3311649560928345e-01" cType="1" res="6.0479640960693359e-03" rms="2.8961542248725891e-01" purity="3.4475341439247131e-01" nType="0">
          <Node pos="l" depth="2" NCoef="0" IVar="0" Cut="5.4553369140625000e+02" cType="1" res="-8.2791043678298593e-04" rms="2.8885778784751892e-01" purity="3.6947876214981079e-01" nType="0">
            <Node pos="l" depth="3" NCoef="0" IVar="-1" Cut="0.0000000000000000e+00" cType="1" res="-6.8058851175010204e-03" rms="2.8812572360038757e-01" purity="2.0191471278667450e-01" nType="-99"/>
            <Node pos="r" depth="3" NCoef="0" IVar="-1" Cut="0.0000000000000000e+00" cType="1" res="1.4736723154783249e-02" rms="2.9036977887153625e-01" purity="8.1333982944488525e-01" nType="-99"/>
          </Node>
          <Node pos="r" depth="2" NCoef="0" IVar="7" Cut="1.0930769443511963e+00" cType="1" res="2.3868694901466370e-02" rms="2.9081425070762634e-01" purity="2.8067094087600708e-01" nType="0">
            <Node pos="l" depth="3" NCoef="0" IVar="-1" Cut="0.0000000000000000e+00" cType="1" res="4.8140473663806915e-02" rms="3.4321069717407227e-01" purity="4.5899742841720581e-01" nType="-99"/>
            <Node pos="r" depth="3" NCoef="0" IVar="-1" Cut="0.0000000000000000e+00" cType="1" res="3.4410059452056885e-03" rms="2.3773887753486633e-01" purity="1.3582868874073029e-01" nType="-99"/>
          </Node>
        </Node>
      </Node>
    </BinaryTree>
