<?xml version="1.0"?>
<MethodSetup Method="BDT::BDTG">
  <GeneralInfo>
    <Info name="TMVA Release" value="4.2.1 [262657]"/>
    <Info name="ROOT Release" value="6.14/04 [396804]"/>
    <Info name="Creator" value="unok"/>
    <Info name="Date" value="Mon Jan 14 15:42:51 2019"/>
    <Info name="Host" value="Linux lcgapp-slc6-x86-64-39.cern.ch 2.6.32-696.30.1.el6.x86_64 #1 SMP Tue May 22 06:09:36 CEST 2018 x86_64 x86_64 x86_64 GNU/Linux"/>
    <Info name="Dir" value="/gpfs/fs6001/unok/TMVA/2018/v142/V2/TMVA-0L"/>
    <Info name="Training events" value="388593"/>
    <Info name="TrainingTime" value="2.61233081e+02"/>
    <Info name="AnalysisType" value="Classification"/>
  </GeneralInfo>
  <Options>
    <Option name="V" modified="Yes">False</Option>
    <Option name="VerbosityLevel" modified="No">Default</Option>
    <Option name="VarTransform" modified="No">None</Option>
    <Option name="H" modified="Yes">False</Option>
    <Option name="CreateMVAPdfs" modified="No">False</Option>
    <Option name="IgnoreNegWeightsInTraining" modified="No">False</Option>
    <Option name="NTrees" modified="Yes">800</Option>
    <Option name="MaxDepth" modified="Yes">3</Option>
    <Option name="MinNodeSize" modified="Yes">2.500000%</Option>
    <Option name="nCuts" modified="Yes">20</Option>
    <Option name="BoostType" modified="Yes">Grad</Option>
    <Option name="AdaBoostR2Loss" modified="No">quadratic</Option>
    <Option name="UseBaggedBoost" modified="Yes">True</Option>
    <Option name="Shrinkage" modified="Yes">2.000000e-01</Option>
    <Option name="AdaBoostBeta" modified="No">5.000000e-01</Option>
    <Option name="UseRandomisedTrees" modified="No">False</Option>
    <Option name="UseNvars" modified="No">4</Option>
    <Option name="UsePoissonNvars" modified="No">True</Option>
    <Option name="BaggedSampleFraction" modified="Yes">5.000000e-01</Option>
    <Option name="UseYesNoLeaf" modified="No">True</Option>
    <Option name="NegWeightTreatment" modified="Yes">pray</Option>
    <Option name="Css" modified="No">1.000000e+00</Option>
    <Option name="Cts_sb" modified="No">1.000000e+00</Option>
    <Option name="Ctb_ss" modified="No">1.000000e+00</Option>
    <Option name="Cbb" modified="No">1.000000e+00</Option>
    <Option name="NodePurityLimit" modified="No">5.000000e-01</Option>
    <Option name="SeparationType" modified="No">giniindex</Option>
    <Option name="RegressionLossFunctionBDTG" modified="No">huber</Option>
    <Option name="HuberQuantile" modified="No">7.000000e-01</Option>
    <Option name="DoBoostMonitor" modified="No">False</Option>
    <Option name="UseFisherCuts" modified="No">False</Option>
    <Option name="MinLinCorrForFisher" modified="No">8.000000e-01</Option>
    <Option name="UseExclusiveVars" modified="No">False</Option>
    <Option name="DoPreselection" modified="No">False</Option>
    <Option name="SigToBkgFraction" modified="No">1.000000e+00</Option>
    <Option name="PruneMethod" modified="No">nopruning</Option>
    <Option name="PruneStrength" modified="No">0.000000e+00</Option>
    <Option name="PruningValFraction" modified="No">5.000000e-01</Option>
    <Option name="SkipNormalization" modified="No">False</Option>
    <Option name="nEventsMin" modified="No">0</Option>
    <Option name="UseBaggedGrad" modified="No">False</Option>
    <Option name="GradBaggingFraction" modified="No">5.000000e-01</Option>
    <Option name="UseNTrainEvents" modified="No">0</Option>
    <Option name="NNodesMax" modified="No">0</Option>
  </Options>
  <Variables NVar="12">
    <Variable VarIndex="0" Expression="meff" Label="meff" Title="m_{eff}(incl.)" Unit="GeV" Internal="meff" Type="F" Min="8.00013245e+02" Max="7.04214795e+03"/>
    <Variable VarIndex="1" Expression="Ap" Label="Ap" Title="Aplanarity" Unit="" Internal="Ap" Type="F" Min="3.21722769e-06" Max="4.59826916e-01"/>
    <Variable VarIndex="2" Expression="jetPt0" Label="jetPt0" Title="p_{T}(j_{1})" Unit="GeV" Internal="jetPt0" Type="F" Min="2.00003296e+02" Max="3.13502832e+03"/>
    <Variable VarIndex="3" Expression="jetPt1" Label="jetPt1" Title="p_{T}(j_{2})" Unit="GeV" Internal="jetPt1" Type="F" Min="5.30931358e+01" Max="1.94071338e+03"/>
    <Variable VarIndex="4" Expression="jetPt2" Label="jetPt2" Title="p_{T}(j_{3})" Unit="GeV" Internal="jetPt2" Type="F" Min="5.10206108e+01" Max="1.04250964e+03"/>
    <Variable VarIndex="5" Expression="jetPt4" Label="jetPt4" Title="p_{T}(j_{5})" Unit="GeV" Internal="jetPt4" Type="F" Min="5.00000038e+01" Max="4.84082336e+02"/>
    <Variable VarIndex="6" Expression="jetPt5" Label="jetPt5" Title="p_{T}(j_{6})" Unit="GeV" Internal="jetPt5" Type="F" Min="0.00000000e+00" Max="3.48475983e+02"/>
    <Variable VarIndex="7" Expression="jetEta0" Label="jetEta0" Title="#eta(j_{1})" Unit="" Internal="jetEta0" Type="F" Min="-2.78269053e+00" Max="2.79978538e+00"/>
    <Variable VarIndex="8" Expression="jetEta1" Label="jetEta1" Title="#eta(j_{2})" Unit="" Internal="jetEta1" Type="F" Min="-2.79983735e+00" Max="2.79999733e+00"/>
    <Variable VarIndex="9" Expression="jetEta2" Label="jetEta2" Title="#eta(j_{3})" Unit="" Internal="jetEta2" Type="F" Min="-2.79991651e+00" Max="2.79993677e+00"/>
    <Variable VarIndex="10" Expression="jetEta4" Label="jetEta4" Title="#eta(j_{5})" Unit="" Internal="jetEta4" Type="F" Min="-2.79999471e+00" Max="2.79995656e+00"/>
    <Variable VarIndex="11" Expression="jetEta5" Label="jetEta5" Title="#eta(j_{6})" Unit="" Internal="jetEta5" Type="F" Min="-3.00000000e+00" Max="2.79994583e+00"/>
  </Variables>
  <Spectators NSpec="0">
  </Spectators>
  <Classes NClass="2">
    <Class Name="Signal" Index="0"/>
    <Class Name="Background" Index="1"/>
  </Classes>
  <Transformations NTransformations="0"/>
  <MVAPdfs/>
  <Weights NTrees="800" AnalysisType="1">
    <BinaryTree type="DecisionTree" boostWeight="1.0000000000000000e+00" itree="0">
      <Node pos="s" depth="0" NCoef="0" IVar="0" Cut="1.3896972656250000e+03" cType="1" res="-5.7934800861403346e-04" rms="4.9999967217445374e-01" purity="4.9942064285278320e-01" nType="0">
        <Node pos="l" depth="1" NCoef="0" IVar="1" Cut="7.3861420154571533e-02" cType="1" res="-3.1537476181983948e-01" rms="3.8799324631690979e-01" purity="1.8462523818016052e-01" nType="0">
          <Node pos="l" depth="2" NCoef="0" IVar="6" Cut="5.4172931671142578e+01" cType="1" res="-4.0263998508453369e-01" rms="2.9644733667373657e-01" purity="9.7360000014305115e-02" nType="0">
            <Node pos="l" depth="3" NCoef="0" IVar="-1" Cut="0.0000000000000000e+00" cType="1" res="-1.7308452725410461e-01" rms="2.5052130222320557e-01" purity="6.7288681864738464e-02" nType="-99"/>
            <Node pos="r" depth="3" NCoef="0" IVar="-1" Cut="0.0000000000000000e+00" cType="1" res="-9.7693227231502533e-02" rms="4.3629142642021179e-01" purity="2.5576692819595337e-01" nType="-99"/>
          </Node>
          <Node pos="r" depth="2" NCoef="0" IVar="0" Cut="1.1932956542968750e+03" cType="1" res="-5.2790720015764236e-02" rms="4.9720531702041626e-01" purity="4.4720926880836487e-01" nType="0">
            <Node pos="l" depth="3" NCoef="0" IVar="-1" Cut="0.0000000000000000e+00" cType="1" res="-1.0484936833381653e-01" rms="4.2578315734863281e-01" purity="2.3787656426429749e-01" nType="-99"/>
            <Node pos="r" depth="3" NCoef="0" IVar="-1" Cut="0.0000000000000000e+00" cType="1" res="5.6953508406877518e-02" rms="4.7929829359054565e-01" purity="6.4238375425338745e-01" nType="-99"/>
          </Node>
        </Node>
        <Node pos="r" depth="1" NCoef="0" IVar="1" Cut="3.9003670215606689e-02" cType="1" res="2.3716120421886444e-01" rms="4.4017559289932251e-01" purity="7.3716121912002563e-01" nType="0">
          <Node pos="l" depth="2" NCoef="0" IVar="0" Cut="1.8500485839843750e+03" cType="1" res="-1.0516536235809326e-01" rms="4.8881515860557556e-01" purity="3.9483463764190674e-01" nType="0">
            <Node pos="l" depth="3" NCoef="0" IVar="-1" Cut="0.0000000000000000e+00" cType="1" res="-9.2077963054180145e-02" rms="4.4385841488838196e-01" purity="2.6980507373809814e-01" nType="-99"/>
            <Node pos="r" depth="3" NCoef="0" IVar="-1" Cut="0.0000000000000000e+00" cType="1" res="5.3395010530948639e-02" rms="4.8185172677040100e-01" purity="6.3348752260208130e-01" nType="-99"/>
          </Node>
          <Node pos="r" depth="2" NCoef="0" IVar="6" Cut="1.5621901512145996e+01" cType="1" res="3.6799913644790649e-01" rms="3.3849170804023743e-01" purity="8.6799913644790649e-01" nType="0">
            <Node pos="l" depth="3" NCoef="0" IVar="-1" Cut="0.0000000000000000e+00" cType="1" res="7.0603512227535248e-02" rms="4.6780833601951599e-01" purity="6.7650878429412842e-01" nType="-99"/>
            <Node pos="r" depth="3" NCoef="0" IVar="-1" Cut="0.0000000000000000e+00" cType="1" res="1.6641414165496826e-01" rms="2.7733480930328369e-01" purity="9.1603535413742065e-01" nType="-99"/>
          </Node>
        </Node>
      </Node>
    </BinaryTree>
    <BinaryTree type="DecisionTree" boostWeight="1.0000000000000000e+00" itree="1">
      <Node pos="s" depth="0" NCoef="0" IVar="0" Cut="1.3897596435546875e+03" cType="1" res="-1.1498810490593314e-03" rms="4.5283415913581848e-01" purity="4.9796345829963684e-01" nType="0">
        <Node pos="l" depth="1" NCoef="0" IVar="1" Cut="5.7171232998371124e-02" cType="1" res="-2.5973722338676453e-01" rms="3.6488196253776550e-01" purity="1.7707061767578125e-01" nType="0">
          <Node pos="l" depth="2" NCoef="0" IVar="0" Cut="1.2774271240234375e+03" cType="1" res="-3.4049588441848755e-01" rms="2.6769959926605225e-01" purity="7.9269647598266602e-02" nType="0">
            <Node pos="l" depth="3" NCoef="0" IVar="-1" Cut="0.0000000000000000e+00" cType="1" res="-1.5086287260055542e-01" rms="2.1988400816917419e-01" purity="5.1604155451059341e-02" nType="-99"/>
            <Node pos="r" depth="3" NCoef="0" IVar="-1" Cut="0.0000000000000000e+00" cType="1" res="-9.4349950551986694e-02" rms="3.9214426279067993e-01" purity="1.9458128511905670e-01" nType="-99"/>
          </Node>
          <Node pos="r" depth="2" NCoef="0" IVar="0" Cut="1.1651489257812500e+03" cType="1" res="-9.0585500001907349e-02" rms="4.6864607930183411e-01" purity="3.8191801309585571e-01" nType="0">
            <Node pos="l" depth="3" NCoef="0" IVar="-1" Cut="0.0000000000000000e+00" cType="1" res="-1.1187791824340820e-01" rms="3.6837789416313171e-01" purity="1.6367022693157196e-01" nType="-99"/>
            <Node pos="r" depth="3" NCoef="0" IVar="-1" Cut="0.0000000000000000e+00" cType="1" res="2.3400850594043732e-02" rms="4.8747184872627258e-01" purity="5.5753380060195923e-01" nType="-99"/>
          </Node>
        </Node>
        <Node pos="r" depth="1" NCoef="0" IVar="1" Cut="4.0130157023668289e-02" cType="1" res="1.9616979360580444e-01" rms="4.1228523850440979e-01" purity="7.4282646179199219e-01" nType="0">
          <Node pos="l" depth="2" NCoef="0" IVar="11" Cut="-1.8952757120132446e+00" cType="1" res="-6.1634037643671036e-02" rms="4.8207446932792664e-01" purity="4.1898903250694275e-01" nType="0">
            <Node pos="l" depth="3" NCoef="0" IVar="-1" Cut="0.0000000000000000e+00" cType="1" res="-8.1508159637451172e-02" rms="4.3774190545082092e-01" purity="2.7180370688438416e-01" nType="-99"/>
            <Node pos="r" depth="3" NCoef="0" IVar="-1" Cut="0.0000000000000000e+00" cType="1" res="4.0039803832769394e-02" rms="4.8007300496101379e-01" purity="5.8744984865188599e-01" nType="-99"/>
          </Node>
          <Node pos="r" depth="2" NCoef="0" IVar="5" Cut="7.0671615600585938e+01" cType="1" res="3.0062234401702881e-01" rms="3.2688161730766296e-01" purity="8.7403333187103271e-01" nType="0">
            <Node pos="l" depth="3" NCoef="0" IVar="-1" Cut="0.0000000000000000e+00" cType="1" res="3.3666260540485382e-02" rms="4.7694459557533264e-01" purity="6.3624155521392822e-01" nType="-99"/>
            <Node pos="r" depth="3" NCoef="0" IVar="-1" Cut="0.0000000000000000e+00" cType="1" res="1.3554893434047699e-01" rms="2.8769016265869141e-01" purity="9.0685474872589111e-01" nType="-99"/>
          </Node>
        </Node>
      </Node>
    </BinaryTree>
    <BinaryTree type="DecisionTree" boostWeight="1.0000000000000000e+00" itree="2">
      <Node pos="s" depth="0" NCoef="0" IVar="6" Cut="6.3181526184082031e+01" cType="1" res="-5.4794400930404663e-03" rms="4.1914129257202148e-01" purity="4.9401333928108215e-01" nType="0">
        <Node pos="l" depth="1" NCoef="0" IVar="0" Cut="1.6624871826171875e+03" cType="1" res="-1.5005867183208466e-01" rms="3.9969712495803833e-01" purity="2.8807345032691956e-01" nType="0">
          <Node pos="l" depth="2" NCoef="0" IVar="1" Cut="6.3580915331840515e-02" cType="1" res="-2.1117588877677917e-01" rms="3.6261251568794250e-01" purity="1.9940873980522156e-01" nType="0">
            <Node pos="l" depth="3" NCoef="0" IVar="-1" Cut="0.0000000000000000e+00" cType="1" res="-1.1698009818792343e-01" rms="2.9342779517173767e-01" purity="1.0701408982276917e-01" nType="-99"/>
            <Node pos="r" depth="3" NCoef="0" IVar="-1" Cut="0.0000000000000000e+00" cType="1" res="-2.4885879829525948e-02" rms="4.6390908956527710e-01" purity="4.3457543849945068e-01" nType="-99"/>
          </Node>
          <Node pos="r" depth="2" NCoef="0" IVar="1" Cut="1.9462326541543007e-02" cType="1" res="1.0428573936223984e-01" rms="4.4403791427612305e-01" purity="6.5705907344818115e-01" nType="0">
            <Node pos="l" depth="3" NCoef="0" IVar="-1" Cut="0.0000000000000000e+00" cType="1" res="-7.1367681026458740e-02" rms="4.4622480869293213e-01" purity="2.9423674941062927e-01" nType="-99"/>
            <Node pos="r" depth="3" NCoef="0" IVar="-1" Cut="0.0000000000000000e+00" cType="1" res="7.7197276055812836e-02" rms="4.0908879041671753e-01" purity="7.6162165403366089e-01" nType="-99"/>
          </Node>
        </Node>
        <Node pos="r" depth="1" NCoef="0" IVar="1" Cut="6.0309063643217087e-02" cType="1" res="2.4002315104007721e-01" rms="3.2703065872192383e-01" purity="8.4370929002761841e-01" nType="0">
          <Node pos="l" depth="2" NCoef="0" IVar="0" Cut="1.6465614013671875e+03" cType="1" res="1.0684940218925476e-01" rms="4.3899396061897278e-01" purity="6.4362370967864990e-01" nType="0">
            <Node pos="l" depth="3" NCoef="0" IVar="-1" Cut="0.0000000000000000e+00" cType="1" res="-3.2349888235330582e-02" rms="4.6041774749755859e-01" purity="3.9581000804901123e-01" nType="-99"/>
            <Node pos="r" depth="3" NCoef="0" IVar="-1" Cut="0.0000000000000000e+00" cType="1" res="9.8170250654220581e-02" rms="3.7341240048408508e-01" purity="8.1544196605682373e-01" nType="-99"/>
          </Node>
          <Node pos="r" depth="2" NCoef="0" IVar="0" Cut="1.7438859863281250e+03" cType="1" res="2.9512956738471985e-01" rms="2.4715165793895721e-01" purity="9.2650341987609863e-01" nType="0">
            <Node pos="l" depth="3" NCoef="0" IVar="-1" Cut="0.0000000000000000e+00" cType="1" res="1.0354753583669662e-01" rms="3.3854687213897705e-01" purity="8.5012030601501465e-01" nType="-99"/>
            <Node pos="r" depth="3" NCoef="0" IVar="-1" Cut="0.0000000000000000e+00" cType="1" res="1.4431594312191010e-01" rms="1.5224097669124603e-01" purity="9.7622835636138916e-01" nType="-99"/>
          </Node>
        </Node>
      </Node>
    </BinaryTree>
    <BinaryTree type="DecisionTree" boostWeight="1.0000000000000000e+00" itree="3">
      <Node pos="s" depth="0" NCoef="0" IVar="5" Cut="9.1341346740722656e+01" cType="1" res="1.3195602223277092e-03" rms="3.9520439505577087e-01" purity="5.0087553262710571e-01" nType="0">
        <Node pos="l" depth="1" NCoef="0" IVar="1" Cut="1.0433050990104675e-01" cType="1" res="-1.2057713419198990e-01" rms="3.8626235723495483e-01" purity="2.9533377289772034e-01" nType="0">
          <Node pos="l" depth="2" NCoef="0" IVar="0" Cut="1.3748353271484375e+03" cType="1" res="-1.6686610877513885e-01" rms="3.6018222570419312e-01" purity="2.2151060402393341e-01" nType="0">
            <Node pos="l" depth="3" NCoef="0" IVar="-1" Cut="0.0000000000000000e+00" cType="1" res="-1.0622750967741013e-01" rms="2.7879899740219116e-01" purity="9.4640642404556274e-02" nType="-99"/>
            <Node pos="r" depth="3" NCoef="0" IVar="-1" Cut="0.0000000000000000e+00" cType="1" res="-2.4487257003784180e-02" rms="4.4993135333061218e-01" purity="4.4442012906074524e-01" nType="-99"/>
          </Node>
          <Node pos="r" depth="2" NCoef="0" IVar="0" Cut="1.4165556640625000e+03" cType="1" res="1.1098341643810272e-01" rms="4.2690172791481018e-01" purity="6.6463410854339600e-01" nType="0">
            <Node pos="l" depth="3" NCoef="0" IVar="-1" Cut="0.0000000000000000e+00" cType="1" res="7.0997881703078747e-03" rms="4.7532582283020020e-01" purity="4.9050995707511902e-01" nType="-99"/>
            <Node pos="r" depth="3" NCoef="0" IVar="-1" Cut="0.0000000000000000e+00" cType="1" res="9.6030838787555695e-02" rms="3.3407503366470337e-01" purity="8.6164087057113647e-01" nType="-99"/>
          </Node>
        </Node>
        <Node pos="r" depth="1" NCoef="0" IVar="0" Cut="1.5215428466796875e+03" cType="1" res="1.9579230248928070e-01" rms="3.2528409361839294e-01" purity="8.2879465818405151e-01" nType="0">
          <Node pos="l" depth="2" NCoef="0" IVar="11" Cut="-1.6218956708908081e+00" cType="1" res="5.9259753674268723e-02" rms="4.3503016233444214e-01" purity="5.7047742605209351e-01" nType="0">
            <Node pos="l" depth="3" NCoef="0" IVar="-1" Cut="0.0000000000000000e+00" cType="1" res="-2.4587895721197128e-02" rms="4.3467113375663757e-01" purity="3.7129443883895874e-01" nType="-99"/>
            <Node pos="r" depth="3" NCoef="0" IVar="-1" Cut="0.0000000000000000e+00" cType="1" res="5.7970296591520309e-02" rms="4.1851544380187988e-01" purity="6.9970160722732544e-01" nType="-99"/>
          </Node>
          <Node pos="r" depth="2" NCoef="0" IVar="1" Cut="5.8708962053060532e-02" cType="1" res="2.3345464468002319e-01" rms="2.7610129117965698e-01" purity="9.0005111694335938e-01" nType="0">
            <Node pos="l" depth="3" NCoef="0" IVar="-1" Cut="0.0000000000000000e+00" cType="1" res="6.6569283604621887e-02" rms="4.1434976458549500e-01" purity="7.3748105764389038e-01" nType="-99"/>
            <Node pos="r" depth="3" NCoef="0" IVar="-1" Cut="0.0000000000000000e+00" cType="1" res="1.2357487529516220e-01" rms="2.0015400648117065e-01" purity="9.5681792497634888e-01" nType="-99"/>
          </Node>
        </Node>
      </Node>
    </BinaryTree>
    <BinaryTree type="DecisionTree" boostWeight="1.0000000000000000e+00" itree="4">
      <Node pos="s" depth="0" NCoef="0" IVar="5" Cut="7.0200752258300781e+01" cType="1" res="-3.0390853062272072e-03" rms="3.7901625037193298e-01" purity="4.9454516172409058e-01" nType="0">
        <Node pos="l" depth="1" NCoef="0" IVar="4" Cut="1.3986239624023438e+02" cType="1" res="-1.6402330994606018e-01" rms="3.3583340048789978e-01" purity="1.7862613499164581e-01" nType="0">
          <Node pos="l" depth="2" NCoef="0" IVar="11" Cut="-1.8953585624694824e+00" cType="1" res="-2.1101374924182892e-01" rms="2.7114152908325195e-01" purity="9.7740709781646729e-02" nType="0">
            <Node pos="l" depth="3" NCoef="0" IVar="-1" Cut="0.0000000000000000e+00" cType="1" res="-1.1441873759031296e-01" rms="2.3310905694961548e-01" purity="6.4912691712379456e-02" nType="-99"/>
            <Node pos="r" depth="3" NCoef="0" IVar="-1" Cut="0.0000000000000000e+00" cType="1" res="-4.7316364943981171e-02" rms="3.9674788713455200e-01" purity="2.6512342691421509e-01" nType="-99"/>
          </Node>
          <Node pos="r" depth="2" NCoef="0" IVar="1" Cut="2.0463446155190468e-02" cType="1" res="-5.8045506477355957e-02" rms="4.3026790022850037e-01" purity="3.6104744672775269e-01" nType="0">
            <Node pos="l" depth="3" NCoef="0" IVar="-1" Cut="0.0000000000000000e+00" cType="1" res="-8.2736700773239136e-02" rms="3.4215018153190613e-01" purity="1.4840510487556458e-01" nType="-99"/>
            <Node pos="r" depth="3" NCoef="0" IVar="-1" Cut="0.0000000000000000e+00" cType="1" res="-2.4906480684876442e-03" rms="4.5398694276809692e-01" purity="4.5459172129631042e-01" nType="-99"/>
          </Node>
        </Node>
        <Node pos="r" depth="1" NCoef="0" IVar="1" Cut="2.1209700033068657e-02" cType="1" res="1.0454599559307098e-01" rms="3.6795252561569214e-01" purity="7.0567262172698975e-01" nType="0">
          <Node pos="l" depth="2" NCoef="0" IVar="1" Cut="1.0102992877364159e-02" cType="1" res="-1.5409463644027710e-01" rms="3.7832769751548767e-01" purity="2.3310099542140961e-01" nType="0">
            <Node pos="l" depth="3" NCoef="0" IVar="-1" Cut="0.0000000000000000e+00" cType="1" res="-1.1118065565824509e-01" rms="3.0494946241378784e-01" purity="1.1771524697542191e-01" nType="-99"/>
            <Node pos="r" depth="3" NCoef="0" IVar="-1" Cut="0.0000000000000000e+00" cType="1" res="-4.1263412684202194e-02" rms="4.0858927369117737e-01" purity="3.0957111716270447e-01" nType="-99"/>
          </Node>
          <Node pos="r" depth="2" NCoef="0" IVar="0" Cut="1.3718503417968750e+03" cType="1" res="1.4389026165008545e-01" rms="3.4998175501823425e-01" purity="7.7755987644195557e-01" nType="0">
            <Node pos="l" depth="3" NCoef="0" IVar="-1" Cut="0.0000000000000000e+00" cType="1" res="6.8981223739683628e-04" rms="4.4898012280464172e-01" purity="4.0136709809303284e-01" nType="-99"/>
            <Node pos="r" depth="3" NCoef="0" IVar="-1" Cut="0.0000000000000000e+00" cType="1" res="8.7099201977252960e-02" rms="3.1154480576515198e-01" purity="8.6927443742752075e-01" nType="-99"/>
          </Node>
        </Node>
      </Node>
    </BinaryTree>
    <BinaryTree type="DecisionTree" boostWeight="1.0000000000000000e+00" itree="5">
      <Node pos="s" depth="0" NCoef="0" IVar="11" Cut="-2.4476497173309326e+00" cType="1" res="1.8266367260366678e-03" rms="3.6515930294990540e-01" purity="5.0003516674041748e-01" nType="0">
        <Node pos="l" depth="1" NCoef="0" IVar="4" Cut="1.4543711853027344e+02" cType="1" res="-1.1472051590681076e-01" rms="3.4971892833709717e-01" purity="2.2888258099555969e-01" nType="0">
          <Node pos="l" depth="2" NCoef="0" IVar="1" Cut="2.0876940339803696e-02" cType="1" res="-1.6911147534847260e-01" rms="2.7744886279106140e-01" purity="1.0460540652275085e-01" nType="0">
            <Node pos="l" depth="3" NCoef="0" IVar="-1" Cut="0.0000000000000000e+00" cType="1" res="-1.1383551359176636e-01" rms="1.7535308003425598e-01" purity="3.3028617501258850e-02" nType="-99"/>
            <Node pos="r" depth="3" NCoef="0" IVar="-1" Cut="0.0000000000000000e+00" cType="1" res="-7.2299264371395111e-02" rms="3.3377051353454590e-01" purity="1.6032198071479797e-01" nType="-99"/>
          </Node>
          <Node pos="r" depth="2" NCoef="0" IVar="0" Cut="1.8160417480468750e+03" cType="1" res="-2.3078728467226028e-02" rms="4.3045118451118469e-01" purity="4.3827369809150696e-01" nType="0">
            <Node pos="l" depth="3" NCoef="0" IVar="-1" Cut="0.0000000000000000e+00" cType="1" res="-3.2037716358900070e-02" rms="4.2471194267272949e-01" purity="3.4179061651229858e-01" nType="-99"/>
            <Node pos="r" depth="3" NCoef="0" IVar="-1" Cut="0.0000000000000000e+00" cType="1" res="4.7591973096132278e-02" rms="4.1955935955047607e-01" purity="7.0717602968215942e-01" nType="-99"/>
          </Node>
        </Node>
        <Node pos="r" depth="1" NCoef="0" IVar="1" Cut="2.1997271105647087e-02" cType="1" res="1.1087477207183838e-01" rms="3.4506276249885559e-01" purity="7.5374090671539307e-01" nType="0">
          <Node pos="l" depth="2" NCoef="0" IVar="1" Cut="1.3656905852258205e-02" cType="1" res="-1.2291879951953888e-01" rms="3.8880094885826111e-01" purity="2.6555758714675903e-01" nType="0">
            <Node pos="l" depth="3" NCoef="0" IVar="-1" Cut="0.0000000000000000e+00" cType="1" res="-8.7688118219375610e-02" rms="3.4520620107650757e-01" purity="1.7137485742568970e-01" nType="-99"/>
            <Node pos="r" depth="3" NCoef="0" IVar="-1" Cut="0.0000000000000000e+00" cType="1" res="-1.8219757825136185e-02" rms="4.2064142227172852e-01" purity="3.7771165370941162e-01" nType="-99"/>
          </Node>
          <Node pos="r" depth="2" NCoef="0" IVar="0" Cut="1.6318829345703125e+03" cType="1" res="1.4067862927913666e-01" rms="3.2729235291481018e-01" purity="8.1597417593002319e-01" nType="0">
            <Node pos="l" depth="3" NCoef="0" IVar="-1" Cut="0.0000000000000000e+00" cType="1" res="3.8088224828243256e-02" rms="4.1977062821388245e-01" purity="6.4065051078796387e-01" nType="-99"/>
            <Node pos="r" depth="3" NCoef="0" IVar="-1" Cut="0.0000000000000000e+00" cType="1" res="9.8980896174907684e-02" rms="2.3785246908664703e-01" purity="9.3440198898315430e-01" nType="-99"/>
          </Node>
        </Node>
      </Node>
    </BinaryTree>
    <BinaryTree type="DecisionTree" boostWeight="1.0000000000000000e+00" itree="6">
      <Node pos="s" depth="0" NCoef="0" IVar="11" Cut="-2.1714744567871094e+00" cType="1" res="3.8256174884736538e-03" rms="3.5854259133338928e-01" purity="5.0425451993942261e-01" nType="0">
        <Node pos="l" depth="1" NCoef="0" IVar="4" Cut="1.8428327941894531e+02" cType="1" res="-8.7353222072124481e-02" rms="3.5383963584899902e-01" purity="2.4213685095310211e-01" nType="0">
          <Node pos="l" depth="2" NCoef="0" IVar="4" Cut="1.2082400512695312e+02" cType="1" res="-1.1731977015733719e-01" rms="3.2058653235435486e-01" purity="1.5976777672767639e-01" nType="0">
            <Node pos="l" depth="3" NCoef="0" IVar="-1" Cut="0.0000000000000000e+00" cType="1" res="-8.9472696185112000e-02" rms="2.4566642940044403e-01" purity="7.7286742627620697e-02" nType="-99"/>
            <Node pos="r" depth="3" NCoef="0" IVar="-1" Cut="0.0000000000000000e+00" cType="1" res="-3.4916911274194717e-02" rms="3.9651384949684143e-01" purity="2.7298492193222046e-01" nType="-99"/>
          </Node>
          <Node pos="r" depth="2" NCoef="0" IVar="0" Cut="2.0332768554687500e+03" cType="1" res="2.4242000654339790e-02" rms="4.3922886252403259e-01" purity="5.4887878894805908e-01" nType="0">
            <Node pos="l" depth="3" NCoef="0" IVar="-1" Cut="0.0000000000000000e+00" cType="1" res="-6.9580255076289177e-03" rms="4.5160621404647827e-01" purity="4.6648019552230835e-01" nType="-99"/>
            <Node pos="r" depth="3" NCoef="0" IVar="-1" Cut="0.0000000000000000e+00" cType="1" res="6.5465107560157776e-02" rms="3.7746772170066833e-01" purity="7.9033118486404419e-01" nType="-99"/>
          </Node>
        </Node>
        <Node pos="r" depth="1" NCoef="0" IVar="1" Cut="4.2424567043781281e-02" cType="1" res="9.1721683740615845e-02" rms="3.4065011143684387e-01" purity="7.5693494081497192e-01" nType="0">
          <Node pos="l" depth="2" NCoef="0" IVar="0" Cut="1.9063765869140625e+03" cType="1" res="-2.7721146121621132e-02" rms="4.1940134763717651e-01" purity="4.2441010475158691e-01" nType="0">
            <Node pos="l" depth="3" NCoef="0" IVar="-1" Cut="0.0000000000000000e+00" cType="1" res="-3.9396248757839203e-02" rms="4.1615161299705505e-01" purity="3.0172386765480042e-01" nType="-99"/>
            <Node pos="r" depth="3" NCoef="0" IVar="-1" Cut="0.0000000000000000e+00" cType="1" res="6.8883232772350311e-02" rms="3.7709307670593262e-01" purity="8.0207180976867676e-01" nType="-99"/>
          </Node>
          <Node pos="r" depth="2" NCoef="0" IVar="1" Cut="1.1915516108274460e-01" cType="1" res="1.3067071139812469e-01" rms="3.0059146881103516e-01" purity="8.6536777019500732e-01" nType="0">
            <Node pos="l" depth="3" NCoef="0" IVar="-1" Cut="0.0000000000000000e+00" cType="1" res="5.2119120955467224e-02" rms="3.5103064775466919e-01" purity="8.0160909891128540e-01" nType="-99"/>
            <Node pos="r" depth="3" NCoef="0" IVar="-1" Cut="0.0000000000000000e+00" cType="1" res="1.0215917229652405e-01" rms="2.1843335032463074e-01" purity="9.4181001186370850e-01" nType="-99"/>
          </Node>
        </Node>
      </Node>
    </BinaryTree>
    <BinaryTree type="DecisionTree" boostWeight="1.0000000000000000e+00" itree="7">
      <Node pos="s" depth="0" NCoef="0" IVar="5" Cut="8.7484741210937500e+01" cType="1" res="2.7682143263518810e-03" rms="3.5146275162696838e-01" purity="5.0310915708541870e-01" nType="0">
        <Node pos="l" depth="1" NCoef="0" IVar="1" Cut="8.3462499082088470e-02" cType="1" res="-6.3786342740058899e-02" rms="3.5620975494384766e-01" purity="2.7894449234008789e-01" nType="0">
          <Node pos="l" depth="2" NCoef="0" IVar="0" Cut="1.6917468261718750e+03" cType="1" res="-9.2387594282627106e-02" rms="3.3145359158515930e-01" purity="1.9275493919849396e-01" nType="0">
            <Node pos="l" depth="3" NCoef="0" IVar="-1" Cut="0.0000000000000000e+00" cType="1" res="-6.4321942627429962e-02" rms="3.0577665567398071e-01" purity="1.3655678927898407e-01" nType="-99"/>
            <Node pos="r" depth="3" NCoef="0" IVar="-1" Cut="0.0000000000000000e+00" cType="1" res="6.6159958951175213e-03" rms="4.4647929072380066e-01" purity="5.4583269357681274e-01" nType="-99"/>
          </Node>
          <Node pos="r" depth="2" NCoef="0" IVar="0" Cut="1.2335474853515625e+03" cType="1" res="3.8804382085800171e-02" rms="4.1771987080574036e-01" purity="5.8810043334960938e-01" nType="0">
            <Node pos="l" depth="3" NCoef="0" IVar="-1" Cut="0.0000000000000000e+00" cType="1" res="-2.9292125254869461e-02" rms="4.2463734745979309e-01" purity="2.8997170925140381e-01" nType="-99"/>
            <Node pos="r" depth="3" NCoef="0" IVar="-1" Cut="0.0000000000000000e+00" cType="1" res="4.5529663562774658e-02" rms="4.0303236246109009e-01" purity="7.5134503841400146e-01" nType="-99"/>
          </Node>
        </Node>
        <Node pos="r" depth="1" NCoef="0" IVar="8" Cut="1.2011681795120239e+00" cType="1" res="9.4797998666763306e-02" rms="3.2293403148651123e-01" purity="8.1307774782180786e-01" nType="0">
          <Node pos="l" depth="2" NCoef="0" IVar="8" Cut="-1.2720420360565186e+00" cType="1" res="1.0782084614038467e-01" rms="3.1252998113632202e-01" purity="8.3567517995834351e-01" nType="0">
            <Node pos="l" depth="3" NCoef="0" IVar="-1" Cut="0.0000000000000000e+00" cType="1" res="-4.1684314608573914e-02" rms="4.0348362922668457e-01" purity="5.1925081014633179e-01" nType="-99"/>
            <Node pos="r" depth="3" NCoef="0" IVar="-1" Cut="0.0000000000000000e+00" cType="1" res="7.1509867906570435e-02" rms="3.0092632770538330e-01" purity="8.5752272605895996e-01" nType="-99"/>
          </Node>
          <Node pos="r" depth="2" NCoef="0" IVar="-1" Cut="0.0000000000000000e+00" cType="1" res="-4.2141657322645187e-02" rms="4.0034815669059753e-01" purity="5.0877934694290161e-01" nType="-99"/>
        </Node>
      </Node>
    </BinaryTree>
    <BinaryTree type="DecisionTree" boostWeight="1.0000000000000000e+00" itree="8">
      <Node pos="s" depth="0" NCoef="0" IVar="11" Cut="-2.1714363098144531e+00" cType="1" res="4.6597735490649939e-04" rms="3.4535720944404602e-01" purity="5.0008487701416016e-01" nType="0">
        <Node pos="l" depth="1" NCoef="0" IVar="1" Cut="1.2519635260105133e-01" cType="1" res="-6.8901769816875458e-02" rms="3.4364280104637146e-01" purity="2.3161539435386658e-01" nType="0">
          <Node pos="l" depth="2" NCoef="0" IVar="0" Cut="1.5984301757812500e+03" cType="1" res="-8.4001488983631134e-02" rms="3.2929754257202148e-01" purity="1.9163244962692261e-01" nType="0">
            <Node pos="l" depth="3" NCoef="0" IVar="-1" Cut="0.0000000000000000e+00" cType="1" res="-6.5354771912097931e-02" rms="2.9109489917755127e-01" purity="1.1457611620426178e-01" nType="-99"/>
            <Node pos="r" depth="3" NCoef="0" IVar="-1" Cut="0.0000000000000000e+00" cType="1" res="-2.6407702825963497e-03" rms="4.4761577248573303e-01" purity="5.1514846086502075e-01" nType="-99"/>
          </Node>
          <Node pos="r" depth="2" NCoef="0" IVar="-1" Cut="0.0000000000000000e+00" cType="1" res="3.1686350703239441e-02" rms="4.3005779385566711e-01" purity="5.9521859884262085e-01" nType="-99"/>
        </Node>
        <Node pos="r" depth="1" NCoef="0" IVar="4" Cut="1.3579910278320312e+02" cType="1" res="6.6627547144889832e-02" rms="3.3381339907646179e-01" purity="7.5614565610885620e-01" nType="0">
          <Node pos="l" depth="2" NCoef="0" IVar="4" Cut="1.0036238098144531e+02" cType="1" res="-3.3702220767736435e-02" rms="4.1568911075592041e-01" purity="4.2770421504974365e-01" nType="0">
            <Node pos="l" depth="3" NCoef="0" IVar="-1" Cut="0.0000000000000000e+00" cType="1" res="-6.2801010906696320e-02" rms="3.8021421432495117e-01" purity="2.1939833462238312e-01" nType="-99"/>
            <Node pos="r" depth="3" NCoef="0" IVar="-1" Cut="0.0000000000000000e+00" cType="1" res="3.2752791885286570e-03" rms="4.2405295372009277e-01" purity="5.1890796422958374e-01" nType="-99"/>
          </Node>
          <Node pos="r" depth="2" NCoef="0" IVar="7" Cut="9.5986098051071167e-01" cType="1" res="9.4597838819026947e-02" rms="3.0122241377830505e-01" purity="8.4770977497100830e-01" nType="0">
            <Node pos="l" depth="3" NCoef="0" IVar="-1" Cut="0.0000000000000000e+00" cType="1" res="6.7427612841129303e-02" rms="2.8671798110008240e-01" purity="8.7178796529769897e-01" nType="-99"/>
            <Node pos="r" depth="3" NCoef="0" IVar="-1" Cut="0.0000000000000000e+00" cType="1" res="-9.9745839834213257e-03" rms="4.0127286314964294e-01" purity="6.0936772823333740e-01" nType="-99"/>
          </Node>
        </Node>
      </Node>
    </BinaryTree>
    <BinaryTree type="DecisionTree" boostWeight="1.0000000000000000e+00" itree="9">
      <Node pos="s" depth="0" NCoef="0" IVar="6" Cut="5.7308734893798828e+01" cType="1" res="-4.6816710382699966e-03" rms="3.3692851662635803e-01" purity="4.9570986628532410e-01" nType="0">
        <Node pos="l" depth="1" NCoef="0" IVar="1" Cut="1.2319748103618622e-01" cType="1" res="-5.7332385331392288e-02" rms="3.4488165378570557e-01" purity="2.5840267539024353e-01" nType="0">
          <Node pos="l" depth="2" NCoef="0" IVar="1" Cut="2.3465136066079140e-02" cType="1" res="-7.2656124830245972e-02" rms="3.3275556564331055e-01" purity="2.0959605276584625e-01" nType="0">
            <Node pos="l" depth="3" NCoef="0" IVar="-1" Cut="0.0000000000000000e+00" cType="1" res="-7.6982788741588593e-02" rms="2.4827706813812256e-01" purity="8.1756182014942169e-02" nType="-99"/>
            <Node pos="r" depth="3" NCoef="0" IVar="-1" Cut="0.0000000000000000e+00" cType="1" res="-2.4008702486753464e-02" rms="3.8137152791023254e-01" purity="3.0527570843696594e-01" nType="-99"/>
          </Node>
          <Node pos="r" depth="2" NCoef="0" IVar="-1" Cut="0.0000000000000000e+00" cType="1" res="3.2130040228366852e-02" rms="4.0987366437911987e-01" purity="6.5143972635269165e-01" nType="-99"/>
        </Node>
        <Node pos="r" depth="1" NCoef="0" IVar="7" Cut="-1.1609680652618408e+00" cType="1" res="6.5230131149291992e-02" rms="3.1265315413475037e-01" purity="8.1081622838973999e-01" nType="0">
          <Node pos="l" depth="2" NCoef="0" IVar="-1" Cut="0.0000000000000000e+00" cType="1" res="-6.3667625188827515e-02" rms="3.7788152694702148e-01" purity="4.4654217362403870e-01" nType="-99"/>
          <Node pos="r" depth="2" NCoef="0" IVar="7" Cut="9.1079646348953247e-01" cType="1" res="7.7274933457374573e-02" rms="3.0404728651046753e-01" purity="8.3457648754119873e-01" nType="0">
            <Node pos="l" depth="3" NCoef="0" IVar="-1" Cut="0.0000000000000000e+00" cType="1" res="6.0606349259614944e-02" rms="2.8726458549499512e-01" purity="8.6899828910827637e-01" nType="-99"/>
            <Node pos="r" depth="3" NCoef="0" IVar="-1" Cut="0.0000000000000000e+00" cType="1" res="-1.1550349183380604e-02" rms="3.9572483301162720e-01" purity="5.7373815774917603e-01" nType="-99"/>
          </Node>
        </Node>
      </Node>
    </BinaryTree>
    <BinaryTree type="DecisionTree" boostWeight="1.0000000000000000e+00" itree="10">
      <Node pos="s" depth="0" NCoef="0" IVar="4" Cut="1.4520042419433594e+02" cType="1" res="-1.3960786163806915e-03" rms="3.3634233474731445e-01" purity="5.0133228302001953e-01" nType="0">
        <Node pos="l" depth="1" NCoef="0" IVar="1" Cut="1.1615755409002304e-01" cType="1" res="-6.1853598803281784e-02" rms="3.1902170181274414e-01" purity="2.2112394869327545e-01" nType="0">
          <Node pos="l" depth="2" NCoef="0" IVar="1" Cut="2.7666024863719940e-02" cType="1" res="-7.3685191571712494e-02" rms="3.0435910820960999e-01" purity="1.6870804131031036e-01" nType="0">
            <Node pos="l" depth="3" NCoef="0" IVar="-1" Cut="0.0000000000000000e+00" cType="1" res="-7.7845782041549683e-02" rms="2.2296501696109772e-01" purity="6.3273690640926361e-02" nType="-99"/>
            <Node pos="r" depth="3" NCoef="0" IVar="-1" Cut="0.0000000000000000e+00" cType="1" res="-2.8736578300595284e-02" rms="3.6730626225471497e-01" purity="2.7569925785064697e-01" nType="-99"/>
          </Node>
          <Node pos="r" depth="2" NCoef="0" IVar="-1" Cut="0.0000000000000000e+00" cType="1" res="1.3296369463205338e-02" rms="4.0130269527435303e-01" purity="6.1151379346847534e-01" nType="-99"/>
        </Node>
        <Node pos="r" depth="1" NCoef="0" IVar="8" Cut="1.4667086601257324e+00" cType="1" res="4.6252321451902390e-02" rms="3.4193775057792664e-01" purity="7.2217285633087158e-01" nType="0">
          <Node pos="l" depth="2" NCoef="0" IVar="8" Cut="-9.7104179859161377e-01" cType="1" res="5.6526798754930496e-02" rms="3.3897891640663147e-01" purity="7.4418246746063232e-01" nType="0">
            <Node pos="l" depth="3" NCoef="0" IVar="-1" Cut="0.0000000000000000e+00" cType="1" res="-3.8419045507907867e-02" rms="3.6731910705566406e-01" purity="4.8718920350074768e-01" nType="-99"/>
            <Node pos="r" depth="3" NCoef="0" IVar="-1" Cut="0.0000000000000000e+00" cType="1" res="4.7499179840087891e-02" rms="3.3063930273056030e-01" purity="7.8246736526489258e-01" nType="-99"/>
          </Node>
          <Node pos="r" depth="2" NCoef="0" IVar="-1" Cut="0.0000000000000000e+00" cType="1" res="-8.9473016560077667e-02" rms="3.3417820930480957e-01" purity="2.7079105377197266e-01" nType="-99"/>
        </Node>
      </Node>
    </BinaryTree>
    <BinaryTree type="DecisionTree" boostWeight="1.0000000000000000e+00" itree="11">
      <Node pos="s" depth="0" NCoef="0" IVar="1" Cut="6.3618719577789307e-02" cType="1" res="6.2104105018079281e-04" rms="3.3672818541526794e-01" purity="4.9894702434539795e-01" nType="0">
        <Node pos="l" depth="1" NCoef="0" IVar="0" Cut="1.9889913330078125e+03" cType="1" res="-4.1801255196332932e-02" rms="3.4031975269317627e-01" purity="2.7356606721878052e-01" nType="0">
          <Node pos="l" depth="2" NCoef="0" IVar="7" Cut="-1.1750227212905884e+00" cType="1" res="-5.6424632668495178e-02" rms="3.3354154229164124e-01" purity="2.0786827802658081e-01" nType="0">
            <Node pos="l" depth="3" NCoef="0" IVar="-1" Cut="0.0000000000000000e+00" cType="1" res="-9.3122363090515137e-02" rms="2.4175526201725006e-01" purity="8.0697678029537201e-02" nType="-99"/>
            <Node pos="r" depth="3" NCoef="0" IVar="-1" Cut="0.0000000000000000e+00" cType="1" res="-2.6926251128315926e-02" rms="3.4821021556854248e-01" purity="2.3519270122051239e-01" nType="-99"/>
          </Node>
          <Node pos="r" depth="2" NCoef="0" IVar="2" Cut="6.1988592529296875e+02" cType="1" res="6.7132137715816498e-02" rms="3.6930099129676819e-01" purity="7.6296633481979370e-01" nType="0">
            <Node pos="l" depth="3" NCoef="0" IVar="-1" Cut="0.0000000000000000e+00" cType="1" res="7.5674466788768768e-02" rms="3.1017279624938965e-01" purity="8.7586206197738647e-01" nType="-99"/>
            <Node pos="r" depth="3" NCoef="0" IVar="-1" Cut="0.0000000000000000e+00" cType="1" res="-1.0680014966055751e-03" rms="4.1421699523925781e-01" purity="6.3842439651489258e-01" nType="-99"/>
          </Node>
        </Node>
        <Node pos="r" depth="1" NCoef="0" IVar="5" Cut="7.0204170227050781e+01" cType="1" res="5.1823832094669342e-02" rms="3.2504925131797791e-01" purity="7.7097690105438232e-01" nType="0">
          <Node pos="l" depth="2" NCoef="0" IVar="0" Cut="1.4459606933593750e+03" cType="1" res="-1.8270587548613548e-02" rms="4.2167952656745911e-01" purity="4.0800544619560242e-01" nType="0">
            <Node pos="l" depth="3" NCoef="0" IVar="-1" Cut="0.0000000000000000e+00" cType="1" res="-2.8024585917592049e-02" rms="4.1335502266883850e-01" purity="2.8623700141906738e-01" nType="-99"/>
            <Node pos="r" depth="3" NCoef="0" IVar="-1" Cut="0.0000000000000000e+00" cType="1" res="3.5727865993976593e-02" rms="4.2741402983665466e-01" purity="7.1495354175567627e-01" nType="-99"/>
          </Node>
          <Node pos="r" depth="2" NCoef="0" IVar="1" Cut="1.3631300628185272e-01" cType="1" res="7.1095883846282959e-02" rms="2.8999260067939758e-01" purity="8.7077379226684570e-01" nType="0">
            <Node pos="l" depth="3" NCoef="0" IVar="-1" Cut="0.0000000000000000e+00" cType="1" res="3.4842237830162048e-02" rms="3.2861211895942688e-01" purity="8.2278901338577271e-01" nType="-99"/>
            <Node pos="r" depth="3" NCoef="0" IVar="-1" Cut="0.0000000000000000e+00" cType="1" res="7.7651754021644592e-02" rms="2.2810952365398407e-01" purity="9.3275547027587891e-01" nType="-99"/>
          </Node>
        </Node>
      </Node>
    </BinaryTree>
    <BinaryTree type="DecisionTree" boostWeight="1.0000000000000000e+00" itree="12">
      <Node pos="s" depth="0" NCoef="0" IVar="0" Cut="1.3896972656250000e+03" cType="1" res="-1.8816874362528324e-03" rms="3.3007311820983887e-01" purity="4.9735823273658752e-01" nType="0">
        <Node pos="l" depth="1" NCoef="0" IVar="0" Cut="1.2773686523437500e+03" cType="1" res="-4.9242451786994934e-02" rms="3.1334438920021057e-01" purity="1.7811651527881622e-01" nType="0">
          <Node pos="l" depth="2" NCoef="0" IVar="0" Cut="1.0955128173828125e+03" cType="1" res="-6.8004392087459564e-02" rms="2.8337958455085754e-01" purity="1.2088517844676971e-01" nType="0">
            <Node pos="l" depth="3" NCoef="0" IVar="-1" Cut="0.0000000000000000e+00" cType="1" res="-7.9848274588584900e-02" rms="2.0775212347507477e-01" purity="4.8684079200029373e-02" nType="-99"/>
            <Node pos="r" depth="3" NCoef="0" IVar="-1" Cut="0.0000000000000000e+00" cType="1" res="-3.1330004334449768e-02" rms="3.3786681294441223e-01" purity="1.8851524591445923e-01" nType="-99"/>
          </Node>
          <Node pos="r" depth="2" NCoef="0" IVar="2" Cut="3.3535885620117188e+02" cType="1" res="1.4410210773348808e-02" rms="3.9192065596580505e-01" purity="3.7228232622146606e-01" nType="0">
            <Node pos="l" depth="3" NCoef="0" IVar="-1" Cut="0.0000000000000000e+00" cType="1" res="4.6344447880983353e-02" rms="4.2182457447052002e-01" purity="5.5301845073699951e-01" nType="-99"/>
            <Node pos="r" depth="3" NCoef="0" IVar="-1" Cut="0.0000000000000000e+00" cType="1" res="-5.0623074173927307e-02" rms="3.3065772056579590e-01" purity="1.5560993552207947e-01" nType="-99"/>
          </Node>
        </Node>
        <Node pos="r" depth="1" NCoef="0" IVar="9" Cut="-1.4661604166030884e+00" cType="1" res="3.3369798213243484e-02" rms="3.3770927786827087e-01" purity="7.3497575521469116e-01" nType="0">
          <Node pos="l" depth="2" NCoef="0" IVar="-1" Cut="0.0000000000000000e+00" cType="1" res="-7.9413510859012604e-02" rms="3.8759797811508179e-01" purity="4.0386903285980225e-01" nType="-99"/>
          <Node pos="r" depth="2" NCoef="0" IVar="9" Cut="1.5808824300765991e+00" cType="1" res="4.3599974364042282e-02" rms="3.3171471953392029e-01" purity="7.5448530912399292e-01" nType="0">
            <Node pos="l" depth="3" NCoef="0" IVar="-1" Cut="0.0000000000000000e+00" cType="1" res="3.5985127091407776e-02" rms="3.2688251137733459e-01" purity="7.7281206846237183e-01" nType="-99"/>
            <Node pos="r" depth="3" NCoef="0" IVar="-1" Cut="0.0000000000000000e+00" cType="1" res="-7.8813642263412476e-02" rms="3.7087723612785339e-01" purity="4.0105959773063660e-01" nType="-99"/>
          </Node>
        </Node>
      </Node>
    </BinaryTree>
    <BinaryTree type="DecisionTree" boostWeight="1.0000000000000000e+00" itree="13">
      <Node pos="s" depth="0" NCoef="0" IVar="0" Cut="1.6918057861328125e+03" cType="1" res="2.6389455888420343e-03" rms="3.2666534185409546e-01" purity="5.0454670190811157e-01" nType="0">
        <Node pos="l" depth="1" NCoef="0" IVar="2" Cut="4.0433981323242188e+02" cType="1" res="-2.4420185014605522e-02" rms="3.4125339984893799e-01" purity="3.2289659976959229e-01" nType="0">
          <Node pos="l" depth="2" NCoef="0" IVar="0" Cut="1.2246900634765625e+03" cType="1" res="-5.8852159418165684e-03" rms="3.4069165587425232e-01" purity="3.5352209210395813e-01" nType="0">
            <Node pos="l" depth="3" NCoef="0" IVar="-1" Cut="0.0000000000000000e+00" cType="1" res="-4.6717781573534012e-02" rms="2.7731692790985107e-01" purity="1.0562564432621002e-01" nType="-99"/>
            <Node pos="r" depth="3" NCoef="0" IVar="-1" Cut="0.0000000000000000e+00" cType="1" res="2.7019262313842773e-02" rms="3.8834336400032043e-01" purity="6.0681748390197754e-01" nType="-99"/>
          </Node>
          <Node pos="r" depth="2" NCoef="0" IVar="8" Cut="6.6413891315460205e-01" cType="1" res="-9.6405975520610809e-02" rms="3.3380460739135742e-01" purity="2.0395401120185852e-01" nType="0">
            <Node pos="l" depth="3" NCoef="0" IVar="-1" Cut="0.0000000000000000e+00" cType="1" res="-4.5555848628282547e-02" rms="3.5518103837966919e-01" purity="2.4910485744476318e-01" nType="-99"/>
            <Node pos="r" depth="3" NCoef="0" IVar="-1" Cut="0.0000000000000000e+00" cType="1" res="-1.0654763132333755e-01" rms="2.6287615299224854e-01" purity="8.9910916984081268e-02" nType="-99"/>
          </Node>
        </Node>
        <Node pos="r" depth="1" NCoef="0" IVar="2" Cut="6.2004949951171875e+02" cType="1" res="5.3992133587598801e-02" rms="2.9015845060348511e-01" purity="8.4928476810455322e-01" nType="0">
          <Node pos="l" depth="2" NCoef="0" IVar="2" Cut="4.8032101440429688e+02" cType="1" res="7.3277078568935394e-02" rms="2.6264426112174988e-01" purity="8.9674305915832520e-01" nType="0">
            <Node pos="l" depth="3" NCoef="0" IVar="-1" Cut="0.0000000000000000e+00" cType="1" res="7.5624525547027588e-02" rms="2.2510890662670135e-01" purity="9.3340170383453369e-01" nType="-99"/>
            <Node pos="r" depth="3" NCoef="0" IVar="-1" Cut="0.0000000000000000e+00" cType="1" res="3.3080581575632095e-02" rms="3.2222884893417358e-01" purity="8.2477819919586182e-01" nType="-99"/>
          </Node>
          <Node pos="r" depth="2" NCoef="0" IVar="0" Cut="2.2014357910156250e+03" cType="1" res="-2.4810986593365669e-02" rms="3.7230873107910156e-01" purity="6.5535825490951538e-01" nType="0">
            <Node pos="l" depth="3" NCoef="0" IVar="-1" Cut="0.0000000000000000e+00" cType="1" res="-7.4094526469707489e-02" rms="4.0347710251808167e-01" purity="3.9428076148033142e-01" nType="-99"/>
            <Node pos="r" depth="3" NCoef="0" IVar="-1" Cut="0.0000000000000000e+00" cType="1" res="3.0259914696216583e-02" rms="3.3304557204246521e-01" purity="8.0994898080825806e-01" nType="-99"/>
          </Node>
        </Node>
      </Node>
    </BinaryTree>
    <BinaryTree type="DecisionTree" boostWeight="1.0000000000000000e+00" itree="14">
      <Node pos="s" depth="0" NCoef="0" IVar="8" Cut="-1.1998845338821411e+00" cType="1" res="3.1278431415557861e-03" rms="3.2776296138763428e-01" purity="5.0423622131347656e-01" nType="0">
        <Node pos="l" depth="1" NCoef="0" IVar="7" Cut="4.4871333241462708e-01" cType="1" res="-8.5671380162239075e-02" rms="2.9160296916961670e-01" purity="2.0305143296718597e-01" nType="0">
          <Node pos="l" depth="2" NCoef="0" IVar="8" Cut="-1.5046472549438477e+00" cType="1" res="-5.9658981859683990e-02" rms="3.0914795398712158e-01" purity="2.4687863886356354e-01" nType="0">
            <Node pos="l" depth="3" NCoef="0" IVar="-1" Cut="0.0000000000000000e+00" cType="1" res="-7.0506691932678223e-02" rms="2.6090577244758606e-01" purity="1.4438065886497498e-01" nType="-99"/>
            <Node pos="r" depth="3" NCoef="0" IVar="-1" Cut="0.0000000000000000e+00" cType="1" res="-1.1241607367992401e-02" rms="3.6611273884773254e-01" purity="4.0189024806022644e-01" nType="-99"/>
          </Node>
          <Node pos="r" depth="2" NCoef="0" IVar="-1" Cut="0.0000000000000000e+00" cType="1" res="-1.0798943787813187e-01" rms="2.4216970801353455e-01" purity="1.1149211972951889e-01" nType="-99"/>
        </Node>
        <Node pos="r" depth="1" NCoef="0" IVar="8" Cut="1.0857751369476318e+00" cType="1" res="1.4470444992184639e-02" rms="3.3038374781608582e-01" purity="5.4270750284194946e-01" nType="0">
          <Node pos="l" depth="2" NCoef="0" IVar="0" Cut="1.0759718017578125e+03" cType="1" res="2.9616653919219971e-02" rms="3.3336216211318970e-01" purity="5.9736537933349609e-01" nType="0">
            <Node pos="l" depth="3" NCoef="0" IVar="-1" Cut="0.0000000000000000e+00" cType="1" res="-6.2601096928119659e-02" rms="2.2667537629604340e-01" purity="5.8138802647590637e-02" nType="-99"/>
            <Node pos="r" depth="3" NCoef="0" IVar="-1" Cut="0.0000000000000000e+00" cType="1" res="2.8802258893847466e-02" rms="3.4261819720268250e-01" purity="6.6503316164016724e-01" nType="-99"/>
          </Node>
          <Node pos="r" depth="2" NCoef="0" IVar="7" Cut="-3.9258274435997009e-01" cType="1" res="-6.9435410201549530e-02" rms="2.9981812834739685e-01" purity="2.3991775512695312e-01" nType="0">
            <Node pos="l" depth="3" NCoef="0" IVar="-1" Cut="0.0000000000000000e+00" cType="1" res="-9.4059690833091736e-02" rms="2.5563064217567444e-01" purity="1.3760180771350861e-01" nType="-99"/>
            <Node pos="r" depth="3" NCoef="0" IVar="-1" Cut="0.0000000000000000e+00" cType="1" res="-3.2062083482742310e-02" rms="3.1692606210708618e-01" purity="2.9164686799049377e-01" nType="-99"/>
          </Node>
        </Node>
      </Node>
    </BinaryTree>
    <BinaryTree type="DecisionTree" boostWeight="1.0000000000000000e+00" itree="15">
      <Node pos="s" depth="0" NCoef="0" IVar="1" Cut="2.1208232268691063e-02" cType="1" res="-1.0192930931225419e-03" rms="3.2176598906517029e-01" purity="5.0033360719680786e-01" nType="0">
        <Node pos="l" depth="1" NCoef="0" IVar="7" Cut="1.4747964143753052e+00" cType="1" res="-6.1257109045982361e-02" rms="2.6007506251335144e-01" purity="1.0747741907835007e-01" nType="0">
          <Node pos="l" depth="2" NCoef="0" IVar="7" Cut="-9.4748955965042114e-01" cType="1" res="-4.7527514398097992e-02" rms="2.7847579121589661e-01" purity="1.2710589170455933e-01" nType="0">
            <Node pos="l" depth="3" NCoef="0" IVar="-1" Cut="0.0000000000000000e+00" cType="1" res="-8.0642879009246826e-02" rms="2.0542889833450317e-01" purity="6.1126649379730225e-02" nType="-99"/>
            <Node pos="r" depth="3" NCoef="0" IVar="-1" Cut="0.0000000000000000e+00" cType="1" res="-1.9688326865434647e-02" rms="3.1323873996734619e-01" purity="1.6795794665813446e-01" nType="-99"/>
          </Node>
          <Node pos="r" depth="2" NCoef="0" IVar="-1" Cut="0.0000000000000000e+00" cType="1" res="-1.1068590730428696e-01" rms="1.4755456149578094e-01" purity="2.4821219965815544e-02" nType="-99"/>
        </Node>
        <Node pos="r" depth="1" NCoef="0" IVar="9" Cut="-1.1995850801467896e+00" cType="1" res="1.7837697640061378e-02" rms="3.3656844496726990e-01" purity="6.2331426143646240e-01" nType="0">
          <Node pos="l" depth="2" NCoef="0" IVar="2" Cut="3.6770941162109375e+02" cType="1" res="-5.4077114909887314e-02" rms="3.5727301239967346e-01" purity="4.1123068332672119e-01" nType="0">
            <Node pos="l" depth="3" NCoef="0" IVar="-1" Cut="0.0000000000000000e+00" cType="1" res="-1.4993141405284405e-02" rms="3.4989041090011597e-01" purity="3.7075063586235046e-01" nType="-99"/>
            <Node pos="r" depth="3" NCoef="0" IVar="-1" Cut="0.0000000000000000e+00" cType="1" res="-7.1253694593906403e-02" rms="3.6291930079460144e-01" purity="4.7918942570686340e-01" nType="-99"/>
          </Node>
          <Node pos="r" depth="2" NCoef="0" IVar="0" Cut="1.0949208984375000e+03" cType="1" res="2.6839619502425194e-02" rms="3.3279374241828918e-01" purity="6.4986175298690796e-01" nType="0">
            <Node pos="l" depth="3" NCoef="0" IVar="-1" Cut="0.0000000000000000e+00" cType="1" res="-4.9491345882415771e-02" rms="2.5485187768936157e-01" purity="7.5223132967948914e-02" nType="-99"/>
            <Node pos="r" depth="3" NCoef="0" IVar="-1" Cut="0.0000000000000000e+00" cType="1" res="2.6143567636609077e-02" rms="3.4022358059883118e-01" purity="7.2421145439147949e-01" nType="-99"/>
          </Node>
        </Node>
      </Node>
    </BinaryTree>
    <BinaryTree type="DecisionTree" boostWeight="1.0000000000000000e+00" itree="16">
      <Node pos="s" depth="0" NCoef="0" IVar="7" Cut="1.2100760936737061e+00" cType="1" res="-1.2641557259485126e-04" rms="3.2070806622505188e-01" purity="5.0007176399230957e-01" nType="0">
        <Node pos="l" depth="1" NCoef="0" IVar="7" Cut="-6.8244975805282593e-01" cType="1" res="1.0246516205370426e-02" rms="3.2584533095359802e-01" purity="5.3773689270019531e-01" nType="0">
          <Node pos="l" depth="2" NCoef="0" IVar="6" Cut="7.1404273986816406e+01" cType="1" res="-4.9465946853160858e-02" rms="3.0210301280021667e-01" purity="3.1916451454162598e-01" nType="0">
            <Node pos="l" depth="3" NCoef="0" IVar="-1" Cut="0.0000000000000000e+00" cType="1" res="-5.2951458841562271e-02" rms="2.9505470395088196e-01" purity="1.8248106539249420e-01" nType="-99"/>
            <Node pos="r" depth="3" NCoef="0" IVar="-1" Cut="0.0000000000000000e+00" cType="1" res="2.0612529478967190e-03" rms="3.1972581148147583e-01" purity="7.8882533311843872e-01" nType="-99"/>
          </Node>
          <Node pos="r" depth="2" NCoef="0" IVar="4" Cut="9.8966674804687500e+01" cType="1" res="2.9132792726159096e-02" rms="3.3076617121696472e-01" purity="6.0686850547790527e-01" nType="0">
            <Node pos="l" depth="3" NCoef="0" IVar="-1" Cut="0.0000000000000000e+00" cType="1" res="-4.0572363883256912e-02" rms="2.7030101418495178e-01" purity="1.0726544260978699e-01" nType="-99"/>
            <Node pos="r" depth="3" NCoef="0" IVar="-1" Cut="0.0000000000000000e+00" cType="1" res="2.9679439961910248e-02" rms="3.3812803030014038e-01" purity="6.8898326158523560e-01" nType="-99"/>
          </Node>
        </Node>
        <Node pos="r" depth="1" NCoef="0" IVar="2" Cut="2.8454684448242188e+02" cType="1" res="-9.8039738833904266e-02" rms="2.4677559733390808e-01" purity="1.4453859627246857e-01" nType="0">
          <Node pos="l" depth="2" NCoef="0" IVar="-1" Cut="0.0000000000000000e+00" cType="1" res="-4.7089204192161560e-02" rms="2.3970939218997955e-01" purity="1.5217815339565277e-01" nType="-99"/>
          <Node pos="r" depth="2" NCoef="0" IVar="3" Cut="2.3104096984863281e+02" cType="1" res="-1.3116310536861420e-01" rms="2.4605679512023926e-01" purity="1.3931891322135925e-01" nType="0">
            <Node pos="l" depth="3" NCoef="0" IVar="-1" Cut="0.0000000000000000e+00" cType="1" res="-1.0801702737808228e-01" rms="1.7263166606426239e-01" purity="5.3497564047574997e-02" nType="-99"/>
            <Node pos="r" depth="3" NCoef="0" IVar="-1" Cut="0.0000000000000000e+00" cType="1" res="-9.9261723458766937e-02" rms="3.1305399537086487e-01" purity="2.4739103019237518e-01" nType="-99"/>
          </Node>
        </Node>
      </Node>
    </BinaryTree>
    <BinaryTree type="DecisionTree" boostWeight="1.0000000000000000e+00" itree="17">
      <Node pos="s" depth="0" NCoef="0" IVar="9" Cut="1.1998423337936401e+00" cType="1" res="-5.9944222448393703e-04" rms="3.2352563738822937e-01" purity="4.9499601125717163e-01" nType="0">
        <Node pos="l" depth="1" NCoef="0" IVar="9" Cut="-1.6570458412170410e+00" cType="1" res="9.2416144907474518e-03" rms="3.2415708899497986e-01" purity="5.2816689014434814e-01" nType="0">
          <Node pos="l" depth="2" NCoef="0" IVar="4" Cut="1.3537294006347656e+02" cType="1" res="-8.9710310101509094e-02" rms="2.8327119350433350e-01" purity="1.7174370586872101e-01" nType="0">
            <Node pos="l" depth="3" NCoef="0" IVar="-1" Cut="0.0000000000000000e+00" cType="1" res="-5.8951966464519501e-02" rms="2.4898101389408112e-01" purity="9.0615287423133850e-02" nType="-99"/>
            <Node pos="r" depth="3" NCoef="0" IVar="-1" Cut="0.0000000000000000e+00" cType="1" res="-8.5802443325519562e-02" rms="3.2200285792350769e-01" purity="2.9285818338394165e-01" nType="-99"/>
          </Node>
          <Node pos="r" depth="2" NCoef="0" IVar="10" Cut="1.7330975532531738e+00" cType="1" res="1.7395820468664169e-02" rms="3.2596170902252197e-01" purity="5.5753821134567261e-01" nType="0">
            <Node pos="l" depth="3" NCoef="0" IVar="-1" Cut="0.0000000000000000e+00" cType="1" res="1.9019613042473793e-02" rms="3.2443213462829590e-01" purity="5.7396608591079712e-01" nType="-99"/>
            <Node pos="r" depth="3" NCoef="0" IVar="-1" Cut="0.0000000000000000e+00" cType="1" res="-5.8574460446834564e-02" rms="3.3139747381210327e-01" purity="3.3209034800529480e-01" nType="-99"/>
          </Node>
        </Node>
        <Node pos="r" depth="1" NCoef="0" IVar="7" Cut="-3.5858586430549622e-01" cType="1" res="-6.8065986037254333e-02" rms="3.1088459491729736e-01" purity="2.6758915185928345e-01" nType="0">
          <Node pos="l" depth="2" NCoef="0" IVar="-1" Cut="0.0000000000000000e+00" cType="1" res="-9.4240419566631317e-02" rms="2.6944148540496826e-01" purity="1.6717435419559479e-01" nType="-99"/>
          <Node pos="r" depth="2" NCoef="0" IVar="7" Cut="6.9135069847106934e-01" cType="1" res="-4.6932451426982880e-02" rms="3.2743072509765625e-01" purity="3.1731596589088440e-01" nType="0">
            <Node pos="l" depth="3" NCoef="0" IVar="-1" Cut="0.0000000000000000e+00" cType="1" res="-1.2593054212629795e-02" rms="3.6761513352394104e-01" purity="4.3393698334693909e-01" nType="-99"/>
            <Node pos="r" depth="3" NCoef="0" IVar="-1" Cut="0.0000000000000000e+00" cType="1" res="-7.0080913603305817e-02" rms="2.6443651318550110e-01" purity="1.7136149108409882e-01" nType="-99"/>
          </Node>
        </Node>
      </Node>
    </BinaryTree>
    <BinaryTree type="DecisionTree" boostWeight="1.0000000000000000e+00" itree="18">
      <Node pos="s" depth="0" NCoef="0" IVar="6" Cut="8.2970474243164062e+01" cType="1" res="-8.0131355207413435e-04" rms="3.1760776042938232e-01" purity="4.9888923764228821e-01" nType="0">
        <Node pos="l" depth="1" NCoef="0" IVar="7" Cut="9.3777817487716675e-01" cType="1" res="-1.3767551630735397e-02" rms="3.3840653300285339e-01" purity="3.7617549300193787e-01" nType="0">
          <Node pos="l" depth="2" NCoef="0" IVar="7" Cut="-8.3387982845306396e-01" cType="1" res="-2.4883367586880922e-03" rms="3.4924343228340149e-01" purity="4.2182871699333191e-01" nType="0">
            <Node pos="l" depth="3" NCoef="0" IVar="-1" Cut="0.0000000000000000e+00" cType="1" res="-4.8996146768331528e-02" rms="2.8380304574966431e-01" purity="1.7772737145423889e-01" nType="-99"/>
            <Node pos="r" depth="3" NCoef="0" IVar="-1" Cut="0.0000000000000000e+00" cType="1" res="9.1877626255154610e-03" rms="3.6507099866867065e-01" purity="4.9498888850212097e-01" nType="-99"/>
          </Node>
          <Node pos="r" depth="2" NCoef="0" IVar="2" Cut="3.8955999755859375e+02" cType="1" res="-7.0938587188720703e-02" rms="2.6987704634666443e-01" purity="1.4477279782295227e-01" nType="0">
            <Node pos="l" depth="3" NCoef="0" IVar="-1" Cut="0.0000000000000000e+00" cType="1" res="-4.5420471578836441e-02" rms="2.6848834753036499e-01" purity="1.4282277226448059e-01" nType="-99"/>
            <Node pos="r" depth="3" NCoef="0" IVar="-1" Cut="0.0000000000000000e+00" cType="1" res="-9.1408811509609222e-02" rms="2.6621738076210022e-01" purity="1.4920881390571594e-01" nType="-99"/>
          </Node>
        </Node>
        <Node pos="r" depth="1" NCoef="0" IVar="0" Cut="1.8271538085937500e+03" cType="1" res="4.4056661427021027e-02" rms="2.2600243985652924e-01" purity="9.2342942953109741e-01" nType="0">
          <Node pos="l" depth="2" NCoef="0" IVar="-1" Cut="0.0000000000000000e+00" cType="1" res="1.7499329522252083e-02" rms="2.9251164197921753e-01" purity="8.5443049669265747e-01" nType="-99"/>
          <Node pos="r" depth="2" NCoef="0" IVar="-1" Cut="0.0000000000000000e+00" cType="1" res="7.2602555155754089e-02" rms="1.7178523540496826e-01" purity="9.6542865037918091e-01" nType="-99"/>
        </Node>
      </Node>
    </BinaryTree>
    <BinaryTree type="DecisionTree" boostWeight="1.0000000000000000e+00" itree="19">
      <Node pos="s" depth="0" NCoef="0" IVar="5" Cut="1.1060195159912109e+02" cType="1" res="-1.7056799260899425e-03" rms="3.1910726428031921e-01" purity="4.9553090333938599e-01" nType="0">
        <Node pos="l" depth="1" NCoef="0" IVar="8" Cut="9.3338578939437866e-01" cType="1" res="-1.4073424041271210e-02" rms="3.3763214945793152e-01" purity="3.6082211136817932e-01" nType="0">
          <Node pos="l" depth="2" NCoef="0" IVar="8" Cut="-1.0221425294876099e+00" cType="1" res="-3.5434144083410501e-03" rms="3.4591710567474365e-01" purity="4.0341886878013611e-01" nType="0">
            <Node pos="l" depth="3" NCoef="0" IVar="-1" Cut="0.0000000000000000e+00" cType="1" res="-4.6983122825622559e-02" rms="2.8648221492767334e-01" purity="1.7886237800121307e-01" nType="-99"/>
            <Node pos="r" depth="3" NCoef="0" IVar="-1" Cut="0.0000000000000000e+00" cType="1" res="7.3584746569395065e-03" rms="3.5927951335906982e-01" purity="4.6510091423988342e-01" nType="-99"/>
          </Node>
          <Node pos="r" depth="2" NCoef="0" IVar="2" Cut="3.3582092285156250e+02" cType="1" res="-5.8196227997541428e-02" rms="2.9640206694602966e-01" purity="1.8233348429203033e-01" nType="0">
            <Node pos="l" depth="3" NCoef="0" IVar="-1" Cut="0.0000000000000000e+00" cType="1" res="-2.1969325840473175e-02" rms="2.9398339986801147e-01" purity="1.7741899192333221e-01" nType="-99"/>
            <Node pos="r" depth="3" NCoef="0" IVar="-1" Cut="0.0000000000000000e+00" cType="1" res="-7.3988139629364014e-02" rms="2.9450097680091858e-01" purity="1.8776357173919678e-01" nType="-99"/>
          </Node>
        </Node>
        <Node pos="r" depth="1" NCoef="0" IVar="0" Cut="1.5923809814453125e+03" cType="1" res="3.4627221524715424e-02" rms="2.5361335277557373e-01" purity="8.9126688241958618e-01" nType="0">
          <Node pos="l" depth="2" NCoef="0" IVar="-1" Cut="0.0000000000000000e+00" cType="1" res="-4.0829932549968362e-04" rms="3.6542436480522156e-01" purity="6.9154244661331177e-01" nType="-99"/>
          <Node pos="r" depth="2" NCoef="0" IVar="8" Cut="-6.6616982221603394e-01" cType="1" res="4.1680019348859787e-02" rms="2.2400346398353577e-01" purity="9.3121373653411865e-01" nType="0">
            <Node pos="l" depth="3" NCoef="0" IVar="-1" Cut="0.0000000000000000e+00" cType="1" res="1.3196340762078762e-02" rms="2.7166345715522766e-01" purity="8.7505418062210083e-01" nType="-99"/>
            <Node pos="r" depth="3" NCoef="0" IVar="-1" Cut="0.0000000000000000e+00" cType="1" res="5.6467931717634201e-02" rms="2.1196660399436951e-01" purity="9.4319844245910645e-01" nType="-99"/>
          </Node>
        </Node>
      </Node>
    </BinaryTree>
    <BinaryTree type="DecisionTree" boostWeight="1.0000000000000000e+00" itree="20">
      <Node pos="s" depth="0" NCoef="0" IVar="0" Cut="1.6172016601562500e+03" cType="1" res="-7.7506667003035545e-04" rms="3.1501260399818420e-01" purity="4.9879649281501770e-01" nType="0">
        <Node pos="l" depth="1" NCoef="0" IVar="2" Cut="3.1703982543945312e+02" cType="1" res="-1.7206029966473579e-02" rms="3.2738327980041504e-01" purity="2.8634804487228394e-01" nType="0">
          <Node pos="l" depth="2" NCoef="0" IVar="0" Cut="1.1502055664062500e+03" cType="1" res="6.3880565576255322e-03" rms="3.2302907109260559e-01" purity="3.3141449093818665e-01" nType="0">
            <Node pos="l" depth="3" NCoef="0" IVar="-1" Cut="0.0000000000000000e+00" cType="1" res="-3.8606692105531693e-02" rms="2.4139530956745148e-01" purity="7.5250342488288879e-02" nType="-99"/>
            <Node pos="r" depth="3" NCoef="0" IVar="-1" Cut="0.0000000000000000e+00" cType="1" res="2.9265413060784340e-02" rms="3.8234972953796387e-01" purity="5.8181393146514893e-01" nType="-99"/>
          </Node>
          <Node pos="r" depth="2" NCoef="0" IVar="3" Cut="3.0450305175781250e+02" cType="1" res="-4.7372873872518539e-02" rms="3.3042246103286743e-01" purity="2.2872711718082428e-01" nType="0">
            <Node pos="l" depth="3" NCoef="0" IVar="-1" Cut="0.0000000000000000e+00" cType="1" res="-3.2374463975429535e-02" rms="3.2499915361404419e-01" purity="2.2709871828556061e-01" nType="-99"/>
            <Node pos="r" depth="3" NCoef="0" IVar="-1" Cut="0.0000000000000000e+00" cType="1" res="-6.4648851752281189e-02" rms="3.6942338943481445e-01" purity="2.4273440241813660e-01" nType="-99"/>
          </Node>
        </Node>
        <Node pos="r" depth="1" NCoef="0" IVar="2" Cut="5.7772918701171875e+02" cType="1" res="2.4566465988755226e-02" rms="2.9311746358871460e-01" purity="8.2645648717880249e-01" nType="0">
          <Node pos="l" depth="2" NCoef="0" IVar="7" Cut="-8.3631414175033569e-01" cType="1" res="4.4508729130029678e-02" rms="2.6690512895584106e-01" purity="8.8344931602478027e-01" nType="0">
            <Node pos="l" depth="3" NCoef="0" IVar="-1" Cut="0.0000000000000000e+00" cType="1" res="-2.9210937209427357e-03" rms="3.3779519796371460e-01" purity="7.3758399486541748e-01" nType="-99"/>
            <Node pos="r" depth="3" NCoef="0" IVar="-1" Cut="0.0000000000000000e+00" cType="1" res="4.9461059272289276e-02" rms="2.5697132945060730e-01" purity="9.0014362335205078e-01" nType="-99"/>
          </Node>
          <Node pos="r" depth="2" NCoef="0" IVar="0" Cut="2.0841850585937500e+03" cType="1" res="-3.8277380168437958e-02" rms="3.5633498430252075e-01" purity="6.4685553312301636e-01" nType="0">
            <Node pos="l" depth="3" NCoef="0" IVar="-1" Cut="0.0000000000000000e+00" cType="1" res="-7.6716564595699310e-02" rms="3.9922010898590088e-01" purity="3.6246046423912048e-01" nType="-99"/>
            <Node pos="r" depth="3" NCoef="0" IVar="-1" Cut="0.0000000000000000e+00" cType="1" res="1.2200683355331421e-02" rms="3.1712648272514343e-01" purity="8.0827200412750244e-01" nType="-99"/>
          </Node>
        </Node>
      </Node>
    </BinaryTree>
    <BinaryTree type="DecisionTree" boostWeight="1.0000000000000000e+00" itree="21">
      <Node pos="s" depth="0" NCoef="0" IVar="8" Cut="1.1999777555465698e+00" cType="1" res="2.6755933649837971e-03" rms="3.1889021396636963e-01" purity="5.0087213516235352e-01" nType="0">
        <Node pos="l" depth="1" NCoef="0" IVar="8" Cut="-1.0855859518051147e+00" cType="1" res="1.0047237388789654e-02" rms="3.2123142480850220e-01" purity="5.3985375165939331e-01" nType="0">
          <Node pos="l" depth="2" NCoef="0" IVar="9" Cut="6.6468948125839233e-01" cType="1" res="-4.2313292622566223e-02" rms="2.8383675217628479e-01" purity="2.5484845042228699e-01" nType="0">
            <Node pos="l" depth="3" NCoef="0" IVar="-1" Cut="0.0000000000000000e+00" cType="1" res="-2.5435155257582664e-02" rms="2.9363504052162170e-01" purity="2.9038366675376892e-01" nType="-99"/>
            <Node pos="r" depth="3" NCoef="0" IVar="-1" Cut="0.0000000000000000e+00" cType="1" res="-7.9254284501075745e-02" rms="2.4698293209075928e-01" purity="1.4606189727783203e-01" nType="-99"/>
          </Node>
          <Node pos="r" depth="2" NCoef="0" IVar="7" Cut="-1.1764343976974487e+00" cType="1" res="1.9623050466179848e-02" rms="3.2670247554779053e-01" purity="5.9197616577148438e-01" nType="0">
            <Node pos="l" depth="3" NCoef="0" IVar="-1" Cut="0.0000000000000000e+00" cType="1" res="-4.6179648488759995e-02" rms="2.9066020250320435e-01" purity="2.3083616793155670e-01" nType="-99"/>
            <Node pos="r" depth="3" NCoef="0" IVar="-1" Cut="0.0000000000000000e+00" cType="1" res="2.1347716450691223e-02" rms="3.2914412021636963e-01" purity="6.2664228677749634e-01" nType="-99"/>
          </Node>
        </Node>
        <Node pos="r" depth="1" NCoef="0" IVar="4" Cut="1.6124807739257812e+02" cType="1" res="-5.4087210446596146e-02" rms="2.9412686824798584e-01" purity="2.0070761442184448e-01" nType="0">
          <Node pos="l" depth="2" NCoef="0" IVar="8" Cut="1.6571042537689209e+00" cType="1" res="-3.4671712666749954e-02" rms="2.5952327251434326e-01" purity="1.1515770107507706e-01" nType="0">
            <Node pos="l" depth="3" NCoef="0" IVar="-1" Cut="0.0000000000000000e+00" cType="1" res="-6.0976953245699406e-03" rms="3.2011851668357849e-01" purity="1.8117003142833710e-01" nType="-99"/>
            <Node pos="r" depth="3" NCoef="0" IVar="-1" Cut="0.0000000000000000e+00" cType="1" res="-7.4719242751598358e-02" rms="1.8269564211368561e-01" purity="5.3950801491737366e-02" nType="-99"/>
          </Node>
          <Node pos="r" depth="2" NCoef="0" IVar="-1" Cut="0.0000000000000000e+00" cType="1" res="-6.5307006239891052e-02" rms="3.5842818021774292e-01" purity="4.0127632021903992e-01" nType="-99"/>
        </Node>
      </Node>
    </BinaryTree>
    <BinaryTree type="DecisionTree" boostWeight="1.0000000000000000e+00" itree="22">
      <Node pos="s" depth="0" NCoef="0" IVar="7" Cut="9.6058255434036255e-01" cType="1" res="2.6907417923212051e-03" rms="3.1669652462005615e-01" purity="5.0469893217086792e-01" nType="0">
        <Node pos="l" depth="1" NCoef="0" IVar="7" Cut="-1.3161604404449463e+00" cType="1" res="1.0947611182928085e-02" rms="3.2205942273139954e-01" purity="5.5168890953063965e-01" nType="0">
          <Node pos="l" depth="2" NCoef="0" IVar="4" Cut="1.1630088043212891e+02" cType="1" res="-5.8087687939405441e-02" rms="2.2795397043228149e-01" purity="1.2815208733081818e-01" nType="0">
            <Node pos="l" depth="3" NCoef="0" IVar="-1" Cut="0.0000000000000000e+00" cType="1" res="-6.3783377408981323e-02" rms="1.3994112610816956e-01" purity="2.5653043761849403e-02" nType="-99"/>
            <Node pos="r" depth="3" NCoef="0" IVar="-1" Cut="0.0000000000000000e+00" cType="1" res="-6.3282631337642670e-02" rms="2.7052730321884155e-01" purity="1.9778561592102051e-01" nType="-99"/>
          </Node>
          <Node pos="r" depth="2" NCoef="0" IVar="10" Cut="-1.7332952022552490e+00" cType="1" res="1.7806202173233032e-02" rms="3.2915645837783813e-01" purity="5.9376686811447144e-01" nType="0">
            <Node pos="l" depth="3" NCoef="0" IVar="-1" Cut="0.0000000000000000e+00" cType="1" res="-4.3717924505472183e-02" rms="3.4474983811378479e-01" purity="3.7744417786598206e-01" nType="-99"/>
            <Node pos="r" depth="3" NCoef="0" IVar="-1" Cut="0.0000000000000000e+00" cType="1" res="1.9119834527373314e-02" rms="3.2727134227752686e-01" purity="6.0997951030731201e-01" nType="-99"/>
          </Node>
        </Node>
        <Node pos="r" depth="1" NCoef="0" IVar="2" Cut="4.5696713256835938e+02" cType="1" res="-4.5934487134218216e-02" rms="2.7813178300857544e-01" purity="2.2797165811061859e-01" nType="0">
          <Node pos="l" depth="2" NCoef="0" IVar="7" Cut="1.6611671447753906e+00" cType="1" res="-3.5975288599729538e-02" rms="2.7462920546531677e-01" purity="2.1755105257034302e-01" nType="0">
            <Node pos="l" depth="3" NCoef="0" IVar="-1" Cut="0.0000000000000000e+00" cType="1" res="-1.7337478697299957e-02" rms="3.0755311250686646e-01" purity="2.8581893444061279e-01" nType="-99"/>
            <Node pos="r" depth="3" NCoef="0" IVar="-1" Cut="0.0000000000000000e+00" cType="1" res="-8.2785792648792267e-02" rms="1.8519805371761322e-01" purity="7.7175378799438477e-02" nType="-99"/>
          </Node>
          <Node pos="r" depth="2" NCoef="0" IVar="-1" Cut="0.0000000000000000e+00" cType="1" res="-6.6633991897106171e-02" rms="2.8869649767875671e-01" purity="2.7197799086570740e-01" nType="-99"/>
        </Node>
      </Node>
    </BinaryTree>
    <BinaryTree type="DecisionTree" boostWeight="1.0000000000000000e+00" itree="23">
      <Node pos="s" depth="0" NCoef="0" IVar="10" Cut="1.4662454128265381e+00" cType="1" res="-2.3549702018499374e-03" rms="3.1109860539436340e-01" purity="4.9700430035591125e-01" nType="0">
        <Node pos="l" depth="1" NCoef="0" IVar="10" Cut="-1.3778599500656128e+00" cType="1" res="4.7594988718628883e-03" rms="3.1046286225318909e-01" purity="5.2200973033905029e-01" nType="0">
          <Node pos="l" depth="2" NCoef="0" IVar="10" Cut="-2.1227378845214844e+00" cType="1" res="-4.5035634189844131e-02" rms="3.0458012223243713e-01" purity="3.4033310413360596e-01" nType="0">
            <Node pos="l" depth="3" NCoef="0" IVar="-1" Cut="0.0000000000000000e+00" cType="1" res="-8.6468905210494995e-02" rms="2.7057614922523499e-01" purity="2.0042499899864197e-01" nType="-99"/>
            <Node pos="r" depth="3" NCoef="0" IVar="-1" Cut="0.0000000000000000e+00" cType="1" res="-2.1092049777507782e-02" rms="3.1548747420310974e-01" purity="3.9878356456756592e-01" nType="-99"/>
          </Node>
          <Node pos="r" depth="2" NCoef="0" IVar="6" Cut="5.3219669342041016e+01" cType="1" res="1.3788200914859772e-02" rms="3.1066399812698364e-01" purity="5.5495071411132812e-01" nType="0">
            <Node pos="l" depth="3" NCoef="0" IVar="-1" Cut="0.0000000000000000e+00" cType="1" res="-4.8190196976065636e-03" rms="3.2906848192214966e-01" purity="2.7161884307861328e-01" nType="-99"/>
            <Node pos="r" depth="3" NCoef="0" IVar="-1" Cut="0.0000000000000000e+00" cType="1" res="2.9583241790533066e-02" rms="2.9163694381713867e-01" purity="8.1408190727233887e-01" nType="-99"/>
          </Node>
        </Node>
        <Node pos="r" depth="1" NCoef="0" IVar="11" Cut="-7.9082381725311279e-01" cType="1" res="-5.8127395808696747e-02" rms="3.1043940782546997e-01" purity="3.0097931623458862e-01" nType="0">
          <Node pos="l" depth="2" NCoef="0" IVar="3" Cut="2.1082472229003906e+02" cType="1" res="-6.9934107363224030e-02" rms="2.8839743137359619e-01" purity="1.7346252501010895e-01" nType="0">
            <Node pos="l" depth="3" NCoef="0" IVar="-1" Cut="0.0000000000000000e+00" cType="1" res="-5.3673472255468369e-02" rms="2.4559055268764496e-01" purity="9.3001596629619598e-02" nType="-99"/>
            <Node pos="r" depth="3" NCoef="0" IVar="-1" Cut="0.0000000000000000e+00" cType="1" res="-6.9687746465206146e-02" rms="3.4090340137481689e-01" purity="2.9545742273330688e-01" nType="-99"/>
          </Node>
          <Node pos="r" depth="2" NCoef="0" IVar="-1" Cut="0.0000000000000000e+00" cType="1" res="-2.5571089237928391e-02" rms="3.5100102424621582e-01" purity="5.6894338130950928e-01" nType="-99"/>
        </Node>
      </Node>
    </BinaryTree>
    <BinaryTree type="DecisionTree" boostWeight="1.0000000000000000e+00" itree="24">
      <Node pos="s" depth="0" NCoef="0" IVar="9" Cut="-1.1998741626739502e+00" cType="1" res="4.2403442785143852e-04" rms="3.1455224752426147e-01" purity="5.0000113248825073e-01" nType="0">
        <Node pos="l" depth="1" NCoef="0" IVar="7" Cut="6.8678808212280273e-01" cType="1" res="-4.6733334660530090e-02" rms="3.1052571535110474e-01" purity="2.7153611183166504e-01" nType="0">
          <Node pos="l" depth="2" NCoef="0" IVar="9" Cut="-1.8855974674224854e+00" cType="1" res="-3.1920004636049271e-02" rms="3.2560205459594727e-01" purity="3.1777429580688477e-01" nType="0">
            <Node pos="l" depth="3" NCoef="0" IVar="-1" Cut="0.0000000000000000e+00" cType="1" res="-6.7520767450332642e-02" rms="2.7176401019096375e-01" purity="1.5060217678546906e-01" nType="-99"/>
            <Node pos="r" depth="3" NCoef="0" IVar="-1" Cut="0.0000000000000000e+00" cType="1" res="-1.1372847482562065e-02" rms="3.4547120332717896e-01" purity="3.9236518740653992e-01" nType="-99"/>
          </Node>
          <Node pos="r" depth="2" NCoef="0" IVar="-1" Cut="0.0000000000000000e+00" cType="1" res="-9.5101982355117798e-02" rms="2.4349012970924377e-01" purity="1.0922984033823013e-01" nType="-99"/>
        </Node>
        <Node pos="r" depth="1" NCoef="0" IVar="9" Cut="1.2762041091918945e+00" cType="1" res="7.7962148934602737e-03" rms="3.1453868746757507e-01" purity="5.3571736812591553e-01" nType="0">
          <Node pos="l" depth="2" NCoef="0" IVar="8" Cut="-9.3337029218673706e-01" cType="1" res="1.6520967707037926e-02" rms="3.1573298573493958e-01" purity="5.7789689302444458e-01" nType="0">
            <Node pos="l" depth="3" NCoef="0" IVar="-1" Cut="0.0000000000000000e+00" cType="1" res="-2.3609479889273643e-02" rms="3.0382865667343140e-01" purity="3.4284377098083496e-01" nType="-99"/>
            <Node pos="r" depth="3" NCoef="0" IVar="-1" Cut="0.0000000000000000e+00" cType="1" res="2.1093707531690598e-02" rms="3.1724715232849121e-01" purity="6.2162727117538452e-01" nType="-99"/>
          </Node>
          <Node pos="r" depth="2" NCoef="0" IVar="3" Cut="2.5416850280761719e+02" cType="1" res="-4.8745013773441315e-02" rms="3.0060982704162598e-01" purity="2.6237085461616516e-01" nType="0">
            <Node pos="l" depth="3" NCoef="0" IVar="-1" Cut="0.0000000000000000e+00" cType="1" res="-2.9658904299139977e-02" rms="2.8614482283592224e-01" purity="2.0990706980228424e-01" nType="-99"/>
            <Node pos="r" depth="3" NCoef="0" IVar="-1" Cut="0.0000000000000000e+00" cType="1" res="-7.6967298984527588e-02" rms="3.3590775728225708e-01" purity="4.2782032489776611e-01" nType="-99"/>
          </Node>
        </Node>
      </Node>
    </BinaryTree>
    <BinaryTree type="DecisionTree" boostWeight="1.0000000000000000e+00" itree="25">
      <Node pos="s" depth="0" NCoef="0" IVar="8" Cut="-1.4665678739547729e+00" cType="1" res="-7.8658934216946363e-04" rms="3.1267452239990234e-01" purity="4.9679887294769287e-01" nType="0">
        <Node pos="l" depth="1" NCoef="0" IVar="3" Cut="2.0392718505859375e+02" cType="1" res="-5.6673523038625717e-02" rms="2.4161763489246368e-01" purity="1.2799011170864105e-01" nType="0">
          <Node pos="l" depth="2" NCoef="0" IVar="-1" Cut="0.0000000000000000e+00" cType="1" res="-5.6077677756547928e-02" rms="1.9015279412269592e-01" purity="8.6416788399219513e-02" nType="-99"/>
          <Node pos="r" depth="2" NCoef="0" IVar="-1" Cut="0.0000000000000000e+00" cType="1" res="-6.5957233309745789e-02" rms="3.0519020557403564e-01" purity="1.9511947035789490e-01" nType="-99"/>
        </Node>
        <Node pos="r" depth="1" NCoef="0" IVar="8" Cut="1.7841041088104248e+00" cType="1" res="3.9315642789006233e-03" rms="3.1749728322029114e-01" purity="5.2793490886688232e-01" nType="0">
          <Node pos="l" depth="2" NCoef="0" IVar="7" Cut="1.4695187807083130e+00" cType="1" res="7.9318219795823097e-03" rms="3.2200953364372253e-01" purity="5.5122959613800049e-01" nType="0">
            <Node pos="l" depth="3" NCoef="0" IVar="-1" Cut="0.0000000000000000e+00" cType="1" res="1.0149330832064152e-02" rms="3.2665801048278809e-01" purity="5.7667928934097290e-01" nType="-99"/>
            <Node pos="r" depth="3" NCoef="0" IVar="-1" Cut="0.0000000000000000e+00" cType="1" res="-7.1099646389484406e-02" rms="2.1441216766834259e-01" purity="1.1029784381389618e-01" nType="-99"/>
          </Node>
          <Node pos="r" depth="2" NCoef="0" IVar="-1" Cut="0.0000000000000000e+00" cType="1" res="-8.8378638029098511e-02" rms="1.9306656718254089e-01" purity="6.7988708615303040e-02" nType="-99"/>
        </Node>
      </Node>
    </BinaryTree>
    <BinaryTree type="DecisionTree" boostWeight="1.0000000000000000e+00" itree="26">
      <Node pos="s" depth="0" NCoef="0" IVar="8" Cut="9.3338578939437866e-01" cType="1" res="-7.2156870737671852e-04" rms="3.1095016002655029e-01" purity="4.9774762988090515e-01" nType="0">
        <Node pos="l" depth="1" NCoef="0" IVar="7" Cut="6.7940187454223633e-01" cType="1" res="6.7305467091500759e-03" rms="3.1400221586227417e-01" purity="5.4191046953201294e-01" nType="0">
          <Node pos="l" depth="2" NCoef="0" IVar="7" Cut="-1.2887555360794067e+00" cType="1" res="1.6425475478172302e-02" rms="3.1804472208023071e-01" purity="5.9327059984207153e-01" nType="0">
            <Node pos="l" depth="3" NCoef="0" IVar="-1" Cut="0.0000000000000000e+00" cType="1" res="-4.0737338364124298e-02" rms="2.5453293323516846e-01" purity="1.6342194378376007e-01" nType="-99"/>
            <Node pos="r" depth="3" NCoef="0" IVar="-1" Cut="0.0000000000000000e+00" cType="1" res="1.8750822171568871e-02" rms="3.2373413443565369e-01" purity="6.4042359590530396e-01" nType="-99"/>
          </Node>
          <Node pos="r" depth="2" NCoef="0" IVar="6" Cut="6.6763839721679688e+01" cType="1" res="-2.9621860012412071e-02" rms="2.9553851485252380e-01" purity="3.4932899475097656e-01" nType="0">
            <Node pos="l" depth="3" NCoef="0" IVar="-1" Cut="0.0000000000000000e+00" cType="1" res="-4.1178006678819656e-02" rms="2.8653723001480103e-01" purity="1.8282708525657654e-01" nType="-99"/>
            <Node pos="r" depth="3" NCoef="0" IVar="-1" Cut="0.0000000000000000e+00" cType="1" res="8.8316202163696289e-03" rms="3.1420716643333435e-01" purity="7.8061389923095703e-01" nType="-99"/>
          </Node>
        </Node>
        <Node pos="r" depth="1" NCoef="0" IVar="2" Cut="4.5168572998046875e+02" cType="1" res="-3.7665668874979019e-02" rms="2.9256427288055420e-01" purity="2.7880910038948059e-01" nType="0">
          <Node pos="l" depth="2" NCoef="0" IVar="0" Cut="1.4506151123046875e+03" cType="1" res="-2.7633642777800560e-02" rms="2.8883382678031921e-01" purity="2.6313665509223938e-01" nType="0">
            <Node pos="l" depth="3" NCoef="0" IVar="-1" Cut="0.0000000000000000e+00" cType="1" res="-4.2474742978811264e-02" rms="2.6345819234848022e-01" purity="1.1809375882148743e-01" nType="-99"/>
            <Node pos="r" depth="3" NCoef="0" IVar="-1" Cut="0.0000000000000000e+00" cType="1" res="5.0341794267296791e-03" rms="3.5007447004318237e-01" purity="6.8453812599182129e-01" nType="-99"/>
          </Node>
          <Node pos="r" depth="2" NCoef="0" IVar="-1" Cut="0.0000000000000000e+00" cType="1" res="-6.1356808990240097e-02" rms="3.0271452665328979e-01" purity="3.3407971262931824e-01" nType="-99"/>
        </Node>
      </Node>
    </BinaryTree>
    <BinaryTree type="DecisionTree" boostWeight="1.0000000000000000e+00" itree="27">
      <Node pos="s" depth="0" NCoef="0" IVar="2" Cut="4.7161791992187500e+02" cType="1" res="2.2007758161635138e-05" rms="3.0886816978454590e-01" purity="5.0117844343185425e-01" nType="0">
        <Node pos="l" depth="1" NCoef="0" IVar="0" Cut="1.2923511962890625e+03" cType="1" res="8.2731703296303749e-03" rms="3.0415457487106323e-01" purity="4.7552433609962463e-01" nType="0">
          <Node pos="l" depth="2" NCoef="0" IVar="2" Cut="2.9053894042968750e+02" cType="1" res="-1.9542837515473366e-02" rms="2.8501537442207336e-01" purity="1.3436612486839294e-01" nType="0">
            <Node pos="l" depth="3" NCoef="0" IVar="-1" Cut="0.0000000000000000e+00" cType="1" res="-3.1636811327189207e-03" rms="3.0675402283668518e-01" purity="1.6954027116298676e-01" nType="-99"/>
            <Node pos="r" depth="3" NCoef="0" IVar="-1" Cut="0.0000000000000000e+00" cType="1" res="-5.0172429531812668e-02" rms="2.4684716761112213e-01" purity="8.1578105688095093e-02" nType="-99"/>
          </Node>
          <Node pos="r" depth="2" NCoef="0" IVar="2" Cut="2.6467544555664062e+02" cType="1" res="2.9947197064757347e-02" rms="3.1658127903938293e-01" purity="7.4135226011276245e-01" nType="0">
            <Node pos="l" depth="3" NCoef="0" IVar="-1" Cut="0.0000000000000000e+00" cType="1" res="6.6627189517021179e-02" rms="2.9351234436035156e-01" purity="8.6082118749618530e-01" nType="-99"/>
            <Node pos="r" depth="3" NCoef="0" IVar="-1" Cut="0.0000000000000000e+00" cType="1" res="1.7600299790501595e-02" rms="3.1966254115104675e-01" purity="7.1973943710327148e-01" nType="-99"/>
          </Node>
        </Node>
        <Node pos="r" depth="1" NCoef="0" IVar="0" Cut="1.9089151611328125e+03" cType="1" res="-2.7178617194294930e-02" rms="3.2242965698242188e-01" purity="5.8574932813644409e-01" nType="0">
          <Node pos="l" depth="2" NCoef="0" IVar="3" Cut="2.2280757141113281e+02" cType="1" res="-7.9752124845981598e-02" rms="3.4027829766273499e-01" purity="2.7593490481376648e-01" nType="0">
            <Node pos="l" depth="3" NCoef="0" IVar="-1" Cut="0.0000000000000000e+00" cType="1" res="-3.9784651249647141e-02" rms="3.1178286671638489e-01" purity="2.2909699380397797e-01" nType="-99"/>
            <Node pos="r" depth="3" NCoef="0" IVar="-1" Cut="0.0000000000000000e+00" cType="1" res="-7.2220452129840851e-02" rms="3.6144590377807617e-01" purity="3.1730562448501587e-01" nType="-99"/>
          </Node>
          <Node pos="r" depth="2" NCoef="0" IVar="0" Cut="2.1533662109375000e+03" cType="1" res="1.3431569561362267e-02" rms="3.0172809958457947e-01" purity="8.2506424188613892e-01" nType="0">
            <Node pos="l" depth="3" NCoef="0" IVar="-1" Cut="0.0000000000000000e+00" cType="1" res="-1.8260998651385307e-02" rms="3.5996261239051819e-01" purity="7.1849352121353149e-01" nType="-99"/>
            <Node pos="r" depth="3" NCoef="0" IVar="-1" Cut="0.0000000000000000e+00" cType="1" res="3.0739806592464447e-02" rms="2.6784357428550720e-01" purity="8.7573188543319702e-01" nType="-99"/>
          </Node>
        </Node>
      </Node>
    </BinaryTree>
    <BinaryTree type="DecisionTree" boostWeight="1.0000000000000000e+00" itree="28">
      <Node pos="s" depth="0" NCoef="0" IVar="9" Cut="1.7333292961120605e+00" cType="1" res="9.0566574363037944e-04" rms="3.1189027428627014e-01" purity="4.9946871399879456e-01" nType="0">
        <Node pos="l" depth="1" NCoef="0" IVar="10" Cut="1.7331781387329102e+00" cType="1" res="4.3790009804069996e-03" rms="3.1347593665122986e-01" purity="5.1890081167221069e-01" nType="0">
          <Node pos="l" depth="2" NCoef="0" IVar="0" Cut="1.0974445800781250e+03" cType="1" res="8.2644782960414886e-03" rms="3.1447437405586243e-01" purity="5.3610527515411377e-01" nType="0">
            <Node pos="l" depth="3" NCoef="0" IVar="-1" Cut="0.0000000000000000e+00" cType="1" res="-3.7489559501409531e-02" rms="2.1633312106132507e-01" purity="5.4777555167675018e-02" nType="-99"/>
            <Node pos="r" depth="3" NCoef="0" IVar="-1" Cut="0.0000000000000000e+00" cType="1" res="1.1910551227629185e-02" rms="3.2801407575607300e-01" purity="6.1861824989318848e-01" nType="-99"/>
          </Node>
          <Node pos="r" depth="2" NCoef="0" IVar="10" Cut="2.0886967182159424e+00" cType="1" res="-4.3390687555074692e-02" rms="2.9680186510086060e-01" purity="3.0738097429275513e-01" nType="0">
            <Node pos="l" depth="3" NCoef="0" IVar="-1" Cut="0.0000000000000000e+00" cType="1" res="-2.0430766046047211e-02" rms="3.0649811029434204e-01" purity="3.8160237669944763e-01" nType="-99"/>
            <Node pos="r" depth="3" NCoef="0" IVar="-1" Cut="0.0000000000000000e+00" cType="1" res="-5.6829374283552170e-02" rms="2.8604620695114136e-01" purity="2.3806886374950409e-01" nType="-99"/>
          </Node>
        </Node>
        <Node pos="r" depth="1" NCoef="0" IVar="3" Cut="1.8812814331054688e+02" cType="1" res="-5.6741941720247269e-02" rms="2.7801784873008728e-01" purity="1.7695091664791107e-01" nType="0">
          <Node pos="l" depth="2" NCoef="0" IVar="-1" Cut="0.0000000000000000e+00" cType="1" res="-1.7663355916738510e-02" rms="2.4627925455570221e-01" purity="1.1362355947494507e-01" nType="-99"/>
          <Node pos="r" depth="2" NCoef="0" IVar="-1" Cut="0.0000000000000000e+00" cType="1" res="-8.1680320203304291e-02" rms="3.0055844783782959e-01" purity="2.4156290292739868e-01" nType="-99"/>
        </Node>
      </Node>
    </BinaryTree>
    <BinaryTree type="DecisionTree" boostWeight="1.0000000000000000e+00" itree="29">
      <Node pos="s" depth="0" NCoef="0" IVar="9" Cut="1.7332980632781982e+00" cType="1" res="6.8184523843228817e-04" rms="3.0923151969909668e-01" purity="5.0263643264770508e-01" nType="0">
        <Node pos="l" depth="1" NCoef="0" IVar="9" Cut="-8.5711365938186646e-01" cType="1" res="3.9410693570971489e-03" rms="3.1151491403579712e-01" purity="5.2320683002471924e-01" nType="0">
          <Node pos="l" depth="2" NCoef="0" IVar="2" Cut="3.3976760864257812e+02" cType="1" res="-2.0836025476455688e-02" rms="3.1094151735305786e-01" purity="3.7504276633262634e-01" nType="0">
            <Node pos="l" depth="3" NCoef="0" IVar="-1" Cut="0.0000000000000000e+00" cType="1" res="-7.7249360037967563e-04" rms="3.0132010579109192e-01" purity="3.2402792572975159e-01" nType="-99"/>
            <Node pos="r" depth="3" NCoef="0" IVar="-1" Cut="0.0000000000000000e+00" cType="1" res="-3.5520557314157486e-02" rms="3.1919288635253906e-01" purity="4.2726850509643555e-01" nType="-99"/>
          </Node>
          <Node pos="r" depth="2" NCoef="0" IVar="10" Cut="-1.9999183416366577e+00" cType="1" res="1.1180221103131771e-02" rms="3.1131023168563843e-01" purity="5.6649607419967651e-01" nType="0">
            <Node pos="l" depth="3" NCoef="0" IVar="-1" Cut="0.0000000000000000e+00" cType="1" res="-5.2171755582094193e-02" rms="3.2398462295532227e-01" purity="2.8150853514671326e-01" nType="-99"/>
            <Node pos="r" depth="3" NCoef="0" IVar="-1" Cut="0.0000000000000000e+00" cType="1" res="1.2738203629851341e-02" rms="3.1044200062751770e-01" purity="5.7854777574539185e-01" nType="-99"/>
          </Node>
        </Node>
        <Node pos="r" depth="1" NCoef="0" IVar="7" Cut="1.8668082356452942e-01" cType="1" res="-5.5275809019804001e-02" rms="2.6072007417678833e-01" purity="1.4946284890174866e-01" nType="0">
          <Node pos="l" depth="2" NCoef="0" IVar="-1" Cut="0.0000000000000000e+00" cType="1" res="-8.5809983313083649e-02" rms="2.4337403476238251e-01" purity="1.2575747072696686e-01" nType="-99"/>
          <Node pos="r" depth="2" NCoef="0" IVar="-1" Cut="0.0000000000000000e+00" cType="1" res="-2.7646765112876892e-02" rms="2.7500009536743164e-01" purity="1.7495641112327576e-01" nType="-99"/>
        </Node>
      </Node>
    </BinaryTree>
    <BinaryTree type="DecisionTree" boostWeight="1.0000000000000000e+00" itree="30">
      <Node pos="s" depth="0" NCoef="0" IVar="2" Cut="6.1929370117187500e+02" cType="1" res="-4.4422959908843040e-03" rms="3.0741488933563232e-01" purity="4.9469402432441711e-01" nType="0">
        <Node pos="l" depth="1" NCoef="0" IVar="0" Cut="1.8945748291015625e+03" cType="1" res="-5.9381716710049659e-05" rms="3.0466890335083008e-01" purity="4.8977673053741455e-01" nType="0">
          <Node pos="l" depth="2" NCoef="0" IVar="2" Cut="3.3974484252929688e+02" cType="1" res="-8.2355625927448273e-03" rms="3.2360675930976868e-01" purity="3.8321423530578613e-01" nType="0">
            <Node pos="l" depth="3" NCoef="0" IVar="-1" Cut="0.0000000000000000e+00" cType="1" res="7.2012436576187611e-03" rms="3.1344041228294373e-01" purity="3.9095035195350647e-01" nType="-99"/>
            <Node pos="r" depth="3" NCoef="0" IVar="-1" Cut="0.0000000000000000e+00" cType="1" res="-2.6312679052352905e-02" rms="3.3654534816741943e-01" purity="3.7189343571662903e-01" nType="-99"/>
          </Node>
          <Node pos="r" depth="2" NCoef="0" IVar="2" Cut="4.4229269409179688e+02" cType="1" res="3.4664895385503769e-02" rms="2.0199449360370636e-01" purity="9.4234806299209595e-01" nType="0">
            <Node pos="l" depth="3" NCoef="0" IVar="-1" Cut="0.0000000000000000e+00" cType="1" res="7.3985747992992401e-02" rms="1.4860871434211731e-01" purity="9.7333055734634399e-01" nType="-99"/>
            <Node pos="r" depth="3" NCoef="0" IVar="-1" Cut="0.0000000000000000e+00" cType="1" res="3.1323287636041641e-02" rms="2.3972892761230469e-01" purity="9.1448765993118286e-01" nType="-99"/>
          </Node>
        </Node>
        <Node pos="r" depth="1" NCoef="0" IVar="0" Cut="2.3495341796875000e+03" cType="1" res="-5.9555705636739731e-02" rms="3.3520135283470154e-01" purity="5.5652683973312378e-01" nType="0">
          <Node pos="l" depth="2" NCoef="0" IVar="-1" Cut="0.0000000000000000e+00" cType="1" res="-7.5026147067546844e-02" rms="3.4256932139396667e-01" purity="3.4451246261596680e-01" nType="-99"/>
          <Node pos="r" depth="2" NCoef="0" IVar="-1" Cut="0.0000000000000000e+00" cType="1" res="9.4559160061180592e-04" rms="3.1542727351188660e-01" purity="8.2227998971939087e-01" nType="-99"/>
        </Node>
      </Node>
    </BinaryTree>
    <BinaryTree type="DecisionTree" boostWeight="1.0000000000000000e+00" itree="31">
      <Node pos="s" depth="0" NCoef="0" IVar="7" Cut="9.4491535425186157e-01" cType="1" res="2.1749078296124935e-03" rms="3.0691954493522644e-01" purity="5.0467741489410400e-01" nType="0">
        <Node pos="l" depth="1" NCoef="0" IVar="7" Cut="-6.4503031969070435e-01" cType="1" res="7.5140646658837795e-03" rms="3.1304517388343811e-01" purity="5.5242335796356201e-01" nType="0">
          <Node pos="l" depth="2" NCoef="0" IVar="8" Cut="4.0044388175010681e-01" cType="1" res="-1.6101533547043800e-02" rms="2.9723942279815674e-01" purity="3.3934143185615540e-01" nType="0">
            <Node pos="l" depth="3" NCoef="0" IVar="-1" Cut="0.0000000000000000e+00" cType="1" res="-2.0794612355530262e-03" rms="3.0143782496452332e-01" purity="3.8680410385131836e-01" nType="-99"/>
            <Node pos="r" depth="3" NCoef="0" IVar="-1" Cut="0.0000000000000000e+00" cType="1" res="-4.7461271286010742e-02" rms="2.8606337308883667e-01" purity="2.4009953439235687e-01" nType="-99"/>
          </Node>
          <Node pos="r" depth="2" NCoef="0" IVar="0" Cut="1.0875274658203125e+03" cType="1" res="1.6225751489400864e-02" rms="3.1823581457138062e-01" purity="6.3102835416793823e-01" nType="0">
            <Node pos="l" depth="3" NCoef="0" IVar="-1" Cut="0.0000000000000000e+00" cType="1" res="-3.2903172075748444e-02" rms="2.4207957088947296e-01" purity="6.9383643567562103e-02" nType="-99"/>
            <Node pos="r" depth="3" NCoef="0" IVar="-1" Cut="0.0000000000000000e+00" cType="1" res="1.8282111734151840e-02" rms="3.2593384385108948e-01" purity="6.9964867830276489e-01" nType="-99"/>
          </Node>
        </Node>
        <Node pos="r" depth="1" NCoef="0" IVar="3" Cut="2.1090263366699219e+02" cType="1" res="-2.8954382985830307e-02" rms="2.6631277799606323e-01" purity="2.2630052268505096e-01" nType="0">
          <Node pos="l" depth="2" NCoef="0" IVar="11" Cut="-2.1717925071716309e+00" cType="1" res="-1.0598363354802132e-02" rms="2.3087225854396820e-01" purity="1.3656090199947357e-01" nType="0">
            <Node pos="l" depth="3" NCoef="0" IVar="-1" Cut="0.0000000000000000e+00" cType="1" res="-4.8960670828819275e-02" rms="1.5988481044769287e-01" purity="3.5223703831434250e-02" nType="-99"/>
            <Node pos="r" depth="3" NCoef="0" IVar="-1" Cut="0.0000000000000000e+00" cType="1" res="1.4962856657803059e-02" rms="3.3862411975860596e-01" purity="3.6536946892738342e-01" nType="-99"/>
          </Node>
          <Node pos="r" depth="2" NCoef="0" IVar="8" Cut="-1.3165897130966187e-01" cType="1" res="-5.3822029381990433e-02" rms="3.0613532662391663e-01" purity="3.4787440299987793e-01" nType="0">
            <Node pos="l" depth="3" NCoef="0" IVar="-1" Cut="0.0000000000000000e+00" cType="1" res="-7.6736122369766235e-02" rms="2.8395664691925049e-01" purity="2.4790050089359283e-01" nType="-99"/>
            <Node pos="r" depth="3" NCoef="0" IVar="-1" Cut="0.0000000000000000e+00" cType="1" res="-2.1318770945072174e-02" rms="3.1936627626419067e-01" purity="4.2450642585754395e-01" nType="-99"/>
          </Node>
        </Node>
      </Node>
    </BinaryTree>
    <BinaryTree type="DecisionTree" boostWeight="1.0000000000000000e+00" itree="32">
      <Node pos="s" depth="0" NCoef="0" IVar="10" Cut="1.7332991361618042e+00" cType="1" res="1.1025649728253484e-03" rms="3.0639374256134033e-01" purity="4.9873647093772888e-01" nType="0">
        <Node pos="l" depth="1" NCoef="0" IVar="8" Cut="-1.4665700197219849e+00" cType="1" res="4.7345538623631001e-03" rms="3.0659046769142151e-01" purity="5.1744717359542847e-01" nType="0">
          <Node pos="l" depth="2" NCoef="0" IVar="4" Cut="1.0797122192382812e+02" cType="1" res="-4.0770132094621658e-02" rms="2.4666975438594818e-01" purity="1.3661304116249084e-01" nType="0">
            <Node pos="l" depth="3" NCoef="0" IVar="-1" Cut="0.0000000000000000e+00" cType="1" res="-3.5320658236742020e-02" rms="1.6251999139785767e-01" purity="3.4820385277271271e-02" nType="-99"/>
            <Node pos="r" depth="3" NCoef="0" IVar="-1" Cut="0.0000000000000000e+00" cType="1" res="-5.0170272588729858e-02" rms="2.8675249218940735e-01" purity="2.0189973711967468e-01" nType="-99"/>
          </Node>
          <Node pos="r" depth="2" NCoef="0" IVar="8" Cut="7.6825916767120361e-01" cType="1" res="8.4105608984827995e-03" rms="3.1063649058341980e-01" purity="5.4821211099624634e-01" nType="0">
            <Node pos="l" depth="3" NCoef="0" IVar="-1" Cut="0.0000000000000000e+00" cType="1" res="1.5228027477860451e-02" rms="3.1324055790901184e-01" purity="6.0559540987014771e-01" nType="-99"/>
            <Node pos="r" depth="3" NCoef="0" IVar="-1" Cut="0.0000000000000000e+00" cType="1" res="-1.9707601517438889e-02" rms="2.9978820681571960e-01" purity="3.5111808776855469e-01" nType="-99"/>
          </Node>
        </Node>
        <Node pos="r" depth="1" NCoef="0" IVar="4" Cut="1.2373770904541016e+02" cType="1" res="-4.3375384062528610e-02" rms="3.0043381452560425e-01" purity="2.6960182189941406e-01" nType="0">
          <Node pos="l" depth="2" NCoef="0" IVar="-1" Cut="0.0000000000000000e+00" cType="1" res="-3.2181203365325928e-02" rms="2.3303718864917755e-01" purity="9.0365327894687653e-02" nType="-99"/>
          <Node pos="r" depth="2" NCoef="0" IVar="-1" Cut="0.0000000000000000e+00" cType="1" res="-4.6881824731826782e-02" rms="3.4574267268180847e-01" purity="4.1875326633453369e-01" nType="-99"/>
        </Node>
      </Node>
    </BinaryTree>
    <BinaryTree type="DecisionTree" boostWeight="1.0000000000000000e+00" itree="33">
      <Node pos="s" depth="0" NCoef="0" IVar="8" Cut="6.6672563552856445e-01" cType="1" res="-2.6216886471956968e-03" rms="3.1085523962974548e-01" purity="4.9425411224365234e-01" nType="0">
        <Node pos="l" depth="1" NCoef="0" IVar="8" Cut="-8.1885766983032227e-01" cType="1" res="4.2087775655090809e-03" rms="3.1274881958961487e-01" purity="5.4151129722595215e-01" nType="0">
          <Node pos="l" depth="2" NCoef="0" IVar="3" Cut="2.8584625244140625e+02" cType="1" res="-1.9943023100495338e-02" rms="3.0133846402168274e-01" purity="3.1642240285873413e-01" nType="0">
            <Node pos="l" depth="3" NCoef="0" IVar="-1" Cut="0.0000000000000000e+00" cType="1" res="-9.0687777847051620e-03" rms="2.9528629779815674e-01" purity="2.8029355406761169e-01" nType="-99"/>
            <Node pos="r" depth="3" NCoef="0" IVar="-1" Cut="0.0000000000000000e+00" cType="1" res="-5.7898148894309998e-02" rms="3.2273918390274048e-01" purity="4.8226600885391235e-01" nType="-99"/>
          </Node>
          <Node pos="r" depth="2" NCoef="0" IVar="7" Cut="-8.7869930267333984e-01" cType="1" res="1.3054834678769112e-02" rms="3.1636425852775574e-01" purity="6.2395435571670532e-01" nType="0">
            <Node pos="l" depth="3" NCoef="0" IVar="-1" Cut="0.0000000000000000e+00" cType="1" res="-1.7628179863095284e-02" rms="3.1950467824935913e-01" purity="3.6046722531318665e-01" nType="-99"/>
            <Node pos="r" depth="3" NCoef="0" IVar="-1" Cut="0.0000000000000000e+00" cType="1" res="1.6491524875164032e-02" rms="3.1553480029106140e-01" purity="6.6706156730651855e-01" nType="-99"/>
          </Node>
        </Node>
        <Node pos="r" depth="1" NCoef="0" IVar="3" Cut="3.0419946289062500e+02" cType="1" res="-2.3948378860950470e-02" rms="3.0388084053993225e-01" purity="3.4670361876487732e-01" nType="0">
          <Node pos="l" depth="2" NCoef="0" IVar="10" Cut="-1.1998074054718018e+00" cType="1" res="-1.5333015471696854e-02" rms="2.9533627629280090e-01" purity="3.1024467945098877e-01" nType="0">
            <Node pos="l" depth="3" NCoef="0" IVar="-1" Cut="0.0000000000000000e+00" cType="1" res="-6.1900243163108826e-02" rms="2.6019591093063354e-01" purity="1.7915487289428711e-01" nType="-99"/>
            <Node pos="r" depth="3" NCoef="0" IVar="-1" Cut="0.0000000000000000e+00" cType="1" res="-8.1476308405399323e-03" rms="3.0067488551139832e-01" purity="3.3393311500549316e-01" nType="-99"/>
          </Node>
          <Node pos="r" depth="2" NCoef="0" IVar="-1" Cut="0.0000000000000000e+00" cType="1" res="-5.6694179773330688e-02" rms="3.4166225790977478e-01" purity="5.3764170408248901e-01" nType="-99"/>
        </Node>
      </Node>
    </BinaryTree>
    <BinaryTree type="DecisionTree" boostWeight="1.0000000000000000e+00" itree="34">
      <Node pos="s" depth="0" NCoef="0" IVar="7" Cut="4.0712228417396545e-01" cType="1" res="-1.1986896861344576e-03" rms="3.0557703971862793e-01" purity="4.9533751606941223e-01" nType="0">
        <Node pos="l" depth="1" NCoef="0" IVar="7" Cut="-1.5675251483917236e+00" cType="1" res="7.4715618975460529e-03" rms="3.0888584256172180e-01" purity="5.3963905572891235e-01" nType="0">
          <Node pos="l" depth="2" NCoef="0" IVar="8" Cut="1.3409110903739929e-01" cType="1" res="-3.9295617491006851e-02" rms="2.0460671186447144e-01" purity="8.9741066098213196e-02" nType="0">
            <Node pos="l" depth="3" NCoef="0" IVar="-1" Cut="0.0000000000000000e+00" cType="1" res="-4.2032521218061447e-02" rms="2.3065896332263947e-01" purity="1.0945495963096619e-01" nType="-99"/>
            <Node pos="r" depth="3" NCoef="0" IVar="-1" Cut="0.0000000000000000e+00" cType="1" res="-7.8932702541351318e-02" rms="1.6860438883304596e-01" purity="6.6711321473121643e-02" nType="-99"/>
          </Node>
          <Node pos="r" depth="2" NCoef="0" IVar="9" Cut="-1.7332777976989746e+00" cType="1" res="1.1541241779923439e-02" rms="3.1601136922836304e-01" purity="5.7878911495208740e-01" nType="0">
            <Node pos="l" depth="3" NCoef="0" IVar="-1" Cut="0.0000000000000000e+00" cType="1" res="-4.8773914575576782e-02" rms="2.8555795550346375e-01" purity="1.7569047212600708e-01" nType="-99"/>
            <Node pos="r" depth="3" NCoef="0" IVar="-1" Cut="0.0000000000000000e+00" cType="1" res="1.3628693297505379e-02" rms="3.1730350852012634e-01" purity="6.0160452127456665e-01" nType="-99"/>
          </Node>
        </Node>
        <Node pos="r" depth="1" NCoef="0" IVar="8" Cut="-3.9985984563827515e-01" cType="1" res="-2.0094120875000954e-02" rms="2.9736432433128357e-01" purity="3.9878952503204346e-01" nType="0">
          <Node pos="l" depth="2" NCoef="0" IVar="3" Cut="1.8967764282226562e+02" cType="1" res="-4.6806570142507553e-02" rms="2.8341710567474365e-01" purity="2.8712844848632812e-01" nType="0">
            <Node pos="l" depth="3" NCoef="0" IVar="-1" Cut="0.0000000000000000e+00" cType="1" res="-2.2006910294294357e-02" rms="2.3212002217769623e-01" purity="1.6158522665500641e-01" nType="-99"/>
            <Node pos="r" depth="3" NCoef="0" IVar="-1" Cut="0.0000000000000000e+00" cType="1" res="-6.2497135251760483e-02" rms="3.1446793675422668e-01" purity="3.8091993331909180e-01" nType="-99"/>
          </Node>
          <Node pos="r" depth="2" NCoef="0" IVar="9" Cut="-6.6694533824920654e-01" cType="1" res="-7.8860456123948097e-03" rms="3.0274143815040588e-01" purity="4.4982063770294189e-01" nType="0">
            <Node pos="l" depth="3" NCoef="0" IVar="-1" Cut="0.0000000000000000e+00" cType="1" res="-4.3046712875366211e-02" rms="2.9750636219978333e-01" purity="3.1795063614845276e-01" nType="-99"/>
            <Node pos="r" depth="3" NCoef="0" IVar="-1" Cut="0.0000000000000000e+00" cType="1" res="1.9151658052578568e-03" rms="3.0331665277481079e-01" purity="4.8423233628273010e-01" nType="-99"/>
          </Node>
        </Node>
      </Node>
    </BinaryTree>
    <BinaryTree type="DecisionTree" boostWeight="1.0000000000000000e+00" itree="35">
      <Node pos="s" depth="0" NCoef="0" IVar="9" Cut="-1.4668207168579102e+00" cType="1" res="-3.9155810372903943e-04" rms="3.0796957015991211e-01" purity="4.9831986427307129e-01" nType="0">
        <Node pos="l" depth="1" NCoef="0" IVar="1" Cut="3.6604512482881546e-02" cType="1" res="-3.8173303008079529e-02" rms="2.8978702425956726e-01" purity="2.0651158690452576e-01" nType="0">
          <Node pos="l" depth="2" NCoef="0" IVar="10" Cut="-3.9991608262062073e-01" cType="1" res="-1.8394257873296738e-02" rms="2.2602668404579163e-01" purity="8.5992462933063507e-02" nType="0">
            <Node pos="l" depth="3" NCoef="0" IVar="-1" Cut="0.0000000000000000e+00" cType="1" res="-3.4133538603782654e-02" rms="2.2167304158210754e-01" purity="7.2365023195743561e-02" nType="-99"/>
            <Node pos="r" depth="3" NCoef="0" IVar="-1" Cut="0.0000000000000000e+00" cType="1" res="-1.8881248310208321e-02" rms="2.3008032143115997e-01" purity="9.9250830709934235e-02" nType="-99"/>
          </Node>
          <Node pos="r" depth="2" NCoef="0" IVar="-1" Cut="0.0000000000000000e+00" cType="1" res="-4.5964524149894714e-02" rms="3.5596632957458496e-01" purity="3.6759203672409058e-01" nType="-99"/>
        </Node>
        <Node pos="r" depth="1" NCoef="0" IVar="11" Cut="1.6949778795242310e+00" cType="1" res="3.3278444316238165e-03" rms="3.0945250391960144e-01" purity="5.2704674005508423e-01" nType="0">
          <Node pos="l" depth="2" NCoef="0" IVar="11" Cut="-1.4350271224975586e+00" cType="1" res="5.7180537842214108e-03" rms="3.0707421898841858e-01" purity="5.2402186393737793e-01" nType="0">
            <Node pos="l" depth="3" NCoef="0" IVar="-1" Cut="0.0000000000000000e+00" cType="1" res="-4.4940188527107239e-03" rms="3.2166007161140442e-01" purity="2.9168686270713806e-01" nType="-99"/>
            <Node pos="r" depth="3" NCoef="0" IVar="-1" Cut="0.0000000000000000e+00" cType="1" res="1.8782440572977066e-02" rms="2.8862032294273376e-01" purity="7.9512155055999756e-01" nType="-99"/>
          </Node>
          <Node pos="r" depth="2" NCoef="0" IVar="-1" Cut="0.0000000000000000e+00" cType="1" res="-4.6558938920497894e-02" rms="3.5768899321556091e-01" purity="6.0071080923080444e-01" nType="-99"/>
        </Node>
      </Node>
    </BinaryTree>
    <BinaryTree type="DecisionTree" boostWeight="1.0000000000000000e+00" itree="36">
      <Node pos="s" depth="0" NCoef="0" IVar="9" Cut="9.3331903219223022e-01" cType="1" res="4.3454207479953766e-04" rms="3.0572375655174255e-01" purity="4.9789676070213318e-01" nType="0">
        <Node pos="l" depth="1" NCoef="0" IVar="7" Cut="6.7903554439544678e-01" cType="1" res="6.0683079063892365e-03" rms="3.0539593100547791e-01" purity="5.3407108783721924e-01" nType="0">
          <Node pos="l" depth="2" NCoef="0" IVar="10" Cut="-1.4664820432662964e+00" cType="1" res="1.2519081123173237e-02" rms="3.0993556976318359e-01" purity="5.8288037776947021e-01" nType="0">
            <Node pos="l" depth="3" NCoef="0" IVar="-1" Cut="0.0000000000000000e+00" cType="1" res="-2.1105203777551651e-02" rms="3.1456813216209412e-01" purity="3.8123977184295654e-01" nType="-99"/>
            <Node pos="r" depth="3" NCoef="0" IVar="-1" Cut="0.0000000000000000e+00" cType="1" res="1.6175284981727600e-02" rms="3.0904769897460938e-01" purity="6.0890120267868042e-01" nType="-99"/>
          </Node>
          <Node pos="r" depth="2" NCoef="0" IVar="9" Cut="-8.4420043230056763e-01" cType="1" res="-1.9234098494052887e-02" rms="2.8549349308013916e-01" purity="3.4262233972549438e-01" nType="0">
            <Node pos="l" depth="3" NCoef="0" IVar="-1" Cut="0.0000000000000000e+00" cType="1" res="-6.2119811773300171e-02" rms="2.5355094671249390e-01" purity="1.6670149564743042e-01" nType="-99"/>
            <Node pos="r" depth="3" NCoef="0" IVar="-1" Cut="0.0000000000000000e+00" cType="1" res="-6.0318536125123501e-03" rms="2.9650491476058960e-01" purity="4.1406282782554626e-01" nType="-99"/>
          </Node>
        </Node>
        <Node pos="r" depth="1" NCoef="0" IVar="4" Cut="1.6083518981933594e+02" cType="1" res="-2.3945471271872520e-02" rms="3.0594485998153687e-01" purity="3.4135317802429199e-01" nType="0">
          <Node pos="l" depth="2" NCoef="0" IVar="0" Cut="1.3006832275390625e+03" cType="1" res="-5.1370132714509964e-03" rms="2.9560661315917969e-01" purity="2.0936265587806702e-01" nType="0">
            <Node pos="l" depth="3" NCoef="0" IVar="-1" Cut="0.0000000000000000e+00" cType="1" res="-3.0674947425723076e-02" rms="2.4386066198348999e-01" purity="8.5157118737697601e-02" nType="-99"/>
            <Node pos="r" depth="3" NCoef="0" IVar="-1" Cut="0.0000000000000000e+00" cType="1" res="2.0912570878863335e-02" rms="3.6888158321380615e-01" purity="4.3311241269111633e-01" nType="-99"/>
          </Node>
          <Node pos="r" depth="2" NCoef="0" IVar="0" Cut="1.7381564941406250e+03" cType="1" res="-5.7767670601606369e-02" rms="3.2094457745552063e-01" purity="5.7870429754257202e-01" nType="0">
            <Node pos="l" depth="3" NCoef="0" IVar="-1" Cut="0.0000000000000000e+00" cType="1" res="-7.1416616439819336e-02" rms="3.4066149592399597e-01" purity="3.5428002476692200e-01" nType="-99"/>
            <Node pos="r" depth="3" NCoef="0" IVar="-1" Cut="0.0000000000000000e+00" cType="1" res="-1.8927436321973801e-02" rms="2.9510852694511414e-01" purity="7.9848289489746094e-01" nType="-99"/>
          </Node>
        </Node>
      </Node>
    </BinaryTree>
    <BinaryTree type="DecisionTree" boostWeight="1.0000000000000000e+00" itree="37">
      <Node pos="s" depth="0" NCoef="0" IVar="2" Cut="3.3976638793945312e+02" cType="1" res="8.0587930278852582e-04" rms="3.0407682061195374e-01" purity="5.0274175405502319e-01" nType="0">
        <Node pos="l" depth="1" NCoef="0" IVar="0" Cut="9.8204980468750000e+02" cType="1" res="1.2478530406951904e-02" rms="3.0333128571510315e-01" purity="4.2836266756057739e-01" nType="0">
          <Node pos="l" depth="2" NCoef="0" IVar="-1" Cut="0.0000000000000000e+00" cType="1" res="-7.8277923166751862e-02" rms="1.2776662409305573e-01" purity="1.6617069020867348e-02" nType="-99"/>
          <Node pos="r" depth="2" NCoef="0" IVar="2" Cut="2.3327903747558594e+02" cType="1" res="2.0555334165692329e-02" rms="3.2139343023300171e-01" purity="4.9238660931587219e-01" nType="0">
            <Node pos="l" depth="3" NCoef="0" IVar="-1" Cut="0.0000000000000000e+00" cType="1" res="5.1441710442304611e-02" rms="3.4238296747207642e-01" purity="4.6034309267997742e-01" nType="-99"/>
            <Node pos="r" depth="3" NCoef="0" IVar="-1" Cut="0.0000000000000000e+00" cType="1" res="1.0402685962617397e-02" rms="3.1536570191383362e-01" purity="5.0021082162857056e-01" nType="-99"/>
          </Node>
        </Node>
        <Node pos="r" depth="1" NCoef="0" IVar="0" Cut="1.7298739013671875e+03" cType="1" res="-9.1282119974493980e-03" rms="3.0435746908187866e-01" purity="5.6604260206222534e-01" nType="0">
          <Node pos="l" depth="2" NCoef="0" IVar="1" Cut="3.8944572210311890e-02" cType="1" res="-3.2036900520324707e-02" rms="3.3017826080322266e-01" purity="2.7923041582107544e-01" nType="0">
            <Node pos="l" depth="3" NCoef="0" IVar="-1" Cut="0.0000000000000000e+00" cType="1" res="-1.7934489995241165e-02" rms="2.6250225305557251e-01" purity="1.0455363988876343e-01" nType="-99"/>
            <Node pos="r" depth="3" NCoef="0" IVar="-1" Cut="0.0000000000000000e+00" cType="1" res="-3.3970329910516739e-02" rms="3.9958590269088745e-01" purity="5.0338000059127808e-01" nType="-99"/>
          </Node>
          <Node pos="r" depth="2" NCoef="0" IVar="2" Cut="7.3910815429687500e+02" cType="1" res="1.2539976276457310e-02" rms="2.7599012851715088e-01" purity="8.3732402324676514e-01" nType="0">
            <Node pos="l" depth="3" NCoef="0" IVar="-1" Cut="0.0000000000000000e+00" cType="1" res="2.4190377444028854e-02" rms="2.6228436827659607e-01" purity="8.6649280786514282e-01" nType="-99"/>
            <Node pos="r" depth="3" NCoef="0" IVar="-1" Cut="0.0000000000000000e+00" cType="1" res="-4.6084947884082794e-02" rms="3.6556041240692139e-01" purity="5.8406108617782593e-01" nType="-99"/>
          </Node>
        </Node>
      </Node>
    </BinaryTree>
    <BinaryTree type="DecisionTree" boostWeight="1.0000000000000000e+00" itree="38">
      <Node pos="s" depth="0" NCoef="0" IVar="10" Cut="1.4666579961776733e+00" cType="1" res="-2.1861821878701448e-03" rms="3.0549129843711853e-01" purity="4.9585267901420593e-01" nType="0">
        <Node pos="l" depth="1" NCoef="0" IVar="4" Cut="9.8617332458496094e+01" cType="1" res="2.0517650991678238e-03" rms="3.0593162775039673e-01" purity="5.1970297098159790e-01" nType="0">
          <Node pos="l" depth="2" NCoef="0" IVar="1" Cut="5.4887462407350540e-02" cType="1" res="-2.5249384343624115e-02" rms="2.1980670094490051e-01" purity="6.9029495120048523e-02" nType="0">
            <Node pos="l" depth="3" NCoef="0" IVar="-1" Cut="0.0000000000000000e+00" cType="1" res="-3.5923480987548828e-02" rms="1.7592813074588776e-01" purity="4.0358018130064011e-02" nType="-99"/>
            <Node pos="r" depth="3" NCoef="0" IVar="-1" Cut="0.0000000000000000e+00" cType="1" res="-3.8347750902175903e-02" rms="3.2860696315765381e-01" purity="1.6895225644111633e-01" nType="-99"/>
          </Node>
          <Node pos="r" depth="2" NCoef="0" IVar="2" Cut="6.0742144775390625e+02" cType="1" res="7.2659975849092007e-03" rms="3.1948781013488770e-01" purity="6.0577690601348877e-01" nType="0">
            <Node pos="l" depth="3" NCoef="0" IVar="-1" Cut="0.0000000000000000e+00" cType="1" res="1.0522984899580479e-02" rms="3.1742060184478760e-01" purity="6.0368335247039795e-01" nType="-99"/>
            <Node pos="r" depth="3" NCoef="0" IVar="-1" Cut="0.0000000000000000e+00" cType="1" res="-2.6545675471425056e-02" rms="3.3687412738800049e-01" purity="6.2676829099655151e-01" nType="-99"/>
          </Node>
        </Node>
        <Node pos="r" depth="1" NCoef="0" IVar="4" Cut="1.7760020446777344e+02" cType="1" res="-3.4943532198667526e-02" rms="3.0005332827568054e-01" purity="3.1150093674659729e-01" nType="0">
          <Node pos="l" depth="2" NCoef="0" IVar="8" Cut="-1.3224799931049347e-01" cType="1" res="-2.0340500399470329e-02" rms="2.7952745556831360e-01" purity="1.9991280138492584e-01" nType="0">
            <Node pos="l" depth="3" NCoef="0" IVar="-1" Cut="0.0000000000000000e+00" cType="1" res="-4.3589558452367783e-02" rms="2.7438071370124817e-01" purity="1.7831677198410034e-01" nType="-99"/>
            <Node pos="r" depth="3" NCoef="0" IVar="-1" Cut="0.0000000000000000e+00" cType="1" res="-8.2727978006005287e-03" rms="2.8182891011238098e-01" purity="2.1285684406757355e-01" nType="-99"/>
          </Node>
          <Node pos="r" depth="2" NCoef="0" IVar="-1" Cut="0.0000000000000000e+00" cType="1" res="-5.9563081711530685e-02" rms="3.4413608908653259e-01" purity="5.9596902132034302e-01" nType="-99"/>
        </Node>
      </Node>
    </BinaryTree>
    <BinaryTree type="DecisionTree" boostWeight="1.0000000000000000e+00" itree="39">
      <Node pos="s" depth="0" NCoef="0" IVar="7" Cut="-6.1786186695098877e-01" cType="1" res="2.4941063020378351e-03" rms="3.0626058578491211e-01" purity="5.0477784872055054e-01" nType="0">
        <Node pos="l" depth="1" NCoef="0" IVar="2" Cut="5.4351190185546875e+02" cType="1" res="-1.9041167572140694e-02" rms="2.9062426090240479e-01" purity="3.3736562728881836e-01" nType="0">
          <Node pos="l" depth="2" NCoef="0" IVar="7" Cut="-1.1185945272445679e+00" cType="1" res="-1.2394195422530174e-02" rms="2.8695577383041382e-01" purity="3.3408161997795105e-01" nType="0">
            <Node pos="l" depth="3" NCoef="0" IVar="-1" Cut="0.0000000000000000e+00" cType="1" res="-3.7926588207483292e-02" rms="2.4151721596717834e-01" purity="1.6824392974376678e-01" nType="-99"/>
            <Node pos="r" depth="3" NCoef="0" IVar="-1" Cut="0.0000000000000000e+00" cType="1" res="2.3533413186669350e-03" rms="3.2293191552162170e-01" purity="4.8878157138824463e-01" nType="-99"/>
          </Node>
          <Node pos="r" depth="2" NCoef="0" IVar="-1" Cut="0.0000000000000000e+00" cType="1" res="-6.0926083475351334e-02" rms="3.1338137388229370e-01" purity="3.6357963085174561e-01" nType="-99"/>
        </Node>
        <Node pos="r" depth="1" NCoef="0" IVar="7" Cut="1.1721848249435425e+00" cType="1" res="9.1805271804332733e-03" rms="3.1065198779106140e-01" purity="5.5675715208053589e-01" nType="0">
          <Node pos="l" depth="2" NCoef="0" IVar="1" Cut="4.2284093797206879e-02" cType="1" res="1.3929695822298527e-02" rms="3.1979665160179138e-01" purity="6.1536985635757446e-01" nType="0">
            <Node pos="l" depth="3" NCoef="0" IVar="-1" Cut="0.0000000000000000e+00" cType="1" res="2.9906254261732101e-02" rms="3.4306889772415161e-01" purity="3.1587502360343933e-01" nType="-99"/>
            <Node pos="r" depth="3" NCoef="0" IVar="-1" Cut="0.0000000000000000e+00" cType="1" res="4.6914448030292988e-03" rms="3.0918851494789124e-01" purity="7.3944360017776489e-01" nType="-99"/>
          </Node>
          <Node pos="r" depth="2" NCoef="0" IVar="2" Cut="3.8041021728515625e+02" cType="1" res="-2.3003462702035904e-02" rms="2.3716306686401367e-01" purity="1.5955299139022827e-01" nType="0">
            <Node pos="l" depth="3" NCoef="0" IVar="-1" Cut="0.0000000000000000e+00" cType="1" res="-9.7244437783956528e-03" rms="2.4107201397418976e-01" purity="1.6780120134353638e-01" nType="-99"/>
            <Node pos="r" depth="3" NCoef="0" IVar="-1" Cut="0.0000000000000000e+00" cType="1" res="-7.0377521216869354e-02" rms="2.2456052899360657e-01" purity="1.4159417152404785e-01" nType="-99"/>
          </Node>
        </Node>
      </Node>
    </BinaryTree>
    <BinaryTree type="DecisionTree" boostWeight="1.0000000000000000e+00" itree="40">
      <Node pos="s" depth="0" NCoef="0" IVar="0" Cut="1.9496573486328125e+03" cType="1" res="-6.7654938902705908e-04" rms="3.0357053875923157e-01" purity="4.9630329012870789e-01" nType="0">
        <Node pos="l" depth="1" NCoef="0" IVar="3" Cut="3.3845080566406250e+02" cType="1" res="-6.2064481899142265e-03" rms="3.1753572821617126e-01" purity="3.9647787809371948e-01" nType="0">
          <Node pos="l" depth="2" NCoef="0" IVar="0" Cut="1.4569428710937500e+03" cType="1" res="-1.9767521880567074e-03" rms="3.1389793753623962e-01" purity="3.9527601003646851e-01" nType="0">
            <Node pos="l" depth="3" NCoef="0" IVar="-1" Cut="0.0000000000000000e+00" cType="1" res="-1.2572555802762508e-02" rms="3.0898863077163696e-01" purity="2.1739804744720459e-01" nType="-99"/>
            <Node pos="r" depth="3" NCoef="0" IVar="-1" Cut="0.0000000000000000e+00" cType="1" res="1.5610852278769016e-02" rms="3.2168346643447876e-01" purity="7.1809315681457520e-01" nType="-99"/>
          </Node>
          <Node pos="r" depth="2" NCoef="0" IVar="-1" Cut="0.0000000000000000e+00" cType="1" res="-6.0364011675119400e-02" rms="3.6818400025367737e-01" purity="4.1774660348892212e-01" nType="-99"/>
        </Node>
        <Node pos="r" depth="1" NCoef="0" IVar="2" Cut="6.2278576660156250e+02" cType="1" res="2.1280040964484215e-02" rms="2.3898069560527802e-01" purity="8.9266240596771240e-01" nType="0">
          <Node pos="l" depth="2" NCoef="0" IVar="6" Cut="6.3181526184082031e+01" cType="1" res="3.0110429972410202e-02" rms="1.9266921281814575e-01" purity="9.4921100139617920e-01" nType="0">
            <Node pos="l" depth="3" NCoef="0" IVar="-1" Cut="0.0000000000000000e+00" cType="1" res="4.2814206331968307e-02" rms="2.8638115525245667e-01" purity="8.7242782115936279e-01" nType="-99"/>
            <Node pos="r" depth="3" NCoef="0" IVar="-1" Cut="0.0000000000000000e+00" cType="1" res="5.2524805068969727e-02" rms="1.5589432418346405e-01" purity="9.7088509798049927e-01" nType="-99"/>
          </Node>
          <Node pos="r" depth="2" NCoef="0" IVar="2" Cut="7.4242633056640625e+02" cType="1" res="-3.1626832205802202e-03" rms="3.3411410450935364e-01" purity="7.3613458871841431e-01" nType="0">
            <Node pos="l" depth="3" NCoef="0" IVar="-1" Cut="0.0000000000000000e+00" cType="1" res="2.5846013799309731e-02" rms="2.9642555117607117e-01" purity="8.2926255464553833e-01" nType="-99"/>
            <Node pos="r" depth="3" NCoef="0" IVar="-1" Cut="0.0000000000000000e+00" cType="1" res="-2.8493953868746758e-02" rms="3.6749708652496338e-01" purity="6.3462507724761963e-01" nType="-99"/>
          </Node>
        </Node>
      </Node>
    </BinaryTree>
    <BinaryTree type="DecisionTree" boostWeight="1.0000000000000000e+00" itree="41">
      <Node pos="s" depth="0" NCoef="0" IVar="9" Cut="1.4666383266448975e+00" cType="1" res="1.3272046344354749e-03" rms="3.0535039305686951e-01" purity="5.0543481111526489e-01" nType="0">
        <Node pos="l" depth="1" NCoef="0" IVar="8" Cut="1.7334009408950806e+00" cType="1" res="4.1776462458074093e-03" rms="3.0787217617034912e-01" purity="5.3318953514099121e-01" nType="0">
          <Node pos="l" depth="2" NCoef="0" IVar="8" Cut="-1.9362108707427979e+00" cType="1" res="6.0695949941873550e-03" rms="3.1110331416130066e-01" purity="5.5274522304534912e-01" nType="0">
            <Node pos="l" depth="3" NCoef="0" IVar="-1" Cut="0.0000000000000000e+00" cType="1" res="-8.2645542919635773e-02" rms="1.7337737977504730e-01" purity="5.7966239750385284e-02" nType="-99"/>
            <Node pos="r" depth="3" NCoef="0" IVar="-1" Cut="0.0000000000000000e+00" cType="1" res="7.7814166434109211e-03" rms="3.1453278660774231e-01" purity="5.6960403919219971e-01" nType="-99"/>
          </Node>
          <Node pos="r" depth="2" NCoef="0" IVar="-1" Cut="0.0000000000000000e+00" cType="1" res="-5.3888048976659775e-02" rms="2.1966005861759186e-01" purity="9.6422404050827026e-02" nType="-99"/>
        </Node>
        <Node pos="r" depth="1" NCoef="0" IVar="7" Cut="1.6998626291751862e-01" cType="1" res="-2.8270261362195015e-02" rms="2.7608227729797363e-01" purity="2.1724469959735870e-01" nType="0">
          <Node pos="l" depth="2" NCoef="0" IVar="-1" Cut="0.0000000000000000e+00" cType="1" res="-5.8519970625638962e-02" rms="2.6030176877975464e-01" purity="1.8718560039997101e-01" nType="-99"/>
          <Node pos="r" depth="2" NCoef="0" IVar="-1" Cut="0.0000000000000000e+00" cType="1" res="-4.2822398245334625e-03" rms="2.9044947028160095e-01" purity="2.5018560886383057e-01" nType="-99"/>
        </Node>
      </Node>
    </BinaryTree>
    <BinaryTree type="DecisionTree" boostWeight="1.0000000000000000e+00" itree="42">
      <Node pos="s" depth="0" NCoef="0" IVar="7" Cut="-1.1879429817199707e+00" cType="1" res="3.3115798141807318e-03" rms="3.0470693111419678e-01" purity="4.9929141998291016e-01" nType="0">
        <Node pos="l" depth="1" NCoef="0" IVar="2" Cut="2.9851831054687500e+02" cType="1" res="-2.5293527171015739e-02" rms="2.3817296326160431e-01" purity="1.4250877499580383e-01" nType="0">
          <Node pos="l" depth="2" NCoef="0" IVar="-1" Cut="0.0000000000000000e+00" cType="1" res="-1.3960775919258595e-02" rms="2.2786292433738708e-01" purity="1.2076628953218460e-01" nType="-99"/>
          <Node pos="r" depth="2" NCoef="0" IVar="5" Cut="6.3995971679687500e+01" cType="1" res="-3.7237595766782761e-02" rms="2.4460159242153168e-01" purity="1.5809868276119232e-01" nType="0">
            <Node pos="l" depth="3" NCoef="0" IVar="-1" Cut="0.0000000000000000e+00" cType="1" res="-4.4130917638540268e-02" rms="1.5722960233688354e-01" purity="3.6771718412637711e-02" nType="-99"/>
            <Node pos="r" depth="3" NCoef="0" IVar="-1" Cut="0.0000000000000000e+00" cType="1" res="-4.6435527503490448e-02" rms="2.9451993107795715e-01" purity="2.5255516171455383e-01" nType="-99"/>
          </Node>
        </Node>
        <Node pos="r" depth="1" NCoef="0" IVar="7" Cut="1.4699780941009521e+00" cType="1" res="6.4377146773040295e-03" rms="3.1095743179321289e-01" purity="5.3828275203704834e-01" nType="0">
          <Node pos="l" depth="2" NCoef="0" IVar="3" Cut="2.3286648559570312e+02" cType="1" res="9.1839050874114037e-03" rms="3.1796014308929443e-01" purity="5.7164764404296875e-01" nType="0">
            <Node pos="l" depth="3" NCoef="0" IVar="-1" Cut="0.0000000000000000e+00" cType="1" res="1.7187006771564484e-02" rms="3.2418531179428101e-01" purity="4.2718869447708130e-01" nType="-99"/>
            <Node pos="r" depth="3" NCoef="0" IVar="-1" Cut="0.0000000000000000e+00" cType="1" res="-1.9594628829509020e-03" rms="3.1050279736518860e-01" purity="7.3244112730026245e-01" nType="-99"/>
          </Node>
          <Node pos="r" depth="2" NCoef="0" IVar="4" Cut="1.2921514892578125e+02" cType="1" res="-3.1092895194888115e-02" rms="1.8706685304641724e-01" purity="8.2304053008556366e-02" nType="0">
            <Node pos="l" depth="3" NCoef="0" IVar="-1" Cut="0.0000000000000000e+00" cType="1" res="-4.6777959913015366e-02" rms="1.3432821631431580e-01" purity="2.0233785733580589e-02" nType="-99"/>
            <Node pos="r" depth="3" NCoef="0" IVar="-1" Cut="0.0000000000000000e+00" cType="1" res="-5.2985310554504395e-02" rms="2.3250374197959900e-01" purity="1.5466105937957764e-01" nType="-99"/>
          </Node>
        </Node>
      </Node>
    </BinaryTree>
    <BinaryTree type="DecisionTree" boostWeight="1.0000000000000000e+00" itree="43">
      <Node pos="s" depth="0" NCoef="0" IVar="0" Cut="1.0951228027343750e+03" cType="1" res="3.1687223818153143e-03" rms="3.0345544219017029e-01" purity="5.0138306617736816e-01" nType="0">
        <Node pos="l" depth="1" NCoef="0" IVar="0" Cut="1.0389572753906250e+03" cType="1" res="-1.9453909248113632e-02" rms="1.9910691678524017e-01" purity="4.6324819326400757e-02" nType="0">
          <Node pos="l" depth="2" NCoef="0" IVar="1" Cut="3.7106130272150040e-02" cType="1" res="-2.9478594660758972e-02" rms="1.5975596010684967e-01" purity="2.6587534695863724e-02" nType="0">
            <Node pos="l" depth="3" NCoef="0" IVar="-1" Cut="0.0000000000000000e+00" cType="1" res="-6.9287389516830444e-02" rms="1.0218201577663422e-01" purity="1.0506254620850086e-02" nType="-99"/>
            <Node pos="r" depth="3" NCoef="0" IVar="-1" Cut="0.0000000000000000e+00" cType="1" res="-5.3914945572614670e-02" rms="2.1884192526340485e-01" purity="5.0777614116668701e-02" nType="-99"/>
          </Node>
          <Node pos="r" depth="2" NCoef="0" IVar="-1" Cut="0.0000000000000000e+00" cType="1" res="3.2368707470595837e-03" rms="2.6374554634094238e-01" purity="8.9104726910591125e-02" nType="-99"/>
        </Node>
        <Node pos="r" depth="1" NCoef="0" IVar="8" Cut="-6.6648375988006592e-01" cType="1" res="7.5880498625338078e-03" rms="3.1970325112342834e-01" purity="5.9027862548828125e-01" nType="0">
          <Node pos="l" depth="2" NCoef="0" IVar="3" Cut="2.2698970031738281e+02" cType="1" res="-1.4011945575475693e-02" rms="3.2154127955436707e-01" purity="4.3551605939865112e-01" nType="0">
            <Node pos="l" depth="3" NCoef="0" IVar="-1" Cut="0.0000000000000000e+00" cType="1" res="5.1471395418047905e-03" rms="3.2340559363365173e-01" purity="3.5242483019828796e-01" nType="-99"/>
            <Node pos="r" depth="3" NCoef="0" IVar="-1" Cut="0.0000000000000000e+00" cType="1" res="-3.0235087499022484e-02" rms="3.1834968924522400e-01" purity="5.2092379331588745e-01" nType="-99"/>
          </Node>
          <Node pos="r" depth="2" NCoef="0" IVar="10" Cut="-1.4667552709579468e+00" cType="1" res="1.4218484982848167e-02" rms="3.1884351372718811e-01" purity="6.3778519630432129e-01" nType="0">
            <Node pos="l" depth="3" NCoef="0" IVar="-1" Cut="0.0000000000000000e+00" cType="1" res="-2.2272316738963127e-02" rms="3.3017513155937195e-01" purity="4.6858865022659302e-01" nType="-99"/>
            <Node pos="r" depth="3" NCoef="0" IVar="-1" Cut="0.0000000000000000e+00" cType="1" res="1.7062090337276459e-02" rms="3.1734544038772583e-01" purity="6.5548479557037354e-01" nType="-99"/>
          </Node>
        </Node>
      </Node>
    </BinaryTree>
    <BinaryTree type="DecisionTree" boostWeight="1.0000000000000000e+00" itree="44">
      <Node pos="s" depth="0" NCoef="0" IVar="2" Cut="5.6517852783203125e+02" cType="1" res="-3.9306036196649075e-03" rms="3.0398696660995483e-01" purity="4.9789455533027649e-01" nType="0">
        <Node pos="l" depth="1" NCoef="0" IVar="0" Cut="1.5457846679687500e+03" cType="1" res="-1.9188726582797244e-05" rms="3.0039191246032715e-01" purity="4.8681682348251343e-01" nType="0">
          <Node pos="l" depth="2" NCoef="0" IVar="2" Cut="3.2172735595703125e+02" cType="1" res="-1.2063555419445038e-02" rms="3.1674981117248535e-01" purity="2.5754648447036743e-01" nType="0">
            <Node pos="l" depth="3" NCoef="0" IVar="-1" Cut="0.0000000000000000e+00" cType="1" res="2.0837900592596270e-05" rms="3.1934323906898499e-01" purity="3.0213916301727295e-01" nType="-99"/>
            <Node pos="r" depth="3" NCoef="0" IVar="-1" Cut="0.0000000000000000e+00" cType="1" res="-2.9728407040238380e-02" rms="3.1165176630020142e-01" purity="1.8705488741397858e-01" nType="-99"/>
          </Node>
          <Node pos="r" depth="2" NCoef="0" IVar="1" Cut="2.1215502172708511e-02" cType="1" res="1.9214686006307602e-02" rms="2.7113208174705505e-01" purity="8.5294288396835327e-01" nType="0">
            <Node pos="l" depth="3" NCoef="0" IVar="-1" Cut="0.0000000000000000e+00" cType="1" res="4.7417435795068741e-02" rms="3.6664056777954102e-01" purity="4.0913411974906921e-01" nType="-99"/>
            <Node pos="r" depth="3" NCoef="0" IVar="-1" Cut="0.0000000000000000e+00" cType="1" res="1.7982434481382370e-02" rms="2.6025253534317017e-01" purity="8.9299464225769043e-01" nType="-99"/>
          </Node>
        </Node>
        <Node pos="r" depth="1" NCoef="0" IVar="0" Cut="2.2529533691406250e+03" cType="1" res="-3.3079493790864944e-02" rms="3.2807999849319458e-01" purity="5.8044874668121338e-01" nType="0">
          <Node pos="l" depth="2" NCoef="0" IVar="4" Cut="1.5168716430664062e+02" cType="1" res="-6.5963745117187500e-02" rms="3.5203865170478821e-01" purity="3.7033063173294067e-01" nType="0">
            <Node pos="l" depth="3" NCoef="0" IVar="-1" Cut="0.0000000000000000e+00" cType="1" res="-3.3194828778505325e-02" rms="3.2372331619262695e-01" purity="2.2485947608947754e-01" nType="-99"/>
            <Node pos="r" depth="3" NCoef="0" IVar="-1" Cut="0.0000000000000000e+00" cType="1" res="-6.6100805997848511e-02" rms="3.7599533796310425e-01" purity="5.1313424110412598e-01" nType="-99"/>
          </Node>
          <Node pos="r" depth="2" NCoef="0" IVar="11" Cut="-5.1478111743927002e-01" cType="1" res="7.7392351813614368e-03" rms="2.9051959514617920e-01" purity="8.4126520156860352e-01" nType="0">
            <Node pos="l" depth="3" NCoef="0" IVar="-1" Cut="0.0000000000000000e+00" cType="1" res="-5.2833640947937965e-03" rms="3.1736063957214355e-01" purity="7.7367371320724487e-01" nType="-99"/>
            <Node pos="r" depth="3" NCoef="0" IVar="-1" Cut="0.0000000000000000e+00" cType="1" res="2.6307273656129837e-02" rms="2.6088482141494751e-01" purity="9.0739262104034424e-01" nType="-99"/>
          </Node>
        </Node>
      </Node>
    </BinaryTree>
    <BinaryTree type="DecisionTree" boostWeight="1.0000000000000000e+00" itree="45">
      <Node pos="s" depth="0" NCoef="0" IVar="10" Cut="1.1999704837799072e+00" cType="1" res="2.1225232630968094e-03" rms="3.0773600935935974e-01" purity="5.0245070457458496e-01" nType="0">
        <Node pos="l" depth="1" NCoef="0" IVar="9" Cut="1.7332596778869629e+00" cType="1" res="6.2008667737245560e-03" rms="3.0843007564544678e-01" purity="5.2654790878295898e-01" nType="0">
          <Node pos="l" depth="2" NCoef="0" IVar="10" Cut="-2.2285463809967041e+00" cType="1" res="8.5367541760206223e-03" rms="3.1088092923164368e-01" purity="5.4591757059097290e-01" nType="0">
            <Node pos="l" depth="3" NCoef="0" IVar="-1" Cut="0.0000000000000000e+00" cType="1" res="-4.6404667198657990e-02" rms="2.9809728264808655e-01" purity="2.1157748997211456e-01" nType="-99"/>
            <Node pos="r" depth="3" NCoef="0" IVar="-1" Cut="0.0000000000000000e+00" cType="1" res="1.0346590541303158e-02" rms="3.1119704246520996e-01" purity="5.5853891372680664e-01" nType="-99"/>
          </Node>
          <Node pos="r" depth="2" NCoef="0" IVar="-1" Cut="0.0000000000000000e+00" cType="1" res="-4.5356322079896927e-02" rms="2.5479811429977417e-01" purity="1.6643103957176208e-01" nType="-99"/>
        </Node>
        <Node pos="r" depth="1" NCoef="0" IVar="2" Cut="3.2073272705078125e+02" cType="1" res="-1.9195361062884331e-02" rms="3.0319067835807800e-01" purity="3.7649255990982056e-01" nType="0">
          <Node pos="l" depth="2" NCoef="0" IVar="-1" Cut="0.0000000000000000e+00" cType="1" res="6.9233567046467215e-05" rms="2.9525914788246155e-01" purity="3.1203088164329529e-01" nType="-99"/>
          <Node pos="r" depth="2" NCoef="0" IVar="10" Cut="1.5809805393218994e+00" cType="1" res="-3.3889926970005035e-02" rms="3.0829674005508423e-01" purity="4.2567101120948792e-01" nType="0">
            <Node pos="l" depth="3" NCoef="0" IVar="-1" Cut="0.0000000000000000e+00" cType="1" res="-1.8335632979869843e-02" rms="3.0464300513267517e-01" purity="5.3847903013229370e-01" nType="-99"/>
            <Node pos="r" depth="3" NCoef="0" IVar="-1" Cut="0.0000000000000000e+00" cType="1" res="-4.4033128768205643e-02" rms="3.1066274642944336e-01" purity="3.3676168322563171e-01" nType="-99"/>
          </Node>
        </Node>
      </Node>
    </BinaryTree>
    <BinaryTree type="DecisionTree" boostWeight="1.0000000000000000e+00" itree="46">
      <Node pos="s" depth="0" NCoef="0" IVar="2" Cut="4.7952947998046875e+02" cType="1" res="1.4870811719447374e-03" rms="3.0380016565322876e-01" purity="5.0855362415313721e-01" nType="0">
        <Node pos="l" depth="1" NCoef="0" IVar="0" Cut="1.1740607910156250e+03" cType="1" res="7.3455944657325745e-03" rms="3.0103877186775208e-01" purity="4.8798462748527527e-01" nType="0">
          <Node pos="l" depth="2" NCoef="0" IVar="2" Cut="2.5322282409667969e+02" cType="1" res="-1.1718031018972397e-02" rms="2.4677960574626923e-01" purity="8.1183858215808868e-02" nType="0">
            <Node pos="l" depth="3" NCoef="0" IVar="-1" Cut="0.0000000000000000e+00" cType="1" res="3.6881768610328436e-03" rms="2.8045883774757385e-01" purity="1.1288188397884369e-01" nType="-99"/>
            <Node pos="r" depth="3" NCoef="0" IVar="-1" Cut="0.0000000000000000e+00" cType="1" res="-3.7614192813634872e-02" rms="2.1527525782585144e-01" purity="5.5746287107467651e-02" nType="-99"/>
          </Node>
          <Node pos="r" depth="2" NCoef="0" IVar="1" Cut="6.3635103404521942e-02" cType="1" res="1.5186127275228500e-02" rms="3.2037234306335449e-01" purity="6.5529453754425049e-01" nType="0">
            <Node pos="l" depth="3" NCoef="0" IVar="-1" Cut="0.0000000000000000e+00" cType="1" res="2.7992388233542442e-02" rms="3.5122242569923401e-01" purity="3.9557060599327087e-01" nType="-99"/>
            <Node pos="r" depth="3" NCoef="0" IVar="-1" Cut="0.0000000000000000e+00" cType="1" res="2.9986284789629281e-04" rms="2.9432728886604309e-01" purity="8.4947818517684937e-01" nType="-99"/>
          </Node>
        </Node>
        <Node pos="r" depth="1" NCoef="0" IVar="0" Cut="1.8597336425781250e+03" cType="1" res="-1.9685102626681328e-02" rms="3.1266310811042786e-01" purity="5.8288824558258057e-01" nType="0">
          <Node pos="l" depth="2" NCoef="0" IVar="1" Cut="3.0512290075421333e-02" cType="1" res="-5.3439438343048096e-02" rms="3.3130565285682678e-01" purity="2.3708035051822662e-01" nType="0">
            <Node pos="l" depth="3" NCoef="0" IVar="-1" Cut="0.0000000000000000e+00" cType="1" res="-2.7269765734672546e-02" rms="2.5856056809425354e-01" purity="1.0166680067777634e-01" nType="-99"/>
            <Node pos="r" depth="3" NCoef="0" IVar="-1" Cut="0.0000000000000000e+00" cType="1" res="-5.9925526380538940e-02" rms="4.1152459383010864e-01" purity="4.3500116467475891e-01" nType="-99"/>
          </Node>
          <Node pos="r" depth="2" NCoef="0" IVar="2" Cut="7.3248895263671875e+02" cType="1" res="1.9727603066712618e-03" rms="2.9808586835861206e-01" purity="8.0476957559585571e-01" nType="0">
            <Node pos="l" depth="3" NCoef="0" IVar="-1" Cut="0.0000000000000000e+00" cType="1" res="1.4655651524662971e-02" rms="2.7338027954101562e-01" purity="8.6045545339584351e-01" nType="-99"/>
            <Node pos="r" depth="3" NCoef="0" IVar="-1" Cut="0.0000000000000000e+00" cType="1" res="-2.6957912370562553e-02" rms="3.6972239613533020e-01" purity="6.0830140113830566e-01" nType="-99"/>
          </Node>
        </Node>
      </Node>
    </BinaryTree>
    <BinaryTree type="DecisionTree" boostWeight="1.0000000000000000e+00" itree="47">
      <Node pos="s" depth="0" NCoef="0" IVar="9" Cut="-9.3342590332031250e-01" cType="1" res="-2.0121394190937281e-03" rms="3.0147576332092285e-01" purity="5.0041681528091431e-01" nType="0">
        <Node pos="l" depth="1" NCoef="0" IVar="4" Cut="2.1542761230468750e+02" cType="1" res="-2.3659365251660347e-02" rms="3.0762812495231628e-01" purity="3.2837197184562683e-01" nType="0">
          <Node pos="l" depth="2" NCoef="0" IVar="4" Cut="1.4511869812011719e+02" cType="1" res="-1.5125391073524952e-02" rms="3.0242252349853516e-01" purity="2.8017601370811462e-01" nType="0">
            <Node pos="l" depth="3" NCoef="0" IVar="-1" Cut="0.0000000000000000e+00" cType="1" res="-3.6465579178184271e-03" rms="2.7569732069969177e-01" purity="1.7479287087917328e-01" nType="-99"/>
            <Node pos="r" depth="3" NCoef="0" IVar="-1" Cut="0.0000000000000000e+00" cType="1" res="-3.0105274170637131e-02" rms="3.4528151154518127e-01" purity="4.7480565309524536e-01" nType="-99"/>
          </Node>
          <Node pos="r" depth="2" NCoef="0" IVar="-1" Cut="0.0000000000000000e+00" cType="1" res="-7.9624630510807037e-02" rms="3.3510285615921021e-01" purity="6.5444368124008179e-01" nType="-99"/>
        </Node>
        <Node pos="r" depth="1" NCoef="0" IVar="10" Cut="-1.7333905696868896e+00" cType="1" res="3.1906575895845890e-03" rms="2.9974532127380371e-01" purity="5.4176688194274902e-01" nType="0">
          <Node pos="l" depth="2" NCoef="0" IVar="3" Cut="2.0979211425781250e+02" cType="1" res="-3.6569602787494659e-02" rms="2.9136645793914795e-01" purity="3.1413111090660095e-01" nType="0">
            <Node pos="l" depth="3" NCoef="0" IVar="-1" Cut="0.0000000000000000e+00" cType="1" res="-2.8588233515620232e-02" rms="2.5959450006484985e-01" purity="1.5254297852516174e-01" nType="-99"/>
            <Node pos="r" depth="3" NCoef="0" IVar="-1" Cut="0.0000000000000000e+00" cType="1" res="-4.5750793069601059e-02" rms="3.2427445054054260e-01" purity="5.0516426563262939e-01" nType="-99"/>
          </Node>
          <Node pos="r" depth="2" NCoef="0" IVar="7" Cut="-3.8092708587646484e-01" cType="1" res="6.2527442350983620e-03" rms="3.0016258358955383e-01" purity="5.5929797887802124e-01" nType="0">
            <Node pos="l" depth="3" NCoef="0" IVar="-1" Cut="0.0000000000000000e+00" cType="1" res="-8.6097335442900658e-03" rms="2.9353475570678711e-01" purity="4.7564744949340820e-01" nType="-99"/>
            <Node pos="r" depth="3" NCoef="0" IVar="-1" Cut="0.0000000000000000e+00" cType="1" res="1.2621549889445305e-02" rms="3.0276918411254883e-01" purity="5.9552472829818726e-01" nType="-99"/>
          </Node>
        </Node>
      </Node>
    </BinaryTree>
    <BinaryTree type="DecisionTree" boostWeight="1.0000000000000000e+00" itree="48">
      <Node pos="s" depth="0" NCoef="0" IVar="0" Cut="1.6845393066406250e+03" cType="1" res="-4.1563846752978861e-04" rms="3.0387231707572937e-01" purity="4.9809542298316956e-01" nType="0">
        <Node pos="l" depth="1" NCoef="0" IVar="3" Cut="2.4313783264160156e+02" cType="1" res="-7.6653938740491867e-03" rms="3.2067281007766724e-01" purity="3.0898126959800720e-01" nType="0">
          <Node pos="l" depth="2" NCoef="0" IVar="2" Cut="4.3839486694335938e+02" cType="1" res="1.3078530319035053e-03" rms="3.0913650989532471e-01" purity="2.9163140058517456e-01" nType="0">
            <Node pos="l" depth="3" NCoef="0" IVar="-1" Cut="0.0000000000000000e+00" cType="1" res="5.2913031540811062e-03" rms="3.0910077691078186e-01" purity="3.0954176187515259e-01" nType="-99"/>
            <Node pos="r" depth="3" NCoef="0" IVar="-1" Cut="0.0000000000000000e+00" cType="1" res="-2.6487151160836220e-02" rms="3.0791538953781128e-01" purity="1.6087068617343903e-01" nType="-99"/>
          </Node>
          <Node pos="r" depth="2" NCoef="0" IVar="1" Cut="4.3822802603244781e-02" cType="1" res="-4.4887114316225052e-02" rms="3.6228463053703308e-01" purity="3.8094994425773621e-01" nType="0">
            <Node pos="l" depth="3" NCoef="0" IVar="-1" Cut="0.0000000000000000e+00" cType="1" res="-1.6399509040638804e-03" rms="3.0616950988769531e-01" purity="1.8486323952674866e-01" nType="-99"/>
            <Node pos="r" depth="3" NCoef="0" IVar="-1" Cut="0.0000000000000000e+00" cType="1" res="-5.8053910732269287e-02" rms="4.0643224120140076e-01" purity="5.7787615060806274e-01" nType="-99"/>
          </Node>
        </Node>
        <Node pos="r" depth="1" NCoef="0" IVar="2" Cut="4.5246078491210938e+02" cType="1" res="1.2876436114311218e-02" rms="2.6986584067344666e-01" purity="8.4482705593109131e-01" nType="0">
          <Node pos="l" depth="2" NCoef="0" IVar="1" Cut="6.0319874435663223e-02" cType="1" res="2.7631929144263268e-02" rms="2.0874181389808655e-01" purity="9.3915647268295288e-01" nType="0">
            <Node pos="l" depth="3" NCoef="0" IVar="-1" Cut="0.0000000000000000e+00" cType="1" res="4.4670429080724716e-02" rms="3.0729690194129944e-01" purity="8.3947950601577759e-01" nType="-99"/>
            <Node pos="r" depth="3" NCoef="0" IVar="-1" Cut="0.0000000000000000e+00" cType="1" res="4.3526653200387955e-02" rms="1.6683118045330048e-01" purity="9.6942037343978882e-01" nType="-99"/>
          </Node>
          <Node pos="r" depth="2" NCoef="0" IVar="7" Cut="-5.2996253967285156e-01" cType="1" res="-4.7106196871027350e-04" rms="3.1450816988945007e-01" purity="7.5949871540069580e-01" nType="0">
            <Node pos="l" depth="3" NCoef="0" IVar="-1" Cut="0.0000000000000000e+00" cType="1" res="-2.9152939096093178e-02" rms="3.4525981545448303e-01" purity="6.2859719991683960e-01" nType="-99"/>
            <Node pos="r" depth="3" NCoef="0" IVar="-1" Cut="0.0000000000000000e+00" cType="1" res="8.2370871677994728e-03" rms="3.0541837215423584e-01" purity="7.9336929321289062e-01" nType="-99"/>
          </Node>
        </Node>
      </Node>
    </BinaryTree>
    <BinaryTree type="DecisionTree" boostWeight="1.0000000000000000e+00" itree="49">
      <Node pos="s" depth="0" NCoef="0" IVar="0" Cut="1.3945645751953125e+03" cType="1" res="-1.0681820567697287e-03" rms="3.0349981784820557e-01" purity="4.9605476856231689e-01" nType="0">
        <Node pos="l" depth="1" NCoef="0" IVar="5" Cut="8.7362159729003906e+01" cType="1" res="-1.3188809156417847e-02" rms="2.9846942424774170e-01" purity="1.7498895525932312e-01" nType="0">
          <Node pos="l" depth="2" NCoef="0" IVar="5" Cut="6.0675384521484375e+01" cType="1" res="-6.2006595544517040e-03" rms="2.8280919790267944e-01" purity="1.3969647884368896e-01" nType="0">
            <Node pos="l" depth="3" NCoef="0" IVar="-1" Cut="0.0000000000000000e+00" cType="1" res="-3.1345676630735397e-02" rms="2.2817794978618622e-01" purity="6.8172901868820190e-02" nType="-99"/>
            <Node pos="r" depth="3" NCoef="0" IVar="-1" Cut="0.0000000000000000e+00" cType="1" res="7.8086773864924908e-03" rms="3.2875764369964600e-01" purity="2.1276432275772095e-01" nType="-99"/>
          </Node>
          <Node pos="r" depth="2" NCoef="0" IVar="-1" Cut="0.0000000000000000e+00" cType="1" res="-3.8199793547391891e-02" rms="3.8146826624870300e-01" purity="4.0290439128875732e-01" nType="-99"/>
        </Node>
        <Node pos="r" depth="1" NCoef="0" IVar="3" Cut="3.1187603759765625e+02" cType="1" res="8.1979092210531235e-03" rms="3.0696737766265869e-01" purity="7.4150621891021729e-01" nType="0">
          <Node pos="l" depth="2" NCoef="0" IVar="6" Cut="6.1862426757812500e+01" cType="1" res="1.7243497073650360e-02" rms="3.1011691689491272e-01" purity="7.3990029096603394e-01" nType="0">
            <Node pos="l" depth="3" NCoef="0" IVar="-1" Cut="0.0000000000000000e+00" cType="1" res="2.5326013565063477e-02" rms="3.7463441491127014e-01" purity="5.2330946922302246e-01" nType="-99"/>
            <Node pos="r" depth="3" NCoef="0" IVar="-1" Cut="0.0000000000000000e+00" cType="1" res="5.8566676452755928e-03" rms="2.5821357965469360e-01" purity="8.8247370719909668e-01" nType="-99"/>
          </Node>
          <Node pos="r" depth="2" NCoef="0" IVar="0" Cut="2.1941699218750000e+03" cType="1" res="-8.8603366166353226e-03" rms="3.0019748210906982e-01" purity="7.4453467130661011e-01" nType="0">
            <Node pos="l" depth="3" NCoef="0" IVar="-1" Cut="0.0000000000000000e+00" cType="1" res="-2.5802720338106155e-02" rms="3.3980947732925415e-01" purity="6.2173646688461304e-01" nType="-99"/>
            <Node pos="r" depth="3" NCoef="0" IVar="-1" Cut="0.0000000000000000e+00" cType="1" res="2.3707561194896698e-02" rms="2.3669971525669098e-01" purity="9.0370374917984009e-01" nType="-99"/>
          </Node>
        </Node>
      </Node>
    </BinaryTree>
    <BinaryTree type="DecisionTree" boostWeight="1.0000000000000000e+00" itree="50">
      <Node pos="s" depth="0" NCoef="0" IVar="8" Cut="6.6665762662887573e-01" cType="1" res="-6.6458480432629585e-04" rms="2.9946637153625488e-01" purity="4.9611809849739075e-01" nType="0">
        <Node pos="l" depth="1" NCoef="0" IVar="8" Cut="-4.8886027932167053e-01" cType="1" res="4.3018641881644726e-03" rms="3.0093383789062500e-01" purity="5.4080957174301147e-01" nType="0">
          <Node pos="l" depth="2" NCoef="0" IVar="7" Cut="1.6615329682826996e-01" cType="1" res="-6.7985868081450462e-03" rms="2.9831963777542114e-01" purity="3.9727547764778137e-01" nType="0">
            <Node pos="l" depth="3" NCoef="0" IVar="-1" Cut="0.0000000000000000e+00" cType="1" res="3.8653654046356678e-03" rms="2.9878103733062744e-01" purity="4.3892252445220947e-01" nType="-99"/>
            <Node pos="r" depth="3" NCoef="0" IVar="-1" Cut="0.0000000000000000e+00" cType="1" res="-2.4764770641922951e-02" rms="2.9685795307159424e-01" purity="3.3247256278991699e-01" nType="-99"/>
          </Node>
          <Node pos="r" depth="2" NCoef="0" IVar="1" Cut="4.3795950710773468e-02" cType="1" res="1.1884276755154133e-02" rms="3.0247247219085693e-01" purity="6.3885378837585449e-01" nType="0">
            <Node pos="l" depth="3" NCoef="0" IVar="-1" Cut="0.0000000000000000e+00" cType="1" res="2.4825977161526680e-02" rms="3.2100981473922729e-01" purity="3.3356261253356934e-01" nType="-99"/>
            <Node pos="r" depth="3" NCoef="0" IVar="-1" Cut="0.0000000000000000e+00" cType="1" res="5.0145466811954975e-03" rms="2.9365950822830200e-01" purity="7.7311104536056519e-01" nType="-99"/>
          </Node>
        </Node>
        <Node pos="r" depth="1" NCoef="0" IVar="0" Cut="1.8513759765625000e+03" cType="1" res="-1.5963114798069000e-02" rms="2.9437401890754700e-01" purity="3.5845166444778442e-01" nType="0">
          <Node pos="l" depth="2" NCoef="0" IVar="3" Cut="1.9121246337890625e+02" cType="1" res="-2.3030808195471764e-02" rms="2.9691568017005920e-01" purity="2.4920772016048431e-01" nType="0">
            <Node pos="l" depth="3" NCoef="0" IVar="-1" Cut="0.0000000000000000e+00" cType="1" res="-5.6490735150873661e-03" rms="2.6289170980453491e-01" purity="1.6374617815017700e-01" nType="-99"/>
            <Node pos="r" depth="3" NCoef="0" IVar="-1" Cut="0.0000000000000000e+00" cType="1" res="-3.7350900471210480e-02" rms="3.2813000679016113e-01" purity="3.4028017520904541e-01" nType="-99"/>
          </Node>
          <Node pos="r" depth="2" NCoef="0" IVar="-1" Cut="0.0000000000000000e+00" cType="1" res="1.5116520226001740e-02" rms="2.8151318430900574e-01" purity="8.1746351718902588e-01" nType="-99"/>
        </Node>
      </Node>
    </BinaryTree>
    <BinaryTree type="DecisionTree" boostWeight="1.0000000000000000e+00" itree="51">
      <Node pos="s" depth="0" NCoef="0" IVar="7" Cut="4.1495251655578613e-01" cType="1" res="4.6650953590869904e-03" rms="3.0442723631858826e-01" purity="5.0049245357513428e-01" nType="0">
        <Node pos="l" depth="1" NCoef="0" IVar="11" Cut="8.6663055419921875e-01" cType="1" res="1.0471686720848083e-02" rms="3.0780550837516785e-01" purity="5.4518634080886841e-01" nType="0">
          <Node pos="l" depth="2" NCoef="0" IVar="4" Cut="9.7378334045410156e+01" cType="1" res="1.4298971742391586e-02" rms="3.0743420124053955e-01" purity="5.2169156074523926e-01" nType="0">
            <Node pos="l" depth="3" NCoef="0" IVar="-1" Cut="0.0000000000000000e+00" cType="1" res="-1.5867430716753006e-02" rms="2.2889988124370575e-01" purity="7.5162768363952637e-02" nType="-99"/>
            <Node pos="r" depth="3" NCoef="0" IVar="-1" Cut="0.0000000000000000e+00" cType="1" res="1.7611064016819000e-02" rms="3.1976297497749329e-01" purity="6.0501128435134888e-01" nType="-99"/>
          </Node>
          <Node pos="r" depth="2" NCoef="0" IVar="7" Cut="-4.7998240590095520e-01" cType="1" res="-1.9133197143673897e-02" rms="3.0906555056571960e-01" purity="7.2692388296127319e-01" nType="0">
            <Node pos="l" depth="3" NCoef="0" IVar="-1" Cut="0.0000000000000000e+00" cType="1" res="-4.0143076330423355e-02" rms="3.3504354953765869e-01" purity="5.5400788784027100e-01" nType="-99"/>
            <Node pos="r" depth="3" NCoef="0" IVar="-1" Cut="0.0000000000000000e+00" cType="1" res="-4.6678073704242706e-03" rms="2.9220235347747803e-01" purity="8.2512408494949341e-01" nType="-99"/>
          </Node>
        </Node>
        <Node pos="r" depth="1" NCoef="0" IVar="2" Cut="4.2571658325195312e+02" cType="1" res="-7.7212462201714516e-03" rms="2.9671308398246765e-01" purity="4.0515354275703430e-01" nType="0">
          <Node pos="l" depth="2" NCoef="0" IVar="0" Cut="1.5113859863281250e+03" cType="1" res="1.3991369633004069e-03" rms="2.9276150465011597e-01" purity="3.8056543469429016e-01" nType="0">
            <Node pos="l" depth="3" NCoef="0" IVar="-1" Cut="0.0000000000000000e+00" cType="1" res="-7.7059217728674412e-03" rms="2.9535833001136780e-01" purity="2.0425710082054138e-01" nType="-99"/>
            <Node pos="r" depth="3" NCoef="0" IVar="-1" Cut="0.0000000000000000e+00" cType="1" res="2.6625335216522217e-02" rms="2.8449532389640808e-01" purity="8.5029792785644531e-01" nType="-99"/>
          </Node>
          <Node pos="r" depth="2" NCoef="0" IVar="0" Cut="1.7693431396484375e+03" cType="1" res="-2.9604461044073105e-02" rms="3.0487576127052307e-01" purity="4.6414959430694580e-01" nType="0">
            <Node pos="l" depth="3" NCoef="0" IVar="-1" Cut="0.0000000000000000e+00" cType="1" res="-5.6175988167524338e-02" rms="2.8737139701843262e-01" purity="1.6054248809814453e-01" nType="-99"/>
            <Node pos="r" depth="3" NCoef="0" IVar="-1" Cut="0.0000000000000000e+00" cType="1" res="-4.6130977571010590e-03" rms="3.1852594017982483e-01" purity="7.5011092424392700e-01" nType="-99"/>
          </Node>
        </Node>
      </Node>
    </BinaryTree>
    <BinaryTree type="DecisionTree" boostWeight="1.0000000000000000e+00" itree="52">
      <Node pos="s" depth="0" NCoef="0" IVar="9" Cut="-1.9998363256454468e+00" cType="1" res="-6.3787808176130056e-04" rms="3.0325540900230408e-01" purity="4.9776333570480347e-01" nType="0">
        <Node pos="l" depth="1" NCoef="0" IVar="-1" Cut="0.0000000000000000e+00" cType="1" res="-5.8201167732477188e-02" rms="2.0986583828926086e-01" purity="1.0586611181497574e-01" nType="-99"/>
        <Node pos="r" depth="1" NCoef="0" IVar="9" Cut="7.4294120073318481e-01" cType="1" res="8.8942196452990174e-04" rms="3.0601000785827637e-01" purity="5.1203167438507080e-01" nType="0">
          <Node pos="l" depth="2" NCoef="0" IVar="8" Cut="1.1999640464782715e+00" cType="1" res="6.3535994850099087e-03" rms="3.0660855770111084e-01" purity="5.5340790748596191e-01" nType="0">
            <Node pos="l" depth="3" NCoef="0" IVar="-1" Cut="0.0000000000000000e+00" cType="1" res="9.8436502739787102e-03" rms="3.0836251378059387e-01" purity="5.8764284849166870e-01" nType="-99"/>
            <Node pos="r" depth="3" NCoef="0" IVar="-1" Cut="0.0000000000000000e+00" cType="1" res="-2.7838058769702911e-02" rms="2.8794246912002563e-01" purity="2.3645062744617462e-01" nType="-99"/>
          </Node>
          <Node pos="r" depth="2" NCoef="0" IVar="4" Cut="2.0466567993164062e+02" cType="1" res="-1.5508842654526234e-02" rms="3.0361691117286682e-01" purity="3.8785967230796814e-01" nType="0">
            <Node pos="l" depth="3" NCoef="0" IVar="-1" Cut="0.0000000000000000e+00" cType="1" res="-6.5015633590519428e-03" rms="2.9882532358169556e-01" purity="3.1974822282791138e-01" nType="-99"/>
            <Node pos="r" depth="3" NCoef="0" IVar="-1" Cut="0.0000000000000000e+00" cType="1" res="-5.9234030544757843e-02" rms="3.2096639275550842e-01" purity="6.9557178020477295e-01" nType="-99"/>
          </Node>
        </Node>
      </Node>
    </BinaryTree>
    <BinaryTree type="DecisionTree" boostWeight="1.0000000000000000e+00" itree="53">
      <Node pos="s" depth="0" NCoef="0" IVar="11" Cut="1.6949479579925537e+00" cType="1" res="-8.8867451995611191e-04" rms="2.9917031526565552e-01" purity="5.0019973516464233e-01" nType="0">
        <Node pos="l" depth="1" NCoef="0" IVar="7" Cut="6.7259579896926880e-01" cType="1" res="6.9378345506265759e-04" rms="2.9752594232559204e-01" purity="4.9651947617530823e-01" nType="0">
          <Node pos="l" depth="2" NCoef="0" IVar="10" Cut="1.9999774694442749e+00" cType="1" res="4.5086112804710865e-03" rms="3.0320844054222107e-01" purity="5.5038595199584961e-01" nType="0">
            <Node pos="l" depth="3" NCoef="0" IVar="-1" Cut="0.0000000000000000e+00" cType="1" res="6.2629124149680138e-03" rms="3.0330654978752136e-01" purity="5.6329077482223511e-01" nType="-99"/>
            <Node pos="r" depth="3" NCoef="0" IVar="-1" Cut="0.0000000000000000e+00" cType="1" res="-3.2557602971792221e-02" rms="2.9843673110008240e-01" purity="2.5538578629493713e-01" nType="-99"/>
          </Node>
          <Node pos="r" depth="2" NCoef="0" IVar="10" Cut="-1.1993207931518555e+00" cType="1" res="-1.2521785683929920e-02" rms="2.7653351426124573e-01" purity="3.0991169810295105e-01" nType="0">
            <Node pos="l" depth="3" NCoef="0" IVar="-1" Cut="0.0000000000000000e+00" cType="1" res="-5.9555269777774811e-02" rms="2.5491276383399963e-01" purity="1.6703715920448303e-01" nType="-99"/>
            <Node pos="r" depth="3" NCoef="0" IVar="-1" Cut="0.0000000000000000e+00" cType="1" res="-6.7536267451941967e-03" rms="2.7990505099296570e-01" purity="3.3671370148658752e-01" nType="-99"/>
          </Node>
        </Node>
        <Node pos="r" depth="1" NCoef="0" IVar="-1" Cut="0.0000000000000000e+00" cType="1" res="-3.7676729261875153e-02" rms="3.3681172132492065e-01" purity="5.9669673442840576e-01" nType="-99"/>
      </Node>
    </BinaryTree>
    <BinaryTree type="DecisionTree" boostWeight="1.0000000000000000e+00" itree="54">
      <Node pos="s" depth="0" NCoef="0" IVar="8" Cut="1.4667420387268066e+00" cType="1" res="3.6176091525703669e-03" rms="3.0181163549423218e-01" purity="5.0022274255752563e-01" nType="0">
        <Node pos="l" depth="1" NCoef="0" IVar="0" Cut="1.0973800048828125e+03" cType="1" res="6.0375421307981014e-03" rms="3.0694553256034851e-01" purity="5.3079730272293091e-01" nType="0">
          <Node pos="l" depth="2" NCoef="0" IVar="9" Cut="-6.6560077667236328e-01" cType="1" res="-1.3203863054513931e-02" rms="2.0928592979907990e-01" purity="5.2083749324083328e-02" nType="0">
            <Node pos="l" depth="3" NCoef="0" IVar="-1" Cut="0.0000000000000000e+00" cType="1" res="3.6017356906086206e-03" rms="2.2016769647598267e-01" purity="5.7448554784059525e-02" nType="-99"/>
            <Node pos="r" depth="3" NCoef="0" IVar="-1" Cut="0.0000000000000000e+00" cType="1" res="-3.5175926983356476e-02" rms="2.0331449806690216e-01" purity="4.9442991614341736e-02" nType="-99"/>
          </Node>
          <Node pos="r" depth="2" NCoef="0" IVar="2" Cut="3.3580932617187500e+02" cType="1" res="9.5454640686511993e-03" rms="3.2144510746002197e-01" purity="6.1807209253311157e-01" nType="0">
            <Node pos="l" depth="3" NCoef="0" IVar="-1" Cut="0.0000000000000000e+00" cType="1" res="1.9661713391542435e-02" rms="3.3938351273536682e-01" purity="6.3078266382217407e-01" nType="-99"/>
            <Node pos="r" depth="3" NCoef="0" IVar="-1" Cut="0.0000000000000000e+00" cType="1" res="1.8931513186544180e-03" rms="3.1045025587081909e-01" purity="6.1079442501068115e-01" nType="-99"/>
          </Node>
        </Node>
        <Node pos="r" depth="1" NCoef="0" IVar="4" Cut="1.3088180541992188e+02" cType="1" res="-2.6230635121464729e-02" rms="2.2710961103439331e-01" purity="1.2310635298490524e-01" nType="0">
          <Node pos="l" depth="2" NCoef="0" IVar="-1" Cut="0.0000000000000000e+00" cType="1" res="-3.4644521772861481e-02" rms="1.6389138996601105e-01" purity="3.7118736654520035e-02" nType="-99"/>
          <Node pos="r" depth="2" NCoef="0" IVar="-1" Cut="0.0000000000000000e+00" cType="1" res="-3.9207652211189270e-02" rms="2.8823754191398621e-01" purity="2.3420894145965576e-01" nType="-99"/>
        </Node>
      </Node>
    </BinaryTree>
    <BinaryTree type="DecisionTree" boostWeight="1.0000000000000000e+00" itree="55">
      <Node pos="s" depth="0" NCoef="0" IVar="11" Cut="-1.0666847229003906e+00" cType="1" res="-1.3083827216178179e-03" rms="3.0187577009201050e-01" purity="5.0042831897735596e-01" nType="0">
        <Node pos="l" depth="1" NCoef="0" IVar="1" Cut="6.1605405062437057e-02" cType="1" res="-8.7752100080251694e-03" rms="3.0710962414741516e-01" purity="2.9750674962997437e-01" nType="0">
          <Node pos="l" depth="2" NCoef="0" IVar="9" Cut="-4.0004926919937134e-01" cType="1" res="-2.0708010997623205e-03" rms="2.7758204936981201e-01" purity="1.6036823391914368e-01" nType="0">
            <Node pos="l" depth="3" NCoef="0" IVar="-1" Cut="0.0000000000000000e+00" cType="1" res="-2.0453760400414467e-02" rms="2.5995823740959167e-01" purity="1.3277913630008698e-01" nType="-99"/>
            <Node pos="r" depth="3" NCoef="0" IVar="-1" Cut="0.0000000000000000e+00" cType="1" res="7.8956810757517815e-03" rms="2.8827479481697083e-01" purity="1.7857214808464050e-01" nType="-99"/>
          </Node>
          <Node pos="r" depth="2" NCoef="0" IVar="0" Cut="1.5985401611328125e+03" cType="1" res="-2.2066796198487282e-02" rms="3.5815876722335815e-01" purity="5.6938588619232178e-01" nType="0">
            <Node pos="l" depth="3" NCoef="0" IVar="-1" Cut="0.0000000000000000e+00" cType="1" res="-2.3195652291178703e-02" rms="3.9621695876121521e-01" purity="3.8313347101211548e-01" nType="-99"/>
            <Node pos="r" depth="3" NCoef="0" IVar="-1" Cut="0.0000000000000000e+00" cType="1" res="1.8720420775935054e-03" rms="2.8354656696319580e-01" purity="8.7411367893218994e-01" nType="-99"/>
          </Node>
        </Node>
        <Node pos="r" depth="1" NCoef="0" IVar="2" Cut="4.2899774169921875e+02" cType="1" res="8.5719116032123566e-03" rms="2.9451662302017212e-01" purity="7.6893931627273560e-01" nType="0">
          <Node pos="l" depth="2" NCoef="0" IVar="1" Cut="6.5961949527263641e-02" cType="1" res="1.5743980184197426e-02" rms="2.9682508111000061e-01" purity="7.5286066532135010e-01" nType="0">
            <Node pos="l" depth="3" NCoef="0" IVar="-1" Cut="0.0000000000000000e+00" cType="1" res="2.7608156204223633e-02" rms="3.5089057683944702e-01" purity="5.1077681779861450e-01" nType="-99"/>
            <Node pos="r" depth="3" NCoef="0" IVar="-1" Cut="0.0000000000000000e+00" cType="1" res="5.5064074695110321e-03" rms="2.6241716742515564e-01" purity="8.8327336311340332e-01" nType="-99"/>
          </Node>
          <Node pos="r" depth="2" NCoef="0" IVar="0" Cut="2.2203840332031250e+03" cType="1" res="-6.0812779702246189e-03" rms="2.8919062018394470e-01" purity="8.0178928375244141e-01" nType="0">
            <Node pos="l" depth="3" NCoef="0" IVar="-1" Cut="0.0000000000000000e+00" cType="1" res="-2.5766760110855103e-02" rms="3.3729675412178040e-01" purity="7.0126694440841675e-01" nType="-99"/>
            <Node pos="r" depth="3" NCoef="0" IVar="-1" Cut="0.0000000000000000e+00" cType="1" res="3.9704032242298126e-02" rms="1.9707871973514557e-01" purity="9.4622427225112915e-01" nType="-99"/>
          </Node>
        </Node>
      </Node>
    </BinaryTree>
    <BinaryTree type="DecisionTree" boostWeight="1.0000000000000000e+00" itree="56">
      <Node pos="s" depth="0" NCoef="0" IVar="8" Cut="-1.4663884639739990e+00" cType="1" res="-1.4662639005109668e-03" rms="2.9939183592796326e-01" purity="4.9909800291061401e-01" nType="0">
        <Node pos="l" depth="1" NCoef="0" IVar="4" Cut="1.0585733795166016e+02" cType="1" res="-3.0690420418977737e-02" rms="2.3290298879146576e-01" purity="1.2218461185693741e-01" nType="0">
          <Node pos="l" depth="2" NCoef="0" IVar="-1" Cut="0.0000000000000000e+00" cType="1" res="1.4539759606122971e-02" rms="1.7319050431251526e-01" purity="3.9289932698011398e-02" nType="-99"/>
          <Node pos="r" depth="2" NCoef="0" IVar="-1" Cut="0.0000000000000000e+00" cType="1" res="-5.4306395351886749e-02" rms="2.5948667526245117e-01" purity="1.7082773149013519e-01" nType="-99"/>
        </Node>
        <Node pos="r" depth="1" NCoef="0" IVar="7" Cut="-3.9020085334777832e-01" cType="1" res="9.6924573881551623e-04" rms="3.0415108799934387e-01" purity="5.3050953149795532e-01" nType="0">
          <Node pos="l" depth="2" NCoef="0" IVar="8" Cut="9.7117316722869873e-01" cType="1" res="-1.1593312025070190e-02" rms="2.9331451654434204e-01" purity="4.3331265449523926e-01" nType="0">
            <Node pos="l" depth="3" NCoef="0" IVar="-1" Cut="0.0000000000000000e+00" cType="1" res="-3.8734993431717157e-03" rms="3.0212053656578064e-01" purity="4.9330013990402222e-01" nType="-99"/>
            <Node pos="r" depth="3" NCoef="0" IVar="-1" Cut="0.0000000000000000e+00" cType="1" res="-6.8854719400405884e-02" rms="2.4179865419864655e-01" purity="1.3784381747245789e-01" nType="-99"/>
          </Node>
          <Node pos="r" depth="2" NCoef="0" IVar="7" Cut="1.4326484203338623e+00" cType="1" res="6.7691500298678875e-03" rms="3.0885356664657593e-01" purity="5.7538360357284546e-01" nType="0">
            <Node pos="l" depth="3" NCoef="0" IVar="-1" Cut="0.0000000000000000e+00" cType="1" res="9.5597952604293823e-03" rms="3.1713172793388367e-01" purity="6.2123417854309082e-01" nType="-99"/>
            <Node pos="r" depth="3" NCoef="0" IVar="-1" Cut="0.0000000000000000e+00" cType="1" res="-3.6600522696971893e-02" rms="2.0609657466411591e-01" purity="1.1565676331520081e-01" nType="-99"/>
          </Node>
        </Node>
      </Node>
    </BinaryTree>
    <BinaryTree type="DecisionTree" boostWeight="1.0000000000000000e+00" itree="57">
      <Node pos="s" depth="0" NCoef="0" IVar="2" Cut="6.6449169921875000e+02" cType="1" res="7.4257189407944679e-04" rms="3.0331945419311523e-01" purity="5.0019925832748413e-01" nType="0">
        <Node pos="l" depth="1" NCoef="0" IVar="0" Cut="1.5819255371093750e+03" cType="1" res="2.9562760610133410e-03" rms="3.0210334062576294e-01" purity="4.9476340413093567e-01" nType="0">
          <Node pos="l" depth="2" NCoef="0" IVar="1" Cut="8.7612710893154144e-02" cType="1" res="-5.6484262458980083e-03" rms="3.2141754031181335e-01" purity="2.7031433582305908e-01" nType="0">
            <Node pos="l" depth="3" NCoef="0" IVar="-1" Cut="0.0000000000000000e+00" cType="1" res="5.0848308019340038e-03" rms="2.9761102795600891e-01" purity="1.7073574662208557e-01" nType="-99"/>
            <Node pos="r" depth="3" NCoef="0" IVar="-1" Cut="0.0000000000000000e+00" cType="1" res="-2.7755388990044594e-02" rms="3.8811609148979187e-01" purity="6.0015642642974854e-01" nType="-99"/>
          </Node>
          <Node pos="r" depth="2" NCoef="0" IVar="1" Cut="3.9028722792863846e-02" cType="1" res="1.6402678564190865e-02" rms="2.6860910654067993e-01" purity="8.4550565481185913e-01" nType="0">
            <Node pos="l" depth="3" NCoef="0" IVar="-1" Cut="0.0000000000000000e+00" cType="1" res="3.1506884843111038e-02" rms="3.6647936701774597e-01" purity="5.5989241600036621e-01" nType="-99"/>
            <Node pos="r" depth="3" NCoef="0" IVar="-1" Cut="0.0000000000000000e+00" cType="1" res="1.2787423096597195e-02" rms="2.3565444350242615e-01" purity="9.2039602994918823e-01" nType="-99"/>
          </Node>
        </Node>
        <Node pos="r" depth="1" NCoef="0" IVar="0" Cut="2.3174230957031250e+03" cType="1" res="-3.6598823964595795e-02" rms="3.2085075974464417e-01" purity="5.9189283847808838e-01" nType="0">
          <Node pos="l" depth="2" NCoef="0" IVar="-1" Cut="0.0000000000000000e+00" cType="1" res="-4.7684617340564728e-02" rms="3.4201231598854065e-01" purity="3.5483589768409729e-01" nType="-99"/>
          <Node pos="r" depth="2" NCoef="0" IVar="-1" Cut="0.0000000000000000e+00" cType="1" res="-1.0531560517847538e-02" rms="2.9804027080535889e-01" purity="8.0712491273880005e-01" nType="-99"/>
        </Node>
      </Node>
    </BinaryTree>
    <BinaryTree type="DecisionTree" boostWeight="1.0000000000000000e+00" itree="58">
      <Node pos="s" depth="0" NCoef="0" IVar="3" Cut="2.2513566589355469e+02" cType="1" res="1.5389153268188238e-03" rms="3.0328497290611267e-01" purity="4.9696096777915955e-01" nType="0">
        <Node pos="l" depth="1" NCoef="0" IVar="0" Cut="1.2765540771484375e+03" cType="1" res="9.8965708166360855e-03" rms="3.0186825990676880e-01" purity="3.4174275398254395e-01" nType="0">
          <Node pos="l" depth="2" NCoef="0" IVar="2" Cut="2.4213108825683594e+02" cType="1" res="-3.5154849756509066e-03" rms="2.7530384063720703e-01" purity="1.2806306779384613e-01" nType="0">
            <Node pos="l" depth="3" NCoef="0" IVar="-1" Cut="0.0000000000000000e+00" cType="1" res="1.8650162965059280e-02" rms="3.0775004625320435e-01" purity="1.7644567787647247e-01" nType="-99"/>
            <Node pos="r" depth="3" NCoef="0" IVar="-1" Cut="0.0000000000000000e+00" cType="1" res="-1.7855662852525711e-02" rms="2.5769734382629395e-01" purity="1.0479062050580978e-01" nType="-99"/>
          </Node>
          <Node pos="r" depth="2" NCoef="0" IVar="2" Cut="4.1688177490234375e+02" cType="1" res="2.8071934357285500e-02" rms="3.3365827798843384e-01" purity="6.3131105899810791e-01" nType="0">
            <Node pos="l" depth="3" NCoef="0" IVar="-1" Cut="0.0000000000000000e+00" cType="1" res="3.6397565156221390e-02" rms="3.2797202467918396e-01" purity="7.5466287136077881e-01" nType="-99"/>
            <Node pos="r" depth="3" NCoef="0" IVar="-1" Cut="0.0000000000000000e+00" cType="1" res="4.3170535936951637e-03" rms="3.4242963790893555e-01" purity="4.0960234403610229e-01" nType="-99"/>
          </Node>
        </Node>
        <Node pos="r" depth="1" NCoef="0" IVar="0" Cut="1.8327828369140625e+03" cType="1" res="-7.8747114166617393e-03" rms="3.0459830164909363e-01" purity="6.7179071903228760e-01" nType="0">
          <Node pos="l" depth="2" NCoef="0" IVar="2" Cut="4.1754879760742188e+02" cType="1" res="-2.3109018802642822e-02" rms="3.4945550560951233e-01" purity="4.7412905097007751e-01" nType="0">
            <Node pos="l" depth="3" NCoef="0" IVar="-1" Cut="0.0000000000000000e+00" cType="1" res="-8.9179184287786484e-03" rms="3.4374582767486572e-01" purity="5.4268550872802734e-01" nType="-99"/>
            <Node pos="r" depth="3" NCoef="0" IVar="-1" Cut="0.0000000000000000e+00" cType="1" res="-4.0163908153772354e-02" rms="3.6035820841789246e-01" purity="3.2027253508567810e-01" nType="-99"/>
          </Node>
          <Node pos="r" depth="2" NCoef="0" IVar="9" Cut="9.3324589729309082e-01" cType="1" res="8.0451900139451027e-03" rms="2.4824336171150208e-01" purity="8.7834787368774414e-01" nType="0">
            <Node pos="l" depth="3" NCoef="0" IVar="-1" Cut="0.0000000000000000e+00" cType="1" res="1.6577867791056633e-02" rms="2.3980289697647095e-01" purity="8.9309561252593994e-01" nType="-99"/>
            <Node pos="r" depth="3" NCoef="0" IVar="-1" Cut="0.0000000000000000e+00" cType="1" res="-2.0271547138690948e-02" rms="3.0654788017272949e-01" purity="7.5937253236770630e-01" nType="-99"/>
          </Node>
        </Node>
      </Node>
    </BinaryTree>
    <BinaryTree type="DecisionTree" boostWeight="1.0000000000000000e+00" itree="59">
      <Node pos="s" depth="0" NCoef="0" IVar="3" Cut="2.3528346252441406e+02" cType="1" res="-2.1984733175486326e-03" rms="2.9991170763969421e-01" purity="4.9755159020423889e-01" nType="0">
        <Node pos="l" depth="1" NCoef="0" IVar="0" Cut="1.3081499023437500e+03" cType="1" res="4.5432136394083500e-03" rms="2.9931038618087769e-01" purity="3.5116982460021973e-01" nType="0">
          <Node pos="l" depth="2" NCoef="0" IVar="2" Cut="2.8945553588867188e+02" cType="1" res="-5.2130445837974548e-03" rms="2.8174954652786255e-01" purity="1.4321953058242798e-01" nType="0">
            <Node pos="l" depth="3" NCoef="0" IVar="-1" Cut="0.0000000000000000e+00" cType="1" res="5.9762913733720779e-03" rms="3.0491891503334045e-01" purity="1.8577390909194946e-01" nType="-99"/>
            <Node pos="r" depth="3" NCoef="0" IVar="-1" Cut="0.0000000000000000e+00" cType="1" res="-3.0471948906779289e-02" rms="2.4326631426811218e-01" purity="8.1277161836624146e-02" nType="-99"/>
          </Node>
          <Node pos="r" depth="2" NCoef="0" IVar="4" Cut="1.1324293518066406e+02" cType="1" res="1.8719639629125595e-02" rms="3.2260552048683167e-01" purity="6.5333402156829834e-01" nType="0">
            <Node pos="l" depth="3" NCoef="0" IVar="-1" Cut="0.0000000000000000e+00" cType="1" res="5.4240699857473373e-02" rms="3.6864951252937317e-01" purity="3.1216007471084595e-01" nType="-99"/>
            <Node pos="r" depth="3" NCoef="0" IVar="-1" Cut="0.0000000000000000e+00" cType="1" res="1.0272418148815632e-02" rms="3.1367686390876770e-01" purity="7.0985907316207886e-01" nType="-99"/>
          </Node>
        </Node>
        <Node pos="r" depth="1" NCoef="0" IVar="0" Cut="2.1497841796875000e+03" cType="1" res="-1.0974845848977566e-02" rms="3.0046617984771729e-01" purity="6.8811231851577759e-01" nType="0">
          <Node pos="l" depth="2" NCoef="0" IVar="0" Cut="1.4371638183593750e+03" cType="1" res="-2.0084960386157036e-02" rms="3.2764291763305664e-01" purity="5.9674733877182007e-01" nType="0">
            <Node pos="l" depth="3" NCoef="0" IVar="-1" Cut="0.0000000000000000e+00" cType="1" res="-4.0941130369901657e-02" rms="3.4554830193519592e-01" purity="2.0718470215797424e-01" nType="-99"/>
            <Node pos="r" depth="3" NCoef="0" IVar="-1" Cut="0.0000000000000000e+00" cType="1" res="-1.2397866696119308e-02" rms="3.2268816232681274e-01" purity="6.9231534004211426e-01" nType="-99"/>
          </Node>
          <Node pos="r" depth="2" NCoef="0" IVar="11" Cut="-1.6191241741180420e+00" cType="1" res="1.1738387867808342e-02" rms="2.1679140627384186e-01" purity="9.1590243577957153e-01" nType="0">
            <Node pos="l" depth="3" NCoef="0" IVar="-1" Cut="0.0000000000000000e+00" cType="1" res="-1.1798437684774399e-02" rms="3.2917237281799316e-01" purity="7.5703960657119751e-01" nType="-99"/>
            <Node pos="r" depth="3" NCoef="0" IVar="-1" Cut="0.0000000000000000e+00" cType="1" res="3.9448875933885574e-02" rms="1.7364443838596344e-01" purity="9.5892447233200073e-01" nType="-99"/>
          </Node>
        </Node>
      </Node>
    </BinaryTree>
    <BinaryTree type="DecisionTree" boostWeight="1.0000000000000000e+00" itree="60">
      <Node pos="s" depth="0" NCoef="0" IVar="7" Cut="-1.4402630329132080e+00" cType="1" res="3.6854911595582962e-03" rms="3.0078899860382080e-01" purity="5.0990074872970581e-01" nType="0">
        <Node pos="l" depth="1" NCoef="0" IVar="4" Cut="1.1630088043212891e+02" cType="1" res="-2.3396421223878860e-02" rms="2.1057814359664917e-01" purity="1.0366158187389374e-01" nType="0">
          <Node pos="l" depth="2" NCoef="0" IVar="-1" Cut="0.0000000000000000e+00" cType="1" res="9.1185672208666801e-03" rms="1.5912182629108429e-01" purity="2.9215672984719276e-02" nType="-99"/>
          <Node pos="r" depth="2" NCoef="0" IVar="-1" Cut="0.0000000000000000e+00" cType="1" res="-4.8568535596132278e-02" rms="2.4095848202705383e-01" purity="1.6080573201179504e-01" nType="-99"/>
        </Node>
        <Node pos="r" depth="1" NCoef="0" IVar="1" Cut="6.2601268291473389e-02" cType="1" res="5.4542864672839642e-03" rms="3.0567291378974915e-01" purity="5.3643333911895752e-01" nType="0">
          <Node pos="l" depth="2" NCoef="0" IVar="8" Cut="1.7332875728607178e+00" cType="1" res="1.2672859244048595e-02" rms="3.1272950768470764e-01" purity="3.1564673781394958e-01" nType="0">
            <Node pos="l" depth="3" NCoef="0" IVar="-1" Cut="0.0000000000000000e+00" cType="1" res="1.5411913394927979e-02" rms="3.1976404786109924e-01" purity="3.3715856075286865e-01" nType="-99"/>
            <Node pos="r" depth="3" NCoef="0" IVar="-1" Cut="0.0000000000000000e+00" cType="1" res="-4.1811831295490265e-02" rms="2.1748164296150208e-01" purity="7.8607819974422455e-02" nType="-99"/>
          </Node>
          <Node pos="r" depth="2" NCoef="0" IVar="1" Cut="1.6990584135055542e-01" cType="1" res="-2.1033131051808596e-03" rms="2.9791858792304993e-01" purity="7.6758944988250732e-01" nType="0">
            <Node pos="l" depth="3" NCoef="0" IVar="-1" Cut="0.0000000000000000e+00" cType="1" res="-7.2987037710845470e-03" rms="3.1384843587875366e-01" purity="7.2421395778656006e-01" nType="-99"/>
            <Node pos="r" depth="3" NCoef="0" IVar="-1" Cut="0.0000000000000000e+00" cType="1" res="2.1601729094982147e-02" rms="2.4111779034137726e-01" purity="9.0228009223937988e-01" nType="-99"/>
          </Node>
        </Node>
      </Node>
    </BinaryTree>
    <BinaryTree type="DecisionTree" boostWeight="1.0000000000000000e+00" itree="61">
      <Node pos="s" depth="0" NCoef="0" IVar="11" Cut="1.6950782537460327e+00" cType="1" res="1.0403121996205300e-04" rms="2.9513689875602722e-01" purity="5.0522083044052124e-01" nType="0">
        <Node pos="l" depth="1" NCoef="0" IVar="9" Cut="-1.7333227396011353e+00" cType="1" res="1.6639686655253172e-03" rms="2.9343894124031067e-01" purity="5.0172573328018188e-01" nType="0">
          <Node pos="l" depth="2" NCoef="0" IVar="3" Cut="1.8614976501464844e+02" cType="1" res="-2.7535520493984222e-02" rms="2.5064253807067871e-01" purity="1.5166325867176056e-01" nType="0">
            <Node pos="l" depth="3" NCoef="0" IVar="-1" Cut="0.0000000000000000e+00" cType="1" res="-2.9659824445843697e-02" rms="2.1365574002265930e-01" purity="7.3998488485813141e-02" nType="-99"/>
            <Node pos="r" depth="3" NCoef="0" IVar="-1" Cut="0.0000000000000000e+00" cType="1" res="-3.8332704454660416e-02" rms="2.8611686825752258e-01" purity="2.3956131935119629e-01" nType="-99"/>
          </Node>
          <Node pos="r" depth="2" NCoef="0" IVar="7" Cut="1.4800765514373779e+00" cType="1" res="3.4215219784528017e-03" rms="2.9572543501853943e-01" purity="5.2279639244079590e-01" nType="0">
            <Node pos="l" depth="3" NCoef="0" IVar="-1" Cut="0.0000000000000000e+00" cType="1" res="5.3013050928711891e-03" rms="3.0104309320449829e-01" purity="5.4921382665634155e-01" nType="-99"/>
            <Node pos="r" depth="3" NCoef="0" IVar="-1" Cut="0.0000000000000000e+00" cType="1" res="-4.4201385229825974e-02" rms="1.8739555776119232e-01" purity="9.3497157096862793e-02" nType="-99"/>
          </Node>
        </Node>
        <Node pos="r" depth="1" NCoef="0" IVar="-1" Cut="0.0000000000000000e+00" cType="1" res="-3.7509817630052567e-02" rms="3.3421322703361511e-01" purity="5.9736937284469604e-01" nType="-99"/>
      </Node>
    </BinaryTree>
    <BinaryTree type="DecisionTree" boostWeight="1.0000000000000000e+00" itree="62">
      <Node pos="s" depth="0" NCoef="0" IVar="2" Cut="6.0742248535156250e+02" cType="1" res="4.0396540425717831e-03" rms="2.9983323812484741e-01" purity="5.0644284486770630e-01" nType="0">
        <Node pos="l" depth="1" NCoef="0" IVar="2" Cut="2.3880541992187500e+02" cType="1" res="6.7117707803845406e-03" rms="2.9752573370933533e-01" purity="5.0021934509277344e-01" nType="0">
          <Node pos="l" depth="2" NCoef="0" IVar="0" Cut="1.0161969604492188e+03" cType="1" res="2.9510334134101868e-02" rms="3.0194476246833801e-01" purity="3.7226346135139465e-01" nType="0">
            <Node pos="l" depth="3" NCoef="0" IVar="-1" Cut="0.0000000000000000e+00" cType="1" res="-4.4479977339506149e-02" rms="1.6749842464923859e-01" purity="3.0591582879424095e-02" nType="-99"/>
            <Node pos="r" depth="3" NCoef="0" IVar="-1" Cut="0.0000000000000000e+00" cType="1" res="4.5450210571289062e-02" rms="3.4588187932968140e-01" purity="5.3583997488021851e-01" nType="-99"/>
          </Node>
          <Node pos="r" depth="2" NCoef="0" IVar="0" Cut="1.4264228515625000e+03" cType="1" res="2.9841007199138403e-03" rms="2.9663032293319702e-01" purity="5.2114075422286987e-01" nType="0">
            <Node pos="l" depth="3" NCoef="0" IVar="-1" Cut="0.0000000000000000e+00" cType="1" res="-8.8584739714860916e-03" rms="2.9884803295135498e-01" purity="1.8796660006046295e-01" nType="-99"/>
            <Node pos="r" depth="3" NCoef="0" IVar="-1" Cut="0.0000000000000000e+00" cType="1" res="1.2833086773753166e-02" rms="2.9456970095634460e-01" purity="7.8416681289672852e-01" nType="-99"/>
          </Node>
        </Node>
        <Node pos="r" depth="1" NCoef="0" IVar="0" Cut="2.0722355957031250e+03" cType="1" res="-2.5274300947785378e-02" rms="3.2262045145034790e-01" purity="5.7471662759780884e-01" nType="0">
          <Node pos="l" depth="2" NCoef="0" IVar="-1" Cut="0.0000000000000000e+00" cType="1" res="-5.1450658589601517e-02" rms="3.3749267458915710e-01" purity="2.1259394288063049e-01" nType="-99"/>
          <Node pos="r" depth="2" NCoef="0" IVar="2" Cut="7.2384948730468750e+02" cType="1" res="-2.4504687171429396e-03" rms="3.1127417087554932e-01" purity="7.8820633888244629e-01" nType="0">
            <Node pos="l" depth="3" NCoef="0" IVar="-1" Cut="0.0000000000000000e+00" cType="1" res="2.8548477217555046e-02" rms="2.7031439542770386e-01" purity="8.8057678937911987e-01" nType="-99"/>
            <Node pos="r" depth="3" NCoef="0" IVar="-1" Cut="0.0000000000000000e+00" cType="1" res="-2.2417042404413223e-02" rms="3.4429657459259033e-01" purity="6.9879031181335449e-01" nType="-99"/>
          </Node>
        </Node>
      </Node>
    </BinaryTree>
    <BinaryTree type="DecisionTree" boostWeight="1.0000000000000000e+00" itree="63">
      <Node pos="s" depth="0" NCoef="0" IVar="1" Cut="4.1732858866453171e-02" cType="1" res="-3.7504217470996082e-04" rms="3.0292010307312012e-01" purity="5.0271892547607422e-01" nType="0">
        <Node pos="l" depth="1" NCoef="0" IVar="8" Cut="-9.3282508850097656e-01" cType="1" res="7.8526362776756287e-03" rms="2.8511220216751099e-01" purity="2.1538285911083221e-01" nType="0">
          <Node pos="l" depth="2" NCoef="0" IVar="4" Cut="1.5900628662109375e+02" cType="1" res="-1.1323822662234306e-02" rms="2.3865881562232971e-01" purity="1.0272426903247833e-01" nType="0">
            <Node pos="l" depth="3" NCoef="0" IVar="-1" Cut="0.0000000000000000e+00" cType="1" res="5.7788048870861530e-03" rms="2.1749237179756165e-01" purity="6.9615446031093597e-02" nType="-99"/>
            <Node pos="r" depth="3" NCoef="0" IVar="-1" Cut="0.0000000000000000e+00" cType="1" res="-4.6835735440254211e-02" rms="2.9196426272392273e-01" purity="2.0905691385269165e-01" nType="-99"/>
          </Node>
          <Node pos="r" depth="2" NCoef="0" IVar="10" Cut="-1.4667280912399292e+00" cType="1" res="1.4483160339295864e-02" rms="2.9921665787696838e-01" purity="2.5433611869812012e-01" nType="0">
            <Node pos="l" depth="3" NCoef="0" IVar="-1" Cut="0.0000000000000000e+00" cType="1" res="-3.0277268961071968e-02" rms="2.4077492952346802e-01" purity="1.1719338595867157e-01" nType="-99"/>
            <Node pos="r" depth="3" NCoef="0" IVar="-1" Cut="0.0000000000000000e+00" cType="1" res="2.0154302939772606e-02" rms="3.0607584118843079e-01" purity="2.7327054738998413e-01" nType="-99"/>
          </Node>
        </Node>
        <Node pos="r" depth="1" NCoef="0" IVar="1" Cut="1.7387682199478149e-01" cType="1" res="-6.0527571476995945e-03" rms="3.1449615955352783e-01" purity="7.0100241899490356e-01" nType="0">
          <Node pos="l" depth="2" NCoef="0" IVar="0" Cut="1.6850754394531250e+03" cType="1" res="-1.0518795810639858e-02" rms="3.2748046517372131e-01" purity="6.5786945819854736e-01" nType="0">
            <Node pos="l" depth="3" NCoef="0" IVar="-1" Cut="0.0000000000000000e+00" cType="1" res="-1.3354743830859661e-02" rms="3.7768024206161499e-01" purity="4.6263480186462402e-01" nType="-99"/>
            <Node pos="r" depth="3" NCoef="0" IVar="-1" Cut="0.0000000000000000e+00" cType="1" res="-3.2482022652402520e-04" rms="2.4574558436870575e-01" purity="9.1524243354797363e-01" nType="-99"/>
          </Node>
          <Node pos="r" depth="2" NCoef="0" IVar="-1" Cut="0.0000000000000000e+00" cType="1" res="2.1631857380270958e-02" rms="2.4501541256904602e-01" purity="8.9950287342071533e-01" nType="-99"/>
        </Node>
      </Node>
    </BinaryTree>
    <BinaryTree type="DecisionTree" boostWeight="1.0000000000000000e+00" itree="64">
      <Node pos="s" depth="0" NCoef="0" IVar="8" Cut="-9.3322581052780151e-01" cType="1" res="-1.5197015600278974e-03" rms="2.9952302575111389e-01" purity="4.9922248721122742e-01" nType="0">
        <Node pos="l" depth="1" NCoef="0" IVar="1" Cut="5.2337419241666794e-02" cType="1" res="-1.9176388159394264e-02" rms="2.7737823128700256e-01" purity="2.6728376746177673e-01" nType="0">
          <Node pos="l" depth="2" NCoef="0" IVar="8" Cut="-1.9109758138656616e+00" cType="1" res="-1.1126420460641384e-02" rms="2.4519094824790955e-01" purity="1.2746416032314301e-01" nType="0">
            <Node pos="l" depth="3" NCoef="0" IVar="-1" Cut="0.0000000000000000e+00" cType="1" res="-7.1849822998046875e-02" rms="1.5634608268737793e-01" purity="4.8534858971834183e-02" nType="-99"/>
            <Node pos="r" depth="3" NCoef="0" IVar="-1" Cut="0.0000000000000000e+00" cType="1" res="-6.4201769419014454e-04" rms="2.7181193232536316e-01" purity="1.5879288315773010e-01" nType="-99"/>
          </Node>
          <Node pos="r" depth="2" NCoef="0" IVar="-1" Cut="0.0000000000000000e+00" cType="1" res="-3.1582191586494446e-02" rms="3.3648762106895447e-01" purity="5.7265633344650269e-01" nType="-99"/>
        </Node>
        <Node pos="r" depth="1" NCoef="0" IVar="2" Cut="4.7163348388671875e+02" cType="1" res="2.1461308933794498e-03" rms="3.0378982424736023e-01" purity="5.4737699031829834e-01" nType="0">
          <Node pos="l" depth="2" NCoef="0" IVar="5" Cut="7.9430953979492188e+01" cType="1" res="6.6616591066122055e-03" rms="3.0326604843139648e-01" purity="5.2361625432968140e-01" nType="0">
            <Node pos="l" depth="3" NCoef="0" IVar="-1" Cut="0.0000000000000000e+00" cType="1" res="1.5171706676483154e-02" rms="3.1867974996566772e-01" purity="2.5854223966598511e-01" nType="-99"/>
            <Node pos="r" depth="3" NCoef="0" IVar="-1" Cut="0.0000000000000000e+00" cType="1" res="-2.3582712747156620e-03" rms="2.8674256801605225e-01" purity="7.8899723291397095e-01" nType="-99"/>
          </Node>
          <Node pos="r" depth="2" NCoef="0" IVar="0" Cut="2.1765541992187500e+03" cType="1" res="-1.1957042850553989e-02" rms="3.0498981475830078e-01" purity="6.2158799171447754e-01" nType="0">
            <Node pos="l" depth="3" NCoef="0" IVar="-1" Cut="0.0000000000000000e+00" cType="1" res="-2.1424658596515656e-02" rms="3.3753108978271484e-01" purity="4.5493456721305847e-01" nType="-99"/>
            <Node pos="r" depth="3" NCoef="0" IVar="-1" Cut="0.0000000000000000e+00" cType="1" res="1.1104229837656021e-02" rms="2.4168835580348969e-01" purity="8.9212453365325928e-01" nType="-99"/>
          </Node>
        </Node>
      </Node>
    </BinaryTree>
    <BinaryTree type="DecisionTree" boostWeight="1.0000000000000000e+00" itree="65">
      <Node pos="s" depth="0" NCoef="0" IVar="0" Cut="1.5985230712890625e+03" cType="1" res="-3.0705726239830256e-03" rms="2.9739347100257874e-01" purity="4.9722898006439209e-01" nType="0">
        <Node pos="l" depth="1" NCoef="0" IVar="0" Cut="1.4844652099609375e+03" cType="1" res="-8.8240895420312881e-03" rms="3.1147500872612000e-01" purity="2.7596130967140198e-01" nType="0">
          <Node pos="l" depth="2" NCoef="0" IVar="4" Cut="1.6009753417968750e+02" cType="1" res="-1.4165124855935574e-02" rms="3.0181685090065002e-01" purity="2.2187002003192902e-01" nType="0">
            <Node pos="l" depth="3" NCoef="0" IVar="-1" Cut="0.0000000000000000e+00" cType="1" res="-6.9013712927699089e-03" rms="2.8693410754203796e-01" purity="1.8630944192409515e-01" nType="-99"/>
            <Node pos="r" depth="3" NCoef="0" IVar="-1" Cut="0.0000000000000000e+00" cType="1" res="-3.6509219557046890e-02" rms="3.5826197266578674e-01" purity="3.7958869338035583e-01" nType="-99"/>
          </Node>
          <Node pos="r" depth="2" NCoef="0" IVar="6" Cut="5.8376354217529297e+01" cType="1" res="2.2311519831418991e-02" rms="3.6112424731254578e-01" purity="5.9128689765930176e-01" nType="0">
            <Node pos="l" depth="3" NCoef="0" IVar="-1" Cut="0.0000000000000000e+00" cType="1" res="3.7468675523996353e-02" rms="3.8823661208152771e-01" purity="4.2270490527153015e-01" nType="-99"/>
            <Node pos="r" depth="3" NCoef="0" IVar="-1" Cut="0.0000000000000000e+00" cType="1" res="-1.1673974804580212e-02" rms="3.2589003443717957e-01" purity="7.7301758527755737e-01" nType="-99"/>
          </Node>
        </Node>
        <Node pos="r" depth="1" NCoef="0" IVar="5" Cut="7.0200653076171875e+01" cType="1" res="5.3584976121783257e-03" rms="2.7524980902671814e-01" purity="8.2139253616333008e-01" nType="0">
          <Node pos="l" depth="2" NCoef="0" IVar="2" Cut="5.3547930908203125e+02" cType="1" res="3.4210991114377975e-02" rms="3.7961006164550781e-01" purity="5.2428901195526123e-01" nType="0">
            <Node pos="l" depth="3" NCoef="0" IVar="-1" Cut="0.0000000000000000e+00" cType="1" res="4.1658822447061539e-02" rms="3.7855875492095947e-01" purity="6.7059350013732910e-01" nType="-99"/>
            <Node pos="r" depth="3" NCoef="0" IVar="-1" Cut="0.0000000000000000e+00" cType="1" res="5.5409702472388744e-03" rms="3.7851241230964661e-01" purity="4.0274703502655029e-01" nType="-99"/>
          </Node>
          <Node pos="r" depth="2" NCoef="0" IVar="3" Cut="3.2121765136718750e+02" cType="1" res="2.8132283478043973e-04" rms="2.5211933255195618e-01" purity="8.7367391586303711e-01" nType="0">
            <Node pos="l" depth="3" NCoef="0" IVar="-1" Cut="0.0000000000000000e+00" cType="1" res="1.2969055213034153e-02" rms="2.4669434130191803e-01" purity="8.8234716653823853e-01" nType="-99"/>
            <Node pos="r" depth="3" NCoef="0" IVar="-1" Cut="0.0000000000000000e+00" cType="1" res="-1.9913693889975548e-02" rms="2.5978830456733704e-01" purity="8.6005389690399170e-01" nType="-99"/>
          </Node>
        </Node>
      </Node>
    </BinaryTree>
    <BinaryTree type="DecisionTree" boostWeight="1.0000000000000000e+00" itree="66">
      <Node pos="s" depth="0" NCoef="0" IVar="11" Cut="1.4188971519470215e+00" cType="1" res="-1.3440735638141632e-03" rms="3.0119991302490234e-01" purity="4.9491840600967407e-01" nType="0">
        <Node pos="l" depth="1" NCoef="0" IVar="2" Cut="3.2173297119140625e+02" cType="1" res="4.3771322816610336e-04" rms="2.9933741688728333e-01" purity="4.8647284507751465e-01" nType="0">
          <Node pos="l" depth="2" NCoef="0" IVar="4" Cut="1.5104962158203125e+02" cType="1" res="8.6274268105626106e-03" rms="3.0204528570175171e-01" purity="4.0796169638633728e-01" nType="0">
            <Node pos="l" depth="3" NCoef="0" IVar="-1" Cut="0.0000000000000000e+00" cType="1" res="1.9519122317433357e-02" rms="2.9969239234924316e-01" purity="2.4015711247920990e-01" nType="-99"/>
            <Node pos="r" depth="3" NCoef="0" IVar="-1" Cut="0.0000000000000000e+00" cType="1" res="-3.6030439659953117e-03" rms="3.0534738302230835e-01" purity="6.7464530467987061e-01" nType="-99"/>
          </Node>
          <Node pos="r" depth="2" NCoef="0" IVar="0" Cut="2.0080064697265625e+03" cType="1" res="-5.4398174397647381e-03" rms="2.9723981022834778e-01" purity="5.4281818866729736e-01" nType="0">
            <Node pos="l" depth="3" NCoef="0" IVar="-1" Cut="0.0000000000000000e+00" cType="1" res="-1.0374493896961212e-02" rms="3.1902486085891724e-01" purity="4.0031379461288452e-01" nType="-99"/>
            <Node pos="r" depth="3" NCoef="0" IVar="-1" Cut="0.0000000000000000e+00" cType="1" res="1.1632765643298626e-02" rms="2.3442704975605011e-01" purity="8.9471155405044556e-01" nType="-99"/>
          </Node>
        </Node>
        <Node pos="r" depth="1" NCoef="0" IVar="3" Cut="2.4130274963378906e+02" cType="1" res="-2.9904639348387718e-02" rms="3.2830399274826050e-01" purity="6.3029348850250244e-01" nType="0">
          <Node pos="l" depth="2" NCoef="0" IVar="-1" Cut="0.0000000000000000e+00" cType="1" res="-2.0420454442501068e-02" rms="3.3777981996536255e-01" purity="5.3228741884231567e-01" nType="-99"/>
          <Node pos="r" depth="2" NCoef="0" IVar="-1" Cut="0.0000000000000000e+00" cType="1" res="-4.3323647230863571e-02" rms="3.1523466110229492e-01" purity="7.5885123014450073e-01" nType="-99"/>
        </Node>
      </Node>
    </BinaryTree>
    <BinaryTree type="DecisionTree" boostWeight="1.0000000000000000e+00" itree="67">
      <Node pos="s" depth="0" NCoef="0" IVar="2" Cut="4.7161791992187500e+02" cType="1" res="-3.5845060483552516e-04" rms="2.9711979627609253e-01" purity="4.9970793724060059e-01" nType="0">
        <Node pos="l" depth="1" NCoef="0" IVar="0" Cut="1.1740607910156250e+03" cType="1" res="4.3649203144013882e-03" rms="2.9347580671310425e-01" purity="4.7536402940750122e-01" nType="0">
          <Node pos="l" depth="2" NCoef="0" IVar="11" Cut="-2.1726269721984863e+00" cType="1" res="-1.2212899513542652e-02" rms="2.3296320438385010e-01" purity="7.3101833462715149e-02" nType="0">
            <Node pos="l" depth="3" NCoef="0" IVar="-1" Cut="0.0000000000000000e+00" cType="1" res="-1.6362467780709267e-02" rms="2.1394264698028564e-01" purity="5.4696045815944672e-02" nType="-99"/>
            <Node pos="r" depth="3" NCoef="0" IVar="-1" Cut="0.0000000000000000e+00" cType="1" res="-2.6653997600078583e-02" rms="3.1753721833229065e-01" purity="1.7494666576385498e-01" nType="-99"/>
          </Node>
          <Node pos="r" depth="2" NCoef="0" IVar="3" Cut="1.9765965270996094e+02" cType="1" res="1.1641738936305046e-02" rms="3.1612923741340637e-01" purity="6.5193670988082886e-01" nType="0">
            <Node pos="l" depth="3" NCoef="0" IVar="-1" Cut="0.0000000000000000e+00" cType="1" res="3.2967731356620789e-02" rms="3.4547218680381775e-01" purity="5.5731844902038574e-01" nType="-99"/>
            <Node pos="r" depth="3" NCoef="0" IVar="-1" Cut="0.0000000000000000e+00" cType="1" res="1.2424421729519963e-03" rms="3.0367779731750488e-01" purity="6.8761229515075684e-01" nType="-99"/>
          </Node>
        </Node>
        <Node pos="r" depth="1" NCoef="0" IVar="0" Cut="1.6095677490234375e+03" cType="1" res="-1.5806749463081360e-02" rms="3.0823260545730591e-01" purity="5.7932728528976440e-01" nType="0">
          <Node pos="l" depth="2" NCoef="0" IVar="3" Cut="1.9024076843261719e+02" cType="1" res="-3.9506234228610992e-02" rms="2.7337953448295593e-01" purity="1.0338094830513000e-01" nType="0">
            <Node pos="l" depth="3" NCoef="0" IVar="-1" Cut="0.0000000000000000e+00" cType="1" res="-3.2696943730115891e-02" rms="2.6629784703254700e-01" purity="9.4351291656494141e-02" nType="-99"/>
            <Node pos="r" depth="3" NCoef="0" IVar="-1" Cut="0.0000000000000000e+00" cType="1" res="-5.2306808531284332e-02" rms="2.7982160449028015e-01" purity="1.1258964240550995e-01" nType="-99"/>
          </Node>
          <Node pos="r" depth="2" NCoef="0" IVar="4" Cut="1.4117092895507812e+02" cType="1" res="-9.1202137991786003e-03" rms="3.1705421209335327e-01" purity="7.1361011266708374e-01" nType="0">
            <Node pos="l" depth="3" NCoef="0" IVar="-1" Cut="0.0000000000000000e+00" cType="1" res="2.2027567028999329e-02" rms="3.7133112549781799e-01" purity="4.2199671268463135e-01" nType="-99"/>
            <Node pos="r" depth="3" NCoef="0" IVar="-1" Cut="0.0000000000000000e+00" cType="1" res="-1.7336562275886536e-02" rms="3.0489233136177063e-01" purity="7.6992404460906982e-01" nType="-99"/>
          </Node>
        </Node>
      </Node>
    </BinaryTree>
    <BinaryTree type="DecisionTree" boostWeight="1.0000000000000000e+00" itree="68">
      <Node pos="s" depth="0" NCoef="0" IVar="3" Cut="2.9127670288085938e+02" cType="1" res="-2.1235160529613495e-03" rms="2.9818084836006165e-01" purity="4.9883192777633667e-01" nType="0">
        <Node pos="l" depth="1" NCoef="0" IVar="0" Cut="1.3945023193359375e+03" cType="1" res="1.7197013366967440e-03" rms="2.9933044314384460e-01" purity="4.2584702372550964e-01" nType="0">
          <Node pos="l" depth="2" NCoef="0" IVar="4" Cut="1.3909158325195312e+02" cType="1" res="-4.8509170301258564e-03" rms="2.9654845595359802e-01" purity="1.8319207429885864e-01" nType="0">
            <Node pos="l" depth="3" NCoef="0" IVar="-1" Cut="0.0000000000000000e+00" cType="1" res="3.0882211867719889e-03" rms="2.7075219154357910e-01" purity="1.3304039835929871e-01" nType="-99"/>
            <Node pos="r" depth="3" NCoef="0" IVar="-1" Cut="0.0000000000000000e+00" cType="1" res="-1.8009571358561516e-02" rms="3.5666680335998535e-01" purity="3.1953537464141846e-01" nType="-99"/>
          </Node>
          <Node pos="r" depth="2" NCoef="0" IVar="11" Cut="-2.4476764202117920e+00" cType="1" res="1.0158462449908257e-02" rms="3.0265676975250244e-01" purity="7.3749297857284546e-01" nType="0">
            <Node pos="l" depth="3" NCoef="0" IVar="-1" Cut="0.0000000000000000e+00" cType="1" res="2.1116130053997040e-02" rms="3.7407708168029785e-01" purity="4.3910628557205200e-01" nType="-99"/>
            <Node pos="r" depth="3" NCoef="0" IVar="-1" Cut="0.0000000000000000e+00" cType="1" res="3.4020654857158661e-03" rms="2.7206507325172424e-01" purity="8.4475350379943848e-01" nType="-99"/>
          </Node>
        </Node>
        <Node pos="r" depth="1" NCoef="0" IVar="0" Cut="1.9417296142578125e+03" cType="1" res="-1.4057261869311333e-02" rms="2.9426279664039612e-01" purity="7.2546058893203735e-01" nType="0">
          <Node pos="l" depth="2" NCoef="0" IVar="5" Cut="9.3920188903808594e+01" cType="1" res="-3.7317838519811630e-02" rms="3.4986704587936401e-01" purity="4.8700210452079773e-01" nType="0">
            <Node pos="l" depth="3" NCoef="0" IVar="-1" Cut="0.0000000000000000e+00" cType="1" res="-1.4485126361250877e-02" rms="3.5540345311164856e-01" purity="3.8697952032089233e-01" nType="-99"/>
            <Node pos="r" depth="3" NCoef="0" IVar="-1" Cut="0.0000000000000000e+00" cType="1" res="-7.2412796318531036e-02" rms="3.3480644226074219e-01" purity="6.9610345363616943e-01" nType="-99"/>
          </Node>
          <Node pos="r" depth="2" NCoef="0" IVar="2" Cut="6.4494183349609375e+02" cType="1" res="1.5089047374203801e-03" rms="2.4903337657451630e-01" purity="8.8503891229629517e-01" nType="0">
            <Node pos="l" depth="3" NCoef="0" IVar="-1" Cut="0.0000000000000000e+00" cType="1" res="1.7250170931220055e-02" rms="2.1302637457847595e-01" purity="9.3460440635681152e-01" nType="-99"/>
            <Node pos="r" depth="3" NCoef="0" IVar="-1" Cut="0.0000000000000000e+00" cType="1" res="-2.0933791995048523e-02" rms="3.3810099959373474e-01" purity="7.2677177190780640e-01" nType="-99"/>
          </Node>
        </Node>
      </Node>
    </BinaryTree>
    <BinaryTree type="DecisionTree" boostWeight="1.0000000000000000e+00" itree="69">
      <Node pos="s" depth="0" NCoef="0" IVar="9" Cut="1.9999576807022095e+00" cType="1" res="3.5281570162624121e-03" rms="3.0172714591026306e-01" purity="5.0262135267257690e-01" nType="0">
        <Node pos="l" depth="1" NCoef="0" IVar="4" Cut="1.4568482971191406e+02" cType="1" res="4.9933139234781265e-03" rms="3.0358436703681946e-01" purity="5.1671373844146729e-01" nType="0">
          <Node pos="l" depth="2" NCoef="0" IVar="0" Cut="1.3080876464843750e+03" cType="1" res="1.3607253320515156e-02" rms="3.0998039245605469e-01" purity="2.4704927206039429e-01" nType="0">
            <Node pos="l" depth="3" NCoef="0" IVar="-1" Cut="0.0000000000000000e+00" cType="1" res="3.9451788179576397e-03" rms="2.7893066406250000e-01" purity="1.2792977690696716e-01" nType="-99"/>
            <Node pos="r" depth="3" NCoef="0" IVar="-1" Cut="0.0000000000000000e+00" cType="1" res="2.8054526075720787e-02" rms="3.6259692907333374e-01" purity="4.8192158341407776e-01" nType="-99"/>
          </Node>
          <Node pos="r" depth="2" NCoef="0" IVar="0" Cut="1.5125727539062500e+03" cType="1" res="-1.7698124283924699e-03" rms="2.9829227924346924e-01" purity="7.2843736410140991e-01" nType="0">
            <Node pos="l" depth="3" NCoef="0" IVar="-1" Cut="0.0000000000000000e+00" cType="1" res="-1.8004842102527618e-02" rms="3.6824774742126465e-01" purity="4.1842374205589294e-01" nType="-99"/>
            <Node pos="r" depth="3" NCoef="0" IVar="-1" Cut="0.0000000000000000e+00" cType="1" res="8.2835247740149498e-03" rms="2.6743358373641968e-01" purity="8.4272390604019165e-01" nType="-99"/>
          </Node>
        </Node>
        <Node pos="r" depth="1" NCoef="0" IVar="-1" Cut="0.0000000000000000e+00" cType="1" res="-5.2892409265041351e-02" rms="2.4147449433803558e-01" purity="1.1359112709760666e-01" nType="-99"/>
      </Node>
    </BinaryTree>
    <BinaryTree type="DecisionTree" boostWeight="1.0000000000000000e+00" itree="70">
      <Node pos="s" depth="0" NCoef="0" IVar="2" Cut="7.4322851562500000e+02" cType="1" res="-4.2870352044701576e-03" rms="2.9641905426979065e-01" purity="4.9863943457603455e-01" nType="0">
        <Node pos="l" depth="1" NCoef="0" IVar="0" Cut="1.4749495849609375e+03" cType="1" res="-3.3353818580508232e-03" rms="2.9430854320526123e-01" purity="4.9570515751838684e-01" nType="0">
          <Node pos="l" depth="2" NCoef="0" IVar="6" Cut="6.2327938079833984e+01" cType="1" res="-1.1366696096956730e-02" rms="3.0053111910820007e-01" purity="2.1745978295803070e-01" nType="0">
            <Node pos="l" depth="3" NCoef="0" IVar="-1" Cut="0.0000000000000000e+00" cType="1" res="-5.7580498978495598e-03" rms="2.8695484995841980e-01" purity="1.5667270123958588e-01" nType="-99"/>
            <Node pos="r" depth="3" NCoef="0" IVar="-1" Cut="0.0000000000000000e+00" cType="1" res="-3.5673335194587708e-02" rms="3.6817610263824463e-01" purity="5.7468789815902710e-01" nType="-99"/>
          </Node>
          <Node pos="r" depth="2" NCoef="0" IVar="3" Cut="2.8955084228515625e+02" cType="1" res="5.0673573277890682e-03" rms="2.8741398453712463e-01" purity="7.8681862354278564e-01" nType="0">
            <Node pos="l" depth="3" NCoef="0" IVar="-1" Cut="0.0000000000000000e+00" cType="1" res="1.6081303358078003e-02" rms="2.9026442766189575e-01" purity="7.9482501745223999e-01" nType="-99"/>
            <Node pos="r" depth="3" NCoef="0" IVar="-1" Cut="0.0000000000000000e+00" cType="1" res="-7.0471600629389286e-03" rms="2.8359135985374451e-01" purity="7.7730089426040649e-01" nType="-99"/>
          </Node>
        </Node>
        <Node pos="r" depth="1" NCoef="0" IVar="-1" Cut="0.0000000000000000e+00" cType="1" res="-2.6774095371365547e-02" rms="3.5556060075759888e-01" purity="5.9159678220748901e-01" nType="-99"/>
      </Node>
    </BinaryTree>
    <BinaryTree type="DecisionTree" boostWeight="1.0000000000000000e+00" itree="71">
      <Node pos="s" depth="0" NCoef="0" IVar="2" Cut="3.2071621704101562e+02" cType="1" res="1.9140895456075668e-03" rms="2.9660028219223022e-01" purity="4.9863180518150330e-01" nType="0">
        <Node pos="l" depth="1" NCoef="0" IVar="0" Cut="1.2061113281250000e+03" cType="1" res="1.1219873093068600e-02" rms="2.9637029767036438e-01" purity="4.2212393879890442e-01" nType="0">
          <Node pos="l" depth="2" NCoef="0" IVar="8" Cut="1.3322931528091431e-01" cType="1" res="-4.5056068338453770e-03" rms="2.6849368214607239e-01" purity="1.0756272077560425e-01" nType="0">
            <Node pos="l" depth="3" NCoef="0" IVar="-1" Cut="0.0000000000000000e+00" cType="1" res="-2.2556245326995850e-02" rms="2.5660687685012817e-01" purity="9.9838010966777802e-02" nType="-99"/>
            <Node pos="r" depth="3" NCoef="0" IVar="-1" Cut="0.0000000000000000e+00" cType="1" res="1.3813504949212074e-02" rms="2.8053784370422363e-01" purity="1.1624641716480255e-01" nType="-99"/>
          </Node>
          <Node pos="r" depth="2" NCoef="0" IVar="1" Cut="6.3610099256038666e-02" cType="1" res="2.6800630614161491e-02" rms="3.2085692882537842e-01" purity="7.3379021883010864e-01" nType="0">
            <Node pos="l" depth="3" NCoef="0" IVar="-1" Cut="0.0000000000000000e+00" cType="1" res="4.0097028017044067e-02" rms="3.7217646837234497e-01" purity="4.7738188505172729e-01" nType="-99"/>
            <Node pos="r" depth="3" NCoef="0" IVar="-1" Cut="0.0000000000000000e+00" cType="1" res="1.1232333257794380e-02" rms="2.8821098804473877e-01" purity="8.7144684791564941e-01" nType="-99"/>
          </Node>
        </Node>
        <Node pos="r" depth="1" NCoef="0" IVar="0" Cut="1.8763294677734375e+03" cType="1" res="-4.3366570025682449e-03" rms="2.9659080505371094e-01" purity="5.5002260208129883e-01" nType="0">
          <Node pos="l" depth="2" NCoef="0" IVar="6" Cut="6.5740638732910156e+01" cType="1" res="-1.1831633746623993e-02" rms="3.2079088687896729e-01" purity="3.6013597249984741e-01" nType="0">
            <Node pos="l" depth="3" NCoef="0" IVar="-1" Cut="0.0000000000000000e+00" cType="1" res="-5.0100097432732582e-03" rms="3.1812718510627747e-01" purity="2.6029086112976074e-01" nType="-99"/>
            <Node pos="r" depth="3" NCoef="0" IVar="-1" Cut="0.0000000000000000e+00" cType="1" res="-3.6505416035652161e-02" rms="3.2949534058570862e-01" purity="7.3759055137634277e-01" nType="-99"/>
          </Node>
          <Node pos="r" depth="2" NCoef="0" IVar="3" Cut="3.2709594726562500e+02" cType="1" res="8.4758270531892776e-03" rms="2.4932944774627686e-01" purity="8.7462931871414185e-01" nType="0">
            <Node pos="l" depth="3" NCoef="0" IVar="-1" Cut="0.0000000000000000e+00" cType="1" res="2.5447225198149681e-02" rms="2.3957520723342896e-01" purity="8.8657104969024658e-01" nType="-99"/>
            <Node pos="r" depth="3" NCoef="0" IVar="-1" Cut="0.0000000000000000e+00" cType="1" res="2.3456348571926355e-03" rms="2.5625747442245483e-01" purity="8.6559343338012695e-01" nType="-99"/>
          </Node>
        </Node>
      </Node>
    </BinaryTree>
    <BinaryTree type="DecisionTree" boostWeight="1.0000000000000000e+00" itree="72">
      <Node pos="s" depth="0" NCoef="0" IVar="7" Cut="-3.9033094048500061e-01" cType="1" res="2.8914760332554579e-03" rms="2.9884052276611328e-01" purity="5.0190460681915283e-01" nType="0">
        <Node pos="l" depth="1" NCoef="0" IVar="8" Cut="1.2002635002136230e+00" cType="1" res="-7.1591655723750591e-03" rms="2.9139733314514160e-01" purity="4.0772327780723572e-01" nType="0">
          <Node pos="l" depth="2" NCoef="0" IVar="11" Cut="5.9044265747070312e-01" cType="1" res="-2.1098633296787739e-03" rms="3.0202504992485046e-01" purity="4.5241442322731018e-01" nType="0">
            <Node pos="l" depth="3" NCoef="0" IVar="-1" Cut="0.0000000000000000e+00" cType="1" res="1.7305881483480334e-03" rms="2.9736846685409546e-01" purity="4.2040553689002991e-01" nType="-99"/>
            <Node pos="r" depth="3" NCoef="0" IVar="-1" Cut="0.0000000000000000e+00" cType="1" res="-2.6022136211395264e-02" rms="3.3034107089042664e-01" purity="6.6571116447448730e-01" nType="-99"/>
          </Node>
          <Node pos="r" depth="2" NCoef="0" IVar="-1" Cut="0.0000000000000000e+00" cType="1" res="-7.4986696243286133e-02" rms="1.9430805742740631e-01" purity="8.4326028823852539e-02" nType="-99"/>
        </Node>
        <Node pos="r" depth="1" NCoef="0" IVar="7" Cut="5.2104771137237549e-01" cType="1" res="7.6468908227980137e-03" rms="3.0218189954757690e-01" purity="5.4646605253219604e-01" nType="0">
          <Node pos="l" depth="2" NCoef="0" IVar="2" Cut="4.4144244384765625e+02" cType="1" res="1.5894118696451187e-02" rms="3.0876788496971130e-01" purity="6.6066652536392212e-01" nType="0">
            <Node pos="l" depth="3" NCoef="0" IVar="-1" Cut="0.0000000000000000e+00" cType="1" res="2.3246258497238159e-02" rms="3.1165751814842224e-01" purity="6.2839835882186890e-01" nType="-99"/>
            <Node pos="r" depth="3" NCoef="0" IVar="-1" Cut="0.0000000000000000e+00" cType="1" res="1.2724420521408319e-03" rms="3.0209785699844360e-01" purity="7.2828328609466553e-01" nType="-99"/>
          </Node>
          <Node pos="r" depth="2" NCoef="0" IVar="4" Cut="1.6624707031250000e+02" cType="1" res="-4.7067934647202492e-03" rms="2.9160279035568237e-01" purity="3.7540289759635925e-01" nType="0">
            <Node pos="l" depth="3" NCoef="0" IVar="-1" Cut="0.0000000000000000e+00" cType="1" res="7.6828114688396454e-03" rms="2.8189006447792053e-01" purity="2.0946891605854034e-01" nType="-99"/>
            <Node pos="r" depth="3" NCoef="0" IVar="-1" Cut="0.0000000000000000e+00" cType="1" res="-2.2720281034708023e-02" rms="3.0624738335609436e-01" purity="6.5176141262054443e-01" nType="-99"/>
          </Node>
        </Node>
      </Node>
    </BinaryTree>
    <BinaryTree type="DecisionTree" boostWeight="1.0000000000000000e+00" itree="73">
      <Node pos="s" depth="0" NCoef="0" IVar="7" Cut="-1.7195254564285278e+00" cType="1" res="-1.9056620076298714e-03" rms="2.9666110873222351e-01" purity="4.9772304296493530e-01" nType="0">
        <Node pos="l" depth="1" NCoef="0" IVar="-1" Cut="0.0000000000000000e+00" cType="1" res="-6.9031998515129089e-02" rms="1.6379697620868683e-01" purity="5.8435656130313873e-02" nType="-99"/>
        <Node pos="r" depth="1" NCoef="0" IVar="5" Cut="9.1341278076171875e+01" cType="1" res="-6.4607005333527923e-04" rms="3.0085939168930054e-01" purity="5.1602047681808472e-01" nType="0">
          <Node pos="l" depth="2" NCoef="0" IVar="5" Cut="5.9843196868896484e+01" cType="1" res="3.6941636353731155e-03" rms="3.2087510824203491e-01" purity="3.0434843897819519e-01" nType="0">
            <Node pos="l" depth="3" NCoef="0" IVar="-1" Cut="0.0000000000000000e+00" cType="1" res="-1.4812039211392403e-02" rms="2.6707121729850769e-01" purity="1.3838991522789001e-01" nType="-99"/>
            <Node pos="r" depth="3" NCoef="0" IVar="-1" Cut="0.0000000000000000e+00" cType="1" res="1.0783739387989044e-02" rms="3.4833073616027832e-01" purity="4.0193131566047668e-01" nType="-99"/>
          </Node>
          <Node pos="r" depth="2" NCoef="0" IVar="0" Cut="1.7233365478515625e+03" cType="1" res="-7.1889613755047321e-03" rms="2.6774084568023682e-01" purity="8.3511567115783691e-01" nType="0">
            <Node pos="l" depth="3" NCoef="0" IVar="-1" Cut="0.0000000000000000e+00" cType="1" res="-2.5918284431099892e-02" rms="3.4126952290534973e-01" purity="6.7539501190185547e-01" nType="-99"/>
            <Node pos="r" depth="3" NCoef="0" IVar="-1" Cut="0.0000000000000000e+00" cType="1" res="1.3783826492726803e-02" rms="2.0885680615901947e-01" purity="9.3327957391738892e-01" nType="-99"/>
          </Node>
        </Node>
      </Node>
    </BinaryTree>
    <BinaryTree type="DecisionTree" boostWeight="1.0000000000000000e+00" itree="74">
      <Node pos="s" depth="0" NCoef="0" IVar="4" Cut="1.9229034423828125e+02" cType="1" res="4.2221643961966038e-03" rms="2.9776492714881897e-01" purity="5.0359725952148438e-01" nType="0">
        <Node pos="l" depth="1" NCoef="0" IVar="3" Cut="1.3896675109863281e+02" cType="1" res="8.8697709143161774e-03" rms="3.0618911981582642e-01" purity="3.7151426076889038e-01" nType="0">
          <Node pos="l" depth="2" NCoef="0" IVar="0" Cut="1.2154610595703125e+03" cType="1" res="-1.1439802125096321e-02" rms="2.2301825881004333e-01" purity="8.8583089411258698e-02" nType="0">
            <Node pos="l" depth="3" NCoef="0" IVar="-1" Cut="0.0000000000000000e+00" cType="1" res="-4.0680367499589920e-02" rms="1.8586790561676025e-01" purity="4.0759380906820297e-02" nType="-99"/>
            <Node pos="r" depth="3" NCoef="0" IVar="-1" Cut="0.0000000000000000e+00" cType="1" res="1.7109058797359467e-02" rms="3.3417335152626038e-01" purity="2.8711438179016113e-01" nType="-99"/>
          </Node>
          <Node pos="r" depth="2" NCoef="0" IVar="7" Cut="1.4851188659667969e+00" cType="1" res="1.3983392156660557e-02" rms="3.2357990741729736e-01" purity="4.4275176525115967e-01" nType="0">
            <Node pos="l" depth="3" NCoef="0" IVar="-1" Cut="0.0000000000000000e+00" cType="1" res="1.4549551531672478e-02" rms="3.3054506778717041e-01" purity="4.6760886907577515e-01" nType="-99"/>
            <Node pos="r" depth="3" NCoef="0" IVar="-1" Cut="0.0000000000000000e+00" cType="1" res="-2.4154933169484138e-02" rms="1.9653098285198212e-01" purity="8.6488656699657440e-02" nType="-99"/>
          </Node>
        </Node>
        <Node pos="r" depth="1" NCoef="0" IVar="9" Cut="-9.3518477678298950e-01" cType="1" res="-6.2189656309783459e-03" rms="2.7762615680694580e-01" purity="8.0032974481582642e-01" nType="0">
          <Node pos="l" depth="2" NCoef="0" IVar="-1" Cut="0.0000000000000000e+00" cType="1" res="-4.7298222780227661e-02" rms="3.2284659147262573e-01" purity="6.3211184740066528e-01" nType="-99"/>
          <Node pos="r" depth="2" NCoef="0" IVar="9" Cut="1.0169059038162231e+00" cType="1" res="-8.7977423390839249e-05" rms="2.6982370018959045e-01" purity="8.2496887445449829e-01" nType="0">
            <Node pos="l" depth="3" NCoef="0" IVar="-1" Cut="0.0000000000000000e+00" cType="1" res="6.3534495420753956e-03" rms="2.6450854539871216e-01" purity="8.5436171293258667e-01" nType="-99"/>
            <Node pos="r" depth="3" NCoef="0" IVar="-1" Cut="0.0000000000000000e+00" cType="1" res="-3.1824953854084015e-02" rms="3.0100783705711365e-01" purity="6.2807023525238037e-01" nType="-99"/>
          </Node>
        </Node>
      </Node>
    </BinaryTree>
    <BinaryTree type="DecisionTree" boostWeight="1.0000000000000000e+00" itree="75">
      <Node pos="s" depth="0" NCoef="0" IVar="8" Cut="-1.3324940204620361e-01" cType="1" res="1.2567222584038973e-03" rms="2.9777798056602478e-01" purity="4.9931266903877258e-01" nType="0">
        <Node pos="l" depth="1" NCoef="0" IVar="7" Cut="6.9250959157943726e-01" cType="1" res="-6.8308911286294460e-03" rms="2.9811206459999084e-01" purity="4.6945002675056458e-01" nType="0">
          <Node pos="l" depth="2" NCoef="0" IVar="5" Cut="9.0402519226074219e+01" cType="1" res="-1.8739730585366488e-03" rms="3.0381503701210022e-01" purity="5.2129554748535156e-01" nType="0">
            <Node pos="l" depth="3" NCoef="0" IVar="-1" Cut="0.0000000000000000e+00" cType="1" res="6.2415390275418758e-03" rms="3.2397091388702393e-01" purity="3.1337603926658630e-01" nType="-99"/>
            <Node pos="r" depth="3" NCoef="0" IVar="-1" Cut="0.0000000000000000e+00" cType="1" res="-1.8874581903219223e-02" rms="2.7052989602088928e-01" purity="8.3102840185165405e-01" nType="-99"/>
          </Node>
          <Node pos="r" depth="2" NCoef="0" IVar="2" Cut="4.2090747070312500e+02" cType="1" res="-2.6697916910052299e-02" rms="2.7316528558731079e-01" purity="2.6165637373924255e-01" nType="0">
            <Node pos="l" depth="3" NCoef="0" IVar="-1" Cut="0.0000000000000000e+00" cType="1" res="-2.3183029145002365e-02" rms="2.6510000228881836e-01" purity="2.5260585546493530e-01" nType="-99"/>
            <Node pos="r" depth="3" NCoef="0" IVar="-1" Cut="0.0000000000000000e+00" cType="1" res="-5.1770258694887161e-02" rms="2.9106390476226807e-01" purity="2.8397035598754883e-01" nType="-99"/>
          </Node>
        </Node>
        <Node pos="r" depth="1" NCoef="0" IVar="7" Cut="-1.1418288946151733e+00" cType="1" res="7.5860065408051014e-03" rms="2.9736286401748657e-01" purity="5.2268290519714355e-01" nType="0">
          <Node pos="l" depth="2" NCoef="0" IVar="9" Cut="1.3644719123840332e-01" cType="1" res="-2.2277949377894402e-02" rms="2.2009016573429108e-01" purity="1.5323548018932343e-01" nType="0">
            <Node pos="l" depth="3" NCoef="0" IVar="-1" Cut="0.0000000000000000e+00" cType="1" res="-5.3002819418907166e-02" rms="2.1385191380977631e-01" purity="1.4313437044620514e-01" nType="-99"/>
            <Node pos="r" depth="3" NCoef="0" IVar="-1" Cut="0.0000000000000000e+00" cType="1" res="-1.2653119862079620e-02" rms="2.2643649578094482e-01" purity="1.6527482867240906e-01" nType="-99"/>
          </Node>
          <Node pos="r" depth="2" NCoef="0" IVar="9" Cut="-6.6668301820755005e-01" cType="1" res="1.0861174203455448e-02" rms="3.0446884036064148e-01" purity="5.6319999694824219e-01" nType="0">
            <Node pos="l" depth="3" NCoef="0" IVar="-1" Cut="0.0000000000000000e+00" cType="1" res="-4.4592525810003281e-03" rms="3.1315732002258301e-01" purity="4.6416971087455750e-01" nType="-99"/>
            <Node pos="r" depth="3" NCoef="0" IVar="-1" Cut="0.0000000000000000e+00" cType="1" res="1.6093458980321884e-02" rms="3.0179226398468018e-01" purity="5.9155237674713135e-01" nType="-99"/>
          </Node>
        </Node>
      </Node>
    </BinaryTree>
    <BinaryTree type="DecisionTree" boostWeight="1.0000000000000000e+00" itree="76">
      <Node pos="s" depth="0" NCoef="0" IVar="2" Cut="3.3580932617187500e+02" cType="1" res="-1.4323466457426548e-03" rms="2.9804125428199768e-01" purity="5.0018984079360962e-01" nType="0">
        <Node pos="l" depth="1" NCoef="0" IVar="3" Cut="2.2879098510742188e+02" cType="1" res="5.6830374523997307e-03" rms="3.0389812588691711e-01" purity="4.2690178751945496e-01" nType="0">
          <Node pos="l" depth="2" NCoef="0" IVar="0" Cut="1.0505351562500000e+03" cType="1" res="1.1170376092195511e-02" rms="3.0496227741241455e-01" purity="3.5062387585639954e-01" nType="0">
            <Node pos="l" depth="3" NCoef="0" IVar="-1" Cut="0.0000000000000000e+00" cType="1" res="-8.4242904558777809e-03" rms="1.9681164622306824e-01" purity="4.4235132634639740e-02" nType="-99"/>
            <Node pos="r" depth="3" NCoef="0" IVar="-1" Cut="0.0000000000000000e+00" cType="1" res="1.6184825450181961e-02" rms="3.4524887800216675e-01" purity="4.9940279126167297e-01" nType="-99"/>
          </Node>
          <Node pos="r" depth="2" NCoef="0" IVar="2" Cut="2.9546014404296875e+02" cType="1" res="-1.1015607044100761e-02" rms="3.0001986026763916e-01" purity="6.5902495384216309e-01" nType="0">
            <Node pos="l" depth="3" NCoef="0" IVar="-1" Cut="0.0000000000000000e+00" cType="1" res="-3.0810227617621422e-02" rms="3.1030249595642090e-01" purity="6.1285978555679321e-01" nType="-99"/>
            <Node pos="r" depth="3" NCoef="0" IVar="-1" Cut="0.0000000000000000e+00" cType="1" res="8.1889024004340172e-03" rms="2.8898307681083679e-01" purity="7.0176416635513306e-01" nType="-99"/>
          </Node>
        </Node>
        <Node pos="r" depth="1" NCoef="0" IVar="0" Cut="1.7701455078125000e+03" cType="1" res="-7.3330313898622990e-03" rms="2.9296442866325378e-01" purity="5.6096655130386353e-01" nType="0">
          <Node pos="l" depth="2" NCoef="0" IVar="2" Cut="5.3249682617187500e+02" cType="1" res="-1.7115144059062004e-02" rms="3.1784033775329590e-01" purity="3.0185204744338989e-01" nType="0">
            <Node pos="l" depth="3" NCoef="0" IVar="-1" Cut="0.0000000000000000e+00" cType="1" res="-1.0288842953741550e-02" rms="3.2176601886749268e-01" purity="3.2727599143981934e-01" nType="-99"/>
            <Node pos="r" depth="3" NCoef="0" IVar="-1" Cut="0.0000000000000000e+00" cType="1" res="-5.7570472359657288e-02" rms="2.8744310140609741e-01" purity="1.3540223240852356e-01" nType="-99"/>
          </Node>
          <Node pos="r" depth="2" NCoef="0" IVar="9" Cut="9.3293291330337524e-01" cType="1" res="3.4694238565862179e-03" rms="2.6234823465347290e-01" purity="8.4710848331451416e-01" nType="0">
            <Node pos="l" depth="3" NCoef="0" IVar="-1" Cut="0.0000000000000000e+00" cType="1" res="9.7230887040495872e-03" rms="2.5658941268920898e-01" purity="8.6362290382385254e-01" nType="-99"/>
            <Node pos="r" depth="3" NCoef="0" IVar="-1" Cut="0.0000000000000000e+00" cType="1" res="-2.3069245740771294e-02" rms="2.9762870073318481e-01" purity="7.3376107215881348e-01" nType="-99"/>
          </Node>
        </Node>
      </Node>
    </BinaryTree>
    <BinaryTree type="DecisionTree" boostWeight="1.0000000000000000e+00" itree="77">
      <Node pos="s" depth="0" NCoef="0" IVar="2" Cut="6.8286419677734375e+02" cType="1" res="-2.0753004355356097e-04" rms="3.0010083317756653e-01" purity="5.0260436534881592e-01" nType="0">
        <Node pos="l" depth="1" NCoef="0" IVar="1" Cut="6.5705366432666779e-02" cType="1" res="1.5456476248800755e-03" rms="2.9803973436355591e-01" purity="4.9869838356971741e-01" nType="0">
          <Node pos="l" depth="2" NCoef="0" IVar="0" Cut="1.2569365234375000e+03" cType="1" res="6.5337638370692730e-03" rms="2.9724064469337463e-01" purity="2.7289471030235291e-01" nType="0">
            <Node pos="l" depth="3" NCoef="0" IVar="-1" Cut="0.0000000000000000e+00" cType="1" res="-5.4618883877992630e-03" rms="2.1685799956321716e-01" purity="5.9914600104093552e-02" nType="-99"/>
            <Node pos="r" depth="3" NCoef="0" IVar="-1" Cut="0.0000000000000000e+00" cType="1" res="1.1484824120998383e-02" rms="3.4833070635795593e-01" purity="4.4352254271507263e-01" nType="-99"/>
          </Node>
          <Node pos="r" depth="2" NCoef="0" IVar="0" Cut="1.5670618896484375e+03" cType="1" res="-4.4084079563617706e-03" rms="2.9888182878494263e-01" purity="7.6822841167449951e-01" nType="0">
            <Node pos="l" depth="3" NCoef="0" IVar="-1" Cut="0.0000000000000000e+00" cType="1" res="-1.2826046906411648e-02" rms="3.8371106982231140e-01" purity="5.4295504093170166e-01" nType="-99"/>
            <Node pos="r" depth="3" NCoef="0" IVar="-1" Cut="0.0000000000000000e+00" cType="1" res="1.2389895506203175e-02" rms="2.1140353381633759e-01" purity="9.4088381528854370e-01" nType="-99"/>
          </Node>
        </Node>
        <Node pos="r" depth="1" NCoef="0" IVar="-1" Cut="0.0000000000000000e+00" cType="1" res="-2.8990268707275391e-02" rms="3.3618301153182983e-01" purity="5.7928872108459473e-01" nType="-99"/>
      </Node>
    </BinaryTree>
    <BinaryTree type="DecisionTree" boostWeight="1.0000000000000000e+00" itree="78">
      <Node pos="s" depth="0" NCoef="0" IVar="8" Cut="-1.7332022190093994e+00" cType="1" res="-7.1226863656193018e-04" rms="2.9910042881965637e-01" purity="5.0103151798248291e-01" nType="0">
        <Node pos="l" depth="1" NCoef="0" IVar="-1" Cut="0.0000000000000000e+00" cType="1" res="-4.8220232129096985e-02" rms="1.8115639686584473e-01" purity="7.3150828480720520e-02" nType="-99"/>
        <Node pos="r" depth="1" NCoef="0" IVar="1" Cut="2.1194133907556534e-02" cType="1" res="6.0052645858377218e-04" rms="3.0401602387428284e-01" purity="5.2368533611297607e-01" nType="0">
          <Node pos="l" depth="2" NCoef="0" IVar="7" Cut="9.3875771760940552e-01" cType="1" res="1.2331709265708923e-02" rms="2.5697344541549683e-01" purity="1.3849973678588867e-01" nType="0">
            <Node pos="l" depth="3" NCoef="0" IVar="-1" Cut="0.0000000000000000e+00" cType="1" res="2.8136121109127998e-02" rms="2.8303450345993042e-01" purity="1.7692494392395020e-01" nType="-99"/>
            <Node pos="r" depth="3" NCoef="0" IVar="-1" Cut="0.0000000000000000e+00" cType="1" res="-2.0289206877350807e-02" rms="1.8536789715290070e-01" purity="5.3818393498659134e-02" nType="-99"/>
          </Node>
          <Node pos="r" depth="2" NCoef="0" IVar="3" Cut="2.0446984863281250e+02" cType="1" res="-2.6669513899832964e-03" rms="3.1579616665840149e-01" purity="6.3097083568572998e-01" nType="0">
            <Node pos="l" depth="3" NCoef="0" IVar="-1" Cut="0.0000000000000000e+00" cType="1" res="5.7147969491779804e-03" rms="3.3776801824569702e-01" purity="4.1343009471893311e-01" nType="-99"/>
            <Node pos="r" depth="3" NCoef="0" IVar="-1" Cut="0.0000000000000000e+00" cType="1" res="-8.4088174626231194e-03" rms="3.0172681808471680e-01" purity="7.6143163442611694e-01" nType="-99"/>
          </Node>
        </Node>
      </Node>
    </BinaryTree>
    <BinaryTree type="DecisionTree" boostWeight="1.0000000000000000e+00" itree="79">
      <Node pos="s" depth="0" NCoef="0" IVar="6" Cut="9.9564567565917969e+01" cType="1" res="-5.8442396111786366e-03" rms="2.9429477453231812e-01" purity="4.9123606085777283e-01" nType="0">
        <Node pos="l" depth="1" NCoef="0" IVar="1" Cut="6.3614293932914734e-02" cType="1" res="-8.2872631028294563e-03" rms="3.0746635794639587e-01" purity="4.1996940970420837e-01" nType="0">
          <Node pos="l" depth="2" NCoef="0" IVar="2" Cut="4.7953063964843750e+02" cType="1" res="-3.7059742026031017e-03" rms="2.9144588112831116e-01" purity="2.3751036822795868e-01" nType="0">
            <Node pos="l" depth="3" NCoef="0" IVar="-1" Cut="0.0000000000000000e+00" cType="1" res="1.4948381576687098e-03" rms="2.7951380610466003e-01" purity="2.0279864966869354e-01" nType="-99"/>
            <Node pos="r" depth="3" NCoef="0" IVar="-1" Cut="0.0000000000000000e+00" cType="1" res="-1.7460158094763756e-02" rms="3.2714313268661499e-01" purity="3.5179817676544189e-01" nType="-99"/>
          </Node>
          <Node pos="r" depth="2" NCoef="0" IVar="0" Cut="1.7658426513671875e+03" cType="1" res="-1.5063166618347168e-02" rms="3.2962068915367126e-01" purity="6.8983346223831177e-01" nType="0">
            <Node pos="l" depth="3" NCoef="0" IVar="-1" Cut="0.0000000000000000e+00" cType="1" res="-1.7581814900040627e-02" rms="3.6610585451126099e-01" purity="5.8171504735946655e-01" nType="-99"/>
            <Node pos="r" depth="3" NCoef="0" IVar="-1" Cut="0.0000000000000000e+00" cType="1" res="6.8821921013295650e-03" rms="2.2641229629516602e-01" purity="9.3204063177108765e-01" nType="-99"/>
          </Node>
        </Node>
        <Node pos="r" depth="1" NCoef="0" IVar="-1" Cut="0.0000000000000000e+00" cType="1" res="2.3419357836246490e-02" rms="1.8683230876922607e-01" purity="9.5350974798202515e-01" nType="-99"/>
      </Node>
    </BinaryTree>
    <BinaryTree type="DecisionTree" boostWeight="1.0000000000000000e+00" itree="80">
      <Node pos="s" depth="0" NCoef="0" IVar="2" Cut="4.7161538696289062e+02" cType="1" res="4.4600139517569914e-05" rms="2.9569190740585327e-01" purity="4.9899372458457947e-01" nType="0">
        <Node pos="l" depth="1" NCoef="0" IVar="0" Cut="1.2973149414062500e+03" cType="1" res="3.6572446115314960e-03" rms="2.9342496395111084e-01" purity="4.7511133551597595e-01" nType="0">
          <Node pos="l" depth="2" NCoef="0" IVar="5" Cut="8.0050605773925781e+01" cType="1" res="-4.9115568399429321e-03" rms="2.7944234013557434e-01" purity="1.3774508237838745e-01" nType="0">
            <Node pos="l" depth="3" NCoef="0" IVar="-1" Cut="0.0000000000000000e+00" cType="1" res="-8.3443004405125976e-04" rms="2.5918400287628174e-01" purity="1.0664547234773636e-01" nType="-99"/>
            <Node pos="r" depth="3" NCoef="0" IVar="-1" Cut="0.0000000000000000e+00" cType="1" res="-2.0889952778816223e-02" rms="3.7206146121025085e-01" purity="3.1169986724853516e-01" nType="-99"/>
          </Node>
          <Node pos="r" depth="2" NCoef="0" IVar="4" Cut="1.4542335510253906e+02" cType="1" res="1.0434889234602451e-02" rms="3.0385851860046387e-01" purity="7.4195706844329834e-01" nType="0">
            <Node pos="l" depth="3" NCoef="0" IVar="-1" Cut="0.0000000000000000e+00" cType="1" res="3.2740283757448196e-02" rms="3.6122465133666992e-01" purity="5.8377099037170410e-01" nType="-99"/>
            <Node pos="r" depth="3" NCoef="0" IVar="-1" Cut="0.0000000000000000e+00" cType="1" res="2.4853264912962914e-03" rms="2.8631371259689331e-01" purity="7.8354293107986450e-01" nType="-99"/>
          </Node>
        </Node>
        <Node pos="r" depth="1" NCoef="0" IVar="8" Cut="-3.9946988224983215e-01" cType="1" res="-1.2021167203783989e-02" rms="3.0282825231552124e-01" purity="5.7875806093215942e-01" nType="0">
          <Node pos="l" depth="2" NCoef="0" IVar="0" Cut="1.7832064208984375e+03" cType="1" res="-3.0570110306143761e-02" rms="2.9776009917259216e-01" purity="4.8792386054992676e-01" nType="0">
            <Node pos="l" depth="3" NCoef="0" IVar="-1" Cut="0.0000000000000000e+00" cType="1" res="-5.9027038514614105e-02" rms="2.7280119061470032e-01" purity="1.4307187497615814e-01" nType="-99"/>
            <Node pos="r" depth="3" NCoef="0" IVar="-1" Cut="0.0000000000000000e+00" cType="1" res="-1.1691128835082054e-02" rms="3.1214359402656555e-01" purity="7.2083610296249390e-01" nType="-99"/>
          </Node>
          <Node pos="r" depth="2" NCoef="0" IVar="7" Cut="-5.9462642669677734e-01" cType="1" res="-3.5843837540596724e-03" rms="3.0473223328590393e-01" purity="6.2007296085357666e-01" nType="0">
            <Node pos="l" depth="3" NCoef="0" IVar="-1" Cut="0.0000000000000000e+00" cType="1" res="-3.7429701536893845e-02" rms="3.1770029664039612e-01" purity="3.9530682563781738e-01" nType="-99"/>
            <Node pos="r" depth="3" NCoef="0" IVar="-1" Cut="0.0000000000000000e+00" cType="1" res="5.1039969548583031e-03" rms="3.0068185925483704e-01" purity="6.7865824699401855e-01" nType="-99"/>
          </Node>
        </Node>
      </Node>
    </BinaryTree>
    <BinaryTree type="DecisionTree" boostWeight="1.0000000000000000e+00" itree="81">
      <Node pos="s" depth="0" NCoef="0" IVar="9" Cut="-1.9999395608901978e+00" cType="1" res="3.3103469759225845e-03" rms="2.9763838648796082e-01" purity="5.0390714406967163e-01" nType="0">
        <Node pos="l" depth="1" NCoef="0" IVar="-1" Cut="0.0000000000000000e+00" cType="1" res="-5.0784531980752945e-02" rms="2.1062727272510529e-01" purity="8.7637126445770264e-02" nType="-99"/>
        <Node pos="r" depth="1" NCoef="0" IVar="2" Cut="4.3110147094726562e+02" cType="1" res="4.5585921034216881e-03" rms="3.0023893713951111e-01" purity="5.1896220445632935e-01" nType="0">
          <Node pos="l" depth="2" NCoef="0" IVar="0" Cut="1.0233530883789062e+03" cType="1" res="9.7219897434115410e-03" rms="2.9941037297248840e-01" purity="4.8476025462150574e-01" nType="0">
            <Node pos="l" depth="3" NCoef="0" IVar="-1" Cut="0.0000000000000000e+00" cType="1" res="-4.4008575379848480e-02" rms="1.5194882452487946e-01" purity="2.4803522974252701e-02" nType="-99"/>
            <Node pos="r" depth="3" NCoef="0" IVar="-1" Cut="0.0000000000000000e+00" cType="1" res="1.3685887679457664e-02" rms="3.1550768017768860e-01" purity="5.5398118495941162e-01" nType="-99"/>
          </Node>
          <Node pos="r" depth="2" NCoef="0" IVar="0" Cut="1.8388558349609375e+03" cType="1" res="-6.9959796965122223e-03" rms="3.0176493525505066e-01" purity="5.9549891948699951e-01" nType="0">
            <Node pos="l" depth="3" NCoef="0" IVar="-1" Cut="0.0000000000000000e+00" cType="1" res="-1.8539007753133774e-02" rms="3.3173504471778870e-01" purity="2.7156701683998108e-01" nType="-99"/>
            <Node pos="r" depth="3" NCoef="0" IVar="-1" Cut="0.0000000000000000e+00" cType="1" res="3.5486172419041395e-03" rms="2.7700641751289368e-01" purity="8.3601105213165283e-01" nType="-99"/>
          </Node>
        </Node>
      </Node>
    </BinaryTree>
    <BinaryTree type="DecisionTree" boostWeight="1.0000000000000000e+00" itree="82">
      <Node pos="s" depth="0" NCoef="0" IVar="3" Cut="3.2590026855468750e+02" cType="1" res="1.6059163026511669e-03" rms="2.9381251335144043e-01" purity="5.0570225715637207e-01" nType="0">
        <Node pos="l" depth="1" NCoef="0" IVar="0" Cut="1.2592302246093750e+03" cType="1" res="4.2725973762571812e-03" rms="2.9540824890136719e-01" purity="4.5697966217994690e-01" nType="0">
          <Node pos="l" depth="2" NCoef="0" IVar="2" Cut="2.8024642944335938e+02" cType="1" res="-5.5020842701196671e-03" rms="2.6478928327560425e-01" purity="1.1537387967109680e-01" nType="0">
            <Node pos="l" depth="3" NCoef="0" IVar="-1" Cut="0.0000000000000000e+00" cType="1" res="6.0210982337594032e-03" rms="2.9304945468902588e-01" purity="1.5328525006771088e-01" nType="-99"/>
            <Node pos="r" depth="3" NCoef="0" IVar="-1" Cut="0.0000000000000000e+00" cType="1" res="-3.0080409720540047e-02" rms="2.2425089776515961e-01" purity="6.8441256880760193e-02" nType="-99"/>
          </Node>
          <Node pos="r" depth="2" NCoef="0" IVar="6" Cut="6.0453460693359375e+01" cType="1" res="1.0143475607037544e-02" rms="3.1221213936805725e-01" purity="6.6215521097183228e-01" nType="0">
            <Node pos="l" depth="3" NCoef="0" IVar="-1" Cut="0.0000000000000000e+00" cType="1" res="1.4949727803468704e-02" rms="3.5700097680091858e-01" purity="4.3543618917465210e-01" nType="-99"/>
            <Node pos="r" depth="3" NCoef="0" IVar="-1" Cut="0.0000000000000000e+00" cType="1" res="2.5352351367473602e-03" rms="2.6804667711257935e-01" purity="8.5489332675933838e-01" nType="-99"/>
          </Node>
        </Node>
        <Node pos="r" depth="1" NCoef="0" IVar="8" Cut="3.9986452460289001e-01" cType="1" res="-1.1310794390738010e-02" rms="2.8560501337051392e-01" purity="7.4170184135437012e-01" nType="0">
          <Node pos="l" depth="2" NCoef="0" IVar="7" Cut="-1.1699398607015610e-01" cType="1" res="4.8206016072072089e-04" rms="2.8615269064903259e-01" purity="7.7561694383621216e-01" nType="0">
            <Node pos="l" depth="3" NCoef="0" IVar="-1" Cut="0.0000000000000000e+00" cType="1" res="1.5694670379161835e-02" rms="2.8758293390274048e-01" purity="7.8993397951126099e-01" nType="-99"/>
            <Node pos="r" depth="3" NCoef="0" IVar="-1" Cut="0.0000000000000000e+00" cType="1" res="-1.3524550944566727e-02" rms="2.8442519903182983e-01" purity="7.6336067914962769e-01" nType="-99"/>
          </Node>
          <Node pos="r" depth="2" NCoef="0" IVar="-1" Cut="0.0000000000000000e+00" cType="1" res="-4.9749411642551422e-02" rms="2.8182628750801086e-01" purity="6.5270894765853882e-01" nType="-99"/>
        </Node>
      </Node>
    </BinaryTree>
    <BinaryTree type="DecisionTree" boostWeight="1.0000000000000000e+00" itree="83">
      <Node pos="s" depth="0" NCoef="0" IVar="2" Cut="7.5905566406250000e+02" cType="1" res="3.0826346483081579e-03" rms="2.9694038629531860e-01" purity="5.0193238258361816e-01" nType="0">
        <Node pos="l" depth="1" NCoef="0" IVar="8" Cut="1.3350622355937958e-01" cType="1" res="4.1168439202010632e-03" rms="2.9572430253028870e-01" purity="5.0022405385971069e-01" nType="0">
          <Node pos="l" depth="2" NCoef="0" IVar="2" Cut="3.8632876586914062e+02" cType="1" res="9.9251084029674530e-03" rms="2.9491528868675232e-01" purity="5.1789027452468872e-01" nType="0">
            <Node pos="l" depth="3" NCoef="0" IVar="-1" Cut="0.0000000000000000e+00" cType="1" res="1.7092334106564522e-02" rms="2.9456374049186707e-01" purity="4.7142302989959717e-01" nType="-99"/>
            <Node pos="r" depth="3" NCoef="0" IVar="-1" Cut="0.0000000000000000e+00" cType="1" res="1.5632525319233537e-03" rms="2.9525020718574524e-01" purity="5.8888852596282959e-01" nType="-99"/>
          </Node>
          <Node pos="r" depth="2" NCoef="0" IVar="6" Cut="5.2873748779296875e+01" cType="1" res="-3.2250045333057642e-03" rms="2.9658105969429016e-01" purity="4.7789335250854492e-01" nType="0">
            <Node pos="l" depth="3" NCoef="0" IVar="-1" Cut="0.0000000000000000e+00" cType="1" res="5.5171470157802105e-03" rms="3.0378028750419617e-01" purity="2.2674420475959778e-01" nType="-99"/>
            <Node pos="r" depth="3" NCoef="0" IVar="-1" Cut="0.0000000000000000e+00" cType="1" res="-1.4474834315478802e-02" rms="2.8818228840827942e-01" purity="7.5405639410018921e-01" nType="-99"/>
          </Node>
        </Node>
        <Node pos="r" depth="1" NCoef="0" IVar="-1" Cut="0.0000000000000000e+00" cType="1" res="-2.7848653495311737e-02" rms="3.3813437819480896e-01" purity="5.6780755519866943e-01" nType="-99"/>
      </Node>
    </BinaryTree>
    <BinaryTree type="DecisionTree" boostWeight="1.0000000000000000e+00" itree="84">
      <Node pos="s" depth="0" NCoef="0" IVar="8" Cut="-9.3320673704147339e-01" cType="1" res="9.6523748652543873e-05" rms="2.9576051235198975e-01" purity="4.9963030219078064e-01" nType="0">
        <Node pos="l" depth="1" NCoef="0" IVar="3" Cut="2.2997676086425781e+02" cType="1" res="-1.5623587183654308e-02" rms="2.6924818754196167e-01" purity="2.6507529616355896e-01" nType="0">
          <Node pos="l" depth="2" NCoef="0" IVar="7" Cut="1.6509775817394257e-01" cType="1" res="-6.2993299216032028e-03" rms="2.5926050543785095e-01" purity="1.8462209403514862e-01" nType="0">
            <Node pos="l" depth="3" NCoef="0" IVar="-1" Cut="0.0000000000000000e+00" cType="1" res="6.1015477403998375e-03" rms="2.7685958147048950e-01" purity="2.1562148630619049e-01" nType="-99"/>
            <Node pos="r" depth="3" NCoef="0" IVar="-1" Cut="0.0000000000000000e+00" cType="1" res="-3.4568782895803452e-02" rms="2.3112444579601288e-01" purity="1.4062982797622681e-01" nType="-99"/>
          </Node>
          <Node pos="r" depth="2" NCoef="0" IVar="8" Cut="-1.2888092994689941e+00" cType="1" res="-3.3617902547121048e-02" rms="2.8668761253356934e-01" purity="4.2033705115318298e-01" nType="0">
            <Node pos="l" depth="3" NCoef="0" IVar="-1" Cut="0.0000000000000000e+00" cType="1" res="-5.4544970393180847e-02" rms="2.5539195537567139e-01" purity="2.4075500667095184e-01" nType="-99"/>
            <Node pos="r" depth="3" NCoef="0" IVar="-1" Cut="0.0000000000000000e+00" cType="1" res="-1.5315025113523006e-02" rms="3.1358629465103149e-01" purity="5.9776264429092407e-01" nType="-99"/>
          </Node>
        </Node>
        <Node pos="r" depth="1" NCoef="0" IVar="1" Cut="4.3812304735183716e-02" cType="1" res="3.3580802846699953e-03" rms="3.0086591839790344e-01" purity="5.4829502105712891e-01" nType="0">
          <Node pos="l" depth="2" NCoef="0" IVar="0" Cut="1.3157652587890625e+03" cType="1" res="1.3364426791667938e-02" rms="2.9481399059295654e-01" purity="2.6247215270996094e-01" nType="0">
            <Node pos="l" depth="3" NCoef="0" IVar="-1" Cut="0.0000000000000000e+00" cType="1" res="-7.7150571160018444e-03" rms="2.1812449395656586e-01" purity="6.2642656266689301e-02" nType="-99"/>
            <Node pos="r" depth="3" NCoef="0" IVar="-1" Cut="0.0000000000000000e+00" cType="1" res="2.2458743304014206e-02" rms="3.5128328204154968e-01" purity="4.5063027739524841e-01" nType="-99"/>
          </Node>
          <Node pos="r" depth="2" NCoef="0" IVar="8" Cut="7.2938770055770874e-01" cType="1" res="-2.9652963858097792e-03" rms="3.0445882678031921e-01" purity="7.2891700267791748e-01" nType="0">
            <Node pos="l" depth="3" NCoef="0" IVar="-1" Cut="0.0000000000000000e+00" cType="1" res="1.5403081488329917e-04" rms="2.9662075638771057e-01" purity="7.6136660575866699e-01" nType="-99"/>
            <Node pos="r" depth="3" NCoef="0" IVar="-1" Cut="0.0000000000000000e+00" cType="1" res="-1.5288996510207653e-02" rms="3.3547690510749817e-01" purity="5.9071546792984009e-01" nType="-99"/>
          </Node>
        </Node>
      </Node>
    </BinaryTree>
    <BinaryTree type="DecisionTree" boostWeight="1.0000000000000000e+00" itree="85">
      <Node pos="s" depth="0" NCoef="0" IVar="10" Cut="1.1998466253280640e+00" cType="1" res="-9.1318640625104308e-04" rms="2.9411551356315613e-01" purity="4.9787852168083191e-01" nType="0">
        <Node pos="l" depth="1" NCoef="0" IVar="10" Cut="-7.0483392477035522e-01" cType="1" res="2.3501450195908546e-03" rms="2.9418155550956726e-01" purity="5.2568238973617554e-01" nType="0">
          <Node pos="l" depth="2" NCoef="0" IVar="7" Cut="6.9220882654190063e-01" cType="1" res="-7.0480890572071075e-03" rms="2.8716215491294861e-01" purity="4.3520954251289368e-01" nType="0">
            <Node pos="l" depth="3" NCoef="0" IVar="-1" Cut="0.0000000000000000e+00" cType="1" res="-2.6291555259376764e-03" rms="2.9481375217437744e-01" purity="4.7873556613922119e-01" nType="-99"/>
            <Node pos="r" depth="3" NCoef="0" IVar="-1" Cut="0.0000000000000000e+00" cType="1" res="-3.4152723848819733e-02" rms="2.5091207027435303e-01" purity="2.4923276901245117e-01" nType="-99"/>
          </Node>
          <Node pos="r" depth="2" NCoef="0" IVar="9" Cut="9.3203204870223999e-01" cType="1" res="7.2896238416433334e-03" rms="2.9768553376197815e-01" purity="5.7323265075683594e-01" nType="0">
            <Node pos="l" depth="3" NCoef="0" IVar="-1" Cut="0.0000000000000000e+00" cType="1" res="1.2944173067808151e-02" rms="2.9665631055831909e-01" purity="6.0980182886123657e-01" nType="-99"/>
            <Node pos="r" depth="3" NCoef="0" IVar="-1" Cut="0.0000000000000000e+00" cType="1" res="-1.3135267421603203e-02" rms="3.0136662721633911e-01" purity="4.1309130191802979e-01" nType="-99"/>
          </Node>
        </Node>
        <Node pos="r" depth="1" NCoef="0" IVar="0" Cut="1.5044346923828125e+03" cType="1" res="-1.7875613644719124e-02" rms="2.9318746924400330e-01" purity="3.5335737466812134e-01" nType="0">
          <Node pos="l" depth="2" NCoef="0" IVar="5" Cut="6.8030937194824219e+01" cType="1" res="-2.7589142322540283e-02" rms="2.6675409078598022e-01" purity="1.5256148576736450e-01" nType="0">
            <Node pos="l" depth="3" NCoef="0" IVar="-1" Cut="0.0000000000000000e+00" cType="1" res="-1.5921423211693764e-02" rms="2.1785156428813934e-01" purity="8.9238069951534271e-02" nType="-99"/>
            <Node pos="r" depth="3" NCoef="0" IVar="-1" Cut="0.0000000000000000e+00" cType="1" res="-4.6339649707078934e-02" rms="3.2479900121688843e-01" purity="2.4742597341537476e-01" nType="-99"/>
          </Node>
          <Node pos="r" depth="2" NCoef="0" IVar="7" Cut="-3.2630853354930878e-02" cType="1" res="-2.0762539934366941e-03" rms="3.3110472559928894e-01" purity="6.7995816469192505e-01" nType="0">
            <Node pos="l" depth="3" NCoef="0" IVar="-1" Cut="0.0000000000000000e+00" cType="1" res="-2.0668130367994308e-02" rms="3.0738759040832520e-01" purity="6.6306358575820923e-01" nType="-99"/>
            <Node pos="r" depth="3" NCoef="0" IVar="-1" Cut="0.0000000000000000e+00" cType="1" res="1.1621967889368534e-02" rms="3.4751713275909424e-01" purity="6.9292378425598145e-01" nType="-99"/>
          </Node>
        </Node>
      </Node>
    </BinaryTree>
    <BinaryTree type="DecisionTree" boostWeight="1.0000000000000000e+00" itree="86">
      <Node pos="s" depth="0" NCoef="0" IVar="0" Cut="2.5835295410156250e+03" cType="1" res="8.3772878861054778e-04" rms="2.9545608162879944e-01" purity="5.0086665153503418e-01" nType="0">
        <Node pos="l" depth="1" NCoef="0" IVar="2" Cut="6.5273065185546875e+02" cType="1" res="-1.0443388600833714e-04" rms="2.9774767160415649e-01" purity="4.8499754071235657e-01" nType="0">
          <Node pos="l" depth="2" NCoef="0" IVar="0" Cut="1.4794407958984375e+03" cType="1" res="1.2880978174507618e-03" rms="2.9607442021369934e-01" purity="4.8697414994239807e-01" nType="0">
            <Node pos="l" depth="3" NCoef="0" IVar="-1" Cut="0.0000000000000000e+00" cType="1" res="-4.5894621871411800e-03" rms="3.0227425694465637e-01" purity="2.2937235236167908e-01" nType="-99"/>
            <Node pos="r" depth="3" NCoef="0" IVar="-1" Cut="0.0000000000000000e+00" cType="1" res="9.2557501047849655e-03" rms="2.8838974237442017e-01" purity="7.9327160120010376e-01" nType="-99"/>
          </Node>
          <Node pos="r" depth="2" NCoef="0" IVar="-1" Cut="0.0000000000000000e+00" cType="1" res="-2.6228317990899086e-02" rms="3.3311167359352112e-01" purity="4.3837910890579224e-01" nType="-99"/>
        </Node>
        <Node pos="r" depth="1" NCoef="0" IVar="-1" Cut="0.0000000000000000e+00" cType="1" res="3.4195080399513245e-02" rms="2.2783491015434265e-01" purity="9.0690356492996216e-01" nType="-99"/>
      </Node>
    </BinaryTree>
    <BinaryTree type="DecisionTree" boostWeight="1.0000000000000000e+00" itree="87">
      <Node pos="s" depth="0" NCoef="0" IVar="11" Cut="5.9010320901870728e-01" cType="1" res="1.3258273247629404e-03" rms="2.9628846049308777e-01" purity="5.0540441274642944e-01" nType="0">
        <Node pos="l" depth="1" NCoef="0" IVar="7" Cut="9.6909111738204956e-01" cType="1" res="4.2330739088356495e-03" rms="2.9584252834320068e-01" purity="4.6437045931816101e-01" nType="0">
          <Node pos="l" depth="2" NCoef="0" IVar="7" Cut="-1.6438288688659668e+00" cType="1" res="6.9033964537084103e-03" rms="3.0404445528984070e-01" purity="5.1249432563781738e-01" nType="0">
            <Node pos="l" depth="3" NCoef="0" IVar="-1" Cut="0.0000000000000000e+00" cType="1" res="-5.3562652319669724e-02" rms="1.6995768249034882e-01" purity="5.5404812097549438e-02" nType="-99"/>
            <Node pos="r" depth="3" NCoef="0" IVar="-1" Cut="0.0000000000000000e+00" cType="1" res="8.9896144345402718e-03" rms="3.0969882011413574e-01" purity="5.3789490461349487e-01" nType="-99"/>
          </Node>
          <Node pos="r" depth="2" NCoef="0" IVar="6" Cut="5.7308734893798828e+01" cType="1" res="-1.2042544782161713e-02" rms="2.3921868205070496e-01" purity="1.7105540633201599e-01" nType="0">
            <Node pos="l" depth="3" NCoef="0" IVar="-1" Cut="0.0000000000000000e+00" cType="1" res="-3.3157013356685638e-02" rms="2.0276315510272980e-01" purity="6.0944974422454834e-02" nType="-99"/>
            <Node pos="r" depth="3" NCoef="0" IVar="-1" Cut="0.0000000000000000e+00" cType="1" res="3.1668369192630053e-03" rms="3.3794993162155151e-01" purity="5.6267762184143066e-01" nType="-99"/>
          </Node>
        </Node>
        <Node pos="r" depth="1" NCoef="0" IVar="0" Cut="1.5449255371093750e+03" cType="1" res="-1.3685050420463085e-02" rms="2.9812964797019958e-01" purity="7.1727323532104492e-01" nType="0">
          <Node pos="l" depth="2" NCoef="0" IVar="-1" Cut="0.0000000000000000e+00" cType="1" res="-2.4073179811239243e-02" rms="3.4829449653625488e-01" purity="4.7147479653358459e-01" nType="-99"/>
          <Node pos="r" depth="2" NCoef="0" IVar="9" Cut="1.3295641541481018e-01" cType="1" res="-3.4060054458677769e-03" rms="2.6242217421531677e-01" purity="8.6687439680099487e-01" nType="0">
            <Node pos="l" depth="3" NCoef="0" IVar="-1" Cut="0.0000000000000000e+00" cType="1" res="8.7126363068819046e-03" rms="2.5082659721374512e-01" purity="8.8078212738037109e-01" nType="-99"/>
            <Node pos="r" depth="3" NCoef="0" IVar="-1" Cut="0.0000000000000000e+00" cType="1" res="-2.0349122583866119e-02" rms="2.7523598074913025e-01" purity="8.5023039579391479e-01" nType="-99"/>
          </Node>
        </Node>
      </Node>
    </BinaryTree>
    <BinaryTree type="DecisionTree" boostWeight="1.0000000000000000e+00" itree="88">
      <Node pos="s" depth="0" NCoef="0" IVar="7" Cut="-1.1595867872238159e+00" cType="1" res="1.5106801874935627e-03" rms="2.9610994458198547e-01" purity="5.0143593549728394e-01" nType="0">
        <Node pos="l" depth="1" NCoef="0" IVar="6" Cut="5.8446807861328125e+01" cType="1" res="-1.4966996386647224e-02" rms="2.2625279426574707e-01" purity="1.5928280353546143e-01" nType="0">
          <Node pos="l" depth="2" NCoef="0" IVar="4" Cut="1.2062870025634766e+02" cType="1" res="-2.2946888580918312e-02" rms="1.7647469043731689e-01" purity="4.2842239141464233e-02" nType="0">
            <Node pos="l" depth="3" NCoef="0" IVar="-1" Cut="0.0000000000000000e+00" cType="1" res="-1.9663373008370399e-02" rms="1.2629598379135132e-01" purity="1.9077794626355171e-02" nType="-99"/>
            <Node pos="r" depth="3" NCoef="0" IVar="-1" Cut="0.0000000000000000e+00" cType="1" res="-6.1109323054552078e-02" rms="2.1871848404407501e-01" purity="7.0339970290660858e-02" nType="-99"/>
          </Node>
          <Node pos="r" depth="2" NCoef="0" IVar="-1" Cut="0.0000000000000000e+00" cType="1" res="6.6455826163291931e-03" rms="3.2952976226806641e-01" purity="4.9686199426651001e-01" nType="-99"/>
        </Node>
        <Node pos="r" depth="1" NCoef="0" IVar="5" Cut="8.3191284179687500e+01" cType="1" res="3.4443000331521034e-03" rms="3.0319568514823914e-01" purity="5.4158687591552734e-01" nType="0">
          <Node pos="l" depth="2" NCoef="0" IVar="7" Cut="7.2508364915847778e-01" cType="1" res="9.4601437449455261e-03" rms="3.2597801089286804e-01" purity="2.9319816827774048e-01" nType="0">
            <Node pos="l" depth="3" NCoef="0" IVar="-1" Cut="0.0000000000000000e+00" cType="1" res="1.2429204769432545e-02" rms="3.5256904363632202e-01" purity="3.5692465305328369e-01" nType="-99"/>
            <Node pos="r" depth="3" NCoef="0" IVar="-1" Cut="0.0000000000000000e+00" cType="1" res="-6.5023871138691902e-03" rms="2.4401393532752991e-01" purity="1.2912814319133759e-01" nType="-99"/>
          </Node>
          <Node pos="r" depth="2" NCoef="0" IVar="0" Cut="2.0316223144531250e+03" cType="1" res="-3.1752609647810459e-03" rms="2.7581050992012024e-01" purity="8.1490248441696167e-01" nType="0">
            <Node pos="l" depth="3" NCoef="0" IVar="-1" Cut="0.0000000000000000e+00" cType="1" res="-1.0911463759839535e-02" rms="3.1322896480560303e-01" purity="7.4487149715423584e-01" nType="-99"/>
            <Node pos="r" depth="3" NCoef="0" IVar="-1" Cut="0.0000000000000000e+00" cType="1" res="2.5102926418185234e-02" rms="1.8039292097091675e-01" purity="9.5220869779586792e-01" nType="-99"/>
          </Node>
        </Node>
      </Node>
    </BinaryTree>
    <BinaryTree type="DecisionTree" boostWeight="1.0000000000000000e+00" itree="89">
      <Node pos="s" depth="0" NCoef="0" IVar="2" Cut="3.3976638793945312e+02" cType="1" res="-1.9468978280201554e-03" rms="2.9492351412773132e-01" purity="4.9655607342720032e-01" nType="0">
        <Node pos="l" depth="1" NCoef="0" IVar="10" Cut="-9.3332934379577637e-01" cType="1" res="4.6727028675377369e-03" rms="2.9674354195594788e-01" purity="4.2321208119392395e-01" nType="0">
          <Node pos="l" depth="2" NCoef="0" IVar="4" Cut="1.1750945281982422e+02" cType="1" res="-6.9977953098714352e-03" rms="2.9085901379585266e-01" purity="3.2365113496780396e-01" nType="0">
            <Node pos="l" depth="3" NCoef="0" IVar="-1" Cut="0.0000000000000000e+00" cType="1" res="1.7831571400165558e-02" rms="2.4950936436653137e-01" purity="1.0680896788835526e-01" nType="-99"/>
            <Node pos="r" depth="3" NCoef="0" IVar="-1" Cut="0.0000000000000000e+00" cType="1" res="-1.8152663484215736e-02" rms="3.1735113263130188e-01" purity="4.8365390300750732e-01" nType="-99"/>
          </Node>
          <Node pos="r" depth="2" NCoef="0" IVar="9" Cut="9.3321639299392700e-01" cType="1" res="8.3318892866373062e-03" rms="2.9847073554992676e-01" purity="4.5442855358123779e-01" nType="0">
            <Node pos="l" depth="3" NCoef="0" IVar="-1" Cut="0.0000000000000000e+00" cType="1" res="1.4380996115505695e-02" rms="3.0040907859802246e-01" purity="4.9708631634712219e-01" nType="-99"/>
            <Node pos="r" depth="3" NCoef="0" IVar="-1" Cut="0.0000000000000000e+00" cType="1" res="-1.1390408501029015e-02" rms="2.9047438502311707e-01" purity="2.9639655351638794e-01" nType="-99"/>
          </Node>
        </Node>
        <Node pos="r" depth="1" NCoef="0" IVar="0" Cut="2.0498376464843750e+03" cType="1" res="-7.6408497989177704e-03" rms="2.9322940111160278e-01" purity="5.5964404344558716e-01" nType="0">
          <Node pos="l" depth="2" NCoef="0" IVar="1" Cut="3.9102066308259964e-02" cType="1" res="-1.4851599000394344e-02" rms="3.1469824910163879e-01" purity="4.2170408368110657e-01" nType="0">
            <Node pos="l" depth="3" NCoef="0" IVar="-1" Cut="0.0000000000000000e+00" cType="1" res="-3.3341783564537764e-03" rms="2.7906477451324463e-01" purity="1.6923193633556366e-01" nType="-99"/>
            <Node pos="r" depth="3" NCoef="0" IVar="-1" Cut="0.0000000000000000e+00" cType="1" res="-2.2246984764933586e-02" rms="3.4331923723220825e-01" purity="6.4938354492187500e-01" nType="-99"/>
          </Node>
          <Node pos="r" depth="2" NCoef="0" IVar="4" Cut="3.1901004028320312e+02" cType="1" res="1.0049350559711456e-02" rms="2.3135173320770264e-01" purity="8.9805346727371216e-01" nType="0">
            <Node pos="l" depth="3" NCoef="0" IVar="-1" Cut="0.0000000000000000e+00" cType="1" res="2.1099703386425972e-02" rms="2.3274295032024384e-01" purity="8.9343643188476562e-01" nType="-99"/>
            <Node pos="r" depth="3" NCoef="0" IVar="-1" Cut="0.0000000000000000e+00" cType="1" res="-7.9086124897003174e-03" rms="2.2540675103664398e-01" purity="9.1555863618850708e-01" nType="-99"/>
          </Node>
        </Node>
      </Node>
    </BinaryTree>
    <BinaryTree type="DecisionTree" boostWeight="1.0000000000000000e+00" itree="90">
      <Node pos="s" depth="0" NCoef="0" IVar="4" Cut="9.8190589904785156e+01" cType="1" res="1.6456199809908867e-03" rms="2.9440999031066895e-01" purity="5.0311225652694702e-01" nType="0">
        <Node pos="l" depth="1" NCoef="0" IVar="9" Cut="9.3229681253433228e-01" cType="1" res="-1.0434656403958797e-02" rms="2.0544959604740143e-01" purity="6.3724435865879059e-02" nType="0">
          <Node pos="l" depth="2" NCoef="0" IVar="9" Cut="-1.3775269985198975e+00" cType="1" res="-1.4383316040039062e-02" rms="2.0730322599411011e-01" purity="6.4665019512176514e-02" nType="0">
            <Node pos="l" depth="3" NCoef="0" IVar="-1" Cut="0.0000000000000000e+00" cType="1" res="5.8090286329388618e-03" rms="1.8439742922782898e-01" purity="4.1808083653450012e-02" nType="-99"/>
            <Node pos="r" depth="3" NCoef="0" IVar="-1" Cut="0.0000000000000000e+00" cType="1" res="-3.1613159924745560e-02" rms="2.1315841376781464e-01" purity="7.1182183921337128e-02" nType="-99"/>
          </Node>
          <Node pos="r" depth="2" NCoef="0" IVar="-1" Cut="0.0000000000000000e+00" cType="1" res="2.6797368191182613e-03" rms="1.9945526123046875e-01" purity="6.0962181538343430e-02" nType="-99"/>
        </Node>
        <Node pos="r" depth="1" NCoef="0" IVar="1" Cut="4.3795950710773468e-02" cType="1" res="4.1042398661375046e-03" rms="3.0934080481529236e-01" purity="5.9253799915313721e-01" nType="0">
          <Node pos="l" depth="2" NCoef="0" IVar="2" Cut="5.5882666015625000e+02" cType="1" res="1.3143485412001610e-02" rms="3.1434515118598938e-01" purity="2.9545265436172485e-01" nType="0">
            <Node pos="l" depth="3" NCoef="0" IVar="-1" Cut="0.0000000000000000e+00" cType="1" res="1.9601833075284958e-02" rms="3.0842801928520203e-01" purity="2.7367311716079712e-01" nType="-99"/>
            <Node pos="r" depth="3" NCoef="0" IVar="-1" Cut="0.0000000000000000e+00" cType="1" res="-1.2751928530633450e-02" rms="3.3967670798301697e-01" purity="3.9952003955841064e-01" nType="-99"/>
          </Node>
          <Node pos="r" depth="2" NCoef="0" IVar="11" Cut="-2.4476764202117920e+00" cType="1" res="-1.1384040117263794e-03" rms="3.0627867579460144e-01" purity="7.6484358310699463e-01" nType="0">
            <Node pos="l" depth="3" NCoef="0" IVar="-1" Cut="0.0000000000000000e+00" cType="1" res="8.0143259838223457e-03" rms="3.8137924671173096e-01" purity="4.9154409766197205e-01" nType="-99"/>
            <Node pos="r" depth="3" NCoef="0" IVar="-1" Cut="0.0000000000000000e+00" cType="1" res="-8.9732473716139793e-03" rms="2.6938709616661072e-01" purity="8.7671762704849243e-01" nType="-99"/>
          </Node>
        </Node>
      </Node>
    </BinaryTree>
    <BinaryTree type="DecisionTree" boostWeight="1.0000000000000000e+00" itree="91">
      <Node pos="s" depth="0" NCoef="0" IVar="7" Cut="1.7355016469955444e+00" cType="1" res="2.3084296844899654e-04" rms="2.9455459117889404e-01" purity="4.9900308251380920e-01" nType="0">
        <Node pos="l" depth="1" NCoef="0" IVar="7" Cut="-2.0091247558593750e-01" cType="1" res="1.3569638831540942e-03" rms="2.9876208305358887e-01" purity="5.1626086235046387e-01" nType="0">
          <Node pos="l" depth="2" NCoef="0" IVar="5" Cut="9.0401473999023438e+01" cType="1" res="-5.9839203022420406e-03" rms="2.9067784547805786e-01" purity="4.5070648193359375e-01" nType="0">
            <Node pos="l" depth="3" NCoef="0" IVar="-1" Cut="0.0000000000000000e+00" cType="1" res="-3.6774854379473254e-05" rms="2.9759618639945984e-01" purity="2.5539875030517578e-01" nType="-99"/>
            <Node pos="r" depth="3" NCoef="0" IVar="-1" Cut="0.0000000000000000e+00" cType="1" res="-2.0377507433295250e-02" rms="2.7792689204216003e-01" purity="7.9053580760955811e-01" nType="-99"/>
          </Node>
          <Node pos="r" depth="2" NCoef="0" IVar="4" Cut="1.4117092895507812e+02" cType="1" res="6.6260206513106823e-03" rms="3.0432322621345520e-01" purity="5.6331378221511841e-01" nType="0">
            <Node pos="l" depth="3" NCoef="0" IVar="-1" Cut="0.0000000000000000e+00" cType="1" res="1.9192771986126900e-02" rms="3.1573429703712463e-01" purity="2.6678246259689331e-01" nType="-99"/>
            <Node pos="r" depth="3" NCoef="0" IVar="-1" Cut="0.0000000000000000e+00" cType="1" res="-8.2327163545414805e-04" rms="2.9656949639320374e-01" purity="7.5269359350204468e-01" nType="-99"/>
          </Node>
        </Node>
        <Node pos="r" depth="1" NCoef="0" IVar="-1" Cut="0.0000000000000000e+00" cType="1" res="-6.7474566400051117e-02" rms="1.4606505632400513e-01" purity="5.2782375365495682e-02" nType="-99"/>
      </Node>
    </BinaryTree>
    <BinaryTree type="DecisionTree" boostWeight="1.0000000000000000e+00" itree="92">
      <Node pos="s" depth="0" NCoef="0" IVar="2" Cut="5.7749218750000000e+02" cType="1" res="-1.4092404162511230e-03" rms="2.9473334550857544e-01" purity="4.9811565876007080e-01" nType="0">
        <Node pos="l" depth="1" NCoef="0" IVar="0" Cut="1.5457320556640625e+03" cType="1" res="3.1231727916747332e-04" rms="2.9191356897354126e-01" purity="4.9034488201141357e-01" nType="0">
          <Node pos="l" depth="2" NCoef="0" IVar="4" Cut="1.4763865661621094e+02" cType="1" res="-4.7637550160288811e-03" rms="3.1080320477485657e-01" purity="2.5857010483741760e-01" nType="0">
            <Node pos="l" depth="3" NCoef="0" IVar="-1" Cut="0.0000000000000000e+00" cType="1" res="2.0727412775158882e-03" rms="2.8677815198898315e-01" purity="1.8398566544055939e-01" nType="-99"/>
            <Node pos="r" depth="3" NCoef="0" IVar="-1" Cut="0.0000000000000000e+00" cType="1" res="-1.4710634946823120e-02" rms="3.6028873920440674e-01" purity="4.3277522921562195e-01" nType="-99"/>
          </Node>
          <Node pos="r" depth="2" NCoef="0" IVar="5" Cut="8.2946952819824219e+01" cType="1" res="8.2666771486401558e-03" rms="2.5936278700828552e-01" purity="8.5354310274124146e-01" nType="0">
            <Node pos="l" depth="3" NCoef="0" IVar="-1" Cut="0.0000000000000000e+00" cType="1" res="1.9710814580321312e-02" rms="3.5270583629608154e-01" purity="6.7865365743637085e-01" nType="-99"/>
            <Node pos="r" depth="3" NCoef="0" IVar="-1" Cut="0.0000000000000000e+00" cType="1" res="5.2903839386999607e-03" rms="2.2427651286125183e-01" purity="9.0513169765472412e-01" nType="-99"/>
          </Node>
        </Node>
        <Node pos="r" depth="1" NCoef="0" IVar="1" Cut="1.7068564891815186e-02" cType="1" res="-1.6384337097406387e-02" rms="3.1781607866287231e-01" purity="5.6571012735366821e-01" nType="0">
          <Node pos="l" depth="2" NCoef="0" IVar="-1" Cut="0.0000000000000000e+00" cType="1" res="8.1172892823815346e-03" rms="3.0395326018333435e-01" purity="2.1695378422737122e-01" nType="-99"/>
          <Node pos="r" depth="2" NCoef="0" IVar="11" Cut="-1.3436485528945923e+00" cType="1" res="-2.6425965130329132e-02" rms="3.2272017002105713e-01" purity="7.0696318149566650e-01" nType="0">
            <Node pos="l" depth="3" NCoef="0" IVar="-1" Cut="0.0000000000000000e+00" cType="1" res="-3.9386138319969177e-02" rms="3.6421269178390503e-01" purity="5.0147968530654907e-01" nType="-99"/>
            <Node pos="r" depth="3" NCoef="0" IVar="-1" Cut="0.0000000000000000e+00" cType="1" res="-5.7198028080165386e-03" rms="2.8696939349174500e-01" purity="8.5602819919586182e-01" nType="-99"/>
          </Node>
        </Node>
      </Node>
    </BinaryTree>
    <BinaryTree type="DecisionTree" boostWeight="1.0000000000000000e+00" itree="93">
      <Node pos="s" depth="0" NCoef="0" IVar="9" Cut="1.7325356006622314e+00" cType="1" res="-3.1526554375886917e-03" rms="2.9176288843154907e-01" purity="4.9890476465225220e-01" nType="0">
        <Node pos="l" depth="1" NCoef="0" IVar="0" Cut="1.6919875488281250e+03" cType="1" res="-2.0792696159332991e-03" rms="2.9433980584144592e-01" purity="5.1946365833282471e-01" nType="0">
          <Node pos="l" depth="2" NCoef="0" IVar="8" Cut="1.3344968855381012e-01" cType="1" res="-5.5522620677947998e-03" rms="3.1552138924598694e-01" purity="3.2927152514457703e-01" nType="0">
            <Node pos="l" depth="3" NCoef="0" IVar="-1" Cut="0.0000000000000000e+00" cType="1" res="-1.2060725130140781e-02" rms="3.1240883469581604e-01" purity="3.3023133873939514e-01" nType="-99"/>
            <Node pos="r" depth="3" NCoef="0" IVar="-1" Cut="0.0000000000000000e+00" cType="1" res="2.7457482647150755e-03" rms="3.1906503438949585e-01" purity="3.2810440659523010e-01" nType="-99"/>
          </Node>
          <Node pos="r" depth="2" NCoef="0" IVar="3" Cut="4.1710568237304688e+02" cType="1" res="4.0624812245368958e-03" rms="2.5245308876037598e-01" purity="8.5580557584762573e-01" nType="0">
            <Node pos="l" depth="3" NCoef="0" IVar="-1" Cut="0.0000000000000000e+00" cType="1" res="1.2105440720915794e-02" rms="2.4524602293968201e-01" purity="8.6892956495285034e-01" nType="-99"/>
            <Node pos="r" depth="3" NCoef="0" IVar="-1" Cut="0.0000000000000000e+00" cType="1" res="-1.9936036318540573e-02" rms="2.8500932455062866e-01" purity="7.8983253240585327e-01" nType="-99"/>
          </Node>
        </Node>
        <Node pos="r" depth="1" NCoef="0" IVar="9" Cut="2.0880379676818848e+00" cType="1" res="-2.1313762292265892e-02" rms="2.4335573613643646e-01" purity="1.5105877816677094e-01" nType="0">
          <Node pos="l" depth="2" NCoef="0" IVar="-1" Cut="0.0000000000000000e+00" cType="1" res="-1.1250081472098827e-02" rms="2.5925824046134949e-01" purity="1.9418738782405853e-01" nType="-99"/>
          <Node pos="r" depth="2" NCoef="0" IVar="-1" Cut="0.0000000000000000e+00" cType="1" res="-5.0285335630178452e-02" rms="2.2589752078056335e-01" purity="1.0855247080326080e-01" nType="-99"/>
        </Node>
      </Node>
    </BinaryTree>
    <BinaryTree type="DecisionTree" boostWeight="1.0000000000000000e+00" itree="94">
      <Node pos="s" depth="0" NCoef="0" IVar="2" Cut="7.4322747802734375e+02" cType="1" res="-8.0530626291874796e-05" rms="2.9571515321731567e-01" purity="5.0066238641738892e-01" nType="0">
        <Node pos="l" depth="1" NCoef="0" IVar="2" Cut="2.5173805236816406e+02" cType="1" res="9.7927660681307316e-04" rms="2.9438844323158264e-01" purity="4.9844717979431152e-01" nType="0">
          <Node pos="l" depth="2" NCoef="0" IVar="10" Cut="6.6701716184616089e-01" cType="1" res="1.6764542087912560e-02" rms="2.9971137642860413e-01" purity="3.7779515981674194e-01" nType="0">
            <Node pos="l" depth="3" NCoef="0" IVar="-1" Cut="0.0000000000000000e+00" cType="1" res="2.8972813859581947e-02" rms="3.0996704101562500e-01" purity="4.0765529870986938e-01" nType="-99"/>
            <Node pos="r" depth="3" NCoef="0" IVar="-1" Cut="0.0000000000000000e+00" cType="1" res="-7.7077737078070641e-03" rms="2.7382460236549377e-01" purity="3.1064337491989136e-01" nType="-99"/>
          </Node>
          <Node pos="r" depth="2" NCoef="0" IVar="0" Cut="2.0718198242187500e+03" cType="1" res="-2.4027766194194555e-03" rms="2.9312488436698914e-01" purity="5.2429735660552979e-01" nType="0">
            <Node pos="l" depth="3" NCoef="0" IVar="-1" Cut="0.0000000000000000e+00" cType="1" res="-5.4612541571259499e-03" rms="3.0869317054748535e-01" purity="4.4066330790519714e-01" nType="-99"/>
            <Node pos="r" depth="3" NCoef="0" IVar="-1" Cut="0.0000000000000000e+00" cType="1" res="2.5576286017894745e-02" rms="1.9705727696418762e-01" purity="9.4234502315521240e-01" nType="-99"/>
          </Node>
        </Node>
        <Node pos="r" depth="1" NCoef="0" IVar="-1" Cut="0.0000000000000000e+00" cType="1" res="-2.7631500735878944e-02" rms="3.3421641588211060e-01" purity="5.7275718450546265e-01" nType="-99"/>
      </Node>
    </BinaryTree>
    <BinaryTree type="DecisionTree" boostWeight="1.0000000000000000e+00" itree="95">
      <Node pos="s" depth="0" NCoef="0" IVar="4" Cut="2.3634298706054688e+02" cType="1" res="2.0420651417225599e-03" rms="2.9460036754608154e-01" purity="4.9978789687156677e-01" nType="0">
        <Node pos="l" depth="1" NCoef="0" IVar="7" Cut="-9.2186522483825684e-01" cType="1" res="4.1629360057413578e-03" rms="3.0115258693695068e-01" purity="4.3448320031166077e-01" nType="0">
          <Node pos="l" depth="2" NCoef="0" IVar="8" Cut="1.3384898006916046e-01" cType="1" res="-6.4970194362103939e-03" rms="2.5444591045379639e-01" purity="1.9673599302768707e-01" nType="0">
            <Node pos="l" depth="3" NCoef="0" IVar="-1" Cut="0.0000000000000000e+00" cType="1" res="4.9044084735214710e-03" rms="2.7111205458641052e-01" purity="2.3187585175037384e-01" nType="-99"/>
            <Node pos="r" depth="3" NCoef="0" IVar="-1" Cut="0.0000000000000000e+00" cType="1" res="-3.5760469734668732e-02" rms="2.2652344405651093e-01" purity="1.4443284273147583e-01" nType="-99"/>
          </Node>
          <Node pos="r" depth="2" NCoef="0" IVar="8" Cut="1.4667748212814331e+00" cType="1" res="6.2461751513183117e-03" rms="3.0941507220268250e-01" purity="4.8094531893730164e-01" nType="0">
            <Node pos="l" depth="3" NCoef="0" IVar="-1" Cut="0.0000000000000000e+00" cType="1" res="7.8336633741855621e-03" rms="3.1469663977622986e-01" purity="5.1192599534988403e-01" nType="-99"/>
            <Node pos="r" depth="3" NCoef="0" IVar="-1" Cut="0.0000000000000000e+00" cType="1" res="-1.5605124644935131e-02" rms="2.4285154044628143e-01" purity="1.3846628367900848e-01" nType="-99"/>
          </Node>
        </Node>
        <Node pos="r" depth="1" NCoef="0" IVar="0" Cut="2.0230104980468750e+03" cType="1" res="-9.3639334663748741e-03" rms="2.5620725750923157e-01" purity="8.5099512338638306e-01" nType="0">
          <Node pos="l" depth="2" NCoef="0" IVar="10" Cut="1.3471068441867828e-01" cType="1" res="-3.0768752098083496e-02" rms="3.1485623121261597e-01" purity="7.1717947721481323e-01" nType="0">
            <Node pos="l" depth="3" NCoef="0" IVar="-1" Cut="0.0000000000000000e+00" cType="1" res="-4.8245985060930252e-02" rms="3.1505471467971802e-01" purity="7.1084004640579224e-01" nType="-99"/>
            <Node pos="r" depth="3" NCoef="0" IVar="-1" Cut="0.0000000000000000e+00" cType="1" res="-1.0709611698985100e-02" rms="3.1348252296447754e-01" purity="7.2417736053466797e-01" nType="-99"/>
          </Node>
          <Node pos="r" depth="2" NCoef="0" IVar="8" Cut="-3.9887803792953491e-01" cType="1" res="2.6419803034514189e-03" rms="2.1553489565849304e-01" purity="9.2605203390121460e-01" nType="0">
            <Node pos="l" depth="3" NCoef="0" IVar="-1" Cut="0.0000000000000000e+00" cType="1" res="-1.9247917458415031e-02" rms="2.3201423883438110e-01" purity="8.9649981260299683e-01" nType="-99"/>
            <Node pos="r" depth="3" NCoef="0" IVar="-1" Cut="0.0000000000000000e+00" cType="1" res="1.5298627316951752e-02" rms="2.0909988880157471e-01" purity="9.3662691116333008e-01" nType="-99"/>
          </Node>
        </Node>
      </Node>
    </BinaryTree>
    <BinaryTree type="DecisionTree" boostWeight="1.0000000000000000e+00" itree="96">
      <Node pos="s" depth="0" NCoef="0" IVar="8" Cut="1.4666250944137573e+00" cType="1" res="2.5193069595843554e-03" rms="2.9781991243362427e-01" purity="5.0109124183654785e-01" nType="0">
        <Node pos="l" depth="1" NCoef="0" IVar="4" Cut="1.9323054504394531e+02" cType="1" res="4.3341303244233131e-03" rms="3.0260118842124939e-01" purity="5.3242635726928711e-01" nType="0">
          <Node pos="l" depth="2" NCoef="0" IVar="7" Cut="-1.7045546770095825e+00" cType="1" res="7.8449314460158348e-03" rms="3.1372123956680298e-01" purity="3.9844900369644165e-01" nType="0">
            <Node pos="l" depth="3" NCoef="0" IVar="-1" Cut="0.0000000000000000e+00" cType="1" res="-4.7861982136964798e-02" rms="1.4600297808647156e-01" purity="3.8982201367616653e-02" nType="-99"/>
            <Node pos="r" depth="3" NCoef="0" IVar="-1" Cut="0.0000000000000000e+00" cType="1" res="8.8713355362415314e-03" rms="3.1926119327545166e-01" purity="4.1494441032409668e-01" nType="-99"/>
          </Node>
          <Node pos="r" depth="2" NCoef="0" IVar="0" Cut="1.8635152587890625e+03" cType="1" res="-3.1541336793452501e-03" rms="2.7724915742874146e-01" purity="8.1818956136703491e-01" nType="0">
            <Node pos="l" depth="3" NCoef="0" IVar="-1" Cut="0.0000000000000000e+00" cType="1" res="-1.4696914702653885e-02" rms="3.4250155091285706e-01" purity="6.5874439477920532e-01" nType="-99"/>
            <Node pos="r" depth="3" NCoef="0" IVar="-1" Cut="0.0000000000000000e+00" cType="1" res="9.4641847535967827e-03" rms="2.2749313712120056e-01" purity="9.1645240783691406e-01" nType="-99"/>
          </Node>
        </Node>
        <Node pos="r" depth="1" NCoef="0" IVar="7" Cut="-9.1972135007381439e-02" cType="1" res="-1.9290376454591751e-02" rms="2.3169293999671936e-01" purity="1.2452021986246109e-01" nType="0">
          <Node pos="l" depth="2" NCoef="0" IVar="-1" Cut="0.0000000000000000e+00" cType="1" res="-6.1400756239891052e-03" rms="2.2402334213256836e-01" purity="1.0750519484281540e-01" nType="-99"/>
          <Node pos="r" depth="2" NCoef="0" IVar="-1" Cut="0.0000000000000000e+00" cType="1" res="-4.7328740358352661e-02" rms="2.3729272186756134e-01" purity="1.3935141265392303e-01" nType="-99"/>
        </Node>
      </Node>
    </BinaryTree>
    <BinaryTree type="DecisionTree" boostWeight="1.0000000000000000e+00" itree="97">
      <Node pos="s" depth="0" NCoef="0" IVar="6" Cut="1.1056766510009766e+02" cType="1" res="-9.9037098698318005e-04" rms="2.9413470625877380e-01" purity="4.9879392981529236e-01" nType="0">
        <Node pos="l" depth="1" NCoef="0" IVar="8" Cut="1.7333526611328125e+00" cType="1" res="-2.6379278860986233e-03" rms="3.0483263731002808e-01" purity="4.5040658116340637e-01" nType="0">
          <Node pos="l" depth="2" NCoef="0" IVar="7" Cut="-1.1879429817199707e+00" cType="1" res="-1.5489492798224092e-03" rms="3.0991637706756592e-01" purity="4.7151631116867065e-01" nType="0">
            <Node pos="l" depth="3" NCoef="0" IVar="-1" Cut="0.0000000000000000e+00" cType="1" res="-2.2584950551390648e-02" rms="2.2418944537639618e-01" purity="1.3023193180561066e-01" nType="-99"/>
            <Node pos="r" depth="3" NCoef="0" IVar="-1" Cut="0.0000000000000000e+00" cType="1" res="-1.1946388258365914e-04" rms="3.1818607449531555e-01" purity="5.1038080453872681e-01" nType="-99"/>
          </Node>
          <Node pos="r" depth="2" NCoef="0" IVar="-1" Cut="0.0000000000000000e+00" cType="1" res="-4.3839562684297562e-02" rms="1.8910831212997437e-01" purity="6.7091681063175201e-02" nType="-99"/>
        </Node>
        <Node pos="r" depth="1" NCoef="0" IVar="-1" Cut="0.0000000000000000e+00" cType="1" res="4.1074987500905991e-02" rms="1.5462951362133026e-01" purity="9.6941214799880981e-01" nType="-99"/>
      </Node>
    </BinaryTree>
    <BinaryTree type="DecisionTree" boostWeight="1.0000000000000000e+00" itree="98">
      <Node pos="s" depth="0" NCoef="0" IVar="2" Cut="3.2583377075195312e+02" cType="1" res="-1.3286031316965818e-03" rms="2.9323187470436096e-01" purity="5.0000375509262085e-01" nType="0">
        <Node pos="l" depth="1" NCoef="0" IVar="3" Cut="1.8249481201171875e+02" cType="1" res="6.7612859420478344e-03" rms="2.9641994833946228e-01" purity="4.2877635359764099e-01" nType="0">
          <Node pos="l" depth="2" NCoef="0" IVar="0" Cut="1.1256083984375000e+03" cType="1" res="1.8461771309375763e-02" rms="2.8493911027908325e-01" purity="2.5229290127754211e-01" nType="0">
            <Node pos="l" depth="3" NCoef="0" IVar="-1" Cut="0.0000000000000000e+00" cType="1" res="5.1228958182036877e-03" rms="2.4210368096828461e-01" purity="7.3757104575634003e-02" nType="-99"/>
            <Node pos="r" depth="3" NCoef="0" IVar="-1" Cut="0.0000000000000000e+00" cType="1" res="3.7351921200752258e-02" rms="3.5028153657913208e-01" purity="5.9115177392959595e-01" nType="-99"/>
          </Node>
          <Node pos="r" depth="2" NCoef="0" IVar="7" Cut="-8.8122421503067017e-01" cType="1" res="-3.2946802675724030e-03" rms="3.0558529496192932e-01" purity="5.8045470714569092e-01" nType="0">
            <Node pos="l" depth="3" NCoef="0" IVar="-1" Cut="0.0000000000000000e+00" cType="1" res="3.2169044017791748e-02" rms="3.0168032646179199e-01" purity="3.8199582695960999e-01" nType="-99"/>
            <Node pos="r" depth="3" NCoef="0" IVar="-1" Cut="0.0000000000000000e+00" cType="1" res="-1.0096308775246143e-02" rms="3.0596464872360229e-01" purity="6.2152284383773804e-01" nType="-99"/>
          </Node>
        </Node>
        <Node pos="r" depth="1" NCoef="0" IVar="0" Cut="2.1754943847656250e+03" cType="1" res="-7.4166595004498959e-03" rms="2.9066118597984314e-01" purity="5.5360597372055054e-01" nType="0">
          <Node pos="l" depth="2" NCoef="0" IVar="1" Cut="3.8564648479223251e-02" cType="1" res="-1.0605553165078163e-02" rms="3.0556294322013855e-01" purity="4.6377360820770264e-01" nType="0">
            <Node pos="l" depth="3" NCoef="0" IVar="-1" Cut="0.0000000000000000e+00" cType="1" res="-1.1033992050215602e-03" rms="2.7817875146865845e-01" purity="1.9226187467575073e-01" nType="-99"/>
            <Node pos="r" depth="3" NCoef="0" IVar="-1" Cut="0.0000000000000000e+00" cType="1" res="-1.8021777272224426e-02" rms="3.2652607560157776e-01" purity="6.9127506017684937e-01" nType="-99"/>
          </Node>
          <Node pos="r" depth="2" NCoef="0" IVar="6" Cut="7.8976905822753906e+01" cType="1" res="5.1317005418241024e-03" rms="2.2209139168262482e-01" purity="9.0709835290908813e-01" nType="0">
            <Node pos="l" depth="3" NCoef="0" IVar="-1" Cut="0.0000000000000000e+00" cType="1" res="-1.0800571180880070e-02" rms="3.0161529779434204e-01" purity="8.0455720424652100e-01" nType="-99"/>
            <Node pos="r" depth="3" NCoef="0" IVar="-1" Cut="0.0000000000000000e+00" cType="1" res="4.4813439249992371e-02" rms="1.4798776805400848e-01" purity="9.7396719455718994e-01" nType="-99"/>
          </Node>
        </Node>
      </Node>
    </BinaryTree>
    <BinaryTree type="DecisionTree" boostWeight="1.0000000000000000e+00" itree="99">
      <Node pos="s" depth="0" NCoef="0" IVar="0" Cut="2.2744658203125000e+03" cType="1" res="-5.6951814331114292e-03" rms="2.8963670134544373e-01" purity="4.9373233318328857e-01" nType="0">
        <Node pos="l" depth="1" NCoef="0" IVar="2" Cut="4.3752877807617188e+02" cType="1" res="-7.5609078630805016e-03" rms="2.9633137583732605e-01" purity="4.4842505455017090e-01" nType="0">
          <Node pos="l" depth="2" NCoef="0" IVar="0" Cut="1.2215111083984375e+03" cType="1" res="-3.4435119014233351e-03" rms="2.9043102264404297e-01" purity="4.4405651092529297e-01" nType="0">
            <Node pos="l" depth="3" NCoef="0" IVar="-1" Cut="0.0000000000000000e+00" cType="1" res="-1.8428809940814972e-02" rms="2.4917592108249664e-01" purity="9.3576490879058838e-02" nType="-99"/>
            <Node pos="r" depth="3" NCoef="0" IVar="-1" Cut="0.0000000000000000e+00" cType="1" res="2.8775371611118317e-03" rms="3.1538018584251404e-01" purity="6.8360626697540283e-01" nType="-99"/>
          </Node>
          <Node pos="r" depth="2" NCoef="0" IVar="11" Cut="-2.1715571880340576e+00" cType="1" res="-2.0584013313055038e-02" rms="3.1391009688377380e-01" purity="4.6224269270896912e-01" nType="0">
            <Node pos="l" depth="3" NCoef="0" IVar="-1" Cut="0.0000000000000000e+00" cType="1" res="-7.0406827144324780e-03" rms="3.0914947390556335e-01" purity="2.7802601456642151e-01" nType="-99"/>
            <Node pos="r" depth="3" NCoef="0" IVar="-1" Cut="0.0000000000000000e+00" cType="1" res="-3.9212830364704132e-02" rms="3.1886225938796997e-01" purity="6.8551498651504517e-01" nType="-99"/>
          </Node>
        </Node>
        <Node pos="r" depth="1" NCoef="0" IVar="9" Cut="-4.0051123499870300e-01" cType="1" res="1.1703423224389553e-02" rms="2.1673028171062469e-01" purity="9.1623950004577637e-01" nType="0">
          <Node pos="l" depth="2" NCoef="0" IVar="-1" Cut="0.0000000000000000e+00" cType="1" res="4.0510306134819984e-03" rms="2.1994292736053467e-01" purity="8.9804565906524658e-01" nType="-99"/>
          <Node pos="r" depth="2" NCoef="0" IVar="7" Cut="1.9135673344135284e-01" cType="1" res="1.5967167913913727e-02" rms="2.1509827673435211e-01" purity="9.2463243007659912e-01" nType="0">
            <Node pos="l" depth="3" NCoef="0" IVar="-1" Cut="0.0000000000000000e+00" cType="1" res="1.2597464025020599e-02" rms="2.0999228954315186e-01" purity="9.2373985052108765e-01" nType="-99"/>
            <Node pos="r" depth="3" NCoef="0" IVar="-1" Cut="0.0000000000000000e+00" cType="1" res="5.1045984029769897e-02" rms="2.2193795442581177e-01" purity="9.2600643634796143e-01" nType="-99"/>
          </Node>
        </Node>
      </Node>
    </BinaryTree>
    <BinaryTree type="DecisionTree" boostWeight="1.0000000000000000e+00" itree="100">
      <Node pos="s" depth="0" NCoef="0" IVar="3" Cut="3.2544067382812500e+02" cType="1" res="1.6939433990046382e-03" rms="2.9315742850303650e-01" purity="4.9855679273605347e-01" nType="0">
        <Node pos="l" depth="1" NCoef="0" IVar="10" Cut="-2.2665779590606689e+00" cType="1" res="4.3141222558915615e-03" rms="2.9501435160636902e-01" purity="4.4937875866889954e-01" nType="0">
          <Node pos="l" depth="2" NCoef="0" IVar="-1" Cut="0.0000000000000000e+00" cType="1" res="-4.5758470892906189e-02" rms="2.5523355603218079e-01" purity="1.5388873219490051e-01" nType="-99"/>
          <Node pos="r" depth="2" NCoef="0" IVar="0" Cut="1.4818994140625000e+03" cType="1" res="5.4174587130546570e-03" rms="2.9615575075149536e-01" purity="4.5900824666023254e-01" nType="0">
            <Node pos="l" depth="3" NCoef="0" IVar="-1" Cut="0.0000000000000000e+00" cType="1" res="-1.0882783681154251e-03" rms="3.0447256565093994e-01" purity="2.3356737196445465e-01" nType="-99"/>
            <Node pos="r" depth="3" NCoef="0" IVar="-1" Cut="0.0000000000000000e+00" cType="1" res="1.7180470749735832e-02" rms="2.8325963020324707e-01" purity="7.8945428133010864e-01" nType="-99"/>
          </Node>
        </Node>
        <Node pos="r" depth="1" NCoef="0" IVar="0" Cut="2.0004916992187500e+03" cType="1" res="-1.1079645715653896e-02" rms="2.8358438611030579e-01" purity="7.3830378055572510e-01" nType="0">
          <Node pos="l" depth="2" NCoef="0" IVar="5" Cut="7.6217391967773438e+01" cType="1" res="-3.0272105708718300e-02" rms="3.4671178460121155e-01" purity="4.7988346219062805e-01" nType="0">
            <Node pos="l" depth="3" NCoef="0" IVar="-1" Cut="0.0000000000000000e+00" cType="1" res="-1.3088225387036800e-02" rms="3.4894436597824097e-01" purity="3.0348598957061768e-01" nType="-99"/>
            <Node pos="r" depth="3" NCoef="0" IVar="-1" Cut="0.0000000000000000e+00" cType="1" res="-3.8422532379627228e-02" rms="3.4399497509002686e-01" purity="6.5213692188262939e-01" nType="-99"/>
          </Node>
          <Node pos="r" depth="2" NCoef="0" IVar="9" Cut="3.9984649419784546e-01" cType="1" res="-3.3538849675096571e-04" rms="2.4046610295772552e-01" purity="8.8297176361083984e-01" nType="0">
            <Node pos="l" depth="3" NCoef="0" IVar="-1" Cut="0.0000000000000000e+00" cType="1" res="7.6012825593352318e-03" rms="2.2768223285675049e-01" purity="8.9414632320404053e-01" nType="-99"/>
            <Node pos="r" depth="3" NCoef="0" IVar="-1" Cut="0.0000000000000000e+00" cType="1" res="-1.7080061137676239e-02" rms="2.6731750369071960e-01" purity="8.5716235637664795e-01" nType="-99"/>
          </Node>
        </Node>
      </Node>
    </BinaryTree>
    <BinaryTree type="DecisionTree" boostWeight="1.0000000000000000e+00" itree="101">
      <Node pos="s" depth="0" NCoef="0" IVar="8" Cut="1.9999248981475830e+00" cType="1" res="2.5317238178104162e-03" rms="2.9447814822196960e-01" purity="5.0456613302230835e-01" nType="0">
        <Node pos="l" depth="1" NCoef="0" IVar="8" Cut="-1.8856375217437744e+00" cType="1" res="3.4310040064156055e-03" rms="2.9801151156425476e-01" purity="5.1869630813598633e-01" nType="0">
          <Node pos="l" depth="2" NCoef="0" IVar="-1" Cut="0.0000000000000000e+00" cType="1" res="-4.6570930629968643e-02" rms="1.7083397507667542e-01" purity="7.2146341204643250e-02" nType="-99"/>
          <Node pos="r" depth="2" NCoef="0" IVar="7" Cut="1.7357608079910278e+00" cType="1" res="4.3888702057301998e-03" rms="3.0185177922248840e-01" purity="5.3613138198852539e-01" nType="0">
            <Node pos="l" depth="3" NCoef="0" IVar="-1" Cut="0.0000000000000000e+00" cType="1" res="5.6655993685126305e-03" rms="3.0590808391571045e-01" purity="5.5313539505004883e-01" nType="-99"/>
            <Node pos="r" depth="3" NCoef="0" IVar="-1" Cut="0.0000000000000000e+00" cType="1" res="-5.0599392503499985e-02" rms="1.5639801323413849e-01" purity="8.1256315112113953e-02" nType="-99"/>
          </Node>
        </Node>
        <Node pos="r" depth="1" NCoef="0" IVar="-1" Cut="0.0000000000000000e+00" cType="1" res="-7.2298772633075714e-02" rms="1.2971518933773041e-01" purity="3.8934055715799332e-02" nType="-99"/>
      </Node>
    </BinaryTree>
    <BinaryTree type="DecisionTree" boostWeight="1.0000000000000000e+00" itree="102">
      <Node pos="s" depth="0" NCoef="0" IVar="7" Cut="4.3468210101127625e-01" cType="1" res="1.7059730598703027e-03" rms="2.9309400916099548e-01" purity="4.9656844139099121e-01" nType="0">
        <Node pos="l" depth="1" NCoef="0" IVar="7" Cut="-1.5165051221847534e+00" cType="1" res="4.7505060210824013e-03" rms="2.9624107480049133e-01" purity="5.4063296318054199e-01" nType="0">
          <Node pos="l" depth="2" NCoef="0" IVar="7" Cut="-1.8596023321151733e+00" cType="1" res="-1.4069069176912308e-02" rms="1.9492982327938080e-01" purity="9.3706704676151276e-02" nType="0">
            <Node pos="l" depth="3" NCoef="0" IVar="-1" Cut="0.0000000000000000e+00" cType="1" res="1.9910503178834915e-02" rms="2.0043146610260010e-01" purity="1.0465779900550842e-01" nType="-99"/>
            <Node pos="r" depth="3" NCoef="0" IVar="-1" Cut="0.0000000000000000e+00" cType="1" res="-6.3830174505710602e-02" rms="1.8789534270763397e-01" purity="8.4133327007293701e-02" nType="-99"/>
          </Node>
          <Node pos="r" depth="2" NCoef="0" IVar="0" Cut="1.3898133544921875e+03" cType="1" res="6.3880654051899910e-03" rms="3.0340594053268433e-01" purity="5.7952165603637695e-01" nType="0">
            <Node pos="l" depth="3" NCoef="0" IVar="-1" Cut="0.0000000000000000e+00" cType="1" res="-5.5054313270375133e-04" rms="3.2207751274108887e-01" purity="2.3150092363357544e-01" nType="-99"/>
            <Node pos="r" depth="3" NCoef="0" IVar="-1" Cut="0.0000000000000000e+00" cType="1" res="1.2231675907969475e-02" rms="2.9102280735969543e-01" purity="7.9740023612976074e-01" nType="-99"/>
          </Node>
        </Node>
        <Node pos="r" depth="1" NCoef="0" IVar="2" Cut="3.9787716674804688e+02" cType="1" res="-5.3290883079171181e-03" rms="2.8556528687477112e-01" purity="3.9474755525588989e-01" nType="0">
          <Node pos="l" depth="2" NCoef="0" IVar="2" Cut="3.6017782592773438e+02" cType="1" res="2.4695284664630890e-03" rms="2.8155028820037842e-01" purity="3.6021307110786438e-01" nType="0">
            <Node pos="l" depth="3" NCoef="0" IVar="-1" Cut="0.0000000000000000e+00" cType="1" res="9.8403450101613998e-03" rms="2.8498172760009766e-01" purity="3.5226541757583618e-01" nType="-99"/>
            <Node pos="r" depth="3" NCoef="0" IVar="-1" Cut="0.0000000000000000e+00" cType="1" res="-3.9512172341346741e-02" rms="2.5732544064521790e-01" purity="4.0811681747436523e-01" nType="-99"/>
          </Node>
          <Node pos="r" depth="2" NCoef="0" IVar="5" Cut="8.2945556640625000e+01" cType="1" res="-1.9232179969549179e-02" rms="2.9207038879394531e-01" purity="4.5631450414657593e-01" nType="0">
            <Node pos="l" depth="3" NCoef="0" IVar="-1" Cut="0.0000000000000000e+00" cType="1" res="-7.7898339368402958e-03" rms="2.9106298089027405e-01" purity="2.2516365349292755e-01" nType="-99"/>
            <Node pos="r" depth="3" NCoef="0" IVar="-1" Cut="0.0000000000000000e+00" cType="1" res="-3.8591079413890839e-02" rms="2.9261663556098938e-01" purity="7.2529220581054688e-01" nType="-99"/>
          </Node>
        </Node>
      </Node>
    </BinaryTree>
    <BinaryTree type="DecisionTree" boostWeight="1.0000000000000000e+00" itree="103">
      <Node pos="s" depth="0" NCoef="0" IVar="1" Cut="2.1903568878769875e-02" cType="1" res="-5.1634537521749735e-04" rms="2.9188650846481323e-01" purity="4.9941757321357727e-01" nType="0">
        <Node pos="l" depth="1" NCoef="0" IVar="0" Cut="1.3748353271484375e+03" cType="1" res="6.8373857066035271e-03" rms="2.3909412324428558e-01" purity="1.2782858312129974e-01" nType="0">
          <Node pos="l" depth="2" NCoef="0" IVar="10" Cut="-9.3346494436264038e-01" cType="1" res="-2.1378849633038044e-03" rms="1.6619808971881866e-01" purity="3.5543832927942276e-02" nType="0">
            <Node pos="l" depth="3" NCoef="0" IVar="-1" Cut="0.0000000000000000e+00" cType="1" res="-6.1893086880445480e-02" rms="9.8806917667388916e-02" purity="1.1312209069728851e-02" nType="-99"/>
            <Node pos="r" depth="3" NCoef="0" IVar="-1" Cut="0.0000000000000000e+00" cType="1" res="7.0729483850300312e-03" rms="1.8555566668510437e-01" purity="4.4884633272886276e-02" nType="-99"/>
          </Node>
          <Node pos="r" depth="2" NCoef="0" IVar="1" Cut="1.1476600542664528e-02" cType="1" res="2.0877992734313011e-02" rms="3.2103079557418823e-01" purity="2.7219569683074951e-01" nType="0">
            <Node pos="l" depth="3" NCoef="0" IVar="-1" Cut="0.0000000000000000e+00" cType="1" res="-4.0974430739879608e-03" rms="2.7940431237220764e-01" purity="1.4683184027671814e-01" nType="-99"/>
            <Node pos="r" depth="3" NCoef="0" IVar="-1" Cut="0.0000000000000000e+00" cType="1" res="3.4092295914888382e-02" rms="3.5619801282882690e-01" purity="3.9758697152137756e-01" nType="-99"/>
          </Node>
        </Node>
        <Node pos="r" depth="1" NCoef="0" IVar="3" Cut="2.3613203430175781e+02" cType="1" res="-2.9643482994288206e-03" rms="3.0741712450981140e-01" purity="6.2311685085296631e-01" nType="0">
          <Node pos="l" depth="2" NCoef="0" IVar="9" Cut="9.3393969535827637e-01" cType="1" res="3.0540276784449816e-03" rms="3.2279214262962341e-01" purity="4.7998914122581482e-01" nType="0">
            <Node pos="l" depth="3" NCoef="0" IVar="-1" Cut="0.0000000000000000e+00" cType="1" res="-1.4273787382990122e-03" rms="3.2193195819854736e-01" purity="5.0124758481979370e-01" nType="-99"/>
            <Node pos="r" depth="3" NCoef="0" IVar="-1" Cut="0.0000000000000000e+00" cType="1" res="1.9410036504268646e-02" rms="3.2551601529121399e-01" purity="3.9700573682785034e-01" nType="-99"/>
          </Node>
          <Node pos="r" depth="2" NCoef="0" IVar="0" Cut="1.5181994628906250e+03" cType="1" res="-9.8855858668684959e-03" rms="2.8857004642486572e-01" purity="7.8771609067916870e-01" nType="0">
            <Node pos="l" depth="3" NCoef="0" IVar="-1" Cut="0.0000000000000000e+00" cType="1" res="-3.1830709427595139e-02" rms="3.7536841630935669e-01" purity="3.6102804541587830e-01" nType="-99"/>
            <Node pos="r" depth="3" NCoef="0" IVar="-1" Cut="0.0000000000000000e+00" cType="1" res="-4.1185664013028145e-03" rms="2.6977229118347168e-01" purity="8.6313927173614502e-01" nType="-99"/>
          </Node>
        </Node>
      </Node>
    </BinaryTree>
    <BinaryTree type="DecisionTree" boostWeight="1.0000000000000000e+00" itree="104">
      <Node pos="s" depth="0" NCoef="0" IVar="2" Cut="7.5905566406250000e+02" cType="1" res="-2.0382534712553024e-03" rms="2.9218026995658875e-01" purity="4.9711331725120544e-01" nType="0">
        <Node pos="l" depth="1" NCoef="0" IVar="0" Cut="1.4589101562500000e+03" cType="1" res="-1.2099684681743383e-03" rms="2.9064163565635681e-01" purity="4.9542978405952454e-01" nType="0">
          <Node pos="l" depth="2" NCoef="0" IVar="0" Cut="1.3961760253906250e+03" cType="1" res="-6.4619551412761211e-03" rms="2.9968371987342834e-01" purity="2.1051308512687683e-01" nType="0">
            <Node pos="l" depth="3" NCoef="0" IVar="-1" Cut="0.0000000000000000e+00" cType="1" res="-2.7618943713605404e-03" rms="2.9284814000129700e-01" purity="1.8328295648097992e-01" nType="-99"/>
            <Node pos="r" depth="3" NCoef="0" IVar="-1" Cut="0.0000000000000000e+00" cType="1" res="-3.3314853906631470e-02" rms="3.5147374868392944e-01" purity="4.4656166434288025e-01" nType="-99"/>
          </Node>
          <Node pos="r" depth="2" NCoef="0" IVar="4" Cut="2.5689526367187500e+02" cType="1" res="4.0068356320261955e-03" rms="2.8127560019493103e-01" purity="7.7843797206878662e-01" nType="0">
            <Node pos="l" depth="3" NCoef="0" IVar="-1" Cut="0.0000000000000000e+00" cType="1" res="8.8158799335360527e-03" rms="2.8937646746635437e-01" purity="7.5469112396240234e-01" nType="-99"/>
            <Node pos="r" depth="3" NCoef="0" IVar="-1" Cut="0.0000000000000000e+00" cType="1" res="-1.6617897897958755e-02" rms="2.4805866181850433e-01" purity="8.6735934019088745e-01" nType="-99"/>
          </Node>
        </Node>
        <Node pos="r" depth="1" NCoef="0" IVar="-1" Cut="0.0000000000000000e+00" cType="1" res="-2.6824889704585075e-02" rms="3.4380203485488892e-01" purity="5.6062942743301392e-01" nType="-99"/>
      </Node>
    </BinaryTree>
    <BinaryTree type="DecisionTree" boostWeight="1.0000000000000000e+00" itree="105">
      <Node pos="s" depth="0" NCoef="0" IVar="2" Cut="4.7952947998046875e+02" cType="1" res="-1.0678772814571857e-03" rms="2.9105502367019653e-01" purity="5.0279676914215088e-01" nType="0">
        <Node pos="l" depth="1" NCoef="0" IVar="0" Cut="1.5460151367187500e+03" cType="1" res="1.3348178472369909e-03" rms="2.8889283537864685e-01" purity="4.8132985830307007e-01" nType="0">
          <Node pos="l" depth="2" NCoef="0" IVar="2" Cut="2.1331301879882812e+02" cType="1" res="-3.5197231918573380e-03" rms="3.0845838785171509e-01" purity="2.6975253224372864e-01" nType="0">
            <Node pos="l" depth="3" NCoef="0" IVar="-1" Cut="0.0000000000000000e+00" cType="1" res="3.3479921519756317e-02" rms="3.1565490365028381e-01" purity="3.1021690368652344e-01" nType="-99"/>
            <Node pos="r" depth="3" NCoef="0" IVar="-1" Cut="0.0000000000000000e+00" cType="1" res="-6.4577506855130196e-03" rms="3.0771327018737793e-01" purity="2.6651760935783386e-01" nType="-99"/>
          </Node>
          <Node pos="r" depth="2" NCoef="0" IVar="1" Cut="3.9066508412361145e-02" cType="1" res="1.0634003207087517e-02" rms="2.4685879051685333e-01" purity="8.8661980628967285e-01" nType="0">
            <Node pos="l" depth="3" NCoef="0" IVar="-1" Cut="0.0000000000000000e+00" cType="1" res="3.8151215761899948e-02" rms="3.5512620210647583e-01" purity="6.4630126953125000e-01" nType="-99"/>
            <Node pos="r" depth="3" NCoef="0" IVar="-1" Cut="0.0000000000000000e+00" cType="1" res="4.7810208052396774e-03" rms="2.2057525813579559e-01" purity="9.3036019802093506e-01" nType="-99"/>
          </Node>
        </Node>
        <Node pos="r" depth="1" NCoef="0" IVar="8" Cut="-9.3351083993911743e-01" cType="1" res="-9.5580620691180229e-03" rms="2.9841497540473938e-01" purity="5.7865256071090698e-01" nType="0">
          <Node pos="l" depth="2" NCoef="0" IVar="-1" Cut="0.0000000000000000e+00" cType="1" res="-4.6768609434366226e-02" rms="2.7735921740531921e-01" purity="2.7912911772727966e-01" nType="-99"/>
          <Node pos="r" depth="2" NCoef="0" IVar="8" Cut="8.4398037195205688e-01" cType="1" res="-3.9842776022851467e-03" rms="3.0128061771392822e-01" purity="6.2666618824005127e-01" nType="0">
            <Node pos="l" depth="3" NCoef="0" IVar="-1" Cut="0.0000000000000000e+00" cType="1" res="2.5506720412522554e-03" rms="3.0793797969818115e-01" purity="6.8874615430831909e-01" nType="-99"/>
            <Node pos="r" depth="3" NCoef="0" IVar="-1" Cut="0.0000000000000000e+00" cType="1" res="-3.7071052938699722e-02" rms="2.6836222410202026e-01" purity="3.5458040237426758e-01" nType="-99"/>
          </Node>
        </Node>
      </Node>
    </BinaryTree>
    <BinaryTree type="DecisionTree" boostWeight="1.0000000000000000e+00" itree="106">
      <Node pos="s" depth="0" NCoef="0" IVar="4" Cut="1.4520042419433594e+02" cType="1" res="1.8939335132017732e-04" rms="2.9515790939331055e-01" purity="5.0178843736648560e-01" nType="0">
        <Node pos="l" depth="1" NCoef="0" IVar="11" Cut="5.9035396575927734e-01" cType="1" res="5.8613908477127552e-03" rms="2.9251149296760559e-01" purity="2.3408631980419159e-01" nType="0">
          <Node pos="l" depth="2" NCoef="0" IVar="4" Cut="1.2726032257080078e+02" cType="1" res="2.0111582707613707e-03" rms="2.8467676043510437e-01" purity="2.0208083093166351e-01" nType="0">
            <Node pos="l" depth="3" NCoef="0" IVar="-1" Cut="0.0000000000000000e+00" cType="1" res="-5.6828325614333153e-03" rms="2.6426881551742554e-01" purity="1.4121827483177185e-01" nType="-99"/>
            <Node pos="r" depth="3" NCoef="0" IVar="-1" Cut="0.0000000000000000e+00" cType="1" res="1.9593071192502975e-02" rms="3.4348499774932861e-01" purity="4.0561422705650330e-01" nType="-99"/>
          </Node>
          <Node pos="r" depth="2" NCoef="0" IVar="-1" Cut="0.0000000000000000e+00" cType="1" res="3.0581472441554070e-02" rms="3.4939885139465332e-01" purity="5.0068777799606323e-01" nType="-99"/>
        </Node>
        <Node pos="r" depth="1" NCoef="0" IVar="9" Cut="-6.6622108221054077e-01" cType="1" res="-4.3039009906351566e-03" rms="2.9716080427169800e-01" purity="7.1385914087295532e-01" nType="0">
          <Node pos="l" depth="2" NCoef="0" IVar="6" Cut="6.8480064392089844e+01" cType="1" res="-1.9536428153514862e-02" rms="3.0879074335098267e-01" purity="6.1149913072586060e-01" nType="0">
            <Node pos="l" depth="3" NCoef="0" IVar="-1" Cut="0.0000000000000000e+00" cType="1" res="-2.8690857812762260e-02" rms="3.4301725029945374e-01" purity="4.0740740299224854e-01" nType="-99"/>
            <Node pos="r" depth="3" NCoef="0" IVar="-1" Cut="0.0000000000000000e+00" cType="1" res="2.6771018747240305e-03" rms="2.5685942173004150e-01" purity="8.7274724245071411e-01" nType="-99"/>
          </Node>
          <Node pos="r" depth="2" NCoef="0" IVar="9" Cut="4.8920825123786926e-01" cType="1" res="3.0366925057023764e-04" rms="2.9339647293090820e-01" purity="7.4482119083404541e-01" nType="0">
            <Node pos="l" depth="3" NCoef="0" IVar="-1" Cut="0.0000000000000000e+00" cType="1" res="1.0521352291107178e-02" rms="2.8363612294197083e-01" purity="7.9324972629547119e-01" nType="-99"/>
            <Node pos="r" depth="3" NCoef="0" IVar="-1" Cut="0.0000000000000000e+00" cType="1" res="-1.4219337143003941e-02" rms="3.0835044384002686e-01" purity="6.6471791267395020e-01" nType="-99"/>
          </Node>
        </Node>
      </Node>
    </BinaryTree>
    <BinaryTree type="DecisionTree" boostWeight="1.0000000000000000e+00" itree="107">
      <Node pos="s" depth="0" NCoef="0" IVar="2" Cut="3.3581054687500000e+02" cType="1" res="4.2992737144231796e-03" rms="2.9325184226036072e-01" purity="5.0374639034271240e-01" nType="0">
        <Node pos="l" depth="1" NCoef="0" IVar="8" Cut="1.3365559279918671e-01" cType="1" res="9.1242594644427299e-03" rms="2.9646089673042297e-01" purity="4.3131843209266663e-01" nType="0">
          <Node pos="l" depth="2" NCoef="0" IVar="10" Cut="1.2004374265670776e+00" cType="1" res="1.8568116938695312e-03" rms="2.9085969924926758e-01" purity="4.3634113669395447e-01" nType="0">
            <Node pos="l" depth="3" NCoef="0" IVar="-1" Cut="0.0000000000000000e+00" cType="1" res="6.8125766701996326e-03" rms="2.9308417439460754e-01" purity="4.5982903242111206e-01" nType="-99"/>
            <Node pos="r" depth="3" NCoef="0" IVar="-1" Cut="0.0000000000000000e+00" cType="1" res="-2.4622673168778419e-02" rms="2.7752888202667236e-01" purity="3.0954882502555847e-01" nType="-99"/>
          </Node>
          <Node pos="r" depth="2" NCoef="0" IVar="9" Cut="-6.6704493761062622e-01" cType="1" res="1.7974076792597771e-02" rms="3.0290660262107849e-01" purity="4.2520213127136230e-01" nType="0">
            <Node pos="l" depth="3" NCoef="0" IVar="-1" Cut="0.0000000000000000e+00" cType="1" res="3.6368571454659104e-04" rms="3.0801510810852051e-01" purity="3.1415566802024841e-01" nType="-99"/>
            <Node pos="r" depth="3" NCoef="0" IVar="-1" Cut="0.0000000000000000e+00" cType="1" res="2.5953445583581924e-02" rms="3.0107507109642029e-01" purity="4.5999807119369507e-01" nType="-99"/>
          </Node>
        </Node>
        <Node pos="r" depth="1" NCoef="0" IVar="0" Cut="1.4476860351562500e+03" cType="1" res="3.0018991674296558e-04" rms="2.9050448536872864e-01" purity="5.6377661228179932e-01" nType="0">
          <Node pos="l" depth="2" NCoef="0" IVar="3" Cut="2.3210089111328125e+02" cType="1" res="-1.4344543218612671e-02" rms="2.5861653685569763e-01" purity="1.1277712881565094e-01" nType="0">
            <Node pos="l" depth="3" NCoef="0" IVar="-1" Cut="0.0000000000000000e+00" cType="1" res="-1.2763917446136475e-02" rms="2.5516480207443237e-01" purity="1.1040914058685303e-01" nType="-99"/>
            <Node pos="r" depth="3" NCoef="0" IVar="-1" Cut="0.0000000000000000e+00" cType="1" res="-3.6854512989521027e-02" rms="2.6994675397872925e-01" purity="1.2146157771348953e-01" nType="-99"/>
          </Node>
          <Node pos="r" depth="2" NCoef="0" IVar="1" Cut="2.0066687837243080e-02" cType="1" res="5.5601089261472225e-03" rms="3.0096063017845154e-01" purity="7.2576117515563965e-01" nType="0">
            <Node pos="l" depth="3" NCoef="0" IVar="-1" Cut="0.0000000000000000e+00" cType="1" res="2.3487273603677750e-02" rms="3.3046528697013855e-01" purity="2.7633380889892578e-01" nType="-99"/>
            <Node pos="r" depth="3" NCoef="0" IVar="-1" Cut="0.0000000000000000e+00" cType="1" res="1.5703182434663177e-03" rms="2.9438671469688416e-01" purity="8.1772321462631226e-01" nType="-99"/>
          </Node>
        </Node>
      </Node>
    </BinaryTree>
    <BinaryTree type="DecisionTree" boostWeight="1.0000000000000000e+00" itree="108">
      <Node pos="s" depth="0" NCoef="0" IVar="1" Cut="8.4816597402095795e-02" cType="1" res="-3.1690611504018307e-03" rms="2.9564583301544189e-01" purity="4.9115848541259766e-01" nType="0">
        <Node pos="l" depth="1" NCoef="0" IVar="5" Cut="8.7484771728515625e+01" cType="1" res="9.0465479297563434e-04" rms="3.0032959580421448e-01" purity="3.3202269673347473e-01" nType="0">
          <Node pos="l" depth="2" NCoef="0" IVar="5" Cut="5.8924877166748047e+01" cType="1" res="6.8316268734633923e-03" rms="2.9148390889167786e-01" purity="1.8764196336269379e-01" nType="0">
            <Node pos="l" depth="3" NCoef="0" IVar="-1" Cut="0.0000000000000000e+00" cType="1" res="-1.1949302628636360e-02" rms="2.2860793769359589e-01" purity="8.9213877916336060e-02" nType="-99"/>
            <Node pos="r" depth="3" NCoef="0" IVar="-1" Cut="0.0000000000000000e+00" cType="1" res="1.5625528991222382e-02" rms="3.2545247673988342e-01" purity="2.5133863091468811e-01" nType="-99"/>
          </Node>
          <Node pos="r" depth="2" NCoef="0" IVar="0" Cut="1.7421081542968750e+03" cType="1" res="-1.3241518288850784e-02" rms="3.2001331448554993e-01" purity="6.7662274837493896e-01" nType="0">
            <Node pos="l" depth="3" NCoef="0" IVar="-1" Cut="0.0000000000000000e+00" cType="1" res="-2.0716164261102676e-02" rms="3.6142411828041077e-01" purity="4.8670285940170288e-01" nType="-99"/>
            <Node pos="r" depth="3" NCoef="0" IVar="-1" Cut="0.0000000000000000e+00" cType="1" res="1.2548811500892043e-03" rms="2.7585467696189880e-01" purity="8.5084378719329834e-01" nType="-99"/>
          </Node>
        </Node>
        <Node pos="r" depth="1" NCoef="0" IVar="5" Cut="1.1201268768310547e+02" cType="1" res="-1.1025783605873585e-02" rms="2.8623265027999878e-01" purity="7.9807376861572266e-01" nType="0">
          <Node pos="l" depth="2" NCoef="0" IVar="9" Cut="6.6650789976119995e-01" cType="1" res="-2.1880906075239182e-02" rms="3.4434232115745544e-01" purity="6.7849296331405640e-01" nType="0">
            <Node pos="l" depth="3" NCoef="0" IVar="-1" Cut="0.0000000000000000e+00" cType="1" res="-1.1788710951805115e-02" rms="3.4068754315376282e-01" purity="7.0754569768905640e-01" nType="-99"/>
            <Node pos="r" depth="3" NCoef="0" IVar="-1" Cut="0.0000000000000000e+00" cType="1" res="-3.8700487464666367e-02" rms="3.5490626096725464e-01" purity="5.8058059215545654e-01" nType="-99"/>
          </Node>
          <Node pos="r" depth="2" NCoef="0" IVar="-1" Cut="0.0000000000000000e+00" cType="1" res="1.0713692754507065e-02" rms="1.7780892550945282e-01" purity="9.6102958917617798e-01" nType="-99"/>
        </Node>
      </Node>
    </BinaryTree>
    <BinaryTree type="DecisionTree" boostWeight="1.0000000000000000e+00" itree="109">
      <Node pos="s" depth="0" NCoef="0" IVar="6" Cut="6.2487606048583984e+01" cType="1" res="2.5436871219426394e-03" rms="2.9551219940185547e-01" purity="5.0250482559204102e-01" nType="0">
        <Node pos="l" depth="1" NCoef="0" IVar="7" Cut="1.4851188659667969e+00" cType="1" res="7.5984117574989796e-03" rms="3.1589528918266296e-01" purity="2.9702496528625488e-01" nType="0">
          <Node pos="l" depth="2" NCoef="0" IVar="9" Cut="9.3306469917297363e-01" cType="1" res="9.5520745962858200e-03" rms="3.2652106881141663e-01" purity="3.2070285081863403e-01" nType="0">
            <Node pos="l" depth="3" NCoef="0" IVar="-1" Cut="0.0000000000000000e+00" cType="1" res="1.1766485869884491e-02" rms="3.3448368310928345e-01" purity="3.5176607966423035e-01" nType="-99"/>
            <Node pos="r" depth="3" NCoef="0" IVar="-1" Cut="0.0000000000000000e+00" cType="1" res="-3.3511749934405088e-03" rms="2.9437294602394104e-01" purity="2.0409178733825684e-01" nType="-99"/>
          </Node>
          <Node pos="r" depth="2" NCoef="0" IVar="-1" Cut="0.0000000000000000e+00" cType="1" res="-5.2947863936424255e-02" rms="1.4103125035762787e-01" purity="2.1818663924932480e-02" nType="-99"/>
        </Node>
        <Node pos="r" depth="1" NCoef="0" IVar="0" Cut="1.4807591552734375e+03" cType="1" res="-5.8758263476192951e-03" rms="2.5779023766517639e-01" purity="8.4476673603057861e-01" nType="0">
          <Node pos="l" depth="2" NCoef="0" IVar="5" Cut="8.7271339416503906e+01" cType="1" res="-3.5817399621009827e-02" rms="3.6084043979644775e-01" purity="5.8967685699462891e-01" nType="0">
            <Node pos="l" depth="3" NCoef="0" IVar="-1" Cut="0.0000000000000000e+00" cType="1" res="-1.5543190762400627e-02" rms="3.6885684728622437e-01" purity="4.8946154117584229e-01" nType="-99"/>
            <Node pos="r" depth="3" NCoef="0" IVar="-1" Cut="0.0000000000000000e+00" cType="1" res="-3.8541227579116821e-02" rms="3.5368233919143677e-01" purity="6.7242771387100220e-01" nType="-99"/>
          </Node>
          <Node pos="r" depth="2" NCoef="0" IVar="11" Cut="-1.1999983787536621e+00" cType="1" res="1.5320185339078307e-03" rms="2.2451445460319519e-01" purity="9.0787851810455322e-01" nType="0">
            <Node pos="l" depth="3" NCoef="0" IVar="-1" Cut="0.0000000000000000e+00" cType="1" res="-3.2978907227516174e-02" rms="2.6101359724998474e-01" purity="8.5899680852890015e-01" nType="-99"/>
            <Node pos="r" depth="3" NCoef="0" IVar="-1" Cut="0.0000000000000000e+00" cType="1" res="9.4678187742829323e-03" rms="2.1786600351333618e-01" purity="9.1572409868240356e-01" nType="-99"/>
          </Node>
        </Node>
      </Node>
    </BinaryTree>
    <BinaryTree type="DecisionTree" boostWeight="1.0000000000000000e+00" itree="110">
      <Node pos="s" depth="0" NCoef="0" IVar="5" Cut="7.0670593261718750e+01" cType="1" res="2.8887584339827299e-03" rms="2.9455724358558655e-01" purity="5.0221771001815796e-01" nType="0">
        <Node pos="l" depth="1" NCoef="0" IVar="5" Cut="5.3937232971191406e+01" cType="1" res="8.1406841054558754e-03" rms="2.9294431209564209e-01" purity="1.9766087830066681e-01" nType="0">
          <Node pos="l" depth="2" NCoef="0" IVar="8" Cut="1.3272996246814728e-01" cType="1" res="-1.0159635916352272e-02" rms="2.3800678551197052e-01" purity="1.1179662495851517e-01" nType="0">
            <Node pos="l" depth="3" NCoef="0" IVar="-1" Cut="0.0000000000000000e+00" cType="1" res="9.2276707291603088e-03" rms="2.6052448153495789e-01" purity="1.3424575328826904e-01" nType="-99"/>
            <Node pos="r" depth="3" NCoef="0" IVar="-1" Cut="0.0000000000000000e+00" cType="1" res="-4.7445762902498245e-02" rms="2.0624725520610809e-01" purity="8.5014820098876953e-02" nType="-99"/>
          </Node>
          <Node pos="r" depth="2" NCoef="0" IVar="1" Cut="4.1758604347705841e-02" cType="1" res="1.4236181043088436e-02" rms="3.0884197354316711e-01" purity="2.2626064717769623e-01" nType="0">
            <Node pos="l" depth="3" NCoef="0" IVar="-1" Cut="0.0000000000000000e+00" cType="1" res="7.9798996448516846e-03" rms="2.4807764589786530e-01" purity="1.1294448375701904e-01" nType="-99"/>
            <Node pos="r" depth="3" NCoef="0" IVar="-1" Cut="0.0000000000000000e+00" cType="1" res="2.0439777523279190e-02" rms="3.8170614838600159e-01" purity="3.9580622315406799e-01" nType="-99"/>
          </Node>
        </Node>
        <Node pos="r" depth="1" NCoef="0" IVar="3" Cut="2.4165069580078125e+02" cType="1" res="-6.9849874125793576e-04" rms="2.9560023546218872e-01" purity="7.1024113893508911e-01" nType="0">
          <Node pos="l" depth="2" NCoef="0" IVar="0" Cut="1.3276822509765625e+03" cType="1" res="4.9259383231401443e-03" rms="3.1503582000732422e-01" purity="6.1602014303207397e-01" nType="0">
            <Node pos="l" depth="3" NCoef="0" IVar="-1" Cut="0.0000000000000000e+00" cType="1" res="-4.7526671551167965e-03" rms="3.5581660270690918e-01" purity="3.0124354362487793e-01" nType="-99"/>
            <Node pos="r" depth="3" NCoef="0" IVar="-1" Cut="0.0000000000000000e+00" cType="1" res="1.1969067156314850e-02" rms="2.9017424583435059e-01" purity="7.8798770904541016e-01" nType="-99"/>
          </Node>
          <Node pos="r" depth="2" NCoef="0" IVar="5" Cut="1.1004563140869141e+02" cType="1" res="-6.1919991858303547e-03" rms="2.7518475055694580e-01" purity="8.0226868391036987e-01" nType="0">
            <Node pos="l" depth="3" NCoef="0" IVar="-1" Cut="0.0000000000000000e+00" cType="1" res="-1.3345687650144100e-02" rms="3.3487126231193542e-01" purity="6.5879482030868530e-01" nType="-99"/>
            <Node pos="r" depth="3" NCoef="0" IVar="-1" Cut="0.0000000000000000e+00" cType="1" res="8.3814590470865369e-04" rms="2.1712674200534821e-01" purity="9.1449880599975586e-01" nType="-99"/>
          </Node>
        </Node>
      </Node>
    </BinaryTree>
    <BinaryTree type="DecisionTree" boostWeight="1.0000000000000000e+00" itree="111">
      <Node pos="s" depth="0" NCoef="0" IVar="10" Cut="1.9997310638427734e+00" cType="1" res="-9.8819204140454531e-04" rms="2.9118353128433228e-01" purity="4.9950343370437622e-01" nType="0">
        <Node pos="l" depth="1" NCoef="0" IVar="10" Cut="1.3140376806259155e+00" cType="1" res="3.7184421671554446e-05" rms="2.9251366853713989e-01" purity="5.1334357261657715e-01" nType="0">
          <Node pos="l" depth="2" NCoef="0" IVar="10" Cut="-1.8204516172409058e+00" cType="1" res="-1.5378576936200261e-03" rms="2.9037615656852722e-01" purity="5.2235060930252075e-01" nType="0">
            <Node pos="l" depth="3" NCoef="0" IVar="-1" Cut="0.0000000000000000e+00" cType="1" res="-2.0082125440239906e-02" rms="2.7858179807662964e-01" purity="2.4562679231166840e-01" nType="-99"/>
            <Node pos="r" depth="3" NCoef="0" IVar="-1" Cut="0.0000000000000000e+00" cType="1" res="-3.5243434831500053e-04" rms="2.9132679104804993e-01" purity="5.4594004154205322e-01" nType="-99"/>
          </Node>
          <Node pos="r" depth="2" NCoef="0" IVar="2" Cut="4.4148541259765625e+02" cType="1" res="1.4940503984689713e-02" rms="3.1162148714065552e-01" purity="4.2811831831932068e-01" nType="0">
            <Node pos="l" depth="3" NCoef="0" IVar="-1" Cut="0.0000000000000000e+00" cType="1" res="8.2048317417502403e-03" rms="2.9996293783187866e-01" purity="3.7575834989547729e-01" nType="-99"/>
            <Node pos="r" depth="3" NCoef="0" IVar="-1" Cut="0.0000000000000000e+00" cType="1" res="3.2350543886423111e-02" rms="3.3846762776374817e-01" purity="5.6001549959182739e-01" nType="-99"/>
          </Node>
        </Node>
        <Node pos="r" depth="1" NCoef="0" IVar="-1" Cut="0.0000000000000000e+00" cType="1" res="-2.6364933699369431e-02" rms="2.6235949993133545e-01" purity="2.2293914854526520e-01" nType="-99"/>
      </Node>
    </BinaryTree>
    <BinaryTree type="DecisionTree" boostWeight="1.0000000000000000e+00" itree="112">
      <Node pos="s" depth="0" NCoef="0" IVar="11" Cut="-1.0666847229003906e+00" cType="1" res="3.6014437209814787e-03" rms="2.9444810748100281e-01" purity="5.0477671623229980e-01" nType="0">
        <Node pos="l" depth="1" NCoef="0" IVar="0" Cut="1.3187124023437500e+03" cType="1" res="2.0208097703289241e-04" rms="3.0040675401687622e-01" purity="3.0671298503875732e-01" nType="0">
          <Node pos="l" depth="2" NCoef="0" IVar="8" Cut="9.3348425626754761e-01" cType="1" res="-6.6552776843309402e-03" rms="2.5435194373130798e-01" purity="9.7146272659301758e-02" nType="0">
            <Node pos="l" depth="3" NCoef="0" IVar="-1" Cut="0.0000000000000000e+00" cType="1" res="-1.4834388159215450e-02" rms="2.6583376526832581e-01" purity="1.0755912959575653e-01" nType="-99"/>
            <Node pos="r" depth="3" NCoef="0" IVar="-1" Cut="0.0000000000000000e+00" cType="1" res="2.0169349387288094e-02" rms="2.1197336912155151e-01" purity="6.3182644546031952e-02" nType="-99"/>
          </Node>
          <Node pos="r" depth="2" NCoef="0" IVar="3" Cut="3.9399484252929688e+02" cType="1" res="7.5230174697935581e-03" rms="3.4266152977943420e-01" purity="5.3044706583023071e-01" nType="0">
            <Node pos="l" depth="3" NCoef="0" IVar="-1" Cut="0.0000000000000000e+00" cType="1" res="9.6003701910376549e-03" rms="3.4469723701477051e-01" purity="5.2029204368591309e-01" nType="-99"/>
            <Node pos="r" depth="3" NCoef="0" IVar="-1" Cut="0.0000000000000000e+00" cType="1" res="-1.5105524100363255e-02" rms="3.2830005884170532e-01" purity="5.9527999162673950e-01" nType="-99"/>
          </Node>
        </Node>
        <Node pos="r" depth="1" NCoef="0" IVar="10" Cut="1.7330477237701416e+00" cType="1" res="8.1410221755504608e-03" rms="2.8623455762863159e-01" purity="7.6927489042282104e-01" nType="0">
          <Node pos="l" depth="2" NCoef="0" IVar="3" Cut="1.5180807495117188e+02" cType="1" res="5.9783887118101120e-03" rms="2.8112539649009705e-01" purity="7.8008764982223511e-01" nType="0">
            <Node pos="l" depth="3" NCoef="0" IVar="-1" Cut="0.0000000000000000e+00" cType="1" res="2.7658049017190933e-02" rms="3.5270729660987854e-01" purity="3.8845100998878479e-01" nType="-99"/>
            <Node pos="r" depth="3" NCoef="0" IVar="-1" Cut="0.0000000000000000e+00" cType="1" res="4.6453359536826611e-03" rms="2.7352729439735413e-01" purity="8.1591099500656128e-01" nType="-99"/>
          </Node>
          <Node pos="r" depth="2" NCoef="0" IVar="-1" Cut="0.0000000000000000e+00" cType="1" res="3.5303771495819092e-02" rms="3.5274714231491089e-01" purity="6.0652661323547363e-01" nType="-99"/>
        </Node>
      </Node>
    </BinaryTree>
    <BinaryTree type="DecisionTree" boostWeight="1.0000000000000000e+00" itree="113">
      <Node pos="s" depth="0" NCoef="0" IVar="7" Cut="-1.6872248649597168e+00" cType="1" res="-3.4389516804367304e-04" rms="2.9171290993690491e-01" purity="5.0539910793304443e-01" nType="0">
        <Node pos="l" depth="1" NCoef="0" IVar="-1" Cut="0.0000000000000000e+00" cType="1" res="-6.0537915676832199e-02" rms="1.4508453011512756e-01" purity="6.0642275959253311e-02" nType="-99"/>
        <Node pos="r" depth="1" NCoef="0" IVar="2" Cut="7.5905566406250000e+02" cType="1" res="6.3225446501746774e-04" rms="2.9611602425575256e-01" purity="5.2354145050048828e-01" nType="0">
          <Node pos="l" depth="2" NCoef="0" IVar="4" Cut="8.2095451354980469e+01" cType="1" res="1.2555973371490836e-03" rms="2.9434949159622192e-01" purity="5.2234774827957153e-01" nType="0">
            <Node pos="l" depth="3" NCoef="0" IVar="-1" Cut="0.0000000000000000e+00" cType="1" res="-3.6377951502799988e-02" rms="1.7100055515766144e-01" purity="3.4459069371223450e-02" nType="-99"/>
            <Node pos="r" depth="3" NCoef="0" IVar="-1" Cut="0.0000000000000000e+00" cType="1" res="2.7445440646260977e-03" rms="3.0238804221153259e-01" purity="5.6330603361129761e-01" nType="-99"/>
          </Node>
          <Node pos="r" depth="2" NCoef="0" IVar="-1" Cut="0.0000000000000000e+00" cType="1" res="-1.8088560551404953e-02" rms="3.5568293929100037e-01" purity="5.6862509250640869e-01" nType="-99"/>
        </Node>
      </Node>
    </BinaryTree>
    <BinaryTree type="DecisionTree" boostWeight="1.0000000000000000e+00" itree="114">
      <Node pos="s" depth="0" NCoef="0" IVar="11" Cut="1.4188027381896973e+00" cType="1" res="1.8672725418582559e-03" rms="2.9325845837593079e-01" purity="5.0198274850845337e-01" nType="0">
        <Node pos="l" depth="1" NCoef="0" IVar="10" Cut="1.7331548929214478e+00" cType="1" res="2.8707275632768869e-03" rms="2.9206848144531250e-01" purity="4.9232313036918640e-01" nType="0">
          <Node pos="l" depth="2" NCoef="0" IVar="7" Cut="4.1427841782569885e-01" cType="1" res="3.9541209116578102e-03" rms="2.9286673665046692e-01" purity="5.1130145788192749e-01" nType="0">
            <Node pos="l" depth="3" NCoef="0" IVar="-1" Cut="0.0000000000000000e+00" cType="1" res="7.6673878356814384e-03" rms="2.9457518458366394e-01" purity="5.5224585533142090e-01" nType="-99"/>
            <Node pos="r" depth="3" NCoef="0" IVar="-1" Cut="0.0000000000000000e+00" cType="1" res="-3.1350846402347088e-03" rms="2.8887289762496948e-01" purity="4.1905656456947327e-01" nType="-99"/>
          </Node>
          <Node pos="r" depth="2" NCoef="0" IVar="7" Cut="-4.7194752842187881e-02" cType="1" res="-1.0538728907704353e-02" rms="2.8165629506111145e-01" purity="2.5742274522781372e-01" nType="0">
            <Node pos="l" depth="3" NCoef="0" IVar="-1" Cut="0.0000000000000000e+00" cType="1" res="-4.1571486741304398e-02" rms="2.5553578138351440e-01" purity="2.2808210551738739e-01" nType="-99"/>
            <Node pos="r" depth="3" NCoef="0" IVar="-1" Cut="0.0000000000000000e+00" cType="1" res="7.5658378191292286e-03" rms="2.9910576343536377e-01" purity="2.7997750043869019e-01" nType="-99"/>
          </Node>
        </Node>
        <Node pos="r" depth="1" NCoef="0" IVar="4" Cut="1.6243736267089844e+02" cType="1" res="-1.3401522301137447e-02" rms="3.1040385365486145e-01" purity="6.4896494150161743e-01" nType="0">
          <Node pos="l" depth="2" NCoef="0" IVar="-1" Cut="0.0000000000000000e+00" cType="1" res="-2.0400999113917351e-02" rms="3.4977793693542480e-01" purity="4.5099782943725586e-01" nType="-99"/>
          <Node pos="r" depth="2" NCoef="0" IVar="-1" Cut="0.0000000000000000e+00" cType="1" res="-4.6072555705904961e-03" rms="2.7272260189056396e-01" purity="8.1479161977767944e-01" nType="-99"/>
        </Node>
      </Node>
    </BinaryTree>
    <BinaryTree type="DecisionTree" boostWeight="1.0000000000000000e+00" itree="115">
      <Node pos="s" depth="0" NCoef="0" IVar="7" Cut="6.7312788963317871e-01" cType="1" res="-1.8046862678602338e-03" rms="2.9310405254364014e-01" purity="4.9954158067703247e-01" nType="0">
        <Node pos="l" depth="1" NCoef="0" IVar="9" Cut="-1.1992163658142090e+00" cType="1" res="8.6140254279598594e-04" rms="2.9782563447952271e-01" purity="5.5137801170349121e-01" nType="0">
          <Node pos="l" depth="2" NCoef="0" IVar="9" Cut="-1.8847744464874268e+00" cType="1" res="1.4424940571188927e-02" rms="3.0575811862945557e-01" purity="3.5053038597106934e-01" nType="0">
            <Node pos="l" depth="3" NCoef="0" IVar="-1" Cut="0.0000000000000000e+00" cType="1" res="-2.0601818338036537e-02" rms="2.5515326857566833e-01" purity="1.5704089403152466e-01" nType="-99"/>
            <Node pos="r" depth="3" NCoef="0" IVar="-1" Cut="0.0000000000000000e+00" cType="1" res="2.6847627013921738e-02" rms="3.2588112354278564e-01" purity="4.4111409783363342e-01" nType="-99"/>
          </Node>
          <Node pos="r" depth="2" NCoef="0" IVar="9" Cut="1.8475817441940308e+00" cType="1" res="-1.2135975994169712e-03" rms="2.9653865098953247e-01" purity="5.8210444450378418e-01" nType="0">
            <Node pos="l" depth="3" NCoef="0" IVar="-1" Cut="0.0000000000000000e+00" cType="1" res="-6.2262806750368327e-05" rms="2.9722595214843750e-01" purity="6.0374599695205688e-01" nType="-99"/>
            <Node pos="r" depth="3" NCoef="0" IVar="-1" Cut="0.0000000000000000e+00" cType="1" res="-3.1744632869958878e-02" rms="2.8170397877693176e-01" purity="1.5611183643341064e-01" nType="-99"/>
          </Node>
        </Node>
        <Node pos="r" depth="1" NCoef="0" IVar="8" Cut="1.3344968855381012e-01" cType="1" res="-1.1333623901009560e-02" rms="2.7535709738731384e-01" purity="3.1427168846130371e-01" nType="0">
          <Node pos="l" depth="2" NCoef="0" IVar="1" Cut="1.8974468111991882e-02" cType="1" res="-2.1727347746491432e-02" rms="2.6299706101417542e-01" purity="2.9132214188575745e-01" nType="0">
            <Node pos="l" depth="3" NCoef="0" IVar="-1" Cut="0.0000000000000000e+00" cType="1" res="-2.1530738100409508e-02" rms="1.7444033920764923e-01" purity="5.6475892663002014e-02" nType="-99"/>
            <Node pos="r" depth="3" NCoef="0" IVar="-1" Cut="0.0000000000000000e+00" cType="1" res="-3.0379140749573708e-02" rms="3.0504554510116577e-01" purity="4.3719017505645752e-01" nType="-99"/>
          </Node>
          <Node pos="r" depth="2" NCoef="0" IVar="2" Cut="2.9894442749023438e+02" cType="1" res="-3.7925576907582581e-04" rms="2.8740331530570984e-01" purity="3.3845916390419006e-01" nType="0">
            <Node pos="l" depth="3" NCoef="0" IVar="-1" Cut="0.0000000000000000e+00" cType="1" res="2.4030901491641998e-02" rms="2.8804057836532593e-01" purity="2.9138210415840149e-01" nType="-99"/>
            <Node pos="r" depth="3" NCoef="0" IVar="-1" Cut="0.0000000000000000e+00" cType="1" res="-1.5342244878411293e-02" rms="2.8625631332397461e-01" purity="3.6947947740554810e-01" nType="-99"/>
          </Node>
        </Node>
      </Node>
    </BinaryTree>
    <BinaryTree type="DecisionTree" boostWeight="1.0000000000000000e+00" itree="116">
      <Node pos="s" depth="0" NCoef="0" IVar="10" Cut="-6.6675323247909546e-01" cType="1" res="1.5718748909421265e-04" rms="2.9134014248847961e-01" purity="5.0334131717681885e-01" nType="0">
        <Node pos="l" depth="1" NCoef="0" IVar="6" Cut="7.6565872192382812e+01" cType="1" res="-6.0421722009778023e-03" rms="2.8235894441604614e-01" purity="4.4403910636901855e-01" nType="0">
          <Node pos="l" depth="2" NCoef="0" IVar="5" Cut="9.3273979187011719e+01" cType="1" res="-1.0153545066714287e-02" rms="2.9874500632286072e-01" purity="3.0559575557708740e-01" nType="0">
            <Node pos="l" depth="3" NCoef="0" IVar="-1" Cut="0.0000000000000000e+00" cType="1" res="-7.4131591245532036e-03" rms="2.9612097144126892e-01" purity="2.4354192614555359e-01" nType="-99"/>
            <Node pos="r" depth="3" NCoef="0" IVar="-1" Cut="0.0000000000000000e+00" cType="1" res="-2.5712996721267700e-02" rms="3.1136861443519592e-01" purity="6.2731450796127319e-01" nType="-99"/>
          </Node>
          <Node pos="r" depth="2" NCoef="0" IVar="-1" Cut="0.0000000000000000e+00" cType="1" res="1.2228263542056084e-02" rms="2.2057521343231201e-01" purity="8.9244669675827026e-01" nType="-99"/>
        </Node>
        <Node pos="r" depth="1" NCoef="0" IVar="6" Cut="6.3181526184082031e+01" cType="1" res="2.8370765503495932e-03" rms="2.9509767889976501e-01" purity="5.2897673845291138e-01" nType="0">
          <Node pos="l" depth="2" NCoef="0" IVar="1" Cut="3.8929890841245651e-02" cType="1" res="7.4012423865497112e-03" rms="3.1623697280883789e-01" purity="3.2304900884628296e-01" nType="0">
            <Node pos="l" depth="3" NCoef="0" IVar="-1" Cut="0.0000000000000000e+00" cType="1" res="-3.3654071739874780e-04" rms="2.5945344567298889e-01" purity="1.4662648737430573e-01" nType="-99"/>
            <Node pos="r" depth="3" NCoef="0" IVar="-1" Cut="0.0000000000000000e+00" cType="1" res="1.1816588230431080e-02" rms="3.6656153202056885e-01" purity="5.0917828083038330e-01" nType="-99"/>
          </Node>
          <Node pos="r" depth="2" NCoef="0" IVar="0" Cut="1.6836921386718750e+03" cType="1" res="-4.4007790274918079e-03" rms="2.5788295269012451e-01" purity="8.5553693771362305e-01" nType="0">
            <Node pos="l" depth="3" NCoef="0" IVar="-1" Cut="0.0000000000000000e+00" cType="1" res="-1.3998478651046753e-02" rms="3.3139762282371521e-01" purity="7.1916508674621582e-01" nType="-99"/>
            <Node pos="r" depth="3" NCoef="0" IVar="-1" Cut="0.0000000000000000e+00" cType="1" res="4.2360699735581875e-03" rms="2.0159393548965454e-01" purity="9.3662434816360474e-01" nType="-99"/>
          </Node>
        </Node>
      </Node>
    </BinaryTree>
    <BinaryTree type="DecisionTree" boostWeight="1.0000000000000000e+00" itree="117">
      <Node pos="s" depth="0" NCoef="0" IVar="9" Cut="-1.3325789570808411e-01" cType="1" res="-3.5341780167073011e-03" rms="2.9043292999267578e-01" purity="4.9360167980194092e-01" nType="0">
        <Node pos="l" depth="1" NCoef="0" IVar="7" Cut="-1.1594280004501343e+00" cType="1" res="-1.1383334174752235e-02" rms="2.9008904099464417e-01" purity="4.7310394048690796e-01" nType="0">
          <Node pos="l" depth="2" NCoef="0" IVar="7" Cut="-1.5364958047866821e+00" cType="1" res="8.8040707632899284e-03" rms="2.3593890666961670e-01" purity="1.9161443412303925e-01" nType="0">
            <Node pos="l" depth="3" NCoef="0" IVar="-1" Cut="0.0000000000000000e+00" cType="1" res="1.9757687114179134e-03" rms="1.9043698906898499e-01" purity="1.0486951470375061e-01" nType="-99"/>
            <Node pos="r" depth="3" NCoef="0" IVar="-1" Cut="0.0000000000000000e+00" cType="1" res="2.2963291034102440e-02" rms="2.7382528781890869e-01" purity="2.7853259444236755e-01" nType="-99"/>
          </Node>
          <Node pos="r" depth="2" NCoef="0" IVar="0" Cut="1.6611967773437500e+03" cType="1" res="-1.4275228604674339e-02" rms="2.9692655801773071e-01" purity="5.1342803239822388e-01" nType="0">
            <Node pos="l" depth="3" NCoef="0" IVar="-1" Cut="0.0000000000000000e+00" cType="1" res="-1.9264243543148041e-02" rms="3.1746515631675720e-01" purity="3.1254091858863831e-01" nType="-99"/>
            <Node pos="r" depth="3" NCoef="0" IVar="-1" Cut="0.0000000000000000e+00" cType="1" res="-8.0536594614386559e-03" rms="2.5940099358558655e-01" purity="8.4378564357757568e-01" nType="-99"/>
          </Node>
        </Node>
        <Node pos="r" depth="1" NCoef="0" IVar="0" Cut="1.0975252685546875e+03" cType="1" res="2.9693280812352896e-03" rms="2.9055696725845337e-01" purity="5.1058524847030640e-01" nType="0">
          <Node pos="l" depth="2" NCoef="0" IVar="2" Cut="2.4517245483398438e+02" cType="1" res="-1.1897191405296326e-02" rms="1.8681557476520538e-01" purity="3.8134116679430008e-02" nType="0">
            <Node pos="l" depth="3" NCoef="0" IVar="-1" Cut="0.0000000000000000e+00" cType="1" res="-3.3827643841505051e-02" rms="2.1633848547935486e-01" purity="5.2635047584772110e-02" nType="-99"/>
            <Node pos="r" depth="3" NCoef="0" IVar="-1" Cut="0.0000000000000000e+00" cType="1" res="-1.9673610106110573e-02" rms="1.5938425064086914e-01" purity="2.6666145771741867e-02" nType="-99"/>
          </Node>
          <Node pos="r" depth="2" NCoef="0" IVar="11" Cut="-5.1443928480148315e-01" cType="1" res="5.8120088651776314e-03" rms="3.0633729696273804e-01" purity="6.0092437267303467e-01" nType="0">
            <Node pos="l" depth="3" NCoef="0" IVar="-1" Cut="0.0000000000000000e+00" cType="1" res="1.1332952417433262e-02" rms="3.2760056853294373e-01" purity="4.6666097640991211e-01" nType="-99"/>
            <Node pos="r" depth="3" NCoef="0" IVar="-1" Cut="0.0000000000000000e+00" cType="1" res="-3.8685249164700508e-03" rms="2.7387931942939758e-01" purity="7.8714621067047119e-01" nType="-99"/>
          </Node>
        </Node>
      </Node>
    </BinaryTree>
    <BinaryTree type="DecisionTree" boostWeight="1.0000000000000000e+00" itree="118">
      <Node pos="s" depth="0" NCoef="0" IVar="0" Cut="2.5247290039062500e+03" cType="1" res="-5.9432425769045949e-04" rms="2.9069560766220093e-01" purity="4.9762210249900818e-01" nType="0">
        <Node pos="l" depth="1" NCoef="0" IVar="2" Cut="3.5808392333984375e+02" cType="1" res="-1.4803406083956361e-03" rms="2.9382154345512390e-01" purity="4.7627261281013489e-01" nType="0">
          <Node pos="l" depth="2" NCoef="0" IVar="0" Cut="1.0466656494140625e+03" cType="1" res="3.2495590858161449e-03" rms="2.8878617286682129e-01" purity="4.3391573429107666e-01" nType="0">
            <Node pos="l" depth="3" NCoef="0" IVar="-1" Cut="0.0000000000000000e+00" cType="1" res="-2.7013279497623444e-02" rms="1.6817316412925720e-01" purity="3.0579909682273865e-02" nType="-99"/>
            <Node pos="r" depth="3" NCoef="0" IVar="-1" Cut="0.0000000000000000e+00" cType="1" res="6.8999007344245911e-03" rms="3.1437221169471741e-01" purity="5.4728955030441284e-01" nType="-99"/>
          </Node>
          <Node pos="r" depth="2" NCoef="0" IVar="7" Cut="-8.3071923255920410e-01" cType="1" res="-7.0906658656895161e-03" rms="2.9958769679069519e-01" purity="5.2651387453079224e-01" nType="0">
            <Node pos="l" depth="3" NCoef="0" IVar="-1" Cut="0.0000000000000000e+00" cType="1" res="-3.7504322826862335e-02" rms="2.5933307409286499e-01" purity="2.4898429214954376e-01" nType="-99"/>
            <Node pos="r" depth="3" NCoef="0" IVar="-1" Cut="0.0000000000000000e+00" cType="1" res="-3.4271043259650469e-03" rms="3.0606129765510559e-01" purity="5.7613325119018555e-01" nType="-99"/>
          </Node>
        </Node>
        <Node pos="r" depth="1" NCoef="0" IVar="-1" Cut="0.0000000000000000e+00" cType="1" res="2.6806268841028214e-02" rms="2.1990571916103363e-01" purity="9.1625571250915527e-01" nType="-99"/>
      </Node>
    </BinaryTree>
    <BinaryTree type="DecisionTree" boostWeight="1.0000000000000000e+00" itree="119">
      <Node pos="s" depth="0" NCoef="0" IVar="10" Cut="-9.3326765298843384e-01" cType="1" res="4.8557124682702124e-04" rms="2.9370215535163879e-01" purity="4.9696388840675354e-01" nType="0">
        <Node pos="l" depth="1" NCoef="0" IVar="3" Cut="1.8613450622558594e+02" cType="1" res="9.1060912236571312e-03" rms="2.9662409424781799e-01" purity="4.1921001672744751e-01" nType="0">
          <Node pos="l" depth="2" NCoef="0" IVar="1" Cut="3.5128366202116013e-02" cType="1" res="2.1966053172945976e-02" rms="2.7956867218017578e-01" purity="2.0150336623191833e-01" nType="0">
            <Node pos="l" depth="3" NCoef="0" IVar="-1" Cut="0.0000000000000000e+00" cType="1" res="-6.5669207833707333e-03" rms="1.7549279332160950e-01" purity="4.5583672821521759e-02" nType="-99"/>
            <Node pos="r" depth="3" NCoef="0" IVar="-1" Cut="0.0000000000000000e+00" cType="1" res="4.6096961945295334e-02" rms="3.6281898617744446e-01" purity="3.8238650560379028e-01" nType="-99"/>
          </Node>
          <Node pos="r" depth="2" NCoef="0" IVar="4" Cut="1.3129893493652344e+02" cType="1" res="1.2189948465675116e-03" rms="3.0634832382202148e-01" purity="5.5273091793060303e-01" nType="0">
            <Node pos="l" depth="3" NCoef="0" IVar="-1" Cut="0.0000000000000000e+00" cType="1" res="-2.7906248345971107e-02" rms="2.9735893011093140e-01" purity="1.9456005096435547e-01" nType="-99"/>
            <Node pos="r" depth="3" NCoef="0" IVar="-1" Cut="0.0000000000000000e+00" cType="1" res="7.7755525708198547e-03" rms="3.0820244550704956e-01" purity="6.4181220531463623e-01" nType="-99"/>
          </Node>
        </Node>
        <Node pos="r" depth="1" NCoef="0" IVar="2" Cut="6.1929705810546875e+02" cType="1" res="-2.1261710207909346e-03" rms="2.9276105761528015e-01" purity="5.2052086591720581e-01" nType="0">
          <Node pos="l" depth="2" NCoef="0" IVar="2" Cut="3.9966854858398438e+02" cType="1" res="-4.3320248369127512e-04" rms="2.9047647118568420e-01" purity="5.1493489742279053e-01" nType="0">
            <Node pos="l" depth="3" NCoef="0" IVar="-1" Cut="0.0000000000000000e+00" cType="1" res="3.9317565970122814e-03" rms="2.9454553127288818e-01" purity="4.7921320796012878e-01" nType="-99"/>
            <Node pos="r" depth="3" NCoef="0" IVar="-1" Cut="0.0000000000000000e+00" cType="1" res="-1.0297827422618866e-02" rms="2.8160697221755981e-01" purity="5.8964866399765015e-01" nType="-99"/>
          </Node>
          <Node pos="r" depth="2" NCoef="0" IVar="5" Cut="8.7484680175781250e+01" cType="1" res="-2.2263009101152420e-02" rms="3.1799098849296570e-01" purity="5.8696186542510986e-01" nType="0">
            <Node pos="l" depth="3" NCoef="0" IVar="-1" Cut="0.0000000000000000e+00" cType="1" res="-3.2357882708311081e-02" rms="3.3240944147109985e-01" purity="3.3967542648315430e-01" nType="-99"/>
            <Node pos="r" depth="3" NCoef="0" IVar="-1" Cut="0.0000000000000000e+00" cType="1" res="-4.5465845614671707e-03" rms="3.0260318517684937e-01" purity="8.2052385807037354e-01" nType="-99"/>
          </Node>
        </Node>
      </Node>
    </BinaryTree>
    <BinaryTree type="DecisionTree" boostWeight="1.0000000000000000e+00" itree="120">
      <Node pos="s" depth="0" NCoef="0" IVar="1" Cut="2.1211335435509682e-02" cType="1" res="6.4407929312437773e-04" rms="2.9352426528930664e-01" purity="5.0437086820602417e-01" nType="0">
        <Node pos="l" depth="1" NCoef="0" IVar="1" Cut="8.0860806629061699e-03" cType="1" res="1.0290080681443214e-02" rms="2.4280226230621338e-01" purity="1.3061624765396118e-01" nType="0">
          <Node pos="l" depth="2" NCoef="0" IVar="10" Cut="6.6632330417633057e-01" cType="1" res="-3.4935560543090105e-03" rms="1.7502956092357635e-01" purity="5.9721816331148148e-02" nType="0">
            <Node pos="l" depth="3" NCoef="0" IVar="-1" Cut="0.0000000000000000e+00" cType="1" res="-2.3953765630722046e-02" rms="1.6536177694797516e-01" purity="6.0761224478483200e-02" nType="-99"/>
            <Node pos="r" depth="3" NCoef="0" IVar="-1" Cut="0.0000000000000000e+00" cType="1" res="2.9960623010993004e-02" rms="1.9332174956798553e-01" purity="5.7512097060680389e-02" nType="-99"/>
          </Node>
          <Node pos="r" depth="2" NCoef="0" IVar="4" Cut="9.2955734252929688e+01" cType="1" res="1.8562138080596924e-02" rms="2.7525424957275391e-01" purity="1.7316254973411560e-01" nType="0">
            <Node pos="l" depth="3" NCoef="0" IVar="-1" Cut="0.0000000000000000e+00" cType="1" res="-4.3368250131607056e-02" rms="1.2510859966278076e-01" purity="1.7670026049017906e-02" nType="-99"/>
            <Node pos="r" depth="3" NCoef="0" IVar="-1" Cut="0.0000000000000000e+00" cType="1" res="3.2102316617965698e-02" rms="3.0787286162376404e-01" purity="2.2331970930099487e-01" nType="-99"/>
          </Node>
        </Node>
        <Node pos="r" depth="1" NCoef="0" IVar="10" Cut="-1.9999767541885376e+00" cType="1" res="-2.3235296830534935e-03" rms="3.0738946795463562e-01" purity="6.1935716867446899e-01" nType="0">
          <Node pos="l" depth="2" NCoef="0" IVar="-1" Cut="0.0000000000000000e+00" cType="1" res="2.5939859449863434e-02" rms="3.4503948688507080e-01" purity="3.8063880801200867e-01" nType="-99"/>
          <Node pos="r" depth="2" NCoef="0" IVar="1" Cut="1.4236737787723541e-01" cType="1" res="-3.6609244998544455e-03" rms="3.0547681450843811e-01" purity="6.3035416603088379e-01" nType="0">
            <Node pos="l" depth="3" NCoef="0" IVar="-1" Cut="0.0000000000000000e+00" cType="1" res="-6.8421778269112110e-03" rms="3.2043600082397461e-01" purity="5.5612033605575562e-01" nType="-99"/>
            <Node pos="r" depth="3" NCoef="0" IVar="-1" Cut="0.0000000000000000e+00" cType="1" res="1.3234199956059456e-02" rms="2.4539269506931305e-01" purity="8.9127153158187866e-01" nType="-99"/>
          </Node>
        </Node>
      </Node>
    </BinaryTree>
    <BinaryTree type="DecisionTree" boostWeight="1.0000000000000000e+00" itree="121">
      <Node pos="s" depth="0" NCoef="0" IVar="10" Cut="-9.3340843915939331e-01" cType="1" res="4.2298962362110615e-03" rms="2.9321324825286865e-01" purity="5.0706326961517334e-01" nType="0">
        <Node pos="l" depth="1" NCoef="0" IVar="5" Cut="9.1342330932617188e+01" cType="1" res="-5.5037457495927811e-03" rms="2.9273825883865356e-01" purity="4.1073390841484070e-01" nType="0">
          <Node pos="l" depth="2" NCoef="0" IVar="1" Cut="5.7483475655317307e-02" cType="1" res="1.7881718231365085e-03" rms="3.0241024494171143e-01" purity="2.5408914685249329e-01" nType="0">
            <Node pos="l" depth="3" NCoef="0" IVar="-1" Cut="0.0000000000000000e+00" cType="1" res="1.9819898530840874e-02" rms="2.5857880711555481e-01" purity="1.3718988001346588e-01" nType="-99"/>
            <Node pos="r" depth="3" NCoef="0" IVar="-1" Cut="0.0000000000000000e+00" cType="1" res="-1.3676397502422333e-02" rms="3.7001830339431763e-01" purity="4.7334739565849304e-01" nType="-99"/>
          </Node>
          <Node pos="r" depth="2" NCoef="0" IVar="11" Cut="-1.0728411674499512e+00" cType="1" res="-2.1506534889340401e-02" rms="2.6961123943328857e-01" purity="7.5450527667999268e-01" nType="0">
            <Node pos="l" depth="3" NCoef="0" IVar="-1" Cut="0.0000000000000000e+00" cType="1" res="-4.6059306710958481e-02" rms="2.9958054423332214e-01" purity="5.7410299777984619e-01" nType="-99"/>
            <Node pos="r" depth="3" NCoef="0" IVar="-1" Cut="0.0000000000000000e+00" cType="1" res="-9.5095513388514519e-03" rms="2.5007185339927673e-01" purity="8.5527819395065308e-01" nType="-99"/>
          </Node>
        </Node>
        <Node pos="r" depth="1" NCoef="0" IVar="8" Cut="-9.3326312303543091e-01" cType="1" res="7.0627718232572079e-03" rms="2.9329064488410950e-01" purity="5.3509891033172607e-01" nType="0">
          <Node pos="l" depth="2" NCoef="0" IVar="9" Cut="6.6608375310897827e-01" cType="1" res="-3.5959738306701183e-03" rms="2.7639466524124146e-01" purity="3.0624768137931824e-01" nType="0">
            <Node pos="l" depth="3" NCoef="0" IVar="-1" Cut="0.0000000000000000e+00" cType="1" res="4.4808615930378437e-03" rms="2.8557336330413818e-01" purity="3.4663721919059753e-01" nType="-99"/>
            <Node pos="r" depth="3" NCoef="0" IVar="-1" Cut="0.0000000000000000e+00" cType="1" res="-3.8685757666826248e-02" rms="2.4483901262283325e-01" purity="1.8289482593536377e-01" nType="-99"/>
          </Node>
          <Node pos="r" depth="2" NCoef="0" IVar="8" Cut="3.1114542484283447e-01" cType="1" res="8.9549683034420013e-03" rms="2.9614931344985962e-01" purity="5.7572585344314575e-01" nType="0">
            <Node pos="l" depth="3" NCoef="0" IVar="-1" Cut="0.0000000000000000e+00" cType="1" res="1.7179057002067566e-02" rms="2.9736408591270447e-01" purity="6.6381371021270752e-01" nType="-99"/>
            <Node pos="r" depth="3" NCoef="0" IVar="-1" Cut="0.0000000000000000e+00" cType="1" res="1.0609595337882638e-03" rms="2.9449054598808289e-01" purity="4.7046908736228943e-01" nType="-99"/>
          </Node>
        </Node>
      </Node>
    </BinaryTree>
    <BinaryTree type="DecisionTree" boostWeight="1.0000000000000000e+00" itree="122">
      <Node pos="s" depth="0" NCoef="0" IVar="1" Cut="6.3397310674190521e-02" cType="1" res="4.2285796371288598e-04" rms="2.9358896613121033e-01" purity="4.9964824318885803e-01" nType="0">
        <Node pos="l" depth="1" NCoef="0" IVar="8" Cut="2.0000209808349609e+00" cType="1" res="4.8781065270304680e-03" rms="2.9399988055229187e-01" purity="2.8414714336395264e-01" nType="0">
          <Node pos="l" depth="2" NCoef="0" IVar="7" Cut="4.0680456161499023e-01" cType="1" res="6.3364384695887566e-03" rms="2.9957202076911926e-01" purity="2.9703366756439209e-01" nType="0">
            <Node pos="l" depth="3" NCoef="0" IVar="-1" Cut="0.0000000000000000e+00" cType="1" res="1.1903575621545315e-02" rms="3.1077933311462402e-01" purity="3.3821165561676025e-01" nType="-99"/>
            <Node pos="r" depth="3" NCoef="0" IVar="-1" Cut="0.0000000000000000e+00" cType="1" res="-2.5752864312380552e-03" rms="2.7962833642959595e-01" purity="2.2817158699035645e-01" nType="-99"/>
          </Node>
          <Node pos="r" depth="2" NCoef="0" IVar="-1" Cut="0.0000000000000000e+00" cType="1" res="-5.6777812540531158e-02" rms="1.5476836264133453e-01" purity="4.3741650879383087e-02" nType="-99"/>
        </Node>
        <Node pos="r" depth="1" NCoef="0" IVar="1" Cut="1.7204768955707550e-01" cType="1" res="-5.0662746652960777e-03" rms="2.9298874735832214e-01" purity="7.6515847444534302e-01" nType="0">
          <Node pos="l" depth="2" NCoef="0" IVar="0" Cut="2.1667985839843750e+03" cType="1" res="-7.9973284155130386e-03" rms="3.0838569998741150e-01" purity="7.2326546907424927e-01" nType="0">
            <Node pos="l" depth="3" NCoef="0" IVar="-1" Cut="0.0000000000000000e+00" cType="1" res="-9.9971126765012741e-03" rms="3.3097958564758301e-01" purity="6.7139244079589844e-01" nType="-99"/>
            <Node pos="r" depth="3" NCoef="0" IVar="-1" Cut="0.0000000000000000e+00" cType="1" res="1.5518220141530037e-02" rms="1.6577953100204468e-01" purity="9.6531182527542114e-01" nType="-99"/>
          </Node>
          <Node pos="r" depth="2" NCoef="0" IVar="-1" Cut="0.0000000000000000e+00" cType="1" res="7.8049418516457081e-03" rms="2.3526576161384583e-01" purity="9.0257322788238525e-01" nType="-99"/>
        </Node>
      </Node>
    </BinaryTree>
    <BinaryTree type="DecisionTree" boostWeight="1.0000000000000000e+00" itree="123">
      <Node pos="s" depth="0" NCoef="0" IVar="4" Cut="1.4520042419433594e+02" cType="1" res="-4.9366627354174852e-04" rms="2.9403635859489441e-01" purity="4.9641430377960205e-01" nType="0">
        <Node pos="l" depth="1" NCoef="0" IVar="5" Cut="5.8868156433105469e+01" cType="1" res="4.3390020728111267e-03" rms="2.8974282741546631e-01" purity="2.2653150558471680e-01" nType="0">
          <Node pos="l" depth="2" NCoef="0" IVar="5" Cut="5.2534263610839844e+01" cType="1" res="-4.9812425859272480e-03" rms="2.1823786199092865e-01" purity="7.1587532758712769e-02" nType="0">
            <Node pos="l" depth="3" NCoef="0" IVar="-1" Cut="0.0000000000000000e+00" cType="1" res="-4.6680390834808350e-02" rms="1.6609656810760498e-01" purity="4.2069919407367706e-02" nType="-99"/>
            <Node pos="r" depth="3" NCoef="0" IVar="-1" Cut="0.0000000000000000e+00" cType="1" res="5.9241177514195442e-03" rms="2.4122530221939087e-01" purity="8.7439864873886108e-02" nType="-99"/>
          </Node>
          <Node pos="r" depth="2" NCoef="0" IVar="9" Cut="9.3432927131652832e-01" cType="1" res="9.7233373671770096e-03" rms="3.2381436228752136e-01" purity="3.1604310870170593e-01" nType="0">
            <Node pos="l" depth="3" NCoef="0" IVar="-1" Cut="0.0000000000000000e+00" cType="1" res="4.3149446137249470e-03" rms="3.2589089870452881e-01" purity="3.3565902709960938e-01" nType="-99"/>
            <Node pos="r" depth="3" NCoef="0" IVar="-1" Cut="0.0000000000000000e+00" cType="1" res="3.1620007008314133e-02" rms="3.1620416045188904e-01" purity="2.5089138746261597e-01" nType="-99"/>
          </Node>
        </Node>
        <Node pos="r" depth="1" NCoef="0" IVar="9" Cut="1.4662170410156250e+00" cType="1" res="-4.3773776851594448e-03" rms="2.9738497734069824e-01" purity="7.1330213546752930e-01" nType="0">
          <Node pos="l" depth="2" NCoef="0" IVar="9" Cut="-9.7135818004608154e-01" cType="1" res="-2.5459066964685917e-03" rms="2.9703363776206970e-01" purity="7.3208218812942505e-01" nType="0">
            <Node pos="l" depth="3" NCoef="0" IVar="-1" Cut="0.0000000000000000e+00" cType="1" res="-1.9187016412615776e-02" rms="3.2728043198585510e-01" purity="5.3809100389480591e-01" nType="-99"/>
            <Node pos="r" depth="3" NCoef="0" IVar="-1" Cut="0.0000000000000000e+00" cType="1" res="8.3206477575004101e-04" rms="2.9113849997520447e-01" purity="7.6698362827301025e-01" nType="-99"/>
          </Node>
          <Node pos="r" depth="2" NCoef="0" IVar="-1" Cut="0.0000000000000000e+00" cType="1" res="-3.1716652214527130e-02" rms="3.0161213874816895e-01" purity="3.9233464002609253e-01" nType="-99"/>
        </Node>
      </Node>
    </BinaryTree>
    <BinaryTree type="DecisionTree" boostWeight="1.0000000000000000e+00" itree="124">
      <Node pos="s" depth="0" NCoef="0" IVar="10" Cut="-2.2666041851043701e+00" cType="1" res="1.9233589991927147e-03" rms="2.9384770989418030e-01" purity="4.9913740158081055e-01" nType="0">
        <Node pos="l" depth="1" NCoef="0" IVar="-1" Cut="0.0000000000000000e+00" cType="1" res="-4.2253315448760986e-02" rms="2.4086375534534454e-01" purity="1.5756808221340179e-01" nType="-99"/>
        <Node pos="r" depth="1" NCoef="0" IVar="4" Cut="2.3487487792968750e+02" cType="1" res="2.8178419452160597e-03" rms="2.9517102241516113e-01" purity="5.0888246297836304e-01" nType="0">
          <Node pos="l" depth="2" NCoef="0" IVar="9" Cut="-1.9994715452194214e+00" cType="1" res="5.0483685918152332e-03" rms="3.0202481150627136e-01" purity="4.4426423311233521e-01" nType="0">
            <Node pos="l" depth="3" NCoef="0" IVar="-1" Cut="0.0000000000000000e+00" cType="1" res="-2.9889805242419243e-02" rms="2.3019279539585114e-01" purity="9.7997345030307770e-02" nType="-99"/>
            <Node pos="r" depth="3" NCoef="0" IVar="-1" Cut="0.0000000000000000e+00" cType="1" res="6.4206533133983612e-03" rms="3.0446714162826538e-01" purity="4.5788511633872986e-01" nType="-99"/>
          </Node>
          <Node pos="r" depth="2" NCoef="0" IVar="0" Cut="1.9156915283203125e+03" cType="1" res="-8.8909789919853210e-03" rms="2.5588431954383850e-01" purity="8.4808671474456787e-01" nType="0">
            <Node pos="l" depth="3" NCoef="0" IVar="-1" Cut="0.0000000000000000e+00" cType="1" res="-2.7523046359419823e-02" rms="3.3260366320610046e-01" purity="6.6427522897720337e-01" nType="-99"/>
            <Node pos="r" depth="3" NCoef="0" IVar="-1" Cut="0.0000000000000000e+00" cType="1" res="-1.5576113946735859e-03" rms="2.2038917243480682e-01" purity="9.1592615842819214e-01" nType="-99"/>
          </Node>
        </Node>
      </Node>
    </BinaryTree>
    <BinaryTree type="DecisionTree" boostWeight="1.0000000000000000e+00" itree="125">
      <Node pos="s" depth="0" NCoef="0" IVar="2" Cut="7.0333020019531250e+02" cType="1" res="-5.1313822041265666e-05" rms="2.9288998246192932e-01" purity="5.0567996501922607e-01" nType="0">
        <Node pos="l" depth="1" NCoef="0" IVar="0" Cut="1.2690461425781250e+03" cType="1" res="7.7160296496003866e-04" rms="2.9163920879364014e-01" purity="5.0190591812133789e-01" nType="0">
          <Node pos="l" depth="2" NCoef="0" IVar="3" Cut="1.4351519775390625e+02" cType="1" res="-4.8901098780333996e-03" rms="2.6739999651908875e-01" purity="1.2802785634994507e-01" nType="0">
            <Node pos="l" depth="3" NCoef="0" IVar="-1" Cut="0.0000000000000000e+00" cType="1" res="9.8543502390384674e-03" rms="2.2183531522750854e-01" purity="7.0847339928150177e-02" nType="-99"/>
            <Node pos="r" depth="3" NCoef="0" IVar="-1" Cut="0.0000000000000000e+00" cType="1" res="-1.1858750134706497e-02" rms="2.9327079653739929e-01" purity="1.6547758877277374e-01" nType="-99"/>
          </Node>
          <Node pos="r" depth="2" NCoef="0" IVar="4" Cut="1.4164241027832031e+02" cType="1" res="3.6522476002573967e-03" rms="3.0318859219551086e-01" purity="6.9213289022445679e-01" nType="0">
            <Node pos="l" depth="3" NCoef="0" IVar="-1" Cut="0.0000000000000000e+00" cType="1" res="1.5130767598748207e-02" rms="3.5214424133300781e-01" purity="4.3082064390182495e-01" nType="-99"/>
            <Node pos="r" depth="3" NCoef="0" IVar="-1" Cut="0.0000000000000000e+00" cType="1" res="-2.6557294768281281e-04" rms="2.8756672143936157e-01" purity="7.6674932241439819e-01" nType="-99"/>
          </Node>
        </Node>
        <Node pos="r" depth="1" NCoef="0" IVar="-1" Cut="0.0000000000000000e+00" cType="1" res="-1.6670508310198784e-02" rms="3.2015401124954224e-01" purity="5.9395122528076172e-01" nType="-99"/>
      </Node>
    </BinaryTree>
    <BinaryTree type="DecisionTree" boostWeight="1.0000000000000000e+00" itree="126">
      <Node pos="s" depth="0" NCoef="0" IVar="9" Cut="1.9999576807022095e+00" cType="1" res="-1.9406251376494765e-03" rms="2.9440140724182129e-01" purity="4.9727872014045715e-01" nType="0">
        <Node pos="l" depth="1" NCoef="0" IVar="9" Cut="1.3142291307449341e+00" cType="1" res="-1.1557836551219225e-03" rms="2.9640138149261475e-01" purity="5.1025086641311646e-01" nType="0">
          <Node pos="l" depth="2" NCoef="0" IVar="8" Cut="1.3340938091278076e-01" cType="1" res="-2.4124369956552982e-03" rms="2.9632228612899780e-01" purity="5.2416801452636719e-01" nType="0">
            <Node pos="l" depth="3" NCoef="0" IVar="-1" Cut="0.0000000000000000e+00" cType="1" res="1.2746220454573631e-03" rms="2.9437586665153503e-01" purity="5.3547471761703491e-01" nType="-99"/>
            <Node pos="r" depth="3" NCoef="0" IVar="-1" Cut="0.0000000000000000e+00" cType="1" res="-7.8941117972135544e-03" rms="2.9874077439308167e-01" purity="5.0965398550033569e-01" nType="-99"/>
          </Node>
          <Node pos="r" depth="2" NCoef="0" IVar="7" Cut="-4.6841122210025787e-02" cType="1" res="1.3531854376196861e-02" rms="2.9693010449409485e-01" purity="3.4758925437927246e-01" nType="0">
            <Node pos="l" depth="3" NCoef="0" IVar="-1" Cut="0.0000000000000000e+00" cType="1" res="-1.4298603869974613e-02" rms="2.7584996819496155e-01" purity="2.8724893927574158e-01" nType="-99"/>
            <Node pos="r" depth="3" NCoef="0" IVar="-1" Cut="0.0000000000000000e+00" cType="1" res="3.3775877207517624e-02" rms="3.0911856889724731e-01" purity="3.8847672939300537e-01" nType="-99"/>
          </Node>
        </Node>
        <Node pos="r" depth="1" NCoef="0" IVar="-1" Cut="0.0000000000000000e+00" cType="1" res="-3.8547422736883163e-02" rms="2.2935472428798676e-01" purity="1.2890049815177917e-01" nType="-99"/>
      </Node>
    </BinaryTree>
    <BinaryTree type="DecisionTree" boostWeight="1.0000000000000000e+00" itree="127">
      <Node pos="s" depth="0" NCoef="0" IVar="9" Cut="1.3355557620525360e-01" cType="1" res="8.2047225441783667e-04" rms="2.9275465011596680e-01" purity="5.0000894069671631e-01" nType="0">
        <Node pos="l" depth="1" NCoef="0" IVar="3" Cut="2.0893328857421875e+02" cType="1" res="5.5263605900108814e-03" rms="2.9328167438507080e-01" purity="5.1049435138702393e-01" nType="0">
          <Node pos="l" depth="2" NCoef="0" IVar="8" Cut="1.2000721693038940e+00" cType="1" res="1.1387915350496769e-02" rms="2.9193559288978577e-01" purity="3.1856921315193176e-01" nType="0">
            <Node pos="l" depth="3" NCoef="0" IVar="-1" Cut="0.0000000000000000e+00" cType="1" res="1.6813779249787331e-02" rms="3.0313444137573242e-01" purity="3.4966617822647095e-01" nType="-99"/>
            <Node pos="r" depth="3" NCoef="0" IVar="-1" Cut="0.0000000000000000e+00" cType="1" res="-2.2011609748005867e-02" rms="2.0591588318347931e-01" purity="1.2166442722082138e-01" nType="-99"/>
          </Node>
          <Node pos="r" depth="2" NCoef="0" IVar="7" Cut="-1.0889601707458496e+00" cType="1" res="7.6257437467575073e-04" rms="2.9428514838218689e-01" purity="6.6647523641586304e-01" nType="0">
            <Node pos="l" depth="3" NCoef="0" IVar="-1" Cut="0.0000000000000000e+00" cType="1" res="-2.0051715895533562e-02" rms="2.7511703968048096e-01" purity="3.2614263892173767e-01" nType="-99"/>
            <Node pos="r" depth="3" NCoef="0" IVar="-1" Cut="0.0000000000000000e+00" cType="1" res="3.0988205689936876e-03" rms="2.9612359404563904e-01" purity="7.0165657997131348e-01" nType="-99"/>
          </Node>
        </Node>
        <Node pos="r" depth="1" NCoef="0" IVar="3" Cut="2.0647019958496094e+02" cType="1" res="-5.0470880232751369e-03" rms="2.9198995232582092e-01" purity="4.8693510890007019e-01" nType="0">
          <Node pos="l" depth="2" NCoef="0" IVar="7" Cut="4.1426968574523926e-01" cType="1" res="-1.4695390127599239e-02" rms="2.7172997593879700e-01" purity="2.8095483779907227e-01" nType="0">
            <Node pos="l" depth="3" NCoef="0" IVar="-1" Cut="0.0000000000000000e+00" cType="1" res="-2.8906693682074547e-02" rms="2.7258580923080444e-01" purity="3.1187769770622253e-01" nType="-99"/>
            <Node pos="r" depth="3" NCoef="0" IVar="-1" Cut="0.0000000000000000e+00" cType="1" res="2.6471086312085390e-03" rms="2.6948231458663940e-01" purity="2.2971731424331665e-01" nType="-99"/>
          </Node>
          <Node pos="r" depth="2" NCoef="0" IVar="4" Cut="2.5240592956542969e+02" cType="1" res="2.4299696087837219e-03" rms="3.0656301975250244e-01" purity="6.4656180143356323e-01" nType="0">
            <Node pos="l" depth="3" NCoef="0" IVar="-1" Cut="0.0000000000000000e+00" cType="1" res="7.8878290951251984e-03" rms="3.1666278839111328e-01" purity="5.9934163093566895e-01" nType="-99"/>
            <Node pos="r" depth="3" NCoef="0" IVar="-1" Cut="0.0000000000000000e+00" cType="1" res="-2.8675798326730728e-02" rms="2.6202392578125000e-01" purity="8.3208078145980835e-01" nType="-99"/>
          </Node>
        </Node>
      </Node>
    </BinaryTree>
    <BinaryTree type="DecisionTree" boostWeight="1.0000000000000000e+00" itree="128">
      <Node pos="s" depth="0" NCoef="0" IVar="9" Cut="6.6665935516357422e-01" cType="1" res="-1.5984572237357497e-03" rms="2.8991767764091492e-01" purity="4.9868410825729370e-01" nType="0">
        <Node pos="l" depth="1" NCoef="0" IVar="9" Cut="-1.3142417669296265e+00" cType="1" res="1.1614370159804821e-03" rms="2.9123774170875549e-01" purity="5.3444689512252808e-01" nType="0">
          <Node pos="l" depth="2" NCoef="0" IVar="4" Cut="1.1570687103271484e+02" cType="1" res="-8.9497221633791924e-03" rms="2.7222147583961487e-01" purity="2.4218176305294037e-01" nType="0">
            <Node pos="l" depth="3" NCoef="0" IVar="-1" Cut="0.0000000000000000e+00" cType="1" res="1.7652835696935654e-02" rms="2.1868921816349030e-01" purity="8.3180941641330719e-02" nType="-99"/>
            <Node pos="r" depth="3" NCoef="0" IVar="-1" Cut="0.0000000000000000e+00" cType="1" res="-2.0200595259666443e-02" rms="3.0281829833984375e-01" purity="3.5066658258438110e-01" nType="-99"/>
          </Node>
          <Node pos="r" depth="2" NCoef="0" IVar="10" Cut="-1.3326546549797058e-01" cType="1" res="2.9753113631159067e-03" rms="2.9448252916336060e-01" purity="5.8687734603881836e-01" nType="0">
            <Node pos="l" depth="3" NCoef="0" IVar="-1" Cut="0.0000000000000000e+00" cType="1" res="8.3287963643670082e-03" rms="2.9603919386863708e-01" purity="5.7743531465530396e-01" nType="-99"/>
            <Node pos="r" depth="3" NCoef="0" IVar="-1" Cut="0.0000000000000000e+00" cType="1" res="-1.2073031393811107e-03" rms="2.9301342368125916e-01" purity="5.9539246559143066e-01" nType="-99"/>
          </Node>
        </Node>
        <Node pos="r" depth="1" NCoef="0" IVar="9" Cut="2.0888471603393555e+00" cType="1" res="-9.5210932195186615e-03" rms="2.8594648838043213e-01" purity="3.9602243900299072e-01" nType="0">
          <Node pos="l" depth="2" NCoef="0" IVar="9" Cut="1.6824964284896851e+00" cType="1" res="-6.9923726841807365e-03" rms="2.9411825537681580e-01" purity="4.3228495121002197e-01" nType="0">
            <Node pos="l" depth="3" NCoef="0" IVar="-1" Cut="0.0000000000000000e+00" cType="1" res="-1.0857431218028069e-02" rms="2.9655721783638000e-01" purity="4.6321189403533936e-01" nType="-99"/>
            <Node pos="r" depth="3" NCoef="0" IVar="-1" Cut="0.0000000000000000e+00" cType="1" res="1.5021887607872486e-02" rms="2.7667674422264099e-01" purity="2.2715793550014496e-01" nType="-99"/>
          </Node>
          <Node pos="r" depth="2" NCoef="0" IVar="-1" Cut="0.0000000000000000e+00" cType="1" res="-5.1101110875606537e-02" rms="2.0415830612182617e-01" purity="9.3191288411617279e-02" nType="-99"/>
        </Node>
      </Node>
    </BinaryTree>
    <BinaryTree type="DecisionTree" boostWeight="1.0000000000000000e+00" itree="129">
      <Node pos="s" depth="0" NCoef="0" IVar="0" Cut="1.6918568115234375e+03" cType="1" res="1.1007498251274228e-03" rms="2.9404795169830322e-01" purity="5.0224763154983521e-01" nType="0">
        <Node pos="l" depth="1" NCoef="0" IVar="2" Cut="2.6718417358398438e+02" cType="1" res="-2.3105344735085964e-03" rms="3.1200212240219116e-01" purity="3.1514453887939453e-01" nType="0">
          <Node pos="l" depth="2" NCoef="0" IVar="9" Cut="-1.3273140788078308e-01" cType="1" res="1.0796201415359974e-02" rms="3.0617436766624451e-01" purity="3.5065129399299622e-01" nType="0">
            <Node pos="l" depth="3" NCoef="0" IVar="-1" Cut="0.0000000000000000e+00" cType="1" res="-6.8100134376436472e-04" rms="2.9563876986503601e-01" purity="3.2409897446632385e-01" nType="-99"/>
            <Node pos="r" depth="3" NCoef="0" IVar="-1" Cut="0.0000000000000000e+00" cType="1" res="2.2943248972296715e-02" rms="3.1492370367050171e-01" purity="3.7432742118835449e-01" nType="-99"/>
          </Node>
          <Node pos="r" depth="2" NCoef="0" IVar="6" Cut="5.8893234252929688e+01" cType="1" res="-8.6571220308542252e-03" rms="3.1458911299705505e-01" purity="2.9795134067535400e-01" nType="0">
            <Node pos="l" depth="3" NCoef="0" IVar="-1" Cut="0.0000000000000000e+00" cType="1" res="-1.8456022953614593e-03" rms="3.0315858125686646e-01" purity="1.9674329459667206e-01" nType="-99"/>
            <Node pos="r" depth="3" NCoef="0" IVar="-1" Cut="0.0000000000000000e+00" cType="1" res="-2.5701975449919701e-02" rms="3.4706175327301025e-01" purity="6.1488407850265503e-01" nType="-99"/>
          </Node>
        </Node>
        <Node pos="r" depth="1" NCoef="0" IVar="8" Cut="-3.9951220154762268e-01" cType="1" res="7.4291597120463848e-03" rms="2.5732573866844177e-01" purity="8.4935009479522705e-01" nType="0">
          <Node pos="l" depth="2" NCoef="0" IVar="6" Cut="6.0431972503662109e+01" cType="1" res="2.1287852898240089e-02" rms="2.8199046850204468e-01" purity="8.1697136163711548e-01" nType="0">
            <Node pos="l" depth="3" NCoef="0" IVar="-1" Cut="0.0000000000000000e+00" cType="1" res="3.2769646495580673e-02" rms="3.6831566691398621e-01" purity="6.2617135047912598e-01" nType="-99"/>
            <Node pos="r" depth="3" NCoef="0" IVar="-1" Cut="0.0000000000000000e+00" cType="1" res="1.6828611493110657e-02" rms="2.2479343414306641e-01" purity="9.1414624452590942e-01" nType="-99"/>
          </Node>
          <Node pos="r" depth="2" NCoef="0" IVar="1" Cut="3.9096724241971970e-02" cType="1" res="1.3441132614389062e-03" rms="2.4546799063682556e-01" purity="8.6356687545776367e-01" nType="0">
            <Node pos="l" depth="3" NCoef="0" IVar="-1" Cut="0.0000000000000000e+00" cType="1" res="-1.1685535311698914e-02" rms="3.4640535712242126e-01" purity="5.7657063007354736e-01" nType="-99"/>
            <Node pos="r" depth="3" NCoef="0" IVar="-1" Cut="0.0000000000000000e+00" cType="1" res="1.1346272192895412e-02" rms="2.1188266575336456e-01" purity="9.3693518638610840e-01" nType="-99"/>
          </Node>
        </Node>
      </Node>
    </BinaryTree>
    <BinaryTree type="DecisionTree" boostWeight="1.0000000000000000e+00" itree="130">
      <Node pos="s" depth="0" NCoef="0" IVar="3" Cut="4.7740255737304688e+02" cType="1" res="2.1444109734147787e-03" rms="2.9467442631721497e-01" purity="4.9972900748252869e-01" nType="0">
        <Node pos="l" depth="1" NCoef="0" IVar="2" Cut="6.1929370117187500e+02" cType="1" res="3.0106052290648222e-03" rms="2.9475337266921997e-01" purity="4.9274468421936035e-01" nType="0">
          <Node pos="l" depth="2" NCoef="0" IVar="0" Cut="1.2146098632812500e+03" cType="1" res="1.5913972165435553e-03" rms="2.9083135724067688e-01" purity="4.8853093385696411e-01" nType="0">
            <Node pos="l" depth="3" NCoef="0" IVar="-1" Cut="0.0000000000000000e+00" cType="1" res="-9.5802778378129005e-03" rms="2.5176203250885010e-01" purity="9.3439407646656036e-02" nType="-99"/>
            <Node pos="r" depth="3" NCoef="0" IVar="-1" Cut="0.0000000000000000e+00" cType="1" res="5.2276505157351494e-03" rms="3.0589938163757324e-01" purity="6.5680450201034546e-01" nType="-99"/>
          </Node>
          <Node pos="r" depth="2" NCoef="0" IVar="1" Cut="3.7067264318466187e-02" cType="1" res="2.4505069479346275e-02" rms="3.4809660911560059e-01" purity="5.5656325817108154e-01" nType="0">
            <Node pos="l" depth="3" NCoef="0" IVar="-1" Cut="0.0000000000000000e+00" cType="1" res="3.6518596112728119e-02" rms="3.6215314269065857e-01" purity="3.4422767162322998e-01" nType="-99"/>
            <Node pos="r" depth="3" NCoef="0" IVar="-1" Cut="0.0000000000000000e+00" cType="1" res="3.9732838049530983e-03" rms="3.3051151037216187e-01" purity="7.9384934902191162e-01" nType="-99"/>
          </Node>
        </Node>
        <Node pos="r" depth="1" NCoef="0" IVar="-1" Cut="0.0000000000000000e+00" cType="1" res="-2.8690822422504425e-02" rms="2.9049122333526611e-01" purity="7.3523491621017456e-01" nType="-99"/>
      </Node>
    </BinaryTree>
    <BinaryTree type="DecisionTree" boostWeight="1.0000000000000000e+00" itree="131">
      <Node pos="s" depth="0" NCoef="0" IVar="9" Cut="-1.4665281772613525e+00" cType="1" res="2.3036436177790165e-03" rms="2.9326340556144714e-01" purity="5.0439053773880005e-01" nType="0">
        <Node pos="l" depth="1" NCoef="0" IVar="7" Cut="4.4494161009788513e-01" cType="1" res="1.5737103298306465e-02" rms="2.8860518336296082e-01" purity="2.4347087740898132e-01" nType="0">
          <Node pos="l" depth="2" NCoef="0" IVar="7" Cut="-3.0249041318893433e-01" cType="1" res="2.9399583116173744e-02" rms="3.1328925490379333e-01" purity="2.9214259982109070e-01" nType="0">
            <Node pos="l" depth="3" NCoef="0" IVar="-1" Cut="0.0000000000000000e+00" cType="1" res="1.4434220269322395e-02" rms="2.7099221944808960e-01" purity="2.0948313176631927e-01" nType="-99"/>
            <Node pos="r" depth="3" NCoef="0" IVar="-1" Cut="0.0000000000000000e+00" cType="1" res="4.9020860344171524e-02" rms="3.6684930324554443e-01" purity="4.1850468516349792e-01" nType="-99"/>
          </Node>
          <Node pos="r" depth="2" NCoef="0" IVar="-1" Cut="0.0000000000000000e+00" cType="1" res="-2.8790784999728203e-02" rms="2.1342742443084717e-01" purity="1.2494578212499619e-01" nType="-99"/>
        </Node>
        <Node pos="r" depth="1" NCoef="0" IVar="2" Cut="4.4144244384765625e+02" cType="1" res="9.7379274666309357e-04" rms="2.9368710517883301e-01" purity="5.3022044897079468e-01" nType="0">
          <Node pos="l" depth="2" NCoef="0" IVar="0" Cut="1.2781175537109375e+03" cType="1" res="3.8070627488195896e-03" rms="2.9278627038002014e-01" purity="4.9858075380325317e-01" nType="0">
            <Node pos="l" depth="3" NCoef="0" IVar="-1" Cut="0.0000000000000000e+00" cType="1" res="-2.6804741937667131e-03" rms="2.8298920392990112e-01" purity="1.4235015213489532e-01" nType="-99"/>
            <Node pos="r" depth="3" NCoef="0" IVar="-1" Cut="0.0000000000000000e+00" cType="1" res="9.1687096282839775e-03" rms="2.9987064003944397e-01" purity="7.6670253276824951e-01" nType="-99"/>
          </Node>
          <Node pos="r" depth="2" NCoef="0" IVar="0" Cut="1.5205288085937500e+03" cType="1" res="-5.9558283537626266e-03" rms="2.9576441645622253e-01" purity="6.0760480165481567e-01" nType="0">
            <Node pos="l" depth="3" NCoef="0" IVar="-1" Cut="0.0000000000000000e+00" cType="1" res="-3.7140551954507828e-02" rms="2.5752177834510803e-01" purity="8.6174555122852325e-02" nType="-99"/>
            <Node pos="r" depth="3" NCoef="0" IVar="-1" Cut="0.0000000000000000e+00" cType="1" res="-1.4639920555055141e-03" rms="3.0289027094841003e-01" purity="7.1571433544158936e-01" nType="-99"/>
          </Node>
        </Node>
      </Node>
    </BinaryTree>
    <BinaryTree type="DecisionTree" boostWeight="1.0000000000000000e+00" itree="132">
      <Node pos="s" depth="0" NCoef="0" IVar="10" Cut="-9.3332487344741821e-01" cType="1" res="-2.2764299064874649e-03" rms="2.9387530684471130e-01" purity="5.0337648391723633e-01" nType="0">
        <Node pos="l" depth="1" NCoef="0" IVar="7" Cut="-3.6116603016853333e-01" cType="1" res="-9.6911285072565079e-03" rms="2.9103904962539673e-01" purity="4.0205886960029602e-01" nType="0">
          <Node pos="l" depth="2" NCoef="0" IVar="3" Cut="1.7444557189941406e+02" cType="1" res="7.1856868453323841e-03" rms="2.7910149097442627e-01" purity="3.5740539431571960e-01" nType="0">
            <Node pos="l" depth="3" NCoef="0" IVar="-1" Cut="0.0000000000000000e+00" cType="1" res="-1.6249950975179672e-02" rms="2.0699010789394379e-01" purity="1.1733368784189224e-01" nType="-99"/>
            <Node pos="r" depth="3" NCoef="0" IVar="-1" Cut="0.0000000000000000e+00" cType="1" res="1.6426140442490578e-02" rms="3.1052097678184509e-01" purity="4.8576959967613220e-01" nType="-99"/>
          </Node>
          <Node pos="r" depth="2" NCoef="0" IVar="2" Cut="3.2583523559570312e+02" cType="1" res="-2.1555183455348015e-02" rms="2.9857543110847473e-01" purity="4.3344938755035400e-01" nType="0">
            <Node pos="l" depth="3" NCoef="0" IVar="-1" Cut="0.0000000000000000e+00" cType="1" res="-4.0983725339174271e-02" rms="3.0222994089126587e-01" purity="3.5141372680664062e-01" nType="-99"/>
            <Node pos="r" depth="3" NCoef="0" IVar="-1" Cut="0.0000000000000000e+00" cType="1" res="-1.2973248027265072e-02" rms="2.9552957415580750e-01" purity="4.9254938960075378e-01" nType="-99"/>
          </Node>
        </Node>
        <Node pos="r" depth="1" NCoef="0" IVar="10" Cut="1.9110883474349976e+00" cType="1" res="-7.3484239692334086e-05" rms="2.9467675089836121e-01" purity="5.3347855806350708e-01" nType="0">
          <Node pos="l" depth="2" NCoef="0" IVar="10" Cut="5.5661916732788086e-01" cType="1" res="-1.5496325213462114e-03" rms="2.9337796568870544e-01" purity="5.5287045240402222e-01" nType="0">
            <Node pos="l" depth="3" NCoef="0" IVar="-1" Cut="0.0000000000000000e+00" cType="1" res="3.6951820366084576e-03" rms="2.9211726784706116e-01" purity="5.8081275224685669e-01" nType="-99"/>
            <Node pos="r" depth="3" NCoef="0" IVar="-1" Cut="0.0000000000000000e+00" cType="1" res="-1.1011785827577114e-02" rms="2.9532691836357117e-01" purity="5.0546306371688843e-01" nType="-99"/>
          </Node>
          <Node pos="r" depth="2" NCoef="0" IVar="10" Cut="2.2920384407043457e+00" cType="1" res="1.8521772697567940e-02" rms="3.0997160077095032e-01" purity="2.8919491171836853e-01" nType="0">
            <Node pos="l" depth="3" NCoef="0" IVar="-1" Cut="0.0000000000000000e+00" cType="1" res="3.8535326719284058e-02" rms="3.3225014805793762e-01" purity="3.3109661936759949e-01" nType="-99"/>
            <Node pos="r" depth="3" NCoef="0" IVar="-1" Cut="0.0000000000000000e+00" cType="1" res="-2.3328443057835102e-03" rms="2.7903750538825989e-01" purity="2.3806236684322357e-01" nType="-99"/>
          </Node>
        </Node>
      </Node>
    </BinaryTree>
    <BinaryTree type="DecisionTree" boostWeight="1.0000000000000000e+00" itree="133">
      <Node pos="s" depth="0" NCoef="0" IVar="2" Cut="6.1929370117187500e+02" cType="1" res="1.2937939573021140e-05" rms="2.9366612434387207e-01" purity="4.9902766942977905e-01" nType="0">
        <Node pos="l" depth="1" NCoef="0" IVar="2" Cut="5.3941607666015625e+02" cType="1" res="1.4577917754650116e-03" rms="2.9134070873260498e-01" purity="4.9512019753456116e-01" nType="0">
          <Node pos="l" depth="2" NCoef="0" IVar="2" Cut="4.7476196289062500e+02" cType="1" res="2.7998012956231833e-03" rms="2.9118207097053528e-01" purity="4.8874738812446594e-01" nType="0">
            <Node pos="l" depth="3" NCoef="0" IVar="-1" Cut="0.0000000000000000e+00" cType="1" res="1.4824188547208905e-03" rms="2.9048728942871094e-01" purity="4.7846987843513489e-01" nType="-99"/>
            <Node pos="r" depth="3" NCoef="0" IVar="-1" Cut="0.0000000000000000e+00" cType="1" res="1.8701171502470970e-02" rms="2.9690837860107422e-01" purity="5.7952249050140381e-01" nType="-99"/>
          </Node>
          <Node pos="r" depth="2" NCoef="0" IVar="10" Cut="-1.3237078487873077e-01" cType="1" res="-1.6791537404060364e-02" rms="2.9288002848625183e-01" purity="5.8178031444549561e-01" nType="0">
            <Node pos="l" depth="3" NCoef="0" IVar="-1" Cut="0.0000000000000000e+00" cType="1" res="1.2914589606225491e-03" rms="3.1084477901458740e-01" purity="5.7808780670166016e-01" nType="-99"/>
            <Node pos="r" depth="3" NCoef="0" IVar="-1" Cut="0.0000000000000000e+00" cType="1" res="-3.8837075233459473e-02" rms="2.7509394288063049e-01" purity="5.8503651618957520e-01" nType="-99"/>
          </Node>
        </Node>
        <Node pos="r" depth="1" NCoef="0" IVar="5" Cut="9.1341178894042969e+01" cType="1" res="-1.7993591725826263e-02" rms="3.2069203257560730e-01" purity="5.4772472381591797e-01" nType="0">
          <Node pos="l" depth="2" NCoef="0" IVar="-1" Cut="0.0000000000000000e+00" cType="1" res="-2.2651216015219688e-02" rms="3.3974874019622803e-01" purity="3.3790206909179688e-01" nType="-99"/>
          <Node pos="r" depth="2" NCoef="0" IVar="-1" Cut="0.0000000000000000e+00" cType="1" res="-5.6857424788177013e-03" rms="2.9412367939949036e-01" purity="8.1504738330841064e-01" nType="-99"/>
        </Node>
      </Node>
    </BinaryTree>
    <BinaryTree type="DecisionTree" boostWeight="1.0000000000000000e+00" itree="134">
      <Node pos="s" depth="0" NCoef="0" IVar="9" Cut="9.3331903219223022e-01" cType="1" res="1.4158424455672503e-03" rms="2.9475760459899902e-01" purity="5.0213092565536499e-01" nType="0">
        <Node pos="l" depth="1" NCoef="0" IVar="8" Cut="1.1990807056427002e+00" cType="1" res="-8.5548276547342539e-04" rms="2.9523679614067078e-01" purity="5.3540879487991333e-01" nType="0">
          <Node pos="l" depth="2" NCoef="0" IVar="8" Cut="8.1821095943450928e-01" cType="1" res="-1.9161787349730730e-03" rms="2.9669600725173950e-01" purity="5.6831979751586914e-01" nType="0">
            <Node pos="l" depth="3" NCoef="0" IVar="-1" Cut="0.0000000000000000e+00" cType="1" res="-5.6341371964663267e-04" rms="2.9578500986099243e-01" purity="5.7409465312957764e-01" nType="-99"/>
            <Node pos="r" depth="3" NCoef="0" IVar="-1" Cut="0.0000000000000000e+00" cType="1" res="-1.7613295465707779e-02" rms="3.0542930960655212e-01" purity="5.0961327552795410e-01" nType="-99"/>
          </Node>
          <Node pos="r" depth="2" NCoef="0" IVar="10" Cut="-1.3316915929317474e-01" cType="1" res="8.4897568449378014e-03" rms="2.8188195824623108e-01" purity="2.4544717371463776e-01" nType="0">
            <Node pos="l" depth="3" NCoef="0" IVar="-1" Cut="0.0000000000000000e+00" cType="1" res="4.4117666780948639e-02" rms="2.9283142089843750e-01" purity="2.6100349426269531e-01" nType="-99"/>
            <Node pos="r" depth="3" NCoef="0" IVar="-1" Cut="0.0000000000000000e+00" cType="1" res="-1.1663915589451790e-02" rms="2.7238830924034119e-01" purity="2.3416118323802948e-01" nType="-99"/>
          </Node>
        </Node>
        <Node pos="r" depth="1" NCoef="0" IVar="7" Cut="-8.8091975450515747e-01" cType="1" res="1.1115286499261856e-02" rms="2.9250404238700867e-01" purity="3.6002171039581299e-01" nType="0">
          <Node pos="l" depth="2" NCoef="0" IVar="-1" Cut="0.0000000000000000e+00" cType="1" res="-3.0086142942309380e-02" rms="2.0063473284244537e-01" purity="1.3268081843852997e-01" nType="-99"/>
          <Node pos="r" depth="2" NCoef="0" IVar="5" Cut="9.1341598510742188e+01" cType="1" res="1.6535304486751556e-02" rms="3.0738446116447449e-01" purity="4.0569728612899780e-01" nType="0">
            <Node pos="l" depth="3" NCoef="0" IVar="-1" Cut="0.0000000000000000e+00" cType="1" res="2.5298098102211952e-02" rms="3.1528761982917786e-01" purity="2.4116896092891693e-01" nType="-99"/>
            <Node pos="r" depth="3" NCoef="0" IVar="-1" Cut="0.0000000000000000e+00" cType="1" res="8.9795747771859169e-04" rms="2.8809627890586853e-01" purity="7.7777087688446045e-01" nType="-99"/>
          </Node>
        </Node>
      </Node>
    </BinaryTree>
    <BinaryTree type="DecisionTree" boostWeight="1.0000000000000000e+00" itree="135">
      <Node pos="s" depth="0" NCoef="0" IVar="10" Cut="2.2664604187011719e+00" cType="1" res="-1.4977818354964256e-03" rms="2.9275655746459961e-01" purity="4.9782118201255798e-01" nType="0">
        <Node pos="l" depth="1" NCoef="0" IVar="0" Cut="2.1648500976562500e+03" cType="1" res="-7.0558104198426008e-04" rms="2.9378655552864075e-01" purity="5.0706213712692261e-01" nType="0">
          <Node pos="l" depth="2" NCoef="0" IVar="2" Cut="4.9300189208984375e+02" cType="1" res="-2.3947751615196466e-03" rms="3.0359184741973877e-01" purity="4.4576317071914673e-01" nType="0">
            <Node pos="l" depth="3" NCoef="0" IVar="-1" Cut="0.0000000000000000e+00" cType="1" res="-8.4534469351638108e-05" rms="2.9884511232376099e-01" purity="4.5333239436149597e-01" nType="-99"/>
            <Node pos="r" depth="3" NCoef="0" IVar="-1" Cut="0.0000000000000000e+00" cType="1" res="-1.5944415703415871e-02" rms="3.3216854929924011e-01" purity="3.9699086546897888e-01" nType="-99"/>
          </Node>
          <Node pos="r" depth="2" NCoef="0" IVar="1" Cut="3.8798894733190536e-02" cType="1" res="1.0571322403848171e-02" rms="2.1693411469459534e-01" purity="9.1628855466842651e-01" nType="0">
            <Node pos="l" depth="3" NCoef="0" IVar="-1" Cut="0.0000000000000000e+00" cType="1" res="2.0515920594334602e-02" rms="3.2372799515724182e-01" purity="7.4518609046936035e-01" nType="-99"/>
            <Node pos="r" depth="3" NCoef="0" IVar="-1" Cut="0.0000000000000000e+00" cType="1" res="1.7237393185496330e-02" rms="1.7906956374645233e-01" purity="9.6046656370162964e-01" nType="-99"/>
          </Node>
        </Node>
        <Node pos="r" depth="1" NCoef="0" IVar="-1" Cut="0.0000000000000000e+00" cType="1" res="-3.4970309585332870e-02" rms="2.5485646724700928e-01" purity="1.9124113023281097e-01" nType="-99"/>
      </Node>
    </BinaryTree>
    <BinaryTree type="DecisionTree" boostWeight="1.0000000000000000e+00" itree="136">
      <Node pos="s" depth="0" NCoef="0" IVar="11" Cut="3.1410202383995056e-01" cType="1" res="-2.7787326835095882e-03" rms="2.8964468836784363e-01" purity="4.9678817391395569e-01" nType="0">
        <Node pos="l" depth="1" NCoef="0" IVar="3" Cut="3.8249716186523438e+02" cType="1" res="-5.6201312690973282e-03" rms="2.8859224915504456e-01" purity="4.2999425530433655e-01" nType="0">
          <Node pos="l" depth="2" NCoef="0" IVar="9" Cut="-1.3430358469486237e-01" cType="1" res="-3.7219752557575703e-03" rms="2.8835892677307129e-01" purity="4.0402141213417053e-01" nType="0">
            <Node pos="l" depth="3" NCoef="0" IVar="-1" Cut="0.0000000000000000e+00" cType="1" res="-9.0609202161431313e-03" rms="2.8832882642745972e-01" purity="3.9395147562026978e-01" nType="-99"/>
            <Node pos="r" depth="3" NCoef="0" IVar="-1" Cut="0.0000000000000000e+00" cType="1" res="-3.9293954614549875e-04" rms="2.8834265470504761e-01" purity="4.1281098127365112e-01" nType="-99"/>
          </Node>
          <Node pos="r" depth="2" NCoef="0" IVar="0" Cut="2.2500566406250000e+03" cType="1" res="-2.5433545932173729e-02" rms="2.9027658700942993e-01" purity="7.0110547542572021e-01" nType="0">
            <Node pos="l" depth="3" NCoef="0" IVar="-1" Cut="0.0000000000000000e+00" cType="1" res="-4.3465301394462585e-02" rms="3.3098521828651428e-01" purity="5.1197910308837891e-01" nType="-99"/>
            <Node pos="r" depth="3" NCoef="0" IVar="-1" Cut="0.0000000000000000e+00" cType="1" res="-8.7068658322095871e-03" rms="2.4704635143280029e-01" purity="8.6872059106826782e-01" nType="-99"/>
          </Node>
        </Node>
        <Node pos="r" depth="1" NCoef="0" IVar="6" Cut="8.2512786865234375e+01" cType="1" res="7.8205130994319916e-03" rms="2.9329460859298706e-01" purity="7.4594902992248535e-01" nType="0">
          <Node pos="l" depth="2" NCoef="0" IVar="4" Cut="2.0716157531738281e+02" cType="1" res="1.8855996429920197e-02" rms="3.3438146114349365e-01" purity="6.3129109144210815e-01" nType="0">
            <Node pos="l" depth="3" NCoef="0" IVar="-1" Cut="0.0000000000000000e+00" cType="1" res="2.2271715104579926e-02" rms="3.4550607204437256e-01" purity="5.7023853063583374e-01" nType="-99"/>
            <Node pos="r" depth="3" NCoef="0" IVar="-1" Cut="0.0000000000000000e+00" cType="1" res="-7.5410353019833565e-03" rms="2.9493334889411926e-01" purity="8.2494378089904785e-01" nType="-99"/>
          </Node>
          <Node pos="r" depth="2" NCoef="0" IVar="-1" Cut="0.0000000000000000e+00" cType="1" res="-1.6259176656603813e-02" rms="2.2034040093421936e-01" purity="9.1065239906311035e-01" nType="-99"/>
        </Node>
      </Node>
    </BinaryTree>
    <BinaryTree type="DecisionTree" boostWeight="1.0000000000000000e+00" itree="137">
      <Node pos="s" depth="0" NCoef="0" IVar="0" Cut="1.3749333496093750e+03" cType="1" res="-1.1874947231262922e-03" rms="2.9344633221626282e-01" purity="5.0019890069961548e-01" nType="0">
        <Node pos="l" depth="1" NCoef="0" IVar="6" Cut="6.2678005218505859e+01" cType="1" res="-6.2863118946552277e-03" rms="2.8826442360877991e-01" purity="1.7346711456775665e-01" nType="0">
          <Node pos="l" depth="2" NCoef="0" IVar="2" Cut="2.9839544677734375e+02" cType="1" res="-3.2549998722970486e-03" rms="2.7446192502975464e-01" purity="1.3508278131484985e-01" nType="0">
            <Node pos="l" depth="3" NCoef="0" IVar="-1" Cut="0.0000000000000000e+00" cType="1" res="2.7736916672438383e-03" rms="2.9360157251358032e-01" purity="1.7016051709651947e-01" nType="-99"/>
            <Node pos="r" depth="3" NCoef="0" IVar="-1" Cut="0.0000000000000000e+00" cType="1" res="-1.6393525525927544e-02" rms="2.4694599211215973e-01" purity="8.9106068015098572e-02" nType="-99"/>
          </Node>
          <Node pos="r" depth="2" NCoef="0" IVar="-1" Cut="0.0000000000000000e+00" cType="1" res="-2.0920423790812492e-02" rms="3.8116696476936340e-01" purity="4.8415988683700562e-01" nType="-99"/>
        </Node>
        <Node pos="r" depth="1" NCoef="0" IVar="6" Cut="1.5621901512145996e+01" cType="1" res="2.3915532510727644e-03" rms="2.9697743058204651e-01" purity="7.2954410314559937e-01" nType="0">
          <Node pos="l" depth="2" NCoef="0" IVar="10" Cut="6.6650968790054321e-01" cType="1" res="1.2117255479097366e-02" rms="3.6121681332588196e-01" purity="4.5286902785301208e-01" nType="0">
            <Node pos="l" depth="3" NCoef="0" IVar="-1" Cut="0.0000000000000000e+00" cType="1" res="6.6520756809040904e-04" rms="3.5619589686393738e-01" purity="4.5686122775077820e-01" nType="-99"/>
            <Node pos="r" depth="3" NCoef="0" IVar="-1" Cut="0.0000000000000000e+00" cType="1" res="2.8881808742880821e-02" rms="3.7139183282852173e-01" purity="4.4350638985633850e-01" nType="-99"/>
          </Node>
          <Node pos="r" depth="2" NCoef="0" IVar="11" Cut="-4.0007096529006958e-01" cType="1" res="-1.7299606697633862e-03" rms="2.6499140262603760e-01" purity="8.4679216146469116e-01" nType="0">
            <Node pos="l" depth="3" NCoef="0" IVar="-1" Cut="0.0000000000000000e+00" cType="1" res="-1.8664918839931488e-02" rms="2.7195549011230469e-01" purity="8.2847905158996582e-01" nType="-99"/>
            <Node pos="r" depth="3" NCoef="0" IVar="-1" Cut="0.0000000000000000e+00" cType="1" res="7.1400078013539314e-03" rms="2.6068496704101562e-01" purity="8.5726439952850342e-01" nType="-99"/>
          </Node>
        </Node>
      </Node>
    </BinaryTree>
    <BinaryTree type="DecisionTree" boostWeight="1.0000000000000000e+00" itree="138">
      <Node pos="s" depth="0" NCoef="0" IVar="3" Cut="4.1263986206054688e+02" cType="1" res="2.1977028518449515e-04" rms="2.9351624846458435e-01" purity="5.0046455860137939e-01" nType="0">
        <Node pos="l" depth="1" NCoef="0" IVar="1" Cut="1.2722907960414886e-01" cType="1" res="1.7259201267734170e-03" rms="2.9365205764770508e-01" purity="4.8380494117736816e-01" nType="0">
          <Node pos="l" depth="2" NCoef="0" IVar="5" Cut="9.3159629821777344e+01" cType="1" res="4.1569727472960949e-03" rms="3.0187609791755676e-01" purity="3.8630688190460205e-01" nType="0">
            <Node pos="l" depth="3" NCoef="0" IVar="-1" Cut="0.0000000000000000e+00" cType="1" res="9.2216581106185913e-03" rms="3.0322492122650146e-01" purity="2.3641803860664368e-01" nType="-99"/>
            <Node pos="r" depth="3" NCoef="0" IVar="-1" Cut="0.0000000000000000e+00" cType="1" res="-6.8168519064784050e-03" rms="2.9822218418121338e-01" purity="7.6075083017349243e-01" nType="-99"/>
          </Node>
          <Node pos="r" depth="2" NCoef="0" IVar="5" Cut="8.8325325012207031e+01" cType="1" res="-7.7668987214565277e-03" rms="2.5883188843727112e-01" purity="8.6451721191406250e-01" nType="0">
            <Node pos="l" depth="3" NCoef="0" IVar="-1" Cut="0.0000000000000000e+00" cType="1" res="-2.2627526894211769e-02" rms="3.6432224512100220e-01" purity="6.7248940467834473e-01" nType="-99"/>
            <Node pos="r" depth="3" NCoef="0" IVar="-1" Cut="0.0000000000000000e+00" cType="1" res="5.6840730831027031e-03" rms="1.8969887495040894e-01" purity="9.5419222116470337e-01" nType="-99"/>
          </Node>
        </Node>
        <Node pos="r" depth="1" NCoef="0" IVar="0" Cut="2.3856667480468750e+03" cType="1" res="-2.2156767547130585e-02" rms="2.9057285189628601e-01" purity="7.4797254800796509e-01" nType="0">
          <Node pos="l" depth="2" NCoef="0" IVar="-1" Cut="0.0000000000000000e+00" cType="1" res="-4.4383607804775238e-02" rms="3.4127366542816162e-01" purity="5.9871518611907959e-01" nType="-99"/>
          <Node pos="r" depth="2" NCoef="0" IVar="-1" Cut="0.0000000000000000e+00" cType="1" res="-3.8710916414856911e-03" rms="2.3282919824123383e-01" purity="8.8502120971679688e-01" nType="-99"/>
        </Node>
      </Node>
    </BinaryTree>
    <BinaryTree type="DecisionTree" boostWeight="1.0000000000000000e+00" itree="139">
      <Node pos="s" depth="0" NCoef="0" IVar="1" Cut="8.3470068871974945e-02" cType="1" res="5.2688366849906743e-05" rms="2.9228711128234863e-01" purity="5.0485265254974365e-01" nType="0">
        <Node pos="l" depth="1" NCoef="0" IVar="11" Cut="3.1417289376258850e-01" cType="1" res="3.6853775382041931e-03" rms="2.9819774627685547e-01" purity="3.3495059609413147e-01" nType="0">
          <Node pos="l" depth="2" NCoef="0" IVar="7" Cut="4.1504803299903870e-01" cType="1" res="6.2270187772810459e-03" rms="2.9270514845848083e-01" purity="2.8980335593223572e-01" nType="0">
            <Node pos="l" depth="3" NCoef="0" IVar="-1" Cut="0.0000000000000000e+00" cType="1" res="1.1409674771130085e-02" rms="3.0512306094169617e-01" purity="3.2987460494041443e-01" nType="-99"/>
            <Node pos="r" depth="3" NCoef="0" IVar="-1" Cut="0.0000000000000000e+00" cType="1" res="-2.6497012004256248e-03" rms="2.6762554049491882e-01" purity="2.1450896561145782e-01" nType="-99"/>
          </Node>
          <Node pos="r" depth="2" NCoef="0" IVar="8" Cut="1.3484239578247070e-01" cType="1" res="-9.6437502652406693e-03" rms="3.2516333460807800e-01" purity="5.7171630859375000e-01" nType="0">
            <Node pos="l" depth="3" NCoef="0" IVar="-1" Cut="0.0000000000000000e+00" cType="1" res="-2.4812389165163040e-02" rms="3.2900604605674744e-01" purity="5.5116564035415649e-01" nType="-99"/>
            <Node pos="r" depth="3" NCoef="0" IVar="-1" Cut="0.0000000000000000e+00" cType="1" res="7.7799470163881779e-03" rms="3.2026010751724243e-01" purity="5.9217441082000732e-01" nType="-99"/>
          </Node>
        </Node>
        <Node pos="r" depth="1" NCoef="0" IVar="0" Cut="1.3463813476562500e+03" cType="1" res="-6.3871778547763824e-03" rms="2.8138896822929382e-01" purity="8.0604732036590576e-01" nType="0">
          <Node pos="l" depth="2" NCoef="0" IVar="-1" Cut="0.0000000000000000e+00" cType="1" res="-1.6582025215029716e-02" rms="4.0463113784790039e-01" purity="4.0767350792884827e-01" nType="-99"/>
          <Node pos="r" depth="2" NCoef="0" IVar="9" Cut="3.9905756711959839e-01" cType="1" res="-1.0052466532215476e-03" rms="2.3735682666301727e-01" purity="9.1302901506423950e-01" nType="0">
            <Node pos="l" depth="3" NCoef="0" IVar="-1" Cut="0.0000000000000000e+00" cType="1" res="5.8316849172115326e-03" rms="2.2605395317077637e-01" purity="9.2216157913208008e-01" nType="-99"/>
            <Node pos="r" depth="3" NCoef="0" IVar="-1" Cut="0.0000000000000000e+00" cType="1" res="-1.6391992568969727e-02" rms="2.6105454564094543e-01" purity="8.9219892024993896e-01" nType="-99"/>
          </Node>
        </Node>
      </Node>
    </BinaryTree>
    <BinaryTree type="DecisionTree" boostWeight="1.0000000000000000e+00" itree="140">
      <Node pos="s" depth="0" NCoef="0" IVar="10" Cut="-1.3344286382198334e-01" cType="1" res="-1.8096638086717576e-04" rms="2.9055920243263245e-01" purity="5.0038856267929077e-01" nType="0">
        <Node pos="l" depth="1" NCoef="0" IVar="0" Cut="1.8899838867187500e+03" cType="1" res="-4.8447609879076481e-03" rms="2.8775772452354431e-01" purity="4.8248314857482910e-01" nType="0">
          <Node pos="l" depth="2" NCoef="0" IVar="11" Cut="5.8916419744491577e-01" cType="1" res="-7.7773220837116241e-03" rms="3.0103200674057007e-01" purity="3.6510306596755981e-01" nType="0">
            <Node pos="l" depth="3" NCoef="0" IVar="-1" Cut="0.0000000000000000e+00" cType="1" res="-5.7243043556809425e-03" rms="2.9637584090232849e-01" purity="3.3278337121009827e-01" nType="-99"/>
            <Node pos="r" depth="3" NCoef="0" IVar="-1" Cut="0.0000000000000000e+00" cType="1" res="-2.2487711161375046e-02" rms="3.3077499270439148e-01" purity="5.8753269910812378e-01" nType="-99"/>
          </Node>
          <Node pos="r" depth="2" NCoef="0" IVar="7" Cut="-1.8373830243945122e-02" cType="1" res="5.0104362890124321e-03" rms="2.3751381039619446e-01" purity="8.7695187330245972e-01" nType="0">
            <Node pos="l" depth="3" NCoef="0" IVar="-1" Cut="0.0000000000000000e+00" cType="1" res="-4.8614325933158398e-03" rms="2.4201704561710358e-01" purity="8.6583423614501953e-01" nType="-99"/>
            <Node pos="r" depth="3" NCoef="0" IVar="-1" Cut="0.0000000000000000e+00" cType="1" res="2.2351920604705811e-02" rms="2.3248018324375153e-01" purity="8.8843619823455811e-01" nType="-99"/>
          </Node>
        </Node>
        <Node pos="r" depth="1" NCoef="0" IVar="7" Cut="4.2430940270423889e-01" cType="1" res="3.8076455239206553e-03" rms="2.9287493228912354e-01" purity="5.1570183038711548e-01" nType="0">
          <Node pos="l" depth="2" NCoef="0" IVar="6" Cut="6.3226726531982422e+01" cType="1" res="7.0690303109586239e-03" rms="2.9747784137725830e-01" purity="5.6635445356369019e-01" nType="0">
            <Node pos="l" depth="3" NCoef="0" IVar="-1" Cut="0.0000000000000000e+00" cType="1" res="1.2433747760951519e-02" rms="3.2612612843513489e-01" purity="3.6794707179069519e-01" nType="-99"/>
            <Node pos="r" depth="3" NCoef="0" IVar="-1" Cut="0.0000000000000000e+00" cType="1" res="-4.1867895051836967e-03" rms="2.4690303206443787e-01" purity="8.7039607763290405e-01" nType="-99"/>
          </Node>
          <Node pos="r" depth="2" NCoef="0" IVar="2" Cut="3.1322427368164062e+02" cType="1" res="-2.6359742041677237e-03" rms="2.8345102071762085e-01" purity="4.1562595963478088e-01" nType="0">
            <Node pos="l" depth="3" NCoef="0" IVar="-1" Cut="0.0000000000000000e+00" cType="1" res="6.6618137061595917e-03" rms="2.8785812854766846e-01" purity="3.5238763689994812e-01" nType="-99"/>
            <Node pos="r" depth="3" NCoef="0" IVar="-1" Cut="0.0000000000000000e+00" cType="1" res="-9.8726106807589531e-03" rms="2.8010973334312439e-01" purity="4.6079245209693909e-01" nType="-99"/>
          </Node>
        </Node>
      </Node>
    </BinaryTree>
    <BinaryTree type="DecisionTree" boostWeight="1.0000000000000000e+00" itree="141">
      <Node pos="s" depth="0" NCoef="0" IVar="8" Cut="-6.6672927141189575e-01" cType="1" res="-1.6013430431485176e-03" rms="2.9355001449584961e-01" purity="4.9793916940689087e-01" nType="0">
        <Node pos="l" depth="1" NCoef="0" IVar="0" Cut="1.3078425292968750e+03" cType="1" res="-8.1363301724195480e-03" rms="2.8516581654548645e-01" purity="3.5818409919738770e-01" nType="0">
          <Node pos="l" depth="2" NCoef="0" IVar="9" Cut="-3.9890462160110474e-01" cType="1" res="1.1748443357646465e-03" rms="2.5075116753578186e-01" purity="1.0551319271326065e-01" nType="0">
            <Node pos="l" depth="3" NCoef="0" IVar="-1" Cut="0.0000000000000000e+00" cType="1" res="2.2496229037642479e-02" rms="2.6581105589866638e-01" purity="1.1555977165699005e-01" nType="-99"/>
            <Node pos="r" depth="3" NCoef="0" IVar="-1" Cut="0.0000000000000000e+00" cType="1" res="-1.4008243568241596e-02" rms="2.3732942342758179e-01" purity="9.7346261143684387e-02" nType="-99"/>
          </Node>
          <Node pos="r" depth="2" NCoef="0" IVar="6" Cut="7.1706649780273438e+01" cType="1" res="-1.5574575401842594e-02" rms="3.0972325801849365e-01" purity="5.6003057956695557e-01" nType="0">
            <Node pos="l" depth="3" NCoef="0" IVar="-1" Cut="0.0000000000000000e+00" cType="1" res="-2.3820953443646431e-02" rms="3.3714640140533447e-01" purity="3.6837998032569885e-01" nType="-99"/>
            <Node pos="r" depth="3" NCoef="0" IVar="-1" Cut="0.0000000000000000e+00" cType="1" res="5.2900109440088272e-03" rms="2.6121908426284790e-01" purity="8.5235577821731567e-01" nType="-99"/>
          </Node>
        </Node>
        <Node pos="r" depth="1" NCoef="0" IVar="9" Cut="3.9978167414665222e-01" cType="1" res="4.9449969083070755e-04" rms="2.9615813493728638e-01" purity="5.4276013374328613e-01" nType="0">
          <Node pos="l" depth="2" NCoef="0" IVar="9" Cut="2.4734072387218475e-01" cType="1" res="-3.0886330641806126e-03" rms="2.9214477539062500e-01" purity="5.6988883018493652e-01" nType="0">
            <Node pos="l" depth="3" NCoef="0" IVar="-1" Cut="0.0000000000000000e+00" cType="1" res="-1.1179158464074135e-03" rms="2.9198315739631653e-01" purity="5.6392335891723633e-01" nType="-99"/>
            <Node pos="r" depth="3" NCoef="0" IVar="-1" Cut="0.0000000000000000e+00" cType="1" res="-3.1225606799125671e-02" rms="2.9291769862174988e-01" purity="6.3613992929458618e-01" nType="-99"/>
          </Node>
          <Node pos="r" depth="2" NCoef="0" IVar="4" Cut="1.9029815673828125e+02" cType="1" res="6.8575679324567318e-03" rms="3.0304986238479614e-01" purity="4.9458396434783936e-01" nType="0">
            <Node pos="l" depth="3" NCoef="0" IVar="-1" Cut="0.0000000000000000e+00" cType="1" res="1.3819995336234570e-02" rms="3.0848011374473572e-01" purity="3.7611740827560425e-01" nType="-99"/>
            <Node pos="r" depth="3" NCoef="0" IVar="-1" Cut="0.0000000000000000e+00" cType="1" res="-8.5994657129049301e-03" rms="2.8934869170188904e-01" purity="7.7386593818664551e-01" nType="-99"/>
          </Node>
        </Node>
      </Node>
    </BinaryTree>
    <BinaryTree type="DecisionTree" boostWeight="1.0000000000000000e+00" itree="142">
      <Node pos="s" depth="0" NCoef="0" IVar="5" Cut="9.1341789245605469e+01" cType="1" res="-1.8023091834038496e-03" rms="2.8852242231369019e-01" purity="4.9428036808967590e-01" nType="0">
        <Node pos="l" depth="1" NCoef="0" IVar="9" Cut="-1.3334619998931885e-01" cType="1" res="-5.4176026023924351e-03" rms="3.0279654264450073e-01" purity="2.8469741344451904e-01" nType="0">
          <Node pos="l" depth="2" NCoef="0" IVar="10" Cut="3.9982157945632935e-01" cType="1" res="2.9124756110832095e-04" rms="3.0291670560836792e-01" purity="2.8277015686035156e-01" nType="0">
            <Node pos="l" depth="3" NCoef="0" IVar="-1" Cut="0.0000000000000000e+00" cType="1" res="-6.1776307411491871e-03" rms="3.0023092031478882e-01" purity="2.7269232273101807e-01" nType="-99"/>
            <Node pos="r" depth="3" NCoef="0" IVar="-1" Cut="0.0000000000000000e+00" cType="1" res="1.2222036719322205e-02" rms="3.0758807063102722e-01" purity="3.0173939466476440e-01" nType="-99"/>
          </Node>
          <Node pos="r" depth="2" NCoef="0" IVar="6" Cut="5.6283164978027344e+01" cType="1" res="-1.0453590191900730e-02" rms="3.0260109901428223e-01" purity="2.8639751672744751e-01" nType="0">
            <Node pos="l" depth="3" NCoef="0" IVar="-1" Cut="0.0000000000000000e+00" cType="1" res="-7.5260805897414684e-03" rms="2.9044422507286072e-01" purity="2.0728798210620880e-01" nType="-99"/>
            <Node pos="r" depth="3" NCoef="0" IVar="-1" Cut="0.0000000000000000e+00" cType="1" res="-1.9306225702166557e-02" rms="3.4213918447494507e-01" purity="5.6848365068435669e-01" nType="-99"/>
          </Node>
        </Node>
        <Node pos="r" depth="1" NCoef="0" IVar="10" Cut="9.3284273147583008e-01" cType="1" res="4.0069227106869221e-03" rms="2.6387074589729309e-01" purity="8.3104860782623291e-01" nType="0">
          <Node pos="l" depth="2" NCoef="0" IVar="10" Cut="-1.3773328065872192e+00" cType="1" res="8.3819134160876274e-03" rms="2.5283288955688477e-01" purity="8.4578019380569458e-01" nType="0">
            <Node pos="l" depth="3" NCoef="0" IVar="-1" Cut="0.0000000000000000e+00" cType="1" res="-1.0288267396390438e-02" rms="2.9163992404937744e-01" purity="6.8659770488739014e-01" nType="-99"/>
            <Node pos="r" depth="3" NCoef="0" IVar="-1" Cut="0.0000000000000000e+00" cType="1" res="1.5297565609216690e-02" rms="2.4763888120651245e-01" purity="8.6503922939300537e-01" nType="-99"/>
          </Node>
          <Node pos="r" depth="2" NCoef="0" IVar="10" Cut="1.4659874439239502e+00" cType="1" res="-1.6064379364252090e-02" rms="3.0871069431304932e-01" purity="7.6346373558044434e-01" nType="0">
            <Node pos="l" depth="3" NCoef="0" IVar="-1" Cut="0.0000000000000000e+00" cType="1" res="-4.1131705045700073e-02" rms="2.9689440131187439e-01" purity="8.0459070205688477e-01" nType="-99"/>
            <Node pos="r" depth="3" NCoef="0" IVar="-1" Cut="0.0000000000000000e+00" cType="1" res="3.2162813004106283e-03" rms="3.2282760739326477e-01" purity="7.0843690633773804e-01" nType="-99"/>
          </Node>
        </Node>
      </Node>
    </BinaryTree>
    <BinaryTree type="DecisionTree" boostWeight="1.0000000000000000e+00" itree="143">
      <Node pos="s" depth="0" NCoef="0" IVar="4" Cut="1.9236239624023438e+02" cType="1" res="8.0971111310645938e-04" rms="2.9287993907928467e-01" purity="5.0121855735778809e-01" nType="0">
        <Node pos="l" depth="1" NCoef="0" IVar="10" Cut="-1.4663528203964233e+00" cType="1" res="-1.7612687079235911e-03" rms="2.9977846145629883e-01" purity="3.6195862293243408e-01" nType="0">
          <Node pos="l" depth="2" NCoef="0" IVar="1" Cut="3.8350626826286316e-02" cType="1" res="1.0919502936303616e-02" rms="2.8427267074584961e-01" purity="2.4655000865459442e-01" nType="0">
            <Node pos="l" depth="3" NCoef="0" IVar="-1" Cut="0.0000000000000000e+00" cType="1" res="-1.7485015094280243e-02" rms="2.0170973241329193e-01" purity="6.2471594661474228e-02" nType="-99"/>
            <Node pos="r" depth="3" NCoef="0" IVar="-1" Cut="0.0000000000000000e+00" cType="1" res="2.6476353406906128e-02" rms="3.5255047678947449e-01" purity="4.4973817467689514e-01" nType="-99"/>
          </Node>
          <Node pos="r" depth="2" NCoef="0" IVar="10" Cut="7.6828485727310181e-01" cType="1" res="-3.7722701672464609e-03" rms="3.0211549997329712e-01" purity="3.8026088476181030e-01" nType="0">
            <Node pos="l" depth="3" NCoef="0" IVar="-1" Cut="0.0000000000000000e+00" cType="1" res="-7.6615824364125729e-03" rms="3.0198729038238525e-01" purity="4.0584558248519897e-01" nType="-99"/>
            <Node pos="r" depth="3" NCoef="0" IVar="-1" Cut="0.0000000000000000e+00" cType="1" res="3.7975504528731108e-03" rms="3.0224969983100891e-01" purity="3.2802087068557739e-01" nType="-99"/>
          </Node>
        </Node>
        <Node pos="r" depth="1" NCoef="0" IVar="1" Cut="4.3849706649780273e-02" cType="1" res="6.4862160943448544e-03" rms="2.7695637941360474e-01" purity="8.0869275331497192e-01" nType="0">
          <Node pos="l" depth="2" NCoef="0" IVar="4" Cut="2.3272204589843750e+02" cType="1" res="2.4359514936804771e-02" rms="3.5107827186584473e-01" purity="5.3534948825836182e-01" nType="0">
            <Node pos="l" depth="3" NCoef="0" IVar="-1" Cut="0.0000000000000000e+00" cType="1" res="3.1778782606124878e-02" rms="3.5802888870239258e-01" purity="4.7350943088531494e-01" nType="-99"/>
            <Node pos="r" depth="3" NCoef="0" IVar="-1" Cut="0.0000000000000000e+00" cType="1" res="5.9808674268424511e-03" rms="3.4280988574028015e-01" purity="6.0051327943801880e-01" nType="-99"/>
          </Node>
          <Node pos="r" depth="2" NCoef="0" IVar="9" Cut="-6.6513150930404663e-01" cType="1" res="7.6237460598349571e-04" rms="2.4831831455230713e-01" purity="8.9622968435287476e-01" nType="0">
            <Node pos="l" depth="3" NCoef="0" IVar="-1" Cut="0.0000000000000000e+00" cType="1" res="-2.6898423209786415e-02" rms="2.8266796469688416e-01" purity="8.4265571832656860e-01" nType="-99"/>
            <Node pos="r" depth="3" NCoef="0" IVar="-1" Cut="0.0000000000000000e+00" cType="1" res="9.4610918313264847e-03" rms="2.3899330198764801e-01" purity="9.0919291973114014e-01" nType="-99"/>
          </Node>
        </Node>
      </Node>
    </BinaryTree>
    <BinaryTree type="DecisionTree" boostWeight="1.0000000000000000e+00" itree="144">
      <Node pos="s" depth="0" NCoef="0" IVar="2" Cut="6.8690216064453125e+02" cType="1" res="2.6405039243400097e-03" rms="2.9136386513710022e-01" purity="5.0192391872406006e-01" nType="0">
        <Node pos="l" depth="1" NCoef="0" IVar="2" Cut="4.7823114013671875e+02" cType="1" res="3.5459597129374743e-03" rms="2.8978547453880310e-01" purity="4.9735084176063538e-01" nType="0">
          <Node pos="l" depth="2" NCoef="0" IVar="8" Cut="-1.3304537534713745e-01" cType="1" res="4.2806321289390326e-04" rms="2.8741601109504700e-01" purity="4.7348538041114807e-01" nType="0">
            <Node pos="l" depth="3" NCoef="0" IVar="-1" Cut="0.0000000000000000e+00" cType="1" res="-6.5811951644718647e-03" rms="2.7964043617248535e-01" purity="4.4286063313484192e-01" nType="-99"/>
            <Node pos="r" depth="3" NCoef="0" IVar="-1" Cut="0.0000000000000000e+00" cType="1" res="6.1562708579003811e-03" rms="2.9346132278442383e-01" purity="4.9823796749114990e-01" nType="-99"/>
          </Node>
          <Node pos="r" depth="2" NCoef="0" IVar="6" Cut="6.3181526184082031e+01" cType="1" res="1.6854448243975639e-02" rms="2.9932373762130737e-01" purity="5.9921872615814209e-01" nType="0">
            <Node pos="l" depth="3" NCoef="0" IVar="-1" Cut="0.0000000000000000e+00" cType="1" res="2.6082539930939674e-02" rms="3.3230459690093994e-01" purity="4.1672754287719727e-01" nType="-99"/>
            <Node pos="r" depth="3" NCoef="0" IVar="-1" Cut="0.0000000000000000e+00" cType="1" res="-1.8938146240543574e-04" rms="2.3965588212013245e-01" purity="8.7676775455474854e-01" nType="-99"/>
          </Node>
        </Node>
        <Node pos="r" depth="1" NCoef="0" IVar="-1" Cut="0.0000000000000000e+00" cType="1" res="-1.4369959011673927e-02" rms="3.2199457287788391e-01" purity="5.9745699167251587e-01" nType="-99"/>
      </Node>
    </BinaryTree>
    <BinaryTree type="DecisionTree" boostWeight="1.0000000000000000e+00" itree="145">
      <Node pos="s" depth="0" NCoef="0" IVar="8" Cut="6.6684120893478394e-01" cType="1" res="5.4173270473256707e-04" rms="2.9132905602455139e-01" purity="5.0370526313781738e-01" nType="0">
        <Node pos="l" depth="1" NCoef="0" IVar="11" Cut="1.1428184509277344e+00" cType="1" res="3.2733387779444456e-03" rms="2.9301282763481140e-01" purity="5.4995721578598022e-01" nType="0">
          <Node pos="l" depth="2" NCoef="0" IVar="10" Cut="3.9986136555671692e-01" cType="1" res="1.7404924146831036e-03" rms="2.9239529371261597e-01" purity="5.3032261133193970e-01" nType="0">
            <Node pos="l" depth="3" NCoef="0" IVar="-1" Cut="0.0000000000000000e+00" cType="1" res="-1.8613998545333743e-03" rms="2.8479096293449402e-01" purity="5.3361326456069946e-01" nType="-99"/>
            <Node pos="r" depth="3" NCoef="0" IVar="-1" Cut="0.0000000000000000e+00" cType="1" res="8.7024923413991928e-03" rms="3.0620819330215454e-01" purity="5.2407771348953247e-01" nType="-99"/>
          </Node>
          <Node pos="r" depth="2" NCoef="0" IVar="-1" Cut="0.0000000000000000e+00" cType="1" res="1.9400820136070251e-02" rms="2.9873296618461609e-01" purity="7.4808496236801147e-01" nType="-99"/>
        </Node>
        <Node pos="r" depth="1" NCoef="0" IVar="11" Cut="-1.6190946102142334e+00" cType="1" res="-7.9435771331191063e-03" rms="2.8586903214454651e-01" purity="3.6003091931343079e-01" nType="0">
          <Node pos="l" depth="2" NCoef="0" IVar="5" Cut="6.4352752685546875e+01" cType="1" res="1.4453387120738626e-03" rms="2.7130997180938721e-01" purity="1.7296071350574493e-01" nType="0">
            <Node pos="l" depth="3" NCoef="0" IVar="-1" Cut="0.0000000000000000e+00" cType="1" res="-1.2519915588200092e-02" rms="2.1462856233119965e-01" purity="8.1876702606678009e-02" nType="-99"/>
            <Node pos="r" depth="3" NCoef="0" IVar="-1" Cut="0.0000000000000000e+00" cType="1" res="1.1996637098491192e-02" rms="3.3020684123039246e-01" purity="2.9074367880821228e-01" nType="-99"/>
          </Node>
          <Node pos="r" depth="2" NCoef="0" IVar="0" Cut="1.7971873779296875e+03" cType="1" res="-2.1318066865205765e-02" rms="3.0491340160369873e-01" purity="6.2651205062866211e-01" nType="0">
            <Node pos="l" depth="3" NCoef="0" IVar="-1" Cut="0.0000000000000000e+00" cType="1" res="-3.3301115036010742e-02" rms="3.3837226033210754e-01" purity="4.6835964918136597e-01" nType="-99"/>
            <Node pos="r" depth="3" NCoef="0" IVar="-1" Cut="0.0000000000000000e+00" cType="1" res="1.2830039486289024e-02" rms="2.3656390607357025e-01" purity="8.8805413246154785e-01" nType="-99"/>
          </Node>
        </Node>
      </Node>
    </BinaryTree>
    <BinaryTree type="DecisionTree" boostWeight="1.0000000000000000e+00" itree="146">
      <Node pos="s" depth="0" NCoef="0" IVar="10" Cut="9.3312209844589233e-01" cType="1" res="-1.5998551389202476e-03" rms="2.8989234566688538e-01" purity="4.9513909220695496e-01" nType="0">
        <Node pos="l" depth="1" NCoef="0" IVar="7" Cut="-1.1482616513967514e-01" cType="1" res="1.3344148464966565e-04" rms="2.8849500417709351e-01" purity="5.2003616094589233e-01" nType="0">
          <Node pos="l" depth="2" NCoef="0" IVar="9" Cut="9.3361157178878784e-01" cType="1" res="5.5179996415972710e-03" rms="2.8634494543075562e-01" purity="5.0614821910858154e-01" nType="0">
            <Node pos="l" depth="3" NCoef="0" IVar="-1" Cut="0.0000000000000000e+00" cType="1" res="1.2203934602439404e-02" rms="2.8976535797119141e-01" purity="5.4060727357864380e-01" nType="-99"/>
            <Node pos="r" depth="3" NCoef="0" IVar="-1" Cut="0.0000000000000000e+00" cType="1" res="-2.8225585818290710e-02" rms="2.6467067003250122e-01" purity="3.1365984678268433e-01" nType="-99"/>
          </Node>
          <Node pos="r" depth="2" NCoef="0" IVar="8" Cut="1.3372300565242767e-01" cType="1" res="-4.5107519254088402e-03" rms="2.9025641083717346e-01" purity="5.3201454877853394e-01" nType="0">
            <Node pos="l" depth="3" NCoef="0" IVar="-1" Cut="0.0000000000000000e+00" cType="1" res="-1.2103371322154999e-02" rms="2.8839910030364990e-01" purity="5.3105586767196655e-01" nType="-99"/>
            <Node pos="r" depth="3" NCoef="0" IVar="-1" Cut="0.0000000000000000e+00" cType="1" res="2.8570436406880617e-03" rms="2.9239481687545776e-01" purity="5.3320664167404175e-01" nType="-99"/>
          </Node>
        </Node>
        <Node pos="r" depth="1" NCoef="0" IVar="7" Cut="-3.2988625764846802e-01" cType="1" res="-7.6733096502721310e-03" rms="2.9465588927268982e-01" purity="4.0789970755577087e-01" nType="0">
          <Node pos="l" depth="2" NCoef="0" IVar="5" Cut="6.4175300598144531e+01" cType="1" res="-1.9102433696389198e-02" rms="2.7792736887931824e-01" purity="3.2390794157981873e-01" nType="0">
            <Node pos="l" depth="3" NCoef="0" IVar="-1" Cut="0.0000000000000000e+00" cType="1" res="2.9986302834004164e-03" rms="2.4034306406974792e-01" purity="1.1870788782835007e-01" nType="-99"/>
            <Node pos="r" depth="3" NCoef="0" IVar="-1" Cut="0.0000000000000000e+00" cType="1" res="-3.3612601459026337e-02" rms="2.9793202877044678e-01" purity="4.4985178112983704e-01" nType="-99"/>
          </Node>
          <Node pos="r" depth="2" NCoef="0" IVar="9" Cut="-3.9924952387809753e-01" cType="1" res="-2.5277850218117237e-03" rms="3.0174353718757629e-01" purity="4.4571381807327271e-01" nType="0">
            <Node pos="l" depth="3" NCoef="0" IVar="-1" Cut="0.0000000000000000e+00" cType="1" res="9.1421343386173248e-03" rms="3.0919823050498962e-01" purity="3.8742429018020630e-01" nType="-99"/>
            <Node pos="r" depth="3" NCoef="0" IVar="-1" Cut="0.0000000000000000e+00" cType="1" res="-7.9004308208823204e-03" rms="2.9842925071716309e-01" purity="4.7025096416473389e-01" nType="-99"/>
          </Node>
        </Node>
      </Node>
    </BinaryTree>
    <BinaryTree type="DecisionTree" boostWeight="1.0000000000000000e+00" itree="147">
      <Node pos="s" depth="0" NCoef="0" IVar="9" Cut="-1.4666742086410522e+00" cType="1" res="-2.8784209280274808e-04" rms="2.9371324181556702e-01" purity="4.9701032042503357e-01" nType="0">
        <Node pos="l" depth="1" NCoef="0" IVar="4" Cut="1.1328681945800781e+02" cType="1" res="-1.3068930245935917e-02" rms="2.7308830618858337e-01" purity="2.0193646848201752e-01" nType="0">
          <Node pos="l" depth="2" NCoef="0" IVar="-1" Cut="0.0000000000000000e+00" cType="1" res="1.5492890030145645e-02" rms="2.1964071691036224e-01" purity="7.4976019561290741e-02" nType="-99"/>
          <Node pos="r" depth="2" NCoef="0" IVar="9" Cut="-1.8476281166076660e+00" cType="1" res="-2.6573775336146355e-02" rms="3.0312520265579224e-01" purity="2.8755873441696167e-01" nType="0">
            <Node pos="l" depth="3" NCoef="0" IVar="-1" Cut="0.0000000000000000e+00" cType="1" res="-4.7040995210409164e-02" rms="2.6294246315956116e-01" purity="1.6142109036445618e-01" nType="-99"/>
            <Node pos="r" depth="3" NCoef="0" IVar="-1" Cut="0.0000000000000000e+00" cType="1" res="-1.1232397519052029e-02" rms="3.3610442280769348e-01" purity="4.0661004185676575e-01" nType="-99"/>
          </Node>
        </Node>
        <Node pos="r" depth="1" NCoef="0" IVar="9" Cut="-6.5390700101852417e-01" cType="1" res="9.5577567117288709e-04" rms="2.9561376571655273e-01" purity="5.2572137117385864e-01" nType="0">
          <Node pos="l" depth="2" NCoef="0" IVar="10" Cut="9.3187862634658813e-01" cType="1" res="1.1258431710302830e-02" rms="3.0666613578796387e-01" purity="5.0250595808029175e-01" nType="0">
            <Node pos="l" depth="3" NCoef="0" IVar="-1" Cut="0.0000000000000000e+00" cType="1" res="5.4083275608718395e-03" rms="2.9985946416854858e-01" purity="5.1777410507202148e-01" nType="-99"/>
            <Node pos="r" depth="3" NCoef="0" IVar="-1" Cut="0.0000000000000000e+00" cType="1" res="3.8413483649492264e-02" rms="3.3236163854598999e-01" purity="4.3855878710746765e-01" nType="-99"/>
          </Node>
          <Node pos="r" depth="2" NCoef="0" IVar="9" Cut="6.6179418563842773e-01" cType="1" res="-1.6188167501240969e-03" rms="2.9273006319999695e-01" purity="5.3152287006378174e-01" nType="0">
            <Node pos="l" depth="3" NCoef="0" IVar="-1" Cut="0.0000000000000000e+00" cType="1" res="-6.1743315309286118e-03" rms="2.8995564579963684e-01" purity="5.9996449947357178e-01" nType="-99"/>
            <Node pos="r" depth="3" NCoef="0" IVar="-1" Cut="0.0000000000000000e+00" cType="1" res="5.3417906165122986e-03" rms="2.9734215140342712e-01" purity="4.1359955072402954e-01" nType="-99"/>
          </Node>
        </Node>
      </Node>
    </BinaryTree>
    <BinaryTree type="DecisionTree" boostWeight="1.0000000000000000e+00" itree="148">
      <Node pos="s" depth="0" NCoef="0" IVar="9" Cut="1.3339617848396301e-01" cType="1" res="-1.9823310431092978e-03" rms="2.9231464862823486e-01" purity="4.9877750873565674e-01" nType="0">
        <Node pos="l" depth="1" NCoef="0" IVar="10" Cut="6.6657608747482300e-01" cType="1" res="1.9420734606683254e-03" rms="2.9286453127861023e-01" purity="5.1549106836318970e-01" nType="0">
          <Node pos="l" depth="2" NCoef="0" IVar="3" Cut="2.1735304260253906e+02" cType="1" res="-2.5313587393611670e-03" rms="2.8962108492851257e-01" purity="5.2546346187591553e-01" nType="0">
            <Node pos="l" depth="3" NCoef="0" IVar="-1" Cut="0.0000000000000000e+00" cType="1" res="8.2905385643243790e-03" rms="2.8823199868202209e-01" purity="3.4123066067695618e-01" nType="-99"/>
            <Node pos="r" depth="3" NCoef="0" IVar="-1" Cut="0.0000000000000000e+00" cType="1" res="-1.2743354775011539e-02" rms="2.9058399796485901e-01" purity="6.8812865018844604e-01" nType="-99"/>
          </Node>
          <Node pos="r" depth="2" NCoef="0" IVar="1" Cut="3.8891319185495377e-02" cType="1" res="1.3816107064485550e-02" rms="3.0098217725753784e-01" purity="4.8902079463005066e-01" nType="0">
            <Node pos="l" depth="3" NCoef="0" IVar="-1" Cut="0.0000000000000000e+00" cType="1" res="-2.8739622794091702e-03" rms="2.5905883312225342e-01" purity="1.7185844480991364e-01" nType="-99"/>
            <Node pos="r" depth="3" NCoef="0" IVar="-1" Cut="0.0000000000000000e+00" cType="1" res="2.3680761456489563e-02" rms="3.2327911257743835e-01" purity="6.8036913871765137e-01" nType="-99"/>
          </Node>
        </Node>
        <Node pos="r" depth="1" NCoef="0" IVar="7" Cut="9.3838709592819214e-01" cType="1" res="-6.7942542955279350e-03" rms="2.9156690835952759e-01" purity="4.7828412055969238e-01" nType="0">
          <Node pos="l" depth="2" NCoef="0" IVar="0" Cut="1.6923262939453125e+03" cType="1" res="-9.6084019169211388e-03" rms="2.9462930560112000e-01" purity="5.2498131990432739e-01" nType="0">
            <Node pos="l" depth="3" NCoef="0" IVar="-1" Cut="0.0000000000000000e+00" cType="1" res="-1.7239352688193321e-02" rms="3.1524291634559631e-01" purity="3.3606398105621338e-01" nType="-99"/>
            <Node pos="r" depth="3" NCoef="0" IVar="-1" Cut="0.0000000000000000e+00" cType="1" res="6.0726110823452473e-03" rms="2.5392705202102661e-01" purity="8.5597670078277588e-01" nType="-99"/>
          </Node>
          <Node pos="r" depth="2" NCoef="0" IVar="2" Cut="3.7277905273437500e+02" cType="1" res="6.8426895886659622e-03" rms="2.7584031224250793e-01" purity="2.5199589133262634e-01" nType="0">
            <Node pos="l" depth="3" NCoef="0" IVar="-1" Cut="0.0000000000000000e+00" cType="1" res="2.7658570557832718e-02" rms="2.6300600171089172e-01" purity="2.4639122188091278e-01" nType="-99"/>
            <Node pos="r" depth="3" NCoef="0" IVar="-1" Cut="0.0000000000000000e+00" cType="1" res="-2.2159468382596970e-02" rms="2.9731681942939758e-01" purity="2.6265048980712891e-01" nType="-99"/>
          </Node>
        </Node>
      </Node>
    </BinaryTree>
    <BinaryTree type="DecisionTree" boostWeight="1.0000000000000000e+00" itree="149">
      <Node pos="s" depth="0" NCoef="0" IVar="7" Cut="-3.9091467857360840e-01" cType="1" res="3.4820011351257563e-03" rms="2.9087898135185242e-01" purity="5.0685769319534302e-01" nType="0">
        <Node pos="l" depth="1" NCoef="0" IVar="8" Cut="1.3358123600482941e-01" cType="1" res="-3.8534356281161308e-03" rms="2.8338825702667236e-01" purity="4.0694576501846313e-01" nType="0">
          <Node pos="l" depth="2" NCoef="0" IVar="0" Cut="1.3149968261718750e+03" cType="1" res="5.7759676128625870e-03" rms="2.9296877980232239e-01" purity="4.4308343529701233e-01" nType="0">
            <Node pos="l" depth="3" NCoef="0" IVar="-1" Cut="0.0000000000000000e+00" cType="1" res="-1.1851068586111069e-02" rms="2.6355212926864624e-01" purity="1.1760228872299194e-01" nType="-99"/>
            <Node pos="r" depth="3" NCoef="0" IVar="-1" Cut="0.0000000000000000e+00" cType="1" res="1.5674501657485962e-02" rms="3.1176537275314331e-01" purity="6.7413485050201416e-01" nType="-99"/>
          </Node>
          <Node pos="r" depth="2" NCoef="0" IVar="4" Cut="1.2070098876953125e+02" cType="1" res="-1.7414577305316925e-02" rms="2.6873412728309631e-01" purity="3.5605287551879883e-01" nType="0">
            <Node pos="l" depth="3" NCoef="0" IVar="-1" Cut="0.0000000000000000e+00" cType="1" res="1.3977775815874338e-03" rms="2.1460916101932526e-01" purity="8.3760909736156464e-02" nType="-99"/>
            <Node pos="r" depth="3" NCoef="0" IVar="-1" Cut="0.0000000000000000e+00" cType="1" res="-2.9322130605578423e-02" rms="2.9319122433662415e-01" purity="5.0190067291259766e-01" nType="-99"/>
          </Node>
        </Node>
        <Node pos="r" depth="1" NCoef="0" IVar="7" Cut="1.7351093292236328e+00" cType="1" res="6.9758375175297260e-03" rms="2.9431551694869995e-01" purity="5.5444526672363281e-01" nType="0">
          <Node pos="l" depth="2" NCoef="0" IVar="7" Cut="1.2288736104965210e+00" cType="1" res="8.2256905734539032e-03" rms="3.0046206712722778e-01" purity="5.8331614732742310e-01" nType="0">
            <Node pos="l" depth="3" NCoef="0" IVar="-1" Cut="0.0000000000000000e+00" cType="1" res="7.1483370848000050e-03" rms="3.0240020155906677e-01" purity="6.1514884233474731e-01" nType="-99"/>
            <Node pos="r" depth="3" NCoef="0" IVar="-1" Cut="0.0000000000000000e+00" cType="1" res="3.4724980592727661e-02" rms="2.7833569049835205e-01" purity="2.4272492527961731e-01" nType="-99"/>
          </Node>
          <Node pos="r" depth="2" NCoef="0" IVar="-1" Cut="0.0000000000000000e+00" cType="1" res="-4.3699085712432861e-02" rms="1.5003898739814758e-01" purity="5.2106309682130814e-02" nType="-99"/>
        </Node>
      </Node>
    </BinaryTree>
    <BinaryTree type="DecisionTree" boostWeight="1.0000000000000000e+00" itree="150">
      <Node pos="s" depth="0" NCoef="0" IVar="10" Cut="-1.1998633146286011e+00" cType="1" res="2.7689205016940832e-03" rms="2.9090601205825806e-01" purity="5.0456780195236206e-01" nType="0">
        <Node pos="l" depth="1" NCoef="0" IVar="1" Cut="2.0872022956609726e-02" cType="1" res="1.6062049195170403e-02" rms="2.9135590791702271e-01" purity="3.8922610878944397e-01" nType="0">
          <Node pos="l" depth="2" NCoef="0" IVar="-1" Cut="0.0000000000000000e+00" cType="1" res="5.6464760564267635e-04" rms="1.9353522360324860e-01" purity="6.3082076609134674e-02" nType="-99"/>
          <Node pos="r" depth="2" NCoef="0" IVar="5" Cut="9.2730415344238281e+01" cType="1" res="2.2253036499023438e-02" rms="3.2135847210884094e-01" purity="5.1656568050384521e-01" nType="0">
            <Node pos="l" depth="3" NCoef="0" IVar="-1" Cut="0.0000000000000000e+00" cType="1" res="2.7061250060796738e-02" rms="3.4551379084587097e-01" purity="3.5398775339126587e-01" nType="-99"/>
            <Node pos="r" depth="3" NCoef="0" IVar="-1" Cut="0.0000000000000000e+00" cType="1" res="7.0179682224988937e-03" rms="2.6970177888870239e-01" purity="8.2054227590560913e-01" nType="-99"/>
          </Node>
        </Node>
        <Node pos="r" depth="1" NCoef="0" IVar="8" Cut="-6.6626280546188354e-01" cType="1" res="-8.0287509263143875e-06" rms="2.9073521494865417e-01" purity="5.2866280078887939e-01" nType="0">
          <Node pos="l" depth="2" NCoef="0" IVar="3" Cut="2.7642153930664062e+02" cType="1" res="-1.0004276409745216e-02" rms="2.8149911761283875e-01" purity="3.8591867685317993e-01" nType="0">
            <Node pos="l" depth="3" NCoef="0" IVar="-1" Cut="0.0000000000000000e+00" cType="1" res="-6.6561833955347538e-03" rms="2.7715897560119629e-01" purity="3.3465966582298279e-01" nType="-99"/>
            <Node pos="r" depth="3" NCoef="0" IVar="-1" Cut="0.0000000000000000e+00" cType="1" res="-2.8021641075611115e-02" rms="2.9572507739067078e-01" purity="5.6659442186355591e-01" nType="-99"/>
          </Node>
          <Node pos="r" depth="2" NCoef="0" IVar="9" Cut="-6.6662752628326416e-01" cType="1" res="2.9581955168396235e-03" rms="2.9335442185401917e-01" purity="5.7101976871490479e-01" nType="0">
            <Node pos="l" depth="3" NCoef="0" IVar="-1" Cut="0.0000000000000000e+00" cType="1" res="-8.7834456935524940e-03" rms="3.0041983723640442e-01" purity="4.8399922251701355e-01" nType="-99"/>
            <Node pos="r" depth="3" NCoef="0" IVar="-1" Cut="0.0000000000000000e+00" cType="1" res="7.2781988419592381e-03" rms="2.9114261269569397e-01" purity="5.9688621759414673e-01" nType="-99"/>
          </Node>
        </Node>
      </Node>
    </BinaryTree>
    <BinaryTree type="DecisionTree" boostWeight="1.0000000000000000e+00" itree="151">
      <Node pos="s" depth="0" NCoef="0" IVar="10" Cut="1.4666417837142944e+00" cType="1" res="-9.4758713385090232e-04" rms="2.9344716668128967e-01" purity="4.9827089905738831e-01" nType="0">
        <Node pos="l" depth="1" NCoef="0" IVar="9" Cut="-1.3307830691337585e-01" cType="1" res="6.2302954029291868e-04" rms="2.9326054453849792e-01" purity="5.2099406719207764e-01" nType="0">
          <Node pos="l" depth="2" NCoef="0" IVar="7" Cut="1.9138681888580322e-01" cType="1" res="-5.1469407044351101e-03" rms="2.9361540079116821e-01" purity="4.9885150790214539e-01" nType="0">
            <Node pos="l" depth="3" NCoef="0" IVar="-1" Cut="0.0000000000000000e+00" cType="1" res="1.0707082692533731e-03" rms="2.9675397276878357e-01" purity="5.2493411302566528e-01" nType="-99"/>
            <Node pos="r" depth="3" NCoef="0" IVar="-1" Cut="0.0000000000000000e+00" cType="1" res="-1.9011352211236954e-02" rms="2.8778529167175293e-01" purity="4.5362162590026855e-01" nType="-99"/>
          </Node>
          <Node pos="r" depth="2" NCoef="0" IVar="1" Cut="1.2711797654628754e-01" cType="1" res="5.5295256897807121e-03" rms="2.9286906123161316e-01" purity="5.3982299566268921e-01" nType="0">
            <Node pos="l" depth="3" NCoef="0" IVar="-1" Cut="0.0000000000000000e+00" cType="1" res="1.0312073864042759e-02" rms="3.0246153473854065e-01" purity="4.5361083745956421e-01" nType="-99"/>
            <Node pos="r" depth="3" NCoef="0" IVar="-1" Cut="0.0000000000000000e+00" cType="1" res="-1.7311153933405876e-02" rms="2.5172036886215210e-01" purity="8.7309062480926514e-01" nType="-99"/>
          </Node>
        </Node>
        <Node pos="r" depth="1" NCoef="0" IVar="5" Cut="9.2833114624023438e+01" cType="1" res="-1.3465038500726223e-02" rms="2.9463127255439758e-01" purity="3.1717249751091003e-01" nType="0">
          <Node pos="l" depth="2" NCoef="0" IVar="8" Cut="-1.3525001704692841e-01" cType="1" res="-4.4203125871717930e-03" rms="2.8490418195724487e-01" purity="2.0670212805271149e-01" nType="0">
            <Node pos="l" depth="3" NCoef="0" IVar="-1" Cut="0.0000000000000000e+00" cType="1" res="2.0086517557501793e-02" rms="2.9318854212760925e-01" purity="2.2233489155769348e-01" nType="-99"/>
            <Node pos="r" depth="3" NCoef="0" IVar="-1" Cut="0.0000000000000000e+00" cType="1" res="-2.1822201088070869e-02" rms="2.7818760275840759e-01" purity="1.9597184658050537e-01" nType="-99"/>
          </Node>
          <Node pos="r" depth="2" NCoef="0" IVar="-1" Cut="0.0000000000000000e+00" cType="1" res="-4.6530336141586304e-02" rms="3.2372051477432251e-01" purity="6.9376116991043091e-01" nType="-99"/>
        </Node>
      </Node>
    </BinaryTree>
    <BinaryTree type="DecisionTree" boostWeight="1.0000000000000000e+00" itree="152">
      <Node pos="s" depth="0" NCoef="0" IVar="0" Cut="1.3396345214843750e+03" cType="1" res="-1.4977364335209131e-03" rms="2.8757700324058533e-01" purity="4.9870193004608154e-01" nType="0">
        <Node pos="l" depth="1" NCoef="0" IVar="2" Cut="2.9839544677734375e+02" cType="1" res="-6.9220000877976418e-03" rms="2.7518144249916077e-01" purity="1.5272170305252075e-01" nType="0">
          <Node pos="l" depth="2" NCoef="0" IVar="0" Cut="1.0055455932617188e+03" cType="1" res="-8.6218985961750150e-04" rms="2.9543596506118774e-01" purity="1.9591526687145233e-01" nType="0">
            <Node pos="l" depth="3" NCoef="0" IVar="-1" Cut="0.0000000000000000e+00" cType="1" res="-4.7553677111864090e-02" rms="1.4348872005939484e-01" purity="2.1088140085339546e-02" nType="-99"/>
            <Node pos="r" depth="3" NCoef="0" IVar="-1" Cut="0.0000000000000000e+00" cType="1" res="4.9812584184110165e-03" rms="3.4135192632675171e-01" purity="2.7294036746025085e-01" nType="-99"/>
          </Node>
          <Node pos="r" depth="2" NCoef="0" IVar="8" Cut="4.0021881461143494e-01" cType="1" res="-1.6076732426881790e-02" rms="2.4109162390232086e-01" purity="8.7467916309833527e-02" nType="0">
            <Node pos="l" depth="3" NCoef="0" IVar="-1" Cut="0.0000000000000000e+00" cType="1" res="-3.6694090813398361e-02" rms="2.4791194498538971e-01" purity="8.8118836283683777e-02" nType="-99"/>
            <Node pos="r" depth="3" NCoef="0" IVar="-1" Cut="0.0000000000000000e+00" cType="1" res="-9.3080522492527962e-04" rms="2.2873096168041229e-01" purity="8.6410716176033020e-02" nType="-99"/>
          </Node>
        </Node>
        <Node pos="r" depth="1" NCoef="0" IVar="2" Cut="4.5182260131835938e+02" cType="1" res="1.9932810682803392e-03" rms="2.9522693157196045e-01" purity="7.2137230634689331e-01" nType="0">
          <Node pos="l" depth="2" NCoef="0" IVar="10" Cut="6.6577678918838501e-01" cType="1" res="5.5544078350067139e-03" rms="2.8907838463783264e-01" purity="7.8696721792221069e-01" nType="0">
            <Node pos="l" depth="3" NCoef="0" IVar="-1" Cut="0.0000000000000000e+00" cType="1" res="1.1621986515820026e-02" rms="2.8313410282135010e-01" purity="8.0219137668609619e-01" nType="-99"/>
            <Node pos="r" depth="3" NCoef="0" IVar="-1" Cut="0.0000000000000000e+00" cType="1" res="-6.5406020730733871e-03" rms="3.0415496230125427e-01" purity="7.4609363079071045e-01" nType="-99"/>
          </Node>
          <Node pos="r" depth="2" NCoef="0" IVar="7" Cut="-7.8527873754501343e-01" cType="1" res="-3.3597839064896107e-03" rms="3.0415722727775574e-01" purity="6.2277036905288696e-01" nType="0">
            <Node pos="l" depth="3" NCoef="0" IVar="-1" Cut="0.0000000000000000e+00" cType="1" res="-2.9017940163612366e-02" rms="2.9752606153488159e-01" purity="3.4557569026947021e-01" nType="-99"/>
            <Node pos="r" depth="3" NCoef="0" IVar="-1" Cut="0.0000000000000000e+00" cType="1" res="5.7012803154066205e-04" rms="3.0506643652915955e-01" purity="6.6872870922088623e-01" nType="-99"/>
          </Node>
        </Node>
      </Node>
    </BinaryTree>
    <BinaryTree type="DecisionTree" boostWeight="1.0000000000000000e+00" itree="153">
      <Node pos="s" depth="0" NCoef="0" IVar="0" Cut="2.1792897949218750e+03" cType="1" res="-3.2047079876065254e-03" rms="2.9132604598999023e-01" purity="4.9612689018249512e-01" nType="0">
        <Node pos="l" depth="1" NCoef="0" IVar="3" Cut="1.8456800842285156e+02" cType="1" res="-4.7130361199378967e-03" rms="3.0076920986175537e-01" purity="4.3588206171989441e-01" nType="0">
          <Node pos="l" depth="2" NCoef="0" IVar="0" Cut="1.2597545166015625e+03" cType="1" res="2.3316920269280672e-03" rms="2.7483516931533813e-01" purity="2.2926683723926544e-01" nType="0">
            <Node pos="l" depth="3" NCoef="0" IVar="-1" Cut="0.0000000000000000e+00" cType="1" res="-9.0792924165725708e-03" rms="2.4223606288433075e-01" purity="9.5040358603000641e-02" nType="-99"/>
            <Node pos="r" depth="3" NCoef="0" IVar="-1" Cut="0.0000000000000000e+00" cType="1" res="1.8990397453308105e-02" rms="3.3822053670883179e-01" purity="5.4258650541305542e-01" nType="-99"/>
          </Node>
          <Node pos="r" depth="2" NCoef="0" IVar="7" Cut="-3.9096066355705261e-01" cType="1" res="-8.9440420269966125e-03" rms="3.1524577736854553e-01" purity="5.5997347831726074e-01" nType="0">
            <Node pos="l" depth="3" NCoef="0" IVar="-1" Cut="0.0000000000000000e+00" cType="1" res="-6.2665803125128150e-04" rms="3.1111744046211243e-01" purity="4.8606094717979431e-01" nType="-99"/>
            <Node pos="r" depth="3" NCoef="0" IVar="-1" Cut="0.0000000000000000e+00" cType="1" res="-1.2785604223608971e-02" rms="3.1710821390151978e-01" purity="5.9501957893371582e-01" nType="-99"/>
          </Node>
        </Node>
        <Node pos="r" depth="1" NCoef="0" IVar="9" Cut="-3.9975705742835999e-01" cType="1" res="7.2678178548812866e-03" rms="2.1429997682571411e-01" purity="9.1441482305526733e-01" nType="0">
          <Node pos="l" depth="2" NCoef="0" IVar="-1" Cut="0.0000000000000000e+00" cType="1" res="-1.0114917531609535e-02" rms="2.2508847713470459e-01" purity="8.8638323545455933e-01" nType="-99"/>
          <Node pos="r" depth="2" NCoef="0" IVar="1" Cut="6.0221463441848755e-02" cType="1" res="1.2718595564365387e-02" rms="2.0940972864627838e-01" purity="9.2606949806213379e-01" nType="0">
            <Node pos="l" depth="3" NCoef="0" IVar="-1" Cut="0.0000000000000000e+00" cType="1" res="2.5508064776659012e-02" rms="2.9219183325767517e-01" purity="8.3362126350402832e-01" nType="-99"/>
            <Node pos="r" depth="3" NCoef="0" IVar="-1" Cut="0.0000000000000000e+00" cType="1" res="2.1794797852635384e-02" rms="1.4847640693187714e-01" purity="9.7433066368103027e-01" nType="-99"/>
          </Node>
        </Node>
      </Node>
    </BinaryTree>
    <BinaryTree type="DecisionTree" boostWeight="1.0000000000000000e+00" itree="154">
      <Node pos="s" depth="0" NCoef="0" IVar="9" Cut="-1.9998515844345093e+00" cType="1" res="-9.6107798162847757e-04" rms="2.8964489698410034e-01" purity="4.9866729974746704e-01" nType="0">
        <Node pos="l" depth="1" NCoef="0" IVar="-1" Cut="0.0000000000000000e+00" cType="1" res="-3.8631223142147064e-02" rms="2.0761580765247345e-01" purity="9.0751580893993378e-02" nType="-99"/>
        <Node pos="r" depth="1" NCoef="0" IVar="2" Cut="3.3580932617187500e+02" cType="1" res="-2.1906811161898077e-04" rms="2.9203781485557556e-01" purity="5.1275211572647095e-01" nType="0">
          <Node pos="l" depth="2" NCoef="0" IVar="2" Cut="2.9700216674804688e+02" cType="1" res="4.4472385197877884e-03" rms="2.9083985090255737e-01" purity="4.4315811991691589e-01" nType="0">
            <Node pos="l" depth="3" NCoef="0" IVar="-1" Cut="0.0000000000000000e+00" cType="1" res="1.1155049316585064e-02" rms="2.9151898622512817e-01" purity="4.2080265283584595e-01" nType="-99"/>
            <Node pos="r" depth="3" NCoef="0" IVar="-1" Cut="0.0000000000000000e+00" cType="1" res="-1.1701186187565327e-02" rms="2.8861567378044128e-01" purity="5.0048500299453735e-01" nType="-99"/>
          </Node>
          <Node pos="r" depth="2" NCoef="0" IVar="7" Cut="9.7124606370925903e-01" cType="1" res="-4.0344763547182083e-03" rms="2.9295846819877625e-01" purity="5.6965571641921997e-01" nType="0">
            <Node pos="l" depth="3" NCoef="0" IVar="-1" Cut="0.0000000000000000e+00" cType="1" res="-1.9761547446250916e-03" rms="2.9892849922180176e-01" purity="6.1662369966506958e-01" nType="-99"/>
            <Node pos="r" depth="3" NCoef="0" IVar="-1" Cut="0.0000000000000000e+00" cType="1" res="-3.0874906107783318e-02" rms="2.4221980571746826e-01" purity="2.1314828097820282e-01" nType="-99"/>
          </Node>
        </Node>
      </Node>
    </BinaryTree>
    <BinaryTree type="DecisionTree" boostWeight="1.0000000000000000e+00" itree="155">
      <Node pos="s" depth="0" NCoef="0" IVar="1" Cut="1.2711797654628754e-01" cType="1" res="4.1469191201031208e-03" rms="2.9335221648216248e-01" purity="5.0304299592971802e-01" nType="0">
        <Node pos="l" depth="1" NCoef="0" IVar="10" Cut="1.3331303000450134e-01" cType="1" res="7.3381951078772545e-03" rms="3.0139958858489990e-01" purity="4.1185817122459412e-01" nType="0">
          <Node pos="l" depth="2" NCoef="0" IVar="2" Cut="4.3266836547851562e+02" cType="1" res="1.3242150656878948e-02" rms="3.0343273282051086e-01" purity="4.2016300559043884e-01" nType="0">
            <Node pos="l" depth="3" NCoef="0" IVar="-1" Cut="0.0000000000000000e+00" cType="1" res="2.0660506561398506e-02" rms="2.9952338337898254e-01" purity="3.7169408798217773e-01" nType="-99"/>
            <Node pos="r" depth="3" NCoef="0" IVar="-1" Cut="0.0000000000000000e+00" cType="1" res="2.9145628213882446e-03" rms="3.1123754382133484e-01" purity="5.2212464809417725e-01" nType="-99"/>
          </Node>
          <Node pos="r" depth="2" NCoef="0" IVar="2" Cut="4.1290258789062500e+02" cType="1" res="3.3845601137727499e-05" rms="2.9870355129241943e-01" purity="4.0158355236053467e-01" nType="0">
            <Node pos="l" depth="3" NCoef="0" IVar="-1" Cut="0.0000000000000000e+00" cType="1" res="6.1366232112050056e-03" rms="2.9879876971244812e-01" purity="3.4351831674575806e-01" nType="-99"/>
            <Node pos="r" depth="3" NCoef="0" IVar="-1" Cut="0.0000000000000000e+00" cType="1" res="-9.7792595624923706e-03" rms="2.9829806089401245e-01" purity="5.0402462482452393e-01" nType="-99"/>
          </Node>
        </Node>
        <Node pos="r" depth="1" NCoef="0" IVar="5" Cut="9.1342330932617188e+01" cType="1" res="-8.2151470705866814e-03" rms="2.5946667790412903e-01" purity="8.5626620054244995e-01" nType="0">
          <Node pos="l" depth="2" NCoef="0" IVar="-1" Cut="0.0000000000000000e+00" cType="1" res="-2.0411409437656403e-02" rms="3.5576534271240234e-01" purity="6.7364132404327393e-01" nType="-99"/>
          <Node pos="r" depth="2" NCoef="0" IVar="-1" Cut="0.0000000000000000e+00" cType="1" res="3.3138927537947893e-03" rms="1.8667699396610260e-01" purity="9.5559132099151611e-01" nType="-99"/>
        </Node>
      </Node>
    </BinaryTree>
    <BinaryTree type="DecisionTree" boostWeight="1.0000000000000000e+00" itree="156">
      <Node pos="s" depth="0" NCoef="0" IVar="8" Cut="9.3338507413864136e-01" cType="1" res="9.4861717661842704e-04" rms="2.9230868816375732e-01" purity="5.0067311525344849e-01" nType="0">
        <Node pos="l" depth="1" NCoef="0" IVar="1" Cut="4.3795950710773468e-02" cType="1" res="3.4522223286330700e-03" rms="2.9572075605392456e-01" purity="5.4800987243652344e-01" nType="0">
          <Node pos="l" depth="2" NCoef="0" IVar="3" Cut="1.3888475036621094e+02" cType="1" res="9.6009438857436180e-03" rms="2.9081925749778748e-01" purity="2.5262030959129333e-01" nType="0">
            <Node pos="l" depth="3" NCoef="0" IVar="-1" Cut="0.0000000000000000e+00" cType="1" res="-2.9007233679294586e-02" rms="1.6231265664100647e-01" purity="3.8047101348638535e-02" nType="-99"/>
            <Node pos="r" depth="3" NCoef="0" IVar="-1" Cut="0.0000000000000000e+00" cType="1" res="1.5525063499808311e-02" rms="3.1778153777122498e-01" purity="3.1363934278488159e-01" nType="-99"/>
          </Node>
          <Node pos="r" depth="2" NCoef="0" IVar="9" Cut="1.4644571542739868e+00" cType="1" res="-3.7581066135317087e-04" rms="2.9866775870323181e-01" purity="7.3191159963607788e-01" nType="0">
            <Node pos="l" depth="3" NCoef="0" IVar="-1" Cut="0.0000000000000000e+00" cType="1" res="-2.2151984740048647e-03" rms="2.9585319757461548e-01" purity="7.4392122030258179e-01" nType="-99"/>
            <Node pos="r" depth="3" NCoef="0" IVar="-1" Cut="0.0000000000000000e+00" cType="1" res="2.2998208180069923e-02" rms="3.4321901202201843e-01" purity="5.2093130350112915e-01" nType="-99"/>
          </Node>
        </Node>
        <Node pos="r" depth="1" NCoef="0" IVar="3" Cut="1.8673356628417969e+02" cType="1" res="-1.1297933757305145e-02" rms="2.7468049526214600e-01" purity="2.6912218332290649e-01" nType="0">
          <Node pos="l" depth="2" NCoef="0" IVar="10" Cut="4.0012672543525696e-01" cType="1" res="6.8473578721750528e-05" rms="2.4861882627010345e-01" purity="1.3494193553924561e-01" nType="0">
            <Node pos="l" depth="3" NCoef="0" IVar="-1" Cut="0.0000000000000000e+00" cType="1" res="-2.1161666139960289e-02" rms="2.4513255059719086e-01" purity="1.2891763448715210e-01" nType="-99"/>
            <Node pos="r" depth="3" NCoef="0" IVar="-1" Cut="0.0000000000000000e+00" cType="1" res="2.4778299033641815e-02" rms="2.5180521607398987e-01" purity="1.4194814860820770e-01" nType="-99"/>
          </Node>
          <Node pos="r" depth="2" NCoef="0" IVar="4" Cut="1.9303189086914062e+02" cType="1" res="-2.0647590979933739e-02" rms="2.9406449198722839e-01" purity="3.7949475646018982e-01" nType="0">
            <Node pos="l" depth="3" NCoef="0" IVar="-1" Cut="0.0000000000000000e+00" cType="1" res="-3.4871250391006470e-02" rms="2.7458781003952026e-01" purity="2.3782077431678772e-01" nType="-99"/>
            <Node pos="r" depth="3" NCoef="0" IVar="-1" Cut="0.0000000000000000e+00" cType="1" res="-4.0306183509528637e-03" rms="3.2396030426025391e-01" purity="6.2125313282012939e-01" nType="-99"/>
          </Node>
        </Node>
      </Node>
    </BinaryTree>
    <BinaryTree type="DecisionTree" boostWeight="1.0000000000000000e+00" itree="157">
      <Node pos="s" depth="0" NCoef="0" IVar="2" Cut="7.5906060791015625e+02" cType="1" res="1.0192668996751308e-03" rms="2.9296639561653137e-01" purity="4.9768486618995667e-01" nType="0">
        <Node pos="l" depth="1" NCoef="0" IVar="10" Cut="1.3332694768905640e-01" cType="1" res="1.8051159568130970e-03" rms="2.9142147302627563e-01" purity="4.9577754735946655e-01" nType="0">
          <Node pos="l" depth="2" NCoef="0" IVar="1" Cut="1.2519213557243347e-01" cType="1" res="5.8769085444509983e-03" rms="2.9105502367019653e-01" purity="4.9814024567604065e-01" nType="0">
            <Node pos="l" depth="3" NCoef="0" IVar="-1" Cut="0.0000000000000000e+00" cType="1" res="1.0541996918618679e-02" rms="2.9825127124786377e-01" purity="4.0614241361618042e-01" nType="-99"/>
            <Node pos="r" depth="3" NCoef="0" IVar="-1" Cut="0.0000000000000000e+00" cType="1" res="-1.1216863058507442e-02" rms="2.6119139790534973e-01" purity="8.5081899166107178e-01" nType="-99"/>
          </Node>
          <Node pos="r" depth="2" NCoef="0" IVar="11" Cut="-1.0667737722396851e+00" cType="1" res="-3.1246503349393606e-03" rms="2.9178848862648010e-01" purity="4.9291700124740601e-01" nType="0">
            <Node pos="l" depth="3" NCoef="0" IVar="-1" Cut="0.0000000000000000e+00" cType="1" res="-9.0949581936001778e-03" rms="2.9398006200790405e-01" purity="2.9134768247604370e-01" nType="-99"/>
            <Node pos="r" depth="3" NCoef="0" IVar="-1" Cut="0.0000000000000000e+00" cType="1" res="3.9164279587566853e-03" rms="2.8881323337554932e-01" purity="7.5260078907012939e-01" nType="-99"/>
          </Node>
        </Node>
        <Node pos="r" depth="1" NCoef="0" IVar="-1" Cut="0.0000000000000000e+00" cType="1" res="-2.2935952991247177e-02" rms="3.4506550431251526e-01" purity="5.6982421875000000e-01" nType="-99"/>
      </Node>
    </BinaryTree>
    <BinaryTree type="DecisionTree" boostWeight="1.0000000000000000e+00" itree="158">
      <Node pos="s" depth="0" NCoef="0" IVar="1" Cut="6.5697379410266876e-02" cType="1" res="-7.1194432393895113e-07" rms="2.8992551565170288e-01" purity="5.0050830841064453e-01" nType="0">
        <Node pos="l" depth="1" NCoef="0" IVar="11" Cut="-5.1437032222747803e-01" cType="1" res="-3.9106779731810093e-03" rms="2.8663614392280579e-01" purity="2.8366747498512268e-01" nType="0">
          <Node pos="l" depth="2" NCoef="0" IVar="4" Cut="1.4568190002441406e+02" cType="1" res="-8.2424758002161980e-03" rms="2.7054744958877563e-01" purity="1.9471515715122223e-01" nType="0">
            <Node pos="l" depth="3" NCoef="0" IVar="-1" Cut="0.0000000000000000e+00" cType="1" res="-2.9304993804544210e-03" rms="2.2862264513969421e-01" purity="8.8088370859622955e-02" nType="-99"/>
            <Node pos="r" depth="3" NCoef="0" IVar="-1" Cut="0.0000000000000000e+00" cType="1" res="-1.6886508092284203e-02" rms="3.3070367574691772e-01" purity="3.8007003068923950e-01" nType="-99"/>
          </Node>
          <Node pos="r" depth="2" NCoef="0" IVar="1" Cut="1.5732061117887497e-02" cType="1" res="9.6444319933652878e-03" rms="3.3161598443984985e-01" purity="5.6201803684234619e-01" nType="0">
            <Node pos="l" depth="3" NCoef="0" IVar="-1" Cut="0.0000000000000000e+00" cType="1" res="4.5928131788969040e-02" rms="3.0350816249847412e-01" purity="2.7946248650550842e-01" nType="-99"/>
            <Node pos="r" depth="3" NCoef="0" IVar="-1" Cut="0.0000000000000000e+00" cType="1" res="1.7352029681205750e-03" rms="3.3737075328826904e-01" purity="6.2781369686126709e-01" nType="-99"/>
          </Node>
        </Node>
        <Node pos="r" depth="1" NCoef="0" IVar="5" Cut="6.6072433471679688e+01" cType="1" res="4.9427887424826622e-03" rms="2.9395729303359985e-01" purity="7.7466738224029541e-01" nType="0">
          <Node pos="l" depth="2" NCoef="0" IVar="0" Cut="1.2302382812500000e+03" cType="1" res="2.5033188983798027e-02" rms="3.7572348117828369e-01" purity="3.9685145020484924e-01" nType="0">
            <Node pos="l" depth="3" NCoef="0" IVar="-1" Cut="0.0000000000000000e+00" cType="1" res="3.3375672996044159e-02" rms="3.6203584074974060e-01" purity="2.0783215761184692e-01" nType="-99"/>
            <Node pos="r" depth="3" NCoef="0" IVar="-1" Cut="0.0000000000000000e+00" cType="1" res="6.7550358362495899e-03" rms="3.8970589637756348e-01" purity="6.0402125120162964e-01" nType="-99"/>
          </Node>
          <Node pos="r" depth="2" NCoef="0" IVar="10" Cut="9.3526440858840942e-01" cType="1" res="6.3367257826030254e-04" rms="2.7305871248245239e-01" purity="8.5570371150970459e-01" nType="0">
            <Node pos="l" depth="3" NCoef="0" IVar="-1" Cut="0.0000000000000000e+00" cType="1" res="4.5536598190665245e-03" rms="2.6339781284332275e-01" purity="8.6994153261184692e-01" nType="-99"/>
            <Node pos="r" depth="3" NCoef="0" IVar="-1" Cut="0.0000000000000000e+00" cType="1" res="-1.1636501178145409e-02" rms="3.1026914715766907e-01" purity="7.9564851522445679e-01" nType="-99"/>
          </Node>
        </Node>
      </Node>
    </BinaryTree>
    <BinaryTree type="DecisionTree" boostWeight="1.0000000000000000e+00" itree="159">
      <Node pos="s" depth="0" NCoef="0" IVar="10" Cut="-9.3332487344741821e-01" cType="1" res="-7.7125012467149645e-05" rms="2.9010945558547974e-01" purity="5.0354713201522827e-01" nType="0">
        <Node pos="l" depth="1" NCoef="0" IVar="5" Cut="8.1550827026367188e+01" cType="1" res="-9.9506955593824387e-03" rms="2.8751274943351746e-01" purity="3.9790433645248413e-01" nType="0">
          <Node pos="l" depth="2" NCoef="0" IVar="11" Cut="-1.0689996480941772e+00" cType="1" res="-3.5998996463604271e-04" rms="2.8733101487159729e-01" purity="2.1067598462104797e-01" nType="0">
            <Node pos="l" depth="3" NCoef="0" IVar="-1" Cut="0.0000000000000000e+00" cType="1" res="-1.1558433063328266e-02" rms="2.6269373297691345e-01" purity="1.4994171261787415e-01" nType="-99"/>
            <Node pos="r" depth="3" NCoef="0" IVar="-1" Cut="0.0000000000000000e+00" cType="1" res="2.5758424773812294e-02" rms="3.6762383580207825e-01" purity="4.5211008191108704e-01" nType="-99"/>
          </Node>
          <Node pos="r" depth="2" NCoef="0" IVar="0" Cut="1.7055532226562500e+03" cType="1" res="-2.5104178115725517e-02" rms="2.8714746236801147e-01" purity="6.9372832775115967e-01" nType="0">
            <Node pos="l" depth="3" NCoef="0" IVar="-1" Cut="0.0000000000000000e+00" cType="1" res="-3.8164984434843063e-02" rms="3.3095520734786987e-01" purity="4.9251893162727356e-01" nType="-99"/>
            <Node pos="r" depth="3" NCoef="0" IVar="-1" Cut="0.0000000000000000e+00" cType="1" res="-1.0937473736703396e-02" rms="2.3955108225345612e-01" purity="8.7474429607391357e-01" nType="-99"/>
          </Node>
        </Node>
        <Node pos="r" depth="1" NCoef="0" IVar="3" Cut="2.1779515075683594e+02" cType="1" res="2.7672029100358486e-03" rms="2.9079100489616394e-01" purity="5.3398019075393677e-01" nType="0">
          <Node pos="l" depth="2" NCoef="0" IVar="0" Cut="1.0383492431640625e+03" cType="1" res="8.9692836627364159e-03" rms="2.9490581154823303e-01" purity="3.5881876945495605e-01" nType="0">
            <Node pos="l" depth="3" NCoef="0" IVar="-1" Cut="0.0000000000000000e+00" cType="1" res="-3.0326267704367638e-02" rms="1.5954549610614777e-01" purity="2.8338428586721420e-02" nType="-99"/>
            <Node pos="r" depth="3" NCoef="0" IVar="-1" Cut="0.0000000000000000e+00" cType="1" res="1.4057079330086708e-02" rms="3.2115256786346436e-01" purity="4.4637426733970642e-01" nType="-99"/>
          </Node>
          <Node pos="r" depth="2" NCoef="0" IVar="0" Cut="1.5248652343750000e+03" cType="1" res="-2.8519660700112581e-03" rms="2.8689625859260559e-01" purity="6.9267880916595459e-01" nType="0">
            <Node pos="l" depth="3" NCoef="0" IVar="-1" Cut="0.0000000000000000e+00" cType="1" res="-1.8581332638859749e-02" rms="3.3368656039237976e-01" purity="3.1408140063285828e-01" nType="-99"/>
            <Node pos="r" depth="3" NCoef="0" IVar="-1" Cut="0.0000000000000000e+00" cType="1" res="4.0785535238683224e-03" rms="2.7014422416687012e-01" purity="8.1239092350006104e-01" nType="-99"/>
          </Node>
        </Node>
      </Node>
    </BinaryTree>
    <BinaryTree type="DecisionTree" boostWeight="1.0000000000000000e+00" itree="160">
      <Node pos="s" depth="0" NCoef="0" IVar="7" Cut="-3.6053845286369324e-01" cType="1" res="-2.0094374485779554e-04" rms="2.9422590136528015e-01" purity="4.9845021963119507e-01" nType="0">
        <Node pos="l" depth="1" NCoef="0" IVar="10" Cut="-4.0002751350402832e-01" cType="1" res="-5.1686754450201988e-03" rms="2.8522035479545593e-01" purity="4.2149573564529419e-01" nType="0">
          <Node pos="l" depth="2" NCoef="0" IVar="5" Cut="6.3995746612548828e+01" cType="1" res="5.0012771971523762e-03" rms="2.8808915615081787e-01" purity="3.9642053842544556e-01" nType="0">
            <Node pos="l" depth="3" NCoef="0" IVar="-1" Cut="0.0000000000000000e+00" cType="1" res="-2.0288141444325447e-02" rms="2.3862460255622864e-01" purity="9.6928283572196960e-02" nType="-99"/>
            <Node pos="r" depth="3" NCoef="0" IVar="-1" Cut="0.0000000000000000e+00" cType="1" res="1.5373994596302509e-02" rms="3.1164842844009399e-01" purity="5.6172573566436768e-01" nType="-99"/>
          </Node>
          <Node pos="r" depth="2" NCoef="0" IVar="10" Cut="-9.5332793891429901e-02" cType="1" res="-1.3078481890261173e-02" rms="2.8271621465682983e-01" purity="4.4099825620651245e-01" nType="0">
            <Node pos="l" depth="3" NCoef="0" IVar="-1" Cut="0.0000000000000000e+00" cType="1" res="-3.2493662089109421e-02" rms="2.9527354240417480e-01" purity="4.4282343983650208e-01" nType="-99"/>
            <Node pos="r" depth="3" NCoef="0" IVar="-1" Cut="0.0000000000000000e+00" cType="1" res="-1.1515724472701550e-02" rms="2.7989241480827332e-01" purity="4.4061708450317383e-01" nType="-99"/>
          </Node>
        </Node>
        <Node pos="r" depth="1" NCoef="0" IVar="7" Cut="1.5951243638992310e+00" cType="1" res="2.3780458141118288e-03" rms="2.9876151680946350e-01" purity="5.3840106725692749e-01" nType="0">
          <Node pos="l" depth="2" NCoef="0" IVar="11" Cut="5.9025430679321289e-01" cType="1" res="3.4943092614412308e-03" rms="3.0680826306343079e-01" purity="5.7652014493942261e-01" nType="0">
            <Node pos="l" depth="3" NCoef="0" IVar="-1" Cut="0.0000000000000000e+00" cType="1" res="1.5597444726154208e-03" rms="3.0762585997581482e-01" purity="5.2926796674728394e-01" nType="-99"/>
            <Node pos="r" depth="3" NCoef="0" IVar="-1" Cut="0.0000000000000000e+00" cType="1" res="1.4349217526614666e-02" rms="3.0294811725616455e-01" purity="7.8828334808349609e-01" nType="-99"/>
          </Node>
          <Node pos="r" depth="2" NCoef="0" IVar="-1" Cut="0.0000000000000000e+00" cType="1" res="-2.8723983094096184e-02" rms="1.7192006111145020e-01" purity="7.2941899299621582e-02" nType="-99"/>
        </Node>
      </Node>
    </BinaryTree>
    <BinaryTree type="DecisionTree" boostWeight="1.0000000000000000e+00" itree="161">
      <Node pos="s" depth="0" NCoef="0" IVar="2" Cut="6.0742144775390625e+02" cType="1" res="1.5104445628821850e-03" rms="2.9115664958953857e-01" purity="5.0133645534515381e-01" nType="0">
        <Node pos="l" depth="1" NCoef="0" IVar="3" Cut="1.8336590576171875e+02" cType="1" res="2.8840005397796631e-03" rms="2.8929018974304199e-01" purity="4.9503210186958313e-01" nType="0">
          <Node pos="l" depth="2" NCoef="0" IVar="3" Cut="1.5262388610839844e+02" cType="1" res="-3.3200008329004049e-03" rms="2.7243739366531372e-01" purity="2.1605680882930756e-01" nType="0">
            <Node pos="l" depth="3" NCoef="0" IVar="-1" Cut="0.0000000000000000e+00" cType="1" res="8.4780286997556686e-03" rms="2.4376532435417175e-01" purity="1.3279324769973755e-01" nType="-99"/>
            <Node pos="r" depth="3" NCoef="0" IVar="-1" Cut="0.0000000000000000e+00" cType="1" res="-1.5496506355702877e-02" rms="3.0885037779808044e-01" purity="3.3646616339683533e-01" nType="-99"/>
          </Node>
          <Node pos="r" depth="2" NCoef="0" IVar="5" Cut="7.9761367797851562e+01" cType="1" res="6.0522644780576229e-03" rms="2.9747870564460754e-01" purity="6.3749939203262329e-01" nType="0">
            <Node pos="l" depth="3" NCoef="0" IVar="-1" Cut="0.0000000000000000e+00" cType="1" res="1.2891467660665512e-02" rms="3.3931392431259155e-01" purity="3.6047458648681641e-01" nType="-99"/>
            <Node pos="r" depth="3" NCoef="0" IVar="-1" Cut="0.0000000000000000e+00" cType="1" res="8.6646853014826775e-04" rms="2.6729351282119751e-01" purity="8.1399518251419067e-01" nType="-99"/>
          </Node>
        </Node>
        <Node pos="r" depth="1" NCoef="0" IVar="5" Cut="1.0214381408691406e+02" cType="1" res="-1.3575823977589607e-02" rms="3.1052052974700928e-01" purity="5.7058012485504150e-01" nType="0">
          <Node pos="l" depth="2" NCoef="0" IVar="-1" Cut="0.0000000000000000e+00" cType="1" res="-2.3190317675471306e-02" rms="3.3993959426879883e-01" purity="3.7996906042098999e-01" nType="-99"/>
          <Node pos="r" depth="2" NCoef="0" IVar="-1" Cut="0.0000000000000000e+00" cType="1" res="1.0366684757173061e-02" rms="2.5884819030761719e-01" purity="8.5606157779693604e-01" nType="-99"/>
        </Node>
      </Node>
    </BinaryTree>
    <BinaryTree type="DecisionTree" boostWeight="1.0000000000000000e+00" itree="162">
      <Node pos="s" depth="0" NCoef="0" IVar="9" Cut="-1.4666742086410522e+00" cType="1" res="1.5321143437176943e-03" rms="2.9475682973861694e-01" purity="5.0027865171432495e-01" nType="0">
        <Node pos="l" depth="1" NCoef="0" IVar="0" Cut="1.3754901123046875e+03" cType="1" res="1.7014402896165848e-02" rms="2.8788280487060547e-01" purity="2.3098658025264740e-01" nType="0">
          <Node pos="l" depth="2" NCoef="0" IVar="-1" Cut="0.0000000000000000e+00" cType="1" res="1.3749406673014164e-02" rms="2.4385221302509308e-01" purity="9.0788453817367554e-02" nType="-99"/>
          <Node pos="r" depth="2" NCoef="0" IVar="-1" Cut="0.0000000000000000e+00" cType="1" res="2.8584836050868034e-02" rms="3.4532704949378967e-01" purity="4.5105439424514771e-01" nType="-99"/>
        </Node>
        <Node pos="r" depth="1" NCoef="0" IVar="5" Cut="9.1341178894042969e+01" cType="1" res="1.6836926079122350e-05" rms="2.9537740349769592e-01" purity="5.2663469314575195e-01" nType="0">
          <Node pos="l" depth="2" NCoef="0" IVar="5" Cut="7.9529335021972656e+01" cType="1" res="3.5428046248853207e-03" rms="3.1761837005615234e-01" purity="3.1831482052803040e-01" nType="0">
            <Node pos="l" depth="3" NCoef="0" IVar="-1" Cut="0.0000000000000000e+00" cType="1" res="-1.3528515119105577e-03" rms="3.0779165029525757e-01" purity="2.5479847192764282e-01" nType="-99"/>
            <Node pos="r" depth="3" NCoef="0" IVar="-1" Cut="0.0000000000000000e+00" cType="1" res="2.0298611372709274e-02" rms="3.5738587379455566e-01" purity="6.0158854722976685e-01" nType="-99"/>
          </Node>
          <Node pos="r" depth="2" NCoef="0" IVar="1" Cut="8.4765106439590454e-02" cType="1" res="-5.2517196163535118e-03" rms="2.5851482152938843e-01" purity="8.3790957927703857e-01" nType="0">
            <Node pos="l" depth="3" NCoef="0" IVar="-1" Cut="0.0000000000000000e+00" cType="1" res="-1.5683477744460106e-02" rms="3.1233265995979309e-01" purity="7.0726138353347778e-01" nType="-99"/>
            <Node pos="r" depth="3" NCoef="0" IVar="-1" Cut="0.0000000000000000e+00" cType="1" res="6.8503124639391899e-03" rms="2.0595614612102509e-01" purity="9.4104951620101929e-01" nType="-99"/>
          </Node>
        </Node>
      </Node>
    </BinaryTree>
    <BinaryTree type="DecisionTree" boostWeight="1.0000000000000000e+00" itree="163">
      <Node pos="s" depth="0" NCoef="0" IVar="9" Cut="1.4660181999206543e+00" cType="1" res="-2.6758310850709677e-03" rms="2.9316103458404541e-01" purity="4.9589481949806213e-01" nType="0">
        <Node pos="l" depth="1" NCoef="0" IVar="8" Cut="-1.1994866132736206e+00" cType="1" res="-1.6429112292826176e-03" rms="2.9648071527481079e-01" purity="5.2204066514968872e-01" nType="0">
          <Node pos="l" depth="2" NCoef="0" IVar="11" Cut="-7.9133069515228271e-01" cType="1" res="7.9785110428929329e-03" rms="2.7308213710784912e-01" purity="2.2776243090629578e-01" nType="0">
            <Node pos="l" depth="3" NCoef="0" IVar="-1" Cut="0.0000000000000000e+00" cType="1" res="-7.8534204512834549e-03" rms="2.3299521207809448e-01" purity="1.2380371987819672e-01" nType="-99"/>
            <Node pos="r" depth="3" NCoef="0" IVar="-1" Cut="0.0000000000000000e+00" cType="1" res="3.5514988005161285e-02" rms="3.5777869820594788e-01" purity="5.0965821743011475e-01" nType="-99"/>
          </Node>
          <Node pos="r" depth="2" NCoef="0" IVar="3" Cut="2.3399588012695312e+02" cType="1" res="-2.8795863036066294e-03" rms="2.9933315515518188e-01" purity="5.5986523628234863e-01" nType="0">
            <Node pos="l" depth="3" NCoef="0" IVar="-1" Cut="0.0000000000000000e+00" cType="1" res="-7.1838553994894028e-03" rms="3.0429819226264954e-01" purity="4.0517550706863403e-01" nType="-99"/>
            <Node pos="r" depth="3" NCoef="0" IVar="-1" Cut="0.0000000000000000e+00" cType="1" res="1.4904831768944860e-03" rms="2.9360139369964600e-01" purity="7.3358160257339478e-01" nType="-99"/>
          </Node>
        </Node>
        <Node pos="r" depth="1" NCoef="0" IVar="8" Cut="-1.3171696662902832e-01" cType="1" res="-1.3573536649346352e-02" rms="2.5526830554008484e-01" purity="2.2004623711109161e-01" nType="0">
          <Node pos="l" depth="2" NCoef="0" IVar="-1" Cut="0.0000000000000000e+00" cType="1" res="-4.1425090283155441e-02" rms="2.3798739910125732e-01" purity="1.9870714843273163e-01" nType="-99"/>
          <Node pos="r" depth="2" NCoef="0" IVar="7" Cut="1.8880563974380493e-01" cType="1" res="-1.8593280110508204e-03" rms="2.6596364378929138e-01" purity="2.3484131693840027e-01" nType="0">
            <Node pos="l" depth="3" NCoef="0" IVar="-1" Cut="0.0000000000000000e+00" cType="1" res="-1.4565484598278999e-02" rms="2.5729560852050781e-01" purity="1.9900280237197876e-01" nType="-99"/>
            <Node pos="r" depth="3" NCoef="0" IVar="-1" Cut="0.0000000000000000e+00" cType="1" res="8.1953536719083786e-03" rms="2.7390807867050171e-01" purity="2.6993137598037720e-01" nType="-99"/>
          </Node>
        </Node>
      </Node>
    </BinaryTree>
    <BinaryTree type="DecisionTree" boostWeight="1.0000000000000000e+00" itree="164">
      <Node pos="s" depth="0" NCoef="0" IVar="10" Cut="-2.0000016689300537e+00" cType="1" res="-6.9041218375787139e-04" rms="2.9203748703002930e-01" purity="4.9974146485328674e-01" nType="0">
        <Node pos="l" depth="1" NCoef="0" IVar="-1" Cut="0.0000000000000000e+00" cType="1" res="-2.4776326492428780e-02" rms="2.7099817991256714e-01" purity="2.0062628388404846e-01" nType="-99"/>
        <Node pos="r" depth="1" NCoef="0" IVar="10" Cut="2.1142563819885254e+00" cType="1" res="1.9666767911985517e-04" rms="2.9304417967796326e-01" purity="5.1502287387847900e-01" nType="0">
          <Node pos="l" depth="2" NCoef="0" IVar="6" Cut="5.7308734893798828e+01" cType="1" res="9.7266898956149817e-04" rms="2.9438152909278870e-01" purity="5.2818614244461060e-01" nType="0">
            <Node pos="l" depth="3" NCoef="0" IVar="-1" Cut="0.0000000000000000e+00" cType="1" res="4.7049438580870628e-03" rms="3.1340369582176208e-01" purity="2.8975227475166321e-01" nType="-99"/>
            <Node pos="r" depth="3" NCoef="0" IVar="-1" Cut="0.0000000000000000e+00" cType="1" res="-4.6613155864179134e-03" rms="2.6907879114151001e-01" purity="8.2147783041000366e-01" nType="-99"/>
          </Node>
          <Node pos="r" depth="2" NCoef="0" IVar="-1" Cut="0.0000000000000000e+00" cType="1" res="-2.4329038336873055e-02" rms="2.5742676854133606e-01" purity="1.9279351830482483e-01" nType="-99"/>
        </Node>
      </Node>
    </BinaryTree>
    <BinaryTree type="DecisionTree" boostWeight="1.0000000000000000e+00" itree="165">
      <Node pos="s" depth="0" NCoef="0" IVar="9" Cut="-9.3318957090377808e-01" cType="1" res="-2.1458676201291382e-04" rms="2.8848013281822205e-01" purity="4.9689647555351257e-01" nType="0">
        <Node pos="l" depth="1" NCoef="0" IVar="1" Cut="6.1400119215250015e-02" cType="1" res="1.0650529526174068e-02" rms="2.8800666332244873e-01" purity="3.6008861660957336e-01" nType="0">
          <Node pos="l" depth="2" NCoef="0" IVar="11" Cut="-7.9049682617187500e-01" cType="1" res="2.4938899514381774e-05" rms="2.5338390469551086e-01" purity="1.8433269858360291e-01" nType="0">
            <Node pos="l" depth="3" NCoef="0" IVar="-1" Cut="0.0000000000000000e+00" cType="1" res="-1.2353401631116867e-02" rms="2.2605910897254944e-01" purity="1.0864508152008057e-01" nType="-99"/>
            <Node pos="r" depth="3" NCoef="0" IVar="-1" Cut="0.0000000000000000e+00" cType="1" res="2.0124219357967377e-02" rms="3.2598233222961426e-01" purity="4.3156033754348755e-01" nType="-99"/>
          </Node>
          <Node pos="r" depth="2" NCoef="0" IVar="-1" Cut="0.0000000000000000e+00" cType="1" res="2.6276042684912682e-02" rms="3.3948406577110291e-01" purity="6.6806781291961670e-01" nType="-99"/>
        </Node>
        <Node pos="r" depth="1" NCoef="0" IVar="10" Cut="1.7331494092941284e+00" cType="1" res="-2.8401780873537064e-03" rms="2.8853303194046021e-01" purity="5.2995657920837402e-01" nType="0">
          <Node pos="l" depth="2" NCoef="0" IVar="6" Cut="6.3181526184082031e+01" cType="1" res="-4.5092026703059673e-03" rms="2.8696721792221069e-01" purity="5.4611575603485107e-01" nType="0">
            <Node pos="l" depth="3" NCoef="0" IVar="-1" Cut="0.0000000000000000e+00" cType="1" res="-8.6453463882207870e-03" rms="3.1300529837608337e-01" purity="3.2065528631210327e-01" nType="-99"/>
            <Node pos="r" depth="3" NCoef="0" IVar="-1" Cut="0.0000000000000000e+00" cType="1" res="2.6649185456335545e-03" rms="2.4357777833938599e-01" purity="8.7742018699645996e-01" nType="-99"/>
          </Node>
          <Node pos="r" depth="2" NCoef="0" IVar="8" Cut="1.3462348282337189e-01" cType="1" res="1.7401741817593575e-02" rms="3.0616456270217896e-01" purity="3.3397826552391052e-01" nType="0">
            <Node pos="l" depth="3" NCoef="0" IVar="-1" Cut="0.0000000000000000e+00" cType="1" res="-4.8275920562446117e-03" rms="3.1107327342033386e-01" purity="3.1906113028526306e-01" nType="-99"/>
            <Node pos="r" depth="3" NCoef="0" IVar="-1" Cut="0.0000000000000000e+00" cType="1" res="4.2476419359445572e-02" rms="3.0083608627319336e-01" purity="3.4638372063636780e-01" nType="-99"/>
          </Node>
        </Node>
      </Node>
    </BinaryTree>
    <BinaryTree type="DecisionTree" boostWeight="1.0000000000000000e+00" itree="166">
      <Node pos="s" depth="0" NCoef="0" IVar="11" Cut="1.4190063476562500e+00" cType="1" res="-7.9344114055857062e-04" rms="2.8870999813079834e-01" purity="4.9924078583717346e-01" nType="0">
        <Node pos="l" depth="1" NCoef="0" IVar="9" Cut="-1.7331452369689941e+00" cType="1" res="3.1827515340410173e-04" rms="2.8758367896080017e-01" purity="4.9059173464775085e-01" nType="0">
          <Node pos="l" depth="2" NCoef="0" IVar="5" Cut="6.4352432250976562e+01" cType="1" res="-1.8097164109349251e-02" rms="2.3221117258071899e-01" purity="1.4336811006069183e-01" nType="0">
            <Node pos="l" depth="3" NCoef="0" IVar="-1" Cut="0.0000000000000000e+00" cType="1" res="-2.2072762250900269e-02" rms="1.7078293859958649e-01" purity="4.3625410646200180e-02" nType="-99"/>
            <Node pos="r" depth="3" NCoef="0" IVar="-1" Cut="0.0000000000000000e+00" cType="1" res="-3.0875796452164650e-02" rms="2.7516058087348938e-01" purity="2.3187717795372009e-01" nType="-99"/>
          </Node>
          <Node pos="r" depth="2" NCoef="0" IVar="11" Cut="9.9796557426452637e-01" cType="1" res="1.4298051828518510e-03" rms="2.9055106639862061e-01" purity="5.1154965162277222e-01" nType="0">
            <Node pos="l" depth="3" NCoef="0" IVar="-1" Cut="0.0000000000000000e+00" cType="1" res="3.2775514409877360e-04" rms="2.9055520892143250e-01" purity="4.9701192975044250e-01" nType="-99"/>
            <Node pos="r" depth="3" NCoef="0" IVar="-1" Cut="0.0000000000000000e+00" cType="1" res="2.5797445327043533e-02" rms="2.8966963291168213e-01" purity="7.7835690975189209e-01" nType="-99"/>
          </Node>
        </Node>
        <Node pos="r" depth="1" NCoef="0" IVar="8" Cut="1.3917233049869537e-01" cType="1" res="-1.8297778442502022e-02" rms="3.0536490678787231e-01" purity="6.3542312383651733e-01" nType="0">
          <Node pos="l" depth="2" NCoef="0" IVar="-1" Cut="0.0000000000000000e+00" cType="1" res="-2.4226579815149307e-02" rms="3.1165349483489990e-01" purity="6.5225362777709961e-01" nType="-99"/>
          <Node pos="r" depth="2" NCoef="0" IVar="-1" Cut="0.0000000000000000e+00" cType="1" res="-1.2219883501529694e-02" rms="2.9831427335739136e-01" purity="6.1732077598571777e-01" nType="-99"/>
        </Node>
      </Node>
    </BinaryTree>
    <BinaryTree type="DecisionTree" boostWeight="1.0000000000000000e+00" itree="167">
      <Node pos="s" depth="0" NCoef="0" IVar="9" Cut="6.6655832529067993e-01" cType="1" res="2.3751140106469393e-03" rms="2.9189822077751160e-01" purity="5.0028693675994873e-01" nType="0">
        <Node pos="l" depth="1" NCoef="0" IVar="10" Cut="6.6646486520767212e-01" cType="1" res="-2.6923305995296687e-05" rms="2.9228386282920837e-01" purity="5.3251028060913086e-01" nType="0">
          <Node pos="l" depth="2" NCoef="0" IVar="10" Cut="-1.8095130920410156e+00" cType="1" res="-2.4969154037535191e-03" rms="2.8806570172309875e-01" purity="5.4685586690902710e-01" nType="0">
            <Node pos="l" depth="3" NCoef="0" IVar="-1" Cut="0.0000000000000000e+00" cType="1" res="1.7165649682283401e-02" rms="2.9834735393524170e-01" purity="2.9447874426841736e-01" nType="-99"/>
            <Node pos="r" depth="3" NCoef="0" IVar="-1" Cut="0.0000000000000000e+00" cType="1" res="-5.0341975875198841e-03" rms="2.8687283396720886e-01" purity="5.7420271635055542e-01" nType="-99"/>
          </Node>
          <Node pos="r" depth="2" NCoef="0" IVar="1" Cut="7.6975516974925995e-02" cType="1" res="6.4775687642395496e-03" rms="3.0301496386528015e-01" purity="4.9473237991333008e-01" nType="0">
            <Node pos="l" depth="3" NCoef="0" IVar="-1" Cut="0.0000000000000000e+00" cType="1" res="1.7717320472002029e-02" rms="3.0431202054023743e-01" purity="3.2771995663642883e-01" nType="-99"/>
            <Node pos="r" depth="3" NCoef="0" IVar="-1" Cut="0.0000000000000000e+00" cType="1" res="-1.0585444048047066e-02" rms="3.0024746060371399e-01" purity="7.6470595598220825e-01" nType="-99"/>
          </Node>
        </Node>
        <Node pos="r" depth="1" NCoef="0" IVar="1" Cut="1.9275829195976257e-02" cType="1" res="8.8895009830594063e-03" rms="2.9074987769126892e-01" purity="4.1289657354354858e-01" nType="0">
          <Node pos="l" depth="2" NCoef="0" IVar="4" Cut="1.2797394561767578e+02" cType="1" res="-5.9763863682746887e-03" rms="1.9566635787487030e-01" purity="8.1319563090801239e-02" nType="0">
            <Node pos="l" depth="3" NCoef="0" IVar="-1" Cut="0.0000000000000000e+00" cType="1" res="7.0492308586835861e-03" rms="1.6638346016407013e-01" purity="4.0919743478298187e-02" nType="-99"/>
            <Node pos="r" depth="3" NCoef="0" IVar="-1" Cut="0.0000000000000000e+00" cType="1" res="-2.3226048797369003e-02" rms="2.3259136080741882e-01" purity="1.4251510798931122e-01" nType="-99"/>
          </Node>
          <Node pos="r" depth="2" NCoef="0" IVar="11" Cut="-5.1474720239639282e-01" cType="1" res="1.4560916461050510e-02" rms="3.1947410106658936e-01" purity="5.3939491510391235e-01" nType="0">
            <Node pos="l" depth="3" NCoef="0" IVar="-1" Cut="0.0000000000000000e+00" cType="1" res="2.1587990224361420e-02" rms="3.3364135026931763e-01" purity="4.0876430273056030e-01" nType="-99"/>
            <Node pos="r" depth="3" NCoef="0" IVar="-1" Cut="0.0000000000000000e+00" cType="1" res="1.9638540688902140e-03" rms="2.9582160711288452e-01" purity="7.4113202095031738e-01" nType="-99"/>
          </Node>
        </Node>
      </Node>
    </BinaryTree>
    <BinaryTree type="DecisionTree" boostWeight="1.0000000000000000e+00" itree="168">
      <Node pos="s" depth="0" NCoef="0" IVar="10" Cut="1.9998149871826172e+00" cType="1" res="-1.5676328912377357e-03" rms="2.9234021902084351e-01" purity="5.0045520067214966e-01" nType="0">
        <Node pos="l" depth="1" NCoef="0" IVar="1" Cut="4.3801289051771164e-02" cType="1" res="-5.5791868362575769e-04" rms="2.9321107268333435e-01" purity="5.1455330848693848e-01" nType="0">
          <Node pos="l" depth="2" NCoef="0" IVar="9" Cut="3.9951342344284058e-01" cType="1" res="4.5012724585831165e-03" rms="2.7840110659599304e-01" purity="2.2570468485355377e-01" nType="0">
            <Node pos="l" depth="3" NCoef="0" IVar="-1" Cut="0.0000000000000000e+00" cType="1" res="1.2724681757390499e-02" rms="2.8510808944702148e-01" purity="2.5138375163078308e-01" nType="-99"/>
            <Node pos="r" depth="3" NCoef="0" IVar="-1" Cut="0.0000000000000000e+00" cType="1" res="-7.7423821203410625e-03" rms="2.6626110076904297e-01" purity="1.8193858861923218e-01" nType="-99"/>
          </Node>
          <Node pos="r" depth="2" NCoef="0" IVar="8" Cut="-1.1899088621139526e+00" cType="1" res="-4.1370131075382233e-03" rms="3.0320078134536743e-01" purity="7.1889752149581909e-01" nType="0">
            <Node pos="l" depth="3" NCoef="0" IVar="-1" Cut="0.0000000000000000e+00" cType="1" res="2.2649373859167099e-02" rms="3.3332064747810364e-01" purity="5.5140268802642822e-01" nType="-99"/>
            <Node pos="r" depth="3" NCoef="0" IVar="-1" Cut="0.0000000000000000e+00" cType="1" res="-6.8257139064371586e-03" rms="3.0100959539413452e-01" purity="7.2993153333663940e-01" nType="-99"/>
          </Node>
        </Node>
        <Node pos="r" depth="1" NCoef="0" IVar="-1" Cut="0.0000000000000000e+00" cType="1" res="-2.6698360219597816e-02" rms="2.7303817868232727e-01" purity="2.1118287742137909e-01" nType="-99"/>
      </Node>
    </BinaryTree>
    <BinaryTree type="DecisionTree" boostWeight="1.0000000000000000e+00" itree="169">
      <Node pos="s" depth="0" NCoef="0" IVar="8" Cut="-1.9998610019683838e+00" cType="1" res="3.0458255205303431e-03" rms="2.9298821091651917e-01" purity="5.0237983465194702e-01" nType="0">
        <Node pos="l" depth="1" NCoef="0" IVar="-1" Cut="0.0000000000000000e+00" cType="1" res="-4.2537502944469452e-02" rms="1.6706804931163788e-01" purity="6.5536826848983765e-02" nType="-99"/>
        <Node pos="r" depth="1" NCoef="0" IVar="8" Cut="-1.0855318307876587e+00" cType="1" res="3.6846413277089596e-03" rms="2.9601132869720459e-01" purity="5.1590955257415771e-01" nType="0">
          <Node pos="l" depth="2" NCoef="0" IVar="5" Cut="6.5098762512207031e+01" cType="1" res="1.3087327592074871e-02" rms="2.8162333369255066e-01" purity="3.0734610557556152e-01" nType="0">
            <Node pos="l" depth="3" NCoef="0" IVar="-1" Cut="0.0000000000000000e+00" cType="1" res="-5.4281577467918396e-03" rms="2.1115596592426300e-01" purity="7.3018513619899750e-02" nType="-99"/>
            <Node pos="r" depth="3" NCoef="0" IVar="-1" Cut="0.0000000000000000e+00" cType="1" res="2.2784722968935966e-02" rms="3.2068359851837158e-01" purity="4.6805918216705322e-01" nType="-99"/>
          </Node>
          <Node pos="r" depth="2" NCoef="0" IVar="8" Cut="-5.3044062852859497e-01" cType="1" res="2.5196319911628962e-03" rms="2.9772496223449707e-01" purity="5.4175090789794922e-01" nType="0">
            <Node pos="l" depth="3" NCoef="0" IVar="-1" Cut="0.0000000000000000e+00" cType="1" res="-7.5560836121439934e-03" rms="3.1337830424308777e-01" purity="5.3505009412765503e-01" nType="-99"/>
            <Node pos="r" depth="3" NCoef="0" IVar="-1" Cut="0.0000000000000000e+00" cType="1" res="5.2472101524472237e-03" rms="2.9421690106391907e-01" purity="5.4318881034851074e-01" nType="-99"/>
          </Node>
        </Node>
      </Node>
    </BinaryTree>
    <BinaryTree type="DecisionTree" boostWeight="1.0000000000000000e+00" itree="170">
      <Node pos="s" depth="0" NCoef="0" IVar="3" Cut="3.9183230590820312e+02" cType="1" res="-1.6393939731642604e-03" rms="2.9092818498611450e-01" purity="5.0036787986755371e-01" nType="0">
        <Node pos="l" depth="1" NCoef="0" IVar="2" Cut="4.7161651611328125e+02" cType="1" res="-3.8272929377853870e-03" rms="2.9053637385368347e-01" purity="4.7539207339286804e-01" nType="0">
          <Node pos="l" depth="2" NCoef="0" IVar="0" Cut="1.1571489257812500e+03" cType="1" res="-2.2755237296223640e-03" rms="2.8849124908447266e-01" purity="4.6648839116096497e-01" nType="0">
            <Node pos="l" depth="3" NCoef="0" IVar="-1" Cut="0.0000000000000000e+00" cType="1" res="-1.6627009958028793e-02" rms="2.1844549477100372e-01" purity="6.2930665910243988e-02" nType="-99"/>
            <Node pos="r" depth="3" NCoef="0" IVar="-1" Cut="0.0000000000000000e+00" cType="1" res="4.8417336074635386e-04" rms="3.1281816959381104e-01" purity="6.3302987813949585e-01" nType="-99"/>
          </Node>
          <Node pos="r" depth="2" NCoef="0" IVar="1" Cut="5.5262554436922073e-02" cType="1" res="-1.0770143941044807e-02" rms="2.9941716790199280e-01" purity="5.1522874832153320e-01" nType="0">
            <Node pos="l" depth="3" NCoef="0" IVar="-1" Cut="0.0000000000000000e+00" cType="1" res="-2.0148096606135368e-02" rms="3.0267998576164246e-01" purity="2.8861218690872192e-01" nType="-99"/>
            <Node pos="r" depth="3" NCoef="0" IVar="-1" Cut="0.0000000000000000e+00" cType="1" res="3.3068889752030373e-03" rms="2.9421535134315491e-01" purity="8.3542275428771973e-01" nType="-99"/>
          </Node>
        </Node>
        <Node pos="r" depth="1" NCoef="0" IVar="5" Cut="8.7485649108886719e+01" cType="1" res="2.1818108856678009e-02" rms="2.9407507181167603e-01" purity="7.6814544200897217e-01" nType="0">
          <Node pos="l" depth="2" NCoef="0" IVar="-1" Cut="0.0000000000000000e+00" cType="1" res="4.3296929448843002e-02" rms="3.6244940757751465e-01" purity="5.7668286561965942e-01" nType="-99"/>
          <Node pos="r" depth="2" NCoef="0" IVar="-1" Cut="0.0000000000000000e+00" cType="1" res="3.1634393963031471e-04" rms="2.3563423752784729e-01" purity="8.9517879486083984e-01" nType="-99"/>
        </Node>
      </Node>
    </BinaryTree>
    <BinaryTree type="DecisionTree" boostWeight="1.0000000000000000e+00" itree="171">
      <Node pos="s" depth="0" NCoef="0" IVar="9" Cut="1.4667991399765015e+00" cType="1" res="5.3754972759634256e-04" rms="2.9213550686836243e-01" purity="4.9377271533012390e-01" nType="0">
        <Node pos="l" depth="1" NCoef="0" IVar="11" Cut="3.8066864013671875e-02" cType="1" res="1.7806413816288114e-03" rms="2.9530692100524902e-01" purity="5.2041029930114746e-01" nType="0">
          <Node pos="l" depth="2" NCoef="0" IVar="3" Cut="3.0166720581054688e+02" cType="1" res="4.5388373546302319e-03" rms="2.9976695775985718e-01" purity="4.3785494565963745e-01" nType="0">
            <Node pos="l" depth="3" NCoef="0" IVar="-1" Cut="0.0000000000000000e+00" cType="1" res="2.3221345618367195e-03" rms="2.9911428689956665e-01" purity="3.6977273225784302e-01" nType="-99"/>
            <Node pos="r" depth="3" NCoef="0" IVar="-1" Cut="0.0000000000000000e+00" cType="1" res="1.4424586668610573e-02" rms="3.0203044414520264e-01" purity="6.9464385509490967e-01" nType="-99"/>
          </Node>
          <Node pos="r" depth="2" NCoef="0" IVar="0" Cut="1.6929185791015625e+03" cType="1" res="-6.0825245454907417e-03" rms="2.8205734491348267e-01" purity="7.5576239824295044e-01" nType="0">
            <Node pos="l" depth="3" NCoef="0" IVar="-1" Cut="0.0000000000000000e+00" cType="1" res="-1.4468415640294552e-02" rms="3.3946317434310913e-01" purity="5.7254451513290405e-01" nType="-99"/>
            <Node pos="r" depth="3" NCoef="0" IVar="-1" Cut="0.0000000000000000e+00" cType="1" res="7.7569764107465744e-03" rms="2.1762946248054504e-01" purity="9.1999775171279907e-01" nType="-99"/>
          </Node>
        </Node>
        <Node pos="r" depth="1" NCoef="0" IVar="10" Cut="9.3228024244308472e-01" cType="1" res="-1.2817270122468472e-02" rms="2.5521236658096313e-01" purity="2.0759868621826172e-01" nType="0">
          <Node pos="l" depth="2" NCoef="0" IVar="1" Cut="3.3249326050281525e-02" cType="1" res="-2.1569058299064636e-02" rms="2.5263118743896484e-01" purity="2.1933741867542267e-01" nType="0">
            <Node pos="l" depth="3" NCoef="0" IVar="-1" Cut="0.0000000000000000e+00" cType="1" res="-9.3872183933854103e-03" rms="1.9737808406352997e-01" purity="8.8957130908966064e-02" nType="-99"/>
            <Node pos="r" depth="3" NCoef="0" IVar="-1" Cut="0.0000000000000000e+00" cType="1" res="-4.0435269474983215e-02" rms="3.0340048670768738e-01" purity="3.7105658650398254e-01" nType="-99"/>
          </Node>
          <Node pos="r" depth="2" NCoef="0" IVar="-1" Cut="0.0000000000000000e+00" cType="1" res="8.4295915439724922e-03" rms="2.5971537828445435e-01" purity="1.8211145699024200e-01" nType="-99"/>
        </Node>
      </Node>
    </BinaryTree>
    <BinaryTree type="DecisionTree" boostWeight="1.0000000000000000e+00" itree="172">
      <Node pos="s" depth="0" NCoef="0" IVar="4" Cut="1.4544813537597656e+02" cType="1" res="2.2681097034364939e-03" rms="2.9251691699028015e-01" purity="5.0385224819183350e-01" nType="0">
        <Node pos="l" depth="1" NCoef="0" IVar="11" Cut="8.6642771959304810e-01" cType="1" res="7.8603290021419525e-03" rms="2.9367172718048096e-01" purity="2.3338030278682709e-01" nType="0">
          <Node pos="l" depth="2" NCoef="0" IVar="1" Cut="2.0887756720185280e-02" cType="1" res="5.2151237614452839e-03" rms="2.8700017929077148e-01" purity="2.0810161530971527e-01" nType="0">
            <Node pos="l" depth="3" NCoef="0" IVar="-1" Cut="0.0000000000000000e+00" cType="1" res="-1.5568902716040611e-02" rms="1.7589563131332397e-01" purity="4.3455429375171661e-02" nType="-99"/>
            <Node pos="r" depth="3" NCoef="0" IVar="-1" Cut="0.0000000000000000e+00" cType="1" res="1.1311287991702557e-02" rms="3.3622324466705322e-01" purity="3.0666461586952209e-01" nType="-99"/>
          </Node>
          <Node pos="r" depth="2" NCoef="0" IVar="-1" Cut="0.0000000000000000e+00" cType="1" res="2.9085690155625343e-02" rms="3.5334044694900513e-01" purity="4.9048456549644470e-01" nType="-99"/>
        </Node>
        <Node pos="r" depth="1" NCoef="0" IVar="9" Cut="-6.6641896963119507e-01" cType="1" res="-2.1485269535332918e-03" rms="2.9152581095695496e-01" purity="7.1746623516082764e-01" nType="0">
          <Node pos="l" depth="2" NCoef="0" IVar="7" Cut="-7.1848593652248383e-02" cType="1" res="-1.4860714785754681e-02" rms="3.0770656466484070e-01" purity="6.1090052127838135e-01" nType="0">
            <Node pos="l" depth="3" NCoef="0" IVar="-1" Cut="0.0000000000000000e+00" cType="1" res="9.0198440011590719e-04" rms="3.0694207549095154e-01" purity="6.3765275478363037e-01" nType="-99"/>
            <Node pos="r" depth="3" NCoef="0" IVar="-1" Cut="0.0000000000000000e+00" cType="1" res="-3.3571045845746994e-02" rms="3.0762425065040588e-01" purity="5.8207339048385620e-01" nType="-99"/>
          </Node>
          <Node pos="r" depth="2" NCoef="0" IVar="1" Cut="2.1903568878769875e-02" cType="1" res="1.5283779939636588e-03" rms="2.8657031059265137e-01" purity="7.4828964471817017e-01" nType="0">
            <Node pos="l" depth="3" NCoef="0" IVar="-1" Cut="0.0000000000000000e+00" cType="1" res="2.6295118033885956e-02" rms="3.2136875391006470e-01" purity="3.2990363240242004e-01" nType="-99"/>
            <Node pos="r" depth="3" NCoef="0" IVar="-1" Cut="0.0000000000000000e+00" cType="1" res="-2.9919887892901897e-03" rms="2.8084358572959900e-01" purity="8.1009119749069214e-01" nType="-99"/>
          </Node>
        </Node>
      </Node>
    </BinaryTree>
    <BinaryTree type="DecisionTree" boostWeight="1.0000000000000000e+00" itree="173">
      <Node pos="s" depth="0" NCoef="0" IVar="3" Cut="2.8435415649414062e+02" cType="1" res="1.6248201718553901e-03" rms="2.9216358065605164e-01" purity="5.0327837467193604e-01" nType="0">
        <Node pos="l" depth="1" NCoef="0" IVar="7" Cut="-1.1596783399581909e+00" cType="1" res="5.4003060795366764e-03" rms="2.9429259896278381e-01" purity="4.2681518197059631e-01" nType="0">
          <Node pos="l" depth="2" NCoef="0" IVar="5" Cut="7.5350906372070312e+01" cType="1" res="-8.4132142364978790e-03" rms="2.0411401987075806e-01" purity="1.1621127277612686e-01" nType="0">
            <Node pos="l" depth="3" NCoef="0" IVar="-1" Cut="0.0000000000000000e+00" cType="1" res="3.2758321613073349e-03" rms="1.6851742565631866e-01" purity="4.2071100324392319e-02" nType="-99"/>
            <Node pos="r" depth="3" NCoef="0" IVar="-1" Cut="0.0000000000000000e+00" cType="1" res="-3.2242737710475922e-02" rms="2.6621672511100769e-01" purity="2.8305909037590027e-01" nType="-99"/>
          </Node>
          <Node pos="r" depth="2" NCoef="0" IVar="10" Cut="1.9997986555099487e+00" cType="1" res="7.1445880457758904e-03" rms="3.0373746156692505e-01" purity="4.6603620052337646e-01" nType="0">
            <Node pos="l" depth="3" NCoef="0" IVar="-1" Cut="0.0000000000000000e+00" cType="1" res="6.4491461962461472e-03" rms="3.0310967564582825e-01" purity="4.7820109128952026e-01" nType="-99"/>
            <Node pos="r" depth="3" NCoef="0" IVar="-1" Cut="0.0000000000000000e+00" cType="1" res="3.3666078001260757e-02" rms="3.1402432918548584e-01" purity="2.4671879410743713e-01" nType="-99"/>
          </Node>
        </Node>
        <Node pos="r" depth="1" NCoef="0" IVar="11" Cut="-1.0667325258255005e+00" cType="1" res="-9.0079028159379959e-03" rms="2.8581470251083374e-01" purity="7.1861809492111206e-01" nType="0">
          <Node pos="l" depth="2" NCoef="0" IVar="8" Cut="4.0112090110778809e-01" cType="1" res="-2.0118435844779015e-02" rms="3.2357683777809143e-01" purity="5.2918148040771484e-01" nType="0">
            <Node pos="l" depth="3" NCoef="0" IVar="-1" Cut="0.0000000000000000e+00" cType="1" res="-8.9421132579445839e-03" rms="3.2597446441650391e-01" purity="5.7956987619400024e-01" nType="-99"/>
            <Node pos="r" depth="3" NCoef="0" IVar="-1" Cut="0.0000000000000000e+00" cType="1" res="-4.0712743997573853e-02" rms="3.1667482852935791e-01" purity="4.1190412640571594e-01" nType="-99"/>
          </Node>
          <Node pos="r" depth="2" NCoef="0" IVar="7" Cut="5.0257718563079834e-01" cType="1" res="-1.0056599421659485e-04" rms="2.5112351775169373e-01" purity="8.7048989534378052e-01" nType="0">
            <Node pos="l" depth="3" NCoef="0" IVar="-1" Cut="0.0000000000000000e+00" cType="1" res="-8.2315346226096153e-03" rms="2.3494507372379303e-01" purity="8.8808178901672363e-01" nType="-99"/>
            <Node pos="r" depth="3" NCoef="0" IVar="-1" Cut="0.0000000000000000e+00" cType="1" res="1.9144997000694275e-02" rms="3.0096113681793213e-01" purity="8.0819082260131836e-01" nType="-99"/>
          </Node>
        </Node>
      </Node>
    </BinaryTree>
    <BinaryTree type="DecisionTree" boostWeight="1.0000000000000000e+00" itree="174">
      <Node pos="s" depth="0" NCoef="0" IVar="11" Cut="1.6949778795242310e+00" cType="1" res="1.5776825603097677e-03" rms="2.9097875952720642e-01" purity="5.0430643558502197e-01" nType="0">
        <Node pos="l" depth="1" NCoef="0" IVar="1" Cut="1.6368764638900757e-01" cType="1" res="7.9014315269887447e-04" rms="2.8872698545455933e-01" purity="4.9932700395584106e-01" nType="0">
          <Node pos="l" depth="2" NCoef="0" IVar="9" Cut="9.3243128061294556e-01" cType="1" res="-7.2762719355523586e-04" rms="2.9563245177268982e-01" purity="4.4500350952148438e-01" nType="0">
            <Node pos="l" depth="3" NCoef="0" IVar="-1" Cut="0.0000000000000000e+00" cType="1" res="1.6919397749006748e-03" rms="2.9979661107063293e-01" purity="4.8263570666313171e-01" nType="-99"/>
            <Node pos="r" depth="3" NCoef="0" IVar="-1" Cut="0.0000000000000000e+00" cType="1" res="-1.1515075340867043e-02" rms="2.7827766537666321e-01" purity="2.9534494876861572e-01" nType="-99"/>
          </Node>
          <Node pos="r" depth="2" NCoef="0" IVar="-1" Cut="0.0000000000000000e+00" cType="1" res="1.9637838006019592e-02" rms="2.3203623294830322e-01" purity="8.9489299058914185e-01" nType="-99"/>
        </Node>
        <Node pos="r" depth="1" NCoef="0" IVar="-1" Cut="0.0000000000000000e+00" cType="1" res="1.8208717927336693e-02" rms="3.3899271488189697e-01" purity="6.2104243040084839e-01" nType="-99"/>
      </Node>
    </BinaryTree>
    <BinaryTree type="DecisionTree" boostWeight="1.0000000000000000e+00" itree="175">
      <Node pos="s" depth="0" NCoef="0" IVar="0" Cut="1.9793812255859375e+03" cType="1" res="-1.1320810299366713e-03" rms="2.8941905498504639e-01" purity="5.0183618068695068e-01" nType="0">
        <Node pos="l" depth="1" NCoef="0" IVar="2" Cut="3.6831555175781250e+02" cType="1" res="-2.9712200630456209e-03" rms="3.0186980962753296e-01" purity="4.0500512719154358e-01" nType="0">
          <Node pos="l" depth="2" NCoef="0" IVar="11" Cut="1.1424267292022705e+00" cType="1" res="1.4192139497026801e-03" rms="2.9798156023025513e-01" purity="4.1431599855422974e-01" nType="0">
            <Node pos="l" depth="3" NCoef="0" IVar="-1" Cut="0.0000000000000000e+00" cType="1" res="3.3083010930567980e-03" rms="2.9450339078903198e-01" purity="3.9350616931915283e-01" nType="-99"/>
            <Node pos="r" depth="3" NCoef="0" IVar="-1" Cut="0.0000000000000000e+00" cType="1" res="-1.1853273026645184e-02" rms="3.3049756288528442e-01" purity="6.2296038866043091e-01" nType="-99"/>
          </Node>
          <Node pos="r" depth="2" NCoef="0" IVar="0" Cut="1.7806149902343750e+03" cType="1" res="-1.0917457751929760e-02" rms="3.0862388014793396e-01" purity="3.8815346360206604e-01" nType="0">
            <Node pos="l" depth="3" NCoef="0" IVar="-1" Cut="0.0000000000000000e+00" cType="1" res="-1.6211643815040588e-02" rms="3.0669730901718140e-01" purity="2.8598523139953613e-01" nType="-99"/>
            <Node pos="r" depth="3" NCoef="0" IVar="-1" Cut="0.0000000000000000e+00" cType="1" res="7.3172850534319878e-03" rms="3.1438961625099182e-01" purity="7.3529982566833496e-01" nType="-99"/>
          </Node>
        </Node>
        <Node pos="r" depth="1" NCoef="0" IVar="0" Cut="2.6954550781250000e+03" cType="1" res="6.3485302962362766e-03" rms="2.3183846473693848e-01" purity="8.9569181203842163e-01" nType="0">
          <Node pos="l" depth="2" NCoef="0" IVar="4" Cut="2.2825427246093750e+02" cType="1" res="3.7521219346672297e-03" rms="2.3278985917568207e-01" purity="8.9341872930526733e-01" nType="0">
            <Node pos="l" depth="3" NCoef="0" IVar="-1" Cut="0.0000000000000000e+00" cType="1" res="1.9823750481009483e-02" rms="2.4756738543510437e-01" purity="8.6373865604400635e-01" nType="-99"/>
            <Node pos="r" depth="3" NCoef="0" IVar="-1" Cut="0.0000000000000000e+00" cType="1" res="-8.0538596957921982e-03" rms="2.1963527798652649e-01" purity="9.1776162385940552e-01" nType="-99"/>
          </Node>
          <Node pos="r" depth="2" NCoef="0" IVar="-1" Cut="0.0000000000000000e+00" cType="1" res="3.2062217593193054e-02" rms="2.2545270621776581e-01" purity="9.0926456451416016e-01" nType="-99"/>
        </Node>
      </Node>
    </BinaryTree>
    <BinaryTree type="DecisionTree" boostWeight="1.0000000000000000e+00" itree="176">
      <Node pos="s" depth="0" NCoef="0" IVar="11" Cut="-1.0667325258255005e+00" cType="1" res="-8.3886447828263044e-04" rms="2.9512718319892883e-01" purity="4.9849775433540344e-01" nType="0">
        <Node pos="l" depth="1" NCoef="0" IVar="2" Cut="6.1929779052734375e+02" cType="1" res="3.2090693712234497e-03" rms="3.0235984921455383e-01" purity="3.0337768793106079e-01" nType="0">
          <Node pos="l" depth="2" NCoef="0" IVar="2" Cut="4.7953286743164062e+02" cType="1" res="4.8105716705322266e-03" rms="2.9985928535461426e-01" purity="2.9810205101966858e-01" nType="0">
            <Node pos="l" depth="3" NCoef="0" IVar="-1" Cut="0.0000000000000000e+00" cType="1" res="2.7545816265046597e-03" rms="2.9572024941444397e-01" purity="2.7458322048187256e-01" nType="-99"/>
            <Node pos="r" depth="3" NCoef="0" IVar="-1" Cut="0.0000000000000000e+00" cType="1" res="1.8582109361886978e-02" rms="3.2207664847373962e-01" purity="4.3211176991462708e-01" nType="-99"/>
          </Node>
          <Node pos="r" depth="2" NCoef="0" IVar="-1" Cut="0.0000000000000000e+00" cType="1" res="-1.5228080563247204e-02" rms="3.3265450596809387e-01" purity="3.7243074178695679e-01" nType="-99"/>
        </Node>
        <Node pos="r" depth="1" NCoef="0" IVar="9" Cut="1.1999537944793701e+00" cType="1" res="-6.3232644461095333e-03" rms="2.8494352102279663e-01" purity="7.6285886764526367e-01" nType="0">
          <Node pos="l" depth="2" NCoef="0" IVar="4" Cut="1.4578150939941406e+02" cType="1" res="-8.7332529947161674e-03" rms="2.8049564361572266e-01" purity="7.8371018171310425e-01" nType="0">
            <Node pos="l" depth="3" NCoef="0" IVar="-1" Cut="0.0000000000000000e+00" cType="1" res="-2.0575799047946930e-02" rms="3.5066801309585571e-01" purity="5.1255029439926147e-01" nType="-99"/>
            <Node pos="r" depth="3" NCoef="0" IVar="-1" Cut="0.0000000000000000e+00" cType="1" res="-5.4677361622452736e-03" rms="2.5298935174942017e-01" purity="8.7287926673889160e-01" nType="-99"/>
          </Node>
          <Node pos="r" depth="2" NCoef="0" IVar="-1" Cut="0.0000000000000000e+00" cType="1" res="1.4180202968418598e-02" rms="3.2141238451004028e-01" purity="5.7519036531448364e-01" nType="-99"/>
        </Node>
      </Node>
    </BinaryTree>
    <BinaryTree type="DecisionTree" boostWeight="1.0000000000000000e+00" itree="177">
      <Node pos="s" depth="0" NCoef="0" IVar="7" Cut="-6.4470034837722778e-01" cType="1" res="2.2997118066996336e-03" rms="2.9118463397026062e-01" purity="5.0774717330932617e-01" nType="0">
        <Node pos="l" depth="1" NCoef="0" IVar="5" Cut="9.2601371765136719e+01" cType="1" res="-5.1743765361607075e-03" rms="2.6664763689041138e-01" purity="3.4232845902442932e-01" nType="0">
          <Node pos="l" depth="2" NCoef="0" IVar="6" Cut="5.6743350982666016e+01" cType="1" res="-1.1126935482025146e-02" rms="2.5413325428962708e-01" purity="1.6353350877761841e-01" nType="0">
            <Node pos="l" depth="3" NCoef="0" IVar="-1" Cut="0.0000000000000000e+00" cType="1" res="-1.1714002117514610e-02" rms="2.3665070533752441e-01" purity="1.0915113985538483e-01" nType="-99"/>
            <Node pos="r" depth="3" NCoef="0" IVar="-1" Cut="0.0000000000000000e+00" cType="1" res="-2.4435006082057953e-02" rms="3.2052916288375854e-01" purity="4.0794861316680908e-01" nType="-99"/>
          </Node>
          <Node pos="r" depth="2" NCoef="0" IVar="9" Cut="-1.2894171476364136e-01" cType="1" res="8.1485956907272339e-03" rms="2.9228582978248596e-01" purity="7.4250590801239014e-01" nType="0">
            <Node pos="l" depth="3" NCoef="0" IVar="-1" Cut="0.0000000000000000e+00" cType="1" res="1.9625578075647354e-02" rms="2.8731113672256470e-01" purity="7.6575142145156860e-01" nType="-99"/>
            <Node pos="r" depth="3" NCoef="0" IVar="-1" Cut="0.0000000000000000e+00" cType="1" res="-1.4081364497542381e-03" rms="2.9678085446357727e-01" purity="7.1971327066421509e-01" nType="-99"/>
          </Node>
        </Node>
        <Node pos="r" depth="1" NCoef="0" IVar="4" Cut="1.9021818542480469e+02" cType="1" res="4.4798110611736774e-03" rms="2.9792603850364685e-01" purity="5.5599772930145264e-01" nType="0">
          <Node pos="l" depth="2" NCoef="0" IVar="10" Cut="1.9997792243957520e+00" cType="1" res="8.1433067098259926e-03" rms="3.1536287069320679e-01" purity="4.1889142990112305e-01" nType="0">
            <Node pos="l" depth="3" NCoef="0" IVar="-1" Cut="0.0000000000000000e+00" cType="1" res="6.6960901021957397e-03" rms="3.1533452868461609e-01" purity="4.3009823560714722e-01" nType="-99"/>
            <Node pos="r" depth="3" NCoef="0" IVar="-1" Cut="0.0000000000000000e+00" cType="1" res="4.0673092007637024e-02" rms="3.1464129686355591e-01" purity="2.4111802875995636e-01" nType="-99"/>
          </Node>
          <Node pos="r" depth="2" NCoef="0" IVar="9" Cut="-6.6684138774871826e-01" cType="1" res="-2.6523543056100607e-03" rms="2.6050716638565063e-01" purity="8.2291895151138306e-01" nType="0">
            <Node pos="l" depth="3" NCoef="0" IVar="-1" Cut="0.0000000000000000e+00" cType="1" res="-2.3185381665825844e-02" rms="2.8456053137779236e-01" purity="7.3141783475875854e-01" nType="-99"/>
            <Node pos="r" depth="3" NCoef="0" IVar="-1" Cut="0.0000000000000000e+00" cType="1" res="2.0642764866352081e-03" rms="2.5419035553932190e-01" purity="8.4500807523727417e-01" nType="-99"/>
          </Node>
        </Node>
      </Node>
    </BinaryTree>
    <BinaryTree type="DecisionTree" boostWeight="1.0000000000000000e+00" itree="178">
      <Node pos="s" depth="0" NCoef="0" IVar="3" Cut="2.3391796875000000e+02" cType="1" res="-2.9734505806118250e-03" rms="2.8980904817581177e-01" purity="4.9814841151237488e-01" nType="0">
        <Node pos="l" depth="1" NCoef="0" IVar="8" Cut="6.6685056686401367e-01" cType="1" res="-6.1706276610493660e-03" rms="2.8862276673316956e-01" purity="3.4618183970451355e-01" nType="0">
          <Node pos="l" depth="2" NCoef="0" IVar="10" Cut="9.3335682153701782e-01" cType="1" res="-1.0594158433377743e-02" rms="2.9207408428192139e-01" purity="3.7642359733581543e-01" nType="0">
            <Node pos="l" depth="3" NCoef="0" IVar="-1" Cut="0.0000000000000000e+00" cType="1" res="-1.6201814636588097e-02" rms="2.9053479433059692e-01" purity="3.8872978091239929e-01" nType="-99"/>
            <Node pos="r" depth="3" NCoef="0" IVar="-1" Cut="0.0000000000000000e+00" cType="1" res="2.1331652533262968e-03" rms="2.9703539609909058e-01" purity="3.3354136347770691e-01" nType="-99"/>
          </Node>
          <Node pos="r" depth="2" NCoef="0" IVar="9" Cut="-9.3319129943847656e-01" cType="1" res="5.6387446820735931e-03" rms="2.7885642647743225e-01" purity="2.6544627547264099e-01" nType="0">
            <Node pos="l" depth="3" NCoef="0" IVar="-1" Cut="0.0000000000000000e+00" cType="1" res="4.7394674271345139e-02" rms="2.5244754552841187e-01" purity="1.8808341026306152e-01" nType="-99"/>
            <Node pos="r" depth="3" NCoef="0" IVar="-1" Cut="0.0000000000000000e+00" cType="1" res="2.2551377696800046e-05" rms="2.8487062454223633e-01" purity="2.8500282764434814e-01" nType="-99"/>
          </Node>
        </Node>
        <Node pos="r" depth="1" NCoef="0" IVar="9" Cut="-1.4661604166030884e+00" cType="1" res="1.0784706100821495e-03" rms="2.9125508666038513e-01" purity="6.9074225425720215e-01" nType="0">
          <Node pos="l" depth="2" NCoef="0" IVar="-1" Cut="0.0000000000000000e+00" cType="1" res="3.1451765447854996e-02" rms="3.3585193753242493e-01" purity="4.1472727060317993e-01" nType="-99"/>
          <Node pos="r" depth="2" NCoef="0" IVar="8" Cut="1.1955032348632812e+00" cType="1" res="-1.1480513494461775e-03" rms="2.8786745667457581e-01" purity="7.0932888984680176e-01" nType="0">
            <Node pos="l" depth="3" NCoef="0" IVar="-1" Cut="0.0000000000000000e+00" cType="1" res="1.0844623902812600e-03" rms="2.8707268834114075e-01" purity="7.3843485116958618e-01" nType="-99"/>
            <Node pos="r" depth="3" NCoef="0" IVar="-1" Cut="0.0000000000000000e+00" cType="1" res="-2.7964103966951370e-02" rms="2.9663160443305969e-01" purity="3.3474409580230713e-01" nType="-99"/>
          </Node>
        </Node>
      </Node>
    </BinaryTree>
    <BinaryTree type="DecisionTree" boostWeight="1.0000000000000000e+00" itree="179">
      <Node pos="s" depth="0" NCoef="0" IVar="9" Cut="-1.7331821918487549e+00" cType="1" res="1.9710477499756962e-04" rms="2.9184734821319580e-01" purity="4.9801358580589294e-01" nType="0">
        <Node pos="l" depth="1" NCoef="0" IVar="10" Cut="-1.3337789475917816e-01" cType="1" res="1.8233641982078552e-02" rms="2.7211067080497742e-01" purity="1.7322485148906708e-01" nType="0">
          <Node pos="l" depth="2" NCoef="0" IVar="-1" Cut="0.0000000000000000e+00" cType="1" res="4.2888473719358444e-02" rms="2.7222719788551331e-01" purity="1.7942579090595245e-01" nType="-99"/>
          <Node pos="r" depth="2" NCoef="0" IVar="-1" Cut="0.0000000000000000e+00" cType="1" res="1.0387803427875042e-02" rms="2.7154326438903809e-01" purity="1.6621239483356476e-01" nType="-99"/>
        </Node>
        <Node pos="r" depth="1" NCoef="0" IVar="8" Cut="1.1999953985214233e+00" cType="1" res="-8.8628631783649325e-04" rms="2.9295518994331360e-01" purity="5.1752251386642456e-01" nType="0">
          <Node pos="l" depth="2" NCoef="0" IVar="2" Cut="5.5883465576171875e+02" cType="1" res="5.8350659674033523e-04" rms="2.9691502451896667e-01" purity="5.5791181325912476e-01" nType="0">
            <Node pos="l" depth="3" NCoef="0" IVar="-1" Cut="0.0000000000000000e+00" cType="1" res="2.9256709385663271e-03" rms="2.9392474889755249e-01" purity="5.4815030097961426e-01" nType="-99"/>
            <Node pos="r" depth="3" NCoef="0" IVar="-1" Cut="0.0000000000000000e+00" cType="1" res="-1.3130292296409607e-02" rms="3.1626039743423462e-01" purity="6.2459772825241089e-01" nType="-99"/>
          </Node>
          <Node pos="r" depth="2" NCoef="0" IVar="3" Cut="1.7240760803222656e+02" cType="1" res="-1.2668617069721222e-02" rms="2.5873181223869324e-01" purity="1.9374911487102509e-01" nType="0">
            <Node pos="l" depth="3" NCoef="0" IVar="-1" Cut="0.0000000000000000e+00" cType="1" res="1.3568982481956482e-02" rms="2.1984601020812988e-01" purity="1.0069935768842697e-01" nType="-99"/>
            <Node pos="r" depth="3" NCoef="0" IVar="-1" Cut="0.0000000000000000e+00" cType="1" res="-2.9776301234960556e-02" rms="2.8229162096977234e-01" purity="2.5967729091644287e-01" nType="-99"/>
          </Node>
        </Node>
      </Node>
    </BinaryTree>
    <BinaryTree type="DecisionTree" boostWeight="1.0000000000000000e+00" itree="180">
      <Node pos="s" depth="0" NCoef="0" IVar="8" Cut="-6.6656696796417236e-01" cType="1" res="1.1270316317677498e-03" rms="2.9005807638168335e-01" purity="4.9605810642242432e-01" nType="0">
        <Node pos="l" depth="1" NCoef="0" IVar="10" Cut="9.3321031332015991e-01" cType="1" res="-7.5727887451648712e-03" rms="2.8113669157028198e-01" purity="3.4431639313697815e-01" nType="0">
          <Node pos="l" depth="2" NCoef="0" IVar="10" Cut="-1.2000074386596680e+00" cType="1" res="-1.2767555192112923e-02" rms="2.7862146496772766e-01" purity="3.5641160607337952e-01" nType="0">
            <Node pos="l" depth="3" NCoef="0" IVar="-1" Cut="0.0000000000000000e+00" cType="1" res="1.1057835072278976e-02" rms="2.6813673973083496e-01" purity="2.5976970791816711e-01" nType="-99"/>
            <Node pos="r" depth="3" NCoef="0" IVar="-1" Cut="0.0000000000000000e+00" cType="1" res="-2.4873880669474602e-02" rms="2.8214800357818604e-01" purity="3.9376720786094666e-01" nType="-99"/>
          </Node>
          <Node pos="r" depth="2" NCoef="0" IVar="-1" Cut="0.0000000000000000e+00" cType="1" res="1.6950147226452827e-02" rms="2.9009458422660828e-01" purity="2.9567569494247437e-01" nType="-99"/>
        </Node>
        <Node pos="r" depth="1" NCoef="0" IVar="4" Cut="2.8715185546875000e+02" cType="1" res="3.9700008928775787e-03" rms="2.9285854101181030e-01" purity="5.4564493894577026e-01" nType="0">
          <Node pos="l" depth="2" NCoef="0" IVar="5" Cut="9.1342071533203125e+01" cType="1" res="4.9973158165812492e-03" rms="2.9717135429382324e-01" purity="5.1766180992126465e-01" nType="0">
            <Node pos="l" depth="3" NCoef="0" IVar="-1" Cut="0.0000000000000000e+00" cType="1" res="1.7307029338553548e-03" rms="3.1608501076698303e-01" purity="3.1413993239402771e-01" nType="-99"/>
            <Node pos="r" depth="3" NCoef="0" IVar="-1" Cut="0.0000000000000000e+00" cType="1" res="1.4260792173445225e-02" rms="2.6384335756301880e-01" purity="8.4494888782501221e-01" nType="-99"/>
          </Node>
          <Node pos="r" depth="2" NCoef="0" IVar="-1" Cut="0.0000000000000000e+00" cType="1" res="-1.6039626672863960e-02" rms="2.3279845714569092e-01" purity="8.9091283082962036e-01" nType="-99"/>
        </Node>
      </Node>
    </BinaryTree>
    <BinaryTree type="DecisionTree" boostWeight="1.0000000000000000e+00" itree="181">
      <Node pos="s" depth="0" NCoef="0" IVar="11" Cut="-2.3826590180397034e-01" cType="1" res="5.5277667706832290e-04" rms="2.9024162888526917e-01" purity="5.0513017177581787e-01" nType="0">
        <Node pos="l" depth="1" NCoef="0" IVar="11" Cut="-1.2905013561248779e+00" cType="1" res="4.1118315421044827e-03" rms="2.9155299067497253e-01" purity="4.0251010656356812e-01" nType="0">
          <Node pos="l" depth="2" NCoef="0" IVar="1" Cut="1.2038825452327728e-01" cType="1" res="7.7800295548513532e-04" rms="2.9671186208724976e-01" purity="2.9051879048347473e-01" nType="0">
            <Node pos="l" depth="3" NCoef="0" IVar="-1" Cut="0.0000000000000000e+00" cType="1" res="3.0653774738311768e-03" rms="2.8938204050064087e-01" purity="2.2884277999401093e-01" nType="-99"/>
            <Node pos="r" depth="3" NCoef="0" IVar="-1" Cut="0.0000000000000000e+00" cType="1" res="-9.1305198147892952e-03" rms="3.4039995074272156e-01" purity="6.9238638877868652e-01" nType="-99"/>
          </Node>
          <Node pos="r" depth="2" NCoef="0" IVar="1" Cut="4.2586222290992737e-02" cType="1" res="1.5451935119926929e-02" rms="2.7297219634056091e-01" purity="7.8345155715942383e-01" nType="0">
            <Node pos="l" depth="3" NCoef="0" IVar="-1" Cut="0.0000000000000000e+00" cType="1" res="3.2975144684314728e-02" rms="3.3125057816505432e-01" purity="4.7989472746849060e-01" nType="-99"/>
            <Node pos="r" depth="3" NCoef="0" IVar="-1" Cut="0.0000000000000000e+00" cType="1" res="1.1501103639602661e-02" rms="2.5020322203636169e-01" purity="8.8419693708419800e-01" nType="-99"/>
          </Node>
        </Node>
        <Node pos="r" depth="1" NCoef="0" IVar="0" Cut="1.3321091308593750e+03" cType="1" res="-7.9276766628026962e-03" rms="2.8691494464874268e-01" purity="7.4965143203735352e-01" nType="0">
          <Node pos="l" depth="2" NCoef="0" IVar="-1" Cut="0.0000000000000000e+00" cType="1" res="-2.3134076967835426e-02" rms="3.6680629849433899e-01" purity="3.2425951957702637e-01" nType="-99"/>
          <Node pos="r" depth="2" NCoef="0" IVar="10" Cut="9.3324613571166992e-01" cType="1" res="-2.9364405199885368e-03" rms="2.6671281456947327e-01" purity="8.3958739042282104e-01" nType="0">
            <Node pos="l" depth="3" NCoef="0" IVar="-1" Cut="0.0000000000000000e+00" cType="1" res="2.7954068500548601e-03" rms="2.5517368316650391e-01" purity="8.5727369785308838e-01" nType="-99"/>
            <Node pos="r" depth="3" NCoef="0" IVar="-1" Cut="0.0000000000000000e+00" cType="1" res="-2.4891778826713562e-02" rms="3.0731871724128723e-01" purity="7.6980662345886230e-01" nType="-99"/>
          </Node>
        </Node>
      </Node>
    </BinaryTree>
    <BinaryTree type="DecisionTree" boostWeight="1.0000000000000000e+00" itree="182">
      <Node pos="s" depth="0" NCoef="0" IVar="7" Cut="-9.2186522483825684e-01" cType="1" res="-2.6303071063011885e-03" rms="2.9000669717788696e-01" purity="4.9962744116783142e-01" nType="0">
        <Node pos="l" depth="1" NCoef="0" IVar="9" Cut="-3.9924332499504089e-01" cType="1" res="5.8393622748553753e-03" rms="2.6275283098220825e-01" purity="2.5429654121398926e-01" nType="0">
          <Node pos="l" depth="2" NCoef="0" IVar="10" Cut="-1.3295795023441315e-01" cType="1" res="1.9989704713225365e-02" rms="2.7740150690078735e-01" purity="2.4722579121589661e-01" nType="0">
            <Node pos="l" depth="3" NCoef="0" IVar="-1" Cut="0.0000000000000000e+00" cType="1" res="1.2496843002736568e-02" rms="2.6183545589447021e-01" purity="2.1669827401638031e-01" nType="-99"/>
            <Node pos="r" depth="3" NCoef="0" IVar="-1" Cut="0.0000000000000000e+00" cType="1" res="4.9857411533594131e-02" rms="2.9591956734657288e-01" purity="2.8727793693542480e-01" nType="-99"/>
          </Node>
          <Node pos="r" depth="2" NCoef="0" IVar="5" Cut="8.6103744506835938e+01" cType="1" res="-5.4632839746773243e-03" rms="2.4986231327056885e-01" purity="2.5994434952735901e-01" nType="0">
            <Node pos="l" depth="3" NCoef="0" IVar="-1" Cut="0.0000000000000000e+00" cType="1" res="-2.4447385221719742e-02" rms="2.1381799876689911e-01" purity="8.1863202154636383e-02" nType="-99"/>
            <Node pos="r" depth="3" NCoef="0" IVar="-1" Cut="0.0000000000000000e+00" cType="1" res="8.0095687881112099e-03" rms="3.0975922942161560e-01" purity="6.2013173103332520e-01" nType="-99"/>
          </Node>
        </Node>
        <Node pos="r" depth="1" NCoef="0" IVar="0" Cut="1.9889913330078125e+03" cType="1" res="-4.1479216888546944e-03" rms="2.9459816217422485e-01" purity="5.4358637332916260e-01" nType="0">
          <Node pos="l" depth="2" NCoef="0" IVar="2" Cut="4.9454794311523438e+02" cType="1" res="-6.1685545369982719e-03" rms="3.1000557541847229e-01" purity="4.4857075810432434e-01" nType="0">
            <Node pos="l" depth="3" NCoef="0" IVar="-1" Cut="0.0000000000000000e+00" cType="1" res="-4.3583670631051064e-03" rms="3.0661612749099731e-01" purity="4.6189785003662109e-01" nType="-99"/>
            <Node pos="r" depth="3" NCoef="0" IVar="-1" Cut="0.0000000000000000e+00" cType="1" res="-1.8389707431197166e-02" rms="3.3358827233314514e-01" purity="3.5012322664260864e-01" nType="-99"/>
          </Node>
          <Node pos="r" depth="2" NCoef="0" IVar="10" Cut="-1.3373790681362152e-01" cType="1" res="3.5867094993591309e-03" rms="2.2595338523387909e-01" purity="9.0728962421417236e-01" nType="0">
            <Node pos="l" depth="3" NCoef="0" IVar="-1" Cut="0.0000000000000000e+00" cType="1" res="2.0997891202569008e-02" rms="2.2284673154354095e-01" purity="9.1150152683258057e-01" nType="-99"/>
            <Node pos="r" depth="3" NCoef="0" IVar="-1" Cut="0.0000000000000000e+00" cType="1" res="-6.5396116115152836e-03" rms="2.2842036187648773e-01" purity="9.0358650684356689e-01" nType="-99"/>
          </Node>
        </Node>
      </Node>
    </BinaryTree>
    <BinaryTree type="DecisionTree" boostWeight="1.0000000000000000e+00" itree="183">
      <Node pos="s" depth="0" NCoef="0" IVar="10" Cut="-9.3335652351379395e-01" cType="1" res="-2.0047526340931654e-03" rms="2.9077053070068359e-01" purity="4.9896708130836487e-01" nType="0">
        <Node pos="l" depth="1" NCoef="0" IVar="0" Cut="1.8162497558593750e+03" cType="1" res="-9.2024663463234901e-03" rms="2.8608065843582153e-01" purity="4.0340667963027954e-01" nType="0">
          <Node pos="l" depth="2" NCoef="0" IVar="0" Cut="1.0904360351562500e+03" cType="1" res="-1.3363912701606750e-02" rms="2.8983619809150696e-01" purity="2.7606758475303650e-01" nType="0">
            <Node pos="l" depth="3" NCoef="0" IVar="-1" Cut="0.0000000000000000e+00" cType="1" res="3.3628817647695541e-02" rms="1.9507613778114319e-01" purity="4.7481589019298553e-02" nType="-99"/>
            <Node pos="r" depth="3" NCoef="0" IVar="-1" Cut="0.0000000000000000e+00" cType="1" res="-1.9912809133529663e-02" rms="3.1358981132507324e-01" purity="3.4856528043746948e-01" nType="-99"/>
          </Node>
          <Node pos="r" depth="2" NCoef="0" IVar="-1" Cut="0.0000000000000000e+00" cType="1" res="6.6486494615674019e-03" rms="2.7253526449203491e-01" purity="8.3379757404327393e-01" nType="-99"/>
        </Node>
        <Node pos="r" depth="1" NCoef="0" IVar="10" Cut="1.5553658008575439e+00" cType="1" res="7.6983014878351241e-05" rms="2.9207983613014221e-01" purity="5.2660524845123291e-01" nType="0">
          <Node pos="l" depth="2" NCoef="0" IVar="8" Cut="-3.9897185564041138e-01" cType="1" res="2.1567044313997030e-03" rms="2.9305893182754517e-01" purity="5.6054604053497314e-01" nType="0">
            <Node pos="l" depth="3" NCoef="0" IVar="-1" Cut="0.0000000000000000e+00" cType="1" res="1.2456334196031094e-02" rms="3.0058428645133972e-01" purity="4.9855247139930725e-01" nType="-99"/>
            <Node pos="r" depth="3" NCoef="0" IVar="-1" Cut="0.0000000000000000e+00" cType="1" res="-2.4297882337123156e-03" rms="2.8935089707374573e-01" purity="5.8975356817245483e-01" nType="-99"/>
          </Node>
          <Node pos="r" depth="2" NCoef="0" IVar="5" Cut="8.8605804443359375e+01" cType="1" res="-1.3663999736309052e-02" rms="2.8514561057090759e-01" purity="3.0235382914543152e-01" nType="0">
            <Node pos="l" depth="3" NCoef="0" IVar="-1" Cut="0.0000000000000000e+00" cType="1" res="-5.5948449298739433e-03" rms="2.6510173082351685e-01" purity="1.8210661411285400e-01" nType="-99"/>
            <Node pos="r" depth="3" NCoef="0" IVar="-1" Cut="0.0000000000000000e+00" cType="1" res="-3.6076691001653671e-02" rms="3.3070352673530579e-01" purity="6.1736500263214111e-01" nType="-99"/>
          </Node>
        </Node>
      </Node>
    </BinaryTree>
    <BinaryTree type="DecisionTree" boostWeight="1.0000000000000000e+00" itree="184">
      <Node pos="s" depth="0" NCoef="0" IVar="5" Cut="7.0670654296875000e+01" cType="1" res="1.4898962108418345e-03" rms="2.9346862435340881e-01" purity="4.9743062257766724e-01" nType="0">
        <Node pos="l" depth="1" NCoef="0" IVar="7" Cut="1.2047922611236572e+00" cType="1" res="7.7588581480085850e-03" rms="2.9082489013671875e-01" purity="1.9744479656219482e-01" nType="0">
          <Node pos="l" depth="2" NCoef="0" IVar="11" Cut="3.7907510995864868e-02" cType="1" res="1.0590985417366028e-02" rms="3.0763539671897888e-01" purity="2.2355225682258606e-01" nType="0">
            <Node pos="l" depth="3" NCoef="0" IVar="-1" Cut="0.0000000000000000e+00" cType="1" res="9.0398443862795830e-03" rms="3.0036294460296631e-01" purity="1.9684077799320221e-01" nType="-99"/>
            <Node pos="r" depth="3" NCoef="0" IVar="-1" Cut="0.0000000000000000e+00" cType="1" res="2.6206752285361290e-02" rms="3.6486360430717468e-01" purity="4.6002140641212463e-01" nType="-99"/>
          </Node>
          <Node pos="r" depth="2" NCoef="0" IVar="3" Cut="1.6896385192871094e+02" cType="1" res="-1.0430991649627686e-02" rms="1.3993519544601440e-01" purity="2.9765121638774872e-02" nType="0">
            <Node pos="l" depth="3" NCoef="0" IVar="-1" Cut="0.0000000000000000e+00" cType="1" res="-9.9338730797171593e-03" rms="1.0055029392242432e-01" purity="1.5726402401924133e-02" nType="-99"/>
            <Node pos="r" depth="3" NCoef="0" IVar="-1" Cut="0.0000000000000000e+00" cType="1" res="-4.3041285127401352e-02" rms="1.6755622625350952e-01" purity="4.2562577873468399e-02" nType="-99"/>
          </Node>
        </Node>
        <Node pos="r" depth="1" NCoef="0" IVar="7" Cut="2.0451290905475616e-01" cType="1" res="-2.7910568751394749e-03" rms="2.9518389701843262e-01" purity="7.0228517055511475e-01" nType="0">
          <Node pos="l" depth="2" NCoef="0" IVar="4" Cut="1.5236511230468750e+02" cType="1" res="1.9061404746025801e-03" rms="2.9200747609138489e-01" purity="7.2703820466995239e-01" nType="0">
            <Node pos="l" depth="3" NCoef="0" IVar="-1" Cut="0.0000000000000000e+00" cType="1" res="-6.8801916204392910e-03" rms="3.4340810775756836e-01" purity="4.7610810399055481e-01" nType="-99"/>
            <Node pos="r" depth="3" NCoef="0" IVar="-1" Cut="0.0000000000000000e+00" cType="1" res="8.0308550968766212e-03" rms="2.6749882102012634e-01" purity="8.3195507526397705e-01" nType="-99"/>
          </Node>
          <Node pos="r" depth="2" NCoef="0" IVar="9" Cut="-6.6811859607696533e-01" cType="1" res="-9.9930306896567345e-03" rms="2.9984596371650696e-01" purity="6.6433274745941162e-01" nType="0">
            <Node pos="l" depth="3" NCoef="0" IVar="-1" Cut="0.0000000000000000e+00" cType="1" res="-3.1454369425773621e-02" rms="3.1155917048454285e-01" purity="5.4622530937194824e-01" nType="-99"/>
            <Node pos="r" depth="3" NCoef="0" IVar="-1" Cut="0.0000000000000000e+00" cType="1" res="-4.8395441845059395e-03" rms="2.9619818925857544e-01" purity="6.9774520397186279e-01" nType="-99"/>
          </Node>
        </Node>
      </Node>
    </BinaryTree>
    <BinaryTree type="DecisionTree" boostWeight="1.0000000000000000e+00" itree="185">
      <Node pos="s" depth="0" NCoef="0" IVar="6" Cut="5.7308734893798828e+01" cType="1" res="2.0395894534885883e-03" rms="2.9165080189704895e-01" purity="5.0301724672317505e-01" nType="0">
        <Node pos="l" depth="1" NCoef="0" IVar="10" Cut="-1.4666966199874878e+00" cType="1" res="5.8850846253335476e-03" rms="3.0767676234245300e-01" purity="2.7318555116653442e-01" nType="0">
          <Node pos="l" depth="2" NCoef="0" IVar="8" Cut="-6.6596770286560059e-01" cType="1" res="-6.7300591617822647e-03" rms="2.6949122548103333e-01" purity="1.4870950579643250e-01" nType="0">
            <Node pos="l" depth="3" NCoef="0" IVar="-1" Cut="0.0000000000000000e+00" cType="1" res="3.3622074872255325e-02" rms="2.7132964134216309e-01" purity="1.2851658463478088e-01" nType="-99"/>
            <Node pos="r" depth="3" NCoef="0" IVar="-1" Cut="0.0000000000000000e+00" cType="1" res="-2.9160335659980774e-02" rms="2.6710900664329529e-01" purity="1.6131962835788727e-01" nType="-99"/>
          </Node>
          <Node pos="r" depth="2" NCoef="0" IVar="1" Cut="5.7839680463075638e-02" cType="1" res="7.9851569607853889e-03" rms="3.1353318691253662e-01" purity="2.9390737414360046e-01" nType="0">
            <Node pos="l" depth="3" NCoef="0" IVar="-1" Cut="0.0000000000000000e+00" cType="1" res="4.8927213065326214e-03" rms="2.7877116203308105e-01" purity="1.7459261417388916e-01" nType="-99"/>
            <Node pos="r" depth="3" NCoef="0" IVar="-1" Cut="0.0000000000000000e+00" cType="1" res="1.1862187646329403e-02" rms="3.7335929274559021e-01" purity="5.3265446424484253e-01" nType="-99"/>
          </Node>
        </Node>
        <Node pos="r" depth="1" NCoef="0" IVar="9" Cut="-1.1992547512054443e+00" cType="1" res="-3.0970345251262188e-03" rms="2.6867157220840454e-01" purity="8.1001514196395874e-01" nType="0">
          <Node pos="l" depth="2" NCoef="0" IVar="-1" Cut="0.0000000000000000e+00" cType="1" res="-2.6160599663853645e-02" rms="3.2381293177604675e-01" purity="5.9890228509902954e-01" nType="-99"/>
          <Node pos="r" depth="2" NCoef="0" IVar="2" Cut="4.2574047851562500e+02" cType="1" res="-6.1802059644833207e-04" rms="2.6238915324211121e-01" purity="8.3113771677017212e-01" nType="0">
            <Node pos="l" depth="3" NCoef="0" IVar="-1" Cut="0.0000000000000000e+00" cType="1" res="7.5178267434239388e-03" rms="2.6704236865043640e-01" purity="8.2135772705078125e-01" nType="-99"/>
            <Node pos="r" depth="3" NCoef="0" IVar="-1" Cut="0.0000000000000000e+00" cType="1" res="-1.9624318927526474e-02" rms="2.5315520167350769e-01" purity="8.4919601678848267e-01" nType="-99"/>
          </Node>
        </Node>
      </Node>
    </BinaryTree>
    <BinaryTree type="DecisionTree" boostWeight="1.0000000000000000e+00" itree="186">
      <Node pos="s" depth="0" NCoef="0" IVar="8" Cut="9.3345183134078979e-01" cType="1" res="2.5116410688497126e-04" rms="2.9364725947380066e-01" purity="4.9956333637237549e-01" nType="0">
        <Node pos="l" depth="1" NCoef="0" IVar="8" Cut="-3.1085148453712463e-01" cType="1" res="-1.8462426960468292e-03" rms="2.9606905579566956e-01" purity="5.4176187515258789e-01" nType="0">
          <Node pos="l" depth="2" NCoef="0" IVar="3" Cut="3.2304400634765625e+02" cType="1" res="5.2748983725905418e-03" rms="2.9469615221023560e-01" purity="4.5029601454734802e-01" nType="0">
            <Node pos="l" depth="3" NCoef="0" IVar="-1" Cut="0.0000000000000000e+00" cType="1" res="9.3896072357892990e-03" rms="2.9475536942481995e-01" purity="4.0587422251701355e-01" nType="-99"/>
            <Node pos="r" depth="3" NCoef="0" IVar="-1" Cut="0.0000000000000000e+00" cType="1" res="-1.0526355355978012e-02" rms="2.9395067691802979e-01" purity="6.8544071912765503e-01" nType="-99"/>
          </Node>
          <Node pos="r" depth="2" NCoef="0" IVar="3" Cut="2.1884661865234375e+02" cType="1" res="-7.7005261555314064e-03" rms="2.9706513881683350e-01" purity="6.1695587635040283e-01" nType="0">
            <Node pos="l" depth="3" NCoef="0" IVar="-1" Cut="0.0000000000000000e+00" cType="1" res="-2.2949056699872017e-02" rms="3.0333974957466125e-01" purity="4.1518238186836243e-01" nType="-99"/>
            <Node pos="r" depth="3" NCoef="0" IVar="-1" Cut="0.0000000000000000e+00" cType="1" res="3.5426812246441841e-03" rms="2.9170390963554382e-01" purity="7.7171170711517334e-01" nType="-99"/>
          </Node>
        </Node>
        <Node pos="r" depth="1" NCoef="0" IVar="8" Cut="1.2889703512191772e+00" cType="1" res="1.0458862408995628e-02" rms="2.8134033083915710e-01" purity="2.9419073462486267e-01" nType="0">
          <Node pos="l" depth="2" NCoef="0" IVar="4" Cut="1.4347125244140625e+02" cType="1" res="2.6464400812983513e-02" rms="3.2399851083755493e-01" purity="4.5940732955932617e-01" nType="0">
            <Node pos="l" depth="3" NCoef="0" IVar="-1" Cut="0.0000000000000000e+00" cType="1" res="5.0289183855056763e-02" rms="3.1339278817176819e-01" purity="2.5306105613708496e-01" nType="-99"/>
            <Node pos="r" depth="3" NCoef="0" IVar="-1" Cut="0.0000000000000000e+00" cType="1" res="1.1718468740582466e-02" rms="3.3234640955924988e-01" purity="6.3857764005661011e-01" nType="-99"/>
          </Node>
          <Node pos="r" depth="2" NCoef="0" IVar="5" Cut="8.4363304138183594e+01" cType="1" res="-9.6022733487188816e-04" rms="2.4579696357250214e-01" purity="1.7631760239601135e-01" nType="0">
            <Node pos="l" depth="3" NCoef="0" IVar="-1" Cut="0.0000000000000000e+00" cType="1" res="-1.9416298717260361e-02" rms="1.9832460582256317e-01" purity="6.9340601563453674e-02" nType="-99"/>
            <Node pos="r" depth="3" NCoef="0" IVar="-1" Cut="0.0000000000000000e+00" cType="1" res="1.8116621300578117e-02" rms="3.4075352549552917e-01" purity="4.6198606491088867e-01" nType="-99"/>
          </Node>
        </Node>
      </Node>
    </BinaryTree>
    <BinaryTree type="DecisionTree" boostWeight="1.0000000000000000e+00" itree="187">
      <Node pos="s" depth="0" NCoef="0" IVar="8" Cut="-3.9958730340003967e-01" cType="1" res="5.0233391812071204e-04" rms="2.9070734977722168e-01" purity="5.0378680229187012e-01" nType="0">
        <Node pos="l" depth="1" NCoef="0" IVar="0" Cut="1.5542309570312500e+03" cType="1" res="-6.3331392593681812e-03" rms="2.8824761509895325e-01" purity="4.2634364962577820e-01" nType="0">
          <Node pos="l" depth="2" NCoef="0" IVar="6" Cut="5.4437023162841797e+01" cType="1" res="-1.3507899828255177e-02" rms="2.9224205017089844e-01" purity="2.0622012019157410e-01" nType="0">
            <Node pos="l" depth="3" NCoef="0" IVar="-1" Cut="0.0000000000000000e+00" cType="1" res="-7.6170675456523895e-03" rms="2.6303336024284363e-01" purity="1.1663851886987686e-01" nType="-99"/>
            <Node pos="r" depth="3" NCoef="0" IVar="-1" Cut="0.0000000000000000e+00" cType="1" res="-2.9405929148197174e-02" rms="3.6597320437431335e-01" purity="4.7876924276351929e-01" nType="-99"/>
          </Node>
          <Node pos="r" depth="2" NCoef="0" IVar="8" Cut="-1.1992326974868774e+00" cType="1" res="4.6063801273703575e-03" rms="2.8169685602188110e-01" purity="7.6197093725204468e-01" nType="0">
            <Node pos="l" depth="3" NCoef="0" IVar="-1" Cut="0.0000000000000000e+00" cType="1" res="-1.5475184656679630e-02" rms="2.9725423455238342e-01" purity="5.1081544160842896e-01" nType="-99"/>
            <Node pos="r" depth="3" NCoef="0" IVar="-1" Cut="0.0000000000000000e+00" cType="1" res="1.3538761064410210e-02" rms="2.7707043290138245e-01" purity="8.2980287075042725e-01" nType="-99"/>
          </Node>
        </Node>
        <Node pos="r" depth="1" NCoef="0" IVar="8" Cut="9.7162443399429321e-01" cType="1" res="4.0434491820633411e-03" rms="2.9191052913665771e-01" purity="5.4390627145767212e-01" nType="0">
          <Node pos="l" depth="2" NCoef="0" IVar="3" Cut="1.4552398681640625e+02" cType="1" res="6.8490491248667240e-03" rms="2.9694449901580811e-01" purity="6.3235920667648315e-01" nType="0">
            <Node pos="l" depth="3" NCoef="0" IVar="-1" Cut="0.0000000000000000e+00" cType="1" res="-1.6616569831967354e-02" rms="2.5399115681648254e-01" purity="1.5222339332103729e-01" nType="-99"/>
            <Node pos="r" depth="3" NCoef="0" IVar="-1" Cut="0.0000000000000000e+00" cType="1" res="1.0186159983277321e-02" rms="3.0220678448677063e-01" purity="6.9746887683868408e-01" nType="-99"/>
          </Node>
          <Node pos="r" depth="2" NCoef="0" IVar="8" Cut="1.3198703527450562e+00" cType="1" res="-4.7258087433874607e-03" rms="2.7539974451065063e-01" purity="2.6743555068969727e-01" nType="0">
            <Node pos="l" depth="3" NCoef="0" IVar="-1" Cut="0.0000000000000000e+00" cType="1" res="-1.9860848784446716e-02" rms="3.1163504719734192e-01" purity="3.9192640781402588e-01" nType="-99"/>
            <Node pos="r" depth="3" NCoef="0" IVar="-1" Cut="0.0000000000000000e+00" cType="1" res="7.9218698665499687e-03" rms="2.4729929864406586e-01" purity="1.8285603821277618e-01" nType="-99"/>
          </Node>
        </Node>
      </Node>
    </BinaryTree>
    <BinaryTree type="DecisionTree" boostWeight="1.0000000000000000e+00" itree="188">
      <Node pos="s" depth="0" NCoef="0" IVar="11" Cut="-5.1437032222747803e-01" cType="1" res="-9.2469243099913001e-04" rms="2.9591107368469238e-01" purity="4.9522772431373596e-01" nType="0">
        <Node pos="l" depth="1" NCoef="0" IVar="4" Cut="2.2662884521484375e+02" cType="1" res="2.8499360196292400e-03" rms="3.0115306377410889e-01" purity="3.6319094896316528e-01" nType="0">
          <Node pos="l" depth="2" NCoef="0" IVar="3" Cut="1.3367649841308594e+02" cType="1" res="5.2067674696445465e-03" rms="3.0118256807327271e-01" purity="3.0259698629379272e-01" nType="0">
            <Node pos="l" depth="3" NCoef="0" IVar="-1" Cut="0.0000000000000000e+00" cType="1" res="-1.5577824786305428e-02" rms="1.8697218596935272e-01" purity="4.6909131109714508e-02" nType="-99"/>
            <Node pos="r" depth="3" NCoef="0" IVar="-1" Cut="0.0000000000000000e+00" cType="1" res="7.9147489741444588e-03" rms="3.2234185934066772e-01" purity="3.6327058076858521e-01" nType="-99"/>
          </Node>
          <Node pos="r" depth="2" NCoef="0" IVar="0" Cut="2.1280502929687500e+03" cType="1" res="-1.2281746603548527e-02" rms="3.0052357912063599e-01" purity="7.5222516059875488e-01" nType="0">
            <Node pos="l" depth="3" NCoef="0" IVar="-1" Cut="0.0000000000000000e+00" cType="1" res="-2.7822889387607574e-02" rms="3.3728462457656860e-01" purity="6.3177853822708130e-01" nType="-99"/>
            <Node pos="r" depth="3" NCoef="0" IVar="-1" Cut="0.0000000000000000e+00" cType="1" res="1.3636029325425625e-02" rms="2.4915888905525208e-01" purity="8.9297437667846680e-01" nType="-99"/>
          </Node>
        </Node>
        <Node pos="r" depth="1" NCoef="0" IVar="10" Cut="9.3388336896896362e-01" cType="1" res="-8.2520451396703720e-03" rms="2.8531810641288757e-01" purity="7.5153899192810059e-01" nType="0">
          <Node pos="l" depth="2" NCoef="0" IVar="5" Cut="6.7380691528320312e+01" cType="1" res="-4.4783349148929119e-03" rms="2.7603390812873840e-01" purity="7.7312600612640381e-01" nType="0">
            <Node pos="l" depth="3" NCoef="0" IVar="-1" Cut="0.0000000000000000e+00" cType="1" res="-2.3045351728796959e-02" rms="3.5572662949562073e-01" purity="3.3582293987274170e-01" nType="-99"/>
            <Node pos="r" depth="3" NCoef="0" IVar="-1" Cut="0.0000000000000000e+00" cType="1" res="-2.2517105098813772e-03" rms="2.6477274298667908e-01" purity="8.2536703348159790e-01" nType="-99"/>
          </Node>
          <Node pos="r" depth="2" NCoef="0" IVar="10" Cut="1.4671087265014648e+00" cType="1" res="-2.2622106596827507e-02" rms="3.1779170036315918e-01" purity="6.6933715343475342e-01" nType="0">
            <Node pos="l" depth="3" NCoef="0" IVar="-1" Cut="0.0000000000000000e+00" cType="1" res="-3.8419358432292938e-02" rms="3.0946740508079529e-01" purity="7.1977984905242920e-01" nType="-99"/>
            <Node pos="r" depth="3" NCoef="0" IVar="-1" Cut="0.0000000000000000e+00" cType="1" res="-1.0148130357265472e-02" rms="3.2712543010711670e-01" purity="6.0850232839584351e-01" nType="-99"/>
          </Node>
        </Node>
      </Node>
    </BinaryTree>
    <BinaryTree type="DecisionTree" boostWeight="1.0000000000000000e+00" itree="189">
      <Node pos="s" depth="0" NCoef="0" IVar="10" Cut="-1.4665620326995850e+00" cType="1" res="3.7892069667577744e-04" rms="2.9369184374809265e-01" purity="5.0141954421997070e-01" nType="0">
        <Node pos="l" depth="1" NCoef="0" IVar="9" Cut="-1.2002545595169067e+00" cType="1" res="1.2679952196776867e-02" rms="2.9487833380699158e-01" purity="3.3792936801910400e-01" nType="0">
          <Node pos="l" depth="2" NCoef="0" IVar="-1" Cut="0.0000000000000000e+00" cType="1" res="4.8722244799137115e-02" rms="2.8246444463729858e-01" purity="2.0673219859600067e-01" nType="-99"/>
          <Node pos="r" depth="2" NCoef="0" IVar="11" Cut="-1.0668774843215942e+00" cType="1" res="6.8477410823106766e-03" rms="2.9798257350921631e-01" purity="3.7447637319564819e-01" nType="0">
            <Node pos="l" depth="3" NCoef="0" IVar="-1" Cut="0.0000000000000000e+00" cType="1" res="-6.8834978155791759e-03" rms="2.7794277667999268e-01" purity="2.0655435323715210e-01" nType="-99"/>
            <Node pos="r" depth="3" NCoef="0" IVar="-1" Cut="0.0000000000000000e+00" cType="1" res="2.8052864596247673e-02" rms="3.3081790804862976e-01" purity="6.8637233972549438e-01" nType="-99"/>
          </Node>
        </Node>
        <Node pos="r" depth="1" NCoef="0" IVar="3" Cut="3.2496075439453125e+02" cType="1" res="-1.2320313835516572e-03" rms="2.9349792003631592e-01" purity="5.2283030748367310e-01" nType="0">
          <Node pos="l" depth="2" NCoef="0" IVar="3" Cut="1.7107833862304688e+02" cType="1" res="6.7631772253662348e-04" rms="2.9642868041992188e-01" purity="4.7401657700538635e-01" nType="0">
            <Node pos="l" depth="3" NCoef="0" IVar="-1" Cut="0.0000000000000000e+00" cType="1" res="-1.0754351504147053e-02" rms="2.6573154330253601e-01" purity="1.9472073018550873e-01" nType="-99"/>
            <Node pos="r" depth="3" NCoef="0" IVar="-1" Cut="0.0000000000000000e+00" cType="1" res="4.8176660202443600e-03" rms="3.0907818675041199e-01" purity="5.9876769781112671e-01" nType="-99"/>
          </Node>
          <Node pos="r" depth="2" NCoef="0" IVar="1" Cut="1.0035748779773712e-01" cType="1" res="-1.0014718398451805e-02" rms="2.7944621443748474e-01" purity="7.4748319387435913e-01" nType="0">
            <Node pos="l" depth="3" NCoef="0" IVar="-1" Cut="0.0000000000000000e+00" cType="1" res="-1.9387204200029373e-02" rms="3.1348419189453125e-01" purity="6.3371568918228149e-01" nType="-99"/>
            <Node pos="r" depth="3" NCoef="0" IVar="-1" Cut="0.0000000000000000e+00" cType="1" res="1.2291825376451015e-02" rms="2.0735903084278107e-01" purity="9.4311451911926270e-01" nType="-99"/>
          </Node>
        </Node>
      </Node>
    </BinaryTree>
    <BinaryTree type="DecisionTree" boostWeight="1.0000000000000000e+00" itree="190">
      <Node pos="s" depth="0" NCoef="0" IVar="10" Cut="-1.3344286382198334e-01" cType="1" res="1.7749788821674883e-04" rms="2.8835734724998474e-01" purity="5.0170695781707764e-01" nType="0">
        <Node pos="l" depth="1" NCoef="0" IVar="0" Cut="1.3165803222656250e+03" cType="1" res="-4.1929595172405243e-03" rms="2.8520774841308594e-01" purity="4.9282175302505493e-01" nType="0">
          <Node pos="l" depth="2" NCoef="0" IVar="3" Cut="1.9524684143066406e+02" cType="1" res="-1.1626279912889004e-02" rms="2.7411535382270813e-01" purity="1.3091206550598145e-01" nType="0">
            <Node pos="l" depth="3" NCoef="0" IVar="-1" Cut="0.0000000000000000e+00" cType="1" res="-4.4268872588872910e-03" rms="2.6053425669670105e-01" purity="1.2035253643989563e-01" nType="-99"/>
            <Node pos="r" depth="3" NCoef="0" IVar="-1" Cut="0.0000000000000000e+00" cType="1" res="-3.6869022995233536e-02" rms="3.1012842059135437e-01" purity="1.6280744969844818e-01" nType="-99"/>
          </Node>
          <Node pos="r" depth="2" NCoef="0" IVar="8" Cut="-3.9907449483871460e-01" cType="1" res="2.2966298274695873e-04" rms="2.9151737689971924e-01" purity="7.0814812183380127e-01" nType="0">
            <Node pos="l" depth="3" NCoef="0" IVar="-1" Cut="0.0000000000000000e+00" cType="1" res="-8.8888006284832954e-03" rms="2.9932540655136108e-01" purity="6.4182144403457642e-01" nType="-99"/>
            <Node pos="r" depth="3" NCoef="0" IVar="-1" Cut="0.0000000000000000e+00" cType="1" res="5.9593757614493370e-03" rms="2.8709918260574341e-01" purity="7.4397820234298706e-01" nType="-99"/>
          </Node>
        </Node>
        <Node pos="r" depth="1" NCoef="0" IVar="11" Cut="-1.3429135084152222e+00" cType="1" res="3.8917891215533018e-03" rms="2.9095566272735596e-01" purity="5.0925815105438232e-01" nType="0">
          <Node pos="l" depth="2" NCoef="0" IVar="10" Cut="1.9617154598236084e+00" cType="1" res="-4.7100961091928184e-04" rms="2.9766803979873657e-01" purity="2.8112298250198364e-01" nType="0">
            <Node pos="l" depth="3" NCoef="0" IVar="-1" Cut="0.0000000000000000e+00" cType="1" res="-3.1892792321741581e-03" rms="3.0012232065200806e-01" purity="2.9937970638275146e-01" nType="-99"/>
            <Node pos="r" depth="3" NCoef="0" IVar="-1" Cut="0.0000000000000000e+00" cType="1" res="2.3589143529534340e-02" rms="2.7972254157066345e-01" purity="1.5630304813385010e-01" nType="-99"/>
          </Node>
          <Node pos="r" depth="2" NCoef="0" IVar="2" Cut="3.1289569091796875e+02" cType="1" res="8.7907090783119202e-03" rms="2.8314876556396484e-01" purity="7.6542770862579346e-01" nType="0">
            <Node pos="l" depth="3" NCoef="0" IVar="-1" Cut="0.0000000000000000e+00" cType="1" res="2.3808388039469719e-02" rms="2.9241889715194702e-01" purity="7.2163575887680054e-01" nType="-99"/>
            <Node pos="r" depth="3" NCoef="0" IVar="-1" Cut="0.0000000000000000e+00" cType="1" res="1.6018674941733479e-03" rms="2.7757021784782410e-01" purity="7.8979313373565674e-01" nType="-99"/>
          </Node>
        </Node>
      </Node>
    </BinaryTree>
    <BinaryTree type="DecisionTree" boostWeight="1.0000000000000000e+00" itree="191">
      <Node pos="s" depth="0" NCoef="0" IVar="0" Cut="1.3945023193359375e+03" cType="1" res="9.0640457347035408e-04" rms="2.9296591877937317e-01" purity="5.0114190578460693e-01" nType="0">
        <Node pos="l" depth="1" NCoef="0" IVar="0" Cut="1.2529528808593750e+03" cType="1" res="5.5237184278666973e-03" rms="2.9300957918167114e-01" purity="1.9352743029594421e-01" nType="0">
          <Node pos="l" depth="2" NCoef="0" IVar="7" Cut="-1.1482616513967514e-01" cType="1" res="-3.6477606045082211e-05" rms="2.6550984382629395e-01" purity="1.1568063497543335e-01" nType="0">
            <Node pos="l" depth="3" NCoef="0" IVar="-1" Cut="0.0000000000000000e+00" cType="1" res="-1.0903632268309593e-02" rms="2.5242197513580322e-01" purity="1.0103850066661835e-01" nType="-99"/>
            <Node pos="r" depth="3" NCoef="0" IVar="-1" Cut="0.0000000000000000e+00" cType="1" res="8.5831843316555023e-03" rms="2.7626302838325500e-01" purity="1.2844519317150116e-01" nType="-99"/>
          </Node>
          <Node pos="r" depth="2" NCoef="0" IVar="8" Cut="-1.2908461689949036e-01" cType="1" res="1.9354281947016716e-02" rms="3.5183954238891602e-01" purity="3.8716533780097961e-01" nType="0">
            <Node pos="l" depth="3" NCoef="0" IVar="-1" Cut="0.0000000000000000e+00" cType="1" res="2.2960922215133905e-03" rms="3.5267788171768188e-01" purity="3.5774391889572144e-01" nType="-99"/>
            <Node pos="r" depth="3" NCoef="0" IVar="-1" Cut="0.0000000000000000e+00" cType="1" res="2.5760710239410400e-02" rms="3.5060074925422668e-01" purity="4.1080448031425476e-01" nType="-99"/>
          </Node>
        </Node>
        <Node pos="r" depth="1" NCoef="0" IVar="8" Cut="1.3305342197418213e-01" cType="1" res="-2.6559683028608561e-03" rms="2.9288247227668762e-01" purity="7.3847419023513794e-01" nType="0">
          <Node pos="l" depth="2" NCoef="0" IVar="5" Cut="6.7767211914062500e+01" cType="1" res="3.6193933337926865e-03" rms="2.8577542304992676e-01" purity="7.6183998584747314e-01" nType="0">
            <Node pos="l" depth="3" NCoef="0" IVar="-1" Cut="0.0000000000000000e+00" cType="1" res="1.4427891001105309e-02" rms="3.6289438605308533e-01" purity="4.4843545556068420e-01" nType="-99"/>
            <Node pos="r" depth="3" NCoef="0" IVar="-1" Cut="0.0000000000000000e+00" cType="1" res="3.6937906406819820e-04" rms="2.6641660928726196e-01" purity="8.2841086387634277e-01" nType="-99"/>
          </Node>
          <Node pos="r" depth="2" NCoef="0" IVar="8" Cut="8.9484661817550659e-01" cType="1" res="-1.1233680881559849e-02" rms="3.0211606621742249e-01" purity="7.0653569698333740e-01" nType="0">
            <Node pos="l" depth="3" NCoef="0" IVar="-1" Cut="0.0000000000000000e+00" cType="1" res="-2.4331742897629738e-02" rms="2.8981399536132812e-01" purity="7.8599488735198975e-01" nType="-99"/>
            <Node pos="r" depth="3" NCoef="0" IVar="-1" Cut="0.0000000000000000e+00" cType="1" res="5.2145398221910000e-03" rms="3.2552295923233032e-01" purity="5.4180866479873657e-01" nType="-99"/>
          </Node>
        </Node>
      </Node>
    </BinaryTree>
    <BinaryTree type="DecisionTree" boostWeight="1.0000000000000000e+00" itree="192">
      <Node pos="s" depth="0" NCoef="0" IVar="7" Cut="-1.1308187246322632e+00" cType="1" res="6.5740692662075162e-04" rms="2.8973552584648132e-01" purity="5.0983625650405884e-01" nType="0">
        <Node pos="l" depth="1" NCoef="0" IVar="8" Cut="-3.9923551678657532e-01" cType="1" res="-1.2759512290358543e-02" rms="2.2944197058677673e-01" purity="1.7006097733974457e-01" nType="0">
          <Node pos="l" depth="2" NCoef="0" IVar="-1" Cut="0.0000000000000000e+00" cType="1" res="-4.9180287867784500e-02" rms="2.0662339031696320e-01" purity="1.2447168678045273e-01" nType="-99"/>
          <Node pos="r" depth="2" NCoef="0" IVar="5" Cut="6.3995864868164062e+01" cType="1" res="-2.7238277252763510e-03" rms="2.4316953122615814e-01" purity="2.0092877745628357e-01" nType="0">
            <Node pos="l" depth="3" NCoef="0" IVar="-1" Cut="0.0000000000000000e+00" cType="1" res="5.5183842778205872e-02" rms="2.0022350549697876e-01" purity="5.3180366754531860e-02" nType="-99"/>
            <Node pos="r" depth="3" NCoef="0" IVar="-1" Cut="0.0000000000000000e+00" cType="1" res="-1.6714746132493019e-02" rms="2.6791211962699890e-01" purity="3.0193588137626648e-01" nType="-99"/>
          </Node>
        </Node>
        <Node pos="r" depth="1" NCoef="0" IVar="9" Cut="-6.6672891378402710e-01" cType="1" res="2.2748201154172421e-03" rms="2.9613500833511353e-01" purity="5.5079627037048340e-01" nType="0">
          <Node pos="l" depth="2" NCoef="0" IVar="8" Cut="-3.9683833718299866e-01" cType="1" res="1.0137187317013741e-02" rms="3.1011950969696045e-01" purity="4.7143620252609253e-01" nType="0">
            <Node pos="l" depth="3" NCoef="0" IVar="-1" Cut="0.0000000000000000e+00" cType="1" res="2.4418812245130539e-02" rms="3.2086023688316345e-01" purity="4.3315175175666809e-01" nType="-99"/>
            <Node pos="r" depth="3" NCoef="0" IVar="-1" Cut="0.0000000000000000e+00" cType="1" res="2.0446332637220621e-03" rms="3.0248165130615234e-01" purity="4.9691587686538696e-01" nType="-99"/>
          </Node>
          <Node pos="r" depth="2" NCoef="0" IVar="10" Cut="-1.4662481546401978e+00" cType="1" res="-4.5153044629842043e-04" rms="2.9107934236526489e-01" purity="5.7831513881683350e-01" nType="0">
            <Node pos="l" depth="3" NCoef="0" IVar="-1" Cut="0.0000000000000000e+00" cType="1" res="1.5986155718564987e-02" rms="3.1084415316581726e-01" purity="4.4847536087036133e-01" nType="-99"/>
            <Node pos="r" depth="3" NCoef="0" IVar="-1" Cut="0.0000000000000000e+00" cType="1" res="-2.5414670817553997e-03" rms="2.8870248794555664e-01" purity="5.9302103519439697e-01" nType="-99"/>
          </Node>
        </Node>
      </Node>
    </BinaryTree>
    <BinaryTree type="DecisionTree" boostWeight="1.0000000000000000e+00" itree="193">
      <Node pos="s" depth="0" NCoef="0" IVar="9" Cut="1.4665665626525879e+00" cType="1" res="-1.6335241962224245e-03" rms="2.8990870714187622e-01" purity="5.0153124332427979e-01" nType="0">
        <Node pos="l" depth="1" NCoef="0" IVar="3" Cut="4.1263986206054688e+02" cType="1" res="-3.0669462867081165e-03" rms="2.9082411527633667e-01" purity="5.2711337804794312e-01" nType="0">
          <Node pos="l" depth="2" NCoef="0" IVar="5" Cut="6.2841274261474609e+01" cType="1" res="-4.3222014792263508e-03" rms="2.9165214300155640e-01" purity="5.0609135627746582e-01" nType="0">
            <Node pos="l" depth="3" NCoef="0" IVar="-1" Cut="0.0000000000000000e+00" cType="1" res="-1.5337209217250347e-02" rms="2.6901358366012573e-01" purity="1.4291116595268250e-01" nType="-99"/>
            <Node pos="r" depth="3" NCoef="0" IVar="-1" Cut="0.0000000000000000e+00" cType="1" res="-1.5777159715071321e-03" rms="2.9995414614677429e-01" purity="6.4747428894042969e-01" nType="-99"/>
          </Node>
          <Node pos="r" depth="2" NCoef="0" IVar="7" Cut="5.9522334486246109e-03" cType="1" res="1.3067449443042278e-02" rms="2.7946132421493530e-01" purity="7.9732012748718262e-01" nType="0">
            <Node pos="l" depth="3" NCoef="0" IVar="-1" Cut="0.0000000000000000e+00" cType="1" res="-3.6549542564898729e-03" rms="2.8256896138191223e-01" purity="7.8023266792297363e-01" nType="-99"/>
            <Node pos="r" depth="3" NCoef="0" IVar="-1" Cut="0.0000000000000000e+00" cType="1" res="3.2846398651599884e-02" rms="2.7569577097892761e-01" purity="8.1323784589767456e-01" nType="-99"/>
          </Node>
        </Node>
        <Node pos="r" depth="1" NCoef="0" IVar="9" Cut="2.1014289855957031e+00" cType="1" res="1.2870009988546371e-02" rms="2.8006640076637268e-01" purity="2.4268807470798492e-01" nType="0">
          <Node pos="l" depth="2" NCoef="0" IVar="7" Cut="-6.3604675233364105e-02" cType="1" res="2.3180224001407623e-02" rms="3.0153355002403259e-01" purity="3.1230208277702332e-01" nType="0">
            <Node pos="l" depth="3" NCoef="0" IVar="-1" Cut="0.0000000000000000e+00" cType="1" res="4.9324221909046173e-03" rms="2.7083215117454529e-01" purity="2.6314136385917664e-01" nType="-99"/>
            <Node pos="r" depth="3" NCoef="0" IVar="-1" Cut="0.0000000000000000e+00" cType="1" res="4.1499309241771698e-02" rms="3.2106399536132812e-01" purity="3.4761074185371399e-01" nType="-99"/>
          </Node>
          <Node pos="r" depth="2" NCoef="0" IVar="-1" Cut="0.0000000000000000e+00" cType="1" res="-1.7292492091655731e-02" rms="2.2560700774192810e-01" purity="9.3149311840534210e-02" nType="-99"/>
        </Node>
      </Node>
    </BinaryTree>
    <BinaryTree type="DecisionTree" boostWeight="1.0000000000000000e+00" itree="194">
      <Node pos="s" depth="0" NCoef="0" IVar="9" Cut="1.3321645557880402e-01" cType="1" res="3.4168138517998159e-04" rms="2.8989949822425842e-01" purity="5.0223952531814575e-01" nType="0">
        <Node pos="l" depth="1" NCoef="0" IVar="7" Cut="6.9155937433242798e-01" cType="1" res="-3.0171922408044338e-03" rms="2.8427013754844666e-01" purity="5.1026219129562378e-01" nType="0">
          <Node pos="l" depth="2" NCoef="0" IVar="1" Cut="1.4842070639133453e-01" cType="1" res="-5.7655638083815575e-03" rms="2.8530925512313843e-01" purity="5.5836302042007446e-01" nType="0">
            <Node pos="l" depth="3" NCoef="0" IVar="-1" Cut="0.0000000000000000e+00" cType="1" res="-1.0396416299045086e-02" rms="2.9363587498664856e-01" purity="4.8318725824356079e-01" nType="-99"/>
            <Node pos="r" depth="3" NCoef="0" IVar="-1" Cut="0.0000000000000000e+00" cType="1" res="1.8835034221410751e-02" rms="2.4296072125434875e-01" purity="9.0148240327835083e-01" nType="-99"/>
          </Node>
          <Node pos="r" depth="2" NCoef="0" IVar="8" Cut="6.6675919294357300e-01" cType="1" res="8.2933949306607246e-03" rms="2.7966898679733276e-01" purity="3.1230905652046204e-01" nType="0">
            <Node pos="l" depth="3" NCoef="0" IVar="-1" Cut="0.0000000000000000e+00" cType="1" res="-1.3012628769502044e-03" rms="2.7742120623588562e-01" purity="3.3037516474723816e-01" nType="-99"/>
            <Node pos="r" depth="3" NCoef="0" IVar="-1" Cut="0.0000000000000000e+00" cType="1" res="4.9590338021516800e-02" rms="2.8417149186134338e-01" purity="2.6305383443832397e-01" nType="-99"/>
          </Node>
        </Node>
        <Node pos="r" depth="1" NCoef="0" IVar="1" Cut="1.0564146935939789e-01" cType="1" res="4.4920230284333229e-03" rms="2.9665529727935791e-01" purity="4.9232646822929382e-01" nType="0">
          <Node pos="l" depth="2" NCoef="0" IVar="5" Cut="1.1285502624511719e+02" cType="1" res="7.4034356512129307e-03" rms="3.0557256937026978e-01" purity="3.7039458751678467e-01" nType="0">
            <Node pos="l" depth="3" NCoef="0" IVar="-1" Cut="0.0000000000000000e+00" cType="1" res="1.1412419378757477e-02" rms="3.0724215507507324e-01" purity="2.8443279862403870e-01" nType="-99"/>
            <Node pos="r" depth="3" NCoef="0" IVar="-1" Cut="0.0000000000000000e+00" cType="1" res="-1.1186867021024227e-02" rms="2.9614663124084473e-01" purity="8.1734818220138550e-01" nType="-99"/>
          </Node>
          <Node pos="r" depth="2" NCoef="0" IVar="-1" Cut="0.0000000000000000e+00" cType="1" res="-4.6904222108423710e-03" rms="2.7031108736991882e-01" purity="8.2945400476455688e-01" nType="-99"/>
        </Node>
      </Node>
    </BinaryTree>
    <BinaryTree type="DecisionTree" boostWeight="1.0000000000000000e+00" itree="195">
      <Node pos="s" depth="0" NCoef="0" IVar="0" Cut="1.6613057861328125e+03" cType="1" res="-2.4933859822340310e-04" rms="2.8958460688591003e-01" purity="5.0278621912002563e-01" nType="0">
        <Node pos="l" depth="1" NCoef="0" IVar="4" Cut="1.4329289245605469e+02" cType="1" res="-3.2601805869489908e-03" rms="3.0510509014129639e-01" purity="3.0808874964714050e-01" nType="0">
          <Node pos="l" depth="2" NCoef="0" IVar="3" Cut="2.1524603271484375e+02" cType="1" res="2.7340361848473549e-03" rms="2.8055086731910706e-01" purity="1.9544990360736847e-01" nType="0">
            <Node pos="l" depth="3" NCoef="0" IVar="-1" Cut="0.0000000000000000e+00" cType="1" res="9.5962705090641975e-03" rms="2.7499097585678101e-01" purity="1.8509249389171600e-01" nType="-99"/>
            <Node pos="r" depth="3" NCoef="0" IVar="-1" Cut="0.0000000000000000e+00" cType="1" res="-1.6952011734247208e-02" rms="3.0325651168823242e-01" purity="2.4138452112674713e-01" nType="-99"/>
          </Node>
          <Node pos="r" depth="2" NCoef="0" IVar="7" Cut="7.1251147985458374e-01" cType="1" res="-1.3204822316765785e-02" rms="3.4174275398254395e-01" purity="4.9496102333068848e-01" nType="0">
            <Node pos="l" depth="3" NCoef="0" IVar="-1" Cut="0.0000000000000000e+00" cType="1" res="-1.5451977029442787e-02" rms="3.4588670730590820e-01" purity="5.4123431444168091e-01" nType="-99"/>
            <Node pos="r" depth="3" NCoef="0" IVar="-1" Cut="0.0000000000000000e+00" cType="1" res="6.7072710953652859e-03" rms="3.2619941234588623e-01" purity="3.3533966541290283e-01" nType="-99"/>
          </Node>
        </Node>
        <Node pos="r" depth="1" NCoef="0" IVar="10" Cut="-1.4665837287902832e+00" cType="1" res="4.9778032116591930e-03" rms="2.6036924123764038e-01" purity="8.4080171585083008e-01" nType="0">
          <Node pos="l" depth="2" NCoef="0" IVar="-1" Cut="0.0000000000000000e+00" cType="1" res="-1.8580202013254166e-02" rms="3.0938217043876648e-01" purity="7.2189760208129883e-01" nType="-99"/>
          <Node pos="r" depth="2" NCoef="0" IVar="1" Cut="2.1222930401563644e-02" cType="1" res="6.8604475818574429e-03" rms="2.5564154982566833e-01" purity="8.5099804401397705e-01" nType="0">
            <Node pos="l" depth="3" NCoef="0" IVar="-1" Cut="0.0000000000000000e+00" cType="1" res="1.9541187211871147e-02" rms="3.5393434762954712e-01" purity="4.3528339266777039e-01" nType="-99"/>
            <Node pos="r" depth="3" NCoef="0" IVar="-1" Cut="0.0000000000000000e+00" cType="1" res="7.3550869710743427e-03" rms="2.4002760648727417e-01" purity="9.0436494350433350e-01" nType="-99"/>
          </Node>
        </Node>
      </Node>
    </BinaryTree>
    <BinaryTree type="DecisionTree" boostWeight="1.0000000000000000e+00" itree="196">
      <Node pos="s" depth="0" NCoef="0" IVar="7" Cut="4.0712228417396545e-01" cType="1" res="-9.4871496548876166e-04" rms="2.9291883111000061e-01" purity="5.0050973892211914e-01" nType="0">
        <Node pos="l" depth="1" NCoef="0" IVar="8" Cut="-4.0050104260444641e-01" cType="1" res="2.6502686087042093e-03" rms="2.9558539390563965e-01" purity="5.4779118299484253e-01" nType="0">
          <Node pos="l" depth="2" NCoef="0" IVar="7" Cut="1.0835521668195724e-01" cType="1" res="9.4524994492530823e-03" rms="2.9578813910484314e-01" purity="5.0238549709320068e-01" nType="0">
            <Node pos="l" depth="3" NCoef="0" IVar="-1" Cut="0.0000000000000000e+00" cType="1" res="1.5863437205553055e-02" rms="2.9399579763412476e-01" purity="4.8445945978164673e-01" nType="-99"/>
            <Node pos="r" depth="3" NCoef="0" IVar="-1" Cut="0.0000000000000000e+00" cType="1" res="-1.1165426112711430e-02" rms="3.0345794558525085e-01" purity="5.8872520923614502e-01" nType="-99"/>
          </Node>
          <Node pos="r" depth="2" NCoef="0" IVar="7" Cut="-4.8569984734058380e-02" cType="1" res="-9.7116624237969518e-04" rms="2.9541352391242981e-01" purity="5.7196474075317383e-01" nType="0">
            <Node pos="l" depth="3" NCoef="0" IVar="-1" Cut="0.0000000000000000e+00" cType="1" res="-5.9019369073212147e-03" rms="2.8997135162353516e-01" purity="5.1611614227294922e-01" nType="-99"/>
            <Node pos="r" depth="3" NCoef="0" IVar="-1" Cut="0.0000000000000000e+00" cType="1" res="8.0552864819765091e-03" rms="3.0647885799407959e-01" purity="6.9051909446716309e-01" nType="-99"/>
          </Node>
        </Node>
        <Node pos="r" depth="1" NCoef="0" IVar="11" Cut="-7.9094833135604858e-01" cType="1" res="-8.5594709962606430e-03" rms="2.8704977035522461e-01" purity="4.0052384138107300e-01" nType="0">
          <Node pos="l" depth="2" NCoef="0" IVar="8" Cut="-6.6600912809371948e-01" cType="1" res="-2.2361222654581070e-03" rms="2.7585074305534363e-01" purity="2.4489592015743256e-01" nType="0">
            <Node pos="l" depth="3" NCoef="0" IVar="-1" Cut="0.0000000000000000e+00" cType="1" res="2.4261819198727608e-02" rms="2.5360584259033203e-01" purity="1.5288780629634857e-01" nType="-99"/>
            <Node pos="r" depth="3" NCoef="0" IVar="-1" Cut="0.0000000000000000e+00" cType="1" res="-8.9540285989642143e-03" rms="2.8340056538581848e-01" purity="2.7883425354957581e-01" nType="-99"/>
          </Node>
          <Node pos="r" depth="2" NCoef="0" IVar="6" Cut="7.3893302917480469e+01" cType="1" res="-1.9137660041451454e-02" rms="3.0457264184951782e-01" purity="6.6087031364440918e-01" nType="0">
            <Node pos="l" depth="3" NCoef="0" IVar="-1" Cut="0.0000000000000000e+00" cType="1" res="-2.8559168800711632e-02" rms="3.4402975440025330e-01" purity="4.5357611775398254e-01" nType="-99"/>
            <Node pos="r" depth="3" NCoef="0" IVar="-1" Cut="0.0000000000000000e+00" cType="1" res="-9.5480792224407196e-03" rms="2.6063427329063416e-01" purity="8.5939794778823853e-01" nType="-99"/>
          </Node>
        </Node>
      </Node>
    </BinaryTree>
    <BinaryTree type="DecisionTree" boostWeight="1.0000000000000000e+00" itree="197">
      <Node pos="s" depth="0" NCoef="0" IVar="6" Cut="6.6376380920410156e+01" cType="1" res="-3.3814075868576765e-03" rms="2.9109710454940796e-01" purity="4.9396228790283203e-01" nType="0">
        <Node pos="l" depth="1" NCoef="0" IVar="7" Cut="-1.2451319396495819e-01" cType="1" res="-6.2668775208294392e-03" rms="3.0906617641448975e-01" purity="3.0529806017875671e-01" nType="0">
          <Node pos="l" depth="2" NCoef="0" IVar="3" Cut="2.8715554809570312e+02" cType="1" res="1.6963169910013676e-03" rms="3.0569249391555786e-01" purity="3.0240267515182495e-01" nType="0">
            <Node pos="l" depth="3" NCoef="0" IVar="-1" Cut="0.0000000000000000e+00" cType="1" res="6.2580443918704987e-03" rms="2.9633826017379761e-01" purity="2.4606721103191376e-01" nType="-99"/>
            <Node pos="r" depth="3" NCoef="0" IVar="-1" Cut="0.0000000000000000e+00" cType="1" res="-1.2149425223469734e-02" rms="3.4053498506546021e-01" purity="5.3070491552352905e-01" nType="-99"/>
          </Node>
          <Node pos="r" depth="2" NCoef="0" IVar="11" Cut="-1.8953495025634766e+00" cType="1" res="-1.2951858341693878e-02" rms="3.1171312928199768e-01" purity="3.0772867798805237e-01" nType="0">
            <Node pos="l" depth="3" NCoef="0" IVar="-1" Cut="0.0000000000000000e+00" cType="1" res="-7.1159685030579567e-03" rms="3.0028077960014343e-01" purity="2.3498241603374481e-01" nType="-99"/>
            <Node pos="r" depth="3" NCoef="0" IVar="-1" Cut="0.0000000000000000e+00" cType="1" res="-2.7191298082470894e-02" rms="3.4263578057289124e-01" purity="5.2291363477706909e-01" nType="-99"/>
          </Node>
        </Node>
        <Node pos="r" depth="1" NCoef="0" IVar="5" Cut="8.3202323913574219e+01" cType="1" res="2.2541764192283154e-03" rms="2.5224316120147705e-01" purity="8.6244070529937744e-01" nType="0">
          <Node pos="l" depth="2" NCoef="0" IVar="-1" Cut="0.0000000000000000e+00" cType="1" res="3.7912908941507339e-02" rms="3.2940697669982910e-01" purity="6.7516124248504639e-01" nType="-99"/>
          <Node pos="r" depth="2" NCoef="0" IVar="0" Cut="1.5418132324218750e+03" cType="1" res="-2.9764957726001740e-03" rms="2.4085420370101929e-01" purity="8.8480371236801147e-01" nType="0">
            <Node pos="l" depth="3" NCoef="0" IVar="-1" Cut="0.0000000000000000e+00" cType="1" res="-1.5329272486269474e-02" rms="3.4760195016860962e-01" purity="7.0253390073776245e-01" nType="-99"/>
            <Node pos="r" depth="3" NCoef="0" IVar="-1" Cut="0.0000000000000000e+00" cType="1" res="1.2585804797708988e-03" rms="2.0767427980899811e-01" purity="9.2779427766799927e-01" nType="-99"/>
          </Node>
        </Node>
      </Node>
    </BinaryTree>
    <BinaryTree type="DecisionTree" boostWeight="1.0000000000000000e+00" itree="198">
      <Node pos="s" depth="0" NCoef="0" IVar="8" Cut="-3.9985984563827515e-01" cType="1" res="-2.0690605742856860e-04" rms="2.9016917943954468e-01" purity="5.0092554092407227e-01" nType="0">
        <Node pos="l" depth="1" NCoef="0" IVar="0" Cut="1.5593432617187500e+03" cType="1" res="-7.1716508828103542e-03" rms="2.8359651565551758e-01" purity="4.2721468210220337e-01" nType="0">
          <Node pos="l" depth="2" NCoef="0" IVar="1" Cut="7.6651103794574738e-02" cType="1" res="-1.3105533085763454e-02" rms="2.8630378842353821e-01" purity="2.0255032181739807e-01" nType="0">
            <Node pos="l" depth="3" NCoef="0" IVar="-1" Cut="0.0000000000000000e+00" cType="1" res="-7.8265545889735222e-03" rms="2.5178897380828857e-01" purity="1.1652245372533798e-01" nType="-99"/>
            <Node pos="r" depth="3" NCoef="0" IVar="-1" Cut="0.0000000000000000e+00" cType="1" res="-2.8334578499197960e-02" rms="3.8383883237838745e-01" purity="5.0997072458267212e-01" nType="-99"/>
          </Node>
          <Node pos="r" depth="2" NCoef="0" IVar="7" Cut="-5.7206320762634277e-01" cType="1" res="1.8212536815553904e-03" rms="2.7920329570770264e-01" purity="7.6769757270812988e-01" nType="0">
            <Node pos="l" depth="3" NCoef="0" IVar="-1" Cut="0.0000000000000000e+00" cType="1" res="2.8943335637450218e-02" rms="2.8933030366897583e-01" purity="7.3849403858184814e-01" nType="-99"/>
            <Node pos="r" depth="3" NCoef="0" IVar="-1" Cut="0.0000000000000000e+00" cType="1" res="-7.5731440447270870e-03" rms="2.7532336115837097e-01" purity="7.7728438377380371e-01" nType="-99"/>
          </Node>
        </Node>
        <Node pos="r" depth="1" NCoef="0" IVar="10" Cut="-9.3302559852600098e-01" cType="1" res="3.3297862391918898e-03" rms="2.9338714480400085e-01" purity="5.3835582733154297e-01" nType="0">
          <Node pos="l" depth="2" NCoef="0" IVar="5" Cut="9.1341278076171875e+01" cType="1" res="1.3639455661177635e-02" rms="2.9730206727981567e-01" purity="4.5528417825698853e-01" nType="0">
            <Node pos="l" depth="3" NCoef="0" IVar="-1" Cut="0.0000000000000000e+00" cType="1" res="2.4391792714595795e-02" rms="3.1014373898506165e-01" purity="3.0362713336944580e-01" nType="-99"/>
            <Node pos="r" depth="3" NCoef="0" IVar="-1" Cut="0.0000000000000000e+00" cType="1" res="-8.2930075004696846e-03" rms="2.6642188429832458e-01" purity="7.8237205743789673e-01" nType="-99"/>
          </Node>
          <Node pos="r" depth="2" NCoef="0" IVar="1" Cut="4.2408213019371033e-02" cType="1" res="6.5291236387565732e-04" rms="2.9230260848999023e-01" purity="5.5992507934570312e-01" nType="0">
            <Node pos="l" depth="3" NCoef="0" IVar="-1" Cut="0.0000000000000000e+00" cType="1" res="7.4925585649907589e-03" rms="2.8474208712577820e-01" purity="2.6346975564956665e-01" nType="-99"/>
            <Node pos="r" depth="3" NCoef="0" IVar="-1" Cut="0.0000000000000000e+00" cType="1" res="-3.3358810469508171e-03" rms="2.9676073789596558e-01" purity="7.4063646793365479e-01" nType="-99"/>
          </Node>
        </Node>
      </Node>
    </BinaryTree>
    <BinaryTree type="DecisionTree" boostWeight="1.0000000000000000e+00" itree="199">
      <Node pos="s" depth="0" NCoef="0" IVar="10" Cut="-1.7333739995956421e+00" cType="1" res="2.9023967217653990e-03" rms="2.8981521725654602e-01" purity="5.0279271602630615e-01" nType="0">
        <Node pos="l" depth="1" NCoef="0" IVar="11" Cut="-1.8970675468444824e+00" cType="1" res="-1.5444599092006683e-02" rms="2.8659778833389282e-01" purity="2.6421633362770081e-01" nType="0">
          <Node pos="l" depth="2" NCoef="0" IVar="-1" Cut="0.0000000000000000e+00" cType="1" res="-7.2214903775602579e-04" rms="2.6534056663513184e-01" purity="1.1893412470817566e-01" nType="-99"/>
          <Node pos="r" depth="2" NCoef="0" IVar="-1" Cut="0.0000000000000000e+00" cType="1" res="-3.9691396057605743e-02" rms="3.1957295536994934e-01" purity="5.2574741840362549e-01" nType="-99"/>
        </Node>
        <Node pos="r" depth="1" NCoef="0" IVar="10" Cut="2.1521790027618408e+00" cType="1" res="4.4120284728705883e-03" rms="2.9002666473388672e-01" purity="5.2242332696914673e-01" nType="0">
          <Node pos="l" depth="2" NCoef="0" IVar="10" Cut="1.5971022844314575e+00" cType="1" res="5.2687753923237324e-03" rms="2.9115572571754456e-01" purity="5.3519874811172485e-01" nType="0">
            <Node pos="l" depth="3" NCoef="0" IVar="-1" Cut="0.0000000000000000e+00" cType="1" res="4.6069165691733360e-03" rms="2.9073685407638550e-01" purity="5.4560220241546631e-01" nType="-99"/>
            <Node pos="r" depth="3" NCoef="0" IVar="-1" Cut="0.0000000000000000e+00" cType="1" res="2.5449026376008987e-02" rms="2.9643166065216064e-01" purity="3.8813942670822144e-01" nType="-99"/>
          </Node>
          <Node pos="r" depth="2" NCoef="0" IVar="-1" Cut="0.0000000000000000e+00" cType="1" res="-2.0920284092426300e-02" rms="2.5993001461029053e-01" purity="2.0911987125873566e-01" nType="-99"/>
        </Node>
      </Node>
    </BinaryTree>
    <BinaryTree type="DecisionTree" boostWeight="1.0000000000000000e+00" itree="200">
      <Node pos="s" depth="0" NCoef="0" IVar="2" Cut="6.8690216064453125e+02" cType="1" res="6.7256001057103276e-04" rms="2.9214057326316833e-01" purity="5.0197917222976685e-01" nType="0">
        <Node pos="l" depth="1" NCoef="0" IVar="10" Cut="1.1998466253280640e+00" cType="1" res="1.9740243442356586e-03" rms="2.9020214080810547e-01" purity="4.9946331977844238e-01" nType="0">
          <Node pos="l" depth="2" NCoef="0" IVar="4" Cut="2.6609970092773438e+02" cType="1" res="4.2277835309505463e-03" rms="2.9038712382316589e-01" purity="5.2904152870178223e-01" nType="0">
            <Node pos="l" depth="3" NCoef="0" IVar="-1" Cut="0.0000000000000000e+00" cType="1" res="6.3221184536814690e-03" rms="2.9464918375015259e-01" purity="4.9568620324134827e-01" nType="-99"/>
            <Node pos="r" depth="3" NCoef="0" IVar="-1" Cut="0.0000000000000000e+00" cType="1" res="-1.6331700608134270e-02" rms="2.4068777263164520e-01" purity="8.7933927774429321e-01" nType="-99"/>
          </Node>
          <Node pos="r" depth="2" NCoef="0" IVar="2" Cut="2.6957394409179688e+02" cType="1" res="-9.5868473872542381e-03" rms="2.8897517919540405e-01" purity="3.4773907065391541e-01" nType="0">
            <Node pos="l" depth="3" NCoef="0" IVar="-1" Cut="0.0000000000000000e+00" cType="1" res="-4.3280601501464844e-02" rms="2.6551800966262817e-01" purity="2.1227879822254181e-01" nType="-99"/>
            <Node pos="r" depth="3" NCoef="0" IVar="-1" Cut="0.0000000000000000e+00" cType="1" res="-9.0023863594979048e-04" rms="2.9684692621231079e-01" purity="3.9870339632034302e-01" nType="-99"/>
          </Node>
        </Node>
        <Node pos="r" depth="1" NCoef="0" IVar="-1" Cut="0.0000000000000000e+00" cType="1" res="-2.4198476225137711e-02" rms="3.2987433671951294e-01" purity="5.5611795186996460e-01" nType="-99"/>
      </Node>
    </BinaryTree>
    <BinaryTree type="DecisionTree" boostWeight="1.0000000000000000e+00" itree="201">
      <Node pos="s" depth="0" NCoef="0" IVar="11" Cut="-2.3824830353260040e-01" cType="1" res="-2.3892326280474663e-03" rms="2.8810071945190430e-01" purity="4.9297511577606201e-01" nType="0">
        <Node pos="l" depth="1" NCoef="0" IVar="4" Cut="9.8190589904785156e+01" cType="1" res="-6.1063678003847599e-03" rms="2.9031214118003845e-01" purity="3.7739720940589905e-01" nType="0">
          <Node pos="l" depth="2" NCoef="0" IVar="5" Cut="5.8794818878173828e+01" cType="1" res="5.9704515151679516e-03" rms="2.1202279627323151e-01" purity="6.2982566654682159e-02" nType="0">
            <Node pos="l" depth="3" NCoef="0" IVar="-1" Cut="0.0000000000000000e+00" cType="1" res="-4.2140567675232887e-03" rms="1.7100028693675995e-01" purity="3.7328828126192093e-02" nType="-99"/>
            <Node pos="r" depth="3" NCoef="0" IVar="-1" Cut="0.0000000000000000e+00" cType="1" res="2.9284771531820297e-02" rms="2.5797027349472046e-01" purity="9.8525702953338623e-02" nType="-99"/>
          </Node>
          <Node pos="r" depth="2" NCoef="0" IVar="5" Cut="8.5532272338867188e+01" cType="1" res="-9.4376662746071815e-03" rms="3.0834719538688660e-01" purity="4.6412611007690430e-01" nType="0">
            <Node pos="l" depth="3" NCoef="0" IVar="-1" Cut="0.0000000000000000e+00" cType="1" res="-1.4287269674241543e-02" rms="3.2075694203376770e-01" purity="2.6954886317253113e-01" nType="-99"/>
            <Node pos="r" depth="3" NCoef="0" IVar="-1" Cut="0.0000000000000000e+00" cType="1" res="-1.1217715218663216e-03" rms="2.8953030705451965e-01" purity="7.4149197340011597e-01" nType="-99"/>
          </Node>
        </Node>
        <Node pos="r" depth="1" NCoef="0" IVar="1" Cut="6.5707810223102570e-02" cType="1" res="5.9886914677917957e-03" rms="2.8287404775619507e-01" purity="7.5347220897674561e-01" nType="0">
          <Node pos="l" depth="2" NCoef="0" IVar="10" Cut="-6.6782242059707642e-01" cType="1" res="1.4903648756444454e-02" rms="3.3550876379013062e-01" purity="5.4009473323822021e-01" nType="0">
            <Node pos="l" depth="3" NCoef="0" IVar="-1" Cut="0.0000000000000000e+00" cType="1" res="3.5433638840913773e-02" rms="3.5232785344123840e-01" purity="5.0972968339920044e-01" nType="-99"/>
            <Node pos="r" depth="3" NCoef="0" IVar="-1" Cut="0.0000000000000000e+00" cType="1" res="4.8982826992869377e-03" rms="3.2865756750106812e-01" purity="5.5113571882247925e-01" nType="-99"/>
          </Node>
          <Node pos="r" depth="2" NCoef="0" IVar="7" Cut="-1.2760946154594421e-01" cType="1" res="1.1485609866213053e-04" rms="2.4183785915374756e-01" purity="8.9406108856201172e-01" nType="0">
            <Node pos="l" depth="3" NCoef="0" IVar="-1" Cut="0.0000000000000000e+00" cType="1" res="-1.5231546014547348e-02" rms="2.5119489431381226e-01" purity="8.8363963365554810e-01" nType="-99"/>
            <Node pos="r" depth="3" NCoef="0" IVar="-1" Cut="0.0000000000000000e+00" cType="1" res="9.6854921430349350e-03" rms="2.3567128181457520e-01" purity="9.0050661563873291e-01" nType="-99"/>
          </Node>
        </Node>
      </Node>
    </BinaryTree>
    <BinaryTree type="DecisionTree" boostWeight="1.0000000000000000e+00" itree="202">
      <Node pos="s" depth="0" NCoef="0" IVar="11" Cut="-1.0667325258255005e+00" cType="1" res="-1.3871332339476794e-04" rms="2.8757330775260925e-01" purity="4.9763625860214233e-01" nType="0">
        <Node pos="l" depth="1" NCoef="0" IVar="2" Cut="6.0743542480468750e+02" cType="1" res="-6.0646962374448776e-03" rms="2.9131692647933960e-01" purity="2.9399242997169495e-01" nType="0">
          <Node pos="l" depth="2" NCoef="0" IVar="1" Cut="2.0882539451122284e-02" cType="1" res="-4.7468882985413074e-03" rms="2.8889039158821106e-01" purity="2.8629085421562195e-01" nType="0">
            <Node pos="l" depth="3" NCoef="0" IVar="-1" Cut="0.0000000000000000e+00" cType="1" res="6.6256914287805557e-03" rms="2.0119446516036987e-01" purity="6.5579399466514587e-02" nType="-99"/>
            <Node pos="r" depth="3" NCoef="0" IVar="-1" Cut="0.0000000000000000e+00" cType="1" res="-7.5814300216734409e-03" rms="3.2264938950538635e-01" purity="3.9250618219375610e-01" nType="-99"/>
          </Node>
          <Node pos="r" depth="2" NCoef="0" IVar="-1" Cut="0.0000000000000000e+00" cType="1" res="-1.8526230007410049e-02" rms="3.1789258122444153e-01" purity="3.8396421074867249e-01" nType="-99"/>
        </Node>
        <Node pos="r" depth="1" NCoef="0" IVar="1" Cut="6.3574597239494324e-02" cType="1" res="7.7710649929940701e-03" rms="2.8230538964271545e-01" purity="7.6945239305496216e-01" nType="0">
          <Node pos="l" depth="2" NCoef="0" IVar="9" Cut="-9.3321996927261353e-01" cType="1" res="1.8430022522807121e-02" rms="3.3024752140045166e-01" purity="5.6331419944763184e-01" nType="0">
            <Node pos="l" depth="3" NCoef="0" IVar="-1" Cut="0.0000000000000000e+00" cType="1" res="3.7157673388719559e-02" rms="3.5056641697883606e-01" purity="4.5807376503944397e-01" nType="-99"/>
            <Node pos="r" depth="3" NCoef="0" IVar="-1" Cut="0.0000000000000000e+00" cType="1" res="1.0644800029695034e-02" rms="3.2464045286178589e-01" purity="5.8958309888839722e-01" nType="-99"/>
          </Node>
          <Node pos="r" depth="2" NCoef="0" IVar="11" Cut="7.7452188730239868e-01" cType="1" res="1.0505924001336098e-03" rms="2.4711044132709503e-01" purity="8.9942252635955811e-01" nType="0">
            <Node pos="l" depth="3" NCoef="0" IVar="-1" Cut="0.0000000000000000e+00" cType="1" res="-9.3611041083931923e-03" rms="2.3800280690193176e-01" purity="9.0721291303634644e-01" nType="-99"/>
            <Node pos="r" depth="3" NCoef="0" IVar="-1" Cut="0.0000000000000000e+00" cType="1" res="1.9634997472167015e-02" rms="2.6561787724494934e-01" purity="8.8220006227493286e-01" nType="-99"/>
          </Node>
        </Node>
      </Node>
    </BinaryTree>
    <BinaryTree type="DecisionTree" boostWeight="1.0000000000000000e+00" itree="203">
      <Node pos="s" depth="0" NCoef="0" IVar="7" Cut="1.7355016469955444e+00" cType="1" res="2.5718410033732653e-03" rms="2.9049947857856750e-01" purity="5.0294101238250732e-01" nType="0">
        <Node pos="l" depth="1" NCoef="0" IVar="10" Cut="-1.2000086307525635e+00" cType="1" res="3.2618704717606306e-03" rms="2.9452756047248840e-01" purity="5.1991409063339233e-01" nType="0">
          <Node pos="l" depth="2" NCoef="0" IVar="5" Cut="1.0179254150390625e+02" cType="1" res="9.7746802493929863e-03" rms="3.0037537217140198e-01" purity="3.9513298869132996e-01" nType="0">
            <Node pos="l" depth="3" NCoef="0" IVar="-1" Cut="0.0000000000000000e+00" cType="1" res="1.6572300344705582e-02" rms="3.0630433559417725e-01" purity="2.7830103039741516e-01" nType="-99"/>
            <Node pos="r" depth="3" NCoef="0" IVar="-1" Cut="0.0000000000000000e+00" cType="1" res="-9.6699856221675873e-03" rms="2.7834695577621460e-01" purity="7.9632890224456787e-01" nType="-99"/>
          </Node>
          <Node pos="r" depth="2" NCoef="0" IVar="3" Cut="2.3286648559570312e+02" cType="1" res="1.9300727872177958e-03" rms="2.9329958558082581e-01" purity="5.4543042182922363e-01" nType="0">
            <Node pos="l" depth="3" NCoef="0" IVar="-1" Cut="0.0000000000000000e+00" cType="1" res="-1.9452314591035247e-03" rms="2.9908397793769836e-01" purity="3.8944160938262939e-01" nType="-99"/>
            <Node pos="r" depth="3" NCoef="0" IVar="-1" Cut="0.0000000000000000e+00" cType="1" res="7.3029706254601479e-03" rms="2.8634998202323914e-01" purity="7.2725814580917358e-01" nType="-99"/>
          </Node>
        </Node>
        <Node pos="r" depth="1" NCoef="0" IVar="-1" Cut="0.0000000000000000e+00" cType="1" res="-4.9641266465187073e-02" rms="1.4575590193271637e-01" purity="5.0661277025938034e-02" nType="-99"/>
      </Node>
    </BinaryTree>
    <BinaryTree type="DecisionTree" boostWeight="1.0000000000000000e+00" itree="204">
      <Node pos="s" depth="0" NCoef="0" IVar="6" Cut="1.2934022903442383e+01" cType="1" res="8.0312130739912391e-04" rms="2.9118517041206360e-01" purity="4.9731865525245667e-01" nType="0">
        <Node pos="l" depth="1" NCoef="0" IVar="0" Cut="1.0661522216796875e+03" cType="1" res="5.1451362669467926e-03" rms="2.9693746566772461e-01" purity="2.2590783238410950e-01" nType="0">
          <Node pos="l" depth="2" NCoef="0" IVar="7" Cut="-3.3725789189338684e-01" cType="1" res="-8.8059790432453156e-03" rms="1.5436746180057526e-01" purity="2.5792289525270462e-02" nType="0">
            <Node pos="l" depth="3" NCoef="0" IVar="-1" Cut="0.0000000000000000e+00" cType="1" res="1.9552560523152351e-02" rms="1.6983793675899506e-01" purity="3.2828897237777710e-02" nType="-99"/>
            <Node pos="r" depth="3" NCoef="0" IVar="-1" Cut="0.0000000000000000e+00" cType="1" res="-5.2361384034156799e-02" rms="1.4181113243103027e-01" purity="2.0890353247523308e-02" nType="-99"/>
          </Node>
          <Node pos="r" depth="2" NCoef="0" IVar="9" Cut="1.4665665626525879e+00" cType="1" res="9.9038360640406609e-03" rms="3.3170759677886963e-01" purity="2.9416683316230774e-01" nType="0">
            <Node pos="l" depth="3" NCoef="0" IVar="-1" Cut="0.0000000000000000e+00" cType="1" res="1.1068476364016533e-02" rms="3.3880215883255005e-01" purity="3.1540253758430481e-01" nType="-99"/>
            <Node pos="r" depth="3" NCoef="0" IVar="-1" Cut="0.0000000000000000e+00" cType="1" res="-1.5334650874137878e-02" rms="2.6055812835693359e-01" purity="1.0829704999923706e-01" nType="-99"/>
          </Node>
        </Node>
        <Node pos="r" depth="1" NCoef="0" IVar="0" Cut="1.9910623779296875e+03" cType="1" res="-3.1189091969281435e-03" rms="2.8583309054374695e-01" purity="7.4247699975967407e-01" nType="0">
          <Node pos="l" depth="2" NCoef="0" IVar="2" Cut="5.1398217773437500e+02" cType="1" res="-7.5563085265457630e-03" rms="3.1581187248229980e-01" purity="6.5732783079147339e-01" nType="0">
            <Node pos="l" depth="3" NCoef="0" IVar="-1" Cut="0.0000000000000000e+00" cType="1" res="-4.7978120855987072e-03" rms="3.1302788853645325e-01" purity="6.7242306470870972e-01" nType="-99"/>
            <Node pos="r" depth="3" NCoef="0" IVar="-1" Cut="0.0000000000000000e+00" cType="1" res="-3.6506161093711853e-02" rms="3.4885731339454651e-01" purity="4.5496737957000732e-01" nType="-99"/>
          </Node>
          <Node pos="r" depth="2" NCoef="0" IVar="2" Cut="5.5057250976562500e+02" cType="1" res="7.4470089748501778e-03" rms="1.9645622372627258e-01" purity="9.4522637128829956e-01" nType="0">
            <Node pos="l" depth="3" NCoef="0" IVar="-1" Cut="0.0000000000000000e+00" cType="1" res="8.8534494861960411e-03" rms="1.4717407524585724e-01" purity="9.7325462102890015e-01" nType="-99"/>
            <Node pos="r" depth="3" NCoef="0" IVar="-1" Cut="0.0000000000000000e+00" cType="1" res="2.3443121463060379e-02" rms="2.6110184192657471e-01" purity="8.9604169130325317e-01" nType="-99"/>
          </Node>
        </Node>
      </Node>
    </BinaryTree>
    <BinaryTree type="DecisionTree" boostWeight="1.0000000000000000e+00" itree="205">
      <Node pos="s" depth="0" NCoef="0" IVar="10" Cut="1.7333902120590210e+00" cType="1" res="6.6384824458509684e-04" rms="2.9100507497787476e-01" purity="4.9773529171943665e-01" nType="0">
        <Node pos="l" depth="1" NCoef="0" IVar="10" Cut="1.5173678398132324e+00" cType="1" res="-5.8594229631125927e-04" rms="2.8980791568756104e-01" purity="5.1384812593460083e-01" nType="0">
          <Node pos="l" depth="2" NCoef="0" IVar="10" Cut="-1.9772552251815796e+00" cType="1" res="1.2627162504941225e-04" rms="2.8908666968345642e-01" purity="5.1827538013458252e-01" nType="0">
            <Node pos="l" depth="3" NCoef="0" IVar="-1" Cut="0.0000000000000000e+00" cType="1" res="-2.3830607533454895e-02" rms="2.7546927332878113e-01" purity="2.0840884745121002e-01" nType="-99"/>
            <Node pos="r" depth="3" NCoef="0" IVar="-1" Cut="0.0000000000000000e+00" cType="1" res="1.3464316725730896e-03" rms="2.8982463479042053e-01" purity="5.3628140687942505e-01" nType="-99"/>
          </Node>
          <Node pos="r" depth="2" NCoef="0" IVar="-1" Cut="0.0000000000000000e+00" cType="1" res="-2.3801714181900024e-02" rms="3.0952295660972595e-01" purity="3.8375607132911682e-01" nType="-99"/>
        </Node>
        <Node pos="r" depth="1" NCoef="0" IVar="7" Cut="2.1087478101253510e-01" cType="1" res="1.5758233144879341e-02" rms="3.0468833446502686e-01" purity="3.0313217639923096e-01" nType="0">
          <Node pos="l" depth="2" NCoef="0" IVar="-1" Cut="0.0000000000000000e+00" cType="1" res="8.3159212954342365e-04" rms="2.9918265342712402e-01" purity="3.0226671695709229e-01" nType="-99"/>
          <Node pos="r" depth="2" NCoef="0" IVar="-1" Cut="0.0000000000000000e+00" cType="1" res="3.7743080407381058e-02" rms="3.0959868431091309e-01" purity="3.0404415726661682e-01" nType="-99"/>
        </Node>
      </Node>
    </BinaryTree>
    <BinaryTree type="DecisionTree" boostWeight="1.0000000000000000e+00" itree="206">
      <Node pos="s" depth="0" NCoef="0" IVar="9" Cut="-9.3299692869186401e-01" cType="1" res="4.5008515007793903e-04" rms="2.9196360707283020e-01" purity="4.9942609667778015e-01" nType="0">
        <Node pos="l" depth="1" NCoef="0" IVar="11" Cut="-2.4092324078083038e-01" cType="1" res="-6.1635803431272507e-03" rms="2.8904324769973755e-01" purity="3.4514909982681274e-01" nType="0">
          <Node pos="l" depth="2" NCoef="0" IVar="8" Cut="-3.9931026101112366e-01" cType="1" res="-1.4018430374562740e-03" rms="2.8035882115364075e-01" purity="2.7045440673828125e-01" nType="0">
            <Node pos="l" depth="3" NCoef="0" IVar="-1" Cut="0.0000000000000000e+00" cType="1" res="1.5005264431238174e-02" rms="2.8662499785423279e-01" purity="2.4946843087673187e-01" nType="-99"/>
            <Node pos="r" depth="3" NCoef="0" IVar="-1" Cut="0.0000000000000000e+00" cType="1" res="-1.4508194290101528e-02" rms="2.7470910549163818e-01" purity="2.8749749064445496e-01" nType="-99"/>
          </Node>
          <Node pos="r" depth="2" NCoef="0" IVar="-1" Cut="0.0000000000000000e+00" cType="1" res="-2.2364798933267593e-02" rms="3.1705194711685181e-01" purity="6.0698515176773071e-01" nType="-99"/>
        </Node>
        <Node pos="r" depth="1" NCoef="0" IVar="10" Cut="-1.4655760526657104e+00" cType="1" res="2.0358019974082708e-03" rms="2.9263725876808167e-01" purity="5.3641611337661743e-01" nType="0">
          <Node pos="l" depth="2" NCoef="0" IVar="5" Cut="7.6301589965820312e+01" cType="1" res="-9.7684664651751518e-03" rms="3.0138295888900757e-01" purity="3.6277145147323608e-01" nType="0">
            <Node pos="l" depth="3" NCoef="0" IVar="-1" Cut="0.0000000000000000e+00" cType="1" res="6.1535607092082500e-03" rms="2.8269729018211365e-01" purity="1.7932896316051483e-01" nType="-99"/>
            <Node pos="r" depth="3" NCoef="0" IVar="-1" Cut="0.0000000000000000e+00" cType="1" res="-2.8253111988306046e-02" rms="3.2418358325958252e-01" purity="6.1395537853240967e-01" nType="-99"/>
          </Node>
          <Node pos="r" depth="2" NCoef="0" IVar="9" Cut="1.9109647274017334e+00" cType="1" res="3.4301753621548414e-03" rms="2.9155528545379639e-01" purity="5.5692785978317261e-01" nType="0">
            <Node pos="l" depth="3" NCoef="0" IVar="-1" Cut="0.0000000000000000e+00" cType="1" res="3.0467617325484753e-03" rms="2.9205405712127686e-01" purity="5.7759219408035278e-01" nType="-99"/>
            <Node pos="r" depth="3" NCoef="0" IVar="-1" Cut="0.0000000000000000e+00" cType="1" res="2.8766842558979988e-02" rms="2.8140279650688171e-01" purity="1.6070267558097839e-01" nType="-99"/>
          </Node>
        </Node>
      </Node>
    </BinaryTree>
    <BinaryTree type="DecisionTree" boostWeight="1.0000000000000000e+00" itree="207">
      <Node pos="s" depth="0" NCoef="0" IVar="2" Cut="3.3976907348632812e+02" cType="1" res="-1.5958888689056039e-03" rms="2.8795200586318970e-01" purity="5.0031048059463501e-01" nType="0">
        <Node pos="l" depth="1" NCoef="0" IVar="5" Cut="6.0871765136718750e+01" cType="1" res="3.4123410005122423e-03" rms="2.9456755518913269e-01" purity="4.3159034848213196e-01" nType="0">
          <Node pos="l" depth="2" NCoef="0" IVar="0" Cut="1.0824735107421875e+03" cType="1" res="1.5281194821000099e-02" rms="2.6129543781280518e-01" purity="1.2009868770837784e-01" nType="0">
            <Node pos="l" depth="3" NCoef="0" IVar="-1" Cut="0.0000000000000000e+00" cType="1" res="2.6329124812036753e-03" rms="1.6990292072296143e-01" purity="3.2381255179643631e-02" nType="-99"/>
            <Node pos="r" depth="3" NCoef="0" IVar="-1" Cut="0.0000000000000000e+00" cType="1" res="3.4334164112806320e-02" rms="3.6016014218330383e-01" purity="2.5877100229263306e-01" nType="-99"/>
          </Node>
          <Node pos="r" depth="2" NCoef="0" IVar="7" Cut="-6.4513760805130005e-01" cType="1" res="-1.3782455353066325e-03" rms="3.0684721469879150e-01" purity="5.5731666088104248e-01" nType="0">
            <Node pos="l" depth="3" NCoef="0" IVar="-1" Cut="0.0000000000000000e+00" cType="1" res="1.5960549935698509e-02" rms="2.9319784045219421e-01" purity="4.2241021990776062e-01" nType="-99"/>
            <Node pos="r" depth="3" NCoef="0" IVar="-1" Cut="0.0000000000000000e+00" cType="1" res="-6.9909305311739445e-03" rms="3.1097283959388733e-01" purity="6.0121774673461914e-01" nType="-99"/>
          </Node>
        </Node>
        <Node pos="r" depth="1" NCoef="0" IVar="1" Cut="9.7301945090293884e-02" cType="1" res="-5.9850397519767284e-03" rms="2.8195351362228394e-01" purity="5.6053602695465088e-01" nType="0">
          <Node pos="l" depth="2" NCoef="0" IVar="10" Cut="-6.6659647226333618e-01" cType="1" res="-1.0684262029826641e-02" rms="2.9535412788391113e-01" purity="4.2075085639953613e-01" nType="0">
            <Node pos="l" depth="3" NCoef="0" IVar="-1" Cut="0.0000000000000000e+00" cType="1" res="-2.2397533059120178e-02" rms="2.8457996249198914e-01" purity="3.6330875754356384e-01" nType="-99"/>
            <Node pos="r" depth="3" NCoef="0" IVar="-1" Cut="0.0000000000000000e+00" cType="1" res="-7.3081511072814465e-03" rms="2.9957988858222961e-01" purity="4.4430929422378540e-01" nType="-99"/>
          </Node>
          <Node pos="r" depth="2" NCoef="0" IVar="1" Cut="1.2695442140102386e-01" cType="1" res="5.3124180994927883e-03" rms="2.4641054868698120e-01" purity="8.9659518003463745e-01" nType="0">
            <Node pos="l" depth="3" NCoef="0" IVar="-1" Cut="0.0000000000000000e+00" cType="1" res="1.8201043829321861e-02" rms="2.7842316031455994e-01" purity="8.5005599260330200e-01" nType="-99"/>
            <Node pos="r" depth="3" NCoef="0" IVar="-1" Cut="0.0000000000000000e+00" cType="1" res="3.5943582770414650e-04" rms="2.2715733945369720e-01" purity="9.2164266109466553e-01" nType="-99"/>
          </Node>
        </Node>
      </Node>
    </BinaryTree>
    <BinaryTree type="DecisionTree" boostWeight="1.0000000000000000e+00" itree="208">
      <Node pos="s" depth="0" NCoef="0" IVar="11" Cut="8.6653500795364380e-01" cType="1" res="1.0421203915029764e-03" rms="2.9008066654205322e-01" purity="5.0126683712005615e-01" nType="0">
        <Node pos="l" depth="1" NCoef="0" IVar="10" Cut="9.3315798044204712e-01" cType="1" res="2.8173399623483419e-03" rms="2.8781187534332275e-01" purity="4.7615736722946167e-01" nType="0">
          <Node pos="l" depth="2" NCoef="0" IVar="8" Cut="1.2000255584716797e+00" cType="1" res="5.2791652269661427e-03" rms="2.8845727443695068e-01" purity="5.0348067283630371e-01" nType="0">
            <Node pos="l" depth="3" NCoef="0" IVar="-1" Cut="0.0000000000000000e+00" cType="1" res="8.3405654877424240e-03" rms="2.9303997755050659e-01" purity="5.3776305913925171e-01" nType="-99"/>
            <Node pos="r" depth="3" NCoef="0" IVar="-1" Cut="0.0000000000000000e+00" cType="1" res="-1.8184170126914978e-02" rms="2.4154897034168243e-01" purity="1.8795286118984222e-01" nType="-99"/>
          </Node>
          <Node pos="r" depth="2" NCoef="0" IVar="0" Cut="1.6611376953125000e+03" cType="1" res="-5.9943655505776405e-03" rms="2.8531578183174133e-01" purity="3.7835806608200073e-01" nType="0">
            <Node pos="l" depth="3" NCoef="0" IVar="-1" Cut="0.0000000000000000e+00" cType="1" res="-1.3167453929781914e-02" rms="2.8281792998313904e-01" purity="2.2094474732875824e-01" nType="-99"/>
            <Node pos="r" depth="3" NCoef="0" IVar="-1" Cut="0.0000000000000000e+00" cType="1" res="8.2090022042393684e-03" rms="2.9107615351676941e-01" purity="7.7369588613510132e-01" nType="-99"/>
          </Node>
        </Node>
        <Node pos="r" depth="1" NCoef="0" IVar="8" Cut="1.3592395186424255e-01" cType="1" res="-1.1876627802848816e-02" rms="3.0577501654624939e-01" purity="6.8399542570114136e-01" nType="0">
          <Node pos="l" depth="2" NCoef="0" IVar="-1" Cut="0.0000000000000000e+00" cType="1" res="-4.5439461246132851e-03" rms="3.0926087498664856e-01" purity="7.0395088195800781e-01" nType="-99"/>
          <Node pos="r" depth="2" NCoef="0" IVar="-1" Cut="0.0000000000000000e+00" cType="1" res="-2.1891590207815170e-02" rms="3.0171298980712891e-01" purity="6.6226482391357422e-01" nType="-99"/>
        </Node>
      </Node>
    </BinaryTree>
    <BinaryTree type="DecisionTree" boostWeight="1.0000000000000000e+00" itree="209">
      <Node pos="s" depth="0" NCoef="0" IVar="8" Cut="-1.3331922888755798e-01" cType="1" res="1.5851213538553566e-04" rms="2.8967493772506714e-01" purity="4.9961283802986145e-01" nType="0">
        <Node pos="l" depth="1" NCoef="0" IVar="11" Cut="1.1426275968551636e+00" cType="1" res="5.2028801292181015e-03" rms="2.9041722416877747e-01" purity="4.9022859334945679e-01" nType="0">
          <Node pos="l" depth="2" NCoef="0" IVar="11" Cut="1.5624955296516418e-01" cType="1" res="7.0121083408594131e-03" rms="2.8906500339508057e-01" purity="4.7699847817420959e-01" nType="0">
            <Node pos="l" depth="3" NCoef="0" IVar="-1" Cut="0.0000000000000000e+00" cType="1" res="5.0499667413532734e-03" rms="2.8901502490043640e-01" purity="4.2392382025718689e-01" nType="-99"/>
            <Node pos="r" depth="3" NCoef="0" IVar="-1" Cut="0.0000000000000000e+00" cType="1" res="2.8551718220114708e-02" rms="2.8882634639739990e-01" purity="7.9122716188430786e-01" nType="-99"/>
          </Node>
          <Node pos="r" depth="2" NCoef="0" IVar="-1" Cut="0.0000000000000000e+00" cType="1" res="-1.7290169373154640e-02" rms="3.0553588271141052e-01" purity="6.5120756626129150e-01" nType="-99"/>
        </Node>
        <Node pos="r" depth="1" NCoef="0" IVar="11" Cut="8.6663055419921875e-01" cType="1" res="-3.8952019531279802e-03" rms="2.8901323676109314e-01" purity="5.0715404748916626e-01" nType="0">
          <Node pos="l" depth="2" NCoef="0" IVar="0" Cut="1.9035223388671875e+03" cType="1" res="-5.9278993867337704e-03" rms="2.8854531049728394e-01" purity="4.7364023327827454e-01" nType="0">
            <Node pos="l" depth="3" NCoef="0" IVar="-1" Cut="0.0000000000000000e+00" cType="1" res="-9.8793460056185722e-03" rms="2.9966101050376892e-01" purity="3.6263608932495117e-01" nType="-99"/>
            <Node pos="r" depth="3" NCoef="0" IVar="-1" Cut="0.0000000000000000e+00" cType="1" res="9.0275648981332779e-03" rms="2.4368210136890411e-01" purity="8.7624186277389526e-01" nType="-99"/>
          </Node>
          <Node pos="r" depth="2" NCoef="0" IVar="10" Cut="1.3433331251144409e-01" cType="1" res="8.8518038392066956e-03" rms="2.9160770773887634e-01" purity="7.1731835603713989e-01" nType="0">
            <Node pos="l" depth="3" NCoef="0" IVar="-1" Cut="0.0000000000000000e+00" cType="1" res="2.3687971755862236e-02" rms="2.7687594294548035e-01" purity="7.4981993436813354e-01" nType="-99"/>
            <Node pos="r" depth="3" NCoef="0" IVar="-1" Cut="0.0000000000000000e+00" cType="1" res="-2.4353985209017992e-03" rms="3.0510357022285461e-01" purity="6.8509215116500854e-01" nType="-99"/>
          </Node>
        </Node>
      </Node>
    </BinaryTree>
    <BinaryTree type="DecisionTree" boostWeight="1.0000000000000000e+00" itree="210">
      <Node pos="s" depth="0" NCoef="0" IVar="9" Cut="4.0006986260414124e-01" cType="1" res="-1.3769766155746765e-05" rms="2.8901419043540955e-01" purity="4.9848109483718872e-01" nType="0">
        <Node pos="l" depth="1" NCoef="0" IVar="3" Cut="2.2246272277832031e+02" cType="1" res="-5.0779869779944420e-03" rms="2.8595152497291565e-01" purity="5.1592600345611572e-01" nType="0">
          <Node pos="l" depth="2" NCoef="0" IVar="11" Cut="-2.1715190410614014e+00" cType="1" res="-1.0523541830480099e-02" rms="2.8786140680313110e-01" purity="3.2464537024497986e-01" nType="0">
            <Node pos="l" depth="3" NCoef="0" IVar="-1" Cut="0.0000000000000000e+00" cType="1" res="-2.7349248994141817e-03" rms="2.7186933159828186e-01" purity="1.3453498482704163e-01" nType="-99"/>
            <Node pos="r" depth="3" NCoef="0" IVar="-1" Cut="0.0000000000000000e+00" cType="1" res="-2.2706866264343262e-02" rms="3.0987545847892761e-01" purity="6.0990875959396362e-01" nType="-99"/>
          </Node>
          <Node pos="r" depth="2" NCoef="0" IVar="8" Cut="-1.1998240947723389e+00" cType="1" res="2.8113918961025774e-04" rms="2.8395745158195496e-01" purity="7.0417064428329468e-01" nType="0">
            <Node pos="l" depth="3" NCoef="0" IVar="-1" Cut="0.0000000000000000e+00" cType="1" res="-2.3632001131772995e-02" rms="2.7344065904617310e-01" purity="3.6213740706443787e-01" nType="-99"/>
            <Node pos="r" depth="3" NCoef="0" IVar="-1" Cut="0.0000000000000000e+00" cType="1" res="2.6148329488933086e-03" rms="2.8474465012550354e-01" purity="7.3297250270843506e-01" nType="-99"/>
          </Node>
        </Node>
        <Node pos="r" depth="1" NCoef="0" IVar="7" Cut="-9.2186522483825684e-01" cType="1" res="9.2506688088178635e-03" rms="2.9430919885635376e-01" purity="4.6656766533851624e-01" nType="0">
          <Node pos="l" depth="2" NCoef="0" IVar="-1" Cut="0.0000000000000000e+00" cType="1" res="-1.3716783374547958e-02" rms="2.2476653754711151e-01" purity="1.9981960952281952e-01" nType="-99"/>
          <Node pos="r" depth="2" NCoef="0" IVar="7" Cut="-5.6737768650054932e-01" cType="1" res="1.2046535499393940e-02" rms="3.0398687720298767e-01" purity="5.0976860523223877e-01" nType="0">
            <Node pos="l" depth="3" NCoef="0" IVar="-1" Cut="0.0000000000000000e+00" cType="1" res="4.0708679705858231e-02" rms="3.2070681452751160e-01" purity="5.2585887908935547e-01" nType="-99"/>
            <Node pos="r" depth="3" NCoef="0" IVar="-1" Cut="0.0000000000000000e+00" cType="1" res="9.2730810865759850e-03" rms="3.0167293548583984e-01" purity="5.0778299570083618e-01" nType="-99"/>
          </Node>
        </Node>
      </Node>
    </BinaryTree>
    <BinaryTree type="DecisionTree" boostWeight="1.0000000000000000e+00" itree="211">
      <Node pos="s" depth="0" NCoef="0" IVar="1" Cut="1.0433892160654068e-01" cType="1" res="5.2148482063785195e-04" rms="2.9155299067497253e-01" purity="5.0284922122955322e-01" nType="0">
        <Node pos="l" depth="1" NCoef="0" IVar="5" Cut="1.4371173095703125e+02" cType="1" res="-1.8938216380774975e-03" rms="2.9866838455200195e-01" purity="3.6819183826446533e-01" nType="0">
          <Node pos="l" depth="2" NCoef="0" IVar="10" Cut="-6.6669023036956787e-01" cType="1" res="-4.1329424129799008e-04" rms="3.0174213647842407e-01" purity="3.3082371950149536e-01" nType="0">
            <Node pos="l" depth="3" NCoef="0" IVar="-1" Cut="0.0000000000000000e+00" cType="1" res="8.9540015906095505e-03" rms="2.9099014401435852e-01" purity="3.0051618814468384e-01" nType="-99"/>
            <Node pos="r" depth="3" NCoef="0" IVar="-1" Cut="0.0000000000000000e+00" cType="1" res="-4.5191580429673195e-03" rms="3.0657592415809631e-01" purity="3.4502846002578735e-01" nType="-99"/>
          </Node>
          <Node pos="r" depth="2" NCoef="0" IVar="-1" Cut="0.0000000000000000e+00" cType="1" res="-4.0047522634267807e-02" rms="2.5137069821357727e-01" purity="8.8582378625869751e-01" nType="-99"/>
        </Node>
        <Node pos="r" depth="1" NCoef="0" IVar="0" Cut="1.3191437988281250e+03" cType="1" res="6.6992910578846931e-03" rms="2.7241203188896179e-01" purity="8.4727251529693604e-01" nType="0">
          <Node pos="l" depth="2" NCoef="0" IVar="-1" Cut="0.0000000000000000e+00" cType="1" res="2.6214310899376869e-02" rms="4.2340043187141418e-01" purity="4.8283088207244873e-01" nType="-99"/>
          <Node pos="r" depth="2" NCoef="0" IVar="5" Cut="8.3511688232421875e+01" cType="1" res="-1.1730975238606334e-03" rms="2.2685968875885010e-01" purity="9.2494195699691772e-01" nType="0">
            <Node pos="l" depth="3" NCoef="0" IVar="-1" Cut="0.0000000000000000e+00" cType="1" res="-1.4937242493033409e-02" rms="3.4103143215179443e-01" purity="7.9764795303344727e-01" nType="-99"/>
            <Node pos="r" depth="3" NCoef="0" IVar="-1" Cut="0.0000000000000000e+00" cType="1" res="6.7603723146021366e-03" rms="1.8960221111774445e-01" purity="9.5526051521301270e-01" nType="-99"/>
          </Node>
        </Node>
      </Node>
    </BinaryTree>
    <BinaryTree type="DecisionTree" boostWeight="1.0000000000000000e+00" itree="212">
      <Node pos="s" depth="0" NCoef="0" IVar="9" Cut="-1.4667003154754639e+00" cType="1" res="-1.4882466057315469e-03" rms="2.8837668895721436e-01" purity="4.9711164832115173e-01" nType="0">
        <Node pos="l" depth="1" NCoef="0" IVar="0" Cut="1.4899849853515625e+03" cType="1" res="-1.6278795897960663e-02" rms="2.6180654764175415e-01" purity="2.0548224449157715e-01" nType="0">
          <Node pos="l" depth="2" NCoef="0" IVar="4" Cut="1.1383798980712891e+02" cType="1" res="-2.8675399720668793e-02" rms="2.1798312664031982e-01" purity="8.2444697618484497e-02" nType="0">
            <Node pos="l" depth="3" NCoef="0" IVar="-1" Cut="0.0000000000000000e+00" cType="1" res="-2.6968332007527351e-02" rms="1.7879198491573334e-01" purity="4.3548200279474258e-02" nType="-99"/>
            <Node pos="r" depth="3" NCoef="0" IVar="-1" Cut="0.0000000000000000e+00" cType="1" res="-5.5373366922140121e-02" rms="2.5197505950927734e-01" purity="1.2415868043899536e-01" nType="-99"/>
          </Node>
          <Node pos="r" depth="2" NCoef="0" IVar="-1" Cut="0.0000000000000000e+00" cType="1" res="1.2582740746438503e-02" rms="3.4559845924377441e-01" purity="5.1108866930007935e-01" nType="-99"/>
        </Node>
        <Node pos="r" depth="1" NCoef="0" IVar="9" Cut="3.6162963509559631e-01" cType="1" res="-5.6395756473648362e-06" rms="2.9086479544639587e-01" purity="5.2634465694427490e-01" nType="0">
          <Node pos="l" depth="2" NCoef="0" IVar="3" Cut="2.3286648559570312e+02" cType="1" res="5.3514223545789719e-03" rms="2.9029712080955505e-01" purity="5.7571923732757568e-01" nType="0">
            <Node pos="l" depth="3" NCoef="0" IVar="-1" Cut="0.0000000000000000e+00" cType="1" res="1.1919163167476654e-02" rms="3.0052736401557922e-01" purity="4.1728433966636658e-01" nType="-99"/>
            <Node pos="r" depth="3" NCoef="0" IVar="-1" Cut="0.0000000000000000e+00" cType="1" res="-5.2304461132735014e-04" rms="2.7854251861572266e-01" purity="7.4931645393371582e-01" nType="-99"/>
          </Node>
          <Node pos="r" depth="2" NCoef="0" IVar="9" Cut="4.7775328159332275e-01" cType="1" res="-8.1492746248841286e-03" rms="2.9153716564178467e-01" purity="4.5128694176673889e-01" nType="0">
            <Node pos="l" depth="3" NCoef="0" IVar="-1" Cut="0.0000000000000000e+00" cType="1" res="-2.9255101457238197e-02" rms="2.9138222336769104e-01" purity="5.7608747482299805e-01" nType="-99"/>
            <Node pos="r" depth="3" NCoef="0" IVar="-1" Cut="0.0000000000000000e+00" cType="1" res="-7.1720858104526997e-03" rms="2.9149395227432251e-01" purity="4.3625313043594360e-01" nType="-99"/>
          </Node>
        </Node>
      </Node>
    </BinaryTree>
    <BinaryTree type="DecisionTree" boostWeight="1.0000000000000000e+00" itree="213">
      <Node pos="s" depth="0" NCoef="0" IVar="4" Cut="1.4544813537597656e+02" cType="1" res="-9.2425680486485362e-04" rms="2.8921368718147278e-01" purity="4.9914696812629700e-01" nType="0">
        <Node pos="l" depth="1" NCoef="0" IVar="3" Cut="3.0948031616210938e+02" cType="1" res="-5.6938617490231991e-03" rms="2.8518003225326538e-01" purity="2.1917758882045746e-01" nType="0">
          <Node pos="l" depth="2" NCoef="0" IVar="10" Cut="-1.7329467535018921e+00" cType="1" res="-3.8603981956839561e-03" rms="2.8183674812316895e-01" purity="2.1508347988128662e-01" nType="0">
            <Node pos="l" depth="3" NCoef="0" IVar="-1" Cut="0.0000000000000000e+00" cType="1" res="2.8516264632344246e-02" rms="2.4876074492931366e-01" purity="1.3527759909629822e-01" nType="-99"/>
            <Node pos="r" depth="3" NCoef="0" IVar="-1" Cut="0.0000000000000000e+00" cType="1" res="-7.8542353585362434e-03" rms="2.8551790118217468e-01" purity="2.2484211623668671e-01" nType="-99"/>
          </Node>
          <Node pos="r" depth="2" NCoef="0" IVar="-1" Cut="0.0000000000000000e+00" cType="1" res="-3.3585190773010254e-02" rms="3.3183690905570984e-01" purity="2.8324189782142639e-01" nType="-99"/>
        </Node>
        <Node pos="r" depth="1" NCoef="0" IVar="11" Cut="-2.3812103271484375e-01" cType="1" res="2.8785455506294966e-03" rms="2.9233413934707642e-01" purity="7.2236633300781250e-01" nType="0">
          <Node pos="l" depth="2" NCoef="0" IVar="3" Cut="2.2325971984863281e+02" cType="1" res="-2.5603035464882851e-03" rms="3.1607434153556824e-01" purity="6.2439203262329102e-01" nType="0">
            <Node pos="l" depth="3" NCoef="0" IVar="-1" Cut="0.0000000000000000e+00" cType="1" res="8.2992650568485260e-03" rms="3.3515381813049316e-01" purity="5.2315169572830200e-01" nType="-99"/>
            <Node pos="r" depth="3" NCoef="0" IVar="-1" Cut="0.0000000000000000e+00" cType="1" res="-8.1583512946963310e-03" rms="3.0711326003074646e-01" purity="6.6914761066436768e-01" nType="-99"/>
          </Node>
          <Node pos="r" depth="2" NCoef="0" IVar="5" Cut="1.0055893707275391e+02" cType="1" res="1.0890254750847816e-02" rms="2.5313058495521545e-01" purity="8.6668753623962402e-01" nType="0">
            <Node pos="l" depth="3" NCoef="0" IVar="-1" Cut="0.0000000000000000e+00" cType="1" res="2.2586420178413391e-02" rms="3.2046556472778320e-01" purity="7.5281125307083130e-01" nType="-99"/>
            <Node pos="r" depth="3" NCoef="0" IVar="-1" Cut="0.0000000000000000e+00" cType="1" res="7.7153379097580910e-03" rms="2.1042653918266296e-01" purity="9.2460030317306519e-01" nType="-99"/>
          </Node>
        </Node>
      </Node>
    </BinaryTree>
    <BinaryTree type="DecisionTree" boostWeight="1.0000000000000000e+00" itree="214">
      <Node pos="s" depth="0" NCoef="0" IVar="6" Cut="6.6376380920410156e+01" cType="1" res="2.0253048278391361e-03" rms="2.9371991753578186e-01" purity="5.0309175252914429e-01" nType="0">
        <Node pos="l" depth="1" NCoef="0" IVar="3" Cut="2.2246272277832031e+02" cType="1" res="6.0390443541109562e-03" rms="3.1224256753921509e-01" purity="3.2209369540214539e-01" nType="0">
          <Node pos="l" depth="2" NCoef="0" IVar="5" Cut="7.7621582031250000e+01" cType="1" res="2.2813116083852947e-04" rms="2.8998219966888428e-01" purity="1.9978383183479309e-01" nType="0">
            <Node pos="l" depth="3" NCoef="0" IVar="-1" Cut="0.0000000000000000e+00" cType="1" res="-3.7473854608833790e-03" rms="2.6708236336708069e-01" purity="1.3819393515586853e-01" nType="-99"/>
            <Node pos="r" depth="3" NCoef="0" IVar="-1" Cut="0.0000000000000000e+00" cType="1" res="9.3090590089559555e-03" rms="3.6385014653205872e-01" purity="4.3372684717178345e-01" nType="-99"/>
          </Node>
          <Node pos="r" depth="2" NCoef="0" IVar="8" Cut="-1.3125173747539520e-01" cType="1" res="1.4618332497775555e-02" rms="3.4229278564453125e-01" purity="5.0267314910888672e-01" nType="0">
            <Node pos="l" depth="3" NCoef="0" IVar="-1" Cut="0.0000000000000000e+00" cType="1" res="-2.4638029281049967e-03" rms="3.3833014965057373e-01" purity="4.6097350120544434e-01" nType="-99"/>
            <Node pos="r" depth="3" NCoef="0" IVar="-1" Cut="0.0000000000000000e+00" cType="1" res="2.3347979411482811e-02" rms="3.4471985697746277e-01" purity="5.3492742776870728e-01" nType="-99"/>
          </Node>
        </Node>
        <Node pos="r" depth="1" NCoef="0" IVar="4" Cut="1.4670507812500000e+02" cType="1" res="-5.8883880265057087e-03" rms="2.5307533144950867e-01" purity="8.5995656251907349e-01" nType="0">
          <Node pos="l" depth="2" NCoef="0" IVar="-1" Cut="0.0000000000000000e+00" cType="1" res="-2.0782614126801491e-02" rms="3.5203033685684204e-01" purity="6.4718073606491089e-01" nType="-99"/>
          <Node pos="r" depth="2" NCoef="0" IVar="1" Cut="4.0252007544040680e-02" cType="1" res="-2.0866361446678638e-03" rms="2.2657021880149841e-01" purity="9.0483719110488892e-01" nType="0">
            <Node pos="l" depth="3" NCoef="0" IVar="-1" Cut="0.0000000000000000e+00" cType="1" res="-1.6067467629909515e-02" rms="3.2585856318473816e-01" purity="6.6476732492446899e-01" nType="-99"/>
            <Node pos="r" depth="3" NCoef="0" IVar="-1" Cut="0.0000000000000000e+00" cType="1" res="1.2359522515907884e-03" rms="2.0674377679824829e-01" purity="9.4221395254135132e-01" nType="-99"/>
          </Node>
        </Node>
      </Node>
    </BinaryTree>
    <BinaryTree type="DecisionTree" boostWeight="1.0000000000000000e+00" itree="215">
      <Node pos="s" depth="0" NCoef="0" IVar="3" Cut="4.7651708984375000e+02" cType="1" res="7.5043208198621869e-04" rms="2.9107514023780823e-01" purity="4.9931886792182922e-01" nType="0">
        <Node pos="l" depth="1" NCoef="0" IVar="3" Cut="1.5389466857910156e+02" cType="1" res="1.4430300798267126e-03" rms="2.9090309143066406e-01" purity="4.9190670251846313e-01" nType="0">
          <Node pos="l" depth="2" NCoef="0" IVar="1" Cut="5.1592342555522919e-02" cType="1" res="1.2821787036955357e-02" rms="2.5769346952438354e-01" purity="1.4108979701995850e-01" nType="0">
            <Node pos="l" depth="3" NCoef="0" IVar="-1" Cut="0.0000000000000000e+00" cType="1" res="5.4059033282101154e-03" rms="2.0134758949279785e-01" purity="6.0462828725576401e-02" nType="-99"/>
            <Node pos="r" depth="3" NCoef="0" IVar="-1" Cut="0.0000000000000000e+00" cType="1" res="3.4352812916040421e-02" rms="3.5542917251586914e-01" purity="3.3072021603584290e-01" nType="-99"/>
          </Node>
          <Node pos="r" depth="2" NCoef="0" IVar="0" Cut="1.4388305664062500e+03" cType="1" res="-1.4057647204026580e-03" rms="2.9857212305068970e-01" purity="5.7973748445510864e-01" nType="0">
            <Node pos="l" depth="3" NCoef="0" IVar="-1" Cut="0.0000000000000000e+00" cType="1" res="-8.0152945592999458e-03" rms="3.2462495565414429e-01" purity="2.5594121217727661e-01" nType="-99"/>
            <Node pos="r" depth="3" NCoef="0" IVar="-1" Cut="0.0000000000000000e+00" cType="1" res="3.3332428429275751e-03" rms="2.8192576766014099e-01" purity="7.7152150869369507e-01" nType="-99"/>
          </Node>
        </Node>
        <Node pos="r" depth="1" NCoef="0" IVar="-1" Cut="0.0000000000000000e+00" cType="1" res="-2.6082320138812065e-02" rms="2.9592132568359375e-01" purity="7.5256156921386719e-01" nType="-99"/>
      </Node>
    </BinaryTree>
    <BinaryTree type="DecisionTree" boostWeight="1.0000000000000000e+00" itree="216">
      <Node pos="s" depth="0" NCoef="0" IVar="2" Cut="3.3976638793945312e+02" cType="1" res="1.1655411217361689e-03" rms="2.8982093930244446e-01" purity="5.0056278705596924e-01" nType="0">
        <Node pos="l" depth="1" NCoef="0" IVar="2" Cut="3.1979644775390625e+02" cType="1" res="-3.5265176557004452e-03" rms="2.9084515571594238e-01" purity="4.1756287217140198e-01" nType="0">
          <Node pos="l" depth="2" NCoef="0" IVar="2" Cut="2.4563822937011719e+02" cType="1" res="-6.9115799851715565e-03" rms="2.8898572921752930e-01" purity="4.0335032343864441e-01" nType="0">
            <Node pos="l" depth="3" NCoef="0" IVar="-1" Cut="0.0000000000000000e+00" cType="1" res="3.2108796294778585e-03" rms="2.8913393616676331e-01" purity="3.5318905115127563e-01" nType="-99"/>
            <Node pos="r" depth="3" NCoef="0" IVar="-1" Cut="0.0000000000000000e+00" cType="1" res="-1.4690006151795387e-02" rms="2.8874564170837402e-01" purity="4.3324550986289978e-01" nType="-99"/>
          </Node>
          <Node pos="r" depth="2" NCoef="0" IVar="-1" Cut="0.0000000000000000e+00" cType="1" res="2.1866166964173317e-02" rms="3.0194580554962158e-01" purity="5.1197600364685059e-01" nType="-99"/>
        </Node>
        <Node pos="r" depth="1" NCoef="0" IVar="2" Cut="7.3909661865234375e+02" cType="1" res="5.2524982020258904e-03" rms="2.8886377811431885e-01" purity="5.7285881042480469e-01" nType="0">
          <Node pos="l" depth="2" NCoef="0" IVar="0" Cut="1.2437810058593750e+03" cType="1" res="6.7671169526875019e-03" rms="2.8555396199226379e-01" purity="5.7391256093978882e-01" nType="0">
            <Node pos="l" depth="3" NCoef="0" IVar="-1" Cut="0.0000000000000000e+00" cType="1" res="-2.8237203136086464e-02" rms="1.7336402833461761e-01" purity="3.2408211380243301e-02" nType="-99"/>
            <Node pos="r" depth="3" NCoef="0" IVar="-1" Cut="0.0000000000000000e+00" cType="1" res="9.9633224308490753e-03" rms="2.9697620868682861e-01" purity="6.4434081315994263e-01" nType="-99"/>
          </Node>
          <Node pos="r" depth="2" NCoef="0" IVar="-1" Cut="0.0000000000000000e+00" cType="1" res="-1.6283981502056122e-02" rms="3.3871787786483765e-01" purity="5.5513590574264526e-01" nType="-99"/>
        </Node>
      </Node>
    </BinaryTree>
    <BinaryTree type="DecisionTree" boostWeight="1.0000000000000000e+00" itree="217">
      <Node pos="s" depth="0" NCoef="0" IVar="10" Cut="-4.0009489655494690e-01" cType="1" res="-1.5977562870830297e-03" rms="2.9007318615913391e-01" purity="4.9643361568450928e-01" nType="0">
        <Node pos="l" depth="1" NCoef="0" IVar="6" Cut="6.2487606048583984e+01" cType="1" res="-8.0585367977619171e-03" rms="2.8356391191482544e-01" purity="4.6505597233772278e-01" nType="0">
          <Node pos="l" depth="2" NCoef="0" IVar="9" Cut="1.3411961495876312e-01" cType="1" res="-1.4687310904264450e-02" rms="2.9356858134269714e-01" purity="2.6121443510055542e-01" nType="0">
            <Node pos="l" depth="3" NCoef="0" IVar="-1" Cut="0.0000000000000000e+00" cType="1" res="-7.8069642186164856e-03" rms="2.9532986879348755e-01" purity="2.8022333979606628e-01" nType="-99"/>
            <Node pos="r" depth="3" NCoef="0" IVar="-1" Cut="0.0000000000000000e+00" cType="1" res="-3.0024204403162003e-02" rms="2.9040053486824036e-01" purity="2.3144997656345367e-01" nType="-99"/>
          </Node>
          <Node pos="r" depth="2" NCoef="0" IVar="10" Cut="-1.4272025823593140e+00" cType="1" res="3.9709433913230896e-03" rms="2.6401838660240173e-01" purity="8.3497464656829834e-01" nType="0">
            <Node pos="l" depth="3" NCoef="0" IVar="-1" Cut="0.0000000000000000e+00" cType="1" res="2.7425447478890419e-02" rms="2.9097607731819153e-01" purity="7.6153516769409180e-01" nType="-99"/>
            <Node pos="r" depth="3" NCoef="0" IVar="-1" Cut="0.0000000000000000e+00" cType="1" res="-6.6348602995276451e-03" rms="2.5340229272842407e-01" purity="8.6067420244216919e-01" nType="-99"/>
          </Node>
        </Node>
        <Node pos="r" depth="1" NCoef="0" IVar="9" Cut="-6.6683405637741089e-01" cType="1" res="2.3573848884552717e-03" rms="2.9391685128211975e-01" purity="5.1564228534698486e-01" nType="0">
          <Node pos="l" depth="2" NCoef="0" IVar="4" Cut="1.7044360351562500e+02" cType="1" res="1.1030465364456177e-02" rms="3.0467781424522400e-01" purity="4.3026137351989746e-01" nType="0">
            <Node pos="l" depth="3" NCoef="0" IVar="-1" Cut="0.0000000000000000e+00" cType="1" res="2.4542421102523804e-02" rms="3.0268391966819763e-01" purity="2.8339257836341858e-01" nType="-99"/>
            <Node pos="r" depth="3" NCoef="0" IVar="-1" Cut="0.0000000000000000e+00" cType="1" res="-8.5151074454188347e-03" rms="3.0736383795738220e-01" purity="6.9572454690933228e-01" nType="-99"/>
          </Node>
          <Node pos="r" depth="2" NCoef="0" IVar="8" Cut="1.2001142501831055e+00" cType="1" res="-5.1254325080662966e-04" rms="2.9021114110946655e-01" purity="5.4389488697052002e-01" nType="0">
            <Node pos="l" depth="3" NCoef="0" IVar="-1" Cut="0.0000000000000000e+00" cType="1" res="2.4119189474731684e-03" rms="2.9373085498809814e-01" purity="5.9305310249328613e-01" nType="-99"/>
            <Node pos="r" depth="3" NCoef="0" IVar="-1" Cut="0.0000000000000000e+00" cType="1" res="-2.5670083239674568e-02" rms="2.6353335380554199e-01" purity="1.9978784024715424e-01" nType="-99"/>
          </Node>
        </Node>
      </Node>
    </BinaryTree>
    <BinaryTree type="DecisionTree" boostWeight="1.0000000000000000e+00" itree="218">
      <Node pos="s" depth="0" NCoef="0" IVar="2" Cut="6.0743542480468750e+02" cType="1" res="-1.1232448741793633e-03" rms="2.8892424702644348e-01" purity="4.9802234768867493e-01" nType="0">
        <Node pos="l" depth="1" NCoef="0" IVar="2" Cut="2.7762203979492188e+02" cType="1" res="5.8232329320162535e-04" rms="2.8718471527099609e-01" purity="4.9266707897186279e-01" nType="0">
          <Node pos="l" depth="2" NCoef="0" IVar="2" Cut="2.2957914733886719e+02" cType="1" res="7.4561205692589283e-03" rms="2.9262104630470276e-01" purity="3.9743265509605408e-01" nType="0">
            <Node pos="l" depth="3" NCoef="0" IVar="-1" Cut="0.0000000000000000e+00" cType="1" res="2.4991143494844437e-02" rms="2.8772482275962830e-01" purity="3.6134833097457886e-01" nType="-99"/>
            <Node pos="r" depth="3" NCoef="0" IVar="-1" Cut="0.0000000000000000e+00" cType="1" res="-3.6784113035537302e-05" rms="2.9507389664649963e-01" purity="4.1771748661994934e-01" nType="-99"/>
          </Node>
          <Node pos="r" depth="2" NCoef="0" IVar="7" Cut="-1.1613579094409943e-01" cType="1" res="-2.1767350845038891e-03" rms="2.8492683172225952e-01" purity="5.3089302778244019e-01" nType="0">
            <Node pos="l" depth="3" NCoef="0" IVar="-1" Cut="0.0000000000000000e+00" cType="1" res="-1.0960343293845654e-02" rms="2.8229469060897827e-01" purity="5.0516057014465332e-01" nType="-99"/>
            <Node pos="r" depth="3" NCoef="0" IVar="-1" Cut="0.0000000000000000e+00" cType="1" res="4.1450462304055691e-03" rms="2.8699138760566711e-01" purity="5.5242282152175903e-01" nType="-99"/>
          </Node>
        </Node>
        <Node pos="r" depth="1" NCoef="0" IVar="5" Cut="1.0622701263427734e+02" cType="1" res="-2.0104581490159035e-02" rms="3.0698156356811523e-01" purity="5.5762171745300293e-01" nType="0">
          <Node pos="l" depth="2" NCoef="0" IVar="7" Cut="-2.4340244010090828e-02" cType="1" res="-3.1195966526865959e-02" rms="3.3208152651786804e-01" purity="3.9153531193733215e-01" nType="0">
            <Node pos="l" depth="3" NCoef="0" IVar="-1" Cut="0.0000000000000000e+00" cType="1" res="-4.1053518652915955e-02" rms="3.1830960512161255e-01" purity="3.6309739947319031e-01" nType="-99"/>
            <Node pos="r" depth="3" NCoef="0" IVar="-1" Cut="0.0000000000000000e+00" cType="1" res="-1.3636273331940174e-02" rms="3.4306162595748901e-01" purity="4.1659402847290039e-01" nType="-99"/>
          </Node>
          <Node pos="r" depth="2" NCoef="0" IVar="-1" Cut="0.0000000000000000e+00" cType="1" res="8.0139451893046498e-04" rms="2.5233837962150574e-01" purity="8.6727553606033325e-01" nType="-99"/>
        </Node>
      </Node>
    </BinaryTree>
    <BinaryTree type="DecisionTree" boostWeight="1.0000000000000000e+00" itree="219">
      <Node pos="s" depth="0" NCoef="0" IVar="1" Cut="2.1214617416262627e-02" cType="1" res="3.1343584414571524e-03" rms="2.9339510202407837e-01" purity="5.0152122974395752e-01" nType="0">
        <Node pos="l" depth="1" NCoef="0" IVar="0" Cut="1.5751702880859375e+03" cType="1" res="1.1848175898194313e-02" rms="2.3989346623420715e-01" purity="1.3342940807342529e-01" nType="0">
          <Node pos="l" depth="2" NCoef="0" IVar="4" Cut="1.5781278991699219e+02" cType="1" res="3.8248170167207718e-03" rms="1.9459928572177887e-01" purity="5.8953046798706055e-02" nType="0">
            <Node pos="l" depth="3" NCoef="0" IVar="-1" Cut="0.0000000000000000e+00" cType="1" res="-2.8591535519808531e-03" rms="1.7209169268608093e-01" purity="3.9330128580331802e-02" nType="-99"/>
            <Node pos="r" depth="3" NCoef="0" IVar="-1" Cut="0.0000000000000000e+00" cType="1" res="3.6093331873416901e-02" rms="2.8613784909248352e-01" purity="1.6542063653469086e-01" nType="-99"/>
          </Node>
          <Node pos="r" depth="2" NCoef="0" IVar="10" Cut="-1.3274465501308441e-01" cType="1" res="3.8750704377889633e-02" rms="3.5013827681541443e-01" purity="3.8315048813819885e-01" nType="0">
            <Node pos="l" depth="3" NCoef="0" IVar="-1" Cut="0.0000000000000000e+00" cType="1" res="5.6446280330419540e-02" rms="3.7170249223709106e-01" purity="3.8748666644096375e-01" nType="-99"/>
            <Node pos="r" depth="3" NCoef="0" IVar="-1" Cut="0.0000000000000000e+00" cType="1" res="9.8726535215973854e-03" rms="3.2738384604454041e-01" purity="3.7929171323776245e-01" nType="-99"/>
          </Node>
        </Node>
        <Node pos="r" depth="1" NCoef="0" IVar="8" Cut="1.4669847488403320e+00" cType="1" res="3.7869939114898443e-04" rms="3.0833745002746582e-01" purity="6.1792671680450439e-01" nType="0">
          <Node pos="l" depth="2" NCoef="0" IVar="8" Cut="-1.1601848602294922e+00" cType="1" res="-1.0914775775745511e-03" rms="3.0840152502059937e-01" purity="6.3314640522003174e-01" nType="0">
            <Node pos="l" depth="3" NCoef="0" IVar="-1" Cut="0.0000000000000000e+00" cType="1" res="1.7060911282896996e-02" rms="3.1126838922500610e-01" purity="3.6800009012222290e-01" nType="-99"/>
            <Node pos="r" depth="3" NCoef="0" IVar="-1" Cut="0.0000000000000000e+00" cType="1" res="-3.0809764284640551e-03" rms="3.0805063247680664e-01" purity="6.6008281707763672e-01" nType="-99"/>
          </Node>
          <Node pos="r" depth="2" NCoef="0" IVar="-1" Cut="0.0000000000000000e+00" cType="1" res="3.1936440616846085e-02" rms="3.0550941824913025e-01" purity="3.0907031893730164e-01" nType="-99"/>
        </Node>
      </Node>
    </BinaryTree>
    <BinaryTree type="DecisionTree" boostWeight="1.0000000000000000e+00" itree="220">
      <Node pos="s" depth="0" NCoef="0" IVar="8" Cut="-1.4663884639739990e+00" cType="1" res="3.3471325878053904e-03" rms="2.9220783710479736e-01" purity="5.0671684741973877e-01" nType="0">
        <Node pos="l" depth="1" NCoef="0" IVar="7" Cut="-3.3482807874679565e-01" cType="1" res="-1.3969659805297852e-02" rms="2.1336184442043304e-01" purity="1.2310015410184860e-01" nType="0">
          <Node pos="l" depth="2" NCoef="0" IVar="-1" Cut="0.0000000000000000e+00" cType="1" res="-2.8008855879306793e-03" rms="2.2063308954238892e-01" purity="1.3508479297161102e-01" nType="-99"/>
          <Node pos="r" depth="2" NCoef="0" IVar="-1" Cut="0.0000000000000000e+00" cType="1" res="-3.9010971784591675e-02" rms="2.0744386315345764e-01" purity="1.1437292397022247e-01" nType="-99"/>
        </Node>
        <Node pos="r" depth="1" NCoef="0" IVar="11" Cut="-2.4476377964019775e+00" cType="1" res="4.7792503610253334e-03" rms="2.9775023460388184e-01" purity="5.3844237327575684e-01" nType="0">
          <Node pos="l" depth="2" NCoef="0" IVar="5" Cut="7.8772735595703125e+01" cType="1" res="9.5318285748362541e-03" rms="3.1820708513259888e-01" purity="2.6499927043914795e-01" nType="0">
            <Node pos="l" depth="3" NCoef="0" IVar="-1" Cut="0.0000000000000000e+00" cType="1" res="5.4478375241160393e-03" rms="3.0046042799949646e-01" purity="1.8098475039005280e-01" nType="-99"/>
            <Node pos="r" depth="3" NCoef="0" IVar="-1" Cut="0.0000000000000000e+00" cType="1" res="1.8685745075345039e-02" rms="3.6763277649879456e-01" purity="5.2672117948532104e-01" nType="-99"/>
          </Node>
          <Node pos="r" depth="2" NCoef="0" IVar="10" Cut="-1.3315327465534210e-01" cType="1" res="6.9067726144567132e-04" rms="2.7888888120651245e-01" purity="7.7368140220642090e-01" nType="0">
            <Node pos="l" depth="3" NCoef="0" IVar="-1" Cut="0.0000000000000000e+00" cType="1" res="-9.2949420213699341e-03" rms="2.7711716294288635e-01" purity="7.6558452844619751e-01" nType="-99"/>
            <Node pos="r" depth="3" NCoef="0" IVar="-1" Cut="0.0000000000000000e+00" cType="1" res="9.1171851381659508e-03" rms="2.8016453981399536e-01" purity="7.8036260604858398e-01" nType="-99"/>
          </Node>
        </Node>
      </Node>
    </BinaryTree>
    <BinaryTree type="DecisionTree" boostWeight="1.0000000000000000e+00" itree="221">
      <Node pos="s" depth="0" NCoef="0" IVar="11" Cut="-2.1714744567871094e+00" cType="1" res="7.0307716669049114e-05" rms="2.8989180922508240e-01" purity="4.9770748615264893e-01" nType="0">
        <Node pos="l" depth="1" NCoef="0" IVar="10" Cut="-9.3338900804519653e-01" cType="1" res="-4.5625306665897369e-03" rms="2.9528346657752991e-01" purity="2.2834049165248871e-01" nType="0">
          <Node pos="l" depth="2" NCoef="0" IVar="9" Cut="3.9962071180343628e-01" cType="1" res="7.0627997629344463e-03" rms="2.8591543436050415e-01" purity="1.9262135028839111e-01" nType="0">
            <Node pos="l" depth="3" NCoef="0" IVar="-1" Cut="0.0000000000000000e+00" cType="1" res="1.8850410357117653e-02" rms="2.9262775182723999e-01" purity="2.1223546564579010e-01" nType="-99"/>
            <Node pos="r" depth="3" NCoef="0" IVar="-1" Cut="0.0000000000000000e+00" cType="1" res="-1.4899336732923985e-02" rms="2.6984226703643799e-01" purity="1.4983220398426056e-01" nType="-99"/>
          </Node>
          <Node pos="r" depth="2" NCoef="0" IVar="8" Cut="4.0022414922714233e-01" cType="1" res="-8.5567682981491089e-03" rms="2.9832974076271057e-01" purity="2.4061289429664612e-01" nType="0">
            <Node pos="l" depth="3" NCoef="0" IVar="-1" Cut="0.0000000000000000e+00" cType="1" res="-1.4870159327983856e-02" rms="3.0157542228698730e-01" purity="2.6917883753776550e-01" nType="-99"/>
            <Node pos="r" depth="3" NCoef="0" IVar="-1" Cut="0.0000000000000000e+00" cType="1" res="1.2728775618597865e-03" rms="2.9273980855941772e-01" purity="1.9432823359966278e-01" nType="-99"/>
          </Node>
        </Node>
        <Node pos="r" depth="1" NCoef="0" IVar="9" Cut="6.6670429706573486e-01" cType="1" res="4.5125726610422134e-03" rms="2.8455519676208496e-01" purity="7.5599396228790283e-01" nType="0">
          <Node pos="l" depth="2" NCoef="0" IVar="11" Cut="-1.2244729995727539e+00" cType="1" res="6.4875703537836671e-04" rms="2.7505418658256531e-01" purity="7.7827841043472290e-01" nType="0">
            <Node pos="l" depth="3" NCoef="0" IVar="-1" Cut="0.0000000000000000e+00" cType="1" res="-1.6424965113401413e-02" rms="2.8238198161125183e-01" purity="7.0928943157196045e-01" nType="-99"/>
            <Node pos="r" depth="3" NCoef="0" IVar="-1" Cut="0.0000000000000000e+00" cType="1" res="3.6130030639469624e-03" rms="2.7389043569564819e-01" purity="7.8846848011016846e-01" nType="-99"/>
          </Node>
          <Node pos="r" depth="2" NCoef="0" IVar="0" Cut="1.5406690673828125e+03" cType="1" res="1.6535628587007523e-02" rms="3.1196975708007812e-01" purity="6.8665117025375366e-01" nType="0">
            <Node pos="l" depth="3" NCoef="0" IVar="-1" Cut="0.0000000000000000e+00" cType="1" res="2.4438334628939629e-02" rms="3.5912838578224182e-01" purity="4.7846898436546326e-01" nType="-99"/>
            <Node pos="r" depth="3" NCoef="0" IVar="-1" Cut="0.0000000000000000e+00" cType="1" res="6.3394717872142792e-03" rms="2.6920446753501892e-01" purity="8.4800732135772705e-01" nType="-99"/>
          </Node>
        </Node>
      </Node>
    </BinaryTree>
    <BinaryTree type="DecisionTree" boostWeight="1.0000000000000000e+00" itree="222">
      <Node pos="s" depth="0" NCoef="0" IVar="11" Cut="1.6951942443847656e+00" cType="1" res="-2.9973776545375586e-03" rms="2.9051023721694946e-01" purity="4.9933871626853943e-01" nType="0">
        <Node pos="l" depth="1" NCoef="0" IVar="9" Cut="9.3334144353866577e-01" cType="1" res="-2.2071094717830420e-03" rms="2.8895443677902222e-01" purity="4.9538913369178772e-01" nType="0">
          <Node pos="l" depth="2" NCoef="0" IVar="11" Cut="-2.1056835651397705e+00" cType="1" res="-3.6041528801433742e-04" rms="2.9128876328468323e-01" purity="5.3180789947509766e-01" nType="0">
            <Node pos="l" depth="3" NCoef="0" IVar="-1" Cut="0.0000000000000000e+00" cType="1" res="4.4184932485222816e-03" rms="3.0903068184852600e-01" purity="2.6879468560218811e-01" nType="-99"/>
            <Node pos="r" depth="3" NCoef="0" IVar="-1" Cut="0.0000000000000000e+00" cType="1" res="-6.2746056355535984e-03" rms="2.7272322773933411e-01" purity="7.8941798210144043e-01" nType="-99"/>
          </Node>
          <Node pos="r" depth="2" NCoef="0" IVar="9" Cut="1.6443587541580200e+00" cType="1" res="-1.0163188911974430e-02" rms="2.7853414416313171e-01" purity="3.3848664164543152e-01" nType="0">
            <Node pos="l" depth="3" NCoef="0" IVar="-1" Cut="0.0000000000000000e+00" cType="1" res="-1.9745718687772751e-02" rms="2.9016265273094177e-01" purity="4.1674059629440308e-01" nType="-99"/>
            <Node pos="r" depth="3" NCoef="0" IVar="-1" Cut="0.0000000000000000e+00" cType="1" res="4.0272786282002926e-03" rms="2.5593054294586182e-01" purity="1.9862061738967896e-01" nType="-99"/>
          </Node>
        </Node>
        <Node pos="r" depth="1" NCoef="0" IVar="-1" Cut="0.0000000000000000e+00" cType="1" res="-2.2101998329162598e-02" rms="3.2682621479034424e-01" purity="5.9938287734985352e-01" nType="-99"/>
      </Node>
    </BinaryTree>
    <BinaryTree type="DecisionTree" boostWeight="1.0000000000000000e+00" itree="223">
      <Node pos="s" depth="0" NCoef="0" IVar="7" Cut="-3.7976327538490295e-01" cType="1" res="1.2050714576616883e-03" rms="2.8874030709266663e-01" purity="5.0326788425445557e-01" nType="0">
        <Node pos="l" depth="1" NCoef="0" IVar="9" Cut="6.6722363233566284e-01" cType="1" res="-5.6330426596105099e-03" rms="2.8035876154899597e-01" purity="4.1143473982810974e-01" nType="0">
          <Node pos="l" depth="2" NCoef="0" IVar="5" Cut="9.2727340698242188e+01" cType="1" res="-1.2085014954209328e-02" rms="2.7957093715667725e-01" purity="4.3949532508850098e-01" nType="0">
            <Node pos="l" depth="3" NCoef="0" IVar="-1" Cut="0.0000000000000000e+00" cType="1" res="-2.2158227860927582e-02" rms="2.8801295161247253e-01" purity="2.2671605646610260e-01" nType="-99"/>
            <Node pos="r" depth="3" NCoef="0" IVar="-1" Cut="0.0000000000000000e+00" cType="1" res="1.8379915272817016e-03" rms="2.6311856508255005e-01" purity="8.2351714372634888e-01" nType="-99"/>
          </Node>
          <Node pos="r" depth="2" NCoef="0" IVar="3" Cut="1.9049241638183594e+02" cType="1" res="1.5184461139142513e-02" rms="2.8188058733940125e-01" purity="3.2089623808860779e-01" nType="0">
            <Node pos="l" depth="3" NCoef="0" IVar="-1" Cut="0.0000000000000000e+00" cType="1" res="6.6966585814952850e-02" rms="2.6464137434959412e-01" purity="1.8607614934444427e-01" nType="-99"/>
            <Node pos="r" depth="3" NCoef="0" IVar="-1" Cut="0.0000000000000000e+00" cType="1" res="-4.7766356728971004e-03" rms="2.9383674263954163e-01" purity="4.3132472038269043e-01" nType="-99"/>
          </Node>
        </Node>
        <Node pos="r" depth="1" NCoef="0" IVar="2" Cut="3.2072506713867188e+02" cType="1" res="4.5445016585290432e-03" rms="2.9268825054168701e-01" purity="5.4811519384384155e-01" nType="0">
          <Node pos="l" depth="2" NCoef="0" IVar="0" Cut="9.9058178710937500e+02" cType="1" res="9.8099866881966591e-03" rms="3.0280649662017822e-01" purity="4.6864902973175049e-01" nType="0">
            <Node pos="l" depth="3" NCoef="0" IVar="-1" Cut="0.0000000000000000e+00" cType="1" res="-4.0227830410003662e-02" rms="1.4129239320755005e-01" purity="2.0865162834525108e-02" nType="-99"/>
            <Node pos="r" depth="3" NCoef="0" IVar="-1" Cut="0.0000000000000000e+00" cType="1" res="1.3415386900305748e-02" rms="3.2233035564422607e-01" purity="5.4545390605926514e-01" nType="-99"/>
          </Node>
          <Node pos="r" depth="2" NCoef="0" IVar="7" Cut="6.7862212657928467e-01" cType="1" res="1.0898179607465863e-03" rms="2.8580245375633240e-01" purity="6.0025286674499512e-01" nType="0">
            <Node pos="l" depth="3" NCoef="0" IVar="-1" Cut="0.0000000000000000e+00" cType="1" res="4.8261820338666439e-03" rms="2.9259324073791504e-01" purity="7.0282202959060669e-01" nType="-99"/>
            <Node pos="r" depth="3" NCoef="0" IVar="-1" Cut="0.0000000000000000e+00" cType="1" res="-8.5342302918434143e-03" rms="2.6846456527709961e-01" purity="3.5148549079895020e-01" nType="-99"/>
          </Node>
        </Node>
      </Node>
    </BinaryTree>
    <BinaryTree type="DecisionTree" boostWeight="1.0000000000000000e+00" itree="224">
      <Node pos="s" depth="0" NCoef="0" IVar="4" Cut="1.8872509765625000e+02" cType="1" res="-1.1651412351056933e-03" rms="2.8643491864204407e-01" purity="4.9990877509117126e-01" nType="0">
        <Node pos="l" depth="1" NCoef="0" IVar="1" Cut="1.2038702517747879e-01" cType="1" res="-4.5103714801371098e-03" rms="2.9591608047485352e-01" purity="3.4919828176498413e-01" nType="0">
          <Node pos="l" depth="2" NCoef="0" IVar="5" Cut="1.1523609924316406e+02" cType="1" res="-1.7031189054250717e-03" rms="2.9418990015983582e-01" purity="2.6759457588195801e-01" nType="0">
            <Node pos="l" depth="3" NCoef="0" IVar="-1" Cut="0.0000000000000000e+00" cType="1" res="-2.2595412156078964e-04" rms="2.9408904910087585e-01" purity="2.3269137740135193e-01" nType="-99"/>
            <Node pos="r" depth="3" NCoef="0" IVar="-1" Cut="0.0000000000000000e+00" cType="1" res="-2.4017715826630592e-02" rms="2.9478979110717773e-01" purity="7.5469255447387695e-01" nType="-99"/>
          </Node>
          <Node pos="r" depth="2" NCoef="0" IVar="-1" Cut="0.0000000000000000e+00" cType="1" res="-1.9247366115450859e-02" rms="3.0402764678001404e-01" purity="7.5806760787963867e-01" nType="-99"/>
        </Node>
        <Node pos="r" depth="1" NCoef="0" IVar="9" Cut="-4.0027663111686707e-01" cType="1" res="5.6713097728788853e-03" rms="2.6587903499603271e-01" purity="8.0790692567825317e-01" nType="0">
          <Node pos="l" depth="2" NCoef="0" IVar="7" Cut="-5.3316771984100342e-01" cType="1" res="-6.3014188781380653e-03" rms="2.7972525358200073e-01" purity="7.5971817970275879e-01" nType="0">
            <Node pos="l" depth="3" NCoef="0" IVar="-1" Cut="0.0000000000000000e+00" cType="1" res="-3.2180014997720718e-02" rms="3.0567535758018494e-01" purity="6.6089838743209839e-01" nType="-99"/>
            <Node pos="r" depth="3" NCoef="0" IVar="-1" Cut="0.0000000000000000e+00" cType="1" res="2.8109508566558361e-03" rms="2.6934525370597839e-01" purity="7.9502147436141968e-01" nType="-99"/>
          </Node>
          <Node pos="r" depth="2" NCoef="0" IVar="5" Cut="8.7484962463378906e+01" cType="1" res="1.0963432490825653e-02" rms="2.5934740900993347e-01" purity="8.2920700311660767e-01" nType="0">
            <Node pos="l" depth="3" NCoef="0" IVar="-1" Cut="0.0000000000000000e+00" cType="1" res="1.7698520794510841e-02" rms="3.4094923734664917e-01" purity="6.3286066055297852e-01" nType="-99"/>
            <Node pos="r" depth="3" NCoef="0" IVar="-1" Cut="0.0000000000000000e+00" cType="1" res="1.1567434296011925e-02" rms="2.1813796460628510e-01" purity="9.0776759386062622e-01" nType="-99"/>
          </Node>
        </Node>
      </Node>
    </BinaryTree>
    <BinaryTree type="DecisionTree" boostWeight="1.0000000000000000e+00" itree="225">
      <Node pos="s" depth="0" NCoef="0" IVar="9" Cut="1.7332980632781982e+00" cType="1" res="-1.1693967098835856e-04" rms="2.8940695524215698e-01" purity="5.0164085626602173e-01" nType="0">
        <Node pos="l" depth="1" NCoef="0" IVar="7" Cut="-3.5329243540763855e-01" cType="1" res="9.2500040773302317e-04" rms="2.9252991080284119e-01" purity="5.2240657806396484e-01" nType="0">
          <Node pos="l" depth="2" NCoef="0" IVar="8" Cut="6.6650897264480591e-01" cType="1" res="-5.2953138947486877e-03" rms="2.8397950530052185e-01" purity="4.4421708583831787e-01" nType="0">
            <Node pos="l" depth="3" NCoef="0" IVar="-1" Cut="0.0000000000000000e+00" cType="1" res="-1.3040757039561868e-03" rms="2.9229420423507690e-01" purity="5.0079798698425293e-01" nType="-99"/>
            <Node pos="r" depth="3" NCoef="0" IVar="-1" Cut="0.0000000000000000e+00" cType="1" res="-2.7907561510801315e-02" rms="2.5175315141677856e-01" purity="2.4361354112625122e-01" nType="-99"/>
          </Node>
          <Node pos="r" depth="2" NCoef="0" IVar="7" Cut="-5.3111016750335693e-02" cType="1" res="4.0953862480819225e-03" rms="2.9674300551414490e-01" purity="5.6225836277008057e-01" nType="0">
            <Node pos="l" depth="3" NCoef="0" IVar="-1" Cut="0.0000000000000000e+00" cType="1" res="1.5432502143085003e-02" rms="3.0484503507614136e-01" purity="6.9076824188232422e-01" nType="-99"/>
            <Node pos="r" depth="3" NCoef="0" IVar="-1" Cut="0.0000000000000000e+00" cType="1" res="1.4783001970499754e-03" rms="2.9441812634468079e-01" purity="5.2698332071304321e-01" nType="-99"/>
          </Node>
        </Node>
        <Node pos="r" depth="1" NCoef="0" IVar="8" Cut="1.3081118464469910e-01" cType="1" res="-1.7389906570315361e-02" rms="2.3089450597763062e-01" purity="1.5739278495311737e-01" nType="0">
          <Node pos="l" depth="2" NCoef="0" IVar="-1" Cut="0.0000000000000000e+00" cType="1" res="-5.2026070654392242e-02" rms="2.1626764535903931e-01" purity="1.5230828523635864e-01" nType="-99"/>
          <Node pos="r" depth="2" NCoef="0" IVar="-1" Cut="0.0000000000000000e+00" cType="1" res="-1.7761953640729189e-03" rms="2.4346038699150085e-01" purity="1.6243410110473633e-01" nType="-99"/>
        </Node>
      </Node>
    </BinaryTree>
    <BinaryTree type="DecisionTree" boostWeight="1.0000000000000000e+00" itree="226">
      <Node pos="s" depth="0" NCoef="0" IVar="8" Cut="-9.3327468633651733e-01" cType="1" res="-1.5460704453289509e-03" rms="2.8843206167221069e-01" purity="5.0275665521621704e-01" nType="0">
        <Node pos="l" depth="1" NCoef="0" IVar="1" Cut="6.9042712450027466e-02" cType="1" res="8.2132555544376373e-03" rms="2.7056023478507996e-01" purity="3.0482950806617737e-01" nType="0">
          <Node pos="l" depth="2" NCoef="0" IVar="3" Cut="2.3982777404785156e+02" cType="1" res="3.4172155428677797e-03" rms="2.5941875576972961e-01" purity="1.6957297921180725e-01" nType="0">
            <Node pos="l" depth="3" NCoef="0" IVar="-1" Cut="0.0000000000000000e+00" cType="1" res="1.6163153573870659e-02" rms="2.4235300719738007e-01" purity="1.2991406023502350e-01" nType="-99"/>
            <Node pos="r" depth="3" NCoef="0" IVar="-1" Cut="0.0000000000000000e+00" cType="1" res="-1.3600038364529610e-02" rms="3.0028110742568970e-01" purity="2.7710068225860596e-01" nType="-99"/>
          </Node>
          <Node pos="r" depth="2" NCoef="0" IVar="-1" Cut="0.0000000000000000e+00" cType="1" res="2.1540803834795952e-02" rms="3.0118945240974426e-01" purity="7.1234160661697388e-01" nType="-99"/>
        </Node>
        <Node pos="r" depth="1" NCoef="0" IVar="0" Cut="1.8645690917968750e+03" cType="1" res="-3.5633430816233158e-03" rms="2.9194912314414978e-01" purity="5.4366850852966309e-01" nType="0">
          <Node pos="l" depth="2" NCoef="0" IVar="2" Cut="4.9253710937500000e+02" cType="1" res="-6.9316513836383820e-03" rms="3.1217795610427856e-01" purity="4.1252174973487854e-01" nType="0">
            <Node pos="l" depth="3" NCoef="0" IVar="-1" Cut="0.0000000000000000e+00" cType="1" res="-3.9481613785028458e-03" rms="3.1185722351074219e-01" purity="4.3266803026199341e-01" nType="-99"/>
            <Node pos="r" depth="3" NCoef="0" IVar="-1" Cut="0.0000000000000000e+00" cType="1" res="-3.1807485967874527e-02" rms="3.1367102265357971e-01" purity="2.3467263579368591e-01" nType="-99"/>
          </Node>
          <Node pos="r" depth="2" NCoef="0" IVar="2" Cut="6.9200524902343750e+02" cType="1" res="5.5309906601905823e-03" rms="2.2830939292907715e-01" purity="8.9776110649108887e-01" nType="0">
            <Node pos="l" depth="3" NCoef="0" IVar="-1" Cut="0.0000000000000000e+00" cType="1" res="5.0757322460412979e-03" rms="2.0318485796451569e-01" purity="9.3208587169647217e-01" nType="-99"/>
            <Node pos="r" depth="3" NCoef="0" IVar="-1" Cut="0.0000000000000000e+00" cType="1" res="1.9144853577017784e-02" rms="3.2889232039451599e-01" purity="7.1923059225082397e-01" nType="-99"/>
          </Node>
        </Node>
      </Node>
    </BinaryTree>
    <BinaryTree type="DecisionTree" boostWeight="1.0000000000000000e+00" itree="227">
      <Node pos="s" depth="0" NCoef="0" IVar="4" Cut="1.4520042419433594e+02" cType="1" res="-6.1152590205892920e-04" rms="2.9209238290786743e-01" purity="4.9576240777969360e-01" nType="0">
        <Node pos="l" depth="1" NCoef="0" IVar="3" Cut="2.8442797851562500e+02" cType="1" res="4.4978745281696320e-03" rms="2.9279425740242004e-01" purity="2.2686743736267090e-01" nType="0">
          <Node pos="l" depth="2" NCoef="0" IVar="3" Cut="1.6390324401855469e+02" cType="1" res="7.2234631516039371e-03" rms="2.8945988416671753e-01" purity="2.1978844702243805e-01" nType="0">
            <Node pos="l" depth="3" NCoef="0" IVar="-1" Cut="0.0000000000000000e+00" cType="1" res="-1.4424953842535615e-03" rms="2.5109282135963440e-01" purity="1.3840717077255249e-01" nType="-99"/>
            <Node pos="r" depth="3" NCoef="0" IVar="-1" Cut="0.0000000000000000e+00" cType="1" res="1.7513195052742958e-02" rms="3.3031439781188965e-01" purity="3.1985384225845337e-01" nType="-99"/>
          </Node>
          <Node pos="r" depth="2" NCoef="0" IVar="-1" Cut="0.0000000000000000e+00" cType="1" res="-2.3425620049238205e-02" rms="3.2429894804954529e-01" purity="3.0100986361503601e-01" nType="-99"/>
        </Node>
        <Node pos="r" depth="1" NCoef="0" IVar="10" Cut="1.4660232067108154e+00" cType="1" res="-4.7092540189623833e-03" rms="2.9146352410316467e-01" purity="7.1141558885574341e-01" nType="0">
          <Node pos="l" depth="2" NCoef="0" IVar="11" Cut="-1.8952993154525757e+00" cType="1" res="-2.2709132172167301e-03" rms="2.8609871864318848e-01" purity="7.2927123308181763e-01" nType="0">
            <Node pos="l" depth="3" NCoef="0" IVar="-1" Cut="0.0000000000000000e+00" cType="1" res="-8.2564568147063255e-03" rms="3.4923443198204041e-01" purity="4.5571526885032654e-01" nType="-99"/>
            <Node pos="r" depth="3" NCoef="0" IVar="-1" Cut="0.0000000000000000e+00" cType="1" res="2.9039413202553988e-03" rms="2.4739165604114532e-01" purity="8.6974614858627319e-01" nType="-99"/>
          </Node>
          <Node pos="r" depth="2" NCoef="0" IVar="-1" Cut="0.0000000000000000e+00" cType="1" res="-2.7587989345192909e-02" rms="3.4133458137512207e-01" purity="5.2548438310623169e-01" nType="-99"/>
        </Node>
      </Node>
    </BinaryTree>
    <BinaryTree type="DecisionTree" boostWeight="1.0000000000000000e+00" itree="228">
      <Node pos="s" depth="0" NCoef="0" IVar="10" Cut="-2.0000016689300537e+00" cType="1" res="1.4822976663708687e-03" rms="2.9221522808074951e-01" purity="4.9842977523803711e-01" nType="0">
        <Node pos="l" depth="1" NCoef="0" IVar="-1" Cut="0.0000000000000000e+00" cType="1" res="2.7355693280696869e-02" rms="2.8415352106094360e-01" purity="2.6759669184684753e-01" nType="-99"/>
        <Node pos="r" depth="1" NCoef="0" IVar="8" Cut="9.3338507413864136e-01" cType="1" res="4.3152587022632360e-04" rms="2.9259461164474487e-01" purity="5.1055145263671875e-01" nType="0">
          <Node pos="l" depth="2" NCoef="0" IVar="9" Cut="-1.7333503961563110e+00" cType="1" res="-1.5765763819217682e-03" rms="2.9424878954887390e-01" purity="5.5387723445892334e-01" nType="0">
            <Node pos="l" depth="3" NCoef="0" IVar="-1" Cut="0.0000000000000000e+00" cType="1" res="2.2721461951732635e-02" rms="2.8189870715141296e-01" purity="2.1802876889705658e-01" nType="-99"/>
            <Node pos="r" depth="3" NCoef="0" IVar="-1" Cut="0.0000000000000000e+00" cType="1" res="-2.9761907644569874e-03" rms="2.9487892985343933e-01" purity="5.7236653566360474e-01" nType="-99"/>
          </Node>
          <Node pos="r" depth="2" NCoef="0" IVar="4" Cut="1.9733119201660156e+02" cType="1" res="1.0282273404300213e-02" rms="2.8413525223731995e-01" purity="2.9801705479621887e-01" nType="0">
            <Node pos="l" depth="3" NCoef="0" IVar="-1" Cut="0.0000000000000000e+00" cType="1" res="2.1804081276059151e-02" rms="2.7642372250556946e-01" purity="2.2447721660137177e-01" nType="-99"/>
            <Node pos="r" depth="3" NCoef="0" IVar="-1" Cut="0.0000000000000000e+00" cType="1" res="-1.5539904125034809e-02" rms="3.1476774811744690e-01" purity="6.2310004234313965e-01" nType="-99"/>
          </Node>
        </Node>
      </Node>
    </BinaryTree>
    <BinaryTree type="DecisionTree" boostWeight="1.0000000000000000e+00" itree="229">
      <Node pos="s" depth="0" NCoef="0" IVar="10" Cut="1.7333177328109741e+00" cType="1" res="-5.7706248480826616e-04" rms="2.8708481788635254e-01" purity="4.9747776985168457e-01" nType="0">
        <Node pos="l" depth="1" NCoef="0" IVar="10" Cut="1.5174343585968018e+00" cType="1" res="5.4288166575133801e-04" rms="2.8786998987197876e-01" purity="5.1709282398223877e-01" nType="0">
          <Node pos="l" depth="2" NCoef="0" IVar="8" Cut="1.7333177328109741e+00" cType="1" res="-4.5699271140620112e-04" rms="2.8673315048217773e-01" purity="5.1992481946945190e-01" nType="0">
            <Node pos="l" depth="3" NCoef="0" IVar="-1" Cut="0.0000000000000000e+00" cType="1" res="5.9575313935056329e-04" rms="2.9066061973571777e-01" purity="5.3934019804000854e-01" nType="-99"/>
            <Node pos="r" depth="3" NCoef="0" IVar="-1" Cut="0.0000000000000000e+00" cType="1" res="-4.7637518495321274e-02" rms="1.7468737065792084e-01" purity="8.1610456109046936e-02" nType="-99"/>
          </Node>
          <Node pos="r" depth="2" NCoef="0" IVar="-1" Cut="0.0000000000000000e+00" cType="1" res="3.3650811761617661e-02" rms="3.1828159093856812e-01" purity="4.3324783444404602e-01" nType="-99"/>
        </Node>
        <Node pos="r" depth="1" NCoef="0" IVar="4" Cut="1.2369404602050781e+02" cType="1" res="-1.3779603876173496e-02" rms="2.7732089161872864e-01" purity="2.6624405384063721e-01" nType="0">
          <Node pos="l" depth="2" NCoef="0" IVar="-1" Cut="0.0000000000000000e+00" cType="1" res="-5.1755714230239391e-03" rms="2.2281709313392639e-01" purity="8.5821077227592468e-02" nType="-99"/>
          <Node pos="r" depth="2" NCoef="0" IVar="-1" Cut="0.0000000000000000e+00" cType="1" res="-2.1991536021232605e-02" rms="3.1450042128562927e-01" purity="4.1307508945465088e-01" nType="-99"/>
        </Node>
      </Node>
    </BinaryTree>
    <BinaryTree type="DecisionTree" boostWeight="1.0000000000000000e+00" itree="230">
      <Node pos="s" depth="0" NCoef="0" IVar="4" Cut="1.9312528991699219e+02" cType="1" res="-8.6091848788782954e-04" rms="2.8944122791290283e-01" purity="4.9696493148803711e-01" nType="0">
        <Node pos="l" depth="1" NCoef="0" IVar="8" Cut="-1.3314287364482880e-01" cType="1" res="2.2120801731944084e-03" rms="2.9654681682586670e-01" purity="3.6624467372894287e-01" nType="0">
          <Node pos="l" depth="2" NCoef="0" IVar="4" Cut="1.7296026611328125e+02" cType="1" res="-3.3939785789698362e-03" rms="2.8901520371437073e-01" purity="3.4757611155509949e-01" nType="0">
            <Node pos="l" depth="3" NCoef="0" IVar="-1" Cut="0.0000000000000000e+00" cType="1" res="-8.1138880923390388e-03" rms="2.8624880313873291e-01" purity="2.8886348009109497e-01" nType="-99"/>
            <Node pos="r" depth="3" NCoef="0" IVar="-1" Cut="0.0000000000000000e+00" cType="1" res="1.8348455429077148e-02" rms="3.0405002832412720e-01" purity="6.9570732116699219e-01" nType="-99"/>
          </Node>
          <Node pos="r" depth="2" NCoef="0" IVar="8" Cut="1.2636309862136841e+00" cType="1" res="6.7973043769598007e-03" rms="3.0249035358428955e-01" purity="3.8151377439498901e-01" nType="0">
            <Node pos="l" depth="3" NCoef="0" IVar="-1" Cut="0.0000000000000000e+00" cType="1" res="1.0486071929335594e-02" rms="3.2111981511116028e-01" purity="4.6045240759849548e-01" nType="-99"/>
            <Node pos="r" depth="3" NCoef="0" IVar="-1" Cut="0.0000000000000000e+00" cType="1" res="-8.5066640749573708e-03" rms="2.3198878765106201e-01" purity="1.2669673562049866e-01" nType="-99"/>
          </Node>
        </Node>
        <Node pos="r" depth="1" NCoef="0" IVar="0" Cut="2.4155251464843750e+03" cType="1" res="-7.9572219401597977e-03" rms="2.7219271659851074e-01" purity="7.9883003234863281e-01" nType="0">
          <Node pos="l" depth="2" NCoef="0" IVar="7" Cut="-8.3631414175033569e-01" cType="1" res="-1.4143795706331730e-02" rms="2.8596216440200806e-01" purity="7.6575791835784912e-01" nType="0">
            <Node pos="l" depth="3" NCoef="0" IVar="-1" Cut="0.0000000000000000e+00" cType="1" res="-4.1778188198804855e-02" rms="3.0751010775566101e-01" purity="5.3059715032577515e-01" nType="-99"/>
            <Node pos="r" depth="3" NCoef="0" IVar="-1" Cut="0.0000000000000000e+00" cType="1" res="-1.3180610723793507e-02" rms="2.8282725811004639e-01" purity="7.9639422893524170e-01" nType="-99"/>
          </Node>
          <Node pos="r" depth="2" NCoef="0" IVar="10" Cut="1.3192047178745270e-01" cType="1" res="1.8010811880230904e-02" rms="2.0247016847133636e-01" purity="9.3764942884445190e-01" nType="0">
            <Node pos="l" depth="3" NCoef="0" IVar="-1" Cut="0.0000000000000000e+00" cType="1" res="1.1030205525457859e-02" rms="1.9043241441249847e-01" purity="9.3507516384124756e-01" nType="-99"/>
            <Node pos="r" depth="3" NCoef="0" IVar="-1" Cut="0.0000000000000000e+00" cType="1" res="5.5091295391321182e-02" rms="2.1366630494594574e-01" purity="9.4038397073745728e-01" nType="-99"/>
          </Node>
        </Node>
      </Node>
    </BinaryTree>
    <BinaryTree type="DecisionTree" boostWeight="1.0000000000000000e+00" itree="231">
      <Node pos="s" depth="0" NCoef="0" IVar="2" Cut="3.2583752441406250e+02" cType="1" res="2.3368597030639648e-03" rms="2.9206523299217224e-01" purity="4.9612823128700256e-01" nType="0">
        <Node pos="l" depth="1" NCoef="0" IVar="2" Cut="2.8987576293945312e+02" cType="1" res="7.1607539430260658e-03" rms="2.9320371150970459e-01" purity="4.2574515938758850e-01" nType="0">
          <Node pos="l" depth="2" NCoef="0" IVar="9" Cut="9.3242007493972778e-01" cType="1" res="1.3014550320804119e-02" rms="2.9688596725463867e-01" purity="4.0565711259841919e-01" nType="0">
            <Node pos="l" depth="3" NCoef="0" IVar="-1" Cut="0.0000000000000000e+00" cType="1" res="2.0275400951504707e-02" rms="3.0012950301170349e-01" purity="4.4284814596176147e-01" nType="-99"/>
            <Node pos="r" depth="3" NCoef="0" IVar="-1" Cut="0.0000000000000000e+00" cType="1" res="-7.4252779595553875e-03" rms="2.8370589017868042e-01" purity="2.6740196347236633e-01" nType="-99"/>
          </Node>
          <Node pos="r" depth="2" NCoef="0" IVar="7" Cut="1.7075593769550323e-01" cType="1" res="-8.4304790943861008e-03" rms="2.8257176280021667e-01" purity="4.7924846410751343e-01" nType="0">
            <Node pos="l" depth="3" NCoef="0" IVar="-1" Cut="0.0000000000000000e+00" cType="1" res="3.4836893901228905e-03" rms="2.8552493453025818e-01" purity="5.1666361093521118e-01" nType="-99"/>
            <Node pos="r" depth="3" NCoef="0" IVar="-1" Cut="0.0000000000000000e+00" cType="1" res="-2.9890568926930428e-02" rms="2.7736404538154602e-01" purity="4.2447602748870850e-01" nType="-99"/>
          </Node>
        </Node>
        <Node pos="r" depth="1" NCoef="0" IVar="3" Cut="2.1455513000488281e+02" cType="1" res="-1.2576467124745250e-03" rms="2.9116201400756836e-01" purity="5.4857391119003296e-01" nType="0">
          <Node pos="l" depth="2" NCoef="0" IVar="9" Cut="1.2003024816513062e+00" cType="1" res="-1.1971419677138329e-02" rms="2.8609171509742737e-01" purity="2.7128216624259949e-01" nType="0">
            <Node pos="l" depth="3" NCoef="0" IVar="-1" Cut="0.0000000000000000e+00" cType="1" res="-2.1007310599088669e-02" rms="2.8838339447975159e-01" purity="2.8630340099334717e-01" nType="-99"/>
            <Node pos="r" depth="3" NCoef="0" IVar="-1" Cut="0.0000000000000000e+00" cType="1" res="2.5804702192544937e-02" rms="2.7197530865669250e-01" purity="1.9261375069618225e-01" nType="-99"/>
          </Node>
          <Node pos="r" depth="2" NCoef="0" IVar="0" Cut="2.7596159667968750e+03" cType="1" res="3.7987970281392336e-03" rms="2.9338869452476501e-01" purity="6.7944377660751343e-01" nType="0">
            <Node pos="l" depth="3" NCoef="0" IVar="-1" Cut="0.0000000000000000e+00" cType="1" res="2.5299775879830122e-03" rms="2.9817423224449158e-01" purity="6.6255229711532593e-01" nType="-99"/>
            <Node pos="r" depth="3" NCoef="0" IVar="-1" Cut="0.0000000000000000e+00" cType="1" res="4.1169255971908569e-02" rms="2.1208637952804565e-01" purity="9.2145192623138428e-01" nType="-99"/>
          </Node>
        </Node>
      </Node>
    </BinaryTree>
    <BinaryTree type="DecisionTree" boostWeight="1.0000000000000000e+00" itree="232">
      <Node pos="s" depth="0" NCoef="0" IVar="7" Cut="-3.9082282781600952e-01" cType="1" res="-1.2949927477166057e-03" rms="2.8801253437995911e-01" purity="5.0034242868423462e-01" nType="0">
        <Node pos="l" depth="1" NCoef="0" IVar="8" Cut="-1.4661920070648193e+00" cType="1" res="5.0487439148128033e-03" rms="2.8371280431747437e-01" purity="4.1175660490989685e-01" nType="0">
          <Node pos="l" depth="2" NCoef="0" IVar="-1" Cut="0.0000000000000000e+00" cType="1" res="-2.5565734133124352e-02" rms="1.9806535542011261e-01" purity="1.0789877176284790e-01" nType="-99"/>
          <Node pos="r" depth="2" NCoef="0" IVar="7" Cut="-1.7576091289520264e+00" cType="1" res="6.8077398464083672e-03" rms="2.9078420996665955e-01" purity="4.4192478060722351e-01" nType="0">
            <Node pos="l" depth="3" NCoef="0" IVar="-1" Cut="0.0000000000000000e+00" cType="1" res="-2.8228079900145531e-02" rms="1.6560530662536621e-01" purity="7.5144417583942413e-02" nType="-99"/>
            <Node pos="r" depth="3" NCoef="0" IVar="-1" Cut="0.0000000000000000e+00" cType="1" res="9.6625583246350288e-03" rms="3.0165156722068787e-01" purity="4.8352140188217163e-01" nType="-99"/>
          </Node>
        </Node>
        <Node pos="r" depth="1" NCoef="0" IVar="7" Cut="2.1666237711906433e-01" cType="1" res="-4.3105115182697773e-03" rms="2.8998541831970215e-01" purity="5.4245197772979736e-01" nType="0">
          <Node pos="l" depth="2" NCoef="0" IVar="8" Cut="-1.1991336345672607e+00" cType="1" res="-9.8473895341157913e-03" rms="2.9564937949180603e-01" purity="6.5628230571746826e-01" nType="0">
            <Node pos="l" depth="3" NCoef="0" IVar="-1" Cut="0.0000000000000000e+00" cType="1" res="1.5906672924757004e-02" rms="2.9460602998733521e-01" purity="3.8246506452560425e-01" nType="-99"/>
            <Node pos="r" depth="3" NCoef="0" IVar="-1" Cut="0.0000000000000000e+00" cType="1" res="-1.3948366045951843e-02" rms="2.9563927650451660e-01" purity="6.8418002128601074e-01" nType="-99"/>
          </Node>
          <Node pos="r" depth="2" NCoef="0" IVar="6" Cut="5.7308734893798828e+01" cType="1" res="-5.7490653125569224e-04" rms="2.8604018688201904e-01" purity="4.6565330028533936e-01" nType="0">
            <Node pos="l" depth="3" NCoef="0" IVar="-1" Cut="0.0000000000000000e+00" cType="1" res="-9.0749384835362434e-03" rms="2.8983235359191895e-01" purity="2.3093904554843903e-01" nType="-99"/>
            <Node pos="r" depth="3" NCoef="0" IVar="-1" Cut="0.0000000000000000e+00" cType="1" res="1.2102469801902771e-02" rms="2.8036794066429138e-01" purity="7.9090702533721924e-01" nType="-99"/>
          </Node>
        </Node>
      </Node>
    </BinaryTree>
    <BinaryTree type="DecisionTree" boostWeight="1.0000000000000000e+00" itree="233">
      <Node pos="s" depth="0" NCoef="0" IVar="8" Cut="-1.1998845338821411e+00" cType="1" res="-8.6942536290735006e-04" rms="2.8666281700134277e-01" purity="5.0019490718841553e-01" nType="0">
        <Node pos="l" depth="1" NCoef="0" IVar="10" Cut="6.6592359542846680e-01" cType="1" res="-9.8715228959918022e-03" rms="2.4665890634059906e-01" purity="1.9775450229644775e-01" nType="0">
          <Node pos="l" depth="2" NCoef="0" IVar="9" Cut="-6.6397356986999512e-01" cType="1" res="-1.5817308798432350e-02" rms="2.4574749171733856e-01" purity="1.9901967048645020e-01" nType="0">
            <Node pos="l" depth="3" NCoef="0" IVar="-1" Cut="0.0000000000000000e+00" cType="1" res="-3.5834901500493288e-03" rms="2.4962708353996277e-01" purity="1.7791190743446350e-01" nType="-99"/>
            <Node pos="r" depth="3" NCoef="0" IVar="-1" Cut="0.0000000000000000e+00" cType="1" res="-3.3200327306985855e-02" rms="2.4306496977806091e-01" purity="2.1152144670486450e-01" nType="-99"/>
          </Node>
          <Node pos="r" depth="2" NCoef="0" IVar="-1" Cut="0.0000000000000000e+00" cType="1" res="1.0165428742766380e-02" rms="2.4843063950538635e-01" purity="1.9423130154609680e-01" nType="-99"/>
        </Node>
        <Node pos="r" depth="1" NCoef="0" IVar="7" Cut="-1.4535295963287354e+00" cType="1" res="2.9354984872043133e-04" rms="2.9141035676002502e-01" purity="5.3926694393157959e-01" nType="0">
          <Node pos="l" depth="2" NCoef="0" IVar="-1" Cut="0.0000000000000000e+00" cType="1" res="-2.6579417288303375e-02" rms="2.0186239480972290e-01" purity="9.3643099069595337e-02" nType="-99"/>
          <Node pos="r" depth="2" NCoef="0" IVar="9" Cut="1.4663476943969727e+00" cType="1" res="1.0947185801342130e-03" rms="2.9576757550239563e-01" purity="5.6519573926925659e-01" nType="0">
            <Node pos="l" depth="3" NCoef="0" IVar="-1" Cut="0.0000000000000000e+00" cType="1" res="2.3336207959800959e-03" rms="2.9782009124755859e-01" purity="5.9256184101104736e-01" nType="-99"/>
            <Node pos="r" depth="3" NCoef="0" IVar="-1" Cut="0.0000000000000000e+00" cType="1" res="-1.1907160282135010e-02" rms="2.7176049351692200e-01" purity="2.6213464140892029e-01" nType="-99"/>
          </Node>
        </Node>
      </Node>
    </BinaryTree>
    <BinaryTree type="DecisionTree" boostWeight="1.0000000000000000e+00" itree="234">
      <Node pos="s" depth="0" NCoef="0" IVar="10" Cut="-2.2666616439819336e+00" cType="1" res="2.0036739297211170e-03" rms="2.9226386547088623e-01" purity="4.9781629443168640e-01" nType="0">
        <Node pos="l" depth="1" NCoef="0" IVar="-1" Cut="0.0000000000000000e+00" cType="1" res="-4.0417503565549850e-02" rms="2.5766396522521973e-01" purity="1.5584582090377808e-01" nType="-99"/>
        <Node pos="r" depth="1" NCoef="0" IVar="1" Cut="6.3559107482433319e-02" cType="1" res="2.8790349606424570e-03" rms="2.9317840933799744e-01" purity="5.0791889429092407e-01" nType="0">
          <Node pos="l" depth="2" NCoef="0" IVar="10" Cut="1.1109479665756226e+00" cType="1" res="6.3247270882129669e-03" rms="2.9246231913566589e-01" purity="2.9042649269104004e-01" nType="0">
            <Node pos="l" depth="3" NCoef="0" IVar="-1" Cut="0.0000000000000000e+00" cType="1" res="1.0183196514844894e-02" rms="2.9638960957527161e-01" purity="3.1880745291709900e-01" nType="-99"/>
            <Node pos="r" depth="3" NCoef="0" IVar="-1" Cut="0.0000000000000000e+00" cType="1" res="-5.3589860908687115e-03" rms="2.7651605010032654e-01" purity="1.8072181940078735e-01" nType="-99"/>
          </Node>
          <Node pos="r" depth="2" NCoef="0" IVar="10" Cut="1.5929576158523560e+00" cType="1" res="-1.2405655579641461e-03" rms="2.9397925734519958e-01" purity="7.6794844865798950e-01" nType="0">
            <Node pos="l" depth="3" NCoef="0" IVar="-1" Cut="0.0000000000000000e+00" cType="1" res="-4.1708122007548809e-03" rms="2.8842443227767944e-01" purity="7.8130561113357544e-01" nType="-99"/>
            <Node pos="r" depth="3" NCoef="0" IVar="-1" Cut="0.0000000000000000e+00" cType="1" res="2.0927475765347481e-02" rms="3.5041096806526184e-01" purity="6.1494898796081543e-01" nType="-99"/>
          </Node>
        </Node>
      </Node>
    </BinaryTree>
    <BinaryTree type="DecisionTree" boostWeight="1.0000000000000000e+00" itree="235">
      <Node pos="s" depth="0" NCoef="0" IVar="1" Cut="4.2262583971023560e-02" cType="1" res="1.9862712360918522e-03" rms="2.8908857703208923e-01" purity="5.0236845016479492e-01" nType="0">
        <Node pos="l" depth="1" NCoef="0" IVar="1" Cut="3.6226283758878708e-02" cType="1" res="5.9825689531862736e-03" rms="2.7250733971595764e-01" purity="2.1837599575519562e-01" nType="0">
          <Node pos="l" depth="2" NCoef="0" IVar="0" Cut="1.3947564697265625e+03" cType="1" res="2.4400509428232908e-03" rms="2.6270470023155212e-01" purity="1.8875348567962646e-01" nType="0">
            <Node pos="l" depth="3" NCoef="0" IVar="-1" Cut="0.0000000000000000e+00" cType="1" res="-1.0054786689579487e-02" rms="1.9693297147750854e-01" purity="5.4734256118535995e-02" nType="-99"/>
            <Node pos="r" depth="3" NCoef="0" IVar="-1" Cut="0.0000000000000000e+00" cType="1" res="1.1011196300387383e-02" rms="3.3869895339012146e-01" purity="3.9213362336158752e-01" nType="-99"/>
          </Node>
          <Node pos="r" depth="2" NCoef="0" IVar="-1" Cut="0.0000000000000000e+00" cType="1" res="3.1516473740339279e-02" rms="3.4073776006698608e-01" purity="4.5991116762161255e-01" nType="-99"/>
        </Node>
        <Node pos="r" depth="1" NCoef="0" IVar="10" Cut="1.4662292003631592e+00" cType="1" res="-8.6915097199380398e-04" rms="3.0034345388412476e-01" purity="7.0528578758239746e-01" nType="0">
          <Node pos="l" depth="2" NCoef="0" IVar="1" Cut="1.7606522142887115e-01" cType="1" res="-2.8071731794625521e-03" rms="2.9449754953384399e-01" purity="7.2197109460830688e-01" nType="0">
            <Node pos="l" depth="3" NCoef="0" IVar="-1" Cut="0.0000000000000000e+00" cType="1" res="-5.9407236985862255e-03" rms="3.0887061357498169e-01" purity="6.7817562818527222e-01" nType="-99"/>
            <Node pos="r" depth="3" NCoef="0" IVar="-1" Cut="0.0000000000000000e+00" cType="1" res="2.0745836198329926e-02" rms="2.1436159312725067e-01" purity="9.2679077386856079e-01" nType="-99"/>
          </Node>
          <Node pos="r" depth="2" NCoef="0" IVar="-1" Cut="0.0000000000000000e+00" cType="1" res="1.4638285152614117e-02" rms="3.4823751449584961e-01" purity="5.5460554361343384e-01" nType="-99"/>
        </Node>
      </Node>
    </BinaryTree>
    <BinaryTree type="DecisionTree" boostWeight="1.0000000000000000e+00" itree="236">
      <Node pos="s" depth="0" NCoef="0" IVar="7" Cut="-3.8012185692787170e-01" cType="1" res="5.5336434161290526e-04" rms="2.9074856638908386e-01" purity="5.0099700689315796e-01" nType="0">
        <Node pos="l" depth="1" NCoef="0" IVar="5" Cut="9.0401367187500000e+01" cType="1" res="6.4368173480033875e-03" rms="2.8531318902969360e-01" purity="4.2418068647384644e-01" nType="0">
          <Node pos="l" depth="2" NCoef="0" IVar="9" Cut="9.3361157178878784e-01" cType="1" res="1.5106402337551117e-02" rms="2.9115951061248779e-01" purity="2.4104709923267365e-01" nType="0">
            <Node pos="l" depth="3" NCoef="0" IVar="-1" Cut="0.0000000000000000e+00" cType="1" res="2.3289779201149940e-02" rms="3.0422559380531311e-01" purity="2.6787683367729187e-01" nType="-99"/>
            <Node pos="r" depth="3" NCoef="0" IVar="-1" Cut="0.0000000000000000e+00" cType="1" res="-8.8201612234115601e-03" rms="2.2889962792396545e-01" purity="1.3119459152221680e-01" nType="-99"/>
          </Node>
          <Node pos="r" depth="2" NCoef="0" IVar="0" Cut="1.5982646484375000e+03" cType="1" res="-9.5761930570006371e-03" rms="2.7346560359001160e-01" purity="7.6243454217910767e-01" nType="0">
            <Node pos="l" depth="3" NCoef="0" IVar="-1" Cut="0.0000000000000000e+00" cType="1" res="-3.0336810275912285e-02" rms="3.3794474601745605e-01" purity="4.9038684368133545e-01" nType="-99"/>
            <Node pos="r" depth="3" NCoef="0" IVar="-1" Cut="0.0000000000000000e+00" cType="1" res="4.7762109898030758e-03" rms="2.3865889012813568e-01" purity="8.8192307949066162e-01" nType="-99"/>
          </Node>
        </Node>
        <Node pos="r" depth="1" NCoef="0" IVar="10" Cut="1.4664655923843384e+00" cType="1" res="-2.3985863663256168e-03" rms="2.9339331388473511e-01" purity="5.3953862190246582e-01" nType="0">
          <Node pos="l" depth="2" NCoef="0" IVar="5" Cut="8.7484733581542969e+01" cType="1" res="-8.3445274503901601e-04" rms="2.9250672459602356e-01" purity="5.6532907485961914e-01" nType="0">
            <Node pos="l" depth="3" NCoef="0" IVar="-1" Cut="0.0000000000000000e+00" cType="1" res="-5.0300979055464268e-03" rms="3.1804704666137695e-01" purity="3.1669613718986511e-01" nType="-99"/>
            <Node pos="r" depth="3" NCoef="0" IVar="-1" Cut="0.0000000000000000e+00" cType="1" res="5.9302281588315964e-03" rms="2.6006814837455750e-01" purity="8.5042959451675415e-01" nType="-99"/>
          </Node>
          <Node pos="r" depth="2" NCoef="0" IVar="2" Cut="4.0863824462890625e+02" cType="1" res="-1.4508368447422981e-02" rms="2.9989287257194519e-01" purity="3.3986428380012512e-01" nType="0">
            <Node pos="l" depth="3" NCoef="0" IVar="-1" Cut="0.0000000000000000e+00" cType="1" res="-3.2613217830657959e-02" rms="2.9178676009178162e-01" purity="2.7196884155273438e-01" nType="-99"/>
            <Node pos="r" depth="3" NCoef="0" IVar="-1" Cut="0.0000000000000000e+00" cType="1" res="1.0839795693755150e-02" rms="3.1337884068489075e-01" purity="4.7106248140335083e-01" nType="-99"/>
          </Node>
        </Node>
      </Node>
    </BinaryTree>
    <BinaryTree type="DecisionTree" boostWeight="1.0000000000000000e+00" itree="237">
      <Node pos="s" depth="0" NCoef="0" IVar="10" Cut="-4.0011471509933472e-01" cType="1" res="-1.4516540104523301e-03" rms="2.8860881924629211e-01" purity="4.9344739317893982e-01" nType="0">
        <Node pos="l" depth="1" NCoef="0" IVar="0" Cut="1.8374674072265625e+03" cType="1" res="-8.1778177991509438e-03" rms="2.8493919968605042e-01" purity="4.6216601133346558e-01" nType="0">
          <Node pos="l" depth="2" NCoef="0" IVar="1" Cut="3.9003670215606689e-02" cType="1" res="-1.2077056802809238e-02" rms="2.9467600584030151e-01" purity="3.2858189940452576e-01" nType="0">
            <Node pos="l" depth="3" NCoef="0" IVar="-1" Cut="0.0000000000000000e+00" cType="1" res="-2.5115218013525009e-03" rms="2.3407129943370819e-01" purity="1.0699284076690674e-01" nType="-99"/>
            <Node pos="r" depth="3" NCoef="0" IVar="-1" Cut="0.0000000000000000e+00" cType="1" res="-1.8094839528203011e-02" rms="3.3986914157867432e-01" purity="5.2820968627929688e-01" nType="-99"/>
          </Node>
          <Node pos="r" depth="2" NCoef="0" IVar="10" Cut="-9.7146356105804443e-01" cType="1" res="3.5477769561111927e-03" rms="2.5305330753326416e-01" purity="8.6387348175048828e-01" nType="0">
            <Node pos="l" depth="3" NCoef="0" IVar="-1" Cut="0.0000000000000000e+00" cType="1" res="1.9140994176268578e-02" rms="2.7932044863700867e-01" purity="8.3521240949630737e-01" nType="-99"/>
            <Node pos="r" depth="3" NCoef="0" IVar="-1" Cut="0.0000000000000000e+00" cType="1" res="-1.4987147413194180e-02" rms="2.2313137352466583e-01" purity="8.9257532358169556e-01" nType="-99"/>
          </Node>
        </Node>
        <Node pos="r" depth="1" NCoef="0" IVar="7" Cut="-3.9149475097656250e-01" cType="1" res="2.6216988917440176e-03" rms="2.9073297977447510e-01" purity="5.1239132881164551e-01" nType="0">
          <Node pos="l" depth="2" NCoef="0" IVar="4" Cut="1.4035153198242188e+02" cType="1" res="-6.4376867376267910e-03" rms="2.7826282382011414e-01" purity="4.2631053924560547e-01" nType="0">
            <Node pos="l" depth="3" NCoef="0" IVar="-1" Cut="0.0000000000000000e+00" cType="1" res="-3.1399764120578766e-02" rms="2.5207385420799255e-01" purity="1.3664381206035614e-01" nType="-99"/>
            <Node pos="r" depth="3" NCoef="0" IVar="-1" Cut="0.0000000000000000e+00" cType="1" res="5.5523444898426533e-03" rms="2.9641094803810120e-01" purity="6.5023493766784668e-01" nType="-99"/>
          </Node>
          <Node pos="r" depth="2" NCoef="0" IVar="9" Cut="6.6672044992446899e-01" cType="1" res="6.3848365098237991e-03" rms="2.9567676782608032e-01" purity="5.4814809560775757e-01" nType="0">
            <Node pos="l" depth="3" NCoef="0" IVar="-1" Cut="0.0000000000000000e+00" cType="1" res="1.3220417313277721e-02" rms="2.9383429884910583e-01" purity="5.9246623516082764e-01" nType="-99"/>
            <Node pos="r" depth="3" NCoef="0" IVar="-1" Cut="0.0000000000000000e+00" cType="1" res="-6.5985559485852718e-03" rms="2.9982310533523560e-01" purity="4.3874421715736389e-01" nType="-99"/>
          </Node>
        </Node>
      </Node>
    </BinaryTree>
    <BinaryTree type="DecisionTree" boostWeight="1.0000000000000000e+00" itree="238">
      <Node pos="s" depth="0" NCoef="0" IVar="2" Cut="6.8285015869140625e+02" cType="1" res="2.6209496427327394e-03" rms="2.9244527220726013e-01" purity="4.9734580516815186e-01" nType="0">
        <Node pos="l" depth="1" NCoef="0" IVar="3" Cut="1.7322885131835938e+02" cType="1" res="3.7440226878970861e-03" rms="2.9064485430717468e-01" purity="4.9385318160057068e-01" nType="0">
          <Node pos="l" depth="2" NCoef="0" IVar="0" Cut="1.0465103759765625e+03" cType="1" res="1.0003392584621906e-02" rms="2.6921465992927551e-01" purity="1.9713193178176880e-01" nType="0">
            <Node pos="l" depth="3" NCoef="0" IVar="-1" Cut="0.0000000000000000e+00" cType="1" res="-7.7584977261722088e-03" rms="1.6715270280838013e-01" purity="3.0528428032994270e-02" nType="-99"/>
            <Node pos="r" depth="3" NCoef="0" IVar="-1" Cut="0.0000000000000000e+00" cType="1" res="1.8804078921675682e-02" rms="3.1359550356864929e-01" purity="2.9441279172897339e-01" nType="-99"/>
          </Node>
          <Node pos="r" depth="2" NCoef="0" IVar="2" Cut="2.4599197387695312e+02" cType="1" res="1.2378348037600517e-03" rms="2.9875791072845459e-01" purity="6.1265736818313599e-01" nType="0">
            <Node pos="l" depth="3" NCoef="0" IVar="-1" Cut="0.0000000000000000e+00" cType="1" res="-1.4869609847664833e-02" rms="3.1104785203933716e-01" purity="4.9222880601882935e-01" nType="-99"/>
            <Node pos="r" depth="3" NCoef="0" IVar="-1" Cut="0.0000000000000000e+00" cType="1" res="3.7745994050055742e-03" rms="2.9704394936561584e-01" purity="6.2845575809478760e-01" nType="-99"/>
          </Node>
        </Node>
        <Node pos="r" depth="1" NCoef="0" IVar="-1" Cut="0.0000000000000000e+00" cType="1" res="-1.9839907065033913e-02" rms="3.2677894830703735e-01" purity="5.6997877359390259e-01" nType="-99"/>
      </Node>
    </BinaryTree>
    <BinaryTree type="DecisionTree" boostWeight="1.0000000000000000e+00" itree="239">
      <Node pos="s" depth="0" NCoef="0" IVar="10" Cut="-2.2661163806915283e+00" cType="1" res="1.5833842335268855e-03" rms="2.9153022170066833e-01" purity="5.0634145736694336e-01" nType="0">
        <Node pos="l" depth="1" NCoef="0" IVar="-1" Cut="0.0000000000000000e+00" cType="1" res="-2.7439339086413383e-02" rms="2.5508537888526917e-01" purity="1.7188528180122375e-01" nType="-99"/>
        <Node pos="r" depth="1" NCoef="0" IVar="10" Cut="-1.3011757135391235e+00" cType="1" res="2.1212524734437466e-03" rms="2.9248252511024475e-01" purity="5.1585423946380615e-01" nType="0">
          <Node pos="l" depth="2" NCoef="0" IVar="11" Cut="-2.4476792812347412e+00" cType="1" res="9.9878460168838501e-03" rms="2.9079648852348328e-01" purity="4.0075796842575073e-01" nType="0">
            <Node pos="l" depth="3" NCoef="0" IVar="-1" Cut="0.0000000000000000e+00" cType="1" res="-2.5051855482161045e-04" rms="2.7302196621894836e-01" purity="1.7285965383052826e-01" nType="-99"/>
            <Node pos="r" depth="3" NCoef="0" IVar="-1" Cut="0.0000000000000000e+00" cType="1" res="2.2526014596223831e-02" rms="3.1104752421379089e-01" purity="6.8450218439102173e-01" nType="-99"/>
          </Node>
          <Node pos="r" depth="2" NCoef="0" IVar="2" Cut="5.5559307861328125e+02" cType="1" res="1.0216670343652368e-03" rms="2.9270058870315552e-01" purity="5.3194230794906616e-01" nType="0">
            <Node pos="l" depth="3" NCoef="0" IVar="-1" Cut="0.0000000000000000e+00" cType="1" res="3.0562633182853460e-03" rms="2.9132702946662903e-01" purity="5.2082508802413940e-01" nType="-99"/>
            <Node pos="r" depth="3" NCoef="0" IVar="-1" Cut="0.0000000000000000e+00" cType="1" res="-9.8656956106424332e-03" rms="3.0151402950286865e-01" purity="6.0621255636215210e-01" nType="-99"/>
          </Node>
        </Node>
      </Node>
    </BinaryTree>
    <BinaryTree type="DecisionTree" boostWeight="1.0000000000000000e+00" itree="240">
      <Node pos="s" depth="0" NCoef="0" IVar="4" Cut="1.4277555847167969e+02" cType="1" res="-1.2627500109374523e-03" rms="2.8983011841773987e-01" purity="4.9993935227394104e-01" nType="0">
        <Node pos="l" depth="1" NCoef="0" IVar="5" Cut="8.3791305541992188e+01" cType="1" res="3.2527509611099958e-03" rms="2.8521603345870972e-01" purity="2.2320000827312469e-01" nType="0">
          <Node pos="l" depth="2" NCoef="0" IVar="7" Cut="9.4315266609191895e-01" cType="1" res="5.5586588568985462e-03" rms="2.7450534701347351e-01" purity="1.5250235795974731e-01" nType="0">
            <Node pos="l" depth="3" NCoef="0" IVar="-1" Cut="0.0000000000000000e+00" cType="1" res="1.1029317975044250e-02" rms="2.9739016294479370e-01" purity="1.8227958679199219e-01" nType="-99"/>
            <Node pos="r" depth="3" NCoef="0" IVar="-1" Cut="0.0000000000000000e+00" cType="1" res="-2.4593848735094070e-02" rms="1.6027781367301941e-01" purity="4.0026158094406128e-02" nType="-99"/>
          </Node>
          <Node pos="r" depth="2" NCoef="0" IVar="10" Cut="1.3383731245994568e-01" cType="1" res="-7.9858181998133659e-03" rms="3.3228671550750732e-01" purity="5.6776732206344604e-01" nType="0">
            <Node pos="l" depth="3" NCoef="0" IVar="-1" Cut="0.0000000000000000e+00" cType="1" res="5.5570518597960472e-03" rms="3.2861840724945068e-01" purity="5.7338768243789673e-01" nType="-99"/>
            <Node pos="r" depth="3" NCoef="0" IVar="-1" Cut="0.0000000000000000e+00" cType="1" res="-2.1525053307414055e-02" rms="3.3581441640853882e-01" purity="5.6105566024780273e-01" nType="-99"/>
          </Node>
        </Node>
        <Node pos="r" depth="1" NCoef="0" IVar="9" Cut="-1.2000806331634521e+00" cType="1" res="-4.6856394037604332e-03" rms="2.9323306679725647e-01" purity="7.0971632003784180e-01" nType="0">
          <Node pos="l" depth="2" NCoef="0" IVar="9" Cut="-1.5810253620147705e+00" cType="1" res="-2.2812016308307648e-02" rms="3.1188544631004333e-01" purity="4.7723445296287537e-01" nType="0">
            <Node pos="l" depth="3" NCoef="0" IVar="-1" Cut="0.0000000000000000e+00" cType="1" res="-3.5225801169872284e-02" rms="2.9480478167533875e-01" purity="3.3698961138725281e-01" nType="-99"/>
            <Node pos="r" depth="3" NCoef="0" IVar="-1" Cut="0.0000000000000000e+00" cType="1" res="-1.2503844685852528e-02" rms="3.2598671317100525e-01" purity="6.0190403461456299e-01" nType="-99"/>
          </Node>
          <Node pos="r" depth="2" NCoef="0" IVar="5" Cut="8.4529617309570312e+01" cType="1" res="-2.7159519959241152e-03" rms="2.9106625914573669e-01" purity="7.3497879505157471e-01" nType="0">
            <Node pos="l" depth="3" NCoef="0" IVar="-1" Cut="0.0000000000000000e+00" cType="1" res="-8.4603549912571907e-03" rms="3.5661798715591431e-01" purity="4.8102113604545593e-01" nType="-99"/>
            <Node pos="r" depth="3" NCoef="0" IVar="-1" Cut="0.0000000000000000e+00" cType="1" res="1.7718696035444736e-03" rms="2.5319063663482666e-01" purity="8.5800570249557495e-01" nType="-99"/>
          </Node>
        </Node>
      </Node>
    </BinaryTree>
    <BinaryTree type="DecisionTree" boostWeight="1.0000000000000000e+00" itree="241">
      <Node pos="s" depth="0" NCoef="0" IVar="9" Cut="1.9997560977935791e+00" cType="1" res="-1.6248734900727868e-03" rms="2.8864380717277527e-01" purity="4.9911984801292419e-01" nType="0">
        <Node pos="l" depth="1" NCoef="0" IVar="7" Cut="6.7144739627838135e-01" cType="1" res="-2.2919268812984228e-03" rms="2.8953194618225098e-01" purity="5.1163190603256226e-01" nType="0">
          <Node pos="l" depth="2" NCoef="0" IVar="11" Cut="1.4188971519470215e+00" cType="1" res="-4.1135824285447598e-03" rms="2.9416736960411072e-01" purity="5.5976128578186035e-01" nType="0">
            <Node pos="l" depth="3" NCoef="0" IVar="-1" Cut="0.0000000000000000e+00" cType="1" res="-3.5780735779553652e-03" rms="2.9309090971946716e-01" purity="5.5213451385498047e-01" nType="-99"/>
            <Node pos="r" depth="3" NCoef="0" IVar="-1" Cut="0.0000000000000000e+00" cType="1" res="-2.2088173776865005e-02" rms="3.1175494194030762e-01" purity="6.9231706857681274e-01" nType="-99"/>
          </Node>
          <Node pos="r" depth="2" NCoef="0" IVar="9" Cut="-5.6567292660474777e-02" cType="1" res="4.1657364927232265e-03" rms="2.7236691117286682e-01" purity="3.4101620316505432e-01" nType="0">
            <Node pos="l" depth="3" NCoef="0" IVar="-1" Cut="0.0000000000000000e+00" cType="1" res="2.7840996161103249e-02" rms="2.6739999651908875e-01" purity="3.3283287286758423e-01" nType="-99"/>
            <Node pos="r" depth="3" NCoef="0" IVar="-1" Cut="0.0000000000000000e+00" cType="1" res="-1.1792898178100586e-02" rms="2.7583855390548706e-01" purity="3.4805098176002502e-01" nType="-99"/>
          </Node>
        </Node>
        <Node pos="r" depth="1" NCoef="0" IVar="-1" Cut="0.0000000000000000e+00" cType="1" res="2.6913449168205261e-02" rms="2.6283335685729980e-01" purity="1.6053155064582825e-01" nType="-99"/>
      </Node>
    </BinaryTree>
    <BinaryTree type="DecisionTree" boostWeight="1.0000000000000000e+00" itree="242">
      <Node pos="s" depth="0" NCoef="0" IVar="8" Cut="-3.9973682165145874e-01" cType="1" res="5.7959457626566291e-04" rms="2.8983643651008606e-01" purity="5.0281298160552979e-01" nType="0">
        <Node pos="l" depth="1" NCoef="0" IVar="9" Cut="3.9986491203308105e-01" cType="1" res="8.3367852494120598e-03" rms="2.9286986589431763e-01" purity="4.4047683477401733e-01" nType="0">
          <Node pos="l" depth="2" NCoef="0" IVar="6" Cut="1.2539459228515625e+01" cType="1" res="1.6400408931076527e-03" rms="2.8861561417579651e-01" purity="4.5697718858718872e-01" nType="0">
            <Node pos="l" depth="3" NCoef="0" IVar="-1" Cut="0.0000000000000000e+00" cType="1" res="1.5217739157378674e-02" rms="2.9104655981063843e-01" purity="2.0140066742897034e-01" nType="-99"/>
            <Node pos="r" depth="3" NCoef="0" IVar="-1" Cut="0.0000000000000000e+00" cType="1" res="-1.0296869091689587e-02" rms="2.8578063845634460e-01" purity="7.1243417263031006e-01" nType="-99"/>
          </Node>
          <Node pos="r" depth="2" NCoef="0" IVar="8" Cut="-7.4254375696182251e-01" cType="1" res="2.3091223090887070e-02" rms="3.0150714516639709e-01" purity="4.0412294864654541e-01" nType="0">
            <Node pos="l" depth="3" NCoef="0" IVar="-1" Cut="0.0000000000000000e+00" cType="1" res="1.6292173415422440e-02" rms="2.9234075546264648e-01" purity="2.9454115033149719e-01" nType="-99"/>
            <Node pos="r" depth="3" NCoef="0" IVar="-1" Cut="0.0000000000000000e+00" cType="1" res="4.4713359326124191e-02" rms="3.1715056300163269e-01" purity="6.1011785268783569e-01" nType="-99"/>
          </Node>
        </Node>
        <Node pos="r" depth="1" NCoef="0" IVar="7" Cut="4.0628263354301453e-01" cType="1" res="-3.4311336930841208e-03" rms="2.8817364573478699e-01" purity="5.3504288196563721e-01" nType="0">
          <Node pos="l" depth="2" NCoef="0" IVar="4" Cut="1.4406504821777344e+02" cType="1" res="1.4166880864650011e-03" rms="2.8704696893692017e-01" purity="5.7709068059921265e-01" nType="0">
            <Node pos="l" depth="3" NCoef="0" IVar="-1" Cut="0.0000000000000000e+00" cType="1" res="-6.9107268936932087e-03" rms="2.9692858457565308e-01" purity="2.6585033535957336e-01" nType="-99"/>
            <Node pos="r" depth="3" NCoef="0" IVar="-1" Cut="0.0000000000000000e+00" cType="1" res="7.7643040567636490e-03" rms="2.8046789765357971e-01" purity="7.7512902021408081e-01" nType="-99"/>
          </Node>
          <Node pos="r" depth="2" NCoef="0" IVar="9" Cut="3.9915800094604492e-01" cType="1" res="-1.3487253338098526e-02" rms="2.9023873805999756e-01" purity="4.4782066345214844e-01" nType="0">
            <Node pos="l" depth="3" NCoef="0" IVar="-1" Cut="0.0000000000000000e+00" cType="1" res="-6.2438184395432472e-03" rms="2.8766930103302002e-01" purity="4.9629095196723938e-01" nType="-99"/>
            <Node pos="r" depth="3" NCoef="0" IVar="-1" Cut="0.0000000000000000e+00" cType="1" res="-2.8571445494890213e-02" rms="2.9333019256591797e-01" purity="3.8195636868476868e-01" nType="-99"/>
          </Node>
        </Node>
      </Node>
    </BinaryTree>
    <BinaryTree type="DecisionTree" boostWeight="1.0000000000000000e+00" itree="243">
      <Node pos="s" depth="0" NCoef="0" IVar="4" Cut="2.8708941650390625e+02" cType="1" res="6.7520391894504428e-04" rms="2.8846183419227600e-01" purity="4.9937960505485535e-01" nType="0">
        <Node pos="l" depth="1" NCoef="0" IVar="0" Cut="1.3161680908203125e+03" cType="1" res="1.7082489794120193e-03" rms="2.9165348410606384e-01" purity="4.7353932261466980e-01" nType="0">
          <Node pos="l" depth="2" NCoef="0" IVar="3" Cut="1.4584613037109375e+02" cType="1" res="-2.9063120018690825e-03" rms="2.7402067184448242e-01" purity="1.4210665225982666e-01" nType="0">
            <Node pos="l" depth="3" NCoef="0" IVar="-1" Cut="0.0000000000000000e+00" cType="1" res="1.1255943216383457e-02" rms="2.2122535109519958e-01" purity="8.0754265189170837e-02" nType="-99"/>
            <Node pos="r" depth="3" NCoef="0" IVar="-1" Cut="0.0000000000000000e+00" cType="1" res="-8.7310047820210457e-03" rms="3.0355396866798401e-01" purity="1.8230347335338593e-01" nType="-99"/>
          </Node>
          <Node pos="r" depth="2" NCoef="0" IVar="10" Cut="-1.7328599691390991e+00" cType="1" res="4.6907956711947918e-03" rms="3.0246636271476746e-01" purity="6.8775552511215210e-01" nType="0">
            <Node pos="l" depth="3" NCoef="0" IVar="-1" Cut="0.0000000000000000e+00" cType="1" res="2.0689900964498520e-02" rms="3.4462401270866394e-01" purity="4.9494019150733948e-01" nType="-99"/>
            <Node pos="r" depth="3" NCoef="0" IVar="-1" Cut="0.0000000000000000e+00" cType="1" res="3.7761365529149771e-03" rms="2.9937952756881714e-01" purity="7.0071333646774292e-01" nType="-99"/>
          </Node>
        </Node>
        <Node pos="r" depth="1" NCoef="0" IVar="0" Cut="2.4440805664062500e+03" cType="1" res="-1.4172216877341270e-02" rms="2.3740974068641663e-01" purity="8.7076854705810547e-01" nType="0">
          <Node pos="l" depth="2" NCoef="0" IVar="-1" Cut="0.0000000000000000e+00" cType="1" res="-3.6959800869226456e-02" rms="2.7078974246978760e-01" purity="8.1463128328323364e-01" nType="-99"/>
          <Node pos="r" depth="2" NCoef="0" IVar="-1" Cut="0.0000000000000000e+00" cType="1" res="1.4724352513439953e-04" rms="1.8991246819496155e-01" purity="9.3669372797012329e-01" nType="-99"/>
        </Node>
      </Node>
    </BinaryTree>
    <BinaryTree type="DecisionTree" boostWeight="1.0000000000000000e+00" itree="244">
      <Node pos="s" depth="0" NCoef="0" IVar="2" Cut="7.5906060791015625e+02" cType="1" res="4.8949290066957474e-04" rms="2.9155325889587402e-01" purity="4.9658954143524170e-01" nType="0">
        <Node pos="l" depth="1" NCoef="0" IVar="8" Cut="-9.3313264846801758e-01" cType="1" res="1.0617871303111315e-03" rms="2.9002529382705688e-01" purity="4.9501579999923706e-01" nType="0">
          <Node pos="l" depth="2" NCoef="0" IVar="2" Cut="3.8635833740234375e+02" cType="1" res="8.2175461575388908e-03" rms="2.7466890215873718e-01" purity="2.9201015830039978e-01" nType="0">
            <Node pos="l" depth="3" NCoef="0" IVar="-1" Cut="0.0000000000000000e+00" cType="1" res="2.2639418020844460e-02" rms="2.6778399944305420e-01" purity="2.7707707881927490e-01" nType="-99"/>
            <Node pos="r" depth="3" NCoef="0" IVar="-1" Cut="0.0000000000000000e+00" cType="1" res="-1.0640218853950500e-02" rms="2.8724592924118042e-01" purity="3.2198119163513184e-01" nType="-99"/>
          </Node>
          <Node pos="r" depth="2" NCoef="0" IVar="0" Cut="1.4561556396484375e+03" cType="1" res="-4.1830824920907617e-04" rms="2.9307940602302551e-01" purity="5.3700548410415649e-01" nType="0">
            <Node pos="l" depth="3" NCoef="0" IVar="-1" Cut="0.0000000000000000e+00" cType="1" res="-5.6329453364014626e-03" rms="3.1209591031074524e-01" purity="2.3488496243953705e-01" nType="-99"/>
            <Node pos="r" depth="3" NCoef="0" IVar="-1" Cut="0.0000000000000000e+00" cType="1" res="5.1974635571241379e-03" rms="2.7523884177207947e-01" purity="8.0210071802139282e-01" nType="-99"/>
          </Node>
        </Node>
        <Node pos="r" depth="1" NCoef="0" IVar="-1" Cut="0.0000000000000000e+00" cType="1" res="-1.8438087776303291e-02" rms="3.4497424960136414e-01" purity="5.5770593881607056e-01" nType="-99"/>
      </Node>
    </BinaryTree>
    <BinaryTree type="DecisionTree" boostWeight="1.0000000000000000e+00" itree="245">
      <Node pos="s" depth="0" NCoef="0" IVar="8" Cut="1.2001026868820190e+00" cType="1" res="-2.5330504286102951e-04" rms="2.9041382670402527e-01" purity="4.9830642342567444e-01" nType="0">
        <Node pos="l" depth="1" NCoef="0" IVar="10" Cut="-1.7333813905715942e+00" cType="1" res="-1.7156334361061454e-03" rms="2.9375538229942322e-01" purity="5.3457385301589966e-01" nType="0">
          <Node pos="l" depth="2" NCoef="0" IVar="9" Cut="1.3169135153293610e-01" cType="1" res="-1.6855109483003616e-02" rms="2.7836793661117554e-01" purity="2.9468360543251038e-01" nType="0">
            <Node pos="l" depth="3" NCoef="0" IVar="-1" Cut="0.0000000000000000e+00" cType="1" res="-3.2620191574096680e-02" rms="2.8941160440444946e-01" purity="2.7742335200309753e-01" nType="-99"/>
            <Node pos="r" depth="3" NCoef="0" IVar="-1" Cut="0.0000000000000000e+00" cType="1" res="1.3080812059342861e-03" rms="2.5772571563720703e-01" purity="3.2373040914535522e-01" nType="-99"/>
          </Node>
          <Node pos="r" depth="2" NCoef="0" IVar="8" Cut="-1.6568690538406372e+00" cType="1" res="-4.0478954906575382e-04" rms="2.9501339793205261e-01" purity="5.5534464120864868e-01" nType="0">
            <Node pos="l" depth="3" NCoef="0" IVar="-1" Cut="0.0000000000000000e+00" cType="1" res="-3.5143107175827026e-02" rms="1.9100983440876007e-01" purity="9.9627420306205750e-02" nType="-99"/>
            <Node pos="r" depth="3" NCoef="0" IVar="-1" Cut="0.0000000000000000e+00" cType="1" res="8.1684254109859467e-04" rms="3.0035629868507385e-01" purity="5.8421665430068970e-01" nType="-99"/>
          </Node>
        </Node>
        <Node pos="r" depth="1" NCoef="0" IVar="11" Cut="-1.3432112932205200e+00" cType="1" res="1.0916375555098057e-02" rms="2.6322770118713379e-01" purity="2.2128576040267944e-01" nType="0">
          <Node pos="l" depth="2" NCoef="0" IVar="7" Cut="1.3447140157222748e-01" cType="1" res="-8.7929941946640611e-04" rms="2.1460963785648346e-01" purity="8.0980114638805389e-02" nType="0">
            <Node pos="l" depth="3" NCoef="0" IVar="-1" Cut="0.0000000000000000e+00" cType="1" res="-1.8739245831966400e-02" rms="2.0150451362133026e-01" purity="7.1402773261070251e-02" nType="-99"/>
            <Node pos="r" depth="3" NCoef="0" IVar="-1" Cut="0.0000000000000000e+00" cType="1" res="1.4115088619291782e-02" rms="2.2748361527919769e-01" purity="9.1188669204711914e-02" nType="-99"/>
          </Node>
          <Node pos="r" depth="2" NCoef="0" IVar="-1" Cut="0.0000000000000000e+00" cType="1" res="3.0429573729634285e-02" rms="3.3704558014869690e-01" purity="4.9369838833808899e-01" nType="-99"/>
        </Node>
      </Node>
    </BinaryTree>
    <BinaryTree type="DecisionTree" boostWeight="1.0000000000000000e+00" itree="246">
      <Node pos="s" depth="0" NCoef="0" IVar="4" Cut="1.4365197753906250e+02" cType="1" res="6.0685048811137676e-04" rms="2.9048126935958862e-01" purity="5.0203746557235718e-01" nType="0">
        <Node pos="l" depth="1" NCoef="0" IVar="4" Cut="1.3924377441406250e+02" cType="1" res="5.6138420477509499e-03" rms="2.8907433152198792e-01" purity="2.2771015763282776e-01" nType="0">
          <Node pos="l" depth="2" NCoef="0" IVar="9" Cut="1.1992187500000000e+00" cType="1" res="3.4216826315969229e-03" rms="2.8504720330238342e-01" purity="2.0754420757293701e-01" nType="0">
            <Node pos="l" depth="3" NCoef="0" IVar="-1" Cut="0.0000000000000000e+00" cType="1" res="5.8720941888168454e-04" rms="2.9070064425468445e-01" purity="2.2146771848201752e-01" nType="-99"/>
            <Node pos="r" depth="3" NCoef="0" IVar="-1" Cut="0.0000000000000000e+00" cType="1" res="2.8971649706363678e-02" rms="2.5672227144241333e-01" purity="1.4287459850311279e-01" nType="-99"/>
          </Node>
          <Node pos="r" depth="2" NCoef="0" IVar="-1" Cut="0.0000000000000000e+00" cType="1" res="3.4407671540975571e-02" rms="3.4176617860794067e-01" purity="5.2752113342285156e-01" nType="-99"/>
        </Node>
        <Node pos="r" depth="1" NCoef="0" IVar="0" Cut="1.5130761718750000e+03" cType="1" res="-3.2318320591002703e-03" rms="2.9149708151817322e-01" purity="7.1235454082489014e-01" nType="0">
          <Node pos="l" depth="2" NCoef="0" IVar="4" Cut="1.7933378601074219e+02" cType="1" res="-1.3371102511882782e-02" rms="3.5325631499290466e-01" purity="4.0279725193977356e-01" nType="0">
            <Node pos="l" depth="3" NCoef="0" IVar="-1" Cut="0.0000000000000000e+00" cType="1" res="-1.1495898943394423e-03" rms="3.4576061367988586e-01" purity="4.1670608520507812e-01" nType="-99"/>
            <Node pos="r" depth="3" NCoef="0" IVar="-1" Cut="0.0000000000000000e+00" cType="1" res="-2.6768786832690239e-02" rms="3.6569342017173767e-01" purity="3.7705785036087036e-01" nType="-99"/>
          </Node>
          <Node pos="r" depth="2" NCoef="0" IVar="8" Cut="9.3447405099868774e-01" cType="1" res="7.2613178053870797e-04" rms="2.6338344812393188e-01" purity="8.3319330215454102e-01" nType="0">
            <Node pos="l" depth="3" NCoef="0" IVar="-1" Cut="0.0000000000000000e+00" cType="1" res="5.6953756138682365e-03" rms="2.5813603401184082e-01" purity="8.5620051622390747e-01" nType="-99"/>
            <Node pos="r" depth="3" NCoef="0" IVar="-1" Cut="0.0000000000000000e+00" cType="1" res="-2.6636607944965363e-02" rms="3.0171784758567810e-01" purity="6.4467000961303711e-01" nType="-99"/>
          </Node>
        </Node>
      </Node>
    </BinaryTree>
    <BinaryTree type="DecisionTree" boostWeight="1.0000000000000000e+00" itree="247">
      <Node pos="s" depth="0" NCoef="0" IVar="2" Cut="3.3581430053710938e+02" cType="1" res="-2.1497353445738554e-03" rms="2.8883340954780579e-01" purity="4.9691897630691528e-01" nType="0">
        <Node pos="l" depth="1" NCoef="0" IVar="7" Cut="-1.1440268754959106e+00" cType="1" res="-7.3563358746469021e-03" rms="2.8898799419403076e-01" purity="4.1391023993492126e-01" nType="0">
          <Node pos="l" depth="2" NCoef="0" IVar="-1" Cut="0.0000000000000000e+00" cType="1" res="2.4988569319248199e-02" rms="2.4018839001655579e-01" purity="1.6514730453491211e-01" nType="-99"/>
          <Node pos="r" depth="2" NCoef="0" IVar="7" Cut="7.3316615819931030e-01" cType="1" res="-1.0519939474761486e-02" rms="2.9536199569702148e-01" purity="4.5054155588150024e-01" nType="0">
            <Node pos="l" depth="3" NCoef="0" IVar="-1" Cut="0.0000000000000000e+00" cType="1" res="-1.5734372660517693e-02" rms="3.0496335029602051e-01" purity="5.1710885763168335e-01" nType="-99"/>
            <Node pos="r" depth="3" NCoef="0" IVar="-1" Cut="0.0000000000000000e+00" cType="1" res="2.8092765714973211e-03" rms="2.6682624220848083e-01" purity="2.6774227619171143e-01" nType="-99"/>
          </Node>
        </Node>
        <Node pos="r" depth="1" NCoef="0" IVar="7" Cut="4.2740520834922791e-01" cType="1" res="2.1816857624799013e-03" rms="2.8863316774368286e-01" purity="5.6597471237182617e-01" nType="0">
          <Node pos="l" depth="2" NCoef="0" IVar="1" Cut="5.8651491999626160e-02" cType="1" res="6.9163911975920200e-03" rms="2.9302951693534851e-01" purity="6.1476564407348633e-01" nType="0">
            <Node pos="l" depth="3" NCoef="0" IVar="-1" Cut="0.0000000000000000e+00" cType="1" res="1.5752973034977913e-02" rms="3.1452456116676331e-01" purity="3.8765892386436462e-01" nType="-99"/>
            <Node pos="r" depth="3" NCoef="0" IVar="-1" Cut="0.0000000000000000e+00" cType="1" res="-1.7605936154723167e-03" rms="2.7043485641479492e-01" purity="8.3377522230148315e-01" nType="-99"/>
          </Node>
          <Node pos="r" depth="2" NCoef="0" IVar="10" Cut="1.1998769044876099e+00" cType="1" res="-9.3232253566384315e-03" rms="2.7732390165328979e-01" purity="4.4741708040237427e-01" nType="0">
            <Node pos="l" depth="3" NCoef="0" IVar="-1" Cut="0.0000000000000000e+00" cType="1" res="-5.2978079766035080e-03" rms="2.7642548084259033e-01" purity="4.7709074616432190e-01" nType="-99"/>
            <Node pos="r" depth="3" NCoef="0" IVar="-1" Cut="0.0000000000000000e+00" cType="1" res="-3.5896301269531250e-02" rms="2.8007405996322632e-01" purity="3.2330644130706787e-01" nType="-99"/>
          </Node>
        </Node>
      </Node>
    </BinaryTree>
    <BinaryTree type="DecisionTree" boostWeight="1.0000000000000000e+00" itree="248">
      <Node pos="s" depth="0" NCoef="0" IVar="9" Cut="1.7334651947021484e+00" cType="1" res="3.6467558238655329e-03" rms="2.8928267955780029e-01" purity="5.0190651416778564e-01" nType="0">
        <Node pos="l" depth="1" NCoef="0" IVar="4" Cut="1.4568482971191406e+02" cType="1" res="4.8367837443947792e-03" rms="2.9151016473770142e-01" purity="5.2240061759948730e-01" nType="0">
          <Node pos="l" depth="2" NCoef="0" IVar="5" Cut="8.0950492858886719e+01" cType="1" res="1.1312584319966845e-05" rms="2.9218235611915588e-01" purity="2.4381129443645477e-01" nType="0">
            <Node pos="l" depth="3" NCoef="0" IVar="-1" Cut="0.0000000000000000e+00" cType="1" res="4.3452549725770950e-03" rms="2.7700027823448181e-01" purity="1.5773472189903259e-01" nType="-99"/>
            <Node pos="r" depth="3" NCoef="0" IVar="-1" Cut="0.0000000000000000e+00" cType="1" res="-1.0280512273311615e-02" rms="3.4169301390647888e-01" purity="5.5822008848190308e-01" nType="-99"/>
          </Node>
          <Node pos="r" depth="2" NCoef="0" IVar="0" Cut="1.5119324951171875e+03" cType="1" res="8.5198758170008659e-03" rms="2.9094222187995911e-01" purity="7.3503690958023071e-01" nType="0">
            <Node pos="l" depth="3" NCoef="0" IVar="-1" Cut="0.0000000000000000e+00" cType="1" res="1.6516076400876045e-02" rms="3.5707885026931763e-01" purity="4.4555252790451050e-01" nType="-99"/>
            <Node pos="r" depth="3" NCoef="0" IVar="-1" Cut="0.0000000000000000e+00" cType="1" res="5.0854915753006935e-03" rms="2.6214149594306946e-01" purity="8.4203875064849854e-01" nType="-99"/>
          </Node>
        </Node>
        <Node pos="r" depth="1" NCoef="0" IVar="3" Cut="1.8930822753906250e+02" cType="1" res="-1.6790764406323433e-02" rms="2.4703110754489899e-01" purity="1.4994199573993683e-01" nType="0">
          <Node pos="l" depth="2" NCoef="0" IVar="-1" Cut="0.0000000000000000e+00" cType="1" res="-1.7535304650664330e-02" rms="2.2040478885173798e-01" purity="8.1786192953586578e-02" nType="-99"/>
          <Node pos="r" depth="2" NCoef="0" IVar="-1" Cut="0.0000000000000000e+00" cType="1" res="-3.0006544664502144e-02" rms="2.7299576997756958e-01" purity="2.2482688724994659e-01" nType="-99"/>
        </Node>
      </Node>
    </BinaryTree>
    <BinaryTree type="DecisionTree" boostWeight="1.0000000000000000e+00" itree="249">
      <Node pos="s" depth="0" NCoef="0" IVar="1" Cut="6.5692320466041565e-02" cType="1" res="-1.3728431658819318e-03" rms="2.8814503550529480e-01" purity="4.9732124805450439e-01" nType="0">
        <Node pos="l" depth="1" NCoef="0" IVar="1" Cut="1.8770787864923477e-02" cType="1" res="-5.0465380772948265e-03" rms="2.8374925255775452e-01" purity="2.7713859081268311e-01" nType="0">
          <Node pos="l" depth="2" NCoef="0" IVar="11" Cut="3.8066864013671875e-02" cType="1" res="1.8072141101583838e-03" rms="2.2576567530632019e-01" purity="1.1098583042621613e-01" nType="0">
            <Node pos="l" depth="3" NCoef="0" IVar="-1" Cut="0.0000000000000000e+00" cType="1" res="-1.3720121933147311e-03" rms="2.1432162821292877e-01" purity="8.5962213575839996e-02" nType="-99"/>
            <Node pos="r" depth="3" NCoef="0" IVar="-1" Cut="0.0000000000000000e+00" cType="1" res="2.0658820867538452e-02" rms="2.9234200716018677e-01" purity="2.8398242592811584e-01" nType="-99"/>
          </Node>
          <Node pos="r" depth="2" NCoef="0" IVar="1" Cut="3.2176550477743149e-02" cType="1" res="-9.3570370227098465e-03" rms="3.1471604108810425e-01" purity="3.8163626194000244e-01" nType="0">
            <Node pos="l" depth="3" NCoef="0" IVar="-1" Cut="0.0000000000000000e+00" cType="1" res="-2.1071296185255051e-02" rms="2.8638425469398499e-01" purity="2.5818997621536255e-01" nType="-99"/>
            <Node pos="r" depth="3" NCoef="0" IVar="-1" Cut="0.0000000000000000e+00" cType="1" res="-3.4401288721710443e-03" rms="3.2896667718887329e-01" purity="4.4878295063972473e-01" nType="-99"/>
          </Node>
        </Node>
        <Node pos="r" depth="1" NCoef="0" IVar="5" Cut="7.0671615600585938e+01" cType="1" res="3.2653403468430042e-03" rms="2.9353520274162292e-01" purity="7.7531051635742188e-01" nType="0">
          <Node pos="l" depth="2" NCoef="0" IVar="8" Cut="9.7648821771144867e-02" cType="1" res="1.8531814217567444e-02" rms="3.8240307569503784e-01" purity="4.2648366093635559e-01" nType="0">
            <Node pos="l" depth="3" NCoef="0" IVar="-1" Cut="0.0000000000000000e+00" cType="1" res="4.9657858908176422e-03" rms="3.7450706958770752e-01" purity="4.2348191142082214e-01" nType="-99"/>
            <Node pos="r" depth="3" NCoef="0" IVar="-1" Cut="0.0000000000000000e+00" cType="1" res="2.3340325802564621e-02" rms="3.9105916023254395e-01" purity="4.3002134561538696e-01" nType="-99"/>
          </Node>
          <Node pos="r" depth="2" NCoef="0" IVar="9" Cut="-9.2749804258346558e-01" cType="1" res="-9.5831789076328278e-04" rms="2.6355591416358948e-01" purity="8.7181770801544189e-01" nType="0">
            <Node pos="l" depth="3" NCoef="0" IVar="-1" Cut="0.0000000000000000e+00" cType="1" res="-1.8176537007093430e-02" rms="3.2371777296066284e-01" purity="7.8099530935287476e-01" nType="-99"/>
            <Node pos="r" depth="3" NCoef="0" IVar="-1" Cut="0.0000000000000000e+00" cType="1" res="2.5648027658462524e-03" rms="2.5295412540435791e-01" purity="8.8576018810272217e-01" nType="-99"/>
          </Node>
        </Node>
      </Node>
    </BinaryTree>
    <BinaryTree type="DecisionTree" boostWeight="1.0000000000000000e+00" itree="250">
      <Node pos="s" depth="0" NCoef="0" IVar="8" Cut="4.0006819367408752e-01" cType="1" res="-1.4793304726481438e-03" rms="2.8913593292236328e-01" purity="4.9711540341377258e-01" nType="0">
        <Node pos="l" depth="1" NCoef="0" IVar="0" Cut="2.5223115234375000e+03" cType="1" res="1.5824718866497278e-03" rms="2.9026597738265991e-01" purity="5.3713321685791016e-01" nType="0">
          <Node pos="l" depth="2" NCoef="0" IVar="5" Cut="7.5544967651367188e+01" cType="1" res="6.8657187512144446e-04" rms="2.9397007822990417e-01" purity="5.1494169235229492e-01" nType="0">
            <Node pos="l" depth="3" NCoef="0" IVar="-1" Cut="0.0000000000000000e+00" cType="1" res="6.9559025578200817e-03" rms="3.0394464731216431e-01" purity="2.3850882053375244e-01" nType="-99"/>
            <Node pos="r" depth="3" NCoef="0" IVar="-1" Cut="0.0000000000000000e+00" cType="1" res="-4.9857608973979950e-03" rms="2.8501737117767334e-01" purity="7.5284975767135620e-01" nType="-99"/>
          </Node>
          <Node pos="r" depth="2" NCoef="0" IVar="-1" Cut="0.0000000000000000e+00" cType="1" res="3.3111475408077240e-02" rms="2.1362042427062988e-01" purity="9.3043804168701172e-01" nType="-99"/>
        </Node>
        <Node pos="r" depth="1" NCoef="0" IVar="8" Cut="8.5722500085830688e-01" cType="1" res="-7.7180531807243824e-03" rms="2.8671842813491821e-01" purity="4.1557520627975464e-01" nType="0">
          <Node pos="l" depth="2" NCoef="0" IVar="5" Cut="8.2142723083496094e+01" cType="1" res="-1.5780229121446609e-02" rms="3.0037400126457214e-01" purity="5.6404548883438110e-01" nType="0">
            <Node pos="l" depth="3" NCoef="0" IVar="-1" Cut="0.0000000000000000e+00" cType="1" res="-2.4136371910572052e-02" rms="3.2096576690673828e-01" purity="3.0866876244544983e-01" nType="-99"/>
            <Node pos="r" depth="3" NCoef="0" IVar="-1" Cut="0.0000000000000000e+00" cType="1" res="-6.3046212308108807e-03" rms="2.7703884243965149e-01" purity="8.2811409235000610e-01" nType="-99"/>
          </Node>
          <Node pos="r" depth="2" NCoef="0" IVar="1" Cut="3.6690779030323029e-02" cType="1" res="-1.4792223228141665e-03" rms="2.7552551031112671e-01" purity="3.0068305134773254e-01" nType="0">
            <Node pos="l" depth="3" NCoef="0" IVar="-1" Cut="0.0000000000000000e+00" cType="1" res="-2.2079745307564735e-02" rms="2.1210616827011108e-01" purity="9.5419637858867645e-02" nType="-99"/>
            <Node pos="r" depth="3" NCoef="0" IVar="-1" Cut="0.0000000000000000e+00" cType="1" res="9.8111564293503761e-03" rms="3.3412089943885803e-01" purity="5.3948897123336792e-01" nType="-99"/>
          </Node>
        </Node>
      </Node>
    </BinaryTree>
    <BinaryTree type="DecisionTree" boostWeight="1.0000000000000000e+00" itree="251">
      <Node pos="s" depth="0" NCoef="0" IVar="10" Cut="-2.2662601470947266e+00" cType="1" res="4.9936072900891304e-04" rms="2.8999546170234680e-01" purity="5.0726687908172607e-01" nType="0">
        <Node pos="l" depth="1" NCoef="0" IVar="-1" Cut="0.0000000000000000e+00" cType="1" res="3.7679422646760941e-02" rms="2.7998286485671997e-01" purity="2.1213945746421814e-01" nType="-99"/>
        <Node pos="r" depth="1" NCoef="0" IVar="10" Cut="3.8733965158462524e-01" cType="1" res="-2.6988860918208957e-04" rms="2.9026970267295837e-01" purity="5.1650458574295044e-01" nType="0">
          <Node pos="l" depth="2" NCoef="0" IVar="11" Cut="5.8980965614318848e-01" cType="1" res="-4.1005164384841919e-03" rms="2.8586474061012268e-01" purity="5.3428196907043457e-01" nType="0">
            <Node pos="l" depth="3" NCoef="0" IVar="-1" Cut="0.0000000000000000e+00" cType="1" res="-7.7672647312283516e-03" rms="2.8714588284492493e-01" purity="4.8841840028762817e-01" nType="-99"/>
            <Node pos="r" depth="3" NCoef="0" IVar="-1" Cut="0.0000000000000000e+00" cType="1" res="1.0212764143943787e-02" rms="2.7900817990303040e-01" purity="7.6452481746673584e-01" nType="-99"/>
          </Node>
          <Node pos="r" depth="2" NCoef="0" IVar="7" Cut="4.5223671197891235e-01" cType="1" res="5.7150092907249928e-03" rms="2.9692232608795166e-01" purity="4.8872953653335571e-01" nType="0">
            <Node pos="l" depth="3" NCoef="0" IVar="-1" Cut="0.0000000000000000e+00" cType="1" res="7.1269180625677109e-04" rms="3.0070164799690247e-01" purity="5.3798443078994751e-01" nType="-99"/>
            <Node pos="r" depth="3" NCoef="0" IVar="-1" Cut="0.0000000000000000e+00" cType="1" res="1.8169084563851357e-02" rms="2.8967976570129395e-01" purity="3.9899069070816040e-01" nType="-99"/>
          </Node>
        </Node>
      </Node>
    </BinaryTree>
    <BinaryTree type="DecisionTree" boostWeight="1.0000000000000000e+00" itree="252">
      <Node pos="s" depth="0" NCoef="0" IVar="8" Cut="-1.3305264711380005e-01" cType="1" res="-1.5137384179979563e-03" rms="2.9188600182533264e-01" purity="4.9300518631935120e-01" nType="0">
        <Node pos="l" depth="1" NCoef="0" IVar="8" Cut="-1.4027220010757446e+00" cType="1" res="-6.1152600683271885e-03" rms="2.9179450869560242e-01" purity="4.6807461977005005e-01" nType="0">
          <Node pos="l" depth="2" NCoef="0" IVar="4" Cut="1.0533601379394531e+02" cType="1" res="8.6856810376048088e-03" rms="2.4516806006431580e-01" purity="1.6999283432960510e-01" nType="0">
            <Node pos="l" depth="3" NCoef="0" IVar="-1" Cut="0.0000000000000000e+00" cType="1" res="1.1186154931783676e-01" rms="2.0861700177192688e-01" purity="6.8542852997779846e-02" nType="-99"/>
            <Node pos="r" depth="3" NCoef="0" IVar="-1" Cut="0.0000000000000000e+00" cType="1" res="-3.7892200052738190e-03" rms="2.6167860627174377e-01" purity="2.2359304130077362e-01" nType="-99"/>
          </Node>
          <Node pos="r" depth="2" NCoef="0" IVar="10" Cut="1.3269469141960144e-01" cType="1" res="-9.6466513350605965e-03" rms="3.0174967646598816e-01" purity="5.3919470310211182e-01" nType="0">
            <Node pos="l" depth="3" NCoef="0" IVar="-1" Cut="0.0000000000000000e+00" cType="1" res="-1.7785802483558655e-02" rms="2.9174268245697021e-01" purity="5.3372877836227417e-01" nType="-99"/>
            <Node pos="r" depth="3" NCoef="0" IVar="-1" Cut="0.0000000000000000e+00" cType="1" res="-4.8137895646505058e-04" rms="3.1529578566551208e-01" purity="5.4701960086822510e-01" nType="-99"/>
          </Node>
        </Node>
        <Node pos="r" depth="1" NCoef="0" IVar="10" Cut="1.1997815370559692e+00" cType="1" res="2.2042961791157722e-03" rms="2.9190695285797119e-01" purity="5.1314914226531982e-01" nType="0">
          <Node pos="l" depth="2" NCoef="0" IVar="11" Cut="-2.1714797019958496e+00" cType="1" res="4.7294152900576591e-03" rms="2.9399684071540833e-01" purity="5.4687136411666870e-01" nType="0">
            <Node pos="l" depth="3" NCoef="0" IVar="-1" Cut="0.0000000000000000e+00" cType="1" res="1.3040878809988499e-02" rms="3.1570297479629517e-01" purity="2.7542576193809509e-01" nType="-99"/>
            <Node pos="r" depth="3" NCoef="0" IVar="-1" Cut="0.0000000000000000e+00" cType="1" res="-2.6108834426850080e-03" rms="2.7326142787933350e-01" purity="7.8614652156829834e-01" nType="-99"/>
          </Node>
          <Node pos="r" depth="2" NCoef="0" IVar="4" Cut="1.7760020446777344e+02" cType="1" res="-9.3387700617313385e-03" rms="2.8186839818954468e-01" purity="3.5899493098258972e-01" nType="0">
            <Node pos="l" depth="3" NCoef="0" IVar="-1" Cut="0.0000000000000000e+00" cType="1" res="3.5576813388615847e-04" rms="2.7246898412704468e-01" purity="2.4772061407566071e-01" nType="-99"/>
            <Node pos="r" depth="3" NCoef="0" IVar="-1" Cut="0.0000000000000000e+00" cType="1" res="-3.4711699932813644e-02" rms="3.0317428708076477e-01" purity="6.4320498704910278e-01" nType="-99"/>
          </Node>
        </Node>
      </Node>
    </BinaryTree>
    <BinaryTree type="DecisionTree" boostWeight="1.0000000000000000e+00" itree="253">
      <Node pos="s" depth="0" NCoef="0" IVar="10" Cut="-9.3340593576431274e-01" cType="1" res="-4.5261607738211751e-04" rms="2.8757372498512268e-01" purity="4.9808332324028015e-01" nType="0">
        <Node pos="l" depth="1" NCoef="0" IVar="5" Cut="9.1341789245605469e+01" cType="1" res="5.8883521705865860e-03" rms="2.9037564992904663e-01" purity="4.1549000144004822e-01" nType="0">
          <Node pos="l" depth="2" NCoef="0" IVar="3" Cut="1.2651270294189453e+02" cType="1" res="1.1535186320543289e-02" rms="2.9774934053421021e-01" purity="2.6510852575302124e-01" nType="0">
            <Node pos="l" depth="3" NCoef="0" IVar="-1" Cut="0.0000000000000000e+00" cType="1" res="-3.1124722212553024e-02" rms="1.4988356828689575e-01" purity="4.1115820407867432e-02" nType="-99"/>
            <Node pos="r" depth="3" NCoef="0" IVar="-1" Cut="0.0000000000000000e+00" cType="1" res="1.6588592901825905e-02" rms="3.2133585214614868e-01" purity="3.1498515605926514e-01" nType="-99"/>
          </Node>
          <Node pos="r" depth="2" NCoef="0" IVar="5" Cut="1.1005313110351562e+02" cType="1" res="-7.2592422366142273e-03" rms="2.7198138833045959e-01" purity="7.6562505960464478e-01" nType="0">
            <Node pos="l" depth="3" NCoef="0" IVar="-1" Cut="0.0000000000000000e+00" cType="1" res="-1.2400572188198566e-02" rms="3.1773030757904053e-01" purity="6.0435247421264648e-01" nType="-99"/>
            <Node pos="r" depth="3" NCoef="0" IVar="-1" Cut="0.0000000000000000e+00" cType="1" res="-5.9474194422364235e-03" rms="2.4017599225044250e-01" purity="8.6279809474945068e-01" nType="-99"/>
          </Node>
        </Node>
        <Node pos="r" depth="1" NCoef="0" IVar="5" Cut="7.0200828552246094e+01" cType="1" res="-2.2945916280150414e-03" rms="2.8672838211059570e-01" purity="5.2207565307617188e-01" nType="0">
          <Node pos="l" depth="2" NCoef="0" IVar="10" Cut="-4.0007090568542480e-01" cType="1" res="-9.7046745941042900e-03" rms="2.8138703107833862e-01" purity="1.8564948439598083e-01" nType="0">
            <Node pos="l" depth="3" NCoef="0" IVar="-1" Cut="0.0000000000000000e+00" cType="1" res="1.6812790185213089e-02" rms="3.0459648370742798e-01" purity="2.1489612758159637e-01" nType="-99"/>
            <Node pos="r" depth="3" NCoef="0" IVar="-1" Cut="0.0000000000000000e+00" cType="1" res="-1.7506502568721771e-02" rms="2.7613219618797302e-01" purity="1.7965237796306610e-01" nType="-99"/>
          </Node>
          <Node pos="r" depth="2" NCoef="0" IVar="10" Cut="-4.0006774663925171e-01" cType="1" res="2.1750477608293295e-03" rms="2.8981104493141174e-01" purity="7.2500240802764893e-01" nType="0">
            <Node pos="l" depth="3" NCoef="0" IVar="-1" Cut="0.0000000000000000e+00" cType="1" res="-1.2629468925297260e-02" rms="2.7511960268020630e-01" purity="7.3088204860687256e-01" nType="-99"/>
            <Node pos="r" depth="3" NCoef="0" IVar="-1" Cut="0.0000000000000000e+00" cType="1" res="6.1038681305944920e-03" rms="2.9329836368560791e-01" purity="7.2352713346481323e-01" nType="-99"/>
          </Node>
        </Node>
      </Node>
    </BinaryTree>
    <BinaryTree type="DecisionTree" boostWeight="1.0000000000000000e+00" itree="254">
      <Node pos="s" depth="0" NCoef="0" IVar="10" Cut="1.9997652769088745e+00" cType="1" res="9.9365529604256153e-04" rms="2.8936278820037842e-01" purity="5.0250333547592163e-01" nType="0">
        <Node pos="l" depth="1" NCoef="0" IVar="1" Cut="1.6948558390140533e-01" cType="1" res="1.5081519086379558e-04" rms="2.8930321335792542e-01" purity="5.1510906219482422e-01" nType="0">
          <Node pos="l" depth="2" NCoef="0" IVar="1" Cut="1.2106008082628250e-01" cType="1" res="-1.4630574733018875e-03" rms="2.9649010300636292e-01" purity="4.5978730916976929e-01" nType="0">
            <Node pos="l" depth="3" NCoef="0" IVar="-1" Cut="0.0000000000000000e+00" cType="1" res="9.0828526299446821e-04" rms="2.9845240712165833e-01" purity="4.0928420424461365e-01" nType="-99"/>
            <Node pos="r" depth="3" NCoef="0" IVar="-1" Cut="0.0000000000000000e+00" cType="1" res="-2.2188210859894753e-02" rms="2.8183990716934204e-01" purity="8.1364208459854126e-01" nType="-99"/>
          </Node>
          <Node pos="r" depth="2" NCoef="0" IVar="-1" Cut="0.0000000000000000e+00" cType="1" res="2.1483784541487694e-02" rms="2.3058260977268219e-01" purity="9.1423237323760986e-01" nType="-99"/>
        </Node>
        <Node pos="r" depth="1" NCoef="0" IVar="10" Cut="2.3045237064361572e+00" cType="1" res="1.6817502677440643e-02" rms="2.9002463817596436e-01" purity="2.6583719253540039e-01" nType="0">
          <Node pos="l" depth="2" NCoef="0" IVar="-1" Cut="0.0000000000000000e+00" cType="1" res="3.4599334001541138e-02" rms="3.0023685097694397e-01" purity="3.1813699007034302e-01" nType="-99"/>
          <Node pos="r" depth="2" NCoef="0" IVar="-1" Cut="0.0000000000000000e+00" cType="1" res="6.5487804822623730e-03" rms="2.7897474169731140e-01" purity="2.1375615894794464e-01" nType="-99"/>
        </Node>
      </Node>
    </BinaryTree>
    <BinaryTree type="DecisionTree" boostWeight="1.0000000000000000e+00" itree="255">
      <Node pos="s" depth="0" NCoef="0" IVar="1" Cut="2.1899584680795670e-02" cType="1" res="5.4775801254436374e-04" rms="2.9069775342941284e-01" purity="4.9896925687789917e-01" nType="0">
        <Node pos="l" depth="1" NCoef="0" IVar="8" Cut="1.7333621978759766e+00" cType="1" res="7.6195700094103813e-03" rms="2.4125438928604126e-01" purity="1.3212184607982635e-01" nType="0">
          <Node pos="l" depth="2" NCoef="0" IVar="3" Cut="1.3777792358398438e+02" cType="1" res="1.0901479981839657e-02" rms="2.5494220852851868e-01" purity="1.4819540083408356e-01" nType="0">
            <Node pos="l" depth="3" NCoef="0" IVar="-1" Cut="0.0000000000000000e+00" cType="1" res="-1.1234981939196587e-02" rms="1.2922826409339905e-01" purity="2.0003858953714371e-02" nType="-99"/>
            <Node pos="r" depth="3" NCoef="0" IVar="-1" Cut="0.0000000000000000e+00" cType="1" res="2.0055908709764481e-02" rms="2.8400576114654541e-01" purity="1.8996499478816986e-01" nType="-99"/>
          </Node>
          <Node pos="r" depth="2" NCoef="0" IVar="-1" Cut="0.0000000000000000e+00" cType="1" res="-6.0656595975160599e-02" rms="1.0535652190446854e-01" purity="2.2017197683453560e-02" nType="-99"/>
        </Node>
        <Node pos="r" depth="1" NCoef="0" IVar="2" Cut="4.2573339843750000e+02" cType="1" res="-1.7621199367567897e-03" rms="3.0508100986480713e-01" purity="6.1879324913024902e-01" nType="0">
          <Node pos="l" depth="2" NCoef="0" IVar="10" Cut="1.3320510089397430e-01" cType="1" res="1.5975111164152622e-03" rms="3.0505195260047913e-01" purity="5.7441866397857666e-01" nType="0">
            <Node pos="l" depth="3" NCoef="0" IVar="-1" Cut="0.0000000000000000e+00" cType="1" res="8.4303878247737885e-03" rms="3.0440670251846313e-01" purity="5.8589494228363037e-01" nType="-99"/>
            <Node pos="r" depth="3" NCoef="0" IVar="-1" Cut="0.0000000000000000e+00" cType="1" res="-6.8729748018085957e-03" rms="3.0568766593933105e-01" purity="5.5962175130844116e-01" nType="-99"/>
          </Node>
          <Node pos="r" depth="2" NCoef="0" IVar="0" Cut="1.5658994140625000e+03" cType="1" res="-9.4192940741777420e-03" rms="3.0500891804695129e-01" purity="7.1993052959442139e-01" nType="0">
            <Node pos="l" depth="3" NCoef="0" IVar="-1" Cut="0.0000000000000000e+00" cType="1" res="-3.2307278364896774e-02" rms="3.4142571687698364e-01" purity="1.9762787222862244e-01" nType="-99"/>
            <Node pos="r" depth="3" NCoef="0" IVar="-1" Cut="0.0000000000000000e+00" cType="1" res="-3.9755390025675297e-03" rms="2.9722329974174500e-01" purity="8.1897091865539551e-01" nType="-99"/>
          </Node>
        </Node>
      </Node>
    </BinaryTree>
    <BinaryTree type="DecisionTree" boostWeight="1.0000000000000000e+00" itree="256">
      <Node pos="s" depth="0" NCoef="0" IVar="9" Cut="-1.7327765226364136e+00" cType="1" res="1.4886034186929464e-03" rms="2.8858646750450134e-01" purity="5.0175118446350098e-01" nType="0">
        <Node pos="l" depth="1" NCoef="0" IVar="10" Cut="-3.9898341894149780e-01" cType="1" res="-1.7572531476616859e-02" rms="2.3539189994335175e-01" purity="1.3943468034267426e-01" nType="0">
          <Node pos="l" depth="2" NCoef="0" IVar="-1" Cut="0.0000000000000000e+00" cType="1" res="-4.3994888663291931e-02" rms="2.2068074345588684e-01" purity="1.2401940673589706e-01" nType="-99"/>
          <Node pos="r" depth="2" NCoef="0" IVar="-1" Cut="0.0000000000000000e+00" cType="1" res="-1.3517876155674458e-02" rms="2.4642662703990936e-01" purity="1.5204256772994995e-01" nType="-99"/>
        </Node>
        <Node pos="r" depth="1" NCoef="0" IVar="4" Cut="1.9016203308105469e+02" cType="1" res="2.6131256017833948e-03" rms="2.9138261079788208e-01" purity="5.2312618494033813e-01" nType="0">
          <Node pos="l" depth="2" NCoef="0" IVar="4" Cut="1.7033349609375000e+02" cType="1" res="-6.5832090331241488e-04" rms="3.0145639181137085e-01" purity="3.7775504589080811e-01" nType="0">
            <Node pos="l" depth="3" NCoef="0" IVar="-1" Cut="0.0000000000000000e+00" cType="1" res="-2.7378108352422714e-03" rms="3.0166333913803101e-01" purity="3.2428517937660217e-01" nType="-99"/>
            <Node pos="r" depth="3" NCoef="0" IVar="-1" Cut="0.0000000000000000e+00" cType="1" res="1.0458680801093578e-02" rms="3.0004045367240906e-01" purity="6.8719273805618286e-01" nType="-99"/>
          </Node>
          <Node pos="r" depth="2" NCoef="0" IVar="5" Cut="9.1341461181640625e+01" cType="1" res="9.2405853793025017e-03" rms="2.6970276236534119e-01" purity="8.1762635707855225e-01" nType="0">
            <Node pos="l" depth="3" NCoef="0" IVar="-1" Cut="0.0000000000000000e+00" cType="1" res="1.8854437395930290e-02" rms="3.4372639656066895e-01" purity="6.2338113784790039e-01" nType="-99"/>
            <Node pos="r" depth="3" NCoef="0" IVar="-1" Cut="0.0000000000000000e+00" cType="1" res="4.7833044081926346e-03" rms="2.2699075937271118e-01" purity="9.0776842832565308e-01" nType="-99"/>
          </Node>
        </Node>
      </Node>
    </BinaryTree>
    <BinaryTree type="DecisionTree" boostWeight="1.0000000000000000e+00" itree="257">
      <Node pos="s" depth="0" NCoef="0" IVar="9" Cut="-1.4665281772613525e+00" cType="1" res="4.2400494567118585e-04" rms="2.8953045606613159e-01" purity="4.9660199880599976e-01" nType="0">
        <Node pos="l" depth="1" NCoef="0" IVar="4" Cut="1.1377595520019531e+02" cType="1" res="1.3396317139267921e-02" rms="2.8556531667709351e-01" purity="2.2944837808609009e-01" nType="0">
          <Node pos="l" depth="2" NCoef="0" IVar="-1" Cut="0.0000000000000000e+00" cType="1" res="6.7016951739788055e-02" rms="2.5674843788146973e-01" purity="1.0206576436758041e-01" nType="-99"/>
          <Node pos="r" depth="2" NCoef="0" IVar="1" Cut="3.3550128340721130e-02" cType="1" res="6.7694828612729907e-04" rms="3.0427497625350952e-01" purity="3.2252427935600281e-01" nType="0">
            <Node pos="l" depth="3" NCoef="0" IVar="-1" Cut="0.0000000000000000e+00" cType="1" res="-8.1458901986479759e-03" rms="2.4383328855037689e-01" purity="1.3020840287208557e-01" nType="-99"/>
            <Node pos="r" depth="3" NCoef="0" IVar="-1" Cut="0.0000000000000000e+00" cType="1" res="5.2272840403020382e-03" rms="3.5332781076431274e-01" purity="5.1020848751068115e-01" nType="-99"/>
          </Node>
        </Node>
        <Node pos="r" depth="1" NCoef="0" IVar="8" Cut="-9.3292611837387085e-01" cType="1" res="-8.6290360195562243e-04" rms="2.8988918662071228e-01" purity="5.2310472726821899e-01" nType="0">
          <Node pos="l" depth="2" NCoef="0" IVar="0" Cut="1.8159074707031250e+03" cType="1" res="-1.0582803748548031e-02" rms="2.6406100392341614e-01" purity="2.9569581151008606e-01" nType="0">
            <Node pos="l" depth="3" NCoef="0" IVar="-1" Cut="0.0000000000000000e+00" cType="1" res="-1.8714774399995804e-02" rms="2.6177462935447693e-01" purity="1.9484668970108032e-01" nType="-99"/>
            <Node pos="r" depth="3" NCoef="0" IVar="-1" Cut="0.0000000000000000e+00" cType="1" res="6.6337427124381065e-03" rms="2.7387732267379761e-01" purity="7.6595830917358398e-01" nType="-99"/>
          </Node>
          <Node pos="r" depth="2" NCoef="0" IVar="7" Cut="-3.5602259635925293e-01" cType="1" res="1.0498152114450932e-03" rms="2.9466760158538818e-01" purity="5.6785511970520020e-01" nType="0">
            <Node pos="l" depth="3" NCoef="0" IVar="-1" Cut="0.0000000000000000e+00" cType="1" res="-8.2725714892148972e-03" rms="2.9048427939414978e-01" purity="4.7588539123535156e-01" nType="-99"/>
            <Node pos="r" depth="3" NCoef="0" IVar="-1" Cut="0.0000000000000000e+00" cType="1" res="5.3201438859105110e-03" rms="2.9647657275199890e-01" purity="6.0961288213729858e-01" nType="-99"/>
          </Node>
        </Node>
      </Node>
    </BinaryTree>
    <BinaryTree type="DecisionTree" boostWeight="1.0000000000000000e+00" itree="258">
      <Node pos="s" depth="0" NCoef="0" IVar="10" Cut="-1.2001074552536011e+00" cType="1" res="2.7868463657796383e-03" rms="2.8878223896026611e-01" purity="5.0640076398849487e-01" nType="0">
        <Node pos="l" depth="1" NCoef="0" IVar="4" Cut="9.9581436157226562e+01" cType="1" res="-9.2061776667833328e-03" rms="2.7217441797256470e-01" purity="3.6835238337516785e-01" nType="0">
          <Node pos="l" depth="2" NCoef="0" IVar="-1" Cut="0.0000000000000000e+00" cType="1" res="2.2261070087552071e-02" rms="2.1221312880516052e-01" purity="7.7542237937450409e-02" nType="-99"/>
          <Node pos="r" depth="2" NCoef="0" IVar="10" Cut="-1.8857853412628174e+00" cType="1" res="-1.4796471223235130e-02" rms="2.8703898191452026e-01" purity="4.5296981930732727e-01" nType="0">
            <Node pos="l" depth="3" NCoef="0" IVar="-1" Cut="0.0000000000000000e+00" cType="1" res="-3.2958231866359711e-02" rms="2.8655615448951721e-01" purity="2.8235587477684021e-01" nType="-99"/>
            <Node pos="r" depth="3" NCoef="0" IVar="-1" Cut="0.0000000000000000e+00" cType="1" res="-6.9780731573700905e-03" rms="2.8695821762084961e-01" purity="5.4040408134460449e-01" nType="-99"/>
          </Node>
        </Node>
        <Node pos="r" depth="1" NCoef="0" IVar="0" Cut="1.9481791992187500e+03" cType="1" res="5.2170045673847198e-03" rms="2.9197239875793457e-01" purity="5.3437358140945435e-01" nType="0">
          <Node pos="l" depth="2" NCoef="0" IVar="10" Cut="-1.0096025466918945e+00" cType="1" res="7.7229510061442852e-03" rms="3.0826535820960999e-01" purity="4.3224021792411804e-01" nType="0">
            <Node pos="l" depth="3" NCoef="0" IVar="-1" Cut="0.0000000000000000e+00" cType="1" res="3.0294051393866539e-02" rms="3.2714837789535522e-01" purity="4.4887858629226685e-01" nType="-99"/>
            <Node pos="r" depth="3" NCoef="0" IVar="-1" Cut="0.0000000000000000e+00" cType="1" res="6.8646534346044064e-03" rms="3.0709162354469299e-01" purity="4.3127977848052979e-01" nType="-99"/>
          </Node>
          <Node pos="r" depth="2" NCoef="0" IVar="11" Cut="-2.7239413261413574e+00" cType="1" res="-3.7395034451037645e-03" rms="2.2403523325920105e-01" purity="8.9940881729125977e-01" nType="0">
            <Node pos="l" depth="3" NCoef="0" IVar="-1" Cut="0.0000000000000000e+00" cType="1" res="-2.1635754033923149e-02" rms="3.3581727743148804e-01" purity="6.7667031288146973e-01" nType="-99"/>
            <Node pos="r" depth="3" NCoef="0" IVar="-1" Cut="0.0000000000000000e+00" cType="1" res="1.5954608097672462e-03" rms="1.9224950671195984e-01" purity="9.4611990451812744e-01" nType="-99"/>
          </Node>
        </Node>
      </Node>
    </BinaryTree>
    <BinaryTree type="DecisionTree" boostWeight="1.0000000000000000e+00" itree="259">
      <Node pos="s" depth="0" NCoef="0" IVar="7" Cut="-6.5614867210388184e-01" cType="1" res="-2.2482299245893955e-03" rms="2.9037824273109436e-01" purity="4.9670287966728210e-01" nType="0">
        <Node pos="l" depth="1" NCoef="0" IVar="8" Cut="1.3358123600482941e-01" cType="1" res="6.7477691918611526e-03" rms="2.8554409742355347e-01" purity="3.3452528715133667e-01" nType="0">
          <Node pos="l" depth="2" NCoef="0" IVar="7" Cut="-8.5244762897491455e-01" cType="1" res="9.6346985083073378e-04" rms="2.8644993901252747e-01" purity="3.6531785130500793e-01" nType="0">
            <Node pos="l" depth="3" NCoef="0" IVar="-1" Cut="0.0000000000000000e+00" cType="1" res="1.0346400551497936e-02" rms="2.7665421366691589e-01" purity="3.1320577859878540e-01" nType="-99"/>
            <Node pos="r" depth="3" NCoef="0" IVar="-1" Cut="0.0000000000000000e+00" cType="1" res="-2.3628549650311470e-02" rms="3.1428062915802002e-01" purity="5.2954012155532837e-01" nType="-99"/>
          </Node>
          <Node pos="r" depth="2" NCoef="0" IVar="4" Cut="1.2778001403808594e+02" cType="1" res="1.5284711495041847e-02" rms="2.8398674726486206e-01" purity="2.8907907009124756e-01" nType="0">
            <Node pos="l" depth="3" NCoef="0" IVar="-1" Cut="0.0000000000000000e+00" cType="1" res="9.0940922498703003e-02" rms="2.6048251986503601e-01" purity="1.1357301473617554e-01" nType="-99"/>
            <Node pos="r" depth="3" NCoef="0" IVar="-1" Cut="0.0000000000000000e+00" cType="1" res="-3.2614665105938911e-03" rms="2.9920932650566101e-01" purity="4.2154061794281006e-01" nType="-99"/>
          </Node>
        </Node>
        <Node pos="r" depth="1" NCoef="0" IVar="6" Cut="7.8976905822753906e+01" cType="1" res="-4.9291467294096947e-03" rms="2.9174974560737610e-01" purity="5.4503375291824341e-01" nType="0">
          <Node pos="l" depth="2" NCoef="0" IVar="10" Cut="1.4663714170455933e+00" cType="1" res="-7.5191133655607700e-03" rms="3.1653255224227905e-01" purity="4.1008090972900391e-01" nType="0">
            <Node pos="l" depth="3" NCoef="0" IVar="-1" Cut="0.0000000000000000e+00" cType="1" res="-9.3640042468905449e-03" rms="3.1911069154739380e-01" purity="4.2678552865982056e-01" nType="-99"/>
            <Node pos="r" depth="3" NCoef="0" IVar="-1" Cut="0.0000000000000000e+00" cType="1" res="6.3829775899648666e-03" rms="2.9918327927589417e-01" purity="3.0330824851989746e-01" nType="-99"/>
          </Node>
          <Node pos="r" depth="2" NCoef="0" IVar="8" Cut="-1.3246104121208191e-01" cType="1" res="2.4404739961028099e-03" rms="2.0530341565608978e-01" purity="9.2903530597686768e-01" nType="0">
            <Node pos="l" depth="3" NCoef="0" IVar="-1" Cut="0.0000000000000000e+00" cType="1" res="-5.6837066076695919e-03" rms="2.1009944379329681e-01" purity="9.1803383827209473e-01" nType="-99"/>
            <Node pos="r" depth="3" NCoef="0" IVar="-1" Cut="0.0000000000000000e+00" cType="1" res="1.3887250795960426e-02" rms="2.0169636607170105e-01" purity="9.3696427345275879e-01" nType="-99"/>
          </Node>
        </Node>
      </Node>
    </BinaryTree>
    <BinaryTree type="DecisionTree" boostWeight="1.0000000000000000e+00" itree="260">
      <Node pos="s" depth="0" NCoef="0" IVar="9" Cut="6.6621184349060059e-01" cType="1" res="7.8559218673035502e-04" rms="2.9059737920761108e-01" purity="5.0399792194366455e-01" nType="0">
        <Node pos="l" depth="1" NCoef="0" IVar="5" Cut="8.7484733581542969e+01" cType="1" res="-1.8021051073446870e-03" rms="2.8930130600929260e-01" purity="5.3479236364364624e-01" nType="0">
          <Node pos="l" depth="2" NCoef="0" IVar="8" Cut="-1.3390812277793884e-01" cType="1" res="-4.7678900882601738e-03" rms="3.0958190560340881e-01" purity="2.9708144068717957e-01" nType="0">
            <Node pos="l" depth="3" NCoef="0" IVar="-1" Cut="0.0000000000000000e+00" cType="1" res="-1.1759172193706036e-02" rms="3.0340144038200378e-01" purity="2.6984709501266479e-01" nType="-99"/>
            <Node pos="r" depth="3" NCoef="0" IVar="-1" Cut="0.0000000000000000e+00" cType="1" res="1.0928731644526124e-03" rms="3.1507840752601624e-01" purity="3.2227388024330139e-01" nType="-99"/>
          </Node>
          <Node pos="r" depth="2" NCoef="0" IVar="6" Cut="1.4146081924438477e+01" cType="1" res="1.9009798998013139e-03" rms="2.6173534989356995e-01" purity="8.3159881830215454e-01" nType="0">
            <Node pos="l" depth="3" NCoef="0" IVar="-1" Cut="0.0000000000000000e+00" cType="1" res="1.9918115809559822e-02" rms="3.6353677511215210e-01" purity="5.7070618867874146e-01" nType="-99"/>
            <Node pos="r" depth="3" NCoef="0" IVar="-1" Cut="0.0000000000000000e+00" cType="1" res="-5.2062030881643295e-03" rms="2.3546841740608215e-01" purity="8.8454711437225342e-01" nType="-99"/>
          </Node>
        </Node>
        <Node pos="r" depth="1" NCoef="0" IVar="7" Cut="-1.1876974105834961e+00" cType="1" res="7.9219955950975418e-03" rms="2.9402413964271545e-01" purity="4.1907221078872681e-01" nType="0">
          <Node pos="l" depth="2" NCoef="0" IVar="-1" Cut="0.0000000000000000e+00" cType="1" res="-4.6507526189088821e-02" rms="1.6310510039329529e-01" purity="7.5294323265552521e-02" nType="-99"/>
          <Node pos="r" depth="2" NCoef="0" IVar="11" Cut="3.7531226873397827e-02" cType="1" res="1.0775239206850529e-02" rms="3.0453926324844360e-01" purity="4.5571208000183105e-01" nType="0">
            <Node pos="l" depth="3" NCoef="0" IVar="-1" Cut="0.0000000000000000e+00" cType="1" res="1.8741989508271217e-02" rms="3.0092218518257141e-01" purity="3.7041464447975159e-01" nType="-99"/>
            <Node pos="r" depth="3" NCoef="0" IVar="-1" Cut="0.0000000000000000e+00" cType="1" res="-4.8555494286119938e-03" rms="3.1389471888542175e-01" purity="6.9360977411270142e-01" nType="-99"/>
          </Node>
        </Node>
      </Node>
    </BinaryTree>
    <BinaryTree type="DecisionTree" boostWeight="1.0000000000000000e+00" itree="261">
      <Node pos="s" depth="0" NCoef="0" IVar="9" Cut="-6.6581076383590698e-01" cType="1" res="-2.0999948901589960e-04" rms="2.8956434130668640e-01" purity="4.9547818303108215e-01" nType="0">
        <Node pos="l" depth="1" NCoef="0" IVar="10" Cut="9.3318438529968262e-01" cType="1" res="-6.0347225517034531e-03" rms="2.8435885906219482e-01" purity="4.0216118097305298e-01" nType="0">
          <Node pos="l" depth="2" NCoef="0" IVar="6" Cut="7.1706649780273438e+01" cType="1" res="-2.5926427915692329e-03" rms="2.8288874030113220e-01" purity="4.2618301510810852e-01" nType="0">
            <Node pos="l" depth="3" NCoef="0" IVar="-1" Cut="0.0000000000000000e+00" cType="1" res="-8.8389879092574120e-03" rms="2.9257646203041077e-01" purity="2.6811340451240540e-01" nType="-99"/>
            <Node pos="r" depth="3" NCoef="0" IVar="-1" Cut="0.0000000000000000e+00" cType="1" res="1.8064467236399651e-02" rms="2.5289493799209595e-01" purity="8.7243348360061646e-01" nType="-99"/>
          </Node>
          <Node pos="r" depth="2" NCoef="0" IVar="7" Cut="-5.2231267094612122e-02" cType="1" res="-2.0616443827748299e-02" rms="2.9005160927772522e-01" purity="3.0039739608764648e-01" nType="0">
            <Node pos="l" depth="3" NCoef="0" IVar="-1" Cut="0.0000000000000000e+00" cType="1" res="-4.1663166135549545e-02" rms="2.8266772627830505e-01" purity="3.0968612432479858e-01" nType="-99"/>
            <Node pos="r" depth="3" NCoef="0" IVar="-1" Cut="0.0000000000000000e+00" cType="1" res="-7.6866960152983665e-03" rms="2.9641044139862061e-01" purity="2.9132288694381714e-01" nType="-99"/>
          </Node>
        </Node>
        <Node pos="r" depth="1" NCoef="0" IVar="10" Cut="-1.4666311740875244e+00" cType="1" res="1.9522649236023426e-03" rms="2.9144343733787537e-01" purity="5.3011941909790039e-01" nType="0">
          <Node pos="l" depth="2" NCoef="0" IVar="5" Cut="7.6301437377929688e+01" cType="1" res="1.6406470909714699e-02" rms="3.0042752623558044e-01" purity="3.7473011016845703e-01" nType="0">
            <Node pos="l" depth="3" NCoef="0" IVar="-1" Cut="0.0000000000000000e+00" cType="1" res="3.9257816970348358e-02" rms="2.9823154211044312e-01" purity="2.0793171226978302e-01" nType="-99"/>
            <Node pos="r" depth="3" NCoef="0" IVar="-1" Cut="0.0000000000000000e+00" cType="1" res="-2.8297817334532738e-03" rms="3.0253407359123230e-01" purity="6.1549097299575806e-01" nType="-99"/>
          </Node>
          <Node pos="r" depth="2" NCoef="0" IVar="8" Cut="-1.1997686624526978e+00" cType="1" res="2.6092349435202777e-04" rms="2.9032698273658752e-01" purity="5.4830217361450195e-01" nType="0">
            <Node pos="l" depth="3" NCoef="0" IVar="-1" Cut="0.0000000000000000e+00" cType="1" res="1.9902078434824944e-02" rms="2.7215781807899475e-01" purity="2.7486550807952881e-01" nType="-99"/>
            <Node pos="r" depth="3" NCoef="0" IVar="-1" Cut="0.0000000000000000e+00" cType="1" res="-1.6180954407900572e-03" rms="2.9215756058692932e-01" purity="5.7757377624511719e-01" nType="-99"/>
          </Node>
        </Node>
      </Node>
    </BinaryTree>
    <BinaryTree type="DecisionTree" boostWeight="1.0000000000000000e+00" itree="262">
      <Node pos="s" depth="0" NCoef="0" IVar="10" Cut="-1.9999183416366577e+00" cType="1" res="-5.5942864855751395e-04" rms="2.9127284884452820e-01" purity="4.9826979637145996e-01" nType="0">
        <Node pos="l" depth="1" NCoef="0" IVar="-1" Cut="0.0000000000000000e+00" cType="1" res="2.1463453769683838e-02" rms="2.8115826845169067e-01" purity="2.5799506902694702e-01" nType="-99"/>
        <Node pos="r" depth="1" NCoef="0" IVar="8" Cut="6.6680443286895752e-01" cType="1" res="-1.4621427981182933e-03" rms="2.9177668690681458e-01" purity="5.1112663745880127e-01" nType="0">
          <Node pos="l" depth="2" NCoef="0" IVar="10" Cut="1.8855376243591309e+00" cType="1" res="9.0769975213333964e-04" rms="2.9542711377143860e-01" purity="5.5908566713333130e-01" nType="0">
            <Node pos="l" depth="3" NCoef="0" IVar="-1" Cut="0.0000000000000000e+00" cType="1" res="2.8602271340787411e-03" rms="2.9538831114768982e-01" purity="5.7578927278518677e-01" nType="-99"/>
            <Node pos="r" depth="3" NCoef="0" IVar="-1" Cut="0.0000000000000000e+00" cType="1" res="-2.6366064324975014e-02" rms="2.9490175843238831e-01" purity="2.8984102606773376e-01" nType="-99"/>
          </Node>
          <Node pos="r" depth="2" NCoef="0" IVar="11" Cut="3.7991806864738464e-02" cType="1" res="-8.6986534297466278e-03" rms="2.8021183609962463e-01" purity="3.6467966437339783e-01" nType="0">
            <Node pos="l" depth="3" NCoef="0" IVar="-1" Cut="0.0000000000000000e+00" cType="1" res="-3.8054282777011395e-03" rms="2.7691298723220825e-01" purity="2.8648358583450317e-01" nType="-99"/>
            <Node pos="r" depth="3" NCoef="0" IVar="-1" Cut="0.0000000000000000e+00" cType="1" res="-2.7063963934779167e-02" rms="2.8935471177101135e-01" purity="6.0319024324417114e-01" nType="-99"/>
          </Node>
        </Node>
      </Node>
    </BinaryTree>
    <BinaryTree type="DecisionTree" boostWeight="1.0000000000000000e+00" itree="263">
      <Node pos="s" depth="0" NCoef="0" IVar="10" Cut="-9.3334430456161499e-01" cType="1" res="3.3083505695685744e-04" rms="2.8632208704948425e-01" purity="5.0394046306610107e-01" nType="0">
        <Node pos="l" depth="1" NCoef="0" IVar="10" Cut="-1.8222430944442749e+00" cType="1" res="-7.4710105545818806e-03" rms="2.8486478328704834e-01" purity="4.0486988425254822e-01" nType="0">
          <Node pos="l" depth="2" NCoef="0" IVar="3" Cut="1.8567282104492188e+02" cType="1" res="1.0141004808247089e-02" rms="2.8300642967224121e-01" purity="2.8312715888023376e-01" nType="0">
            <Node pos="l" depth="3" NCoef="0" IVar="-1" Cut="0.0000000000000000e+00" cType="1" res="5.6643314659595490e-02" rms="2.6621675491333008e-01" purity="1.5603807568550110e-01" nType="-99"/>
            <Node pos="r" depth="3" NCoef="0" IVar="-1" Cut="0.0000000000000000e+00" cType="1" res="-9.5669282600283623e-03" rms="2.9464343190193176e-01" purity="3.8760259747505188e-01" nType="-99"/>
          </Node>
          <Node pos="r" depth="2" NCoef="0" IVar="11" Cut="-2.7238383293151855e+00" cType="1" res="-1.5189053490757942e-02" rms="2.8533297777175903e-01" purity="4.5822069048881531e-01" nType="0">
            <Node pos="l" depth="3" NCoef="0" IVar="-1" Cut="0.0000000000000000e+00" cType="1" res="-5.2327974699437618e-03" rms="2.8826066851615906e-01" purity="2.2544087469577789e-01" nType="-99"/>
            <Node pos="r" depth="3" NCoef="0" IVar="-1" Cut="0.0000000000000000e+00" cType="1" res="-3.1293999403715134e-02" rms="2.8178194165229797e-01" purity="7.0324778556823730e-01" nType="-99"/>
          </Node>
        </Node>
        <Node pos="r" depth="1" NCoef="0" IVar="9" Cut="-1.1993988752365112e+00" cType="1" res="2.6548733003437519e-03" rms="2.8671374917030334e-01" purity="5.3345191478729248e-01" nType="0">
          <Node pos="l" depth="2" NCoef="0" IVar="10" Cut="6.6654986143112183e-01" cType="1" res="-1.2111295014619827e-02" rms="2.7670472860336304e-01" purity="2.8684613108634949e-01" nType="0">
            <Node pos="l" depth="3" NCoef="0" IVar="-1" Cut="0.0000000000000000e+00" cType="1" res="-2.5777495466172695e-03" rms="2.8421244025230408e-01" purity="3.3449026942253113e-01" nType="-99"/>
            <Node pos="r" depth="3" NCoef="0" IVar="-1" Cut="0.0000000000000000e+00" cType="1" res="-3.6262962967157364e-02" rms="2.6418933272361755e-01" purity="2.1454465389251709e-01" nType="-99"/>
          </Node>
          <Node pos="r" depth="2" NCoef="0" IVar="9" Cut="1.2762476205825806e+00" cType="1" res="4.6092900447547436e-03" rms="2.8795570135116577e-01" purity="5.6609207391738892e-01" nType="0">
            <Node pos="l" depth="3" NCoef="0" IVar="-1" Cut="0.0000000000000000e+00" cType="1" res="8.2801058888435364e-03" rms="2.9075902700424194e-01" purity="6.1013197898864746e-01" nType="-99"/>
            <Node pos="r" depth="3" NCoef="0" IVar="-1" Cut="0.0000000000000000e+00" cType="1" res="-1.3753140345215797e-02" rms="2.6789161562919617e-01" purity="2.7091482281684875e-01" nType="-99"/>
          </Node>
        </Node>
      </Node>
    </BinaryTree>
    <BinaryTree type="DecisionTree" boostWeight="1.0000000000000000e+00" itree="264">
      <Node pos="s" depth="0" NCoef="0" IVar="8" Cut="9.3334549665451050e-01" cType="1" res="-9.3280040891841054e-04" rms="2.8931504487991333e-01" purity="4.9914681911468506e-01" nType="0">
        <Node pos="l" depth="1" NCoef="0" IVar="9" Cut="-9.3337732553482056e-01" cType="1" res="-3.3465055748820305e-03" rms="2.9149690270423889e-01" purity="5.3980189561843872e-01" nType="0">
          <Node pos="l" depth="2" NCoef="0" IVar="11" Cut="-7.9552787542343140e-01" cType="1" res="5.4871090687811375e-03" rms="2.9450815916061401e-01" purity="3.8313123583793640e-01" nType="0">
            <Node pos="l" depth="3" NCoef="0" IVar="-1" Cut="0.0000000000000000e+00" cType="1" res="-4.0165283717215061e-03" rms="2.8251540660858154e-01" purity="2.4374330043792725e-01" nType="-99"/>
            <Node pos="r" depth="3" NCoef="0" IVar="-1" Cut="0.0000000000000000e+00" cType="1" res="2.1852316334843636e-02" rms="3.1680494546890259e-01" purity="6.6748279333114624e-01" nType="-99"/>
          </Node>
          <Node pos="r" depth="2" NCoef="0" IVar="1" Cut="1.3138440251350403e-01" cType="1" res="-5.5533163249492645e-03" rms="2.9069784283638000e-01" purity="5.7894122600555420e-01" nType="0">
            <Node pos="l" depth="3" NCoef="0" IVar="-1" Cut="0.0000000000000000e+00" cType="1" res="-8.6943134665489197e-03" rms="3.0244696140289307e-01" purity="4.8627415299415588e-01" nType="-99"/>
            <Node pos="r" depth="3" NCoef="0" IVar="-1" Cut="0.0000000000000000e+00" cType="1" res="4.7773797996342182e-03" rms="2.4755564332008362e-01" purity="8.8649874925613403e-01" nType="-99"/>
          </Node>
        </Node>
        <Node pos="r" depth="1" NCoef="0" IVar="9" Cut="-3.9998787641525269e-01" cType="1" res="1.1069744825363159e-02" rms="2.7790027856826782e-01" purity="2.9698297381401062e-01" nType="0">
          <Node pos="l" depth="2" NCoef="0" IVar="9" Cut="-1.0856980085372925e+00" cType="1" res="-1.6064606606960297e-03" rms="2.6761895418167114e-01" purity="2.4149462580680847e-01" nType="0">
            <Node pos="l" depth="3" NCoef="0" IVar="-1" Cut="0.0000000000000000e+00" cType="1" res="1.2599476613104343e-02" rms="2.6125147938728333e-01" purity="1.5986509621143341e-01" nType="-99"/>
            <Node pos="r" depth="3" NCoef="0" IVar="-1" Cut="0.0000000000000000e+00" cType="1" res="-1.3968067243695259e-02" rms="2.7360013127326965e-01" purity="3.2442107796669006e-01" nType="-99"/>
          </Node>
          <Node pos="r" depth="2" NCoef="0" IVar="5" Cut="7.7728973388671875e+01" cType="1" res="1.6836857423186302e-02" rms="2.8226563334465027e-01" purity="3.2222768664360046e-01" nType="0">
            <Node pos="l" depth="3" NCoef="0" IVar="-1" Cut="0.0000000000000000e+00" cType="1" res="8.9816804975271225e-03" rms="2.5013384222984314e-01" purity="1.2961459159851074e-01" nType="-99"/>
            <Node pos="r" depth="3" NCoef="0" IVar="-1" Cut="0.0000000000000000e+00" cType="1" res="3.2763782888650894e-02" rms="3.2461026310920715e-01" purity="6.1700165271759033e-01" nType="-99"/>
          </Node>
        </Node>
      </Node>
    </BinaryTree>
    <BinaryTree type="DecisionTree" boostWeight="1.0000000000000000e+00" itree="265">
      <Node pos="s" depth="0" NCoef="0" IVar="7" Cut="1.7479914426803589e+00" cType="1" res="2.0869388245046139e-03" rms="2.8914248943328857e-01" purity="5.0487095117568970e-01" nType="0">
        <Node pos="l" depth="1" NCoef="0" IVar="9" Cut="-1.1994540691375732e+00" cType="1" res="2.8625419363379478e-03" rms="2.9310595989227295e-01" purity="5.2139127254486084e-01" nType="0">
          <Node pos="l" depth="2" NCoef="0" IVar="0" Cut="1.3742124023437500e+03" cType="1" res="1.2176096439361572e-02" rms="2.9276207089424133e-01" purity="3.0959784984588623e-01" nType="0">
            <Node pos="l" depth="3" NCoef="0" IVar="-1" Cut="0.0000000000000000e+00" cType="1" res="2.2208404261618853e-03" rms="2.5551509857177734e-01" purity="1.1965180188417435e-01" nType="-99"/>
            <Node pos="r" depth="3" NCoef="0" IVar="-1" Cut="0.0000000000000000e+00" cType="1" res="2.2908935323357582e-02" rms="3.3361589908599854e-01" purity="5.5066722631454468e-01" nType="-99"/>
          </Node>
          <Node pos="r" depth="2" NCoef="0" IVar="9" Cut="5.1454013586044312e-01" cType="1" res="1.4365344541147351e-03" rms="2.9313248395919800e-01" purity="5.5381917953491211e-01" nType="0">
            <Node pos="l" depth="3" NCoef="0" IVar="-1" Cut="0.0000000000000000e+00" cType="1" res="-1.9678955432027578e-03" rms="2.9015812277793884e-01" purity="6.0414987802505493e-01" nType="-99"/>
            <Node pos="r" depth="3" NCoef="0" IVar="-1" Cut="0.0000000000000000e+00" cType="1" res="7.8389421105384827e-03" rms="2.9827049374580383e-01" purity="4.6428033709526062e-01" nType="-99"/>
          </Node>
        </Node>
        <Node pos="r" depth="1" NCoef="0" IVar="-1" Cut="0.0000000000000000e+00" cType="1" res="-6.4012527465820312e-02" rms="1.3578954339027405e-01" purity="4.1880387812852859e-02" nType="-99"/>
      </Node>
    </BinaryTree>
    <BinaryTree type="DecisionTree" boostWeight="1.0000000000000000e+00" itree="266">
      <Node pos="s" depth="0" NCoef="0" IVar="4" Cut="1.4593727111816406e+02" cType="1" res="-1.7302389023825526e-03" rms="2.8474807739257812e-01" purity="4.9850949645042419e-01" nType="0">
        <Node pos="l" depth="1" NCoef="0" IVar="9" Cut="-1.1999120712280273e+00" cType="1" res="-6.9093545898795128e-03" rms="2.7873328328132629e-01" purity="2.1682569384574890e-01" nType="0">
          <Node pos="l" depth="2" NCoef="0" IVar="4" Cut="1.1447688293457031e+02" cType="1" res="8.7404986843466759e-03" rms="2.5012871623039246e-01" purity="1.5985353291034698e-01" nType="0">
            <Node pos="l" depth="3" NCoef="0" IVar="-1" Cut="0.0000000000000000e+00" cType="1" res="-2.7252943255007267e-03" rms="2.1895767748355865e-01" purity="8.4778279066085815e-02" nType="-99"/>
            <Node pos="r" depth="3" NCoef="0" IVar="-1" Cut="0.0000000000000000e+00" cType="1" res="2.7680950239300728e-02" rms="2.9172116518020630e-01" purity="2.7770358324050903e-01" nType="-99"/>
          </Node>
          <Node pos="r" depth="2" NCoef="0" IVar="1" Cut="9.5804788172245026e-02" cType="1" res="-1.0418173857033253e-02" rms="2.8463450074195862e-01" purity="2.2959929704666138e-01" nType="0">
            <Node pos="l" depth="3" NCoef="0" IVar="-1" Cut="0.0000000000000000e+00" cType="1" res="-9.1190077364444733e-03" rms="2.7018371224403381e-01" purity="1.6075016558170319e-01" nType="-99"/>
            <Node pos="r" depth="3" NCoef="0" IVar="-1" Cut="0.0000000000000000e+00" cType="1" res="-2.1786618977785110e-02" rms="3.4461489319801331e-01" purity="5.5680948495864868e-01" nType="-99"/>
          </Node>
        </Node>
        <Node pos="r" depth="1" NCoef="0" IVar="10" Cut="-4.0001559257507324e-01" cType="1" res="2.3410548456013203e-03" rms="2.8932344913482666e-01" purity="7.1994060277938843e-01" nType="0">
          <Node pos="l" depth="2" NCoef="0" IVar="8" Cut="-1.3294039666652679e-01" cType="1" res="1.0435149073600769e-02" rms="2.8653252124786377e-01" purity="7.0283675193786621e-01" nType="0">
            <Node pos="l" depth="3" NCoef="0" IVar="-1" Cut="0.0000000000000000e+00" cType="1" res="2.3774676024913788e-02" rms="2.8584843873977661e-01" purity="6.8933254480361938e-01" nType="-99"/>
            <Node pos="r" depth="3" NCoef="0" IVar="-1" Cut="0.0000000000000000e+00" cType="1" res="-6.9400813663378358e-04" rms="2.8678154945373535e-01" purity="7.1620190143585205e-01" nType="-99"/>
          </Node>
          <Node pos="r" depth="2" NCoef="0" IVar="2" Cut="6.1932922363281250e+02" cType="1" res="-2.3868831340223551e-03" rms="2.9083710908889771e-01" purity="7.2993135452270508e-01" nType="0">
            <Node pos="l" depth="3" NCoef="0" IVar="-1" Cut="0.0000000000000000e+00" cType="1" res="-5.9600360691547394e-03" rms="2.8735512495040894e-01" purity="7.2911143302917480e-01" nType="-99"/>
            <Node pos="r" depth="3" NCoef="0" IVar="-1" Cut="0.0000000000000000e+00" cType="1" res="2.1082859486341476e-02" rms="3.1937813758850098e-01" purity="7.3726844787597656e-01" nType="-99"/>
          </Node>
        </Node>
      </Node>
    </BinaryTree>
    <BinaryTree type="DecisionTree" boostWeight="1.0000000000000000e+00" itree="267">
      <Node pos="s" depth="0" NCoef="0" IVar="8" Cut="-9.3252819776535034e-01" cType="1" res="9.1752124717459083e-04" rms="2.9016798734664917e-01" purity="5.0265389680862427e-01" nType="0">
        <Node pos="l" depth="1" NCoef="0" IVar="11" Cut="3.5398926585912704e-02" cType="1" res="-1.0664982721209526e-02" rms="2.7057147026062012e-01" purity="2.8036871552467346e-01" nType="0">
          <Node pos="l" depth="2" NCoef="0" IVar="10" Cut="-6.6663372516632080e-01" cType="1" res="-6.5412279218435287e-03" rms="2.5468787550926208e-01" purity="2.3119172453880310e-01" nType="0">
            <Node pos="l" depth="3" NCoef="0" IVar="-1" Cut="0.0000000000000000e+00" cType="1" res="-2.4188244715332985e-02" rms="2.3893785476684570e-01" purity="1.8564592301845551e-01" nType="-99"/>
            <Node pos="r" depth="3" NCoef="0" IVar="-1" Cut="0.0000000000000000e+00" cType="1" res="-7.8831193968653679e-04" rms="2.6396149396896362e-01" purity="2.5990942120552063e-01" nType="-99"/>
          </Node>
          <Node pos="r" depth="2" NCoef="0" IVar="-1" Cut="0.0000000000000000e+00" cType="1" res="-2.6450149714946747e-02" rms="3.3264335989952087e-01" purity="5.0359064340591431e-01" nType="-99"/>
        </Node>
        <Node pos="r" depth="1" NCoef="0" IVar="10" Cut="-1.7333663702011108e+00" cType="1" res="3.3570588566362858e-03" rms="2.9407089948654175e-01" purity="5.4947221279144287e-01" nType="0">
          <Node pos="l" depth="2" NCoef="0" IVar="7" Cut="1.3926574587821960e-01" cType="1" res="2.2618370130658150e-02" rms="2.9404380917549133e-01" purity="3.6310192942619324e-01" nType="0">
            <Node pos="l" depth="3" NCoef="0" IVar="-1" Cut="0.0000000000000000e+00" cType="1" res="1.0141215287148952e-02" rms="2.8415855765342712e-01" purity="3.5206264257431030e-01" nType="-99"/>
            <Node pos="r" depth="3" NCoef="0" IVar="-1" Cut="0.0000000000000000e+00" cType="1" res="4.4873598963022232e-02" rms="3.0585327744483948e-01" purity="3.7792462110519409e-01" nType="-99"/>
          </Node>
          <Node pos="r" depth="2" NCoef="0" IVar="11" Cut="-1.0668674707412720e+00" cType="1" res="1.8412958597764373e-03" rms="2.9401949048042297e-01" purity="5.6413853168487549e-01" nType="0">
            <Node pos="l" depth="3" NCoef="0" IVar="-1" Cut="0.0000000000000000e+00" cType="1" res="7.7234441414475441e-03" rms="3.1089121103286743e-01" purity="3.7052318453788757e-01" nType="-99"/>
            <Node pos="r" depth="3" NCoef="0" IVar="-1" Cut="0.0000000000000000e+00" cType="1" res="-6.4040059223771095e-03" rms="2.7223640680313110e-01" purity="7.9662424325942993e-01" nType="-99"/>
          </Node>
        </Node>
      </Node>
    </BinaryTree>
    <BinaryTree type="DecisionTree" boostWeight="1.0000000000000000e+00" itree="268">
      <Node pos="s" depth="0" NCoef="0" IVar="9" Cut="-1.2000257968902588e+00" cType="1" res="2.9632062651216984e-03" rms="2.8980898857116699e-01" purity="5.0232213735580444e-01" nType="0">
        <Node pos="l" depth="1" NCoef="0" IVar="7" Cut="-8.4730729460716248e-02" cType="1" res="-5.7246712967753410e-03" rms="2.7518847584724426e-01" purity="2.8505876660346985e-01" nType="0">
          <Node pos="l" depth="2" NCoef="0" IVar="5" Cut="7.8704322814941406e+01" cType="1" res="4.5888824388384819e-03" rms="2.7990552783012390e-01" purity="3.0291071534156799e-01" nType="0">
            <Node pos="l" depth="3" NCoef="0" IVar="-1" Cut="0.0000000000000000e+00" cType="1" res="-9.9272057414054871e-03" rms="2.5105664134025574e-01" purity="1.2955407798290253e-01" nType="-99"/>
            <Node pos="r" depth="3" NCoef="0" IVar="-1" Cut="0.0000000000000000e+00" cType="1" res="2.2146843373775482e-02" rms="3.2282543182373047e-01" purity="6.0313248634338379e-01" nType="-99"/>
          </Node>
          <Node pos="r" depth="2" NCoef="0" IVar="4" Cut="1.1990332794189453e+02" cType="1" res="-1.7183303833007812e-02" rms="2.6938834786415100e-01" purity="2.6522478461265564e-01" nType="0">
            <Node pos="l" depth="3" NCoef="0" IVar="-1" Cut="0.0000000000000000e+00" cType="1" res="-4.8678637540433556e-05" rms="2.3100700974464417e-01" purity="9.0055420994758606e-02" nType="-99"/>
            <Node pos="r" depth="3" NCoef="0" IVar="-1" Cut="0.0000000000000000e+00" cType="1" res="-2.9058579355478287e-02" rms="2.9442808032035828e-01" purity="3.9754885435104370e-01" nType="-99"/>
          </Node>
        </Node>
        <Node pos="r" depth="1" NCoef="0" IVar="10" Cut="-6.6660881042480469e-01" cType="1" res="4.2967046611011028e-03" rms="2.9196539521217346e-01" purity="5.3566974401473999e-01" nType="0">
          <Node pos="l" depth="2" NCoef="0" IVar="2" Cut="4.3267092895507812e+02" cType="1" res="1.0678389109671116e-02" rms="2.9429757595062256e-01" purity="4.9961090087890625e-01" nType="0">
            <Node pos="l" depth="3" NCoef="0" IVar="-1" Cut="0.0000000000000000e+00" cType="1" res="1.9785251468420029e-02" rms="2.9543387889862061e-01" purity="4.6592652797698975e-01" nType="-99"/>
            <Node pos="r" depth="3" NCoef="0" IVar="-1" Cut="0.0000000000000000e+00" cType="1" res="-4.2955251410603523e-03" rms="2.9110938310623169e-01" purity="5.7830756902694702e-01" nType="-99"/>
          </Node>
          <Node pos="r" depth="2" NCoef="0" IVar="9" Cut="3.2373571395874023e-01" cType="1" res="1.7012913012877107e-03" rms="2.9097151756286621e-01" purity="5.5033475160598755e-01" nType="0">
            <Node pos="l" depth="3" NCoef="0" IVar="-1" Cut="0.0000000000000000e+00" cType="1" res="7.4528632685542107e-03" rms="2.9143980145454407e-01" purity="6.1308962106704712e-01" nType="-99"/>
            <Node pos="r" depth="3" NCoef="0" IVar="-1" Cut="0.0000000000000000e+00" cType="1" res="-4.6840296126902103e-03" rms="2.9030534625053406e-01" purity="4.7484663128852844e-01" nType="-99"/>
          </Node>
        </Node>
      </Node>
    </BinaryTree>
    <BinaryTree type="DecisionTree" boostWeight="1.0000000000000000e+00" itree="269">
      <Node pos="s" depth="0" NCoef="0" IVar="10" Cut="9.3330615758895874e-01" cType="1" res="-1.3318351702764630e-03" rms="2.8851997852325439e-01" purity="4.9605005979537964e-01" nType="0">
        <Node pos="l" depth="1" NCoef="0" IVar="11" Cut="-1.8953528404235840e+00" cType="1" res="-3.4006782807409763e-03" rms="2.8626531362533569e-01" purity="5.1741266250610352e-01" nType="0">
          <Node pos="l" depth="2" NCoef="0" IVar="4" Cut="1.4365197753906250e+02" cType="1" res="-7.1762898005545139e-03" rms="2.9504686594009399e-01" purity="2.5252255797386169e-01" nType="0">
            <Node pos="l" depth="3" NCoef="0" IVar="-1" Cut="0.0000000000000000e+00" cType="1" res="-3.0426500597968698e-04" rms="2.6269358396530151e-01" purity="1.1589820683002472e-01" nType="-99"/>
            <Node pos="r" depth="3" NCoef="0" IVar="-1" Cut="0.0000000000000000e+00" cType="1" res="-1.4591363258659840e-02" rms="3.3713930845260620e-01" purity="4.5535770058631897e-01" nType="-99"/>
          </Node>
          <Node pos="r" depth="2" NCoef="0" IVar="8" Cut="-6.6431897878646851e-01" cType="1" res="2.7206158847548068e-04" rms="2.7740716934204102e-01" purity="7.7508556842803955e-01" nType="0">
            <Node pos="l" depth="3" NCoef="0" IVar="-1" Cut="0.0000000000000000e+00" cType="1" res="1.3373135589063168e-02" rms="3.0151909589767456e-01" purity="6.6686373949050903e-01" nType="-99"/>
            <Node pos="r" depth="3" NCoef="0" IVar="-1" Cut="0.0000000000000000e+00" cType="1" res="-4.4260695576667786e-03" rms="2.7017328143119812e-01" purity="8.0535799264907837e-01" nType="-99"/>
          </Node>
        </Node>
        <Node pos="r" depth="1" NCoef="0" IVar="1" Cut="6.1613399535417557e-02" cType="1" res="5.9328339993953705e-03" rms="2.9618692398071289e-01" purity="4.2103567719459534e-01" nType="0">
          <Node pos="l" depth="2" NCoef="0" IVar="6" Cut="5.3219669342041016e+01" cType="1" res="-1.6897378955036402e-03" rms="2.7080070972442627e-01" purity="2.0795062184333801e-01" nType="0">
            <Node pos="l" depth="3" NCoef="0" IVar="-1" Cut="0.0000000000000000e+00" cType="1" res="-1.5717238187789917e-02" rms="2.3137484490871429e-01" purity="1.0199303925037384e-01" nType="-99"/>
            <Node pos="r" depth="3" NCoef="0" IVar="-1" Cut="0.0000000000000000e+00" cType="1" res="1.3878627680242062e-02" rms="3.4704247117042542e-01" purity="4.6253693103790283e-01" nType="-99"/>
          </Node>
          <Node pos="r" depth="2" NCoef="0" IVar="5" Cut="8.0548446655273438e+01" cType="1" res="1.6076512634754181e-02" rms="3.2665079832077026e-01" purity="7.0459699630737305e-01" nType="0">
            <Node pos="l" depth="3" NCoef="0" IVar="-1" Cut="0.0000000000000000e+00" cType="1" res="2.7992619201540947e-02" rms="3.7989240884780884e-01" purity="4.7209766507148743e-01" nType="-99"/>
            <Node pos="r" depth="3" NCoef="0" IVar="-1" Cut="0.0000000000000000e+00" cType="1" res="5.9960433281958103e-04" rms="2.8354942798614502e-01" purity="8.6344432830810547e-01" nType="-99"/>
          </Node>
        </Node>
      </Node>
    </BinaryTree>
    <BinaryTree type="DecisionTree" boostWeight="1.0000000000000000e+00" itree="270">
      <Node pos="s" depth="0" NCoef="0" IVar="0" Cut="1.3946184082031250e+03" cType="1" res="-1.3411086983978748e-03" rms="2.8647696971893311e-01" purity="4.9687698483467102e-01" nType="0">
        <Node pos="l" depth="1" NCoef="0" IVar="2" Cut="3.0162164306640625e+02" cType="1" res="-6.1434786766767502e-03" rms="2.8618106245994568e-01" purity="1.7959870398044586e-01" nType="0">
          <Node pos="l" depth="2" NCoef="0" IVar="0" Cut="1.1114919433593750e+03" cType="1" res="-1.2073344551026821e-02" rms="2.9886522889137268e-01" purity="2.2083647549152374e-01" nType="0">
            <Node pos="l" depth="3" NCoef="0" IVar="-1" Cut="0.0000000000000000e+00" cType="1" res="-8.4097764920443296e-04" rms="2.2480078041553497e-01" purity="6.6711403429508209e-02" nType="-99"/>
            <Node pos="r" depth="3" NCoef="0" IVar="-1" Cut="0.0000000000000000e+00" cType="1" res="-1.8094440922141075e-02" rms="3.6609616875648499e-01" purity="3.9983919262886047e-01" nType="-99"/>
          </Node>
          <Node pos="r" depth="2" NCoef="0" IVar="0" Cut="1.3410227050781250e+03" cType="1" res="2.1275873295962811e-03" rms="2.6726663112640381e-01" purity="1.2207965552806854e-01" nType="0">
            <Node pos="l" depth="3" NCoef="0" IVar="-1" Cut="0.0000000000000000e+00" cType="1" res="-3.0506548937410116e-03" rms="2.4760389328002930e-01" purity="9.4206139445304871e-02" nType="-99"/>
            <Node pos="r" depth="3" NCoef="0" IVar="-1" Cut="0.0000000000000000e+00" cType="1" res="2.0153578370809555e-02" rms="3.5277602076530457e-01" purity="2.6953446865081787e-01" nType="-99"/>
          </Node>
        </Node>
        <Node pos="r" depth="1" NCoef="0" IVar="10" Cut="-1.2001074552536011e+00" cType="1" res="2.3699998855590820e-03" rms="2.8665032982826233e-01" purity="7.4205887317657471e-01" nType="0">
          <Node pos="l" depth="2" NCoef="0" IVar="0" Cut="1.9325003662109375e+03" cType="1" res="1.9029876217246056e-02" rms="3.1563097238540649e-01" purity="6.6142898797988892e-01" nType="0">
            <Node pos="l" depth="3" NCoef="0" IVar="-1" Cut="0.0000000000000000e+00" cType="1" res="2.8229216113686562e-02" rms="3.3972367644309998e-01" purity="5.7763707637786865e-01" nType="-99"/>
            <Node pos="r" depth="3" NCoef="0" IVar="-1" Cut="0.0000000000000000e+00" cType="1" res="-1.6684733331203461e-02" rms="2.5556230545043945e-01" purity="8.3638405799865723e-01" nType="-99"/>
          </Node>
          <Node pos="r" depth="2" NCoef="0" IVar="8" Cut="1.2000445127487183e+00" cType="1" res="-4.2212250991724432e-04" rms="2.8140506148338318e-01" purity="7.5557208061218262e-01" nType="0">
            <Node pos="l" depth="3" NCoef="0" IVar="-1" Cut="0.0000000000000000e+00" cType="1" res="1.2434709351509809e-03" rms="2.7866938710212708e-01" purity="7.8231906890869141e-01" nType="-99"/>
            <Node pos="r" depth="3" NCoef="0" IVar="-1" Cut="0.0000000000000000e+00" cType="1" res="-1.7182471230626106e-02" rms="3.1183335185050964e-01" purity="4.3499588966369629e-01" nType="-99"/>
          </Node>
        </Node>
      </Node>
    </BinaryTree>
    <BinaryTree type="DecisionTree" boostWeight="1.0000000000000000e+00" itree="271">
      <Node pos="s" depth="0" NCoef="0" IVar="2" Cut="3.2583377075195312e+02" cType="1" res="-2.4572710972279310e-03" rms="2.8739807009696960e-01" purity="4.9737241864204407e-01" nType="0">
        <Node pos="l" depth="1" NCoef="0" IVar="1" Cut="1.0950443148612976e-01" cType="1" res="-8.2112951204180717e-03" rms="2.8571796417236328e-01" purity="4.1639253497123718e-01" nType="0">
          <Node pos="l" depth="2" NCoef="0" IVar="11" Cut="-1.3430292606353760e+00" cType="1" res="-1.3419792056083679e-02" rms="2.8278622031211853e-01" purity="2.6643544435501099e-01" nType="0">
            <Node pos="l" depth="3" NCoef="0" IVar="-1" Cut="0.0000000000000000e+00" cType="1" res="-8.7881861254572868e-03" rms="2.5769153237342834e-01" purity="1.3331322371959686e-01" nType="-99"/>
            <Node pos="r" depth="3" NCoef="0" IVar="-1" Cut="0.0000000000000000e+00" cType="1" res="-2.4908119812607765e-02" rms="3.2676732540130615e-01" purity="5.3253763914108276e-01" nType="-99"/>
          </Node>
          <Node pos="r" depth="2" NCoef="0" IVar="-1" Cut="0.0000000000000000e+00" cType="1" res="5.1822210662066936e-03" rms="2.9241299629211426e-01" purity="7.8542685508728027e-01" nType="-99"/>
        </Node>
        <Node pos="r" depth="1" NCoef="0" IVar="5" Cut="9.1341178894042969e+01" cType="1" res="1.8508050125092268e-03" rms="2.8857445716857910e-01" purity="5.5800259113311768e-01" nType="0">
          <Node pos="l" depth="2" NCoef="0" IVar="11" Cut="-2.7238266468048096e+00" cType="1" res="6.0365749523043633e-03" rms="3.1221035122871399e-01" purity="3.3921018242835999e-01" nType="0">
            <Node pos="l" depth="3" NCoef="0" IVar="-1" Cut="0.0000000000000000e+00" cType="1" res="-3.4213246544823050e-04" rms="2.9144838452339172e-01" purity="2.1991492807865143e-01" nType="-99"/>
            <Node pos="r" depth="3" NCoef="0" IVar="-1" Cut="0.0000000000000000e+00" cType="1" res="1.5868974849581718e-02" rms="3.4940007328987122e-01" purity="5.7567346096038818e-01" nType="-99"/>
          </Node>
          <Node pos="r" depth="2" NCoef="0" IVar="11" Cut="8.6645239591598511e-01" cType="1" res="-3.6298613995313644e-03" rms="2.5422289967536926e-01" purity="8.4447997808456421e-01" nType="0">
            <Node pos="l" depth="3" NCoef="0" IVar="-1" Cut="0.0000000000000000e+00" cType="1" res="-4.3433404061943293e-04" rms="2.5207653641700745e-01" purity="8.4384214878082275e-01" nType="-99"/>
            <Node pos="r" depth="3" NCoef="0" IVar="-1" Cut="0.0000000000000000e+00" cType="1" res="-2.8523232787847519e-02" rms="2.6314222812652588e-01" purity="8.4735107421875000e-01" nType="-99"/>
          </Node>
        </Node>
      </Node>
    </BinaryTree>
    <BinaryTree type="DecisionTree" boostWeight="1.0000000000000000e+00" itree="272">
      <Node pos="s" depth="0" NCoef="0" IVar="8" Cut="1.2000445127487183e+00" cType="1" res="-2.7338974177837372e-04" rms="2.9012909531593323e-01" purity="5.0071144104003906e-01" nType="0">
        <Node pos="l" depth="1" NCoef="0" IVar="9" Cut="-3.9983224868774414e-01" cType="1" res="-1.8788590095937252e-03" rms="2.9307904839515686e-01" purity="5.3951799869537354e-01" nType="0">
          <Node pos="l" depth="2" NCoef="0" IVar="5" Cut="6.7766693115234375e+01" cType="1" res="3.2092584297060966e-03" rms="2.9788565635681152e-01" purity="4.9179729819297791e-01" nType="0">
            <Node pos="l" depth="3" NCoef="0" IVar="-1" Cut="0.0000000000000000e+00" cType="1" res="2.0895302295684814e-02" rms="2.9628068208694458e-01" purity="2.0036491751670837e-01" nType="-99"/>
            <Node pos="r" depth="3" NCoef="0" IVar="-1" Cut="0.0000000000000000e+00" cType="1" res="-5.6630629114806652e-03" rms="2.9850152134895325e-01" purity="6.6221421957015991e-01" nType="-99"/>
          </Node>
          <Node pos="r" depth="2" NCoef="0" IVar="10" Cut="-1.3320040702819824e-01" cType="1" res="-4.7504128888249397e-03" rms="2.9029187560081482e-01" purity="5.6644994020462036e-01" nType="0">
            <Node pos="l" depth="3" NCoef="0" IVar="-1" Cut="0.0000000000000000e+00" cType="1" res="-1.2503931298851967e-02" rms="2.8622519969940186e-01" purity="5.4906427860260010e-01" nType="-99"/>
            <Node pos="r" depth="3" NCoef="0" IVar="-1" Cut="0.0000000000000000e+00" cType="1" res="-2.1913708769716322e-04" rms="2.9338535666465759e-01" purity="5.8018887042999268e-01" nType="-99"/>
          </Node>
        </Node>
        <Node pos="r" depth="1" NCoef="0" IVar="5" Cut="6.3864341735839844e+01" cType="1" res="1.1712263338267803e-02" rms="2.6677337288856506e-01" purity="2.1099999547004700e-01" nType="0">
          <Node pos="l" depth="2" NCoef="0" IVar="10" Cut="1.3208055496215820e-01" cType="1" res="-6.0277157463133335e-03" rms="1.7377917468547821e-01" purity="4.4774405658245087e-02" nType="0">
            <Node pos="l" depth="3" NCoef="0" IVar="-1" Cut="0.0000000000000000e+00" cType="1" res="-2.8760898858308792e-02" rms="1.7469774186611176e-01" purity="4.0732320398092270e-02" nType="-99"/>
            <Node pos="r" depth="3" NCoef="0" IVar="-1" Cut="0.0000000000000000e+00" cType="1" res="-5.7158689014613628e-03" rms="1.7272607982158661e-01" purity="4.8982702195644379e-02" nType="-99"/>
          </Node>
          <Node pos="r" depth="2" NCoef="0" IVar="11" Cut="-1.0672062635421753e+00" cType="1" res="2.5366978719830513e-02" rms="3.1980249285697937e-01" purity="3.3894619345664978e-01" nType="0">
            <Node pos="l" depth="3" NCoef="0" IVar="-1" Cut="0.0000000000000000e+00" cType="1" res="1.4560657553374767e-02" rms="3.0282521247863770e-01" purity="1.5227748453617096e-01" nType="-99"/>
            <Node pos="r" depth="3" NCoef="0" IVar="-1" Cut="0.0000000000000000e+00" cType="1" res="3.4774035215377808e-02" rms="3.3684512972831726e-01" purity="5.4569190740585327e-01" nType="-99"/>
          </Node>
        </Node>
      </Node>
    </BinaryTree>
    <BinaryTree type="DecisionTree" boostWeight="1.0000000000000000e+00" itree="273">
      <Node pos="s" depth="0" NCoef="0" IVar="2" Cut="3.2584545898437500e+02" cType="1" res="3.8294325349852443e-04" rms="2.8788954019546509e-01" purity="5.0389993190765381e-01" nType="0">
        <Node pos="l" depth="1" NCoef="0" IVar="2" Cut="3.0187774658203125e+02" cType="1" res="4.8430385068058968e-03" rms="2.9078733921051025e-01" purity="4.2702007293701172e-01" nType="0">
          <Node pos="l" depth="2" NCoef="0" IVar="6" Cut="5.5519660949707031e+01" cType="1" res="9.1304173693060875e-03" rms="2.9104432463645935e-01" purity="4.1433706879615784e-01" nType="0">
            <Node pos="l" depth="3" NCoef="0" IVar="-1" Cut="0.0000000000000000e+00" cType="1" res="3.0882055871188641e-03" rms="2.9334500432014465e-01" purity="1.8264351785182953e-01" nType="-99"/>
            <Node pos="r" depth="3" NCoef="0" IVar="-1" Cut="0.0000000000000000e+00" cType="1" res="2.1089414134621620e-02" rms="2.8720748424530029e-01" purity="7.6788544654846191e-01" nType="-99"/>
          </Node>
          <Node pos="r" depth="2" NCoef="0" IVar="3" Cut="2.2215411376953125e+02" cType="1" res="-1.5558701008558273e-02" rms="2.8869026899337769e-01" purity="4.8737302422523499e-01" nType="0">
            <Node pos="l" depth="3" NCoef="0" IVar="-1" Cut="0.0000000000000000e+00" cType="1" res="-3.4092232584953308e-02" rms="2.9236814379692078e-01" purity="2.9506805539131165e-01" nType="-99"/>
            <Node pos="r" depth="3" NCoef="0" IVar="-1" Cut="0.0000000000000000e+00" cType="1" res="-1.9788565114140511e-03" rms="2.8435844182968140e-01" purity="6.7597854137420654e-01" nType="-99"/>
          </Node>
        </Node>
        <Node pos="r" depth="1" NCoef="0" IVar="1" Cut="6.0193628072738647e-02" cType="1" res="-2.8484086506068707e-03" rms="2.8572821617126465e-01" purity="5.5959951877593994e-01" nType="0">
          <Node pos="l" depth="2" NCoef="0" IVar="1" Cut="2.2932374849915504e-02" cType="1" res="2.7317577041685581e-03" rms="2.9853311181068420e-01" purity="3.3754441142082214e-01" nType="0">
            <Node pos="l" depth="3" NCoef="0" IVar="-1" Cut="0.0000000000000000e+00" cType="1" res="-9.7761079668998718e-03" rms="2.4703457951545715e-01" purity="1.6487924754619598e-01" nType="-99"/>
            <Node pos="r" depth="3" NCoef="0" IVar="-1" Cut="0.0000000000000000e+00" cType="1" res="1.0423170402646065e-02" rms="3.4121298789978027e-01" purity="5.0635415315628052e-01" nType="-99"/>
          </Node>
          <Node pos="r" depth="2" NCoef="0" IVar="4" Cut="1.4083592224121094e+02" cType="1" res="-9.4860624521970749e-03" rms="2.6955577731132507e-01" purity="8.2373595237731934e-01" nType="0">
            <Node pos="l" depth="3" NCoef="0" IVar="-1" Cut="0.0000000000000000e+00" cType="1" res="-3.3460382372140884e-02" rms="3.5832369327545166e-01" purity="4.4926962256431580e-01" nType="-99"/>
            <Node pos="r" depth="3" NCoef="0" IVar="-1" Cut="0.0000000000000000e+00" cType="1" res="-5.9420382604002953e-03" rms="2.5178515911102295e-01" purity="8.8441073894500732e-01" nType="-99"/>
          </Node>
        </Node>
      </Node>
    </BinaryTree>
    <BinaryTree type="DecisionTree" boostWeight="1.0000000000000000e+00" itree="274">
      <Node pos="s" depth="0" NCoef="0" IVar="3" Cut="2.2479293823242188e+02" cType="1" res="2.5984230451285839e-03" rms="2.8987362980842590e-01" purity="4.9941900372505188e-01" nType="0">
        <Node pos="l" depth="1" NCoef="0" IVar="4" Cut="1.0045151519775391e+02" cType="1" res="6.5690781921148300e-03" rms="2.8840348124504089e-01" purity="3.3573138713836670e-01" nType="0">
          <Node pos="l" depth="2" NCoef="0" IVar="10" Cut="4.0004774928092957e-01" cType="1" res="-4.7981413081288338e-03" rms="1.9859592616558075e-01" purity="6.1025407165288925e-02" nType="0">
            <Node pos="l" depth="3" NCoef="0" IVar="-1" Cut="0.0000000000000000e+00" cType="1" res="-2.5653246790170670e-02" rms="1.8924199044704437e-01" purity="5.4917320609092712e-02" nType="-99"/>
            <Node pos="r" depth="3" NCoef="0" IVar="-1" Cut="0.0000000000000000e+00" cType="1" res="1.1429161764681339e-02" rms="2.1113625168800354e-01" purity="6.9945327937602997e-02" nType="-99"/>
          </Node>
          <Node pos="r" depth="2" NCoef="0" IVar="3" Cut="1.8934397888183594e+02" cType="1" res="1.1435376480221748e-02" rms="3.1909406185150146e-01" purity="4.5333278179168701e-01" nType="0">
            <Node pos="l" depth="3" NCoef="0" IVar="-1" Cut="0.0000000000000000e+00" cType="1" res="1.7139861360192299e-02" rms="3.2634240388870239e-01" purity="3.6849650740623474e-01" nType="-99"/>
            <Node pos="r" depth="3" NCoef="0" IVar="-1" Cut="0.0000000000000000e+00" cType="1" res="3.1812838278710842e-03" rms="3.0847823619842529e-01" purity="5.7205796241760254e-01" nType="-99"/>
          </Node>
        </Node>
        <Node pos="r" depth="1" NCoef="0" IVar="4" Cut="1.4672584533691406e+02" cType="1" res="-1.7333960859104991e-03" rms="2.9140731692314148e-01" purity="6.7799538373947144e-01" nType="0">
          <Node pos="l" depth="2" NCoef="0" IVar="8" Cut="1.3283999264240265e-01" cType="1" res="9.8773641511797905e-03" rms="3.3770254254341125e-01" purity="3.5029971599578857e-01" nType="0">
            <Node pos="l" depth="3" NCoef="0" IVar="-1" Cut="0.0000000000000000e+00" cType="1" res="2.4668641388416290e-02" rms="3.4594058990478516e-01" purity="3.6627846956253052e-01" nType="-99"/>
            <Node pos="r" depth="3" NCoef="0" IVar="-1" Cut="0.0000000000000000e+00" cType="1" res="-1.1491572484374046e-02" rms="3.2564160227775574e-01" purity="3.2991731166839600e-01" nType="-99"/>
          </Node>
          <Node pos="r" depth="2" NCoef="0" IVar="9" Cut="-1.1998485326766968e+00" cType="1" res="-4.4943029060959816e-03" rms="2.7920067310333252e-01" purity="7.5591766834259033e-01" nType="0">
            <Node pos="l" depth="3" NCoef="0" IVar="-1" Cut="0.0000000000000000e+00" cType="1" res="-3.2296936959028244e-02" rms="3.1744945049285889e-01" purity="4.8641598224639893e-01" nType="-99"/>
            <Node pos="r" depth="3" NCoef="0" IVar="-1" Cut="0.0000000000000000e+00" cType="1" res="-2.4983063340187073e-03" rms="2.7541276812553406e-01" purity="7.7979493141174316e-01" nType="-99"/>
          </Node>
        </Node>
      </Node>
    </BinaryTree>
    <BinaryTree type="DecisionTree" boostWeight="1.0000000000000000e+00" itree="275">
      <Node pos="s" depth="0" NCoef="0" IVar="7" Cut="1.2100760936737061e+00" cType="1" res="3.0045758467167616e-04" rms="2.8940519690513611e-01" purity="4.9961438775062561e-01" nType="0">
        <Node pos="l" depth="1" NCoef="0" IVar="10" Cut="-1.3333600759506226e-01" cType="1" res="-1.2581011978909373e-03" rms="2.9436710476875305e-01" purity="5.3542691469192505e-01" nType="0">
          <Node pos="l" depth="2" NCoef="0" IVar="11" Cut="-1.6191329956054688e+00" cType="1" res="3.8250549696385860e-03" rms="2.9457697272300720e-01" purity="5.2344989776611328e-01" nType="0">
            <Node pos="l" depth="3" NCoef="0" IVar="-1" Cut="0.0000000000000000e+00" cType="1" res="-2.4612010456621647e-03" rms="3.0606734752655029e-01" purity="2.7358087897300720e-01" nType="-99"/>
            <Node pos="r" depth="3" NCoef="0" IVar="-1" Cut="0.0000000000000000e+00" cType="1" res="1.2679194100201130e-02" rms="2.8161177039146423e-01" purity="7.9091954231262207e-01" nType="-99"/>
          </Node>
          <Node pos="r" depth="2" NCoef="0" IVar="7" Cut="-4.5226684212684631e-01" cType="1" res="-5.7108784094452858e-03" rms="2.9411095380783081e-01" purity="5.4591858386993408e-01" nType="0">
            <Node pos="l" depth="3" NCoef="0" IVar="-1" Cut="0.0000000000000000e+00" cType="1" res="2.2104296367615461e-03" rms="2.7863290905952454e-01" purity="4.2053401470184326e-01" nType="-99"/>
            <Node pos="r" depth="3" NCoef="0" IVar="-1" Cut="0.0000000000000000e+00" cType="1" res="-9.8805110901594162e-03" rms="3.0052658915519714e-01" purity="6.0037273168563843e-01" nType="-99"/>
          </Node>
        </Node>
        <Node pos="r" depth="1" NCoef="0" IVar="1" Cut="2.9821882024407387e-02" cType="1" res="1.4667801558971405e-02" rms="2.3837876319885254e-01" purity="1.6948167979717255e-01" nType="0">
          <Node pos="l" depth="2" NCoef="0" IVar="7" Cut="1.5887197256088257e+00" cType="1" res="4.7170566394925117e-03" rms="1.8119418621063232e-01" purity="7.0057563483715057e-02" nType="0">
            <Node pos="l" depth="3" NCoef="0" IVar="-1" Cut="0.0000000000000000e+00" cType="1" res="4.0531817823648453e-02" rms="2.4004955589771271e-01" purity="1.1782985925674438e-01" nType="-99"/>
            <Node pos="r" depth="3" NCoef="0" IVar="-1" Cut="0.0000000000000000e+00" cType="1" res="-1.9798193126916885e-02" rms="1.3521273434162140e-01" purity="4.2526505887508392e-02" nType="-99"/>
          </Node>
          <Node pos="r" depth="2" NCoef="0" IVar="-1" Cut="0.0000000000000000e+00" cType="1" res="3.6772660911083221e-02" rms="3.4798267483711243e-01" purity="4.3995001912117004e-01" nType="-99"/>
        </Node>
      </Node>
    </BinaryTree>
    <BinaryTree type="DecisionTree" boostWeight="1.0000000000000000e+00" itree="276">
      <Node pos="s" depth="0" NCoef="0" IVar="10" Cut="-1.7333813905715942e+00" cType="1" res="7.7817332930862904e-04" rms="2.8673377633094788e-01" purity="5.0470477342605591e-01" nType="0">
        <Node pos="l" depth="1" NCoef="0" IVar="3" Cut="1.8474085998535156e+02" cType="1" res="-1.5944959595799446e-02" rms="2.7088183164596558e-01" purity="2.8203222155570984e-01" nType="0">
          <Node pos="l" depth="2" NCoef="0" IVar="-1" Cut="0.0000000000000000e+00" cType="1" res="-4.7361273318529129e-03" rms="2.3857061564922333e-01" purity="1.3494575023651123e-01" nType="-99"/>
          <Node pos="r" depth="2" NCoef="0" IVar="-1" Cut="0.0000000000000000e+00" cType="1" res="-2.6946168392896652e-02" rms="2.9411926865577698e-01" purity="4.0157690644264221e-01" nType="-99"/>
        </Node>
        <Node pos="r" depth="1" NCoef="0" IVar="10" Cut="8.5697436332702637e-01" cType="1" res="2.2073849104344845e-03" rms="2.8800302743911743e-01" purity="5.2373504638671875e-01" nType="0">
          <Node pos="l" depth="2" NCoef="0" IVar="10" Cut="-1.4866621494293213e+00" cType="1" res="-8.9024734916165471e-04" rms="2.8404617309570312e-01" purity="5.5847746133804321e-01" nType="0">
            <Node pos="l" depth="3" NCoef="0" IVar="-1" Cut="0.0000000000000000e+00" cType="1" res="2.0380077883601189e-02" rms="2.9243424534797668e-01" purity="4.5129004120826721e-01" nType="-99"/>
            <Node pos="r" depth="3" NCoef="0" IVar="-1" Cut="0.0000000000000000e+00" cType="1" res="-2.2861438337713480e-03" rms="2.8354260325431824e-01" purity="5.6437814235687256e-01" nType="-99"/>
          </Node>
          <Node pos="r" depth="2" NCoef="0" IVar="9" Cut="9.3316817283630371e-01" cType="1" res="1.0711629875004292e-02" rms="2.9843148589134216e-01" purity="4.2835325002670288e-01" nType="0">
            <Node pos="l" depth="3" NCoef="0" IVar="-1" Cut="0.0000000000000000e+00" cType="1" res="6.7938156425952911e-03" rms="2.9991337656974792e-01" purity="4.6444490551948547e-01" nType="-99"/>
            <Node pos="r" depth="3" NCoef="0" IVar="-1" Cut="0.0000000000000000e+00" cType="1" res="3.0342003330588341e-02" rms="2.9332855343818665e-01" purity="3.1660231947898865e-01" nType="-99"/>
          </Node>
        </Node>
      </Node>
    </BinaryTree>
    <BinaryTree type="DecisionTree" boostWeight="1.0000000000000000e+00" itree="277">
      <Node pos="s" depth="0" NCoef="0" IVar="11" Cut="1.4186022281646729e+00" cType="1" res="-1.4676710125058889e-03" rms="2.9038256406784058e-01" purity="4.9769917130470276e-01" nType="0">
        <Node pos="l" depth="1" NCoef="0" IVar="11" Cut="-1.5271350145339966e+00" cType="1" res="-2.3589374031871557e-03" rms="2.8905671834945679e-01" purity="4.8665755987167358e-01" nType="0">
          <Node pos="l" depth="2" NCoef="0" IVar="2" Cut="5.7749554443359375e+02" cType="1" res="1.2448526686057448e-03" rms="2.9755473136901855e-01" purity="2.6478379964828491e-01" nType="0">
            <Node pos="l" depth="3" NCoef="0" IVar="-1" Cut="0.0000000000000000e+00" cType="1" res="-1.1167736956849694e-03" rms="2.9007345438003540e-01" purity="2.5089982151985168e-01" nType="-99"/>
            <Node pos="r" depth="3" NCoef="0" IVar="-1" Cut="0.0000000000000000e+00" cType="1" res="1.7224876210093498e-02" rms="3.5456916689872742e-01" purity="3.8345307111740112e-01" nType="-99"/>
          </Node>
          <Node pos="r" depth="2" NCoef="0" IVar="4" Cut="1.4888906860351562e+02" cType="1" res="-6.9150119088590145e-03" rms="2.7787461876869202e-01" purity="7.6716035604476929e-01" nType="0">
            <Node pos="l" depth="3" NCoef="0" IVar="-1" Cut="0.0000000000000000e+00" cType="1" res="-1.7194334417581558e-02" rms="3.4580093622207642e-01" purity="4.9941954016685486e-01" nType="-99"/>
            <Node pos="r" depth="3" NCoef="0" IVar="-1" Cut="0.0000000000000000e+00" cType="1" res="-2.9672177042812109e-03" rms="2.4702388048171997e-01" purity="8.6891579627990723e-01" nType="-99"/>
          </Node>
        </Node>
        <Node pos="r" depth="1" NCoef="0" IVar="11" Cut="1.8789049386978149e+00" cType="1" res="1.1644305661320686e-02" rms="3.0893465876579285e-01" purity="6.6013985872268677e-01" nType="0">
          <Node pos="l" depth="2" NCoef="0" IVar="-1" Cut="0.0000000000000000e+00" cType="1" res="2.4914700537919998e-02" rms="3.0840393900871277e-01" purity="7.1601170301437378e-01" nType="-99"/>
          <Node pos="r" depth="2" NCoef="0" IVar="-1" Cut="0.0000000000000000e+00" cType="1" res="-2.3818293120712042e-03" rms="3.0897235870361328e-01" purity="5.9376585483551025e-01" nType="-99"/>
        </Node>
      </Node>
    </BinaryTree>
    <BinaryTree type="DecisionTree" boostWeight="1.0000000000000000e+00" itree="278">
      <Node pos="s" depth="0" NCoef="0" IVar="10" Cut="4.0012642741203308e-01" cType="1" res="-1.4112646458670497e-03" rms="2.8670591115951538e-01" purity="4.9827963113784790e-01" nType="0">
        <Node pos="l" depth="1" NCoef="0" IVar="2" Cut="3.1634164428710938e+02" cType="1" res="1.4979720581322908e-03" rms="2.8563612699508667e-01" purity="5.1252192258834839e-01" nType="0">
          <Node pos="l" depth="2" NCoef="0" IVar="9" Cut="-9.3449616432189941e-01" cType="1" res="-4.3287887237966061e-03" rms="2.8784295916557312e-01" purity="4.1446116566658020e-01" nType="0">
            <Node pos="l" depth="3" NCoef="0" IVar="-1" Cut="0.0000000000000000e+00" cType="1" res="-2.4789389222860336e-02" rms="2.7075698971748352e-01" purity="2.7148777246475220e-01" nType="-99"/>
            <Node pos="r" depth="3" NCoef="0" IVar="-1" Cut="0.0000000000000000e+00" cType="1" res="3.9654277497902513e-04" rms="2.9239431023597717e-01" purity="4.5548743009567261e-01" nType="-99"/>
          </Node>
          <Node pos="r" depth="2" NCoef="0" IVar="0" Cut="1.6790927734375000e+03" cType="1" res="5.2070785313844681e-03" rms="2.8416019678115845e-01" purity="5.7494384050369263e-01" nType="0">
            <Node pos="l" depth="3" NCoef="0" IVar="-1" Cut="0.0000000000000000e+00" cType="1" res="1.2720283120870590e-02" rms="3.0997952818870544e-01" purity="2.8255674242973328e-01" nType="-99"/>
            <Node pos="r" depth="3" NCoef="0" IVar="-1" Cut="0.0000000000000000e+00" cType="1" res="-1.7672100802883506e-03" rms="2.5863063335418701e-01" purity="8.3740460872650146e-01" nType="-99"/>
          </Node>
        </Node>
        <Node pos="r" depth="1" NCoef="0" IVar="7" Cut="-1.1311558485031128e+00" cType="1" res="-6.4522731117904186e-03" rms="2.8848072886466980e-01" purity="4.7360107302665710e-01" nType="0">
          <Node pos="l" depth="2" NCoef="0" IVar="-1" Cut="0.0000000000000000e+00" cType="1" res="1.5655625611543655e-02" rms="2.4874544143676758e-01" purity="1.8507848680019379e-01" nType="-99"/>
          <Node pos="r" depth="2" NCoef="0" IVar="11" Cut="5.9027719497680664e-01" cType="1" res="-8.2247834652662277e-03" rms="2.9253387451171875e-01" purity="5.0585269927978516e-01" nType="0">
            <Node pos="l" depth="3" NCoef="0" IVar="-1" Cut="0.0000000000000000e+00" cType="1" res="-1.2765227816998959e-02" rms="2.8957152366638184e-01" purity="4.5951664447784424e-01" nType="-99"/>
            <Node pos="r" depth="3" NCoef="0" IVar="-1" Cut="0.0000000000000000e+00" cType="1" res="6.4557115547358990e-03" rms="3.0565139651298523e-01" purity="7.2317183017730713e-01" nType="-99"/>
          </Node>
        </Node>
      </Node>
    </BinaryTree>
    <BinaryTree type="DecisionTree" boostWeight="1.0000000000000000e+00" itree="279">
      <Node pos="s" depth="0" NCoef="0" IVar="10" Cut="-1.4666730165481567e+00" cType="1" res="2.1770151797682047e-03" rms="2.8774267435073853e-01" purity="5.0468003749847412e-01" nType="0">
        <Node pos="l" depth="1" NCoef="0" IVar="1" Cut="5.7483475655317307e-02" cType="1" res="-7.5590177439153194e-03" rms="2.7983450889587402e-01" purity="3.2316982746124268e-01" nType="0">
          <Node pos="l" depth="2" NCoef="0" IVar="8" Cut="-6.6753673553466797e-01" cType="1" res="-1.6028195619583130e-02" rms="2.3707780241966248e-01" purity="1.2470240145921707e-01" nType="0">
            <Node pos="l" depth="3" NCoef="0" IVar="-1" Cut="0.0000000000000000e+00" cType="1" res="4.1786222718656063e-03" rms="2.4515372514724731e-01" purity="1.2167736887931824e-01" nType="-99"/>
            <Node pos="r" depth="3" NCoef="0" IVar="-1" Cut="0.0000000000000000e+00" cType="1" res="-4.5222368091344833e-02" rms="2.3011866211891174e-01" purity="1.2689945101737976e-01" nType="-99"/>
          </Node>
          <Node pos="r" depth="2" NCoef="0" IVar="-1" Cut="0.0000000000000000e+00" cType="1" res="4.2794682085514069e-03" rms="3.3242028951644897e-01" purity="6.1461836099624634e-01" nType="-99"/>
        </Node>
        <Node pos="r" depth="1" NCoef="0" IVar="9" Cut="1.4666194915771484e+00" cType="1" res="3.4557268954813480e-03" rms="2.8874084353446960e-01" purity="5.2851921319961548e-01" nType="0">
          <Node pos="l" depth="2" NCoef="0" IVar="4" Cut="1.3588322448730469e+02" cType="1" res="4.6054315753281116e-03" rms="2.9088824987411499e-01" purity="5.5665743350982666e-01" nType="0">
            <Node pos="l" depth="3" NCoef="0" IVar="-1" Cut="0.0000000000000000e+00" cType="1" res="-3.2290273811668158e-03" rms="2.8742197155952454e-01" purity="2.1600995957851410e-01" nType="-99"/>
            <Node pos="r" depth="3" NCoef="0" IVar="-1" Cut="0.0000000000000000e+00" cType="1" res="9.7306203097105026e-03" rms="2.9265373945236206e-01" purity="7.3924136161804199e-01" nType="-99"/>
          </Node>
          <Node pos="r" depth="2" NCoef="0" IVar="4" Cut="1.2996548461914062e+02" cType="1" res="-9.0707372874021530e-03" rms="2.6389083266258240e-01" purity="2.2194273769855499e-01" nType="0">
            <Node pos="l" depth="3" NCoef="0" IVar="-1" Cut="0.0000000000000000e+00" cType="1" res="2.0119991153478622e-02" rms="2.4126152694225311e-01" purity="9.7610384225845337e-02" nType="-99"/>
            <Node pos="r" depth="3" NCoef="0" IVar="-1" Cut="0.0000000000000000e+00" cType="1" res="-3.1543616205453873e-02" rms="2.8640499711036682e-01" purity="3.6694535613059998e-01" nType="-99"/>
          </Node>
        </Node>
      </Node>
    </BinaryTree>
    <BinaryTree type="DecisionTree" boostWeight="1.0000000000000000e+00" itree="280">
      <Node pos="s" depth="0" NCoef="0" IVar="3" Cut="2.9778890991210938e+02" cType="1" res="1.4046123251318932e-03" rms="2.8888639807701111e-01" purity="5.0449335575103760e-01" nType="0">
        <Node pos="l" depth="1" NCoef="0" IVar="10" Cut="-9.3334358930587769e-01" cType="1" res="3.8006301037967205e-03" rms="2.9238519072532654e-01" purity="4.3799033761024475e-01" nType="0">
          <Node pos="l" depth="2" NCoef="0" IVar="5" Cut="7.7082359313964844e+01" cType="1" res="-3.8733144756406546e-03" rms="2.8013068437576294e-01" purity="3.4422194957733154e-01" nType="0">
            <Node pos="l" depth="3" NCoef="0" IVar="-1" Cut="0.0000000000000000e+00" cType="1" res="-1.5807857736945152e-02" rms="2.6513633131980896e-01" purity="1.4593073725700378e-01" nType="-99"/>
            <Node pos="r" depth="3" NCoef="0" IVar="-1" Cut="0.0000000000000000e+00" cType="1" res="6.9499327801167965e-03" rms="2.9979205131530762e-01" purity="6.2550127506256104e-01" nType="-99"/>
          </Node>
          <Node pos="r" depth="2" NCoef="0" IVar="8" Cut="-1.3329833745956421e-01" cType="1" res="6.1238454654812813e-03" rms="2.9595583677291870e-01" purity="4.6637785434722900e-01" nType="0">
            <Node pos="l" depth="3" NCoef="0" IVar="-1" Cut="0.0000000000000000e+00" cType="1" res="1.4114280231297016e-02" rms="2.9731255769729614e-01" purity="4.6180215477943420e-01" nType="-99"/>
            <Node pos="r" depth="3" NCoef="0" IVar="-1" Cut="0.0000000000000000e+00" cType="1" res="1.7956327646970749e-03" rms="2.9483157396316528e-01" purity="4.6987891197204590e-01" nType="-99"/>
          </Node>
        </Node>
        <Node pos="r" depth="1" NCoef="0" IVar="0" Cut="1.9048336181640625e+03" cType="1" res="-6.6503179259598255e-03" rms="2.7664810419082642e-01" purity="7.2806334495544434e-01" nType="0">
          <Node pos="l" depth="2" NCoef="0" IVar="10" Cut="1.3420946896076202e-01" cType="1" res="-2.3962132632732391e-02" rms="3.2992640137672424e-01" purity="4.5470941066741943e-01" nType="0">
            <Node pos="l" depth="3" NCoef="0" IVar="-1" Cut="0.0000000000000000e+00" cType="1" res="-3.6380074918270111e-02" rms="3.3311539888381958e-01" purity="4.5005506277084351e-01" nType="-99"/>
            <Node pos="r" depth="3" NCoef="0" IVar="-1" Cut="0.0000000000000000e+00" cType="1" res="-3.5677677951753139e-03" rms="3.2522875070571899e-01" purity="4.5979794859886169e-01" nType="-99"/>
          </Node>
          <Node pos="r" depth="2" NCoef="0" IVar="5" Cut="9.1342147827148438e+01" cType="1" res="2.8575367759913206e-03" rms="2.4193005263805389e-01" purity="8.7819260358810425e-01" nType="0">
            <Node pos="l" depth="3" NCoef="0" IVar="-1" Cut="0.0000000000000000e+00" cType="1" res="1.4408806338906288e-02" rms="3.2419869303703308e-01" purity="7.3225998878479004e-01" nType="-99"/>
            <Node pos="r" depth="3" NCoef="0" IVar="-1" Cut="0.0000000000000000e+00" cType="1" res="-5.3443079814314842e-03" rms="2.0184952020645142e-01" purity="9.3362784385681152e-01" nType="-99"/>
          </Node>
        </Node>
      </Node>
    </BinaryTree>
    <BinaryTree type="DecisionTree" boostWeight="1.0000000000000000e+00" itree="281">
      <Node pos="s" depth="0" NCoef="0" IVar="8" Cut="1.3340938091278076e-01" cType="1" res="-3.3418246312066913e-04" rms="2.8929620981216431e-01" purity="5.0457292795181274e-01" nType="0">
        <Node pos="l" depth="1" NCoef="0" IVar="9" Cut="6.6642320156097412e-01" cType="1" res="-3.5533953923732042e-03" rms="2.8751432895660400e-01" purity="5.1706987619400024e-01" nType="0">
          <Node pos="l" depth="2" NCoef="0" IVar="1" Cut="1.0434670001268387e-01" cType="1" res="-1.2233726447448134e-03" rms="2.8645628690719604e-01" purity="5.4981523752212524e-01" nType="0">
            <Node pos="l" depth="3" NCoef="0" IVar="-1" Cut="0.0000000000000000e+00" cType="1" res="2.0190391223877668e-03" rms="3.0167859792709351e-01" purity="4.1258108615875244e-01" nType="-99"/>
            <Node pos="r" depth="3" NCoef="0" IVar="-1" Cut="0.0000000000000000e+00" cType="1" res="-1.2072608806192875e-02" rms="2.4912515282630920e-01" purity="8.5526096820831299e-01" nType="-99"/>
          </Node>
          <Node pos="r" depth="2" NCoef="0" IVar="10" Cut="4.0023136138916016e-01" cType="1" res="-1.1141400784254074e-02" rms="2.9080393910408020e-01" purity="4.1043040156364441e-01" nType="0">
            <Node pos="l" depth="3" NCoef="0" IVar="-1" Cut="0.0000000000000000e+00" cType="1" res="-2.7729391586035490e-03" rms="2.8962644934654236e-01" purity="4.3094456195831299e-01" nType="-99"/>
            <Node pos="r" depth="3" NCoef="0" IVar="-1" Cut="0.0000000000000000e+00" cType="1" res="-3.0150813981890678e-02" rms="2.9214626550674438e-01" purity="3.7684899568557739e-01" nType="-99"/>
          </Node>
        </Node>
        <Node pos="r" depth="1" NCoef="0" IVar="8" Cut="2.6043960452079773e-01" cType="1" res="3.6142996978014708e-03" rms="2.9141831398010254e-01" purity="4.8924490809440613e-01" nType="0">
          <Node pos="l" depth="2" NCoef="0" IVar="-1" Cut="0.0000000000000000e+00" cType="1" res="2.0303960889577866e-02" rms="2.9271525144577026e-01" purity="6.6637325286865234e-01" nType="-99"/>
          <Node pos="r" depth="2" NCoef="0" IVar="0" Cut="1.3947904052734375e+03" cType="1" res="1.6678858082741499e-03" rms="2.9118600487709045e-01" purity="4.6494096517562866e-01" nType="0">
            <Node pos="l" depth="3" NCoef="0" IVar="-1" Cut="0.0000000000000000e+00" cType="1" res="9.8424823954701424e-03" rms="2.8363659977912903e-01" purity="1.7647826671600342e-01" nType="-99"/>
            <Node pos="r" depth="3" NCoef="0" IVar="-1" Cut="0.0000000000000000e+00" cType="1" res="-4.2081419378519058e-03" rms="2.9735943675041199e-01" purity="7.1057063341140747e-01" nType="-99"/>
          </Node>
        </Node>
      </Node>
    </BinaryTree>
    <BinaryTree type="DecisionTree" boostWeight="1.0000000000000000e+00" itree="282">
      <Node pos="s" depth="0" NCoef="0" IVar="2" Cut="5.6214288330078125e+02" cType="1" res="-1.3064298545941710e-03" rms="2.9010543227195740e-01" purity="4.9722540378570557e-01" nType="0">
        <Node pos="l" depth="1" NCoef="0" IVar="3" Cut="1.7346148681640625e+02" cType="1" res="-9.8255433840677142e-05" rms="2.8773576021194458e-01" purity="4.8689004778862000e-01" nType="0">
          <Node pos="l" depth="2" NCoef="0" IVar="11" Cut="3.3925272524356842e-02" cType="1" res="-8.3511946722865105e-03" rms="2.5827696919441223e-01" purity="1.8873851001262665e-01" nType="0">
            <Node pos="l" depth="3" NCoef="0" IVar="-1" Cut="0.0000000000000000e+00" cType="1" res="-6.0957572422921658e-03" rms="2.4227136373519897e-01" purity="1.4888302981853485e-01" nType="-99"/>
            <Node pos="r" depth="3" NCoef="0" IVar="-1" Cut="0.0000000000000000e+00" cType="1" res="-2.9728852212429047e-02" rms="3.3207771182060242e-01" purity="4.0916794538497925e-01" nType="-99"/>
          </Node>
          <Node pos="r" depth="2" NCoef="0" IVar="3" Cut="1.9180461120605469e+02" cType="1" res="3.3914698287844658e-03" rms="2.9925292730331421e-01" purity="6.1296236515045166e-01" nType="0">
            <Node pos="l" depth="3" NCoef="0" IVar="-1" Cut="0.0000000000000000e+00" cType="1" res="1.8073249608278275e-02" rms="3.2489487528800964e-01" purity="4.4913911819458008e-01" nType="-99"/>
            <Node pos="r" depth="3" NCoef="0" IVar="-1" Cut="0.0000000000000000e+00" cType="1" res="1.2697728816419840e-03" rms="2.9497438669204712e-01" purity="6.3859587907791138e-01" nType="-99"/>
          </Node>
        </Node>
        <Node pos="r" depth="1" NCoef="0" IVar="5" Cut="6.8742401123046875e+01" cType="1" res="-1.0330549441277981e-02" rms="3.0707710981369019e-01" purity="5.7442247867584229e-01" nType="0">
          <Node pos="l" depth="2" NCoef="0" IVar="-1" Cut="0.0000000000000000e+00" cType="1" res="-2.8680829331278801e-02" rms="3.0709379911422729e-01" purity="2.3317493498325348e-01" nType="-99"/>
          <Node pos="r" depth="2" NCoef="0" IVar="6" Cut="5.2873748779296875e+01" cType="1" res="-1.7867427086457610e-03" rms="3.0667662620544434e-01" purity="7.2238707542419434e-01" nType="0">
            <Node pos="l" depth="3" NCoef="0" IVar="-1" Cut="0.0000000000000000e+00" cType="1" res="2.2996960207819939e-02" rms="3.6961892247200012e-01" purity="5.1983898878097534e-01" nType="-99"/>
            <Node pos="r" depth="3" NCoef="0" IVar="-1" Cut="0.0000000000000000e+00" cType="1" res="-2.2869249805808067e-02" rms="2.7036240696907043e-01" purity="8.1874793767929077e-01" nType="-99"/>
          </Node>
        </Node>
      </Node>
    </BinaryTree>
    <BinaryTree type="DecisionTree" boostWeight="1.0000000000000000e+00" itree="283">
      <Node pos="s" depth="0" NCoef="0" IVar="9" Cut="1.4666383266448975e+00" cType="1" res="-2.1324449335224926e-04" rms="2.8898066282272339e-01" purity="4.9334210157394409e-01" nType="0">
        <Node pos="l" depth="1" NCoef="0" IVar="3" Cut="3.0714752197265625e+02" cType="1" res="-1.3864148641005158e-03" rms="2.9017540812492371e-01" purity="5.1998990774154663e-01" nType="0">
          <Node pos="l" depth="2" NCoef="0" IVar="7" Cut="6.7259579896926880e-01" cType="1" res="-3.1578724738210440e-03" rms="2.9223790764808655e-01" purity="4.5859324932098389e-01" nType="0">
            <Node pos="l" depth="3" NCoef="0" IVar="-1" Cut="0.0000000000000000e+00" cType="1" res="-6.2916185706853867e-03" rms="2.9797440767288208e-01" purity="5.0183063745498657e-01" nType="-99"/>
            <Node pos="r" depth="3" NCoef="0" IVar="-1" Cut="0.0000000000000000e+00" cType="1" res="7.1880971081554890e-03" rms="2.7201777696609497e-01" purity="3.1408959627151489e-01" nType="-99"/>
          </Node>
          <Node pos="r" depth="2" NCoef="0" IVar="5" Cut="8.7484733581542969e+01" cType="1" res="5.1141879521310329e-03" rms="2.8238254785537720e-01" purity="7.4529337882995605e-01" nType="0">
            <Node pos="l" depth="3" NCoef="0" IVar="-1" Cut="0.0000000000000000e+00" cType="1" res="1.3791107572615147e-02" rms="3.5109749436378479e-01" purity="5.1975131034851074e-01" nType="-99"/>
            <Node pos="r" depth="3" NCoef="0" IVar="-1" Cut="0.0000000000000000e+00" cType="1" res="-3.4590275026857853e-03" rms="2.3014442622661591e-01" purity="8.8333320617675781e-01" nType="-99"/>
          </Node>
        </Node>
        <Node pos="r" depth="1" NCoef="0" IVar="7" Cut="-3.5561898350715637e-01" cType="1" res="1.1945808306336403e-02" rms="2.7600052952766418e-01" purity="2.1715652942657471e-01" nType="0">
          <Node pos="l" depth="2" NCoef="0" IVar="-1" Cut="0.0000000000000000e+00" cType="1" res="-1.2917890213429928e-02" rms="2.3093190789222717e-01" purity="1.2606215476989746e-01" nType="-99"/>
          <Node pos="r" depth="2" NCoef="0" IVar="8" Cut="4.0163084864616394e-01" cType="1" res="2.1700784564018250e-02" rms="2.9624778032302856e-01" purity="2.6446402072906494e-01" nType="0">
            <Node pos="l" depth="3" NCoef="0" IVar="-1" Cut="0.0000000000000000e+00" cType="1" res="4.1363704949617386e-02" rms="3.1991246342658997e-01" purity="3.0139407515525818e-01" nType="-99"/>
            <Node pos="r" depth="3" NCoef="0" IVar="-1" Cut="0.0000000000000000e+00" cType="1" res="5.0624012947082520e-03" rms="2.6167356967926025e-01" purity="2.1706016361713409e-01" nType="-99"/>
          </Node>
        </Node>
      </Node>
    </BinaryTree>
    <BinaryTree type="DecisionTree" boostWeight="1.0000000000000000e+00" itree="284">
      <Node pos="s" depth="0" NCoef="0" IVar="9" Cut="3.9986354112625122e-01" cType="1" res="1.6137968050315976e-03" rms="2.8933805227279663e-01" purity="4.9976617097854614e-01" nType="0">
        <Node pos="l" depth="1" NCoef="0" IVar="10" Cut="6.6651242971420288e-01" cType="1" res="-3.2708563376218081e-03" rms="2.8740701079368591e-01" purity="5.1993536949157715e-01" nType="0">
          <Node pos="l" depth="2" NCoef="0" IVar="1" Cut="1.3138142228126526e-01" cType="1" res="-2.9926694696769118e-04" rms="2.8686401247978210e-01" purity="5.3773468732833862e-01" nType="0">
            <Node pos="l" depth="3" NCoef="0" IVar="-1" Cut="0.0000000000000000e+00" cType="1" res="2.2638957016170025e-03" rms="2.9680970311164856e-01" purity="4.4973281025886536e-01" nType="-99"/>
            <Node pos="r" depth="3" NCoef="0" IVar="-1" Cut="0.0000000000000000e+00" cType="1" res="-1.6022849828004837e-02" rms="2.4425700306892395e-01" purity="8.7920194864273071e-01" nType="-99"/>
          </Node>
          <Node pos="r" depth="2" NCoef="0" IVar="1" Cut="5.7736963033676147e-02" cType="1" res="-1.1406547389924526e-02" rms="2.8873196244239807e-01" purity="4.7120416164398193e-01" nType="0">
            <Node pos="l" depth="3" NCoef="0" IVar="-1" Cut="0.0000000000000000e+00" cType="1" res="-2.5714620947837830e-02" rms="2.6335328817367554e-01" purity="2.1784107387065887e-01" nType="-99"/>
            <Node pos="r" depth="3" NCoef="0" IVar="-1" Cut="0.0000000000000000e+00" cType="1" res="-2.1011675707995892e-03" rms="3.1261363625526428e-01" purity="7.3405367136001587e-01" nType="-99"/>
          </Node>
        </Node>
        <Node pos="r" depth="1" NCoef="0" IVar="10" Cut="1.4663981199264526e+00" cType="1" res="1.0447367094457150e-02" rms="2.9259082674980164e-01" purity="4.6329152584075928e-01" nType="0">
          <Node pos="l" depth="2" NCoef="0" IVar="0" Cut="1.3948183593750000e+03" cType="1" res="7.7642514370381832e-03" rms="2.8990262746810913e-01" purity="4.8313745856285095e-01" nType="0">
            <Node pos="l" depth="3" NCoef="0" IVar="-1" Cut="0.0000000000000000e+00" cType="1" res="1.8530348315834999e-02" rms="2.8706878423690796e-01" purity="1.9541090726852417e-01" nType="-99"/>
            <Node pos="r" depth="3" NCoef="0" IVar="-1" Cut="0.0000000000000000e+00" cType="1" res="1.5425377059727907e-03" rms="2.9207113385200500e-01" purity="7.2120279073715210e-01" nType="-99"/>
          </Node>
          <Node pos="r" depth="2" NCoef="0" IVar="-1" Cut="0.0000000000000000e+00" cType="1" res="2.9866781085729599e-02" rms="3.0797371268272400e-01" purity="3.4225237369537354e-01" nType="-99"/>
        </Node>
      </Node>
    </BinaryTree>
    <BinaryTree type="DecisionTree" boostWeight="1.0000000000000000e+00" itree="285">
      <Node pos="s" depth="0" NCoef="0" IVar="9" Cut="-6.6668301820755005e-01" cType="1" res="7.2604761226102710e-04" rms="2.8729867935180664e-01" purity="5.0269192457199097e-01" nType="0">
        <Node pos="l" depth="1" NCoef="0" IVar="10" Cut="1.3321292400360107e-01" cType="1" res="9.0773468837141991e-03" rms="2.9601612687110901e-01" purity="4.0538388490676880e-01" nType="0">
          <Node pos="l" depth="2" NCoef="0" IVar="9" Cut="-8.6988204717636108e-01" cType="1" res="2.6029900182038546e-03" rms="2.9507029056549072e-01" purity="3.9466983079910278e-01" nType="0">
            <Node pos="l" depth="3" NCoef="0" IVar="-1" Cut="0.0000000000000000e+00" cType="1" res="-3.9043880533427000e-03" rms="2.9193791747093201e-01" purity="3.4511989355087280e-01" nType="-99"/>
            <Node pos="r" depth="3" NCoef="0" IVar="-1" Cut="0.0000000000000000e+00" cType="1" res="2.8348280116915703e-02" rms="3.0563515424728394e-01" purity="5.8300721645355225e-01" nType="-99"/>
          </Node>
          <Node pos="r" depth="2" NCoef="0" IVar="5" Cut="6.4715492248535156e+01" cType="1" res="1.8499368801712990e-02" rms="2.9713532328605652e-01" purity="4.2097586393356323e-01" nType="0">
            <Node pos="l" depth="3" NCoef="0" IVar="-1" Cut="0.0000000000000000e+00" cType="1" res="-5.1279168110340834e-04" rms="2.4338620901107788e-01" purity="1.2016366422176361e-01" nType="-99"/>
            <Node pos="r" depth="3" NCoef="0" IVar="-1" Cut="0.0000000000000000e+00" cType="1" res="2.9220940545201302e-02" rms="3.2320815324783325e-01" purity="5.9171462059020996e-01" nType="-99"/>
          </Node>
        </Node>
        <Node pos="r" depth="1" NCoef="0" IVar="5" Cut="1.0329777526855469e+02" cType="1" res="-2.3236523848026991e-03" rms="2.8398737311363220e-01" purity="5.3822660446166992e-01" nType="0">
          <Node pos="l" depth="2" NCoef="0" IVar="7" Cut="-6.2335103750228882e-01" cType="1" res="-5.3399326279759407e-03" rms="3.0711486935615540e-01" purity="3.6650300025939941e-01" nType="0">
            <Node pos="l" depth="3" NCoef="0" IVar="-1" Cut="0.0000000000000000e+00" cType="1" res="-2.0568111911416054e-02" rms="2.7295678853988647e-01" purity="2.0635092258453369e-01" nType="-99"/>
            <Node pos="r" depth="3" NCoef="0" IVar="-1" Cut="0.0000000000000000e+00" cType="1" res="-2.0809762645512819e-03" rms="3.1653285026550293e-01" purity="4.1433861851692200e-01" nType="-99"/>
          </Node>
          <Node pos="r" depth="2" NCoef="0" IVar="11" Cut="3.1362518668174744e-01" cType="1" res="3.9618546143174171e-03" rms="2.2825975716114044e-01" purity="8.9607459306716919e-01" nType="0">
            <Node pos="l" depth="3" NCoef="0" IVar="-1" Cut="0.0000000000000000e+00" cType="1" res="1.5750892460346222e-02" rms="2.3666433990001678e-01" purity="8.8495171070098877e-01" nType="-99"/>
            <Node pos="r" depth="3" NCoef="0" IVar="-1" Cut="0.0000000000000000e+00" cType="1" res="-1.4894420281052589e-02" rms="2.1009396016597748e-01" purity="9.1825997829437256e-01" nType="-99"/>
          </Node>
        </Node>
      </Node>
    </BinaryTree>
    <BinaryTree type="DecisionTree" boostWeight="1.0000000000000000e+00" itree="286">
      <Node pos="s" depth="0" NCoef="0" IVar="5" Cut="9.0401397705078125e+01" cType="1" res="1.9954149611294270e-03" rms="2.9028511047363281e-01" purity="4.9819195270538330e-01" nType="0">
        <Node pos="l" depth="1" NCoef="0" IVar="5" Cut="6.5391067504882812e+01" cType="1" res="4.5887753367424011e-03" rms="3.0800408124923706e-01" purity="2.8929847478866577e-01" nType="0">
          <Node pos="l" depth="2" NCoef="0" IVar="8" Cut="-6.6600912809371948e-01" cType="1" res="3.8819044129922986e-04" rms="2.7688190340995789e-01" purity="1.6034945845603943e-01" nType="0">
            <Node pos="l" depth="3" NCoef="0" IVar="-1" Cut="0.0000000000000000e+00" cType="1" res="2.0936543121933937e-02" rms="2.5642615556716919e-01" purity="1.1932424455881119e-01" nType="-99"/>
            <Node pos="r" depth="3" NCoef="0" IVar="-1" Cut="0.0000000000000000e+00" cType="1" res="-5.6402585469186306e-03" rms="2.8517237305641174e-01" purity="1.7817953228950500e-01" nType="-99"/>
          </Node>
          <Node pos="r" depth="2" NCoef="0" IVar="4" Cut="1.0650004577636719e+02" cType="1" res="9.4881989061832428e-03" rms="3.4066587686538696e-01" purity="4.3970027565956116e-01" nType="0">
            <Node pos="l" depth="3" NCoef="0" IVar="-1" Cut="0.0000000000000000e+00" cType="1" res="3.0645463615655899e-02" rms="3.1851896643638611e-01" purity="2.0353780686855316e-01" nType="-99"/>
            <Node pos="r" depth="3" NCoef="0" IVar="-1" Cut="0.0000000000000000e+00" cType="1" res="4.1467500850558281e-03" rms="3.4602281451225281e-01" purity="5.0078511238098145e-01" nType="-99"/>
          </Node>
        </Node>
        <Node pos="r" depth="1" NCoef="0" IVar="1" Cut="8.4833912551403046e-02" cType="1" res="-2.0331982523202896e-03" rms="2.6032811403274536e-01" purity="8.2269406318664551e-01" nType="0">
          <Node pos="l" depth="2" NCoef="0" IVar="0" Cut="1.7233365478515625e+03" cType="1" res="-1.0348054580390453e-02" rms="3.0965983867645264e-01" purity="6.8342804908752441e-01" nType="0">
            <Node pos="l" depth="3" NCoef="0" IVar="-1" Cut="0.0000000000000000e+00" cType="1" res="-1.7830774188041687e-02" rms="3.4654104709625244e-01" purity="4.7559675574302673e-01" nType="-99"/>
            <Node pos="r" depth="3" NCoef="0" IVar="-1" Cut="0.0000000000000000e+00" cType="1" res="5.7045696303248405e-04" rms="2.7463704347610474e-01" purity="8.5696303844451904e-01" nType="-99"/>
          </Node>
          <Node pos="r" depth="2" NCoef="0" IVar="7" Cut="4.0709860622882843e-02" cType="1" res="4.8460578545928001e-03" rms="2.1071900427341461e-01" purity="9.3791514635086060e-01" nType="0">
            <Node pos="l" depth="3" NCoef="0" IVar="-1" Cut="0.0000000000000000e+00" cType="1" res="1.9427796825766563e-02" rms="2.0097242295742035e-01" purity="9.4171160459518433e-01" nType="-99"/>
            <Node pos="r" depth="3" NCoef="0" IVar="-1" Cut="0.0000000000000000e+00" cType="1" res="-7.8645034227520227e-04" rms="2.2187283635139465e-01" purity="9.3330293893814087e-01" nType="-99"/>
          </Node>
        </Node>
      </Node>
    </BinaryTree>
    <BinaryTree type="DecisionTree" boostWeight="1.0000000000000000e+00" itree="287">
      <Node pos="s" depth="0" NCoef="0" IVar="1" Cut="4.1751593351364136e-02" cType="1" res="7.2647514753043652e-04" rms="2.9031598567962646e-01" purity="5.0486218929290771e-01" nType="0">
        <Node pos="l" depth="1" NCoef="0" IVar="8" Cut="-3.9967146515846252e-01" cType="1" res="-4.5349141582846642e-03" rms="2.7113187313079834e-01" purity="2.0543128252029419e-01" nType="0">
          <Node pos="l" depth="2" NCoef="0" IVar="1" Cut="1.1953135021030903e-02" cType="1" res="-1.4812856912612915e-02" rms="2.5737211108207703e-01" purity="1.5477107465267181e-01" nType="0">
            <Node pos="l" depth="3" NCoef="0" IVar="-1" Cut="0.0000000000000000e+00" cType="1" res="1.9931496353819966e-04" rms="2.0379278063774109e-01" purity="5.9493985027074814e-02" nType="-99"/>
            <Node pos="r" depth="3" NCoef="0" IVar="-1" Cut="0.0000000000000000e+00" cType="1" res="-2.6964209973812103e-02" rms="2.8385230898857117e-01" purity="2.1083284914493561e-01" nType="-99"/>
          </Node>
          <Node pos="r" depth="2" NCoef="0" IVar="0" Cut="1.6626979980468750e+03" cType="1" res="1.8362783594056964e-03" rms="2.7913132309913635e-01" purity="2.3683504760265350e-01" nType="0">
            <Node pos="l" depth="3" NCoef="0" IVar="-1" Cut="0.0000000000000000e+00" cType="1" res="8.7187299504876137e-03" rms="2.6229768991470337e-01" purity="1.2888535857200623e-01" nType="-99"/>
            <Node pos="r" depth="3" NCoef="0" IVar="-1" Cut="0.0000000000000000e+00" cType="1" res="-1.0021081194281578e-02" rms="3.2898098230361938e-01" purity="5.9868043661117554e-01" nType="-99"/>
          </Node>
        </Node>
        <Node pos="r" depth="1" NCoef="0" IVar="5" Cut="7.0670768737792969e+01" cType="1" res="4.3412302620708942e-03" rms="3.0273959040641785e-01" purity="7.1058154106140137e-01" nType="0">
          <Node pos="l" depth="2" NCoef="0" IVar="6" Cut="3.3390760421752930e+00" cType="1" res="1.5004834160208702e-02" rms="3.6220979690551758e-01" purity="3.5590472817420959e-01" nType="0">
            <Node pos="l" depth="3" NCoef="0" IVar="-1" Cut="0.0000000000000000e+00" cType="1" res="4.9624741077423096e-03" rms="3.4584003686904907e-01" purity="2.6549792289733887e-01" nType="-99"/>
            <Node pos="r" depth="3" NCoef="0" IVar="-1" Cut="0.0000000000000000e+00" cType="1" res="2.5702657178044319e-02" rms="4.0051704645156860e-01" purity="5.9005832672119141e-01" nType="-99"/>
          </Node>
          <Node pos="r" depth="2" NCoef="0" IVar="8" Cut="-8.7614089250564575e-01" cType="1" res="6.4739160006865859e-04" rms="2.7910587191581726e-01" purity="8.3344048261642456e-01" nType="0">
            <Node pos="l" depth="3" NCoef="0" IVar="-1" Cut="0.0000000000000000e+00" cType="1" res="1.3903257437050343e-02" rms="3.1850278377532959e-01" purity="7.4032789468765259e-01" nType="-99"/>
            <Node pos="r" depth="3" NCoef="0" IVar="-1" Cut="0.0000000000000000e+00" cType="1" res="-1.5393386129289865e-03" rms="2.7340918779373169e-01" purity="8.4577894210815430e-01" nType="-99"/>
          </Node>
        </Node>
      </Node>
    </BinaryTree>
    <BinaryTree type="DecisionTree" boostWeight="1.0000000000000000e+00" itree="288">
      <Node pos="s" depth="0" NCoef="0" IVar="11" Cut="8.6663055419921875e-01" cType="1" res="8.3208846626803279e-04" rms="2.8980100154876709e-01" purity="5.0351983308792114e-01" nType="0">
        <Node pos="l" depth="1" NCoef="0" IVar="8" Cut="1.3383087515830994e-01" cType="1" res="-7.4294814839959145e-04" rms="2.8890401124954224e-01" purity="4.7310623526573181e-01" nType="0">
          <Node pos="l" depth="2" NCoef="0" IVar="7" Cut="4.3689152598381042e-01" cType="1" res="2.4653095752000809e-03" rms="2.8910538554191589e-01" purity="4.9175417423248291e-01" nType="0">
            <Node pos="l" depth="3" NCoef="0" IVar="-1" Cut="0.0000000000000000e+00" cType="1" res="7.6535954140126705e-03" rms="2.9499888420104980e-01" purity="5.4134100675582886e-01" nType="-99"/>
            <Node pos="r" depth="3" NCoef="0" IVar="-1" Cut="0.0000000000000000e+00" cType="1" res="-1.1510039679706097e-02" rms="2.7279990911483765e-01" purity="3.6230462789535522e-01" nType="-99"/>
          </Node>
          <Node pos="r" depth="2" NCoef="0" IVar="8" Cut="1.4033963680267334e+00" cType="1" res="-4.8422594554722309e-03" rms="2.8859457373619080e-01" purity="4.4927904009819031e-01" nType="0">
            <Node pos="l" depth="3" NCoef="0" IVar="-1" Cut="0.0000000000000000e+00" cType="1" res="-8.8411290198564529e-03" rms="2.9980370402336121e-01" purity="5.2244716882705688e-01" nType="-99"/>
            <Node pos="r" depth="3" NCoef="0" IVar="-1" Cut="0.0000000000000000e+00" cType="1" res="1.5086621977388859e-02" rms="2.3657535016536713e-01" purity="1.4850848913192749e-01" nType="-99"/>
          </Node>
        </Node>
        <Node pos="r" depth="1" NCoef="0" IVar="4" Cut="1.9244903564453125e+02" cType="1" res="1.1746911332011223e-02" rms="2.9571199417114258e-01" purity="7.1428281068801880e-01" nType="0">
          <Node pos="l" depth="2" NCoef="0" IVar="10" Cut="3.9946904778480530e-01" cType="1" res="2.1634217351675034e-02" rms="3.2365667819976807e-01" purity="6.1487448215484619e-01" nType="0">
            <Node pos="l" depth="3" NCoef="0" IVar="-1" Cut="0.0000000000000000e+00" cType="1" res="9.6290726214647293e-03" rms="3.1338903307914734e-01" purity="6.1492389440536499e-01" nType="-99"/>
            <Node pos="r" depth="3" NCoef="0" IVar="-1" Cut="0.0000000000000000e+00" cType="1" res="3.4903865307569504e-02" rms="3.3747071027755737e-01" purity="6.1480194330215454e-01" nType="-99"/>
          </Node>
          <Node pos="r" depth="2" NCoef="0" IVar="-1" Cut="0.0000000000000000e+00" cType="1" res="-6.5620634704828262e-03" rms="2.4382443726062775e-01" purity="8.7275075912475586e-01" nType="-99"/>
        </Node>
      </Node>
    </BinaryTree>
    <BinaryTree type="DecisionTree" boostWeight="1.0000000000000000e+00" itree="289">
      <Node pos="s" depth="0" NCoef="0" IVar="11" Cut="-1.3428726196289062e+00" cType="1" res="8.7853567674756050e-04" rms="2.8987807035446167e-01" purity="4.9769729375839233e-01" nType="0">
        <Node pos="l" depth="1" NCoef="0" IVar="10" Cut="6.6653835773468018e-01" cType="1" res="4.8510110937058926e-03" rms="2.9727125167846680e-01" purity="2.8073760867118835e-01" nType="0">
          <Node pos="l" depth="2" NCoef="0" IVar="9" Cut="-1.2004762887954712e+00" cType="1" res="8.2542449235916138e-03" rms="2.9841643571853638e-01" purity="3.0103230476379395e-01" nType="0">
            <Node pos="l" depth="3" NCoef="0" IVar="-1" Cut="0.0000000000000000e+00" cType="1" res="-4.8193563707172871e-03" rms="2.5376030802726746e-01" purity="1.4271228015422821e-01" nType="-99"/>
            <Node pos="r" depth="3" NCoef="0" IVar="-1" Cut="0.0000000000000000e+00" cType="1" res="1.1591535992920399e-02" rms="3.0730226635932922e-01" purity="3.3582192659378052e-01" nType="-99"/>
          </Node>
          <Node pos="r" depth="2" NCoef="0" IVar="3" Cut="3.0114227294921875e+02" cType="1" res="-3.1004587654024363e-03" rms="2.9442495107650757e-01" purity="2.3332007229328156e-01" nType="0">
            <Node pos="l" depth="3" NCoef="0" IVar="-1" Cut="0.0000000000000000e+00" cType="1" res="-1.1852027848362923e-02" rms="2.8421556949615479e-01" purity="1.8098780512809753e-01" nType="-99"/>
            <Node pos="r" depth="3" NCoef="0" IVar="-1" Cut="0.0000000000000000e+00" cType="1" res="2.3021040484309196e-02" rms="3.3930113911628723e-01" purity="4.9487221240997314e-01" nType="-99"/>
          </Node>
        </Node>
        <Node pos="r" depth="1" NCoef="0" IVar="9" Cut="1.4661195278167725e+00" cType="1" res="-3.8785112556070089e-03" rms="2.8069475293159485e-01" purity="7.5750696659088135e-01" nType="0">
          <Node pos="l" depth="2" NCoef="0" IVar="11" Cut="1.0244579315185547e+00" cType="1" res="-5.3205923177301884e-03" rms="2.7645391225814819e-01" purity="7.7423644065856934e-01" nType="0">
            <Node pos="l" depth="3" NCoef="0" IVar="-1" Cut="0.0000000000000000e+00" cType="1" res="-3.0439568217843771e-03" rms="2.7039995789527893e-01" purity="7.9667741060256958e-01" nType="-99"/>
            <Node pos="r" depth="3" NCoef="0" IVar="-1" Cut="0.0000000000000000e+00" cType="1" res="-1.7620611935853958e-02" rms="2.9646193981170654e-01" purity="6.9552212953567505e-01" nType="-99"/>
          </Node>
          <Node pos="r" depth="2" NCoef="0" IVar="-1" Cut="0.0000000000000000e+00" cType="1" res="1.6490688547492027e-02" rms="3.4089893102645874e-01" purity="4.8849686980247498e-01" nType="-99"/>
        </Node>
      </Node>
    </BinaryTree>
    <BinaryTree type="DecisionTree" boostWeight="1.0000000000000000e+00" itree="290">
      <Node pos="s" depth="0" NCoef="0" IVar="1" Cut="1.0949217528104782e-01" cType="1" res="1.6729758353903890e-03" rms="2.9157853126525879e-01" purity="4.9727854132652283e-01" nType="0">
        <Node pos="l" depth="1" NCoef="0" IVar="10" Cut="6.6655975580215454e-01" cType="1" res="5.0214664079248905e-03" rms="2.9923823475837708e-01" purity="3.8195127248764038e-01" nType="0">
          <Node pos="l" depth="2" NCoef="0" IVar="11" Cut="8.6663055419921875e-01" cType="1" res="8.1179407425224781e-04" rms="3.0001372098922729e-01" purity="3.9773127436637878e-01" nType="0">
            <Node pos="l" depth="3" NCoef="0" IVar="-1" Cut="0.0000000000000000e+00" cType="1" res="-7.9656037269160151e-04" rms="2.9732042551040649e-01" purity="3.7369337677955627e-01" nType="-99"/>
            <Node pos="r" depth="3" NCoef="0" IVar="-1" Cut="0.0000000000000000e+00" cType="1" res="1.2752401642501354e-02" rms="3.2287558913230896e-01" purity="6.1353105306625366e-01" nType="-99"/>
          </Node>
          <Node pos="r" depth="2" NCoef="0" IVar="1" Cut="5.7337295264005661e-02" cType="1" res="1.4589568600058556e-02" rms="2.9724642634391785e-01" purity="3.4608504176139832e-01" nType="0">
            <Node pos="l" depth="3" NCoef="0" IVar="-1" Cut="0.0000000000000000e+00" cType="1" res="8.6536873131990433e-03" rms="2.7635005116462708e-01" purity="2.3441767692565918e-01" nType="-99"/>
            <Node pos="r" depth="3" NCoef="0" IVar="-1" Cut="0.0000000000000000e+00" cType="1" res="2.9014779254794121e-02" rms="3.4208795428276062e-01" purity="6.1787146329879761e-01" nType="-99"/>
          </Node>
        </Node>
        <Node pos="r" depth="1" NCoef="0" IVar="6" Cut="1.5621901512145996e+01" cType="1" res="-8.1401001662015915e-03" rms="2.6763129234313965e-01" purity="8.3525651693344116e-01" nType="0">
          <Node pos="l" depth="2" NCoef="0" IVar="-1" Cut="0.0000000000000000e+00" cType="1" res="-1.8362870439887047e-02" rms="3.8003715872764587e-01" purity="5.3188973665237427e-01" nType="-99"/>
          <Node pos="r" depth="2" NCoef="0" IVar="10" Cut="-1.3034349679946899e-01" cType="1" res="-2.7441240381449461e-03" rms="2.2462329268455505e-01" purity="9.2293506860733032e-01" nType="0">
            <Node pos="l" depth="3" NCoef="0" IVar="-1" Cut="0.0000000000000000e+00" cType="1" res="1.2037429027259350e-02" rms="2.1689309179782867e-01" purity="9.3176746368408203e-01" nType="-99"/>
            <Node pos="r" depth="3" NCoef="0" IVar="-1" Cut="0.0000000000000000e+00" cType="1" res="-2.0089356228709221e-02" rms="2.3067505657672882e-01" purity="9.1549354791641235e-01" nType="-99"/>
          </Node>
        </Node>
      </Node>
    </BinaryTree>
    <BinaryTree type="DecisionTree" boostWeight="1.0000000000000000e+00" itree="291">
      <Node pos="s" depth="0" NCoef="0" IVar="1" Cut="8.7596252560615540e-02" cType="1" res="-9.2414009850472212e-04" rms="2.9035410284996033e-01" purity="5.0135087966918945e-01" nType="0">
        <Node pos="l" depth="1" NCoef="0" IVar="10" Cut="3.9981967210769653e-01" cType="1" res="1.8690817523747683e-03" rms="2.9637002944946289e-01" purity="3.4388083219528198e-01" nType="0">
          <Node pos="l" depth="2" NCoef="0" IVar="1" Cut="5.4234780371189117e-02" cType="1" res="6.4035071991384029e-03" rms="2.9969555139541626e-01" purity="3.6087894439697266e-01" nType="0">
            <Node pos="l" depth="3" NCoef="0" IVar="-1" Cut="0.0000000000000000e+00" cType="1" res="1.7385587561875582e-03" rms="2.8537264466285706e-01" purity="2.6047113537788391e-01" nType="-99"/>
            <Node pos="r" depth="3" NCoef="0" IVar="-1" Cut="0.0000000000000000e+00" cType="1" res="1.9147010520100594e-02" rms="3.3654409646987915e-01" purity="6.4499872922897339e-01" nType="-99"/>
          </Node>
          <Node pos="r" depth="2" NCoef="0" IVar="8" Cut="-6.6710650920867920e-01" cType="1" res="-5.8512566611170769e-03" rms="2.9045760631561279e-01" purity="3.1493979692459106e-01" nType="0">
            <Node pos="l" depth="3" NCoef="0" IVar="-1" Cut="0.0000000000000000e+00" cType="1" res="-2.7699876576662064e-02" rms="2.6391616463661194e-01" purity="2.1680760383605957e-01" nType="-99"/>
            <Node pos="r" depth="3" NCoef="0" IVar="-1" Cut="0.0000000000000000e+00" cType="1" res="-9.8484405316412449e-04" rms="2.9831582307815552e-01" purity="3.4647488594055176e-01" nType="-99"/>
          </Node>
        </Node>
        <Node pos="r" depth="1" NCoef="0" IVar="3" Cut="1.7659457397460938e+02" cType="1" res="-6.3534290529787540e-03" rms="2.7820870280265808e-01" purity="8.0743122100830078e-01" nType="0">
          <Node pos="l" depth="2" NCoef="0" IVar="-1" Cut="0.0000000000000000e+00" cType="1" res="-2.6246419176459312e-02" rms="3.4072849154472351e-01" purity="5.0679510831832886e-01" nType="-99"/>
          <Node pos="r" depth="2" NCoef="0" IVar="5" Cut="9.1350006103515625e+01" cType="1" res="-1.5638640616089106e-03" rms="2.6444596052169800e-01" purity="8.6433523893356323e-01" nType="0">
            <Node pos="l" depth="3" NCoef="0" IVar="-1" Cut="0.0000000000000000e+00" cType="1" res="-8.5767321288585663e-03" rms="3.6313211917877197e-01" purity="6.9488251209259033e-01" nType="-99"/>
            <Node pos="r" depth="3" NCoef="0" IVar="-1" Cut="0.0000000000000000e+00" cType="1" res="7.2509637102484703e-03" rms="1.9960954785346985e-01" purity="9.4648188352584839e-01" nType="-99"/>
          </Node>
        </Node>
      </Node>
    </BinaryTree>
    <BinaryTree type="DecisionTree" boostWeight="1.0000000000000000e+00" itree="292">
      <Node pos="s" depth="0" NCoef="0" IVar="2" Cut="7.4322747802734375e+02" cType="1" res="-9.5762917771935463e-04" rms="2.8913161158561707e-01" purity="4.9729305505752563e-01" nType="0">
        <Node pos="l" depth="1" NCoef="0" IVar="9" Cut="6.6605907678604126e-01" cType="1" res="-1.9507791148498654e-04" rms="2.8730037808418274e-01" purity="4.9533993005752563e-01" nType="0">
          <Node pos="l" depth="2" NCoef="0" IVar="7" Cut="9.6999913454055786e-01" cType="1" res="2.1264862734824419e-03" rms="2.8708100318908691e-01" purity="5.3294956684112549e-01" nType="0">
            <Node pos="l" depth="3" NCoef="0" IVar="-1" Cut="0.0000000000000000e+00" cType="1" res="2.1016638493165374e-04" rms="2.9022556543350220e-01" purity="5.7170885801315308e-01" nType="-99"/>
            <Node pos="r" depth="3" NCoef="0" IVar="-1" Cut="0.0000000000000000e+00" cType="1" res="2.2729640826582909e-02" rms="2.6440525054931641e-01" purity="2.7021881937980652e-01" nType="-99"/>
          </Node>
          <Node pos="r" depth="2" NCoef="0" IVar="9" Cut="8.6920857429504395e-01" cType="1" res="-6.6030109301209450e-03" rms="2.8780785202980042e-01" purity="3.9153054356575012e-01" nType="0">
            <Node pos="l" depth="3" NCoef="0" IVar="-1" Cut="0.0000000000000000e+00" cType="1" res="-3.1661577522754669e-02" rms="2.9925459623336792e-01" purity="5.1979041099548340e-01" nType="-99"/>
            <Node pos="r" depth="3" NCoef="0" IVar="-1" Cut="0.0000000000000000e+00" cType="1" res="-1.8350329482927918e-03" rms="2.8458166122436523e-01" purity="3.5870367288589478e-01" nType="-99"/>
          </Node>
        </Node>
        <Node pos="r" depth="1" NCoef="0" IVar="-1" Cut="0.0000000000000000e+00" cType="1" res="-2.2369919344782829e-02" rms="3.4468641877174377e-01" purity="5.6372588872909546e-01" nType="-99"/>
      </Node>
    </BinaryTree>
    <BinaryTree type="DecisionTree" boostWeight="1.0000000000000000e+00" itree="293">
      <Node pos="s" depth="0" NCoef="0" IVar="9" Cut="-1.3337130844593048e-01" cType="1" res="-2.2215091157704592e-03" rms="2.8748974204063416e-01" purity="4.9490949511528015e-01" nType="0">
        <Node pos="l" depth="1" NCoef="0" IVar="10" Cut="1.7331781387329102e+00" cType="1" res="-7.3627685196697712e-03" rms="2.8582000732421875e-01" purity="4.7822636365890503e-01" nType="0">
          <Node pos="l" depth="2" NCoef="0" IVar="6" Cut="8.0116615295410156e+01" cType="1" res="-5.7756816968321800e-03" rms="2.8676787018775940e-01" purity="4.9461674690246582e-01" nType="0">
            <Node pos="l" depth="3" NCoef="0" IVar="-1" Cut="0.0000000000000000e+00" cType="1" res="-9.5289554446935654e-03" rms="3.0524456501007080e-01" purity="3.6387395858764648e-01" nType="-99"/>
            <Node pos="r" depth="3" NCoef="0" IVar="-1" Cut="0.0000000000000000e+00" cType="1" res="1.1268721893429756e-02" rms="2.1574535965919495e-01" purity="9.1916769742965698e-01" nType="-99"/>
          </Node>
          <Node pos="r" depth="2" NCoef="0" IVar="-1" Cut="0.0000000000000000e+00" cType="1" res="-3.8979273289442062e-02" rms="2.7088320255279541e-01" purity="2.4376234412193298e-01" nType="-99"/>
        </Node>
        <Node pos="r" depth="1" NCoef="0" IVar="10" Cut="1.3331310451030731e-01" cType="1" res="2.0731724798679352e-03" rms="2.8880697488784790e-01" purity="5.0884544849395752e-01" nType="0">
          <Node pos="l" depth="2" NCoef="0" IVar="10" Cut="-5.6513363122940063e-01" cType="1" res="6.8855909630656242e-03" rms="2.9142916202545166e-01" purity="5.2973216772079468e-01" nType="0">
            <Node pos="l" depth="3" NCoef="0" IVar="-1" Cut="0.0000000000000000e+00" cType="1" res="-7.0643902290612459e-04" rms="2.9224026203155518e-01" purity="4.7625869512557983e-01" nType="-99"/>
            <Node pos="r" depth="3" NCoef="0" IVar="-1" Cut="0.0000000000000000e+00" cType="1" res="1.9743150100111961e-02" rms="2.9004803299903870e-01" purity="6.0086745023727417e-01" nType="-99"/>
          </Node>
          <Node pos="r" depth="2" NCoef="0" IVar="11" Cut="-1.0668615102767944e+00" cType="1" res="-3.0155552085489035e-03" rms="2.8591999411582947e-01" purity="4.8675948381423950e-01" nType="0">
            <Node pos="l" depth="3" NCoef="0" IVar="-1" Cut="0.0000000000000000e+00" cType="1" res="-1.2453937903046608e-02" rms="2.9092475771903992e-01" purity="2.6467990875244141e-01" nType="-99"/>
            <Node pos="r" depth="3" NCoef="0" IVar="-1" Cut="0.0000000000000000e+00" cType="1" res="8.0774296075105667e-03" rms="2.7936723828315735e-01" purity="7.5903403759002686e-01" nType="-99"/>
          </Node>
        </Node>
      </Node>
    </BinaryTree>
    <BinaryTree type="DecisionTree" boostWeight="1.0000000000000000e+00" itree="294">
      <Node pos="s" depth="0" NCoef="0" IVar="10" Cut="1.9998049736022949e+00" cType="1" res="8.1733451224863529e-04" rms="2.8755116462707520e-01" purity="5.0534427165985107e-01" nType="0">
        <Node pos="l" depth="1" NCoef="0" IVar="7" Cut="-1.7047082185745239e+00" cType="1" res="1.4473702758550644e-03" rms="2.8879493474960327e-01" purity="5.1857721805572510e-01" nType="0">
          <Node pos="l" depth="2" NCoef="0" IVar="-1" Cut="0.0000000000000000e+00" cType="1" res="-4.0221448987722397e-02" rms="1.3692224025726318e-01" purity="5.8752652257680893e-02" nType="-99"/>
          <Node pos="r" depth="2" NCoef="0" IVar="1" Cut="1.6962578892707825e-01" cType="1" res="2.0974073559045792e-03" rms="2.9338210821151733e-01" purity="5.3764557838439941e-01" nType="0">
            <Node pos="l" depth="3" NCoef="0" IVar="-1" Cut="0.0000000000000000e+00" cType="1" res="3.5876387264579535e-03" rms="3.0086737871170044e-01" purity="4.8888579010963440e-01" nType="-99"/>
            <Node pos="r" depth="3" NCoef="0" IVar="-1" Cut="0.0000000000000000e+00" cType="1" res="-1.2072782032191753e-02" rms="2.3151381313800812e-01" purity="8.9269024133682251e-01" nType="-99"/>
          </Node>
        </Node>
        <Node pos="r" depth="1" NCoef="0" IVar="-1" Cut="0.0000000000000000e+00" cType="1" res="-1.4935615472495556e-02" rms="2.6062592864036560e-01" purity="2.3605927824974060e-01" nType="-99"/>
      </Node>
    </BinaryTree>
    <BinaryTree type="DecisionTree" boostWeight="1.0000000000000000e+00" itree="295">
      <Node pos="s" depth="0" NCoef="0" IVar="7" Cut="1.2088097333908081e+00" cType="1" res="-2.8350536013022065e-04" rms="2.9041481018066406e-01" purity="5.0034654140472412e-01" nType="0">
        <Node pos="l" depth="1" NCoef="0" IVar="10" Cut="1.1999982595443726e+00" cType="1" res="1.1436514323577285e-03" rms="2.9731538891792297e-01" purity="5.3863108158111572e-01" nType="0">
          <Node pos="l" depth="2" NCoef="0" IVar="10" Cut="8.1899619102478027e-01" cType="1" res="-7.2016275953501463e-04" rms="2.9608890414237976e-01" purity="5.5956530570983887e-01" nType="0">
            <Node pos="l" depth="3" NCoef="0" IVar="-1" Cut="0.0000000000000000e+00" cType="1" res="1.0338607244193554e-03" rms="2.9367348551750183e-01" purity="5.5919861793518066e-01" nType="-99"/>
            <Node pos="r" depth="3" NCoef="0" IVar="-1" Cut="0.0000000000000000e+00" cType="1" res="-1.5860043466091156e-02" rms="3.1582176685333252e-01" purity="5.6272774934768677e-01" nType="-99"/>
          </Node>
          <Node pos="r" depth="2" NCoef="0" IVar="1" Cut="5.4462116211652756e-02" cType="1" res="1.1450351215898991e-02" rms="3.0380210280418396e-01" purity="4.2286747694015503e-01" nType="0">
            <Node pos="l" depth="3" NCoef="0" IVar="-1" Cut="0.0000000000000000e+00" cType="1" res="4.6204668469727039e-03" rms="2.7995699644088745e-01" purity="1.8620838224887848e-01" nType="-99"/>
            <Node pos="r" depth="3" NCoef="0" IVar="-1" Cut="0.0000000000000000e+00" cType="1" res="1.7560498788952827e-02" rms="3.2464066147804260e-01" purity="6.4746713638305664e-01" nType="-99"/>
          </Node>
        </Node>
        <Node pos="r" depth="1" NCoef="0" IVar="7" Cut="1.5115394592285156e+00" cType="1" res="-1.3413007371127605e-02" rms="2.1642151474952698e-01" purity="1.4813694357872009e-01" nType="0">
          <Node pos="l" depth="2" NCoef="0" IVar="-1" Cut="0.0000000000000000e+00" cType="1" res="-3.7596259266138077e-02" rms="2.6646685600280762e-01" purity="2.2853577136993408e-01" nType="-99"/>
          <Node pos="r" depth="2" NCoef="0" IVar="9" Cut="1.3272683322429657e-01" cType="1" res="-1.7307534581050277e-03" rms="1.7557492852210999e-01" purity="9.6022099256515503e-02" nType="0">
            <Node pos="l" depth="3" NCoef="0" IVar="-1" Cut="0.0000000000000000e+00" cType="1" res="2.4495437741279602e-02" rms="1.8671901524066925e-01" purity="1.2659093737602234e-01" nType="-99"/>
            <Node pos="r" depth="3" NCoef="0" IVar="-1" Cut="0.0000000000000000e+00" cType="1" res="-3.6218553781509399e-02" rms="1.6288571059703827e-01" purity="6.5282464027404785e-02" nType="-99"/>
          </Node>
        </Node>
      </Node>
    </BinaryTree>
    <BinaryTree type="DecisionTree" boostWeight="1.0000000000000000e+00" itree="296">
      <Node pos="s" depth="0" NCoef="0" IVar="3" Cut="4.6945687866210938e+02" cType="1" res="-5.9713912196457386e-04" rms="2.8933596611022949e-01" purity="4.9668139219284058e-01" nType="0">
        <Node pos="l" depth="1" NCoef="0" IVar="10" Cut="-2.0000016689300537e+00" cType="1" res="1.4883086259942502e-04" rms="2.8934744000434875e-01" purity="4.8867264389991760e-01" nType="0">
          <Node pos="l" depth="2" NCoef="0" IVar="9" Cut="-1.3416868448257446e-01" cType="1" res="1.7876645550131798e-02" rms="2.8879114985466003e-01" purity="2.4983349442481995e-01" nType="0">
            <Node pos="l" depth="3" NCoef="0" IVar="-1" Cut="0.0000000000000000e+00" cType="1" res="2.9450444504618645e-02" rms="2.9503318667411804e-01" purity="2.2472456097602844e-01" nType="-99"/>
            <Node pos="r" depth="3" NCoef="0" IVar="-1" Cut="0.0000000000000000e+00" cType="1" res="1.7552049830555916e-02" rms="2.8204903006553650e-01" purity="2.7615880966186523e-01" nType="-99"/>
          </Node>
          <Node pos="r" depth="2" NCoef="0" IVar="0" Cut="1.2867415771484375e+03" cType="1" res="-8.4151455666869879e-04" rms="2.8934645652770996e-01" purity="5.0201511383056641e-01" nType="0">
            <Node pos="l" depth="3" NCoef="0" IVar="-1" Cut="0.0000000000000000e+00" cType="1" res="-8.5242651402950287e-03" rms="2.7247327566146851e-01" purity="1.3123612105846405e-01" nType="-99"/>
            <Node pos="r" depth="3" NCoef="0" IVar="-1" Cut="0.0000000000000000e+00" cType="1" res="2.3896039929240942e-03" rms="2.9783403873443604e-01" purity="6.9795197248458862e-01" nType="-99"/>
          </Node>
        </Node>
        <Node pos="r" depth="1" NCoef="0" IVar="-1" Cut="0.0000000000000000e+00" cType="1" res="-2.9289877042174339e-02" rms="2.8800764679908752e-01" purity="7.4667471647262573e-01" nType="-99"/>
      </Node>
    </BinaryTree>
    <BinaryTree type="DecisionTree" boostWeight="1.0000000000000000e+00" itree="297">
      <Node pos="s" depth="0" NCoef="0" IVar="8" Cut="-9.3322581052780151e-01" cType="1" res="-9.9215551745146513e-04" rms="2.8526210784912109e-01" purity="5.0375431776046753e-01" nType="0">
        <Node pos="l" depth="1" NCoef="0" IVar="3" Cut="2.7576937866210938e+02" cType="1" res="-9.8265884444117546e-03" rms="2.6055511832237244e-01" purity="2.7692809700965881e-01" nType="0">
          <Node pos="l" depth="2" NCoef="0" IVar="2" Cut="3.0645748901367188e+02" cType="1" res="-5.7515050284564495e-03" rms="2.5337490439414978e-01" purity="2.3285625874996185e-01" nType="0">
            <Node pos="l" depth="3" NCoef="0" IVar="-1" Cut="0.0000000000000000e+00" cType="1" res="2.1062062587589025e-03" rms="2.5641542673110962e-01" purity="2.3494842648506165e-01" nType="-99"/>
            <Node pos="r" depth="3" NCoef="0" IVar="-1" Cut="0.0000000000000000e+00" cType="1" res="-1.8881466239690781e-02" rms="2.5000947713851929e-01" purity="2.3071543872356415e-01" nType="-99"/>
          </Node>
          <Node pos="r" depth="2" NCoef="0" IVar="-1" Cut="0.0000000000000000e+00" cType="1" res="-2.8367612510919571e-02" rms="2.8655835986137390e-01" purity="4.5070636272430420e-01" nType="-99"/>
        </Node>
        <Node pos="r" depth="1" NCoef="0" IVar="0" Cut="1.6624871826171875e+03" cType="1" res="8.1675848923623562e-04" rms="2.9002839326858521e-01" purity="5.5019867420196533e-01" nType="0">
          <Node pos="l" depth="2" NCoef="0" IVar="7" Cut="6.7312788963317871e-01" cType="1" res="3.9874212816357613e-03" rms="3.1204524636268616e-01" purity="3.5578763484954834e-01" nType="0">
            <Node pos="l" depth="3" NCoef="0" IVar="-1" Cut="0.0000000000000000e+00" cType="1" res="8.2405516877770424e-03" rms="3.2522967457771301e-01" purity="4.0547513961791992e-01" nType="-99"/>
            <Node pos="r" depth="3" NCoef="0" IVar="-1" Cut="0.0000000000000000e+00" cType="1" res="-1.2275138869881630e-02" rms="2.6951700448989868e-01" purity="2.1107342839241028e-01" nType="-99"/>
          </Node>
          <Node pos="r" depth="2" NCoef="0" IVar="11" Cut="-2.4476377964019775e+00" cType="1" res="-4.1714319959282875e-03" rms="2.5143861770629883e-01" purity="8.5605239868164062e-01" nType="0">
            <Node pos="l" depth="3" NCoef="0" IVar="-1" Cut="0.0000000000000000e+00" cType="1" res="-1.7721867188811302e-02" rms="3.4994685649871826e-01" purity="6.1457717418670654e-01" nType="-99"/>
            <Node pos="r" depth="3" NCoef="0" IVar="-1" Cut="0.0000000000000000e+00" cType="1" res="7.9800374805927277e-04" rms="2.1727147698402405e-01" purity="9.2093086242675781e-01" nType="-99"/>
          </Node>
        </Node>
      </Node>
    </BinaryTree>
    <BinaryTree type="DecisionTree" boostWeight="1.0000000000000000e+00" itree="298">
      <Node pos="s" depth="0" NCoef="0" IVar="3" Cut="3.4799215698242188e+02" cType="1" res="3.8463837699964643e-04" rms="2.9043966531753540e-01" purity="4.9854630231857300e-01" nType="0">
        <Node pos="l" depth="1" NCoef="0" IVar="5" Cut="6.1286048889160156e+01" cType="1" res="1.6931105637922883e-03" rms="2.9241031408309937e-01" purity="4.6218851208686829e-01" nType="0">
          <Node pos="l" depth="2" NCoef="0" IVar="4" Cut="1.6266627502441406e+02" cType="1" res="8.0606378614902496e-03" rms="2.6967063546180725e-01" purity="1.3800744712352753e-01" nType="0">
            <Node pos="l" depth="3" NCoef="0" IVar="-1" Cut="0.0000000000000000e+00" cType="1" res="6.4024711027741432e-03" rms="2.5079545378684998e-01" purity="9.4581589102745056e-02" nType="-99"/>
            <Node pos="r" depth="3" NCoef="0" IVar="-1" Cut="0.0000000000000000e+00" cType="1" res="2.6412067934870720e-02" rms="3.5493007302284241e-01" purity="3.7643933296203613e-01" nType="-99"/>
          </Node>
          <Node pos="r" depth="2" NCoef="0" IVar="9" Cut="-6.6622108221054077e-01" cType="1" res="-7.1027240483090281e-04" rms="3.0051127076148987e-01" purity="5.8454859256744385e-01" nType="0">
            <Node pos="l" depth="3" NCoef="0" IVar="-1" Cut="0.0000000000000000e+00" cType="1" res="-1.0718231089413166e-02" rms="3.0830061435699463e-01" purity="4.7981491684913635e-01" nType="-99"/>
            <Node pos="r" depth="3" NCoef="0" IVar="-1" Cut="0.0000000000000000e+00" cType="1" res="3.0469556804746389e-03" rms="2.9760316014289856e-01" purity="6.2194716930389404e-01" nType="-99"/>
          </Node>
        </Node>
        <Node pos="r" depth="1" NCoef="0" IVar="4" Cut="1.9275372314453125e+02" cType="1" res="-8.1918649375438690e-03" rms="2.7702316641807556e-01" purity="7.3685652017593384e-01" nType="0">
          <Node pos="l" depth="2" NCoef="0" IVar="-1" Cut="0.0000000000000000e+00" cType="1" res="-2.4873476475477219e-02" rms="3.1640073657035828e-01" purity="4.3778187036514282e-01" nType="-99"/>
          <Node pos="r" depth="2" NCoef="0" IVar="3" Cut="4.0458636474609375e+02" cType="1" res="-1.6093066660687327e-03" rms="2.6037332415580750e-01" purity="8.4934467077255249e-01" nType="0">
            <Node pos="l" depth="3" NCoef="0" IVar="-1" Cut="0.0000000000000000e+00" cType="1" res="-2.2788675501942635e-02" rms="2.6145303249359131e-01" purity="8.2598012685775757e-01" nType="-99"/>
            <Node pos="r" depth="3" NCoef="0" IVar="-1" Cut="0.0000000000000000e+00" cType="1" res="1.2446333654224873e-02" rms="2.5901764631271362e-01" purity="8.6830198764801025e-01" nType="-99"/>
          </Node>
        </Node>
      </Node>
    </BinaryTree>
    <BinaryTree type="DecisionTree" boostWeight="1.0000000000000000e+00" itree="299">
      <Node pos="s" depth="0" NCoef="0" IVar="3" Cut="3.2275317382812500e+02" cType="1" res="7.2185968747362494e-04" rms="2.8666108846664429e-01" purity="5.0546580553054810e-01" nType="0">
        <Node pos="l" depth="1" NCoef="0" IVar="5" Cut="1.0167771911621094e+02" cType="1" res="-1.5379228862002492e-03" rms="2.8852370381355286e-01" purity="4.4976338744163513e-01" nType="0">
          <Node pos="l" depth="2" NCoef="0" IVar="3" Cut="1.3013734436035156e+02" cType="1" res="-3.7135500460863113e-03" rms="3.0194956064224243e-01" purity="3.0332571268081665e-01" nType="0">
            <Node pos="l" depth="3" NCoef="0" IVar="-1" Cut="0.0000000000000000e+00" cType="1" res="1.8138557672500610e-02" rms="2.1664081513881683e-01" purity="8.4076903760433197e-02" nType="-99"/>
            <Node pos="r" depth="3" NCoef="0" IVar="-1" Cut="0.0000000000000000e+00" cType="1" res="-6.0739102773368359e-03" rms="3.1716594099998474e-01" purity="3.5019272565841675e-01" nType="-99"/>
          </Node>
          <Node pos="r" depth="2" NCoef="0" IVar="11" Cut="-2.4476764202117920e+00" cType="1" res="4.4792830012738705e-03" rms="2.4752967059612274e-01" purity="8.5477107763290405e-01" nType="0">
            <Node pos="l" depth="3" NCoef="0" IVar="-1" Cut="0.0000000000000000e+00" cType="1" res="1.6378328204154968e-02" rms="3.4008058905601501e-01" purity="5.7653772830963135e-01" nType="-99"/>
            <Node pos="r" depth="3" NCoef="0" IVar="-1" Cut="0.0000000000000000e+00" cType="1" res="3.0669011175632477e-03" rms="2.2895225882530212e-01" purity="8.9977288246154785e-01" nType="-99"/>
          </Node>
        </Node>
        <Node pos="r" depth="1" NCoef="0" IVar="4" Cut="1.9312528991699219e+02" cType="1" res="1.0682857595384121e-02" rms="2.7808347344398499e-01" purity="7.5099909305572510e-01" nType="0">
          <Node pos="l" depth="2" NCoef="0" IVar="5" Cut="7.5895103454589844e+01" cType="1" res="2.6221469044685364e-02" rms="3.3532401919364929e-01" purity="5.1216238737106323e-01" nType="0">
            <Node pos="l" depth="3" NCoef="0" IVar="-1" Cut="0.0000000000000000e+00" cType="1" res="3.2795038074254990e-02" rms="3.5549253225326538e-01" purity="3.2974117994308472e-01" nType="-99"/>
            <Node pos="r" depth="3" NCoef="0" IVar="-1" Cut="0.0000000000000000e+00" cType="1" res="1.4299809001386166e-02" rms="3.1314522027969360e-01" purity="6.9723975658416748e-01" nType="-99"/>
          </Node>
          <Node pos="r" depth="2" NCoef="0" IVar="1" Cut="5.8178100734949112e-02" cType="1" res="4.3869400396943092e-03" rms="2.5093108415603638e-01" purity="8.4777069091796875e-01" nType="0">
            <Node pos="l" depth="3" NCoef="0" IVar="-1" Cut="0.0000000000000000e+00" cType="1" res="-8.5041215643286705e-03" rms="3.1841734051704407e-01" purity="6.7009824514389038e-01" nType="-99"/>
            <Node pos="r" depth="3" NCoef="0" IVar="-1" Cut="0.0000000000000000e+00" cType="1" res="2.0833898335695267e-02" rms="2.0983205735683441e-01" purity="9.3472594022750854e-01" nType="-99"/>
          </Node>
        </Node>
      </Node>
    </BinaryTree>
    <BinaryTree type="DecisionTree" boostWeight="1.0000000000000000e+00" itree="300">
      <Node pos="s" depth="0" NCoef="0" IVar="8" Cut="-9.3326824903488159e-01" cType="1" res="1.7289919196628034e-04" rms="2.8700971603393555e-01" purity="5.0677019357681274e-01" nType="0">
        <Node pos="l" depth="1" NCoef="0" IVar="9" Cut="-1.1997988224029541e+00" cType="1" res="-6.7284950055181980e-03" rms="2.6244395971298218e-01" purity="2.7388948202133179e-01" nType="0">
          <Node pos="l" depth="2" NCoef="0" IVar="-1" Cut="0.0000000000000000e+00" cType="1" res="3.3818285912275314e-02" rms="2.6756590604782104e-01" purity="1.6298194229602814e-01" nType="-99"/>
          <Node pos="r" depth="2" NCoef="0" IVar="1" Cut="3.4883487969636917e-02" cType="1" res="-1.3573748059570789e-02" rms="2.6067686080932617e-01" purity="3.0225694179534912e-01" nType="0">
            <Node pos="l" depth="3" NCoef="0" IVar="-1" Cut="0.0000000000000000e+00" cType="1" res="-7.7796592377126217e-03" rms="2.1552690863609314e-01" purity="9.9092453718185425e-02" nType="-99"/>
            <Node pos="r" depth="3" NCoef="0" IVar="-1" Cut="0.0000000000000000e+00" cType="1" res="-2.3016359657049179e-02" rms="3.0142223834991455e-01" purity="5.2049988508224487e-01" nType="-99"/>
          </Node>
        </Node>
        <Node pos="r" depth="1" NCoef="0" IVar="0" Cut="1.0974445800781250e+03" cType="1" res="1.5913879033178091e-03" rms="2.9178255796432495e-01" purity="5.5463570356369019e-01" nType="0">
          <Node pos="l" depth="2" NCoef="0" IVar="3" Cut="1.3969869995117188e+02" cType="1" res="9.4840126112103462e-03" rms="2.3000124096870422e-01" purity="6.9011472165584564e-02" nType="0">
            <Node pos="l" depth="3" NCoef="0" IVar="-1" Cut="0.0000000000000000e+00" cType="1" res="-1.6843107296153903e-03" rms="1.7520166933536530e-01" purity="3.8264013826847076e-02" nType="-99"/>
            <Node pos="r" depth="3" NCoef="0" IVar="-1" Cut="0.0000000000000000e+00" cType="1" res="3.2612740993499756e-02" rms="2.8109058737754822e-01" purity="1.0553117841482162e-01" nType="-99"/>
          </Node>
          <Node pos="r" depth="2" NCoef="0" IVar="7" Cut="1.3975107669830322e-01" cType="1" res="2.5745507446117699e-04" rms="3.0095356702804565e-01" purity="6.3671106100082397e-01" nType="0">
            <Node pos="l" depth="3" NCoef="0" IVar="-1" Cut="0.0000000000000000e+00" cType="1" res="3.5167920868843794e-03" rms="2.9771402478218079e-01" purity="6.5720355510711670e-01" nType="-99"/>
            <Node pos="r" depth="3" NCoef="0" IVar="-1" Cut="0.0000000000000000e+00" cType="1" res="-3.7961855996400118e-03" rms="3.0515778064727783e-01" purity="6.0950422286987305e-01" nType="-99"/>
          </Node>
        </Node>
      </Node>
    </BinaryTree>
    <BinaryTree type="DecisionTree" boostWeight="1.0000000000000000e+00" itree="301">
      <Node pos="s" depth="0" NCoef="0" IVar="3" Cut="4.1358065795898438e+02" cType="1" res="5.0123047549277544e-04" rms="2.8848487138748169e-01" purity="5.0219935178756714e-01" nType="0">
        <Node pos="l" depth="1" NCoef="0" IVar="3" Cut="2.2536203002929688e+02" cType="1" res="1.4091336634010077e-03" rms="2.8925034403800964e-01" purity="4.8503929376602173e-01" nType="0">
          <Node pos="l" depth="2" NCoef="0" IVar="3" Cut="1.6832579040527344e+02" cType="1" res="-2.0171294454485178e-03" rms="2.8841128945350647e-01" purity="3.3796063065528870e-01" nType="0">
            <Node pos="l" depth="3" NCoef="0" IVar="-1" Cut="0.0000000000000000e+00" cType="1" res="6.5483758226037025e-03" rms="2.6718711853027344e-01" purity="1.8243531882762909e-01" nType="-99"/>
            <Node pos="r" depth="3" NCoef="0" IVar="-1" Cut="0.0000000000000000e+00" cType="1" res="-8.4434077143669128e-03" rms="3.0694261193275452e-01" purity="4.8451030254364014e-01" nType="-99"/>
          </Node>
          <Node pos="r" depth="2" NCoef="0" IVar="8" Cut="1.1998844146728516e+00" cType="1" res="5.7931328192353249e-03" rms="2.9026144742965698e-01" purity="6.7323058843612671e-01" nType="0">
            <Node pos="l" depth="3" NCoef="0" IVar="-1" Cut="0.0000000000000000e+00" cType="1" res="9.7602317109704018e-03" rms="2.9108470678329468e-01" purity="7.0508712530136108e-01" nType="-99"/>
            <Node pos="r" depth="3" NCoef="0" IVar="-1" Cut="0.0000000000000000e+00" cType="1" res="-2.8218919411301613e-02" rms="2.7878189086914062e-01" purity="3.0458673834800720e-01" nType="-99"/>
          </Node>
        </Node>
        <Node pos="r" depth="1" NCoef="0" IVar="0" Cut="2.4300527343750000e+03" cType="1" res="-1.2909644283354282e-02" rms="2.7658450603485107e-01" purity="7.5567537546157837e-01" nType="0">
          <Node pos="l" depth="2" NCoef="0" IVar="-1" Cut="0.0000000000000000e+00" cType="1" res="-3.1047593802213669e-02" rms="3.1682506203651428e-01" purity="6.1574065685272217e-01" nType="-99"/>
          <Node pos="r" depth="2" NCoef="0" IVar="-1" Cut="0.0000000000000000e+00" cType="1" res="8.7843146175146103e-03" rms="2.2663231194019318e-01" purity="8.9915549755096436e-01" nType="-99"/>
        </Node>
      </Node>
    </BinaryTree>
    <BinaryTree type="DecisionTree" boostWeight="1.0000000000000000e+00" itree="302">
      <Node pos="s" depth="0" NCoef="0" IVar="8" Cut="-9.3316936492919922e-01" cType="1" res="-1.5130212996155024e-03" rms="2.8794863820075989e-01" purity="4.9959284067153931e-01" nType="0">
        <Node pos="l" depth="1" NCoef="0" IVar="3" Cut="2.4069143676757812e+02" cType="1" res="5.4529882036149502e-03" rms="2.7010732889175415e-01" purity="2.8591480851173401e-01" nType="0">
          <Node pos="l" depth="2" NCoef="0" IVar="3" Cut="1.8826701354980469e+02" cType="1" res="1.2178233824670315e-02" rms="2.6192352175712585e-01" purity="2.2230894863605499e-01" nType="0">
            <Node pos="l" depth="3" NCoef="0" IVar="-1" Cut="0.0000000000000000e+00" cType="1" res="2.3307905066758394e-03" rms="2.3543097078800201e-01" purity="1.4196005463600159e-01" nType="-99"/>
            <Node pos="r" depth="3" NCoef="0" IVar="-1" Cut="0.0000000000000000e+00" cType="1" res="3.6542966961860657e-02" rms="3.0300933122634888e-01" purity="3.6752051115036011e-01" nType="-99"/>
          </Node>
          <Node pos="r" depth="2" NCoef="0" IVar="6" Cut="5.4371471405029297e+01" cType="1" res="-1.0211027227342129e-02" rms="2.8766021132469177e-01" purity="4.3406143784523010e-01" nType="0">
            <Node pos="l" depth="3" NCoef="0" IVar="-1" Cut="0.0000000000000000e+00" cType="1" res="-3.7809133529663086e-02" rms="2.4389882385730743e-01" purity="1.8299753963947296e-01" nType="-99"/>
            <Node pos="r" depth="3" NCoef="0" IVar="-1" Cut="0.0000000000000000e+00" cType="1" res="1.1603634804487228e-02" rms="3.2562139630317688e-01" purity="6.9547218084335327e-01" nType="-99"/>
          </Node>
        </Node>
        <Node pos="r" depth="1" NCoef="0" IVar="8" Cut="-5.7761746644973755e-01" cType="1" res="-2.9789730906486511e-03" rms="2.9154300689697266e-01" purity="5.4456001520156860e-01" nType="0">
          <Node pos="l" depth="2" NCoef="0" IVar="7" Cut="-8.1673838198184967e-02" cType="1" res="-1.2073593214154243e-02" rms="3.0810436606407166e-01" purity="5.5852991342544556e-01" nType="0">
            <Node pos="l" depth="3" NCoef="0" IVar="-1" Cut="0.0000000000000000e+00" cType="1" res="-2.8088767081499100e-02" rms="2.9720142483711243e-01" purity="5.5596572160720825e-01" nType="-99"/>
            <Node pos="r" depth="3" NCoef="0" IVar="-1" Cut="0.0000000000000000e+00" cType="1" res="1.7403385136276484e-03" rms="3.1810188293457031e-01" purity="5.6110709905624390e-01" nType="-99"/>
          </Node>
          <Node pos="r" depth="2" NCoef="0" IVar="1" Cut="1.2723171710968018e-01" cType="1" res="-1.6498074401170015e-03" rms="2.8901913762092590e-01" purity="5.4251831769943237e-01" nType="0">
            <Node pos="l" depth="3" NCoef="0" IVar="-1" Cut="0.0000000000000000e+00" cType="1" res="-4.4315629638731480e-03" rms="3.0019080638885498e-01" purity="4.4161015748977661e-01" nType="-99"/>
            <Node pos="r" depth="3" NCoef="0" IVar="-1" Cut="0.0000000000000000e+00" cType="1" res="9.3991905450820923e-03" rms="2.4847610294818878e-01" purity="8.7535822391510010e-01" nType="-99"/>
          </Node>
        </Node>
      </Node>
    </BinaryTree>
    <BinaryTree type="DecisionTree" boostWeight="1.0000000000000000e+00" itree="303">
      <Node pos="s" depth="0" NCoef="0" IVar="10" Cut="9.3322110176086426e-01" cType="1" res="-1.7315555305685848e-04" rms="2.8734970092773438e-01" purity="4.9964457750320435e-01" nType="0">
        <Node pos="l" depth="1" NCoef="0" IVar="7" Cut="1.6518156230449677e-01" cType="1" res="-2.9138633981347084e-03" rms="2.8369104862213135e-01" purity="5.2272498607635498e-01" nType="0">
          <Node pos="l" depth="2" NCoef="0" IVar="9" Cut="6.6591119766235352e-01" cType="1" res="1.4752808492630720e-03" rms="2.8555402159690857e-01" purity="5.4581755399703979e-01" nType="0">
            <Node pos="l" depth="3" NCoef="0" IVar="-1" Cut="0.0000000000000000e+00" cType="1" res="5.4113273508846760e-03" rms="2.8729158639907837e-01" purity="5.7820922136306763e-01" nType="-99"/>
            <Node pos="r" depth="3" NCoef="0" IVar="-1" Cut="0.0000000000000000e+00" cType="1" res="-1.1508435010910034e-02" rms="2.7910083532333374e-01" purity="4.3216010928153992e-01" nType="-99"/>
          </Node>
          <Node pos="r" depth="2" NCoef="0" IVar="3" Cut="2.1301158142089844e+02" cType="1" res="-9.3295043334364891e-03" rms="2.8082230687141418e-01" purity="4.8897042870521545e-01" nType="0">
            <Node pos="l" depth="3" NCoef="0" IVar="-1" Cut="0.0000000000000000e+00" cType="1" res="-2.1876487880945206e-02" rms="2.7412718534469604e-01" purity="3.0314400792121887e-01" nType="-99"/>
            <Node pos="r" depth="3" NCoef="0" IVar="-1" Cut="0.0000000000000000e+00" cType="1" res="-2.2283566650003195e-03" rms="2.8651803731918335e-01" purity="6.5651416778564453e-01" nType="-99"/>
          </Node>
        </Node>
        <Node pos="r" depth="1" NCoef="0" IVar="10" Cut="1.5554324388504028e+00" cType="1" res="9.3488330021500587e-03" rms="2.9951903223991394e-01" purity="4.1945672035217285e-01" nType="0">
          <Node pos="l" depth="2" NCoef="0" IVar="5" Cut="9.2522285461425781e+01" cType="1" res="2.0077707245945930e-02" rms="3.1186899542808533e-01" purity="5.0093507766723633e-01" nType="0">
            <Node pos="l" depth="3" NCoef="0" IVar="-1" Cut="0.0000000000000000e+00" cType="1" res="3.3254355192184448e-02" rms="3.2252669334411621e-01" purity="3.4062165021896362e-01" nType="-99"/>
            <Node pos="r" depth="3" NCoef="0" IVar="-1" Cut="0.0000000000000000e+00" cType="1" res="-6.6087986342608929e-03" rms="2.8836774826049805e-01" purity="8.1276398897171021e-01" nType="-99"/>
          </Node>
          <Node pos="r" depth="2" NCoef="0" IVar="7" Cut="7.1481281518936157e-01" cType="1" res="-4.0680109523236752e-03" rms="2.8274616599082947e-01" purity="3.1756514310836792e-01" nType="0">
            <Node pos="l" depth="3" NCoef="0" IVar="-1" Cut="0.0000000000000000e+00" cType="1" res="3.9568427018821239e-03" rms="2.9602181911468506e-01" purity="3.8703203201293945e-01" nType="-99"/>
            <Node pos="r" depth="3" NCoef="0" IVar="-1" Cut="0.0000000000000000e+00" cType="1" res="-3.8780245929956436e-02" rms="2.4451981484889984e-01" purity="1.4012284576892853e-01" nType="-99"/>
          </Node>
        </Node>
      </Node>
    </BinaryTree>
    <BinaryTree type="DecisionTree" boostWeight="1.0000000000000000e+00" itree="304">
      <Node pos="s" depth="0" NCoef="0" IVar="5" Cut="7.0670593261718750e+01" cType="1" res="-1.5869881026446819e-03" rms="2.8769510984420776e-01" purity="5.0335252285003662e-01" nType="0">
        <Node pos="l" depth="1" NCoef="0" IVar="3" Cut="2.1993858337402344e+02" cType="1" res="2.5663070846349001e-03" rms="2.8561246395111084e-01" purity="1.9548231363296509e-01" nType="0">
          <Node pos="l" depth="2" NCoef="0" IVar="3" Cut="1.7262359619140625e+02" cType="1" res="-2.8843383770436049e-03" rms="2.5360006093978882e-01" purity="1.1777275055646896e-01" nType="0">
            <Node pos="l" depth="3" NCoef="0" IVar="-1" Cut="0.0000000000000000e+00" cType="1" res="6.1317300423979759e-03" rms="2.3044547438621521e-01" purity="8.1888675689697266e-02" nType="-99"/>
            <Node pos="r" depth="3" NCoef="0" IVar="-1" Cut="0.0000000000000000e+00" cType="1" res="-1.5939053148031235e-02" rms="2.9565608501434326e-01" purity="1.9248376786708832e-01" nType="-99"/>
          </Node>
          <Node pos="r" depth="2" NCoef="0" IVar="1" Cut="4.1732858866453171e-02" cType="1" res="1.3365657068789005e-02" rms="3.3999872207641602e-01" purity="3.4944805502891541e-01" nType="0">
            <Node pos="l" depth="3" NCoef="0" IVar="-1" Cut="0.0000000000000000e+00" cType="1" res="2.8122207149863243e-02" rms="3.0958652496337891e-01" purity="2.1083615720272064e-01" nType="-99"/>
            <Node pos="r" depth="3" NCoef="0" IVar="-1" Cut="0.0000000000000000e+00" cType="1" res="-8.9737155940383673e-04" rms="3.7746301293373108e-01" purity="5.4066312313079834e-01" nType="-99"/>
          </Node>
        </Node>
        <Node pos="r" depth="1" NCoef="0" IVar="11" Cut="-1.0672062635421753e+00" cType="1" res="-4.3861712329089642e-03" rms="2.8905662894248962e-01" purity="7.1084672212600708e-01" nType="0">
          <Node pos="l" depth="2" NCoef="0" IVar="7" Cut="-1.0889601707458496e+00" cType="1" res="-1.0440642945468426e-02" rms="3.2314229011535645e-01" purity="5.1673030853271484e-01" nType="0">
            <Node pos="l" depth="3" NCoef="0" IVar="-1" Cut="0.0000000000000000e+00" cType="1" res="-5.4075330495834351e-02" rms="2.4258150160312653e-01" purity="1.6128030419349670e-01" nType="-99"/>
            <Node pos="r" depth="3" NCoef="0" IVar="-1" Cut="0.0000000000000000e+00" cType="1" res="-5.9388536028563976e-03" rms="3.3162239193916321e-01" purity="5.6112492084503174e-01" nType="-99"/>
          </Node>
          <Node pos="r" depth="2" NCoef="0" IVar="7" Cut="-3.7406942248344421e-01" cType="1" res="-6.4252433367073536e-04" rms="2.6573351025581360e-01" purity="8.3087438344955444e-01" nType="0">
            <Node pos="l" depth="3" NCoef="0" IVar="-1" Cut="0.0000000000000000e+00" cType="1" res="1.3432770036160946e-02" rms="2.8732955455780029e-01" purity="7.8802883625030518e-01" nType="-99"/>
            <Node pos="r" depth="3" NCoef="0" IVar="-1" Cut="0.0000000000000000e+00" cType="1" res="-8.1665711477398872e-03" rms="2.5633963942527771e-01" purity="8.4817659854888916e-01" nType="-99"/>
          </Node>
        </Node>
      </Node>
    </BinaryTree>
    <BinaryTree type="DecisionTree" boostWeight="1.0000000000000000e+00" itree="305">
      <Node pos="s" depth="0" NCoef="0" IVar="1" Cut="1.3138142228126526e-01" cType="1" res="-6.4069335348904133e-04" rms="2.8737917542457581e-01" purity="4.9604967236518860e-01" nType="0">
        <Node pos="l" depth="1" NCoef="0" IVar="5" Cut="6.7381523132324219e+01" cType="1" res="-2.5322725996375084e-03" rms="2.9451146721839905e-01" purity="4.0651500225067139e-01" nType="0">
          <Node pos="l" depth="2" NCoef="0" IVar="7" Cut="-9.1043835878372192e-01" cType="1" res="-8.3529781550168991e-03" rms="2.5915986299514771e-01" purity="1.3601194322109222e-01" nType="0">
            <Node pos="l" depth="3" NCoef="0" IVar="-1" Cut="0.0000000000000000e+00" cType="1" res="1.4184092171490192e-02" rms="2.1364024281501770e-01" purity="7.3989875614643097e-02" nType="-99"/>
            <Node pos="r" depth="3" NCoef="0" IVar="-1" Cut="0.0000000000000000e+00" cType="1" res="-1.5772869810461998e-02" rms="2.7097553014755249e-01" purity="1.5428443253040314e-01" nType="-99"/>
          </Node>
          <Node pos="r" depth="2" NCoef="0" IVar="1" Cut="6.8822585046291351e-02" cType="1" res="1.4279985334724188e-03" rms="3.1625208258628845e-01" purity="5.9055888652801514e-01" nType="0">
            <Node pos="l" depth="3" NCoef="0" IVar="-1" Cut="0.0000000000000000e+00" cType="1" res="7.7716205269098282e-03" rms="3.2484373450279236e-01" purity="4.6324703097343445e-01" nType="-99"/>
            <Node pos="r" depth="3" NCoef="0" IVar="-1" Cut="0.0000000000000000e+00" cType="1" res="-1.1032252572476864e-02" rms="3.0097863078117371e-01" purity="8.0362409353256226e-01" nType="-99"/>
          </Node>
        </Node>
        <Node pos="r" depth="1" NCoef="0" IVar="5" Cut="1.0027095794677734e+02" cType="1" res="7.3395892977714539e-03" rms="2.5494888424873352e-01" purity="8.7378257513046265e-01" nType="0">
          <Node pos="l" depth="2" NCoef="0" IVar="-1" Cut="0.0000000000000000e+00" cType="1" res="1.6384987160563469e-02" rms="3.4114634990692139e-01" purity="7.4975150823593140e-01" nType="-99"/>
          <Node pos="r" depth="2" NCoef="0" IVar="-1" Cut="0.0000000000000000e+00" cType="1" res="-5.0528431311249733e-03" rms="1.6329315304756165e-01" purity="9.6588641405105591e-01" nType="-99"/>
        </Node>
      </Node>
    </BinaryTree>
    <BinaryTree type="DecisionTree" boostWeight="1.0000000000000000e+00" itree="306">
      <Node pos="s" depth="0" NCoef="0" IVar="7" Cut="4.0729570388793945e-01" cType="1" res="2.9039219953119755e-03" rms="2.9151952266693115e-01" purity="5.0222051143646240e-01" nType="0">
        <Node pos="l" depth="1" NCoef="0" IVar="5" Cut="7.9215057373046875e+01" cType="1" res="-2.5574399624019861e-03" rms="2.9177159070968628e-01" purity="5.4038995504379272e-01" nType="0">
          <Node pos="l" depth="2" NCoef="0" IVar="1" Cut="1.0948954522609711e-01" cType="1" res="-1.0249636135995388e-02" rms="3.0866792798042297e-01" purity="2.6159602403640747e-01" nType="0">
            <Node pos="l" depth="3" NCoef="0" IVar="-1" Cut="0.0000000000000000e+00" cType="1" res="-6.0967551544308662e-03" rms="2.9310446977615356e-01" purity="2.0325937867164612e-01" nType="-99"/>
            <Node pos="r" depth="3" NCoef="0" IVar="-1" Cut="0.0000000000000000e+00" cType="1" res="-2.6059992611408234e-02" rms="3.8023659586906433e-01" purity="5.7372200489044189e-01" nType="-99"/>
          </Node>
          <Node pos="r" depth="2" NCoef="0" IVar="8" Cut="-1.1978005170822144e+00" cType="1" res="4.6397773548960686e-03" rms="2.7482920885086060e-01" purity="8.0124396085739136e-01" nType="0">
            <Node pos="l" depth="3" NCoef="0" IVar="-1" Cut="0.0000000000000000e+00" cType="1" res="3.4424673765897751e-02" rms="3.3075222373008728e-01" purity="5.6256169080734253e-01" nType="-99"/>
            <Node pos="r" depth="3" NCoef="0" IVar="-1" Cut="0.0000000000000000e+00" cType="1" res="2.3392140865325928e-03" rms="2.6945430040359497e-01" purity="8.2107210159301758e-01" nType="-99"/>
          </Node>
        </Node>
        <Node pos="r" depth="1" NCoef="0" IVar="5" Cut="9.1342369079589844e+01" cType="1" res="1.4739656820893288e-02" rms="2.9062053561210632e-01" purity="4.1950064897537231e-01" nType="0">
          <Node pos="l" depth="2" NCoef="0" IVar="7" Cut="1.5465809106826782e+00" cType="1" res="2.1700572222471237e-02" rms="2.9880243539810181e-01" purity="2.3660862445831299e-01" nType="0">
            <Node pos="l" depth="3" NCoef="0" IVar="-1" Cut="0.0000000000000000e+00" cType="1" res="3.1238768249750137e-02" rms="3.2919543981552124e-01" purity="2.9410189390182495e-01" nType="-99"/>
            <Node pos="r" depth="3" NCoef="0" IVar="-1" Cut="0.0000000000000000e+00" cType="1" res="-4.1730545461177826e-02" rms="1.2962791323661804e-01" purity="2.1997334435582161e-02" nType="-99"/>
          </Node>
          <Node pos="r" depth="2" NCoef="0" IVar="8" Cut="4.0183025598526001e-01" cType="1" res="1.2794801732525229e-03" rms="2.7360564470291138e-01" purity="7.7315521240234375e-01" nType="0">
            <Node pos="l" depth="3" NCoef="0" IVar="-1" Cut="0.0000000000000000e+00" cType="1" res="-7.4027446098625660e-03" rms="2.6285898685455322e-01" purity="7.7654629945755005e-01" nType="-99"/>
            <Node pos="r" depth="3" NCoef="0" IVar="-1" Cut="0.0000000000000000e+00" cType="1" res="1.6154281795024872e-02" rms="2.9167127609252930e-01" purity="7.6700532436370850e-01" nType="-99"/>
          </Node>
        </Node>
      </Node>
    </BinaryTree>
    <BinaryTree type="DecisionTree" boostWeight="1.0000000000000000e+00" itree="307">
      <Node pos="s" depth="0" NCoef="0" IVar="10" Cut="-1.3338840007781982e-01" cType="1" res="-3.2960553653538227e-03" rms="2.8786814212799072e-01" purity="4.9480682611465454e-01" nType="0">
        <Node pos="l" depth="1" NCoef="0" IVar="10" Cut="-1.6571154594421387e+00" cType="1" res="-7.6187285594642162e-03" rms="2.8590583801269531e-01" purity="4.8191171884536743e-01" nType="0">
          <Node pos="l" depth="2" NCoef="0" IVar="5" Cut="8.4529251098632812e+01" cType="1" res="5.3349062800407410e-03" rms="2.9095920920372009e-01" purity="3.0926787853240967e-01" nType="0">
            <Node pos="l" depth="3" NCoef="0" IVar="-1" Cut="0.0000000000000000e+00" cType="1" res="1.6070026904344559e-02" rms="2.8011044859886169e-01" purity="1.9451615214347839e-01" nType="-99"/>
            <Node pos="r" depth="3" NCoef="0" IVar="-1" Cut="0.0000000000000000e+00" cType="1" res="-1.2120633386075497e-02" rms="3.1657105684280396e-01" purity="6.0575777292251587e-01" nType="-99"/>
          </Node>
          <Node pos="r" depth="2" NCoef="0" IVar="9" Cut="3.9848944544792175e-01" cType="1" res="-1.0752319358289242e-02" rms="2.8458136320114136e-01" purity="5.2367568016052246e-01" nType="0">
            <Node pos="l" depth="3" NCoef="0" IVar="-1" Cut="0.0000000000000000e+00" cType="1" res="-1.7993647605180740e-02" rms="2.8183683753013611e-01" purity="5.3462928533554077e-01" nType="-99"/>
            <Node pos="r" depth="3" NCoef="0" IVar="-1" Cut="0.0000000000000000e+00" cType="1" res="-2.2645223361905664e-04" rms="2.9030320048332214e-01" purity="4.9935784935951233e-01" nType="-99"/>
          </Node>
        </Node>
        <Node pos="r" depth="1" NCoef="0" IVar="9" Cut="1.1987928152084351e+00" cType="1" res="4.3134004226885736e-04" rms="2.8949773311614990e-01" purity="5.0592607259750366e-01" nType="0">
          <Node pos="l" depth="2" NCoef="0" IVar="7" Cut="-8.2657642662525177e-02" cType="1" res="-1.3562892563641071e-03" rms="2.9078865051269531e-01" purity="5.4118448495864868e-01" nType="0">
            <Node pos="l" depth="3" NCoef="0" IVar="-1" Cut="0.0000000000000000e+00" cType="1" res="5.9312237426638603e-03" rms="2.8792878985404968e-01" purity="5.4338216781616211e-01" nType="-99"/>
            <Node pos="r" depth="3" NCoef="0" IVar="-1" Cut="0.0000000000000000e+00" cType="1" res="-7.5121223926544189e-03" rms="2.9290750622749329e-01" purity="5.3946626186370850e-01" nType="-99"/>
          </Node>
          <Node pos="r" depth="2" NCoef="0" IVar="8" Cut="1.3515709340572357e-01" cType="1" res="1.0665458627045155e-02" rms="2.8177529573440552e-01" purity="3.0407282710075378e-01" nType="0">
            <Node pos="l" depth="3" NCoef="0" IVar="-1" Cut="0.0000000000000000e+00" cType="1" res="-9.2850588262081146e-03" rms="2.6553979516029358e-01" purity="3.0996423959732056e-01" nType="-99"/>
            <Node pos="r" depth="3" NCoef="0" IVar="-1" Cut="0.0000000000000000e+00" cType="1" res="2.8598045930266380e-02" rms="2.9277905821800232e-01" purity="2.9959145188331604e-01" nType="-99"/>
          </Node>
        </Node>
      </Node>
    </BinaryTree>
    <BinaryTree type="DecisionTree" boostWeight="1.0000000000000000e+00" itree="308">
      <Node pos="s" depth="0" NCoef="0" IVar="7" Cut="4.1495251655578613e-01" cType="1" res="1.8643789226189256e-03" rms="2.8957664966583252e-01" purity="5.0062608718872070e-01" nType="0">
        <Node pos="l" depth="1" NCoef="0" IVar="9" Cut="-1.4666180610656738e+00" cType="1" res="-1.6215874347835779e-03" rms="2.9175028204917908e-01" purity="5.4001313447952271e-01" nType="0">
          <Node pos="l" depth="2" NCoef="0" IVar="5" Cut="6.4015754699707031e+01" cType="1" res="1.2781954370439053e-02" rms="2.7706852555274963e-01" purity="2.7294689416885376e-01" nType="0">
            <Node pos="l" depth="3" NCoef="0" IVar="-1" Cut="0.0000000000000000e+00" cType="1" res="-2.4545658379793167e-02" rms="2.0937673747539520e-01" purity="7.8806616365909576e-02" nType="-99"/>
            <Node pos="r" depth="3" NCoef="0" IVar="-1" Cut="0.0000000000000000e+00" cType="1" res="2.8980057686567307e-02" rms="3.1551891565322876e-01" purity="4.1246160864830017e-01" nType="-99"/>
          </Node>
          <Node pos="r" depth="2" NCoef="0" IVar="7" Cut="2.6350277662277222e-01" cType="1" res="-3.0965409241616726e-03" rms="2.9317227005958557e-01" purity="5.6736129522323608e-01" nType="0">
            <Node pos="l" depth="3" NCoef="0" IVar="-1" Cut="0.0000000000000000e+00" cType="1" res="-1.9254117505624890e-03" rms="2.9309546947479248e-01" purity="5.5724394321441650e-01" nType="-99"/>
            <Node pos="r" depth="3" NCoef="0" IVar="-1" Cut="0.0000000000000000e+00" cType="1" res="-1.8542189151048660e-02" rms="2.9353594779968262e-01" purity="6.6050738096237183e-01" nType="-99"/>
          </Node>
        </Node>
        <Node pos="r" depth="1" NCoef="0" IVar="7" Cut="1.0963388681411743e+00" cType="1" res="9.3117095530033112e-03" rms="2.8473451733589172e-01" purity="4.1648054122924805e-01" nType="0">
          <Node pos="l" depth="2" NCoef="0" IVar="10" Cut="-1.2004890441894531e+00" cType="1" res="1.5522750094532967e-02" rms="3.0996003746986389e-01" purity="5.4993808269500732e-01" nType="0">
            <Node pos="l" depth="3" NCoef="0" IVar="-1" Cut="0.0000000000000000e+00" cType="1" res="-1.4264946803450584e-02" rms="2.8793719410896301e-01" purity="3.9241126179695129e-01" nType="-99"/>
            <Node pos="r" depth="3" NCoef="0" IVar="-1" Cut="0.0000000000000000e+00" cType="1" res="2.1694444119930267e-02" rms="3.1328460574150085e-01" purity="5.7662218809127808e-01" nType="-99"/>
          </Node>
          <Node pos="r" depth="2" NCoef="0" IVar="6" Cut="5.4718990325927734e+01" cType="1" res="-1.5602464554831386e-03" rms="2.3372860252857208e-01" purity="1.8287324905395508e-01" nType="0">
            <Node pos="l" depth="3" NCoef="0" IVar="-1" Cut="0.0000000000000000e+00" cType="1" res="-2.6451453566551208e-02" rms="1.8511936068534851e-01" purity="5.0844945013523102e-02" nType="-99"/>
            <Node pos="r" depth="3" NCoef="0" IVar="-1" Cut="0.0000000000000000e+00" cType="1" res="1.6736675053834915e-02" rms="3.1491571664810181e-01" purity="4.7514197230339050e-01" nType="-99"/>
          </Node>
        </Node>
      </Node>
    </BinaryTree>
    <BinaryTree type="DecisionTree" boostWeight="1.0000000000000000e+00" itree="309">
      <Node pos="s" depth="0" NCoef="0" IVar="9" Cut="-1.1996375322341919e+00" cType="1" res="5.9704026207327843e-03" rms="2.9007905721664429e-01" purity="5.0488281250000000e-01" nType="0">
        <Node pos="l" depth="1" NCoef="0" IVar="1" Cut="3.6161828786134720e-02" cType="1" res="1.8146399408578873e-02" rms="2.9355919361114502e-01" purity="3.0768695473670959e-01" nType="0">
          <Node pos="l" depth="2" NCoef="0" IVar="8" Cut="-1.3361231982707977e-01" cType="1" res="6.6567240282893181e-03" rms="2.3741559684276581e-01" purity="1.0560409724712372e-01" nType="0">
            <Node pos="l" depth="3" NCoef="0" IVar="-1" Cut="0.0000000000000000e+00" cType="1" res="3.6212075501680374e-02" rms="2.5226420164108276e-01" purity="1.1984757333993912e-01" nType="-99"/>
            <Node pos="r" depth="3" NCoef="0" IVar="-1" Cut="0.0000000000000000e+00" cType="1" res="-1.8747290596365929e-02" rms="2.1594847738742828e-01" purity="8.7490968406200409e-02" nType="-99"/>
          </Node>
          <Node pos="r" depth="2" NCoef="0" IVar="11" Cut="-2.4478724002838135e+00" cType="1" res="2.9958257451653481e-02" rms="3.4139204025268555e-01" purity="5.1543647050857544e-01" nType="0">
            <Node pos="l" depth="3" NCoef="0" IVar="-1" Cut="0.0000000000000000e+00" cType="1" res="4.7260455787181854e-02" rms="3.5955691337585449e-01" purity="2.5744089484214783e-01" nType="-99"/>
            <Node pos="r" depth="3" NCoef="0" IVar="-1" Cut="0.0000000000000000e+00" cType="1" res="1.2014433741569519e-02" rms="3.2588770985603333e-01" purity="7.1265113353729248e-01" nType="-99"/>
          </Node>
        </Node>
        <Node pos="r" depth="1" NCoef="0" IVar="7" Cut="-9.1050982475280762e-01" cType="1" res="4.0042847394943237e-03" rms="2.8946515917778015e-01" purity="5.3672498464584351e-01" nType="0">
          <Node pos="l" depth="2" NCoef="0" IVar="7" Cut="-1.3520358800888062e+00" cType="1" res="-6.5059177577495575e-03" rms="2.5405776500701904e-01" purity="2.5855937600135803e-01" nType="0">
            <Node pos="l" depth="3" NCoef="0" IVar="-1" Cut="0.0000000000000000e+00" cType="1" res="1.7721652984619141e-02" rms="2.2729416191577911e-01" purity="1.4523033797740936e-01" nType="-99"/>
            <Node pos="r" depth="3" NCoef="0" IVar="-1" Cut="0.0000000000000000e+00" cType="1" res="-2.4463873356580734e-02" rms="2.7566072344779968e-01" purity="3.6296236515045166e-01" nType="-99"/>
          </Node>
          <Node pos="r" depth="2" NCoef="0" IVar="0" Cut="1.3948183593750000e+03" cType="1" res="5.7290336117148399e-03" rms="2.9483398795127869e-01" purity="5.8237260580062866e-01" nType="0">
            <Node pos="l" depth="3" NCoef="0" IVar="-1" Cut="0.0000000000000000e+00" cType="1" res="1.1762208305299282e-02" rms="3.1793302297592163e-01" purity="2.3663383722305298e-01" nType="-99"/>
            <Node pos="r" depth="3" NCoef="0" IVar="-1" Cut="0.0000000000000000e+00" cType="1" res="2.5327666662633419e-03" rms="2.7967926859855652e-01" purity="7.9416126012802124e-01" nType="-99"/>
          </Node>
        </Node>
      </Node>
    </BinaryTree>
    <BinaryTree type="DecisionTree" boostWeight="1.0000000000000000e+00" itree="310">
      <Node pos="s" depth="0" NCoef="0" IVar="10" Cut="1.7333047389984131e+00" cType="1" res="-1.4703264459967613e-03" rms="2.9133966565132141e-01" purity="4.9363350868225098e-01" nType="0">
        <Node pos="l" depth="1" NCoef="0" IVar="7" Cut="-1.1515486985445023e-01" cType="1" res="-2.8022574260830879e-03" rms="2.9037708044052124e-01" purity="5.0861775875091553e-01" nType="0">
          <Node pos="l" depth="2" NCoef="0" IVar="9" Cut="9.3353796005249023e-01" cType="1" res="1.9996415358036757e-03" rms="2.9367944598197937e-01" purity="4.9055144190788269e-01" nType="0">
            <Node pos="l" depth="3" NCoef="0" IVar="-1" Cut="0.0000000000000000e+00" cType="1" res="6.0646887868642807e-03" rms="2.9668235778808594e-01" purity="5.2581954002380371e-01" nType="-99"/>
            <Node pos="r" depth="3" NCoef="0" IVar="-1" Cut="0.0000000000000000e+00" cType="1" res="-1.8748717382550240e-02" rms="2.7723202109336853e-01" purity="3.1015455722808838e-01" nType="-99"/>
          </Node>
          <Node pos="r" depth="2" NCoef="0" IVar="11" Cut="1.1426275968551636e+00" cType="1" res="-6.8729743361473083e-03" rms="2.8748503327369690e-01" purity="5.2393317222595215e-01" nType="0">
            <Node pos="l" depth="3" NCoef="0" IVar="-1" Cut="0.0000000000000000e+00" cType="1" res="-1.0440392419695854e-02" rms="2.8629821538925171e-01" purity="5.0131708383560181e-01" nType="-99"/>
            <Node pos="r" depth="3" NCoef="0" IVar="-1" Cut="0.0000000000000000e+00" cType="1" res="1.0491140186786652e-02" rms="2.9737123847007751e-01" purity="7.2598952054977417e-01" nType="-99"/>
          </Node>
        </Node>
        <Node pos="r" depth="1" NCoef="0" IVar="8" Cut="-1.3523593544960022e-01" cType="1" res="1.4602947980165482e-02" rms="3.0225202441215515e-01" purity="3.1280854344367981e-01" nType="0">
          <Node pos="l" depth="2" NCoef="0" IVar="-1" Cut="0.0000000000000000e+00" cType="1" res="-1.4786609448492527e-02" rms="2.8642544150352478e-01" purity="2.3990026116371155e-01" nType="-99"/>
          <Node pos="r" depth="2" NCoef="0" IVar="-1" Cut="0.0000000000000000e+00" cType="1" res="3.5023979842662811e-02" rms="3.1033340096473694e-01" purity="3.5686215758323669e-01" nType="-99"/>
        </Node>
      </Node>
    </BinaryTree>
    <BinaryTree type="DecisionTree" boostWeight="1.0000000000000000e+00" itree="311">
      <Node pos="s" depth="0" NCoef="0" IVar="8" Cut="-1.1997393369674683e+00" cType="1" res="2.2483156062662601e-03" rms="2.8909677267074585e-01" purity="5.0756663084030151e-01" nType="0">
        <Node pos="l" depth="1" NCoef="0" IVar="3" Cut="2.3845771789550781e+02" cType="1" res="-1.0944954119622707e-02" rms="2.3678483068943024e-01" purity="1.9874761998653412e-01" nType="0">
          <Node pos="l" depth="2" NCoef="0" IVar="0" Cut="1.2766163330078125e+03" cType="1" res="-5.6549734435975552e-03" rms="2.2854486107826233e-01" purity="1.5818789601325989e-01" nType="0">
            <Node pos="l" depth="3" NCoef="0" IVar="-1" Cut="0.0000000000000000e+00" cType="1" res="-3.2540604472160339e-02" rms="1.6728334128856659e-01" purity="4.0586832910776138e-02" nType="-99"/>
            <Node pos="r" depth="3" NCoef="0" IVar="-1" Cut="0.0000000000000000e+00" cType="1" res="7.1469070389866829e-03" rms="3.1460547447204590e-01" purity="3.8615536689758301e-01" nType="-99"/>
          </Node>
          <Node pos="r" depth="2" NCoef="0" IVar="-1" Cut="0.0000000000000000e+00" cType="1" res="-2.9679868370294571e-02" rms="2.5670003890991211e-01" purity="3.0553933978080750e-01" nType="-99"/>
        </Node>
        <Node pos="r" depth="1" NCoef="0" IVar="5" Cut="1.3268243408203125e+02" cType="1" res="3.9344145916402340e-03" rms="2.9507222771644592e-01" purity="5.4703366756439209e-01" nType="0">
          <Node pos="l" depth="2" NCoef="0" IVar="8" Cut="-2.4739591777324677e-01" cType="1" res="5.5184201337397099e-03" rms="3.0958446860313416e-01" purity="4.7603312134742737e-01" nType="0">
            <Node pos="l" depth="3" NCoef="0" IVar="-1" Cut="0.0000000000000000e+00" cType="1" res="-7.6949514914304018e-04" rms="3.2226136326789856e-01" purity="4.9806916713714600e-01" nType="-99"/>
            <Node pos="r" depth="3" NCoef="0" IVar="-1" Cut="0.0000000000000000e+00" cType="1" res="8.8493935763835907e-03" rms="3.0351546406745911e-01" purity="4.6586999297142029e-01" nType="-99"/>
          </Node>
          <Node pos="r" depth="2" NCoef="0" IVar="8" Cut="1.2923972308635712e-01" cType="1" res="-4.7527491115033627e-03" rms="1.9711433351039886e-01" purity="9.3642204999923706e-01" nType="0">
            <Node pos="l" depth="3" NCoef="0" IVar="-1" Cut="0.0000000000000000e+00" cType="1" res="2.9241989832371473e-03" rms="1.8774440884590149e-01" purity="9.5051312446594238e-01" nType="-99"/>
            <Node pos="r" depth="3" NCoef="0" IVar="-1" Cut="0.0000000000000000e+00" cType="1" res="-3.1034046784043312e-02" rms="2.0867186784744263e-01" purity="9.1768831014633179e-01" nType="-99"/>
          </Node>
        </Node>
      </Node>
    </BinaryTree>
    <BinaryTree type="DecisionTree" boostWeight="1.0000000000000000e+00" itree="312">
      <Node pos="s" depth="0" NCoef="0" IVar="9" Cut="1.4660875797271729e+00" cType="1" res="3.2480020308867097e-05" rms="2.8760027885437012e-01" purity="4.9912893772125244e-01" nType="0">
        <Node pos="l" depth="1" NCoef="0" IVar="7" Cut="6.7294001579284668e-01" cType="1" res="1.1100179981440306e-03" rms="2.9001110792160034e-01" purity="5.2583903074264526e-01" nType="0">
          <Node pos="l" depth="2" NCoef="0" IVar="9" Cut="8.5663920640945435e-01" cType="1" res="3.0915932729840279e-03" rms="2.9430115222930908e-01" purity="5.7390081882476807e-01" nType="0">
            <Node pos="l" depth="3" NCoef="0" IVar="-1" Cut="0.0000000000000000e+00" cType="1" res="1.5572505071759224e-03" rms="2.9137399792671204e-01" purity="5.7803034782409668e-01" nType="-99"/>
            <Node pos="r" depth="3" NCoef="0" IVar="-1" Cut="0.0000000000000000e+00" cType="1" res="1.5549787320196629e-02" rms="3.1350633502006531e-01" purity="5.4538750648498535e-01" nType="-99"/>
          </Node>
          <Node pos="r" depth="2" NCoef="0" IVar="7" Cut="8.7547188997268677e-01" cType="1" res="-6.1357687227427959e-03" rms="2.7363029122352600e-01" purity="3.5009735822677612e-01" nType="0">
            <Node pos="l" depth="3" NCoef="0" IVar="-1" Cut="0.0000000000000000e+00" cType="1" res="-2.3716373369097710e-02" rms="3.0568933486938477e-01" purity="5.2588772773742676e-01" nType="-99"/>
            <Node pos="r" depth="3" NCoef="0" IVar="-1" Cut="0.0000000000000000e+00" cType="1" res="-7.3397846426814795e-04" rms="2.6110991835594177e-01" purity="2.8786486387252808e-01" nType="-99"/>
          </Node>
        </Node>
        <Node pos="r" depth="1" NCoef="0" IVar="4" Cut="1.1370962524414062e+02" cType="1" res="-1.1459204368293285e-02" rms="2.6022803783416748e-01" purity="2.1427249908447266e-01" nType="0">
          <Node pos="l" depth="2" NCoef="0" IVar="-1" Cut="0.0000000000000000e+00" cType="1" res="1.4908661134541035e-02" rms="2.2052365541458130e-01" purity="7.9776220023632050e-02" nType="-99"/>
          <Node pos="r" depth="2" NCoef="0" IVar="-1" Cut="0.0000000000000000e+00" cType="1" res="-2.5699527934193611e-02" rms="2.8480562567710876e-01" purity="3.1152504682540894e-01" nType="-99"/>
        </Node>
      </Node>
    </BinaryTree>
    <BinaryTree type="DecisionTree" boostWeight="1.0000000000000000e+00" itree="313">
      <Node pos="s" depth="0" NCoef="0" IVar="8" Cut="-6.6630196571350098e-01" cType="1" res="-3.6166846984997392e-04" rms="2.8891572356224060e-01" purity="5.0172978639602661e-01" nType="0">
        <Node pos="l" depth="1" NCoef="0" IVar="11" Cut="5.8991134166717529e-01" cType="1" res="8.0892434343695641e-03" rms="2.9098117351531982e-01" purity="3.6697044968605042e-01" nType="0">
          <Node pos="l" depth="2" NCoef="0" IVar="11" Cut="-1.8035753965377808e+00" cType="1" res="1.1806758120656013e-02" rms="2.8692501783370972e-01" purity="3.3657562732696533e-01" nType="0">
            <Node pos="l" depth="3" NCoef="0" IVar="-1" Cut="0.0000000000000000e+00" cType="1" res="6.8884110078215599e-03" rms="2.6841554045677185e-01" purity="1.6642534732818604e-01" nType="-99"/>
            <Node pos="r" depth="3" NCoef="0" IVar="-1" Cut="0.0000000000000000e+00" cType="1" res="2.4958865717053413e-02" rms="3.1945577263832092e-01" purity="6.6778045892715454e-01" nType="-99"/>
          </Node>
          <Node pos="r" depth="2" NCoef="0" IVar="-1" Cut="0.0000000000000000e+00" cType="1" res="-1.8349153921008110e-02" rms="3.1772434711456299e-01" purity="5.8891433477401733e-01" nType="-99"/>
        </Node>
        <Node pos="r" depth="1" NCoef="0" IVar="9" Cut="6.6651338338851929e-01" cType="1" res="-3.1534996815025806e-03" rms="2.8817570209503174e-01" purity="5.4624867439270020e-01" nType="0">
          <Node pos="l" depth="2" NCoef="0" IVar="10" Cut="-1.7332259416580200e+00" cType="1" res="-3.4422488533891737e-04" rms="2.8883272409439087e-01" purity="5.8467781543731689e-01" nType="0">
            <Node pos="l" depth="3" NCoef="0" IVar="-1" Cut="0.0000000000000000e+00" cType="1" res="-2.1987417712807655e-02" rms="2.8840565681457520e-01" purity="3.1331887841224670e-01" nType="-99"/>
            <Node pos="r" depth="3" NCoef="0" IVar="-1" Cut="0.0000000000000000e+00" cType="1" res="1.3294485397636890e-03" rms="2.8881245851516724e-01" purity="6.0517835617065430e-01" nType="-99"/>
          </Node>
          <Node pos="r" depth="2" NCoef="0" IVar="0" Cut="1.8920985107421875e+03" cType="1" res="-1.0654300451278687e-02" rms="2.8627896308898926e-01" purity="4.4364234805107117e-01" nType="0">
            <Node pos="l" depth="3" NCoef="0" IVar="-1" Cut="0.0000000000000000e+00" cType="1" res="-1.6843171790242195e-02" rms="2.9049709439277649e-01" purity="3.3381640911102295e-01" nType="-99"/>
            <Node pos="r" depth="3" NCoef="0" IVar="-1" Cut="0.0000000000000000e+00" cType="1" res="1.1362502351403236e-02" rms="2.6901459693908691e-01" purity="8.5679870843887329e-01" nType="-99"/>
          </Node>
        </Node>
      </Node>
    </BinaryTree>
    <BinaryTree type="DecisionTree" boostWeight="1.0000000000000000e+00" itree="314">
      <Node pos="s" depth="0" NCoef="0" IVar="6" Cut="7.0730407714843750e+01" cType="1" res="-8.1845413660630584e-04" rms="2.8961780667304993e-01" purity="5.0386506319046021e-01" nType="0">
        <Node pos="l" depth="1" NCoef="0" IVar="11" Cut="1.4188027381896973e+00" cType="1" res="1.9068982219323516e-03" rms="3.0681240558624268e-01" purity="3.4121665358543396e-01" nType="0">
          <Node pos="l" depth="2" NCoef="0" IVar="11" Cut="5.7709592580795288e-01" cType="1" res="5.9677811805158854e-04" rms="3.0539977550506592e-01" purity="3.3079344034194946e-01" nType="0">
            <Node pos="l" depth="3" NCoef="0" IVar="-1" Cut="0.0000000000000000e+00" cType="1" res="2.7581939939409494e-03" rms="3.0367627739906311e-01" purity="3.1626820564270020e-01" nType="-99"/>
            <Node pos="r" depth="3" NCoef="0" IVar="-1" Cut="0.0000000000000000e+00" cType="1" res="-2.5774115696549416e-02" rms="3.2894483208656311e-01" purity="5.5064564943313599e-01" nType="-99"/>
          </Node>
          <Node pos="r" depth="2" NCoef="0" IVar="-1" Cut="0.0000000000000000e+00" cType="1" res="2.4384638294577599e-02" rms="3.3311858773231506e-01" purity="5.5307257175445557e-01" nType="-99"/>
        </Node>
        <Node pos="r" depth="1" NCoef="0" IVar="0" Cut="2.2613195800781250e+03" cType="1" res="-7.0974812842905521e-03" rms="2.4534514546394348e-01" purity="8.7859600782394409e-01" nType="0">
          <Node pos="l" depth="2" NCoef="0" IVar="5" Cut="1.0026522064208984e+02" cType="1" res="-1.1085228994488716e-02" rms="2.6672625541687012e-01" purity="8.5177254676818848e-01" nType="0">
            <Node pos="l" depth="3" NCoef="0" IVar="-1" Cut="0.0000000000000000e+00" cType="1" res="-2.3813633248209953e-02" rms="3.4256690740585327e-01" purity="7.1897178888320923e-01" nType="-99"/>
            <Node pos="r" depth="3" NCoef="0" IVar="-1" Cut="0.0000000000000000e+00" cType="1" res="-1.0941170156002045e-02" rms="2.2926577925682068e-01" purity="9.0487772226333618e-01" nType="-99"/>
          </Node>
          <Node pos="r" depth="2" NCoef="0" IVar="-1" Cut="0.0000000000000000e+00" cType="1" res="2.3917047306895256e-02" rms="1.4872428774833679e-01" purity="9.7127825021743774e-01" nType="-99"/>
        </Node>
      </Node>
    </BinaryTree>
    <BinaryTree type="DecisionTree" boostWeight="1.0000000000000000e+00" itree="315">
      <Node pos="s" depth="0" NCoef="0" IVar="10" Cut="1.3331310451030731e-01" cType="1" res="2.2639473900198936e-04" rms="2.8669694066047668e-01" purity="5.0759506225585938e-01" nType="0">
        <Node pos="l" depth="1" NCoef="0" IVar="10" Cut="-6.4007751643657684e-03" cType="1" res="4.1164970025420189e-03" rms="2.8565949201583862e-01" purity="5.1120400428771973e-01" nType="0">
          <Node pos="l" depth="2" NCoef="0" IVar="10" Cut="-1.3943421840667725e-01" cType="1" res="2.3156325332820415e-03" rms="2.8434470295906067e-01" purity="5.0235557556152344e-01" nType="0">
            <Node pos="l" depth="3" NCoef="0" IVar="-1" Cut="0.0000000000000000e+00" cType="1" res="5.0954986363649368e-03" rms="2.8532794117927551e-01" purity="4.9542236328125000e-01" nType="-99"/>
            <Node pos="r" depth="3" NCoef="0" IVar="-1" Cut="0.0000000000000000e+00" cType="1" res="-2.3764928802847862e-02" rms="2.7284115552902222e-01" purity="5.7585012912750244e-01" nType="-99"/>
          </Node>
          <Node pos="r" depth="2" NCoef="0" IVar="-1" Cut="0.0000000000000000e+00" cType="1" res="2.8487859293818474e-02" rms="2.9917898774147034e-01" purity="6.0973083972930908e-01" nType="-99"/>
        </Node>
        <Node pos="r" depth="1" NCoef="0" IVar="0" Cut="1.9034345703125000e+03" cType="1" res="-4.3981596827507019e-03" rms="2.8785705566406250e-01" purity="5.0330471992492676e-01" nType="0">
          <Node pos="l" depth="2" NCoef="0" IVar="7" Cut="-8.5090833902359009e-01" cType="1" res="-8.1644179299473763e-03" rms="3.0264657735824585e-01" purity="3.8557547330856323e-01" nType="0">
            <Node pos="l" depth="3" NCoef="0" IVar="-1" Cut="0.0000000000000000e+00" cType="1" res="8.2157552242279053e-03" rms="2.4368155002593994e-01" purity="2.2160322964191437e-01" nType="-99"/>
            <Node pos="r" depth="3" NCoef="0" IVar="-1" Cut="0.0000000000000000e+00" cType="1" res="-1.1090360581874847e-02" rms="3.1308379769325256e-01" purity="4.1851300001144409e-01" nType="-99"/>
          </Node>
          <Node pos="r" depth="2" NCoef="0" IVar="1" Cut="5.8180253952741623e-02" cType="1" res="7.9994201660156250e-03" rms="2.3219290375709534e-01" purity="8.9083981513977051e-01" nType="0">
            <Node pos="l" depth="3" NCoef="0" IVar="-1" Cut="0.0000000000000000e+00" cType="1" res="1.7569066956639290e-02" rms="3.1681078672409058e-01" purity="7.4028456211090088e-01" nType="-99"/>
            <Node pos="r" depth="3" NCoef="0" IVar="-1" Cut="0.0000000000000000e+00" cType="1" res="8.6182728409767151e-03" rms="1.8009608983993530e-01" purity="9.6018624305725098e-01" nType="-99"/>
          </Node>
        </Node>
      </Node>
    </BinaryTree>
    <BinaryTree type="DecisionTree" boostWeight="1.0000000000000000e+00" itree="316">
      <Node pos="s" depth="0" NCoef="0" IVar="8" Cut="-1.3309229910373688e-01" cType="1" res="8.5359672084450722e-04" rms="2.8781306743621826e-01" purity="4.9714490771293640e-01" nType="0">
        <Node pos="l" depth="1" NCoef="0" IVar="7" Cut="-1.4133778810501099e+00" cType="1" res="6.8681039847433567e-03" rms="2.8973022103309631e-01" purity="4.8682352900505066e-01" nType="0">
          <Node pos="l" depth="2" NCoef="0" IVar="-1" Cut="0.0000000000000000e+00" cType="1" res="-3.8323197513818741e-02" rms="1.8612709641456604e-01" purity="9.2447020113468170e-02" nType="-99"/>
          <Node pos="r" depth="2" NCoef="0" IVar="4" Cut="2.7092608642578125e+02" cType="1" res="8.6647318676114082e-03" rms="2.9579487442970276e-01" purity="5.1560926437377930e-01" nType="0">
            <Node pos="l" depth="3" NCoef="0" IVar="-1" Cut="0.0000000000000000e+00" cType="1" res="1.1671285144984722e-02" rms="3.0013343691825867e-01" purity="4.8411348462104797e-01" nType="-99"/>
            <Node pos="r" depth="3" NCoef="0" IVar="-1" Cut="0.0000000000000000e+00" cType="1" res="-1.8068414181470871e-02" rms="2.4167554080486298e-01" purity="8.6478763818740845e-01" nType="-99"/>
          </Node>
        </Node>
        <Node pos="r" depth="1" NCoef="0" IVar="1" Cut="1.0603571683168411e-01" cType="1" res="-4.1081714443862438e-03" rms="2.8612667322158813e-01" purity="5.0565969944000244e-01" nType="0">
          <Node pos="l" depth="2" NCoef="0" IVar="5" Cut="8.5531944274902344e+01" cType="1" res="-8.7041733786463737e-03" rms="2.9074004292488098e-01" purity="3.7627920508384705e-01" nType="0">
            <Node pos="l" depth="3" NCoef="0" IVar="-1" Cut="0.0000000000000000e+00" cType="1" res="-1.7353415489196777e-02" rms="2.7915939688682556e-01" purity="1.9410058856010437e-01" nType="-99"/>
            <Node pos="r" depth="3" NCoef="0" IVar="-1" Cut="0.0000000000000000e+00" cType="1" res="2.4392963387072086e-03" rms="3.1050279736518860e-01" purity="7.0953756570816040e-01" nType="-99"/>
          </Node>
          <Node pos="r" depth="2" NCoef="0" IVar="11" Cut="-7.9090911149978638e-01" cType="1" res="8.0549921840429306e-03" rms="2.7316954731941223e-01" purity="8.4806084632873535e-01" nType="0">
            <Node pos="l" depth="3" NCoef="0" IVar="-1" Cut="0.0000000000000000e+00" cType="1" res="1.6313945874571800e-02" rms="3.4190449118614197e-01" purity="7.2439926862716675e-01" nType="-99"/>
            <Node pos="r" depth="3" NCoef="0" IVar="-1" Cut="0.0000000000000000e+00" cType="1" res="1.5640881611034274e-03" rms="2.1197299659252167e-01" purity="9.3452191352844238e-01" nType="-99"/>
          </Node>
        </Node>
      </Node>
    </BinaryTree>
    <BinaryTree type="DecisionTree" boostWeight="1.0000000000000000e+00" itree="317">
      <Node pos="s" depth="0" NCoef="0" IVar="4" Cut="1.7831454467773438e+02" cType="1" res="-4.1783080087043345e-04" rms="2.9078480601310730e-01" purity="4.9533247947692871e-01" nType="0">
        <Node pos="l" depth="1" NCoef="0" IVar="2" Cut="5.6517852783203125e+02" cType="1" res="2.6708354707807302e-03" rms="2.9924386739730835e-01" purity="3.2733801007270813e-01" nType="0">
          <Node pos="l" depth="2" NCoef="0" IVar="2" Cut="3.7389691162109375e+02" cType="1" res="1.2316456995904446e-03" rms="2.9596978425979614e-01" purity="3.2283845543861389e-01" nType="0">
            <Node pos="l" depth="3" NCoef="0" IVar="-1" Cut="0.0000000000000000e+00" cType="1" res="5.4371994920074940e-03" rms="2.9536163806915283e-01" purity="3.2268440723419189e-01" nType="-99"/>
            <Node pos="r" depth="3" NCoef="0" IVar="-1" Cut="0.0000000000000000e+00" cType="1" res="-8.5216425359249115e-03" rms="2.9737752676010132e-01" purity="3.2324191927909851e-01" nType="-99"/>
          </Node>
          <Node pos="r" depth="2" NCoef="0" IVar="7" Cut="5.6638037785887718e-03" cType="1" res="1.7839262261986732e-02" rms="3.3141243457794189e-01" purity="3.7476134300231934e-01" nType="0">
            <Node pos="l" depth="3" NCoef="0" IVar="-1" Cut="0.0000000000000000e+00" cType="1" res="2.7133196592330933e-02" rms="3.4290772676467896e-01" purity="4.0345761179924011e-01" nType="-99"/>
            <Node pos="r" depth="3" NCoef="0" IVar="-1" Cut="0.0000000000000000e+00" cType="1" res="6.4532696269452572e-03" rms="3.1930664181709290e-01" purity="3.4653818607330322e-01" nType="-99"/>
          </Node>
        </Node>
        <Node pos="r" depth="1" NCoef="0" IVar="9" Cut="-1.1992156505584717e+00" cType="1" res="-5.6376801803708076e-03" rms="2.7582150697708130e-01" purity="7.7924323081970215e-01" nType="0">
          <Node pos="l" depth="2" NCoef="0" IVar="-1" Cut="0.0000000000000000e+00" cType="1" res="-2.7704441919922829e-02" rms="3.0615934729576111e-01" purity="5.2687883377075195e-01" nType="-99"/>
          <Node pos="r" depth="2" NCoef="0" IVar="0" Cut="1.8130843505859375e+03" cType="1" res="-3.7199158687144518e-03" rms="2.7292269468307495e-01" purity="8.0132627487182617e-01" nType="0">
            <Node pos="l" depth="3" NCoef="0" IVar="-1" Cut="0.0000000000000000e+00" cType="1" res="-9.3801459297537804e-03" rms="3.3740553259849548e-01" purity="6.3727843761444092e-01" nType="-99"/>
            <Node pos="r" depth="3" NCoef="0" IVar="-1" Cut="0.0000000000000000e+00" cType="1" res="1.6496396856382489e-03" rms="2.1946437656879425e-01" purity="9.1083145141601562e-01" nType="-99"/>
          </Node>
        </Node>
      </Node>
    </BinaryTree>
    <BinaryTree type="DecisionTree" boostWeight="1.0000000000000000e+00" itree="318">
      <Node pos="s" depth="0" NCoef="0" IVar="5" Cut="9.0401359558105469e+01" cType="1" res="-9.1784982942044735e-04" rms="2.8936365246772766e-01" purity="5.0367462635040283e-01" nType="0">
        <Node pos="l" depth="1" NCoef="0" IVar="11" Cut="5.8980965614318848e-01" cType="1" res="1.9117303891107440e-03" rms="3.0697309970855713e-01" purity="2.8963389992713928e-01" nType="0">
          <Node pos="l" depth="2" NCoef="0" IVar="3" Cut="3.0266336059570312e+02" cType="1" res="-3.5357492743059993e-04" rms="3.0340516567230225e-01" purity="2.5715371966362000e-01" nType="0">
            <Node pos="l" depth="3" NCoef="0" IVar="-1" Cut="0.0000000000000000e+00" cType="1" res="-3.5351580008864403e-03" rms="2.9384166002273560e-01" purity="2.1942335367202759e-01" nType="-99"/>
            <Node pos="r" depth="3" NCoef="0" IVar="-1" Cut="0.0000000000000000e+00" cType="1" res="1.3385240919888020e-02" rms="3.5462194681167603e-01" purity="4.8177254199981689e-01" nType="-99"/>
          </Node>
          <Node pos="r" depth="2" NCoef="0" IVar="11" Cut="1.2211110591888428e+00" cType="1" res="1.9452568143606186e-02" rms="3.3278867602348328e-01" purity="5.4113608598709106e-01" nType="0">
            <Node pos="l" depth="3" NCoef="0" IVar="-1" Cut="0.0000000000000000e+00" cType="1" res="3.3137522637844086e-02" rms="3.3975756168365479e-01" purity="6.1565071344375610e-01" nType="-99"/>
            <Node pos="r" depth="3" NCoef="0" IVar="-1" Cut="0.0000000000000000e+00" cType="1" res="3.5088269505649805e-03" rms="3.2670226693153381e-01" purity="4.8611503839492798e-01" nType="-99"/>
          </Node>
        </Node>
        <Node pos="r" depth="1" NCoef="0" IVar="0" Cut="1.7778221435546875e+03" cType="1" res="-5.1100947894155979e-03" rms="2.6104331016540527e-01" purity="8.2079273462295532e-01" nType="0">
          <Node pos="l" depth="2" NCoef="0" IVar="8" Cut="4.0036574006080627e-01" cType="1" res="-1.5106753446161747e-02" rms="3.2176512479782104e-01" purity="6.7974889278411865e-01" nType="0">
            <Node pos="l" depth="3" NCoef="0" IVar="-1" Cut="0.0000000000000000e+00" cType="1" res="-2.2796673700213432e-02" rms="3.1569007039070129e-01" purity="6.9440096616744995e-01" nType="-99"/>
            <Node pos="r" depth="3" NCoef="0" IVar="-1" Cut="0.0000000000000000e+00" cType="1" res="2.2354025859385729e-03" rms="3.3350706100463867e-01" purity="6.4889144897460938e-01" nType="-99"/>
          </Node>
          <Node pos="r" depth="2" NCoef="0" IVar="10" Cut="6.6688024997711182e-01" cType="1" res="2.6896730996668339e-03" rms="2.0097967982292175e-01" purity="9.3084031343460083e-01" nType="0">
            <Node pos="l" depth="3" NCoef="0" IVar="-1" Cut="0.0000000000000000e+00" cType="1" res="1.3632277958095074e-02" rms="1.9394457340240479e-01" purity="9.3720966577529907e-01" nType="-99"/>
            <Node pos="r" depth="3" NCoef="0" IVar="-1" Cut="0.0000000000000000e+00" cType="1" res="-1.3386417180299759e-02" rms="2.2094674408435822e-01" purity="9.1128611564636230e-01" nType="-99"/>
          </Node>
        </Node>
      </Node>
    </BinaryTree>
    <BinaryTree type="DecisionTree" boostWeight="1.0000000000000000e+00" itree="319">
      <Node pos="s" depth="0" NCoef="0" IVar="8" Cut="-1.9997013807296753e+00" cType="1" res="-1.3454679865390062e-03" rms="2.8658962249755859e-01" purity="5.0206279754638672e-01" nType="0">
        <Node pos="l" depth="1" NCoef="0" IVar="-1" Cut="0.0000000000000000e+00" cType="1" res="-5.7271096855401993e-02" rms="1.4805927872657776e-01" purity="4.6879619359970093e-02" nType="-99"/>
        <Node pos="r" depth="1" NCoef="0" IVar="5" Cut="1.1060195159912109e+02" cType="1" res="-7.4864423368126154e-04" rms="2.8969690203666687e-01" purity="5.1569235324859619e-01" nType="0">
          <Node pos="l" depth="2" NCoef="0" IVar="10" Cut="9.3331581354141235e-01" cType="1" res="-2.5324609596282244e-03" rms="3.0901077389717102e-01" purity="3.7716415524482727e-01" nType="0">
            <Node pos="l" depth="3" NCoef="0" IVar="-1" Cut="0.0000000000000000e+00" cType="1" res="-4.9419295974075794e-03" rms="3.0812513828277588e-01" purity="3.9148688316345215e-01" nType="-99"/>
            <Node pos="r" depth="3" NCoef="0" IVar="-1" Cut="0.0000000000000000e+00" cType="1" res="4.8362109810113907e-03" rms="3.1158590316772461e-01" purity="3.3351388573646545e-01" nType="-99"/>
          </Node>
          <Node pos="r" depth="2" NCoef="0" IVar="4" Cut="2.3798262023925781e+02" cType="1" res="4.2985025793313980e-03" rms="2.2621309757232666e-01" purity="9.0764528512954712e-01" nType="0">
            <Node pos="l" depth="3" NCoef="0" IVar="-1" Cut="0.0000000000000000e+00" cType="1" res="1.8678700551390648e-02" rms="2.3607704043388367e-01" purity="8.9274257421493530e-01" nType="-99"/>
            <Node pos="r" depth="3" NCoef="0" IVar="-1" Cut="0.0000000000000000e+00" cType="1" res="-2.0610911771655083e-02" rms="2.0695875585079193e-01" purity="9.3411827087402344e-01" nType="-99"/>
          </Node>
        </Node>
      </Node>
    </BinaryTree>
    <BinaryTree type="DecisionTree" boostWeight="1.0000000000000000e+00" itree="320">
      <Node pos="s" depth="0" NCoef="0" IVar="0" Cut="1.3945023193359375e+03" cType="1" res="1.4987974427640438e-03" rms="2.9067534208297729e-01" purity="4.9834281206130981e-01" nType="0">
        <Node pos="l" depth="1" NCoef="0" IVar="7" Cut="4.1473031044006348e-01" cType="1" res="6.4957914873957634e-03" rms="2.9254239797592163e-01" purity="1.8998318910598755e-01" nType="0">
          <Node pos="l" depth="2" NCoef="0" IVar="11" Cut="-1.0667861700057983e+00" cType="1" res="1.2470651417970657e-02" rms="3.0972093343734741e-01" purity="2.1894447505474091e-01" nType="0">
            <Node pos="l" depth="3" NCoef="0" IVar="-1" Cut="0.0000000000000000e+00" cType="1" res="8.6275972425937653e-03" rms="2.8893870115280151e-01" purity="1.5087622404098511e-01" nType="-99"/>
            <Node pos="r" depth="3" NCoef="0" IVar="-1" Cut="0.0000000000000000e+00" cType="1" res="2.4320842698216438e-02" rms="3.7909284234046936e-01" purity="4.8371183872222900e-01" nType="-99"/>
          </Node>
          <Node pos="r" depth="2" NCoef="0" IVar="9" Cut="3.9881139993667603e-01" cType="1" res="-4.4050789438188076e-03" rms="2.5791722536087036e-01" purity="1.3714462518692017e-01" nType="0">
            <Node pos="l" depth="3" NCoef="0" IVar="-1" Cut="0.0000000000000000e+00" cType="1" res="7.1804015897214413e-03" rms="2.6954090595245361e-01" purity="1.4940008521080017e-01" nType="-99"/>
            <Node pos="r" depth="3" NCoef="0" IVar="-1" Cut="0.0000000000000000e+00" cType="1" res="-2.3116420954465866e-02" rms="2.4169526994228363e-01" purity="1.2145844101905823e-01" nType="-99"/>
          </Node>
        </Node>
        <Node pos="r" depth="1" NCoef="0" IVar="10" Cut="1.7331781387329102e+00" cType="1" res="-2.3943705018609762e-03" rms="2.8915253281593323e-01" purity="7.3858648538589478e-01" nType="0">
          <Node pos="l" depth="2" NCoef="0" IVar="8" Cut="1.3264036178588867e-01" cType="1" res="-8.8737573241814971e-04" rms="2.8723970055580139e-01" purity="7.5192028284072876e-01" nType="0">
            <Node pos="l" depth="3" NCoef="0" IVar="-1" Cut="0.0000000000000000e+00" cType="1" res="-7.6656145974993706e-03" rms="2.8362721204757690e-01" purity="7.6082605123519897e-01" nType="-99"/>
            <Node pos="r" depth="3" NCoef="0" IVar="-1" Cut="0.0000000000000000e+00" cType="1" res="7.2409291751682758e-03" rms="2.9178628325462341e-01" purity="7.4018990993499756e-01" nType="-99"/>
          </Node>
          <Node pos="r" depth="2" NCoef="0" IVar="-1" Cut="0.0000000000000000e+00" cType="1" res="-2.7892438694834709e-02" rms="3.2005164027214050e-01" purity="5.0178653001785278e-01" nType="-99"/>
        </Node>
      </Node>
    </BinaryTree>
    <BinaryTree type="DecisionTree" boostWeight="1.0000000000000000e+00" itree="321">
      <Node pos="s" depth="0" NCoef="0" IVar="9" Cut="-6.6635876893997192e-01" cType="1" res="-3.9024692960083485e-03" rms="2.8593546152114868e-01" purity="4.9358120560646057e-01" nType="0">
        <Node pos="l" depth="1" NCoef="0" IVar="8" Cut="-1.3419927656650543e-01" cType="1" res="2.8977561742067337e-03" rms="2.9074233770370483e-01" purity="4.1068723797798157e-01" nType="0">
          <Node pos="l" depth="2" NCoef="0" IVar="8" Cut="-1.0227196216583252e+00" cType="1" res="1.0348983108997345e-02" rms="2.9322367906570435e-01" purity="4.0674486756324768e-01" nType="0">
            <Node pos="l" depth="3" NCoef="0" IVar="-1" Cut="0.0000000000000000e+00" cType="1" res="-1.4651764184236526e-02" rms="2.4944706261157990e-01" purity="1.8784694373607635e-01" nType="-99"/>
            <Node pos="r" depth="3" NCoef="0" IVar="-1" Cut="0.0000000000000000e+00" cType="1" res="2.3335423320531845e-02" rms="3.1736114621162415e-01" purity="5.4636216163635254e-01" nType="-99"/>
          </Node>
          <Node pos="r" depth="2" NCoef="0" IVar="11" Cut="-2.7238121032714844e+00" cType="1" res="-5.0281379371881485e-03" rms="2.8786787390708923e-01" purity="4.1488084197044373e-01" nType="0">
            <Node pos="l" depth="3" NCoef="0" IVar="-1" Cut="0.0000000000000000e+00" cType="1" res="-2.5992505252361298e-02" rms="2.6467195153236389e-01" purity="1.5559233725070953e-01" nType="-99"/>
            <Node pos="r" depth="3" NCoef="0" IVar="-1" Cut="0.0000000000000000e+00" cType="1" res="1.1022628284990788e-02" rms="3.0957496166229248e-01" purity="6.8689161539077759e-01" nType="-99"/>
          </Node>
        </Node>
        <Node pos="r" depth="1" NCoef="0" IVar="8" Cut="-6.6654562950134277e-01" cType="1" res="-6.4180297777056694e-03" rms="2.8409546613693237e-01" purity="5.2424561977386475e-01" nType="0">
          <Node pos="l" depth="2" NCoef="0" IVar="5" Cut="7.0202377319335938e+01" cType="1" res="-1.4745866879820824e-02" rms="2.7689212560653687e-01" purity="3.7435537576675415e-01" nType="0">
            <Node pos="l" depth="3" NCoef="0" IVar="-1" Cut="0.0000000000000000e+00" cType="1" res="3.7111307028681040e-03" rms="2.5777095556259155e-01" purity="1.3486002385616302e-01" nType="-99"/>
            <Node pos="r" depth="3" NCoef="0" IVar="-1" Cut="0.0000000000000000e+00" cType="1" res="-3.1157625839114189e-02" rms="2.9072931408882141e-01" purity="5.6852138042449951e-01" nType="-99"/>
          </Node>
          <Node pos="r" depth="2" NCoef="0" IVar="5" Cut="6.7766105651855469e+01" cType="1" res="-4.0251864120364189e-03" rms="2.8608682751655579e-01" purity="5.6731367111206055e-01" nType="0">
            <Node pos="l" depth="3" NCoef="0" IVar="-1" Cut="0.0000000000000000e+00" cType="1" res="-1.2711508199572563e-02" rms="2.8945279121398926e-01" purity="1.9459851086139679e-01" nType="-99"/>
            <Node pos="r" depth="3" NCoef="0" IVar="-1" Cut="0.0000000000000000e+00" cType="1" res="-7.8667129855602980e-04" rms="2.8441175818443298e-01" purity="7.4433958530426025e-01" nType="-99"/>
          </Node>
        </Node>
      </Node>
    </BinaryTree>
    <BinaryTree type="DecisionTree" boostWeight="1.0000000000000000e+00" itree="322">
      <Node pos="s" depth="0" NCoef="0" IVar="1" Cut="3.9100512862205505e-02" cType="1" res="1.8209593836218119e-03" rms="2.8963169455528259e-01" purity="4.9527513980865479e-01" nType="0">
        <Node pos="l" depth="1" NCoef="0" IVar="1" Cut="3.7305278237909079e-03" cType="1" res="5.9758387506008148e-03" rms="2.6783451437950134e-01" purity="1.9942405819892883e-01" nType="0">
          <Node pos="l" depth="2" NCoef="0" IVar="-1" Cut="0.0000000000000000e+00" cType="1" res="-3.3964637666940689e-02" rms="1.2794323265552521e-01" purity="3.3079903572797775e-02" nType="-99"/>
          <Node pos="r" depth="2" NCoef="0" IVar="1" Cut="3.5731680691242218e-02" cType="1" res="7.4290526099503040e-03" rms="2.7785289287567139e-01" purity="2.1591946482658386e-01" nType="0">
            <Node pos="l" depth="3" NCoef="0" IVar="-1" Cut="0.0000000000000000e+00" cType="1" res="1.2215272523462772e-02" rms="2.7488568425178528e-01" purity="2.0664681494235992e-01" nType="-99"/>
            <Node pos="r" depth="3" NCoef="0" IVar="-1" Cut="0.0000000000000000e+00" cType="1" res="-1.2313893064856529e-02" rms="3.1200045347213745e-01" purity="3.3223405480384827e-01" nType="-99"/>
          </Node>
        </Node>
        <Node pos="r" depth="1" NCoef="0" IVar="9" Cut="9.3398451805114746e-01" cType="1" res="-9.3417259631678462e-04" rms="3.0319139361381531e-01" purity="6.9145619869232178e-01" nType="0">
          <Node pos="l" depth="2" NCoef="0" IVar="10" Cut="-9.3392324447631836e-01" cType="1" res="-3.2717385329306126e-03" rms="2.9930076003074646e-01" purity="7.1298009157180786e-01" nType="0">
            <Node pos="l" depth="3" NCoef="0" IVar="-1" Cut="0.0000000000000000e+00" cType="1" res="7.0212283171713352e-03" rms="3.2224351167678833e-01" purity="6.2707769870758057e-01" nType="-99"/>
            <Node pos="r" depth="3" NCoef="0" IVar="-1" Cut="0.0000000000000000e+00" cType="1" res="-7.3812422342598438e-03" rms="2.9247432947158813e-01" purity="7.3707079887390137e-01" nType="-99"/>
          </Node>
          <Node pos="r" depth="2" NCoef="0" IVar="8" Cut="-1.7223970592021942e-01" cType="1" res="1.1522291228175163e-02" rms="3.2284963130950928e-01" purity="5.7675915956497192e-01" nType="0">
            <Node pos="l" depth="3" NCoef="0" IVar="-1" Cut="0.0000000000000000e+00" cType="1" res="2.2765750065445900e-02" rms="3.2263112068176270e-01" purity="5.7951927185058594e-01" nType="-99"/>
            <Node pos="r" depth="3" NCoef="0" IVar="-1" Cut="0.0000000000000000e+00" cType="1" res="3.5306212957948446e-03" rms="3.2273125648498535e-01" purity="5.7516402006149292e-01" nType="-99"/>
          </Node>
        </Node>
      </Node>
    </BinaryTree>
    <BinaryTree type="DecisionTree" boostWeight="1.0000000000000000e+00" itree="323">
      <Node pos="s" depth="0" NCoef="0" IVar="8" Cut="-3.9990821480751038e-01" cType="1" res="3.3434075885452330e-04" rms="2.9120433330535889e-01" purity="4.9985620379447937e-01" nType="0">
        <Node pos="l" depth="1" NCoef="0" IVar="10" Cut="4.0001648664474487e-01" cType="1" res="6.9913915358483791e-03" rms="2.9276767373085022e-01" purity="4.2871272563934326e-01" nType="0">
          <Node pos="l" depth="2" NCoef="0" IVar="1" Cut="5.7484947144985199e-02" cType="1" res="1.9988710992038250e-03" rms="2.8256273269653320e-01" purity="4.3739336729049683e-01" nType="0">
            <Node pos="l" depth="3" NCoef="0" IVar="-1" Cut="0.0000000000000000e+00" cType="1" res="-8.9969178661704063e-03" rms="2.7789729833602905e-01" purity="2.0793557167053223e-01" nType="-99"/>
            <Node pos="r" depth="3" NCoef="0" IVar="-1" Cut="0.0000000000000000e+00" cType="1" res="1.5098929405212402e-02" rms="2.8816872835159302e-01" purity="7.4002104997634888e-01" nType="-99"/>
          </Node>
          <Node pos="r" depth="2" NCoef="0" IVar="9" Cut="4.0034475922584534e-01" cType="1" res="1.7872858792543411e-02" rms="3.1358703970909119e-01" purity="4.0979284048080444e-01" nType="0">
            <Node pos="l" depth="3" NCoef="0" IVar="-1" Cut="0.0000000000000000e+00" cType="1" res="3.1593311578035355e-02" rms="3.2087019085884094e-01" purity="4.5777881145477295e-01" nType="-99"/>
            <Node pos="r" depth="3" NCoef="0" IVar="-1" Cut="0.0000000000000000e+00" cType="1" res="-3.1662122346460819e-03" rms="2.9703542590141296e-01" purity="3.1130728125572205e-01" nType="-99"/>
          </Node>
        </Node>
        <Node pos="r" depth="1" NCoef="0" IVar="8" Cut="6.6673308610916138e-01" cType="1" res="-3.1037549488246441e-03" rms="2.9033383727073669e-01" purity="5.3659886121749878e-01" nType="0">
          <Node pos="l" depth="2" NCoef="0" IVar="8" Cut="3.6197498440742493e-01" cType="1" res="-6.7868796177208424e-03" rms="2.9323238134384155e-01" purity="6.3637012243270874e-01" nType="0">
            <Node pos="l" depth="3" NCoef="0" IVar="-1" Cut="0.0000000000000000e+00" cType="1" res="-2.1410530898720026e-03" rms="2.9171654582023621e-01" purity="6.5252095460891724e-01" nType="-99"/>
            <Node pos="r" depth="3" NCoef="0" IVar="-1" Cut="0.0000000000000000e+00" cType="1" res="-2.4114448577165604e-02" rms="2.9718759655952454e-01" purity="5.8861005306243896e-01" nType="-99"/>
          </Node>
          <Node pos="r" depth="2" NCoef="0" IVar="6" Cut="1.1553403854370117e+01" cType="1" res="3.0005781445652246e-03" rms="2.8536042571067810e-01" purity="3.7124010920524597e-01" nType="0">
            <Node pos="l" depth="3" NCoef="0" IVar="-1" Cut="0.0000000000000000e+00" cType="1" res="1.6668636351823807e-02" rms="2.6792016625404358e-01" purity="1.5418851375579834e-01" nType="-99"/>
            <Node pos="r" depth="3" NCoef="0" IVar="-1" Cut="0.0000000000000000e+00" cType="1" res="-7.0898584090173244e-03" rms="3.0445644259452820e-01" purity="6.2860953807830811e-01" nType="-99"/>
          </Node>
        </Node>
      </Node>
    </BinaryTree>
    <BinaryTree type="DecisionTree" boostWeight="1.0000000000000000e+00" itree="324">
      <Node pos="s" depth="0" NCoef="0" IVar="3" Cut="4.6833432006835938e+02" cType="1" res="1.3708712067455053e-03" rms="2.8930559754371643e-01" purity="5.0149369239807129e-01" nType="0">
        <Node pos="l" depth="1" NCoef="0" IVar="10" Cut="1.7332991361618042e+00" cType="1" res="2.2005562204867601e-03" rms="2.8982138633728027e-01" purity="4.9277639389038086e-01" nType="0">
          <Node pos="l" depth="2" NCoef="0" IVar="5" Cut="6.6122940063476562e+01" cType="1" res="9.6612598281353712e-04" rms="2.8891158103942871e-01" purity="5.1012402772903442e-01" nType="0">
            <Node pos="l" depth="3" NCoef="0" IVar="-1" Cut="0.0000000000000000e+00" cType="1" res="8.3575993776321411e-03" rms="2.8057089447975159e-01" purity="1.7329581081867218e-01" nType="-99"/>
            <Node pos="r" depth="3" NCoef="0" IVar="-1" Cut="0.0000000000000000e+00" cType="1" res="-1.9956871401518583e-03" rms="2.9291796684265137e-01" purity="6.7701923847198486e-01" nType="-99"/>
          </Node>
          <Node pos="r" depth="2" NCoef="0" IVar="11" Cut="-2.7238528728485107e+00" cType="1" res="1.6415808349847794e-02" rms="2.9973369836807251e-01" purity="2.9300710558891296e-01" nType="0">
            <Node pos="l" depth="3" NCoef="0" IVar="-1" Cut="0.0000000000000000e+00" cType="1" res="9.0302195167168975e-04" rms="2.5274282693862915e-01" purity="1.1536914855241776e-01" nType="-99"/>
            <Node pos="r" depth="3" NCoef="0" IVar="-1" Cut="0.0000000000000000e+00" cType="1" res="3.4313697367906570e-02" rms="3.5859149694442749e-01" purity="5.6478989124298096e-01" nType="-99"/>
          </Node>
        </Node>
        <Node pos="r" depth="1" NCoef="0" IVar="-1" Cut="0.0000000000000000e+00" cType="1" res="-2.7716523036360741e-02" rms="2.7267247438430786e-01" purity="7.5650155544281006e-01" nType="-99"/>
      </Node>
    </BinaryTree>
    <BinaryTree type="DecisionTree" boostWeight="1.0000000000000000e+00" itree="325">
      <Node pos="s" depth="0" NCoef="0" IVar="0" Cut="1.9892550048828125e+03" cType="1" res="7.6288933632895350e-04" rms="2.8623533248901367e-01" purity="5.0318211317062378e-01" nType="0">
        <Node pos="l" depth="1" NCoef="0" IVar="7" Cut="9.3838709592819214e-01" cType="1" res="-1.4114546356722713e-03" rms="2.9982692003250122e-01" purity="4.1027402877807617e-01" nType="0">
          <Node pos="l" depth="2" NCoef="0" IVar="7" Cut="7.6118385791778564e-01" cType="1" res="1.9643748237285763e-04" rms="3.1010514497756958e-01" purity="4.5725324749946594e-01" nType="0">
            <Node pos="l" depth="3" NCoef="0" IVar="-1" Cut="0.0000000000000000e+00" cType="1" res="-1.3009012909606099e-03" rms="3.0886825919151306e-01" purity="4.5775726437568665e-01" nType="-99"/>
            <Node pos="r" depth="3" NCoef="0" IVar="-1" Cut="0.0000000000000000e+00" cType="1" res="2.2935254499316216e-02" rms="3.2861813902854919e-01" purity="4.4907793402671814e-01" nType="-99"/>
          </Node>
          <Node pos="r" depth="2" NCoef="0" IVar="0" Cut="1.3098603515625000e+03" cType="1" res="-9.5896013081073761e-03" rms="2.4068729579448700e-01" purity="1.7132614552974701e-01" nType="0">
            <Node pos="l" depth="3" NCoef="0" IVar="-1" Cut="0.0000000000000000e+00" cType="1" res="-3.4853869583457708e-03" rms="1.9148087501525879e-01" purity="5.8161173015832901e-02" nType="-99"/>
            <Node pos="r" depth="3" NCoef="0" IVar="-1" Cut="0.0000000000000000e+00" cType="1" res="-2.1276671439409256e-02" rms="2.9399934411048889e-01" purity="3.2415667176246643e-01" nType="-99"/>
          </Node>
        </Node>
        <Node pos="r" depth="1" NCoef="0" IVar="7" Cut="6.9228208065032959e-01" cType="1" res="1.0079938918352127e-02" rms="2.1838365495204926e-01" purity="9.0129250288009644e-01" nType="0">
          <Node pos="l" depth="2" NCoef="0" IVar="9" Cut="6.6575396060943604e-01" cType="1" res="6.8029314279556274e-03" rms="2.0870895683765411e-01" purity="9.1247504949569702e-01" nType="0">
            <Node pos="l" depth="3" NCoef="0" IVar="-1" Cut="0.0000000000000000e+00" cType="1" res="2.1759616211056709e-02" rms="2.0214571058750153e-01" purity="9.2601782083511353e-01" nType="-99"/>
            <Node pos="r" depth="3" NCoef="0" IVar="-1" Cut="0.0000000000000000e+00" cType="1" res="-1.7415402457118034e-02" rms="2.3427569866180420e-01" purity="8.5373800992965698e-01" nType="-99"/>
          </Node>
          <Node pos="r" depth="2" NCoef="0" IVar="-1" Cut="0.0000000000000000e+00" cType="1" res="3.8510452955961227e-02" rms="2.7025735378265381e-01" purity="8.3137559890747070e-01" nType="-99"/>
        </Node>
      </Node>
    </BinaryTree>
    <BinaryTree type="DecisionTree" boostWeight="1.0000000000000000e+00" itree="326">
      <Node pos="s" depth="0" NCoef="0" IVar="7" Cut="-1.2477795034646988e-01" cType="1" res="1.0473671136423945e-03" rms="2.8833854198455811e-01" purity="5.0000059604644775e-01" nType="0">
        <Node pos="l" depth="1" NCoef="0" IVar="10" Cut="3.9988419413566589e-01" cType="1" res="-4.1744881309568882e-03" rms="2.8581491112709045e-01" purity="4.7542944550514221e-01" nType="0">
          <Node pos="l" depth="2" NCoef="0" IVar="5" Cut="7.8451873779296875e+01" cType="1" res="5.2506639622151852e-04" rms="2.8830614686012268e-01" purity="4.9249905347824097e-01" nType="0">
            <Node pos="l" depth="3" NCoef="0" IVar="-1" Cut="0.0000000000000000e+00" cType="1" res="-8.3796707913279533e-03" rms="2.8829655051231384e-01" purity="2.0940622687339783e-01" nType="-99"/>
            <Node pos="r" depth="3" NCoef="0" IVar="-1" Cut="0.0000000000000000e+00" cType="1" res="9.6914106979966164e-03" rms="2.8812181949615479e-01" purity="7.6507210731506348e-01" nType="-99"/>
          </Node>
          <Node pos="r" depth="2" NCoef="0" IVar="7" Cut="-3.7414383888244629e-01" cType="1" res="-1.3907396234571934e-02" rms="2.8033474087715149e-01" purity="4.4007787108421326e-01" nType="0">
            <Node pos="l" depth="3" NCoef="0" IVar="-1" Cut="0.0000000000000000e+00" cType="1" res="-9.3224290758371353e-03" rms="2.7229520678520203e-01" purity="3.8313812017440796e-01" nType="-99"/>
            <Node pos="r" depth="3" NCoef="0" IVar="-1" Cut="0.0000000000000000e+00" cType="1" res="-3.6671560257673264e-02" rms="3.0163133144378662e-01" purity="6.0503667593002319e-01" nType="-99"/>
          </Node>
        </Node>
        <Node pos="r" depth="1" NCoef="0" IVar="11" Cut="1.4188027381896973e+00" cType="1" res="5.2090282551944256e-03" rms="2.9026684165000916e-01" purity="5.1958304643630981e-01" nType="0">
          <Node pos="l" depth="2" NCoef="0" IVar="0" Cut="1.0758685302734375e+03" cType="1" res="6.5873987041413784e-03" rms="2.8896898031234741e-01" purity="5.1123648881912231e-01" nType="0">
            <Node pos="l" depth="3" NCoef="0" IVar="-1" Cut="0.0000000000000000e+00" cType="1" res="-1.1027723550796509e-02" rms="1.8546165525913239e-01" purity="4.0109738707542419e-02" nType="-99"/>
            <Node pos="r" depth="3" NCoef="0" IVar="-1" Cut="0.0000000000000000e+00" cType="1" res="9.2283794656395912e-03" rms="3.0315080285072327e-01" purity="5.9202378988265991e-01" nType="-99"/>
          </Node>
          <Node pos="r" depth="2" NCoef="0" IVar="-1" Cut="0.0000000000000000e+00" cType="1" res="-1.5024882741272449e-02" rms="3.0794858932495117e-01" purity="6.4185702800750732e-01" nType="-99"/>
        </Node>
      </Node>
    </BinaryTree>
    <BinaryTree type="DecisionTree" boostWeight="1.0000000000000000e+00" itree="327">
      <Node pos="s" depth="0" NCoef="0" IVar="11" Cut="8.6645239591598511e-01" cType="1" res="-2.9918185900896788e-03" rms="2.8745615482330322e-01" purity="4.9300405383110046e-01" nType="0">
        <Node pos="l" depth="1" NCoef="0" IVar="10" Cut="1.3351124525070190e-01" cType="1" res="-4.8845843411982059e-03" rms="2.8607833385467529e-01" purity="4.6124488115310669e-01" nType="0">
          <Node pos="l" depth="2" NCoef="0" IVar="2" Cut="6.0742248535156250e+02" cType="1" res="-8.0166589468717575e-03" rms="2.8412893414497375e-01" purity="4.6481296420097351e-01" nType="0">
            <Node pos="l" depth="3" NCoef="0" IVar="-1" Cut="0.0000000000000000e+00" cType="1" res="-8.0363610759377480e-03" rms="2.8151547908782959e-01" purity="4.5628550648689270e-01" nType="-99"/>
            <Node pos="r" depth="3" NCoef="0" IVar="-1" Cut="0.0000000000000000e+00" cType="1" res="-2.4570437148213387e-02" rms="3.1005224585533142e-01" purity="5.5519306659698486e-01" nType="-99"/>
          </Node>
          <Node pos="r" depth="2" NCoef="0" IVar="7" Cut="-6.9178603589534760e-02" cType="1" res="-9.9044048693031073e-04" rms="2.8843629360198975e-01" purity="4.5680865645408630e-01" nType="0">
            <Node pos="l" depth="3" NCoef="0" IVar="-1" Cut="0.0000000000000000e+00" cType="1" res="6.8132868036627769e-03" rms="2.8741398453712463e-01" purity="4.6766483783721924e-01" nType="-99"/>
            <Node pos="r" depth="3" NCoef="0" IVar="-1" Cut="0.0000000000000000e+00" cType="1" res="-7.3874196968972683e-03" rms="2.8911471366882324e-01" purity="4.4847762584686279e-01" nType="-99"/>
          </Node>
        </Node>
        <Node pos="r" depth="1" NCoef="0" IVar="1" Cut="4.2662322521209717e-02" cType="1" res="1.0049271397292614e-02" rms="2.9644715785980225e-01" purity="7.1182370185852051e-01" nType="0">
          <Node pos="l" depth="2" NCoef="0" IVar="-1" Cut="0.0000000000000000e+00" cType="1" res="2.2701131179928780e-02" rms="3.2371422648429871e-01" purity="3.9462772011756897e-01" nType="-99"/>
          <Node pos="r" depth="2" NCoef="0" IVar="-1" Cut="0.0000000000000000e+00" cType="1" res="5.2115716971457005e-03" rms="2.8501477837562561e-01" purity="8.3436191082000732e-01" nType="-99"/>
        </Node>
      </Node>
    </BinaryTree>
    <BinaryTree type="DecisionTree" boostWeight="1.0000000000000000e+00" itree="328">
      <Node pos="s" depth="0" NCoef="0" IVar="8" Cut="-3.9973682165145874e-01" cType="1" res="4.5381672680377960e-04" rms="2.8940254449844360e-01" purity="4.9650058150291443e-01" nType="0">
        <Node pos="l" depth="1" NCoef="0" IVar="11" Cut="8.6645239591598511e-01" cType="1" res="-4.0625031106173992e-03" rms="2.8747192025184631e-01" purity="4.2479452490806580e-01" nType="0">
          <Node pos="l" depth="2" NCoef="0" IVar="8" Cut="-5.1402080059051514e-01" cType="1" res="-1.9845638889819384e-03" rms="2.8480312228202820e-01" purity="4.0485391020774841e-01" nType="0">
            <Node pos="l" depth="3" NCoef="0" IVar="-1" Cut="0.0000000000000000e+00" cType="1" res="-4.8960028216242790e-03" rms="2.8332406282424927e-01" purity="3.7234479188919067e-01" nType="-99"/>
            <Node pos="r" depth="3" NCoef="0" IVar="-1" Cut="0.0000000000000000e+00" cType="1" res="1.3520656153559685e-02" rms="2.9509308934211731e-01" purity="6.4464920759201050e-01" nType="-99"/>
          </Node>
          <Node pos="r" depth="2" NCoef="0" IVar="-1" Cut="0.0000000000000000e+00" cType="1" res="-2.2056508809328079e-02" rms="3.0958050489425659e-01" purity="6.0209667682647705e-01" nType="-99"/>
        </Node>
        <Node pos="r" depth="1" NCoef="0" IVar="5" Cut="1.1681532287597656e+02" cType="1" res="2.7693882584571838e-03" rms="2.9036018252372742e-01" purity="5.3326511383056641e-01" nType="0">
          <Node pos="l" depth="2" NCoef="0" IVar="8" Cut="3.6210751533508301e-01" cType="1" res="5.2688531577587128e-03" rms="3.0988734960556030e-01" purity="4.2274561524391174e-01" nType="0">
            <Node pos="l" depth="3" NCoef="0" IVar="-1" Cut="0.0000000000000000e+00" cType="1" res="1.1470683850347996e-02" rms="3.2626977562904358e-01" purity="5.4994326829910278e-01" nType="-99"/>
            <Node pos="r" depth="3" NCoef="0" IVar="-1" Cut="0.0000000000000000e+00" cType="1" res="-5.0099100917577744e-04" rms="2.9573738574981689e-01" purity="3.1904494762420654e-01" nType="-99"/>
          </Node>
          <Node pos="r" depth="2" NCoef="0" IVar="11" Cut="-1.0674792528152466e+00" cType="1" res="-5.9014246799051762e-03" rms="2.0868816971778870e-01" purity="9.1666489839553833e-01" nType="0">
            <Node pos="l" depth="3" NCoef="0" IVar="-1" Cut="0.0000000000000000e+00" cType="1" res="-4.4161077588796616e-02" rms="2.7366012334823608e-01" purity="8.1349056959152222e-01" nType="-99"/>
            <Node pos="r" depth="3" NCoef="0" IVar="-1" Cut="0.0000000000000000e+00" cType="1" res="5.9149172157049179e-03" rms="1.8349379301071167e-01" purity="9.4826400279998779e-01" nType="-99"/>
          </Node>
        </Node>
      </Node>
    </BinaryTree>
    <BinaryTree type="DecisionTree" boostWeight="1.0000000000000000e+00" itree="329">
      <Node pos="s" depth="0" NCoef="0" IVar="4" Cut="1.9273396301269531e+02" cType="1" res="-2.9394521334324963e-05" rms="2.8927692770957947e-01" purity="5.0203549861907959e-01" nType="0">
        <Node pos="l" depth="1" NCoef="0" IVar="2" Cut="6.6449066162109375e+02" cType="1" res="-2.5688908062875271e-03" rms="2.9709061980247498e-01" purity="3.6377239227294922e-01" nType="0">
          <Node pos="l" depth="2" NCoef="0" IVar="10" Cut="4.0002068877220154e-01" cType="1" res="-3.5488379653543234e-03" rms="2.9516071081161499e-01" purity="3.6133223772048950e-01" nType="0">
            <Node pos="l" depth="3" NCoef="0" IVar="-1" Cut="0.0000000000000000e+00" cType="1" res="4.7452971921302378e-04" rms="2.9897031188011169e-01" purity="3.7462219595909119e-01" nType="-99"/>
            <Node pos="r" depth="3" NCoef="0" IVar="-1" Cut="0.0000000000000000e+00" cType="1" res="-1.1493033729493618e-02" rms="2.8888416290283203e-01" purity="3.4018895030021667e-01" nType="-99"/>
          </Node>
          <Node pos="r" depth="2" NCoef="0" IVar="-1" Cut="0.0000000000000000e+00" cType="1" res="1.8588403239846230e-02" rms="3.4118402004241943e-01" purity="4.2520669102668762e-01" nType="-99"/>
        </Node>
        <Node pos="r" depth="1" NCoef="0" IVar="11" Cut="-1.6193227767944336e+00" cType="1" res="5.5033555254340172e-03" rms="2.7139344811439514e-01" purity="8.0326652526855469e-01" nType="0">
          <Node pos="l" depth="2" NCoef="0" IVar="5" Cut="9.9787193298339844e+01" cType="1" res="1.8838837742805481e-02" rms="3.4632891416549683e-01" purity="5.9846872091293335e-01" nType="0">
            <Node pos="l" depth="3" NCoef="0" IVar="-1" Cut="0.0000000000000000e+00" cType="1" res="2.2767804563045502e-02" rms="3.5887080430984497e-01" purity="5.2671992778778076e-01" nType="-99"/>
            <Node pos="r" depth="3" NCoef="0" IVar="-1" Cut="0.0000000000000000e+00" cType="1" res="-7.5637986883521080e-03" rms="3.1456646323204041e-01" purity="7.6068967580795288e-01" nType="-99"/>
          </Node>
          <Node pos="r" depth="2" NCoef="0" IVar="0" Cut="1.8548704833984375e+03" cType="1" res="-8.5584295447915792e-04" rms="2.2683805227279663e-01" purity="9.0092700719833374e-01" nType="0">
            <Node pos="l" depth="3" NCoef="0" IVar="-1" Cut="0.0000000000000000e+00" cType="1" res="-1.2834328226745129e-02" rms="3.0314072966575623e-01" purity="7.8745555877685547e-01" nType="-99"/>
            <Node pos="r" depth="3" NCoef="0" IVar="-1" Cut="0.0000000000000000e+00" cType="1" res="1.0484135709702969e-02" rms="1.8398740887641907e-01" purity="9.5012223720550537e-01" nType="-99"/>
          </Node>
        </Node>
      </Node>
    </BinaryTree>
    <BinaryTree type="DecisionTree" boostWeight="1.0000000000000000e+00" itree="330">
      <Node pos="s" depth="0" NCoef="0" IVar="5" Cut="8.7484680175781250e+01" cType="1" res="-1.5978136798366904e-04" rms="2.9004165530204773e-01" purity="4.9403253197669983e-01" nType="0">
        <Node pos="l" depth="1" NCoef="0" IVar="5" Cut="5.5354877471923828e+01" cType="1" res="-2.8616001363843679e-03" rms="3.0352139472961426e-01" purity="2.6624402403831482e-01" nType="0">
          <Node pos="l" depth="2" NCoef="0" IVar="0" Cut="1.0297249755859375e+03" cType="1" res="7.3521011509001255e-03" rms="2.5686353445053101e-01" purity="1.2997780740261078e-01" nType="0">
            <Node pos="l" depth="3" NCoef="0" IVar="-1" Cut="0.0000000000000000e+00" cType="1" res="-4.3257635086774826e-02" rms="1.1742092669010162e-01" purity="1.3711328618228436e-02" nType="-99"/>
            <Node pos="r" depth="3" NCoef="0" IVar="-1" Cut="0.0000000000000000e+00" cType="1" res="1.8190575763583183e-02" rms="2.9817155003547668e-01" purity="1.8145053088665009e-01" nType="-99"/>
          </Node>
          <Node pos="r" depth="2" NCoef="0" IVar="8" Cut="-1.1999139785766602e+00" cType="1" res="-6.1505748890340328e-03" rms="3.1701794266700745e-01" purity="3.1012389063835144e-01" nType="0">
            <Node pos="l" depth="3" NCoef="0" IVar="-1" Cut="0.0000000000000000e+00" cType="1" res="1.7035065218806267e-02" rms="2.5404953956604004e-01" purity="1.3177318871021271e-01" nType="-99"/>
            <Node pos="r" depth="3" NCoef="0" IVar="-1" Cut="0.0000000000000000e+00" cType="1" res="-8.3962455391883850e-03" rms="3.2641324400901794e-01" purity="3.4037891030311584e-01" nType="-99"/>
          </Node>
        </Node>
        <Node pos="r" depth="1" NCoef="0" IVar="10" Cut="1.3287796080112457e-01" cType="1" res="3.6374120973050594e-03" rms="2.6991593837738037e-01" purity="8.1417131423950195e-01" nType="0">
          <Node pos="l" depth="2" NCoef="0" IVar="6" Cut="1.5621901512145996e+01" cType="1" res="9.9690798670053482e-03" rms="2.6675856113433838e-01" purity="8.2652604579925537e-01" nType="0">
            <Node pos="l" depth="3" NCoef="0" IVar="-1" Cut="0.0000000000000000e+00" cType="1" res="3.9025049656629562e-02" rms="3.5861051082611084e-01" purity="5.8123350143432617e-01" nType="-99"/>
            <Node pos="r" depth="3" NCoef="0" IVar="-1" Cut="0.0000000000000000e+00" cType="1" res="2.7785559650510550e-03" rms="2.4227809906005859e-01" purity="8.7806671857833862e-01" nType="-99"/>
          </Node>
          <Node pos="r" depth="2" NCoef="0" IVar="11" Cut="-1.3429490327835083e+00" cType="1" res="-4.3009123764932156e-03" rms="2.7361616492271423e-01" purity="7.9868161678314209e-01" nType="0">
            <Node pos="l" depth="3" NCoef="0" IVar="-1" Cut="0.0000000000000000e+00" cType="1" res="-2.2989416494965553e-02" rms="3.2642930746078491e-01" purity="5.7613605260848999e-01" nType="-99"/>
            <Node pos="r" depth="3" NCoef="0" IVar="-1" Cut="0.0000000000000000e+00" cType="1" res="2.8751769568771124e-03" rms="2.5424289703369141e-01" purity="8.6936670541763306e-01" nType="-99"/>
          </Node>
        </Node>
      </Node>
    </BinaryTree>
    <BinaryTree type="DecisionTree" boostWeight="1.0000000000000000e+00" itree="331">
      <Node pos="s" depth="0" NCoef="0" IVar="7" Cut="-3.9020085334777832e-01" cType="1" res="2.2389106452465057e-03" rms="2.8801178932189941e-01" purity="5.0729441642761230e-01" nType="0">
        <Node pos="l" depth="1" NCoef="0" IVar="11" Cut="8.6663055419921875e-01" cType="1" res="-4.9977777525782585e-03" rms="2.7402040362358093e-01" purity="4.1842865943908691e-01" nType="0">
          <Node pos="l" depth="2" NCoef="0" IVar="3" Cut="3.8452523803710938e+02" cType="1" res="-2.1503788884729147e-03" rms="2.7205666899681091e-01" purity="3.9995831251144409e-01" nType="0">
            <Node pos="l" depth="3" NCoef="0" IVar="-1" Cut="0.0000000000000000e+00" cType="1" res="-5.6589320302009583e-03" rms="2.7001813054084778e-01" purity="3.7181654572486877e-01" nType="-99"/>
            <Node pos="r" depth="3" NCoef="0" IVar="-1" Cut="0.0000000000000000e+00" cType="1" res="2.4247100576758385e-02" rms="2.9211220145225525e-01" purity="7.0446729660034180e-01" nType="-99"/>
          </Node>
          <Node pos="r" depth="2" NCoef="0" IVar="-1" Cut="0.0000000000000000e+00" cType="1" res="-3.3489830791950226e-02" rms="2.9016077518463135e-01" purity="5.8838218450546265e-01" nType="-99"/>
        </Node>
        <Node pos="r" depth="1" NCoef="0" IVar="10" Cut="1.4666417837142944e+00" cType="1" res="5.8094868436455727e-03" rms="2.9460498690605164e-01" purity="5.5114066600799561e-01" nType="0">
          <Node pos="l" depth="2" NCoef="0" IVar="9" Cut="-1.1996375322341919e+00" cType="1" res="3.9560068398714066e-03" rms="2.9149112105369568e-01" purity="5.7158046960830688e-01" nType="0">
            <Node pos="l" depth="3" NCoef="0" IVar="-1" Cut="0.0000000000000000e+00" cType="1" res="-1.1350963264703751e-02" rms="2.8912591934204102e-01" purity="3.0952584743499756e-01" nType="-99"/>
            <Node pos="r" depth="3" NCoef="0" IVar="-1" Cut="0.0000000000000000e+00" cType="1" res="6.7778057418763638e-03" rms="2.9176348447799683e-01" purity="6.0727792978286743e-01" nType="-99"/>
          </Node>
          <Node pos="r" depth="2" NCoef="0" IVar="9" Cut="-1.3650578260421753e-01" cType="1" res="1.9383734092116356e-02" rms="3.1614625453948975e-01" purity="4.0144652128219604e-01" nType="0">
            <Node pos="l" depth="3" NCoef="0" IVar="-1" Cut="0.0000000000000000e+00" cType="1" res="4.1164956986904144e-02" rms="3.2971596717834473e-01" purity="4.1445785760879517e-01" nType="-99"/>
            <Node pos="r" depth="3" NCoef="0" IVar="-1" Cut="0.0000000000000000e+00" cType="1" res="8.3076236769556999e-03" rms="3.0684384703636169e-01" purity="3.9337852597236633e-01" nType="-99"/>
          </Node>
        </Node>
      </Node>
    </BinaryTree>
    <BinaryTree type="DecisionTree" boostWeight="1.0000000000000000e+00" itree="332">
      <Node pos="s" depth="0" NCoef="0" IVar="10" Cut="-1.7333372831344604e+00" cType="1" res="8.7456032633781433e-04" rms="2.8899770975112915e-01" purity="5.0011169910430908e-01" nType="0">
        <Node pos="l" depth="1" NCoef="0" IVar="1" Cut="3.8311012089252472e-02" cType="1" res="1.8361138179898262e-02" rms="2.9025891423225403e-01" purity="3.0295023322105408e-01" nType="0">
          <Node pos="l" depth="2" NCoef="0" IVar="-1" Cut="0.0000000000000000e+00" cType="1" res="5.8762938715517521e-03" rms="2.1020799875259399e-01" purity="7.6813764870166779e-02" nType="-99"/>
          <Node pos="r" depth="2" NCoef="0" IVar="-1" Cut="0.0000000000000000e+00" cType="1" res="2.8084434568881989e-02" rms="3.5051858425140381e-01" purity="5.2360713481903076e-01" nType="-99"/>
        </Node>
        <Node pos="r" depth="1" NCoef="0" IVar="9" Cut="-1.7336285114288330e+00" cType="1" res="-6.3034245977178216e-04" rms="2.8883942961692810e-01" purity="5.1707947254180908e-01" nType="0">
          <Node pos="l" depth="2" NCoef="0" IVar="-1" Cut="0.0000000000000000e+00" cType="1" res="-2.7801787480711937e-02" rms="2.3956906795501709e-01" purity="1.5284547209739685e-01" nType="-99"/>
          <Node pos="r" depth="2" NCoef="0" IVar="1" Cut="1.2276459485292435e-01" cType="1" res="3.7307001184672117e-04" rms="2.9129588603973389e-01" purity="5.3728473186492920e-01" nType="0">
            <Node pos="l" depth="3" NCoef="0" IVar="-1" Cut="0.0000000000000000e+00" cType="1" res="3.1169261783361435e-03" rms="3.0190786719322205e-01" purity="4.3700820207595825e-01" nType="-99"/>
            <Node pos="r" depth="3" NCoef="0" IVar="-1" Cut="0.0000000000000000e+00" cType="1" res="-1.2196587398648262e-02" rms="2.5294938683509827e-01" purity="8.6835056543350220e-01" nType="-99"/>
          </Node>
        </Node>
      </Node>
    </BinaryTree>
    <BinaryTree type="DecisionTree" boostWeight="1.0000000000000000e+00" itree="333">
      <Node pos="s" depth="0" NCoef="0" IVar="10" Cut="1.4666348695755005e+00" cType="1" res="9.4873231137171388e-04" rms="2.8650546073913574e-01" purity="5.0488400459289551e-01" nType="0">
        <Node pos="l" depth="1" NCoef="0" IVar="9" Cut="-1.3314725458621979e-01" cType="1" res="2.8634234331548214e-03" rms="2.8647416830062866e-01" purity="5.2851110696792603e-01" nType="0">
          <Node pos="l" depth="2" NCoef="0" IVar="8" Cut="9.3385905027389526e-01" cType="1" res="-2.6235659606754780e-03" rms="2.8630036115646362e-01" purity="5.0895112752914429e-01" nType="0">
            <Node pos="l" depth="3" NCoef="0" IVar="-1" Cut="0.0000000000000000e+00" cType="1" res="-1.0626944713294506e-03" rms="2.9061651229858398e-01" purity="5.4633074998855591e-01" nType="-99"/>
            <Node pos="r" depth="3" NCoef="0" IVar="-1" Cut="0.0000000000000000e+00" cType="1" res="-1.7279691994190216e-02" rms="2.5839534401893616e-01" purity="2.8265851736068726e-01" nType="-99"/>
          </Node>
          <Node pos="r" depth="2" NCoef="0" IVar="11" Cut="-5.1442348957061768e-01" cType="1" res="7.5358767062425613e-03" rms="2.8653928637504578e-01" purity="5.4516744613647461e-01" nType="0">
            <Node pos="l" depth="3" NCoef="0" IVar="-1" Cut="0.0000000000000000e+00" cType="1" res="1.3255260884761810e-02" rms="2.9663306474685669e-01" purity="4.0167218446731567e-01" nType="-99"/>
            <Node pos="r" depth="3" NCoef="0" IVar="-1" Cut="0.0000000000000000e+00" cType="1" res="8.0131692811846733e-04" rms="2.6866894960403442e-01" purity="7.8515762090682983e-01" nType="-99"/>
          </Node>
        </Node>
        <Node pos="r" depth="1" NCoef="0" IVar="5" Cut="7.7041786193847656e+01" cType="1" res="-1.3962784782052040e-02" rms="2.8631106019020081e-01" purity="3.2087692618370056e-01" nType="0">
          <Node pos="l" depth="2" NCoef="0" IVar="0" Cut="1.2574067382812500e+03" cType="1" res="-3.0459964182227850e-03" rms="2.5890088081359863e-01" purity="1.5941204130649567e-01" nType="0">
            <Node pos="l" depth="3" NCoef="0" IVar="-1" Cut="0.0000000000000000e+00" cType="1" res="-3.1445961445569992e-02" rms="1.8002869188785553e-01" purity="4.1021034121513367e-02" nType="-99"/>
            <Node pos="r" depth="3" NCoef="0" IVar="-1" Cut="0.0000000000000000e+00" cType="1" res="9.6985297277569771e-03" rms="3.4059086441993713e-01" purity="3.2802581787109375e-01" nType="-99"/>
          </Node>
          <Node pos="r" depth="2" NCoef="0" IVar="-1" Cut="0.0000000000000000e+00" cType="1" res="-3.0070019885897636e-02" rms="3.2259526848793030e-01" purity="5.6445914506912231e-01" nType="-99"/>
        </Node>
      </Node>
    </BinaryTree>
    <BinaryTree type="DecisionTree" boostWeight="1.0000000000000000e+00" itree="334">
      <Node pos="s" depth="0" NCoef="0" IVar="9" Cut="-1.7333227396011353e+00" cType="1" res="-1.1682185577228665e-03" rms="2.8905284404754639e-01" purity="4.9840310215950012e-01" nType="0">
        <Node pos="l" depth="1" NCoef="0" IVar="9" Cut="-2.0888664722442627e+00" cType="1" res="1.6153106465935707e-02" rms="2.6966568827629089e-01" purity="1.7139434814453125e-01" nType="0">
          <Node pos="l" depth="2" NCoef="0" IVar="-1" Cut="0.0000000000000000e+00" cType="1" res="8.9627988636493683e-03" rms="2.3846335709095001e-01" purity="1.0870106518268585e-01" nType="-99"/>
          <Node pos="r" depth="2" NCoef="0" IVar="-1" Cut="0.0000000000000000e+00" cType="1" res="3.4570232033729553e-02" rms="2.9635828733444214e-01" purity="2.3214250802993774e-01" nType="-99"/>
        </Node>
        <Node pos="r" depth="1" NCoef="0" IVar="10" Cut="-6.6669023036956787e-01" cType="1" res="-2.2202164400368929e-03" rms="2.9015529155731201e-01" purity="5.1826369762420654e-01" nType="0">
          <Node pos="l" depth="2" NCoef="0" IVar="11" Cut="-1.8953585624694824e+00" cType="1" res="-9.1820256784558296e-03" rms="2.8604641556739807e-01" purity="4.6544182300567627e-01" nType="0">
            <Node pos="l" depth="3" NCoef="0" IVar="-1" Cut="0.0000000000000000e+00" cType="1" res="-2.0691225305199623e-02" rms="2.8409034013748169e-01" purity="2.1269333362579346e-01" nType="-99"/>
            <Node pos="r" depth="3" NCoef="0" IVar="-1" Cut="0.0000000000000000e+00" cType="1" res="2.2038198949303478e-04" rms="2.8786626458168030e-01" purity="7.4037814140319824e-01" nType="-99"/>
          </Node>
          <Node pos="r" depth="2" NCoef="0" IVar="1" Cut="2.1917596459388733e-02" cType="1" res="6.0463207773864269e-04" rms="2.9175865650177002e-01" purity="5.3969693183898926e-01" nType="0">
            <Node pos="l" depth="3" NCoef="0" IVar="-1" Cut="0.0000000000000000e+00" cType="1" res="1.4644371345639229e-02" rms="2.5303044915199280e-01" purity="1.6576585173606873e-01" nType="-99"/>
            <Node pos="r" depth="3" NCoef="0" IVar="-1" Cut="0.0000000000000000e+00" cType="1" res="-2.1874350495636463e-03" rms="3.0248725414276123e-01" purity="6.5320658683776855e-01" nType="-99"/>
          </Node>
        </Node>
      </Node>
    </BinaryTree>
    <BinaryTree type="DecisionTree" boostWeight="1.0000000000000000e+00" itree="335">
      <Node pos="s" depth="0" NCoef="0" IVar="9" Cut="1.7331072092056274e+00" cType="1" res="-2.7487745974212885e-03" rms="2.8873285651206970e-01" purity="4.9810859560966492e-01" nType="0">
        <Node pos="l" depth="1" NCoef="0" IVar="7" Cut="-1.4535295963287354e+00" cType="1" res="-3.8203308358788490e-03" rms="2.8978118300437927e-01" purity="5.1783215999603271e-01" nType="0">
          <Node pos="l" depth="2" NCoef="0" IVar="7" Cut="-1.7700015306472778e+00" cType="1" res="1.3075377792119980e-02" rms="2.1968311071395874e-01" purity="1.2200826406478882e-01" nType="0">
            <Node pos="l" depth="3" NCoef="0" IVar="-1" Cut="0.0000000000000000e+00" cType="1" res="1.5551149845123291e-02" rms="1.7606243491172791e-01" purity="8.3570785820484161e-02" nType="-99"/>
            <Node pos="r" depth="3" NCoef="0" IVar="-1" Cut="0.0000000000000000e+00" cType="1" res="3.5149160772562027e-02" rms="2.5878757238388062e-01" purity="1.6396087408065796e-01" nType="-99"/>
          </Node>
          <Node pos="r" depth="2" NCoef="0" IVar="9" Cut="6.1191944405436516e-03" cType="1" res="-4.9108285456895828e-03" rms="2.9369798302650452e-01" purity="5.4337978363037109e-01" nType="0">
            <Node pos="l" depth="3" NCoef="0" IVar="-1" Cut="0.0000000000000000e+00" cType="1" res="-9.5378817059099674e-04" rms="2.9389339685440063e-01" purity="5.2856498956680298e-01" nType="-99"/>
            <Node pos="r" depth="3" NCoef="0" IVar="-1" Cut="0.0000000000000000e+00" cType="1" res="-1.0955817997455597e-02" rms="2.9340413212776184e-01" purity="5.6034564971923828e-01" nType="-99"/>
          </Node>
        </Node>
        <Node pos="r" depth="1" NCoef="0" IVar="9" Cut="2.0886921882629395e+00" cType="1" res="1.4965040609240532e-02" rms="2.7020049095153809e-01" purity="1.7205961048603058e-01" nType="0">
          <Node pos="l" depth="2" NCoef="0" IVar="-1" Cut="0.0000000000000000e+00" cType="1" res="3.6265082657337189e-02" rms="2.8656464815139771e-01" purity="2.3176974058151245e-01" nType="-99"/>
          <Node pos="r" depth="2" NCoef="0" IVar="-1" Cut="0.0000000000000000e+00" cType="1" res="5.6045223027467728e-03" rms="2.5257840752601624e-01" purity="1.1354760825634003e-01" nType="-99"/>
        </Node>
      </Node>
    </BinaryTree>
    <BinaryTree type="DecisionTree" boostWeight="1.0000000000000000e+00" itree="336">
      <Node pos="s" depth="0" NCoef="0" IVar="11" Cut="3.1425476074218750e-01" cType="1" res="-2.5468735839240253e-04" rms="2.8548711538314819e-01" purity="4.9953660368919373e-01" nType="0">
        <Node pos="l" depth="1" NCoef="0" IVar="10" Cut="-1.9999431371688843e+00" cType="1" res="-3.0499021522700787e-03" rms="2.8605863451957703e-01" purity="4.3363973498344421e-01" nType="0">
          <Node pos="l" depth="2" NCoef="0" IVar="-1" Cut="0.0000000000000000e+00" cType="1" res="-3.3222217112779617e-02" rms="2.6979660987854004e-01" purity="1.8734526634216309e-01" nType="-99"/>
          <Node pos="r" depth="2" NCoef="0" IVar="1" Cut="8.3470068871974945e-02" cType="1" res="-1.7749893013387918e-03" rms="2.8694424033164978e-01" purity="4.4825673103332520e-01" nType="0">
            <Node pos="l" depth="3" NCoef="0" IVar="-1" Cut="0.0000000000000000e+00" cType="1" res="-6.1436695978045464e-03" rms="2.8434532880783081e-01" purity="2.9273453354835510e-01" nType="-99"/>
            <Node pos="r" depth="3" NCoef="0" IVar="-1" Cut="0.0000000000000000e+00" cType="1" res="5.9265010058879852e-03" rms="2.9223880171775818e-01" purity="7.7695631980895996e-01" nType="-99"/>
          </Node>
        </Node>
        <Node pos="r" depth="1" NCoef="0" IVar="5" Cut="8.7715705871582031e+01" cType="1" res="1.0325932875275612e-02" rms="2.8306335210800171e-01" purity="7.4897360801696777e-01" nType="0">
          <Node pos="l" depth="2" NCoef="0" IVar="3" Cut="1.8441539001464844e+02" cType="1" res="2.3720366880297661e-02" rms="3.4163838624954224e-01" purity="5.4720532894134521e-01" nType="0">
            <Node pos="l" depth="3" NCoef="0" IVar="-1" Cut="0.0000000000000000e+00" cType="1" res="3.7558499723672867e-02" rms="3.3913594484329224e-01" purity="4.3882128596305847e-01" nType="-99"/>
            <Node pos="r" depth="3" NCoef="0" IVar="-1" Cut="0.0000000000000000e+00" cType="1" res="8.5752047598361969e-03" rms="3.4248384833335876e-01" purity="6.1442536115646362e-01" nType="-99"/>
          </Node>
          <Node pos="r" depth="2" NCoef="0" IVar="8" Cut="1.3858115673065186e-01" cType="1" res="2.3897844366729259e-03" rms="2.4140217900276184e-01" purity="8.6852049827575684e-01" nType="0">
            <Node pos="l" depth="3" NCoef="0" IVar="-1" Cut="0.0000000000000000e+00" cType="1" res="1.3465716503560543e-02" rms="2.4253399670124054e-01" purity="8.7449336051940918e-01" nType="-99"/>
            <Node pos="r" depth="3" NCoef="0" IVar="-1" Cut="0.0000000000000000e+00" cType="1" res="-6.9324243813753128e-03" rms="2.3991657793521881e-01" purity="8.6170315742492676e-01" nType="-99"/>
          </Node>
        </Node>
      </Node>
    </BinaryTree>
    <BinaryTree type="DecisionTree" boostWeight="1.0000000000000000e+00" itree="337">
      <Node pos="s" depth="0" NCoef="0" IVar="7" Cut="-1.1541962623596191e-01" cType="1" res="1.5495692787226290e-04" rms="2.8977537155151367e-01" purity="4.9815922975540161e-01" nType="0">
        <Node pos="l" depth="1" NCoef="0" IVar="1" Cut="6.1624631285667419e-02" cType="1" res="-4.6686753630638123e-03" rms="2.8537949919700623e-01" purity="4.7679352760314941e-01" nType="0">
          <Node pos="l" depth="2" NCoef="0" IVar="7" Cut="-9.9856102466583252e-01" cType="1" res="-1.0047991760075092e-02" rms="2.7566695213317871e-01" purity="2.4805098772048950e-01" nType="0">
            <Node pos="l" depth="3" NCoef="0" IVar="-1" Cut="0.0000000000000000e+00" cType="1" res="-2.7697405312210321e-03" rms="2.3195840418338776e-01" purity="1.3943265378475189e-01" nType="-99"/>
            <Node pos="r" depth="3" NCoef="0" IVar="-1" Cut="0.0000000000000000e+00" cType="1" res="-1.7053140327334404e-02" rms="3.0746152997016907e-01" purity="3.3935433626174927e-01" nType="-99"/>
          </Node>
          <Node pos="r" depth="2" NCoef="0" IVar="1" Cut="7.9225003719329834e-02" cType="1" res="1.8224561354145408e-03" rms="2.9654654860496521e-01" purity="7.5281327962875366e-01" nType="0">
            <Node pos="l" depth="3" NCoef="0" IVar="-1" Cut="0.0000000000000000e+00" cType="1" res="1.7894644290208817e-02" rms="3.3322703838348389e-01" purity="6.0469686985015869e-01" nType="-99"/>
            <Node pos="r" depth="3" NCoef="0" IVar="-1" Cut="0.0000000000000000e+00" cType="1" res="-3.3551352098584175e-03" rms="2.8620409965515137e-01" purity="7.9077982902526855e-01" nType="-99"/>
          </Node>
        </Node>
        <Node pos="r" depth="1" NCoef="0" IVar="7" Cut="3.0091691017150879e-01" cType="1" res="4.0810341015458107e-03" rms="2.9324612021446228e-01" purity="5.1554936170578003e-01" nType="0">
          <Node pos="l" depth="2" NCoef="0" IVar="11" Cut="-2.4479417800903320e+00" cType="1" res="1.1082632467150688e-02" rms="3.0408537387847900e-01" purity="6.6054475307464600e-01" nType="0">
            <Node pos="l" depth="3" NCoef="0" IVar="-1" Cut="0.0000000000000000e+00" cType="1" res="2.1649032831192017e-02" rms="3.5624578595161438e-01" purity="3.8141962885856628e-01" nType="-99"/>
            <Node pos="r" depth="3" NCoef="0" IVar="-1" Cut="0.0000000000000000e+00" cType="1" res="9.0139859821647406e-04" rms="2.5987279415130615e-01" purity="8.6048316955566406e-01" nType="-99"/>
          </Node>
          <Node pos="r" depth="2" NCoef="0" IVar="9" Cut="-1.2002137899398804e+00" cType="1" res="4.3306330917403102e-04" rms="2.8736916184425354e-01" purity="4.4000381231307983e-01" nType="0">
            <Node pos="l" depth="3" NCoef="0" IVar="-1" Cut="0.0000000000000000e+00" cType="1" res="2.6367796584963799e-02" rms="2.7621781826019287e-01" purity="2.2092337906360626e-01" nType="-99"/>
            <Node pos="r" depth="3" NCoef="0" IVar="-1" Cut="0.0000000000000000e+00" cType="1" res="-2.7441855054348707e-03" rms="2.8887709975242615e-01" purity="4.7238394618034363e-01" nType="-99"/>
          </Node>
        </Node>
      </Node>
    </BinaryTree>
    <BinaryTree type="DecisionTree" boostWeight="1.0000000000000000e+00" itree="338">
      <Node pos="s" depth="0" NCoef="0" IVar="11" Cut="1.6951942443847656e+00" cType="1" res="5.9787073405459523e-04" rms="2.8658545017242432e-01" purity="4.9988365173339844e-01" nType="0">
        <Node pos="l" depth="1" NCoef="0" IVar="9" Cut="-3.9951750636100769e-01" cType="1" res="1.3844423228874803e-03" rms="2.8516566753387451e-01" purity="4.9648424983024597e-01" nType="0">
          <Node pos="l" depth="2" NCoef="0" IVar="8" Cut="1.4651126861572266e+00" cType="1" res="-3.1910564284771681e-03" rms="2.8639718890190125e-01" purity="4.5009866356849670e-01" nType="0">
            <Node pos="l" depth="3" NCoef="0" IVar="-1" Cut="0.0000000000000000e+00" cType="1" res="-1.8480578437447548e-03" rms="2.9297217726707458e-01" purity="4.7943037748336792e-01" nType="-99"/>
            <Node pos="r" depth="3" NCoef="0" IVar="-1" Cut="0.0000000000000000e+00" cType="1" res="-5.0489448010921478e-02" rms="1.8366667628288269e-01" purity="8.1489458680152893e-02" nType="-99"/>
          </Node>
          <Node pos="r" depth="2" NCoef="0" IVar="9" Cut="2.0379831790924072e+00" cType="1" res="4.0027308277785778e-03" rms="2.8442546725273132e-01" purity="5.2302795648574829e-01" nType="0">
            <Node pos="l" depth="3" NCoef="0" IVar="-1" Cut="0.0000000000000000e+00" cType="1" res="6.1175758019089699e-03" rms="2.8793647885322571e-01" purity="5.4523706436157227e-01" nType="-99"/>
            <Node pos="r" depth="3" NCoef="0" IVar="-1" Cut="0.0000000000000000e+00" cType="1" res="-3.6088868975639343e-02" rms="2.0416016876697540e-01" purity="9.5566973090171814e-02" nType="-99"/>
          </Node>
        </Node>
        <Node pos="r" depth="1" NCoef="0" IVar="-1" Cut="0.0000000000000000e+00" cType="1" res="-1.8091639503836632e-02" rms="3.1888586282730103e-01" purity="5.8341205120086670e-01" nType="-99"/>
      </Node>
    </BinaryTree>
    <BinaryTree type="DecisionTree" boostWeight="1.0000000000000000e+00" itree="339">
      <Node pos="s" depth="0" NCoef="0" IVar="10" Cut="-6.6675323247909546e-01" cType="1" res="-2.2784066386520863e-03" rms="2.8536859154701233e-01" purity="4.9472773075103760e-01" nType="0">
        <Node pos="l" depth="1" NCoef="0" IVar="7" Cut="-1.1580348014831543e-01" cType="1" res="3.8848414551466703e-03" rms="2.8350588679313660e-01" purity="4.5000317692756653e-01" nType="0">
          <Node pos="l" depth="2" NCoef="0" IVar="1" Cut="1.9142299890518188e-02" cType="1" res="1.2774716131389141e-02" rms="2.8363960981369019e-01" purity="4.4473987817764282e-01" nType="0">
            <Node pos="l" depth="3" NCoef="0" IVar="-1" Cut="0.0000000000000000e+00" cType="1" res="-5.3640478290617466e-03" rms="1.9656255841255188e-01" purity="7.6216362416744232e-02" nType="-99"/>
            <Node pos="r" depth="3" NCoef="0" IVar="-1" Cut="0.0000000000000000e+00" cType="1" res="1.9505564123392105e-02" rms="3.0873742699623108e-01" purity="5.7673496007919312e-01" nType="-99"/>
          </Node>
          <Node pos="r" depth="2" NCoef="0" IVar="9" Cut="1.3177652657032013e-01" cType="1" res="-5.3282314911484718e-03" rms="2.8307276964187622e-01" purity="4.5545786619186401e-01" nType="0">
            <Node pos="l" depth="3" NCoef="0" IVar="-1" Cut="0.0000000000000000e+00" cType="1" res="-2.2453287616372108e-02" rms="2.7288737893104553e-01" purity="4.3258473277091980e-01" nType="-99"/>
            <Node pos="r" depth="3" NCoef="0" IVar="-1" Cut="0.0000000000000000e+00" cType="1" res="1.2633706443011761e-02" rms="2.9468497633934021e-01" purity="4.8449519276618958e-01" nType="-99"/>
          </Node>
        </Node>
        <Node pos="r" depth="1" NCoef="0" IVar="1" Cut="1.0034057497978210e-01" cType="1" res="-4.9476553685963154e-03" rms="2.8613036870956421e-01" purity="5.1409751176834106e-01" nType="0">
          <Node pos="l" depth="2" NCoef="0" IVar="9" Cut="-6.6662752628326416e-01" cType="1" res="-8.1748776137828827e-03" rms="2.9407924413681030e-01" purity="3.6627599596977234e-01" nType="0">
            <Node pos="l" depth="3" NCoef="0" IVar="-1" Cut="0.0000000000000000e+00" cType="1" res="2.6662563905119896e-03" rms="2.9574373364448547e-01" purity="2.9811152815818787e-01" nType="-99"/>
            <Node pos="r" depth="3" NCoef="0" IVar="-1" Cut="0.0000000000000000e+00" cType="1" res="-1.3534818775951862e-02" rms="2.9335916042327881e-01" purity="3.9174199104309082e-01" nType="-99"/>
          </Node>
          <Node pos="r" depth="2" NCoef="0" IVar="9" Cut="-1.4694216847419739e-01" cType="1" res="2.2911485284566879e-03" rms="2.6730108261108398e-01" purity="8.4566771984100342e-01" nType="0">
            <Node pos="l" depth="3" NCoef="0" IVar="-1" Cut="0.0000000000000000e+00" cType="1" res="-4.9627409316599369e-03" rms="2.6490566134452820e-01" purity="8.3744883537292480e-01" nType="-99"/>
            <Node pos="r" depth="3" NCoef="0" IVar="-1" Cut="0.0000000000000000e+00" cType="1" res="9.9751474335789680e-03" rms="2.6910695433616638e-01" purity="8.5224735736846924e-01" nType="-99"/>
          </Node>
        </Node>
      </Node>
    </BinaryTree>
    <BinaryTree type="DecisionTree" boostWeight="1.0000000000000000e+00" itree="340">
      <Node pos="s" depth="0" NCoef="0" IVar="4" Cut="1.4558529663085938e+02" cType="1" res="1.3064325321465731e-03" rms="2.8920128941535950e-01" purity="5.0305092334747314e-01" nType="0">
        <Node pos="l" depth="1" NCoef="0" IVar="5" Cut="8.9651908874511719e+01" cType="1" res="5.6748925708234310e-03" rms="2.9003742337226868e-01" purity="2.3301437497138977e-01" nType="0">
          <Node pos="l" depth="2" NCoef="0" IVar="4" Cut="1.3661927795410156e+02" cType="1" res="2.8723874129354954e-03" rms="2.8329098224639893e-01" purity="1.6880440711975098e-01" nType="0">
            <Node pos="l" depth="3" NCoef="0" IVar="-1" Cut="0.0000000000000000e+00" cType="1" res="8.0675762146711349e-03" rms="2.7801123261451721e-01" purity="1.5552464127540588e-01" nType="-99"/>
            <Node pos="r" depth="3" NCoef="0" IVar="-1" Cut="0.0000000000000000e+00" cType="1" res="-2.5639390572905540e-02" rms="3.3276829123497009e-01" purity="3.1026506423950195e-01" nType="-99"/>
          </Node>
          <Node pos="r" depth="2" NCoef="0" IVar="-1" Cut="0.0000000000000000e+00" cType="1" res="2.0388849079608917e-02" rms="3.2899627089500427e-01" purity="6.3941627740859985e-01" nType="-99"/>
        </Node>
        <Node pos="r" depth="1" NCoef="0" IVar="4" Cut="3.1593264770507812e+02" cType="1" res="-2.1487700287252665e-03" rms="2.8849136829376221e-01" purity="7.1663433313369751e-01" nType="0">
          <Node pos="l" depth="2" NCoef="0" IVar="9" Cut="-3.9959356188774109e-01" cType="1" res="-1.1435874039307237e-03" rms="2.9189774394035339e-01" purity="7.0452892780303955e-01" nType="0">
            <Node pos="l" depth="3" NCoef="0" IVar="-1" Cut="0.0000000000000000e+00" cType="1" res="4.0647187270224094e-03" rms="2.9404821991920471e-01" purity="6.6373920440673828e-01" nType="-99"/>
            <Node pos="r" depth="3" NCoef="0" IVar="-1" Cut="0.0000000000000000e+00" cType="1" res="-4.2586829513311386e-03" rms="2.9074841737747192e-01" purity="7.2562164068222046e-01" nType="-99"/>
          </Node>
          <Node pos="r" depth="2" NCoef="0" IVar="-1" Cut="0.0000000000000000e+00" cType="1" res="-2.6648832485079765e-02" rms="2.3863986134529114e-01" purity="8.7637853622436523e-01" nType="-99"/>
        </Node>
      </Node>
    </BinaryTree>
    <BinaryTree type="DecisionTree" boostWeight="1.0000000000000000e+00" itree="341">
      <Node pos="s" depth="0" NCoef="0" IVar="9" Cut="-1.1999415159225464e+00" cType="1" res="3.3820054959505796e-03" rms="2.8551176190376282e-01" purity="4.9991080164909363e-01" nType="0">
        <Node pos="l" depth="1" NCoef="0" IVar="0" Cut="1.5244890136718750e+03" cType="1" res="-6.4853345975279808e-03" rms="2.7550414204597473e-01" purity="2.6478961110115051e-01" nType="0">
          <Node pos="l" depth="2" NCoef="0" IVar="4" Cut="1.0258340454101562e+02" cType="1" res="-1.3186534866690636e-02" rms="2.4968911707401276e-01" purity="1.3092353940010071e-01" nType="0">
            <Node pos="l" depth="3" NCoef="0" IVar="-1" Cut="0.0000000000000000e+00" cType="1" res="1.6501257196068764e-02" rms="1.9969950616359711e-01" purity="5.8390006422996521e-02" nType="-99"/>
            <Node pos="r" depth="3" NCoef="0" IVar="-1" Cut="0.0000000000000000e+00" cType="1" res="-2.8012039139866829e-02" rms="2.7611047029495239e-01" purity="1.7705285549163818e-01" nType="-99"/>
          </Node>
          <Node pos="r" depth="2" NCoef="0" IVar="-1" Cut="0.0000000000000000e+00" cType="1" res="9.4148833304643631e-03" rms="3.3006221055984497e-01" purity="5.9478849172592163e-01" nType="-99"/>
        </Node>
        <Node pos="r" depth="1" NCoef="0" IVar="8" Cut="-1.4663393497467041e+00" cType="1" res="4.9038119614124298e-03" rms="2.8699395060539246e-01" purity="5.3617274761199951e-01" nType="0">
          <Node pos="l" depth="2" NCoef="0" IVar="9" Cut="1.3267374038696289e-01" cType="1" res="-1.1864716187119484e-02" rms="2.1487385034561157e-01" purity="1.3813409209251404e-01" nType="0">
            <Node pos="l" depth="3" NCoef="0" IVar="-1" Cut="0.0000000000000000e+00" cType="1" res="-3.8959991186857224e-02" rms="2.1773053705692291e-01" purity="1.6245451569557190e-01" nType="-99"/>
            <Node pos="r" depth="3" NCoef="0" IVar="-1" Cut="0.0000000000000000e+00" cType="1" res="1.2470055371522903e-03" rms="2.1144217252731323e-01" purity="1.1579012125730515e-01" nType="-99"/>
          </Node>
          <Node pos="r" depth="2" NCoef="0" IVar="6" Cut="7.8976905822753906e+01" cType="1" res="6.1338138766586781e-03" rms="2.9154476523399353e-01" purity="5.6536960601806641e-01" nType="0">
            <Node pos="l" depth="3" NCoef="0" IVar="-1" Cut="0.0000000000000000e+00" cType="1" res="8.4331640973687172e-03" rms="3.1798034906387329e-01" purity="4.3104577064514160e-01" nType="-99"/>
            <Node pos="r" depth="3" NCoef="0" IVar="-1" Cut="0.0000000000000000e+00" cType="1" res="-1.2139193713665009e-03" rms="2.0353479683399200e-01" purity="9.2809140682220459e-01" nType="-99"/>
          </Node>
        </Node>
      </Node>
    </BinaryTree>
    <BinaryTree type="DecisionTree" boostWeight="1.0000000000000000e+00" itree="342">
      <Node pos="s" depth="0" NCoef="0" IVar="9" Cut="6.6619497537612915e-01" cType="1" res="-9.6475967438891530e-04" rms="2.8875255584716797e-01" purity="4.9892112612724304e-01" nType="0">
        <Node pos="l" depth="1" NCoef="0" IVar="10" Cut="1.3326533138751984e-01" cType="1" res="-4.3376875109970570e-03" rms="2.8623124957084656e-01" purity="5.2909594774246216e-01" nType="0">
          <Node pos="l" depth="2" NCoef="0" IVar="0" Cut="1.3169493408203125e+03" cType="1" res="-9.0266382321715355e-03" rms="2.8468218445777893e-01" purity="5.2102798223495483e-01" nType="0">
            <Node pos="l" depth="3" NCoef="0" IVar="-1" Cut="0.0000000000000000e+00" cType="1" res="-2.3129412904381752e-02" rms="2.7422791719436646e-01" purity="1.3242666423320770e-01" nType="-99"/>
            <Node pos="r" depth="3" NCoef="0" IVar="-1" Cut="0.0000000000000000e+00" cType="1" res="-4.8083011060953140e-03" rms="2.8991609811782837e-01" purity="7.2592639923095703e-01" nType="-99"/>
          </Node>
          <Node pos="r" depth="2" NCoef="0" IVar="10" Cut="7.6813644170761108e-01" cType="1" res="1.8837143434211612e-03" rms="2.8815597295761108e-01" purity="5.3980070352554321e-01" nType="0">
            <Node pos="l" depth="3" NCoef="0" IVar="-1" Cut="0.0000000000000000e+00" cType="1" res="1.2699684128165245e-02" rms="2.8481683135032654e-01" purity="6.3036584854125977e-01" nType="-99"/>
            <Node pos="r" depth="3" NCoef="0" IVar="-1" Cut="0.0000000000000000e+00" cType="1" res="-5.2985558286309242e-03" rms="2.9047977924346924e-01" purity="4.7148299217224121e-01" nType="-99"/>
          </Node>
        </Node>
        <Node pos="r" depth="1" NCoef="0" IVar="6" Cut="5.1628398895263672e+01" cType="1" res="8.4604807198047638e-03" rms="2.9548010230064392e-01" purity="4.1460105776786804e-01" nType="0">
          <Node pos="l" depth="2" NCoef="0" IVar="7" Cut="-1.2477795034646988e-01" cType="1" res="1.0189535096287727e-03" rms="2.8245699405670166e-01" purity="1.7958156764507294e-01" nType="0">
            <Node pos="l" depth="3" NCoef="0" IVar="-1" Cut="0.0000000000000000e+00" cType="1" res="-2.1051349118351936e-02" rms="2.6597800850868225e-01" purity="1.3052076101303101e-01" nType="-99"/>
            <Node pos="r" depth="3" NCoef="0" IVar="-1" Cut="0.0000000000000000e+00" cType="1" res="1.2503700330853462e-02" rms="2.9219534993171692e-01" purity="2.1122959256172180e-01" nType="-99"/>
          </Node>
          <Node pos="r" depth="2" NCoef="0" IVar="1" Cut="6.3762024044990540e-02" cType="1" res="1.7440933734178543e-02" rms="3.1023228168487549e-01" purity="6.9822317361831665e-01" nType="0">
            <Node pos="l" depth="3" NCoef="0" IVar="-1" Cut="0.0000000000000000e+00" cType="1" res="2.3508239537477493e-02" rms="3.4018063545227051e-01" purity="4.8476567864418030e-01" nType="-99"/>
            <Node pos="r" depth="3" NCoef="0" IVar="-1" Cut="0.0000000000000000e+00" cType="1" res="1.2196671217679977e-02" rms="2.8446730971336365e-01" purity="8.6469984054565430e-01" nType="-99"/>
          </Node>
        </Node>
      </Node>
    </BinaryTree>
    <BinaryTree type="DecisionTree" boostWeight="1.0000000000000000e+00" itree="343">
      <Node pos="s" depth="0" NCoef="0" IVar="7" Cut="-1.1541962623596191e-01" cType="1" res="8.2244246732443571e-04" rms="2.8739646077156067e-01" purity="4.9646684527397156e-01" nType="0">
        <Node pos="l" depth="1" NCoef="0" IVar="8" Cut="1.4669066667556763e+00" cType="1" res="5.3149396553635597e-03" rms="2.8958591818809509e-01" purity="4.8236364126205444e-01" nType="0">
          <Node pos="l" depth="2" NCoef="0" IVar="9" Cut="-1.4656895399093628e+00" cType="1" res="2.9827002435922623e-03" rms="2.9243856668472290e-01" purity="5.1093322038650513e-01" nType="0">
            <Node pos="l" depth="3" NCoef="0" IVar="-1" Cut="0.0000000000000000e+00" cType="1" res="-1.6015751287341118e-02" rms="2.6908034086227417e-01" purity="2.2723761200904846e-01" nType="-99"/>
            <Node pos="r" depth="3" NCoef="0" IVar="-1" Cut="0.0000000000000000e+00" cType="1" res="5.3318338468670845e-03" rms="2.9472053050994873e-01" purity="5.4056441783905029e-01" nType="-99"/>
          </Node>
          <Node pos="r" depth="2" NCoef="0" IVar="-1" Cut="0.0000000000000000e+00" cType="1" res="6.4029306173324585e-02" rms="2.5268194079399109e-01" purity="1.5164014697074890e-01" nType="-99"/>
        </Node>
        <Node pos="r" depth="1" NCoef="0" IVar="9" Cut="-1.7333443164825439e+00" cType="1" res="-2.8694579377770424e-03" rms="2.8553172945976257e-01" purity="5.0805664062500000e-01" nType="0">
          <Node pos="l" depth="2" NCoef="0" IVar="-1" Cut="0.0000000000000000e+00" cType="1" res="3.0964072793722153e-02" rms="2.7510660886764526e-01" purity="1.7457103729248047e-01" nType="-99"/>
          <Node pos="r" depth="2" NCoef="0" IVar="0" Cut="1.5985230712890625e+03" cType="1" res="-4.1935960762202740e-03" rms="2.8605964779853821e-01" purity="5.2712333202362061e-01" nType="0">
            <Node pos="l" depth="3" NCoef="0" IVar="-1" Cut="0.0000000000000000e+00" cType="1" res="-8.2243010401725769e-03" rms="3.0671912431716919e-01" purity="2.9587435722351074e-01" nType="-99"/>
            <Node pos="r" depth="3" NCoef="0" IVar="-1" Cut="0.0000000000000000e+00" cType="1" res="1.4964420115575194e-03" rms="2.5559800863265991e-01" purity="8.3779233694076538e-01" nType="-99"/>
          </Node>
        </Node>
      </Node>
    </BinaryTree>
    <BinaryTree type="DecisionTree" boostWeight="1.0000000000000000e+00" itree="344">
      <Node pos="s" depth="0" NCoef="0" IVar="7" Cut="9.5219296216964722e-01" cType="1" res="9.2932494590058923e-04" rms="2.8735920786857605e-01" purity="5.0308316946029663e-01" nType="0">
        <Node pos="l" depth="1" NCoef="0" IVar="11" Cut="-2.4476497173309326e+00" cType="1" res="-7.2862469824030995e-04" rms="2.9204937815666199e-01" purity="5.4907637834548950e-01" nType="0">
          <Node pos="l" depth="2" NCoef="0" IVar="2" Cut="3.3582705688476562e+02" cType="1" res="-5.6233936920762062e-03" rms="3.1122604012489319e-01" purity="2.5590044260025024e-01" nType="0">
            <Node pos="l" depth="3" NCoef="0" IVar="-1" Cut="0.0000000000000000e+00" cType="1" res="-1.4435623772442341e-02" rms="2.8890165686607361e-01" purity="1.7789880931377411e-01" nType="-99"/>
            <Node pos="r" depth="3" NCoef="0" IVar="-1" Cut="0.0000000000000000e+00" cType="1" res="8.5892534116283059e-04" rms="3.2995304465293884e-01" purity="3.2633078098297119e-01" nType="-99"/>
          </Node>
          <Node pos="r" depth="2" NCoef="0" IVar="2" Cut="3.2172921752929688e+02" cType="1" res="3.3345008268952370e-03" rms="2.7505132555961609e-01" purity="7.9244041442871094e-01" nType="0">
            <Node pos="l" depth="3" NCoef="0" IVar="-1" Cut="0.0000000000000000e+00" cType="1" res="1.3511980883777142e-02" rms="2.8758868575096130e-01" purity="7.5223970413208008e-01" nType="-99"/>
            <Node pos="r" depth="3" NCoef="0" IVar="-1" Cut="0.0000000000000000e+00" cType="1" res="-2.5379208382219076e-03" rms="2.6738283038139343e-01" purity="8.1572800874710083e-01" nType="-99"/>
          </Node>
        </Node>
        <Node pos="r" depth="1" NCoef="0" IVar="7" Cut="1.1281912326812744e+00" cType="1" res="1.0537368245422840e-02" rms="2.5829946994781494e-01" purity="2.3654645681381226e-01" nType="0">
          <Node pos="l" depth="2" NCoef="0" IVar="-1" Cut="0.0000000000000000e+00" cType="1" res="3.7243075668811798e-02" rms="3.2631474733352661e-01" purity="4.1425237059593201e-01" nType="-99"/>
          <Node pos="r" depth="2" NCoef="0" IVar="11" Cut="-7.9069888591766357e-01" cType="1" res="3.4046927466988564e-03" rms="2.3294781148433685e-01" purity="1.8185397982597351e-01" nType="0">
            <Node pos="l" depth="3" NCoef="0" IVar="-1" Cut="0.0000000000000000e+00" cType="1" res="2.1484445780515671e-02" rms="2.0185859501361847e-01" purity="1.0229870676994324e-01" nType="-99"/>
            <Node pos="r" depth="3" NCoef="0" IVar="-1" Cut="0.0000000000000000e+00" cType="1" res="-1.1760399676859379e-02" rms="3.0026194453239441e-01" purity="3.9489912986755371e-01" nType="-99"/>
          </Node>
        </Node>
      </Node>
    </BinaryTree>
    <BinaryTree type="DecisionTree" boostWeight="1.0000000000000000e+00" itree="345">
      <Node pos="s" depth="0" NCoef="0" IVar="10" Cut="1.7330662012100220e+00" cType="1" res="3.7874998524785042e-03" rms="2.8811183571815491e-01" purity="5.0687319040298462e-01" nType="0">
        <Node pos="l" depth="1" NCoef="0" IVar="10" Cut="-1.7206255197525024e+00" cType="1" res="4.9311891198158264e-03" rms="2.8916829824447632e-01" purity="5.2614045143127441e-01" nType="0">
          <Node pos="l" depth="2" NCoef="0" IVar="5" Cut="7.4713958740234375e+01" cType="1" res="-8.9914612472057343e-03" rms="2.7406030893325806e-01" purity="2.8676423430442810e-01" nType="0">
            <Node pos="l" depth="3" NCoef="0" IVar="-1" Cut="0.0000000000000000e+00" cType="1" res="3.2188489567488432e-03" rms="2.5032350420951843e-01" purity="1.4450007677078247e-01" nType="-99"/>
            <Node pos="r" depth="3" NCoef="0" IVar="-1" Cut="0.0000000000000000e+00" cType="1" res="-2.5884861126542091e-02" rms="3.0688750743865967e-01" purity="5.1050966978073120e-01" nType="-99"/>
          </Node>
          <Node pos="r" depth="2" NCoef="0" IVar="10" Cut="2.5294473767280579e-01" cType="1" res="6.3097728416323662e-03" rms="2.9058521986007690e-01" purity="5.4984283447265625e-01" nType="0">
            <Node pos="l" depth="3" NCoef="0" IVar="-1" Cut="0.0000000000000000e+00" cType="1" res="4.2620715685188770e-03" rms="2.8964421153068542e-01" purity="5.5148941278457642e-01" nType="-99"/>
            <Node pos="r" depth="3" NCoef="0" IVar="-1" Cut="0.0000000000000000e+00" cType="1" res="1.1779057793319225e-02" rms="2.9192534089088440e-01" purity="5.4740536212921143e-01" nType="-99"/>
          </Node>
        </Node>
        <Node pos="r" depth="1" NCoef="0" IVar="7" Cut="-3.1202119588851929e-01" cType="1" res="-9.7107943147420883e-03" rms="2.7497777342796326e-01" purity="2.7947270870208740e-01" nType="0">
          <Node pos="l" depth="2" NCoef="0" IVar="-1" Cut="0.0000000000000000e+00" cType="1" res="-4.0235985070466995e-02" rms="2.4321298301219940e-01" purity="1.9072252511978149e-01" nType="-99"/>
          <Node pos="r" depth="2" NCoef="0" IVar="10" Cut="2.0886652469635010e+00" cType="1" res="-1.3045386876910925e-03" rms="2.8855916857719421e-01" purity="3.2191723585128784e-01" nType="0">
            <Node pos="l" depth="3" NCoef="0" IVar="-1" Cut="0.0000000000000000e+00" cType="1" res="4.6286298893392086e-03" rms="2.9450827836990356e-01" purity="3.8308265805244446e-01" nType="-99"/>
            <Node pos="r" depth="3" NCoef="0" IVar="-1" Cut="0.0000000000000000e+00" cType="1" res="-7.3875687085092068e-03" rms="2.8255340456962585e-01" purity="2.6240289211273193e-01" nType="-99"/>
          </Node>
        </Node>
      </Node>
    </BinaryTree>
    <BinaryTree type="DecisionTree" boostWeight="1.0000000000000000e+00" itree="346">
      <Node pos="s" depth="0" NCoef="0" IVar="9" Cut="1.3321645557880402e-01" cType="1" res="-1.7806676914915442e-03" rms="2.8598862886428833e-01" purity="4.9698626995086670e-01" nType="0">
        <Node pos="l" depth="1" NCoef="0" IVar="10" Cut="-1.9999525547027588e+00" cType="1" res="2.2072854917496443e-03" rms="2.8646358847618103e-01" purity="5.1431888341903687e-01" nType="0">
          <Node pos="l" depth="2" NCoef="0" IVar="-1" Cut="0.0000000000000000e+00" cType="1" res="2.8881974518299103e-02" rms="2.9559358954429626e-01" purity="2.6593634486198425e-01" nType="-99"/>
          <Node pos="r" depth="2" NCoef="0" IVar="8" Cut="6.6680520772933960e-01" cType="1" res="9.6734834369271994e-04" rms="2.8587508201599121e-01" purity="5.2875357866287231e-01" nType="0">
            <Node pos="l" depth="3" NCoef="0" IVar="-1" Cut="0.0000000000000000e+00" cType="1" res="3.6254427395761013e-03" rms="2.8712695837020874e-01" purity="5.7041686773300171e-01" nType="-99"/>
            <Node pos="r" depth="3" NCoef="0" IVar="-1" Cut="0.0000000000000000e+00" cType="1" res="-8.2868337631225586e-03" rms="2.8111061453819275e-01" purity="3.7618285417556763e-01" nType="-99"/>
          </Node>
        </Node>
        <Node pos="r" depth="1" NCoef="0" IVar="5" Cut="1.1201181793212891e+02" cType="1" res="-6.7704664543271065e-03" rms="2.8531470894813538e-01" purity="4.7529935836791992e-01" nType="0">
          <Node pos="l" depth="2" NCoef="0" IVar="11" Cut="-1.6191868782043457e+00" cType="1" res="-1.0035405866801739e-02" rms="3.0209463834762573e-01" purity="3.4384661912918091e-01" nType="0">
            <Node pos="l" depth="3" NCoef="0" IVar="-1" Cut="0.0000000000000000e+00" cType="1" res="-2.9070363380014896e-03" rms="2.8480887413024902e-01" purity="2.0475314557552338e-01" nType="-99"/>
            <Node pos="r" depth="3" NCoef="0" IVar="-1" Cut="0.0000000000000000e+00" cType="1" res="-2.2025408223271370e-02" rms="3.3042654395103455e-01" purity="5.9355849027633667e-01" nType="-99"/>
          </Node>
          <Node pos="r" depth="2" NCoef="0" IVar="10" Cut="1.3167168200016022e-01" cType="1" res="3.7698193918913603e-03" rms="2.2234748303890228e-01" purity="8.9967149496078491e-01" nType="0">
            <Node pos="l" depth="3" NCoef="0" IVar="-1" Cut="0.0000000000000000e+00" cType="1" res="-1.0259783826768398e-02" rms="2.1859408915042877e-01" purity="8.9348810911178589e-01" nType="-99"/>
            <Node pos="r" depth="3" NCoef="0" IVar="-1" Cut="0.0000000000000000e+00" cType="1" res="2.2871434688568115e-02" rms="2.2574155032634735e-01" purity="9.0598809719085693e-01" nType="-99"/>
          </Node>
        </Node>
      </Node>
    </BinaryTree>
    <BinaryTree type="DecisionTree" boostWeight="1.0000000000000000e+00" itree="347">
      <Node pos="s" depth="0" NCoef="0" IVar="4" Cut="1.4357591247558594e+02" cType="1" res="4.3207296403124928e-04" rms="2.8942471742630005e-01" purity="4.9917715787887573e-01" nType="0">
        <Node pos="l" depth="1" NCoef="0" IVar="3" Cut="2.7463174438476562e+02" cType="1" res="4.6497965231537819e-03" rms="2.8899750113487244e-01" purity="2.2727404534816742e-01" nType="0">
          <Node pos="l" depth="2" NCoef="0" IVar="3" Cut="2.0119471740722656e+02" cType="1" res="6.7157815210521221e-03" rms="2.8560104966163635e-01" purity="2.1661157906055450e-01" nType="0">
            <Node pos="l" depth="3" NCoef="0" IVar="-1" Cut="0.0000000000000000e+00" cType="1" res="3.6290255375206470e-03" rms="2.7500668168067932e-01" purity="1.8337638676166534e-01" nType="-99"/>
            <Node pos="r" depth="3" NCoef="0" IVar="-1" Cut="0.0000000000000000e+00" cType="1" res="2.2321328520774841e-02" rms="3.2272717356681824e-01" purity="3.4472799301147461e-01" nType="-99"/>
          </Node>
          <Node pos="r" depth="2" NCoef="0" IVar="-1" Cut="0.0000000000000000e+00" cType="1" res="-1.3369753025472164e-02" rms="3.1776130199432373e-01" purity="3.2478994131088257e-01" nType="-99"/>
        </Node>
        <Node pos="r" depth="1" NCoef="0" IVar="11" Cut="-2.3812103271484375e-01" cType="1" res="-2.8175408951938152e-03" rms="2.8971159458160400e-01" purity="7.0866936445236206e-01" nType="0">
          <Node pos="l" depth="2" NCoef="0" IVar="8" Cut="-6.6657048463821411e-01" cType="1" res="-6.9066686555743217e-03" rms="3.1208446621894836e-01" purity="6.1092972755432129e-01" nType="0">
            <Node pos="l" depth="3" NCoef="0" IVar="-1" Cut="0.0000000000000000e+00" cType="1" res="-2.0743217319250107e-02" rms="3.0607938766479492e-01" purity="4.6808344125747681e-01" nType="-99"/>
            <Node pos="r" depth="3" NCoef="0" IVar="-1" Cut="0.0000000000000000e+00" cType="1" res="-2.6051213499158621e-03" rms="3.1375071406364441e-01" purity="6.5415453910827637e-01" nType="-99"/>
          </Node>
          <Node pos="r" depth="2" NCoef="0" IVar="11" Cut="7.7457314729690552e-01" cType="1" res="3.3495016396045685e-03" rms="2.5211873650550842e-01" purity="8.5607600212097168e-01" nType="0">
            <Node pos="l" depth="3" NCoef="0" IVar="-1" Cut="0.0000000000000000e+00" cType="1" res="1.6122374683618546e-02" rms="2.3803670704364777e-01" purity="8.8437414169311523e-01" nType="-99"/>
            <Node pos="r" depth="3" NCoef="0" IVar="-1" Cut="0.0000000000000000e+00" cType="1" res="-7.3666158132255077e-03" rms="2.6987800002098083e-01" purity="8.1750875711441040e-01" nType="-99"/>
          </Node>
        </Node>
      </Node>
    </BinaryTree>
    <BinaryTree type="DecisionTree" boostWeight="1.0000000000000000e+00" itree="348">
      <Node pos="s" depth="0" NCoef="0" IVar="1" Cut="4.2377594858407974e-02" cType="1" res="-1.3106189435347915e-03" rms="2.8529617190361023e-01" purity="4.9785834550857544e-01" nType="0">
        <Node pos="l" depth="1" NCoef="0" IVar="11" Cut="5.9044265747070312e-01" cType="1" res="-6.7262263037264347e-03" rms="2.6099315285682678e-01" purity="1.9983187317848206e-01" nType="0">
          <Node pos="l" depth="2" NCoef="0" IVar="1" Cut="2.6236563920974731e-02" cType="1" res="-3.8849522825330496e-03" rms="2.5546202063560486e-01" purity="1.8244273960590363e-01" nType="0">
            <Node pos="l" depth="3" NCoef="0" IVar="-1" Cut="0.0000000000000000e+00" cType="1" res="1.2723704567179084e-03" rms="2.3279078304767609e-01" purity="1.2951509654521942e-01" nType="-99"/>
            <Node pos="r" depth="3" NCoef="0" IVar="-1" Cut="0.0000000000000000e+00" cType="1" res="-1.4738216996192932e-02" rms="3.0241447687149048e-01" purity="3.0849876999855042e-01" nType="-99"/>
          </Node>
          <Node pos="r" depth="2" NCoef="0" IVar="-1" Cut="0.0000000000000000e+00" cType="1" res="-2.9611594974994659e-02" rms="3.0453038215637207e-01" purity="3.5401055216789246e-01" nType="-99"/>
        </Node>
        <Node pos="r" depth="1" NCoef="0" IVar="4" Cut="9.3382171630859375e+01" cType="1" res="2.4766761343926191e-03" rms="3.0107092857360840e-01" purity="7.0627707242965698e-01" nType="0">
          <Node pos="l" depth="2" NCoef="0" IVar="-1" Cut="0.0000000000000000e+00" cType="1" res="-1.9819410517811775e-02" rms="2.7714765071868896e-01" purity="1.2728944420814514e-01" nType="-99"/>
          <Node pos="r" depth="2" NCoef="0" IVar="3" Cut="1.8179870605468750e+02" cType="1" res="3.8543306291103363e-03" rms="3.0270642042160034e-01" purity="7.4877053499221802e-01" nType="0">
            <Node pos="l" depth="3" NCoef="0" IVar="-1" Cut="0.0000000000000000e+00" cType="1" res="-5.0885425880551338e-03" rms="3.4745639562606812e-01" purity="4.8525920510292053e-01" nType="-99"/>
            <Node pos="r" depth="3" NCoef="0" IVar="-1" Cut="0.0000000000000000e+00" cType="1" res="7.3885922320187092e-03" rms="2.9108902812004089e-01" purity="8.1097757816314697e-01" nType="-99"/>
          </Node>
        </Node>
      </Node>
    </BinaryTree>
    <BinaryTree type="DecisionTree" boostWeight="1.0000000000000000e+00" itree="349">
      <Node pos="s" depth="0" NCoef="0" IVar="10" Cut="1.4664938449859619e+00" cType="1" res="-1.1379852658137679e-03" rms="2.8737083077430725e-01" purity="4.9666029214859009e-01" nType="0">
        <Node pos="l" depth="1" NCoef="0" IVar="9" Cut="-1.3372489809989929e-01" cType="1" res="-3.1603020615875721e-03" rms="2.8652095794677734e-01" purity="5.1744073629379272e-01" nType="0">
          <Node pos="l" depth="2" NCoef="0" IVar="10" Cut="-1.7840920686721802e+00" cType="1" res="-8.9829228818416595e-03" rms="2.8503870964050293e-01" purity="4.9664843082427979e-01" nType="0">
            <Node pos="l" depth="3" NCoef="0" IVar="-1" Cut="0.0000000000000000e+00" cType="1" res="1.5903459861874580e-02" rms="2.8751364350318909e-01" purity="2.6468244194984436e-01" nType="-99"/>
            <Node pos="r" depth="3" NCoef="0" IVar="-1" Cut="0.0000000000000000e+00" cType="1" res="-1.3229265809059143e-02" rms="2.8468987345695496e-01" purity="5.2098333835601807e-01" nType="-99"/>
          </Node>
          <Node pos="r" depth="2" NCoef="0" IVar="3" Cut="4.3911886596679688e+02" cType="1" res="1.8112980760633945e-03" rms="2.8768727183341980e-01" purity="5.3519409894943237e-01" nType="0">
            <Node pos="l" depth="3" NCoef="0" IVar="-1" Cut="0.0000000000000000e+00" cType="1" res="6.5400009043514729e-04" rms="2.8704994916915894e-01" purity="5.1879322528839111e-01" nType="-99"/>
            <Node pos="r" depth="3" NCoef="0" IVar="-1" Cut="0.0000000000000000e+00" cType="1" res="2.8950357809662819e-02" rms="2.9719138145446777e-01" purity="8.0466371774673462e-01" nType="-99"/>
          </Node>
        </Node>
        <Node pos="r" depth="1" NCoef="0" IVar="8" Cut="9.3012279272079468e-01" cType="1" res="1.3817010447382927e-02" rms="2.9314652085304260e-01" purity="3.4298926591873169e-01" nType="0">
          <Node pos="l" depth="2" NCoef="0" IVar="1" Cut="3.6249216645956039e-02" cType="1" res="2.1375209093093872e-02" rms="3.0694612860679626e-01" purity="4.0342935919761658e-01" nType="0">
            <Node pos="l" depth="3" NCoef="0" IVar="-1" Cut="0.0000000000000000e+00" cType="1" res="7.4995039030909538e-03" rms="2.3475772142410278e-01" purity="1.0887234658002853e-01" nType="-99"/>
            <Node pos="r" depth="3" NCoef="0" IVar="-1" Cut="0.0000000000000000e+00" cType="1" res="2.8565336018800735e-02" rms="3.4472429752349854e-01" purity="5.9125375747680664e-01" nType="-99"/>
          </Node>
          <Node pos="r" depth="2" NCoef="0" IVar="-1" Cut="0.0000000000000000e+00" cType="1" res="-1.6155185177922249e-02" rms="2.4333876371383667e-01" purity="1.5337412059307098e-01" nType="-99"/>
        </Node>
      </Node>
    </BinaryTree>
    <BinaryTree type="DecisionTree" boostWeight="1.0000000000000000e+00" itree="350">
      <Node pos="s" depth="0" NCoef="0" IVar="0" Cut="1.3517238769531250e+03" cType="1" res="-5.0122931133955717e-04" rms="2.9019713401794434e-01" purity="4.9378663301467896e-01" nType="0">
        <Node pos="l" depth="1" NCoef="0" IVar="7" Cut="1.6020862758159637e-01" cType="1" res="4.1622254066169262e-03" rms="2.8627294301986694e-01" purity="1.6854506731033325e-01" nType="0">
          <Node pos="l" depth="2" NCoef="0" IVar="7" Cut="-8.0755102634429932e-01" cType="1" res="-2.2103565279394388e-03" rms="2.8432664275169373e-01" purity="1.7366288602352142e-01" nType="0">
            <Node pos="l" depth="3" NCoef="0" IVar="-1" Cut="0.0000000000000000e+00" cType="1" res="1.7253322526812553e-02" rms="2.2820889949798584e-01" purity="8.7343484163284302e-02" nType="-99"/>
            <Node pos="r" depth="3" NCoef="0" IVar="-1" Cut="0.0000000000000000e+00" cType="1" res="-9.4495741650462151e-03" rms="3.2086837291717529e-01" purity="2.4049946665763855e-01" nType="-99"/>
          </Node>
          <Node pos="r" depth="2" NCoef="0" IVar="0" Cut="1.2729011230468750e+03" cType="1" res="1.2183019891381264e-02" rms="2.8850391507148743e-01" purity="1.6210357844829559e-01" nType="0">
            <Node pos="l" depth="3" NCoef="0" IVar="-1" Cut="0.0000000000000000e+00" cType="1" res="8.0369990319013596e-03" rms="2.7039805054664612e-01" purity="1.2021227180957794e-01" nType="-99"/>
            <Node pos="r" depth="3" NCoef="0" IVar="-1" Cut="0.0000000000000000e+00" cType="1" res="3.8120929151773453e-02" rms="3.6125782132148743e-01" purity="3.6306905746459961e-01" nType="-99"/>
          </Node>
        </Node>
        <Node pos="r" depth="1" NCoef="0" IVar="8" Cut="-1.1975785493850708e+00" cType="1" res="-3.6662172060459852e-03" rms="2.9278814792633057e-01" purity="7.1452116966247559e-01" nType="0">
          <Node pos="l" depth="2" NCoef="0" IVar="-1" Cut="0.0000000000000000e+00" cType="1" res="2.0842386409640312e-02" rms="3.1698942184448242e-01" purity="4.1900637745857239e-01" nType="-99"/>
          <Node pos="r" depth="2" NCoef="0" IVar="0" Cut="1.6013281250000000e+03" cType="1" res="-5.8216177858412266e-03" rms="2.9048323631286621e-01" purity="7.4028193950653076e-01" nType="0">
            <Node pos="l" depth="3" NCoef="0" IVar="-1" Cut="0.0000000000000000e+00" cType="1" res="-1.0412444360554218e-02" rms="3.3915385603904724e-01" purity="5.4466456174850464e-01" nType="-99"/>
            <Node pos="r" depth="3" NCoef="0" IVar="-1" Cut="0.0000000000000000e+00" cType="1" res="-3.9724586531519890e-03" rms="2.6452913880348206e-01" purity="8.3204209804534912e-01" nType="-99"/>
          </Node>
        </Node>
      </Node>
    </BinaryTree>
    <BinaryTree type="DecisionTree" boostWeight="1.0000000000000000e+00" itree="351">
      <Node pos="s" depth="0" NCoef="0" IVar="8" Cut="4.0022006630897522e-01" cType="1" res="1.6653807833790779e-03" rms="2.8978076577186584e-01" purity="4.9826684594154358e-01" nType="0">
        <Node pos="l" depth="1" NCoef="0" IVar="9" Cut="-3.9972066879272461e-01" cType="1" res="-1.2779977405443788e-03" rms="2.8846383094787598e-01" purity="5.3093248605728149e-01" nType="0">
          <Node pos="l" depth="2" NCoef="0" IVar="6" Cut="6.3226726531982422e+01" cType="1" res="-7.0432592183351517e-03" rms="2.8647598624229431e-01" purity="4.7703695297241211e-01" nType="0">
            <Node pos="l" depth="3" NCoef="0" IVar="-1" Cut="0.0000000000000000e+00" cType="1" res="-1.3005364686250687e-02" rms="3.0035024881362915e-01" purity="2.7191752195358276e-01" nType="-99"/>
            <Node pos="r" depth="3" NCoef="0" IVar="-1" Cut="0.0000000000000000e+00" cType="1" res="3.9320839568972588e-03" rms="2.5959321856498718e-01" purity="8.4311449527740479e-01" nType="-99"/>
          </Node>
          <Node pos="r" depth="2" NCoef="0" IVar="10" Cut="-1.7334684133529663e+00" cType="1" res="2.2367434576153755e-03" rms="2.8961271047592163e-01" purity="5.6378942728042603e-01" nType="0">
            <Node pos="l" depth="3" NCoef="0" IVar="-1" Cut="0.0000000000000000e+00" cType="1" res="-2.4437842890620232e-02" rms="2.8795060515403748e-01" purity="3.3023789525032043e-01" nType="-99"/>
            <Node pos="r" depth="3" NCoef="0" IVar="-1" Cut="0.0000000000000000e+00" cType="1" res="4.8415390774607658e-03" rms="2.8965914249420166e-01" purity="5.8155918121337891e-01" nType="-99"/>
          </Node>
        </Node>
        <Node pos="r" depth="1" NCoef="0" IVar="0" Cut="1.5887424316406250e+03" cType="1" res="7.3484163731336594e-03" rms="2.9222279787063599e-01" purity="4.3519648909568787e-01" nType="0">
          <Node pos="l" depth="2" NCoef="0" IVar="8" Cut="9.7168189287185669e-01" cType="1" res="1.2835794128477573e-02" rms="2.9992151260375977e-01" purity="2.5402420759201050e-01" nType="0">
            <Node pos="l" depth="3" NCoef="0" IVar="-1" Cut="0.0000000000000000e+00" cType="1" res="2.3471722379326820e-02" rms="3.3904606103897095e-01" purity="3.7955921888351440e-01" nType="-99"/>
            <Node pos="r" depth="3" NCoef="0" IVar="-1" Cut="0.0000000000000000e+00" cType="1" res="2.5648956652730703e-03" rms="2.6322901248931885e-01" purity="1.5163357555866241e-01" nType="-99"/>
          </Node>
          <Node pos="r" depth="2" NCoef="0" IVar="11" Cut="-1.8954741954803467e+00" cType="1" res="-2.5284013245254755e-03" rms="2.7755546569824219e-01" purity="7.6129126548767090e-01" nType="0">
            <Node pos="l" depth="3" NCoef="0" IVar="-1" Cut="0.0000000000000000e+00" cType="1" res="-1.6584577038884163e-02" rms="3.4291496872901917e-01" purity="4.9703788757324219e-01" nType="-99"/>
            <Node pos="r" depth="3" NCoef="0" IVar="-1" Cut="0.0000000000000000e+00" cType="1" res="7.0145973004400730e-03" rms="2.4631029367446899e-01" purity="8.6685210466384888e-01" nType="-99"/>
          </Node>
        </Node>
      </Node>
    </BinaryTree>
    <BinaryTree type="DecisionTree" boostWeight="1.0000000000000000e+00" itree="352">
      <Node pos="s" depth="0" NCoef="0" IVar="8" Cut="-1.7330375909805298e+00" cType="1" res="-6.1400840058922768e-04" rms="2.8668719530105591e-01" purity="4.9895316362380981e-01" nType="0">
        <Node pos="l" depth="1" NCoef="0" IVar="-1" Cut="0.0000000000000000e+00" cType="1" res="3.7620499730110168e-02" rms="2.2992216050624847e-01" purity="1.1466707289218903e-01" nType="-99"/>
        <Node pos="r" depth="1" NCoef="0" IVar="11" Cut="-2.4476242065429688e+00" cType="1" res="-1.5644048107787967e-03" rms="2.8930628299713135e-01" purity="5.1896119117736816e-01" nType="0">
          <Node pos="l" depth="2" NCoef="0" IVar="5" Cut="7.0670692443847656e+01" cType="1" res="3.0188281089067459e-03" rms="3.0045786499977112e-01" purity="2.4401810765266418e-01" nType="0">
            <Node pos="l" depth="3" NCoef="0" IVar="-1" Cut="0.0000000000000000e+00" cType="1" res="-2.2461041808128357e-03" rms="2.7181616425514221e-01" purity="1.4755047857761383e-01" nType="-99"/>
            <Node pos="r" depth="3" NCoef="0" IVar="-1" Cut="0.0000000000000000e+00" cType="1" res="1.0288553312420845e-02" rms="3.4994962811470032e-01" purity="4.3423068523406982e-01" nType="-99"/>
          </Node>
          <Node pos="r" depth="2" NCoef="0" IVar="10" Cut="-1.7332968711853027e+00" cType="1" res="-5.6426986120641232e-03" rms="2.7894547581672668e-01" purity="7.6361352205276489e-01" nType="0">
            <Node pos="l" depth="3" NCoef="0" IVar="-1" Cut="0.0000000000000000e+00" cType="1" res="-3.0338170006871223e-02" rms="3.0942821502685547e-01" purity="5.4448372125625610e-01" nType="-99"/>
            <Node pos="r" depth="3" NCoef="0" IVar="-1" Cut="0.0000000000000000e+00" cType="1" res="-5.1060570403933525e-03" rms="2.7693372964859009e-01" purity="7.7670794725418091e-01" nType="-99"/>
          </Node>
        </Node>
      </Node>
    </BinaryTree>
    <BinaryTree type="DecisionTree" boostWeight="1.0000000000000000e+00" itree="353">
      <Node pos="s" depth="0" NCoef="0" IVar="9" Cut="1.9997535943984985e+00" cType="1" res="-6.6543107095640153e-05" rms="2.8791967034339905e-01" purity="5.0218063592910767e-01" nType="0">
        <Node pos="l" depth="1" NCoef="0" IVar="5" Cut="6.7264053344726562e+01" cType="1" res="-8.3395390538498759e-04" rms="2.8863409161567688e-01" purity="5.1432359218597412e-01" nType="0">
          <Node pos="l" depth="2" NCoef="0" IVar="11" Cut="-1.3429595232009888e+00" cType="1" res="-6.6381571814417839e-03" rms="2.7851104736328125e-01" purity="1.7924275994300842e-01" nType="0">
            <Node pos="l" depth="3" NCoef="0" IVar="-1" Cut="0.0000000000000000e+00" cType="1" res="-2.3427086416631937e-03" rms="2.6602745056152344e-01" purity="1.5021903812885284e-01" nType="-99"/>
            <Node pos="r" depth="3" NCoef="0" IVar="-1" Cut="0.0000000000000000e+00" cType="1" res="-2.8684033080935478e-02" rms="3.3988410234451294e-01" purity="3.4524008631706238e-01" nType="-99"/>
          </Node>
          <Node pos="r" depth="2" NCoef="0" IVar="8" Cut="-1.1996129751205444e+00" cType="1" res="2.2238322999328375e-03" rms="2.9378080368041992e-01" purity="6.9085180759429932e-01" nType="0">
            <Node pos="l" depth="3" NCoef="0" IVar="-1" Cut="0.0000000000000000e+00" cType="1" res="2.3453311994671822e-02" rms="3.1039664149284363e-01" purity="3.8792854547500610e-01" nType="-99"/>
            <Node pos="r" depth="3" NCoef="0" IVar="-1" Cut="0.0000000000000000e+00" cType="1" res="3.4227388096041977e-04" rms="2.9203939437866211e-01" purity="7.2036612033843994e-01" nType="-99"/>
          </Node>
        </Node>
        <Node pos="r" depth="1" NCoef="0" IVar="-1" Cut="0.0000000000000000e+00" cType="1" res="3.4606397151947021e-02" rms="2.6585826277732849e-01" purity="1.5657940506935120e-01" nType="-99"/>
      </Node>
    </BinaryTree>
    <BinaryTree type="DecisionTree" boostWeight="1.0000000000000000e+00" itree="354">
      <Node pos="s" depth="0" NCoef="0" IVar="9" Cut="3.9999964833259583e-01" cType="1" res="-1.8838401883840561e-03" rms="2.8630056977272034e-01" purity="4.9582132697105408e-01" nType="0">
        <Node pos="l" depth="1" NCoef="0" IVar="1" Cut="8.7603315711021423e-02" cType="1" res="1.5994501300156116e-03" rms="2.8659531474113464e-01" purity="5.2546006441116333e-01" nType="0">
          <Node pos="l" depth="2" NCoef="0" IVar="8" Cut="-1.4665434360504150e+00" cType="1" res="4.8197340220212936e-03" rms="2.9412353038787842e-01" purity="3.6718034744262695e-01" nType="0">
            <Node pos="l" depth="3" NCoef="0" IVar="-1" Cut="0.0000000000000000e+00" cType="1" res="-2.2333515807986259e-02" rms="2.1828073263168335e-01" purity="9.5966108143329620e-02" nType="-99"/>
            <Node pos="r" depth="3" NCoef="0" IVar="-1" Cut="0.0000000000000000e+00" cType="1" res="7.3940875008702278e-03" rms="3.0199071764945984e-01" purity="4.0018332004547119e-01" nType="-99"/>
          </Node>
          <Node pos="r" depth="2" NCoef="0" IVar="1" Cut="1.4077946543693542e-01" cType="1" res="-4.4182729907333851e-03" rms="2.7186718583106995e-01" purity="8.2123637199401855e-01" nType="0">
            <Node pos="l" depth="3" NCoef="0" IVar="-1" Cut="0.0000000000000000e+00" cType="1" res="-1.2039323337376118e-02" rms="2.9958811402320862e-01" purity="7.5406408309936523e-01" nType="-99"/>
            <Node pos="r" depth="3" NCoef="0" IVar="-1" Cut="0.0000000000000000e+00" cType="1" res="3.8026436232030392e-03" rms="2.4069713056087494e-01" purity="8.8860487937927246e-01" nType="-99"/>
          </Node>
        </Node>
        <Node pos="r" depth="1" NCoef="0" IVar="9" Cut="1.1999875307083130e+00" cType="1" res="-8.5194064304232597e-03" rms="2.8562074899673462e-01" purity="4.3936035037040710e-01" nType="0">
          <Node pos="l" depth="2" NCoef="0" IVar="6" Cut="6.6524581909179688e+01" cType="1" res="-1.4564102515578270e-02" rms="2.8832188248634338e-01" purity="5.2818620204925537e-01" nType="0">
            <Node pos="l" depth="3" NCoef="0" IVar="-1" Cut="0.0000000000000000e+00" cType="1" res="-2.2702030837535858e-02" rms="3.1000277400016785e-01" purity="3.1569680571556091e-01" nType="-99"/>
            <Node pos="r" depth="3" NCoef="0" IVar="-1" Cut="0.0000000000000000e+00" cType="1" res="-9.0417364845052361e-04" rms="2.4696126580238342e-01" purity="8.8571232557296753e-01" nType="-99"/>
          </Node>
          <Node pos="r" depth="2" NCoef="0" IVar="2" Cut="4.2087258911132812e+02" cType="1" res="1.9887401722371578e-03" rms="2.8055340051651001e-01" purity="2.8494486212730408e-01" nType="0">
            <Node pos="l" depth="3" NCoef="0" IVar="-1" Cut="0.0000000000000000e+00" cType="1" res="-6.4830207265913486e-03" rms="2.6510950922966003e-01" purity="2.5141465663909912e-01" nType="-99"/>
            <Node pos="r" depth="3" NCoef="0" IVar="-1" Cut="0.0000000000000000e+00" cType="1" res="1.9569858908653259e-02" rms="3.1504982709884644e-01" purity="3.6823987960815430e-01" nType="-99"/>
          </Node>
        </Node>
      </Node>
    </BinaryTree>
    <BinaryTree type="DecisionTree" boostWeight="1.0000000000000000e+00" itree="355">
      <Node pos="s" depth="0" NCoef="0" IVar="5" Cut="8.7484680175781250e+01" cType="1" res="3.6345180706121027e-04" rms="2.8844678401947021e-01" purity="5.0296562910079956e-01" nType="0">
        <Node pos="l" depth="1" NCoef="0" IVar="11" Cut="-2.7238190174102783e+00" cType="1" res="3.8990597240626812e-03" rms="3.0555880069732666e-01" purity="2.7928835153579712e-01" nType="0">
          <Node pos="l" depth="2" NCoef="0" IVar="1" Cut="1.0434890538454056e-01" cType="1" res="-4.0169610292650759e-04" rms="2.8585919737815857e-01" purity="1.7056946456432343e-01" nType="0">
            <Node pos="l" depth="3" NCoef="0" IVar="-1" Cut="0.0000000000000000e+00" cType="1" res="3.3156136050820351e-03" rms="2.6822283864021301e-01" purity="1.3548080623149872e-01" nType="-99"/>
            <Node pos="r" depth="3" NCoef="0" IVar="-1" Cut="0.0000000000000000e+00" cType="1" res="-1.3196866959333420e-02" rms="3.9393290877342224e-01" purity="4.3608176708221436e-01" nType="-99"/>
          </Node>
          <Node pos="r" depth="2" NCoef="0" IVar="2" Cut="4.4347061157226562e+02" cType="1" res="1.3318086974322796e-02" rms="3.4460556507110596e-01" purity="5.1739215850830078e-01" nType="0">
            <Node pos="l" depth="3" NCoef="0" IVar="-1" Cut="0.0000000000000000e+00" cType="1" res="1.7626421526074409e-02" rms="3.4317475557327271e-01" purity="5.0741803646087646e-01" nType="-99"/>
            <Node pos="r" depth="3" NCoef="0" IVar="-1" Cut="0.0000000000000000e+00" cType="1" res="-1.0319032706320286e-02" rms="3.4785437583923340e-01" purity="5.4857170581817627e-01" nType="-99"/>
          </Node>
        </Node>
        <Node pos="r" depth="1" NCoef="0" IVar="0" Cut="1.7044436035156250e+03" cType="1" res="-4.5498390682041645e-03" rms="2.6274442672729492e-01" purity="8.1380093097686768e-01" nType="0">
          <Node pos="l" depth="2" NCoef="0" IVar="2" Cut="2.8748678588867188e+02" cType="1" res="-1.3002479448914528e-02" rms="3.2861337065696716e-01" purity="6.4904016256332397e-01" nType="0">
            <Node pos="l" depth="3" NCoef="0" IVar="-1" Cut="0.0000000000000000e+00" cType="1" res="-1.9781657101702876e-05" rms="3.0283284187316895e-01" purity="7.1751272678375244e-01" nType="-99"/>
            <Node pos="r" depth="3" NCoef="0" IVar="-1" Cut="0.0000000000000000e+00" cType="1" res="-2.1289922297000885e-02" rms="3.5135620832443237e-01" purity="5.8263975381851196e-01" nType="-99"/>
          </Node>
          <Node pos="r" depth="2" NCoef="0" IVar="4" Cut="2.0620802307128906e+02" cType="1" res="9.5336063532158732e-04" rms="2.0880031585693359e-01" purity="9.2107045650482178e-01" nType="0">
            <Node pos="l" depth="3" NCoef="0" IVar="-1" Cut="0.0000000000000000e+00" cType="1" res="1.3751040212810040e-02" rms="2.2095605731010437e-01" purity="9.0448755025863647e-01" nType="-99"/>
            <Node pos="r" depth="3" NCoef="0" IVar="-1" Cut="0.0000000000000000e+00" cType="1" res="-6.7480374127626419e-03" rms="2.0128995180130005e-01" purity="9.3072599172592163e-01" nType="-99"/>
          </Node>
        </Node>
      </Node>
    </BinaryTree>
    <BinaryTree type="DecisionTree" boostWeight="1.0000000000000000e+00" itree="356">
      <Node pos="s" depth="0" NCoef="0" IVar="11" Cut="1.4190063476562500e+00" cType="1" res="-7.7612645691260695e-04" rms="2.8657317161560059e-01" purity="4.9763378500938416e-01" nType="0">
        <Node pos="l" depth="1" NCoef="0" IVar="3" Cut="3.9391723632812500e+02" cType="1" res="-1.8228302942588925e-03" rms="2.8406292200088501e-01" purity="4.8652002215385437e-01" nType="0">
          <Node pos="l" depth="2" NCoef="0" IVar="3" Cut="2.4895252990722656e+02" cType="1" res="-5.4630142403766513e-04" rms="2.8395125269889832e-01" purity="4.6632936596870422e-01" nType="0">
            <Node pos="l" depth="3" NCoef="0" IVar="-1" Cut="0.0000000000000000e+00" cType="1" res="-4.4119423255324364e-03" rms="2.8136500716209412e-01" purity="3.5958513617515564e-01" nType="-99"/>
            <Node pos="r" depth="3" NCoef="0" IVar="-1" Cut="0.0000000000000000e+00" cType="1" res="6.9251032546162605e-03" rms="2.8916901350021362e-01" purity="6.8907189369201660e-01" nType="-99"/>
          </Node>
          <Node pos="r" depth="2" NCoef="0" IVar="8" Cut="1.3357436656951904e-01" cType="1" res="-1.7386334016919136e-02" rms="2.8496149182319641e-01" purity="7.3268604278564453e-01" nType="0">
            <Node pos="l" depth="3" NCoef="0" IVar="-1" Cut="0.0000000000000000e+00" cType="1" res="-1.2791445478796959e-02" rms="2.8263667225837708e-01" purity="7.5359916687011719e-01" nType="-99"/>
            <Node pos="r" depth="3" NCoef="0" IVar="-1" Cut="0.0000000000000000e+00" cType="1" res="-3.6128688603639603e-02" rms="2.8835037350654602e-01" purity="6.9849330186843872e-01" nType="-99"/>
          </Node>
        </Node>
        <Node pos="r" depth="1" NCoef="0" IVar="4" Cut="1.5781938171386719e+02" cType="1" res="1.5212144702672958e-02" rms="3.2207462191581726e-01" purity="6.6739529371261597e-01" nType="0">
          <Node pos="l" depth="2" NCoef="0" IVar="-1" Cut="0.0000000000000000e+00" cType="1" res="2.2175468504428864e-02" rms="3.6148878931999207e-01" purity="5.0017076730728149e-01" nType="-99"/>
          <Node pos="r" depth="2" NCoef="0" IVar="-1" Cut="0.0000000000000000e+00" cType="1" res="7.5090224854648113e-03" rms="2.8600439429283142e-01" purity="8.0249863862991333e-01" nType="-99"/>
        </Node>
      </Node>
    </BinaryTree>
    <BinaryTree type="DecisionTree" boostWeight="1.0000000000000000e+00" itree="357">
      <Node pos="s" depth="0" NCoef="0" IVar="1" Cut="6.3623763620853424e-02" cType="1" res="2.8007340006297454e-05" rms="2.8685748577117920e-01" purity="4.9779081344604492e-01" nType="0">
        <Node pos="l" depth="1" NCoef="0" IVar="1" Cut="5.7565629482269287e-02" cType="1" res="3.0578542500734329e-03" rms="2.8554311394691467e-01" purity="2.7869787812232971e-01" nType="0">
          <Node pos="l" depth="2" NCoef="0" IVar="1" Cut="2.1940929815173149e-02" cType="1" res="4.5266468077898026e-03" rms="2.8157421946525574e-01" purity="2.6321998238563538e-01" nType="0">
            <Node pos="l" depth="3" NCoef="0" IVar="-1" Cut="0.0000000000000000e+00" cType="1" res="-5.5289319716393948e-03" rms="2.2861868143081665e-01" purity="1.2633807957172394e-01" nType="-99"/>
            <Node pos="r" depth="3" NCoef="0" IVar="-1" Cut="0.0000000000000000e+00" cType="1" res="1.0957962833344936e-02" rms="3.2205739617347717e-01" purity="3.8753932714462280e-01" nType="-99"/>
          </Node>
          <Node pos="r" depth="2" NCoef="0" IVar="-1" Cut="0.0000000000000000e+00" cType="1" res="-1.9352089613676071e-02" rms="3.4172150492668152e-01" purity="5.2501046657562256e-01" nType="-99"/>
        </Node>
        <Node pos="r" depth="1" NCoef="0" IVar="0" Cut="1.3460430908203125e+03" cType="1" res="-3.6818473599851131e-03" rms="2.8841537237167358e-01" purity="7.6605618000030518e-01" nType="0">
          <Node pos="l" depth="2" NCoef="0" IVar="7" Cut="-3.7742126733064651e-02" cType="1" res="-1.6542484983801842e-02" rms="3.7397882342338562e-01" purity="3.6578369140625000e-01" nType="0">
            <Node pos="l" depth="3" NCoef="0" IVar="-1" Cut="0.0000000000000000e+00" cType="1" res="-2.2987090051174164e-02" rms="3.6880779266357422e-01" purity="3.3920350670814514e-01" nType="-99"/>
            <Node pos="r" depth="3" NCoef="0" IVar="-1" Cut="0.0000000000000000e+00" cType="1" res="-8.6454325355589390e-04" rms="3.7804105877876282e-01" purity="3.9029261469841003e-01" nType="-99"/>
          </Node>
          <Node pos="r" depth="2" NCoef="0" IVar="5" Cut="6.7767143249511719e+01" cType="1" res="4.8248039092868567e-04" rms="2.5448060035705566e-01" purity="8.9566600322723389e-01" nType="0">
            <Node pos="l" depth="3" NCoef="0" IVar="-1" Cut="0.0000000000000000e+00" cType="1" res="1.9084863364696503e-02" rms="3.9029544591903687e-01" purity="6.9085204601287842e-01" nType="-99"/>
            <Node pos="r" depth="3" NCoef="0" IVar="-1" Cut="0.0000000000000000e+00" cType="1" res="-4.6309069730341434e-03" rms="2.3546347022056580e-01" purity="9.1722637414932251e-01" nType="-99"/>
          </Node>
        </Node>
      </Node>
    </BinaryTree>
    <BinaryTree type="DecisionTree" boostWeight="1.0000000000000000e+00" itree="358">
      <Node pos="s" depth="0" NCoef="0" IVar="10" Cut="-9.3342137336730957e-01" cType="1" res="9.1398542281240225e-04" rms="2.8575170040130615e-01" purity="5.0213193893432617e-01" nType="0">
        <Node pos="l" depth="1" NCoef="0" IVar="10" Cut="-2.0000472068786621e+00" cType="1" res="1.2215451337397099e-02" rms="2.8976997733116150e-01" purity="4.2328074574470520e-01" nType="0">
          <Node pos="l" depth="2" NCoef="0" IVar="-1" Cut="0.0000000000000000e+00" cType="1" res="-1.1392289772629738e-02" rms="2.6549258828163147e-01" purity="2.2907349467277527e-01" nType="-99"/>
          <Node pos="r" depth="2" NCoef="0" IVar="9" Cut="3.9958658814430237e-01" cType="1" res="1.7689986154437065e-02" rms="2.9562646150588989e-01" purity="4.7473379969596863e-01" nType="0">
            <Node pos="l" depth="3" NCoef="0" IVar="-1" Cut="0.0000000000000000e+00" cType="1" res="1.2926758266985416e-02" rms="2.9229351878166199e-01" purity="4.8387357592582703e-01" nType="-99"/>
            <Node pos="r" depth="3" NCoef="0" IVar="-1" Cut="0.0000000000000000e+00" cType="1" res="3.6727648228406906e-02" rms="3.0248048901557922e-01" purity="4.5408934354782104e-01" nType="-99"/>
          </Node>
        </Node>
        <Node pos="r" depth="1" NCoef="0" IVar="5" Cut="8.4275428771972656e+01" cType="1" res="-2.4552321992814541e-03" rms="2.8445592522621155e-01" purity="5.2563911676406860e-01" nType="0">
          <Node pos="l" depth="2" NCoef="0" IVar="2" Cut="3.2173962402343750e+02" cType="1" res="-6.2177930958569050e-03" rms="3.0065071582794189e-01" purity="2.6553165912628174e-01" nType="0">
            <Node pos="l" depth="3" NCoef="0" IVar="-1" Cut="0.0000000000000000e+00" cType="1" res="2.6672703097574413e-04" rms="2.9533109068870544e-01" purity="2.1966142952442169e-01" nType="-99"/>
            <Node pos="r" depth="3" NCoef="0" IVar="-1" Cut="0.0000000000000000e+00" cType="1" res="-1.1928351595997810e-02" rms="3.0496916174888611e-01" purity="3.0430975556373596e-01" nType="-99"/>
          </Node>
          <Node pos="r" depth="2" NCoef="0" IVar="3" Cut="2.9686563110351562e+02" cType="1" res="1.7165453173220158e-03" rms="2.6528444886207581e-01" purity="8.1403601169586182e-01" nType="0">
            <Node pos="l" depth="3" NCoef="0" IVar="-1" Cut="0.0000000000000000e+00" cType="1" res="7.3658456094563007e-03" rms="2.8129920363426208e-01" purity="7.8360354900360107e-01" nType="-99"/>
            <Node pos="r" depth="3" NCoef="0" IVar="-1" Cut="0.0000000000000000e+00" cType="1" res="-1.2445668689906597e-02" rms="2.3024313151836395e-01" purity="8.7401419878005981e-01" nType="-99"/>
          </Node>
        </Node>
      </Node>
    </BinaryTree>
    <BinaryTree type="DecisionTree" boostWeight="1.0000000000000000e+00" itree="359">
      <Node pos="s" depth="0" NCoef="0" IVar="8" Cut="-1.3319623470306396e-01" cType="1" res="1.1665245983749628e-03" rms="2.8972035646438599e-01" purity="5.0041824579238892e-01" nType="0">
        <Node pos="l" depth="1" NCoef="0" IVar="11" Cut="1.1411157846450806e+00" cType="1" res="-4.1236318647861481e-03" rms="2.8991132974624634e-01" purity="4.7515821456909180e-01" nType="0">
          <Node pos="l" depth="2" NCoef="0" IVar="7" Cut="-1.3823252916336060e+00" cType="1" res="-2.1960053127259016e-03" rms="2.8772002458572388e-01" purity="4.6180313825607300e-01" nType="0">
            <Node pos="l" depth="3" NCoef="0" IVar="-1" Cut="0.0000000000000000e+00" cType="1" res="4.4709019362926483e-02" rms="2.3523561656475067e-01" purity="1.4077977836132050e-01" nType="-99"/>
            <Node pos="r" depth="3" NCoef="0" IVar="-1" Cut="0.0000000000000000e+00" cType="1" res="-4.8841359093785286e-03" rms="2.9154315590858459e-01" purity="4.8833298683166504e-01" nType="-99"/>
          </Node>
          <Node pos="r" depth="2" NCoef="0" IVar="-1" Cut="0.0000000000000000e+00" cType="1" res="-2.8147097676992416e-02" rms="3.1386354565620422e-01" purity="6.3373684883117676e-01" nType="-99"/>
        </Node>
        <Node pos="r" depth="1" NCoef="0" IVar="10" Cut="-3.9999896287918091e-01" cType="1" res="5.4445792920887470e-03" rms="2.8949514031410217e-01" purity="5.2084559202194214e-01" nType="0">
          <Node pos="l" depth="2" NCoef="0" IVar="7" Cut="4.3354409933090210e-01" cType="1" res="1.3203958980739117e-02" rms="2.9451912641525269e-01" purity="5.1227343082427979e-01" nType="0">
            <Node pos="l" depth="3" NCoef="0" IVar="-1" Cut="0.0000000000000000e+00" cType="1" res="6.6448552533984184e-03" rms="2.9110494256019592e-01" purity="5.3873908519744873e-01" nType="-99"/>
            <Node pos="r" depth="3" NCoef="0" IVar="-1" Cut="0.0000000000000000e+00" cType="1" res="3.4992899745702744e-02" rms="3.0171188712120056e-01" purity="4.4971826672554016e-01" nType="-99"/>
          </Node>
          <Node pos="r" depth="2" NCoef="0" IVar="11" Cut="-2.1718642711639404e+00" cType="1" res="1.4364800881594419e-03" rms="2.8678330779075623e-01" purity="5.2527338266372681e-01" nType="0">
            <Node pos="l" depth="3" NCoef="0" IVar="-1" Cut="0.0000000000000000e+00" cType="1" res="-5.7539204135537148e-03" rms="2.9661324620246887e-01" purity="2.3909854888916016e-01" nType="-99"/>
            <Node pos="r" depth="3" NCoef="0" IVar="-1" Cut="0.0000000000000000e+00" cType="1" res="9.0500637888908386e-03" rms="2.7767539024353027e-01" purity="7.7821785211563110e-01" nType="-99"/>
          </Node>
        </Node>
      </Node>
    </BinaryTree>
    <BinaryTree type="DecisionTree" boostWeight="1.0000000000000000e+00" itree="360">
      <Node pos="s" depth="0" NCoef="0" IVar="11" Cut="-5.1430892944335938e-01" cType="1" res="-2.1294185717124492e-04" rms="2.8768861293792725e-01" purity="5.0109630823135376e-01" nType="0">
        <Node pos="l" depth="1" NCoef="0" IVar="7" Cut="-9.6859201788902283e-02" cType="1" res="2.6372810825705528e-03" rms="2.9543605446815491e-01" purity="3.6518573760986328e-01" nType="0">
          <Node pos="l" depth="2" NCoef="0" IVar="7" Cut="-1.2253082990646362e+00" cType="1" res="6.9953342899680138e-03" rms="2.9755574464797974e-01" purity="3.6612591147422791e-01" nType="0">
            <Node pos="l" depth="3" NCoef="0" IVar="-1" Cut="0.0000000000000000e+00" cType="1" res="-9.3878349289298058e-03" rms="1.9498446583747864e-01" purity="8.2086026668548584e-02" nType="-99"/>
            <Node pos="r" depth="3" NCoef="0" IVar="-1" Cut="0.0000000000000000e+00" cType="1" res="1.0549411177635193e-02" rms="3.2263776659965515e-01" purity="4.5384994149208069e-01" nType="-99"/>
          </Node>
          <Node pos="r" depth="2" NCoef="0" IVar="10" Cut="-6.6664212942123413e-01" cType="1" res="-1.4491084730252624e-03" rms="2.9337576031684875e-01" purity="3.6430415511131287e-01" nType="0">
            <Node pos="l" depth="3" NCoef="0" IVar="-1" Cut="0.0000000000000000e+00" cType="1" res="-1.7730383202433586e-02" rms="2.6958999037742615e-01" purity="3.1440612673759460e-01" nType="-99"/>
            <Node pos="r" depth="3" NCoef="0" IVar="-1" Cut="0.0000000000000000e+00" cType="1" res="4.0042418986558914e-03" rms="3.0219683051109314e-01" purity="3.8420861959457397e-01" nType="-99"/>
          </Node>
        </Node>
        <Node pos="r" depth="1" NCoef="0" IVar="1" Cut="8.4896244108676910e-02" cType="1" res="-5.4989354684948921e-03" rms="2.7265954017639160e-01" purity="7.5315475463867188e-01" nType="0">
          <Node pos="l" depth="2" NCoef="0" IVar="9" Cut="-4.0022176504135132e-01" cType="1" res="-1.2643482536077499e-02" rms="3.1262016296386719e-01" purity="5.9359890222549438e-01" nType="0">
            <Node pos="l" depth="3" NCoef="0" IVar="-1" Cut="0.0000000000000000e+00" cType="1" res="-9.9050719290971756e-04" rms="3.2991403341293335e-01" purity="5.5937117338180542e-01" nType="-99"/>
            <Node pos="r" depth="3" NCoef="0" IVar="-1" Cut="0.0000000000000000e+00" cType="1" res="-1.8715193495154381e-02" rms="3.0337139964103699e-01" purity="6.1083561182022095e-01" nType="-99"/>
          </Node>
          <Node pos="r" depth="2" NCoef="0" IVar="11" Cut="5.8993238210678101e-01" cType="1" res="1.6960313078016043e-03" rms="2.2513742744922638e-01" purity="9.1383659839630127e-01" nType="0">
            <Node pos="l" depth="3" NCoef="0" IVar="-1" Cut="0.0000000000000000e+00" cType="1" res="-8.0352323129773140e-03" rms="2.0745313167572021e-01" purity="9.1927540302276611e-01" nType="-99"/>
            <Node pos="r" depth="3" NCoef="0" IVar="-1" Cut="0.0000000000000000e+00" cType="1" res="1.2435540556907654e-02" rms="2.4269454181194305e-01" purity="9.0794783830642700e-01" nType="-99"/>
          </Node>
        </Node>
      </Node>
    </BinaryTree>
    <BinaryTree type="DecisionTree" boostWeight="1.0000000000000000e+00" itree="361">
      <Node pos="s" depth="0" NCoef="0" IVar="11" Cut="-1.8952757120132446e+00" cType="1" res="2.9771914705634117e-04" rms="2.8942161798477173e-01" purity="4.9809840321540833e-01" nType="0">
        <Node pos="l" depth="1" NCoef="0" IVar="8" Cut="-1.3303595781326294e-01" cType="1" res="5.9903780929744244e-03" rms="2.9934585094451904e-01" purity="2.5103548169136047e-01" nType="0">
          <Node pos="l" depth="2" NCoef="0" IVar="10" Cut="-1.1996800899505615e+00" cType="1" res="-3.4317271783947945e-03" rms="2.8409796953201294e-01" purity="2.2779594361782074e-01" nType="0">
            <Node pos="l" depth="3" NCoef="0" IVar="-1" Cut="0.0000000000000000e+00" cType="1" res="2.0393848419189453e-02" rms="2.8137555718421936e-01" purity="1.7655919492244720e-01" nType="-99"/>
            <Node pos="r" depth="3" NCoef="0" IVar="-1" Cut="0.0000000000000000e+00" cType="1" res="-9.9370554089546204e-03" rms="2.8465268015861511e-01" purity="2.4239520728588104e-01" nType="-99"/>
          </Node>
          <Node pos="r" depth="2" NCoef="0" IVar="9" Cut="-1.1983596086502075e+00" cType="1" res="1.3814679346978664e-02" rms="3.1122446060180664e-01" purity="2.7033403515815735e-01" nType="0">
            <Node pos="l" depth="3" NCoef="0" IVar="-1" Cut="0.0000000000000000e+00" cType="1" res="-1.3522381894290447e-02" rms="2.3094061017036438e-01" purity="1.0588192939758301e-01" nType="-99"/>
            <Node pos="r" depth="3" NCoef="0" IVar="-1" Cut="0.0000000000000000e+00" cType="1" res="1.8399737775325775e-02" rms="3.2242304086685181e-01" purity="2.9750427603721619e-01" nType="-99"/>
          </Node>
        </Node>
        <Node pos="r" depth="1" NCoef="0" IVar="0" Cut="1.3562666015625000e+03" cType="1" res="-5.4661808535456657e-03" rms="2.7889537811279297e-01" purity="7.4825316667556763e-01" nType="0">
          <Node pos="l" depth="2" NCoef="0" IVar="5" Cut="7.0759574890136719e+01" cType="1" res="-2.4514516815543175e-02" rms="3.5812333226203918e-01" purity="3.3867445588111877e-01" nType="0">
            <Node pos="l" depth="3" NCoef="0" IVar="-1" Cut="0.0000000000000000e+00" cType="1" res="-4.4855363667011261e-03" rms="3.3757862448692322e-01" purity="2.2945655882358551e-01" nType="-99"/>
            <Node pos="r" depth="3" NCoef="0" IVar="-1" Cut="0.0000000000000000e+00" cType="1" res="-2.6403864845633507e-02" rms="3.7251010537147522e-01" purity="4.2292925715446472e-01" nType="-99"/>
          </Node>
          <Node pos="r" depth="2" NCoef="0" IVar="0" Cut="1.6056782226562500e+03" cType="1" res="-8.4187119500711560e-04" rms="2.5577485561370850e-01" purity="8.4768545627593994e-01" nType="0">
            <Node pos="l" depth="3" NCoef="0" IVar="-1" Cut="0.0000000000000000e+00" cType="1" res="-1.1719898320734501e-02" rms="3.2685303688049316e-01" purity="6.9049334526062012e-01" nType="-99"/>
            <Node pos="r" depth="3" NCoef="0" IVar="-1" Cut="0.0000000000000000e+00" cType="1" res="6.5961047075688839e-03" rms="2.2508881986141205e-01" purity="9.0342402458190918e-01" nType="-99"/>
          </Node>
        </Node>
      </Node>
    </BinaryTree>
    <BinaryTree type="DecisionTree" boostWeight="1.0000000000000000e+00" itree="362">
      <Node pos="s" depth="0" NCoef="0" IVar="9" Cut="1.2001080513000488e+00" cType="1" res="2.3727216757833958e-03" rms="2.9096564650535583e-01" purity="4.9766117334365845e-01" nType="0">
        <Node pos="l" depth="1" NCoef="0" IVar="9" Cut="-1.0853630304336548e+00" cType="1" res="3.9465306326746941e-03" rms="2.9413777589797974e-01" purity="5.3169184923171997e-01" nType="0">
          <Node pos="l" depth="2" NCoef="0" IVar="10" Cut="3.9990684390068054e-01" cType="1" res="-5.7247527875006199e-03" rms="2.8229311108589172e-01" purity="3.0215334892272949e-01" nType="0">
            <Node pos="l" depth="3" NCoef="0" IVar="-1" Cut="0.0000000000000000e+00" cType="1" res="5.0670709460973740e-03" rms="2.8351250290870667e-01" purity="3.1789728999137878e-01" nType="-99"/>
            <Node pos="r" depth="3" NCoef="0" IVar="-1" Cut="0.0000000000000000e+00" cType="1" res="-3.1703140586614609e-02" rms="2.7866926789283752e-01" purity="2.6961922645568848e-01" nType="-99"/>
          </Node>
          <Node pos="r" depth="2" NCoef="0" IVar="5" Cut="7.0670593261718750e+01" cType="1" res="6.1042574234306812e-03" rms="2.9667288064956665e-01" purity="5.8290344476699829e-01" nType="0">
            <Node pos="l" depth="3" NCoef="0" IVar="-1" Cut="0.0000000000000000e+00" cType="1" res="1.4311371371150017e-02" rms="3.1936571002006531e-01" purity="2.5698262453079224e-01" nType="-99"/>
            <Node pos="r" depth="3" NCoef="0" IVar="-1" Cut="0.0000000000000000e+00" cType="1" res="2.3259001318365335e-03" rms="2.8304481506347656e-01" purity="7.6592993736267090e-01" nType="-99"/>
          </Node>
        </Node>
        <Node pos="r" depth="1" NCoef="0" IVar="5" Cut="9.3100349426269531e+01" cType="1" res="-8.2479557022452354e-03" rms="2.6834011077880859e-01" purity="2.6800873875617981e-01" nType="0">
          <Node pos="l" depth="2" NCoef="0" IVar="5" Cut="6.4365211486816406e+01" cType="1" res="-1.4643434435129166e-02" rms="2.5432190299034119e-01" purity="1.4290368556976318e-01" nType="0">
            <Node pos="l" depth="3" NCoef="0" IVar="-1" Cut="0.0000000000000000e+00" cType="1" res="-9.8276464268565178e-03" rms="2.2113104164600372e-01" purity="8.2993574440479279e-02" nType="-99"/>
            <Node pos="r" depth="3" NCoef="0" IVar="-1" Cut="0.0000000000000000e+00" cType="1" res="-2.8097106143832207e-02" rms="2.9350873827934265e-01" purity="2.2553856670856476e-01" nType="-99"/>
          </Node>
          <Node pos="r" depth="2" NCoef="0" IVar="-1" Cut="0.0000000000000000e+00" cType="1" res="1.2313138693571091e-02" rms="3.0852553248405457e-01" purity="6.7343360185623169e-01" nType="-99"/>
        </Node>
      </Node>
    </BinaryTree>
    <BinaryTree type="DecisionTree" boostWeight="1.0000000000000000e+00" itree="363">
      <Node pos="s" depth="0" NCoef="0" IVar="3" Cut="1.4297981262207031e+02" cType="1" res="1.2120191240683198e-03" rms="2.8883796930313110e-01" purity="5.0270497798919678e-01" nType="0">
        <Node pos="l" depth="1" NCoef="0" IVar="4" Cut="1.0784768676757812e+02" cType="1" res="1.0559286922216415e-02" rms="2.3986700177192688e-01" purity="1.1562603712081909e-01" nType="0">
          <Node pos="l" depth="2" NCoef="0" IVar="7" Cut="-6.4491218328475952e-01" cType="1" res="3.0209261458367109e-03" rms="2.0172162353992462e-01" purity="6.7858837544918060e-02" nType="0">
            <Node pos="l" depth="3" NCoef="0" IVar="-1" Cut="0.0000000000000000e+00" cType="1" res="-4.4944182038307190e-02" rms="1.3236512243747711e-01" purity="1.9837928935885429e-02" nType="-99"/>
            <Node pos="r" depth="3" NCoef="0" IVar="-1" Cut="0.0000000000000000e+00" cType="1" res="1.9495101645588875e-02" rms="2.2543551027774811e-01" purity="8.9138686656951904e-02" nType="-99"/>
          </Node>
          <Node pos="r" depth="2" NCoef="0" IVar="-1" Cut="0.0000000000000000e+00" cType="1" res="3.6027114838361740e-02" rms="3.2685056328773499e-01" purity="2.5731104612350464e-01" nType="-99"/>
        </Node>
        <Node pos="r" depth="1" NCoef="0" IVar="9" Cut="1.7331051826477051e+00" cType="1" res="-5.0048815319314599e-04" rms="2.9690393805503845e-01" purity="5.7362157106399536e-01" nType="0">
          <Node pos="l" depth="2" NCoef="0" IVar="11" Cut="-1.8952993154525757e+00" cType="1" res="6.2573910690844059e-04" rms="2.9908263683319092e-01" purity="5.9284436702728271e-01" nType="0">
            <Node pos="l" depth="3" NCoef="0" IVar="-1" Cut="0.0000000000000000e+00" cType="1" res="-3.1246149446815252e-03" rms="3.2844814658164978e-01" purity="3.1860858201980591e-01" nType="-99"/>
            <Node pos="r" depth="3" NCoef="0" IVar="-1" Cut="0.0000000000000000e+00" cType="1" res="4.7798836603760719e-03" rms="2.7415812015533447e-01" purity="8.0514729022979736e-01" nType="-99"/>
          </Node>
          <Node pos="r" depth="2" NCoef="0" IVar="-1" Cut="0.0000000000000000e+00" cType="1" res="-2.9437229037284851e-02" rms="2.4919335544109344e-01" purity="1.9553634524345398e-01" nType="-99"/>
        </Node>
      </Node>
    </BinaryTree>
    <BinaryTree type="DecisionTree" boostWeight="1.0000000000000000e+00" itree="364">
      <Node pos="s" depth="0" NCoef="0" IVar="8" Cut="1.3350622355937958e-01" cType="1" res="-7.6537247514352202e-04" rms="2.8692352771759033e-01" purity="4.9622079730033875e-01" nType="0">
        <Node pos="l" depth="1" NCoef="0" IVar="10" Cut="-1.4667187929153442e+00" cType="1" res="2.5454908609390259e-03" rms="2.8666952252388000e-01" purity="5.1599496603012085e-01" nType="0">
          <Node pos="l" depth="2" NCoef="0" IVar="6" Cut="5.0235691070556641e+01" cType="1" res="1.6485871747136116e-02" rms="2.9183244705200195e-01" purity="3.5640978813171387e-01" nType="0">
            <Node pos="l" depth="3" NCoef="0" IVar="-1" Cut="0.0000000000000000e+00" cType="1" res="7.1931350976228714e-03" rms="2.7231800556182861e-01" purity="1.4389283955097198e-01" nType="-99"/>
            <Node pos="r" depth="3" NCoef="0" IVar="-1" Cut="0.0000000000000000e+00" cType="1" res="3.2012809067964554e-02" rms="3.1592166423797607e-01" purity="6.4739525318145752e-01" nType="-99"/>
          </Node>
          <Node pos="r" depth="2" NCoef="0" IVar="10" Cut="7.6812165975570679e-01" cType="1" res="3.7964663351885974e-04" rms="2.8579801321029663e-01" purity="5.4078888893127441e-01" nType="0">
            <Node pos="l" depth="3" NCoef="0" IVar="-1" Cut="0.0000000000000000e+00" cType="1" res="-2.5820250157266855e-03" rms="2.8229227662086487e-01" purity="5.6812500953674316e-01" nType="-99"/>
            <Node pos="r" depth="3" NCoef="0" IVar="-1" Cut="0.0000000000000000e+00" cType="1" res="8.2547795027494431e-03" rms="2.9504680633544922e-01" purity="4.6619036793708801e-01" nType="-99"/>
          </Node>
        </Node>
        <Node pos="r" depth="1" NCoef="0" IVar="9" Cut="1.4664958715438843e+00" cType="1" res="-4.8933611251413822e-03" rms="2.8718641400337219e-01" purity="4.7156637907028198e-01" nType="0">
          <Node pos="l" depth="2" NCoef="0" IVar="11" Cut="3.7907510995864868e-02" cType="1" res="-2.9213347006589174e-03" rms="2.9222404956817627e-01" purity="5.0326478481292725e-01" nType="0">
            <Node pos="l" depth="3" NCoef="0" IVar="-1" Cut="0.0000000000000000e+00" cType="1" res="1.2298146029934287e-03" rms="2.9692453145980835e-01" purity="4.0670844912528992e-01" nType="-99"/>
            <Node pos="r" depth="3" NCoef="0" IVar="-1" Cut="0.0000000000000000e+00" cType="1" res="-1.6349945217370987e-02" rms="2.7961003780364990e-01" purity="7.4970334768295288e-01" nType="-99"/>
          </Node>
          <Node pos="r" depth="2" NCoef="0" IVar="-1" Cut="0.0000000000000000e+00" cType="1" res="-3.2243989408016205e-02" rms="2.3738549649715424e-01" purity="1.9152937829494476e-01" nType="-99"/>
        </Node>
      </Node>
    </BinaryTree>
    <BinaryTree type="DecisionTree" boostWeight="1.0000000000000000e+00" itree="365">
      <Node pos="s" depth="0" NCoef="0" IVar="11" Cut="1.4186022281646729e+00" cType="1" res="1.2954769190400839e-03" rms="2.8958171606063843e-01" purity="5.0587916374206543e-01" nType="0">
        <Node pos="l" depth="1" NCoef="0" IVar="1" Cut="4.1732858866453171e-02" cType="1" res="2.4796303478069603e-04" rms="2.8815162181854248e-01" purity="4.9486482143402100e-01" nType="0">
          <Node pos="l" depth="2" NCoef="0" IVar="7" Cut="9.4492220878601074e-01" cType="1" res="5.0087049603462219e-03" rms="2.6810526847839355e-01" purity="2.0786194503307343e-01" nType="0">
            <Node pos="l" depth="3" NCoef="0" IVar="-1" Cut="0.0000000000000000e+00" cType="1" res="1.1623413302004337e-02" rms="2.8786119818687439e-01" purity="2.4831311404705048e-01" nType="-99"/>
            <Node pos="r" depth="3" NCoef="0" IVar="-1" Cut="0.0000000000000000e+00" cType="1" res="-1.7611162737011909e-02" rms="1.9771188497543335e-01" purity="8.7940379977226257e-02" nType="-99"/>
          </Node>
          <Node pos="r" depth="2" NCoef="0" IVar="4" Cut="9.6173805236816406e+01" cType="1" res="-3.1192703172564507e-03" rms="3.0148124694824219e-01" purity="6.9785958528518677e-01" nType="0">
            <Node pos="l" depth="3" NCoef="0" IVar="-1" Cut="0.0000000000000000e+00" cType="1" res="2.3038897663354874e-02" rms="2.9270040988922119e-01" purity="1.6670800745487213e-01" nType="-99"/>
            <Node pos="r" depth="3" NCoef="0" IVar="-1" Cut="0.0000000000000000e+00" cType="1" res="-5.4155807010829449e-03" rms="3.0213204026222229e-01" purity="7.4240285158157349e-01" nType="-99"/>
          </Node>
        </Node>
        <Node pos="r" depth="1" NCoef="0" IVar="9" Cut="1.3365976512432098e-01" cType="1" res="1.7339296638965607e-02" rms="3.1022211909294128e-01" purity="6.7457550764083862e-01" nType="0">
          <Node pos="l" depth="2" NCoef="0" IVar="-1" Cut="0.0000000000000000e+00" cType="1" res="1.4278681017458439e-02" rms="3.0771207809448242e-01" purity="6.9059288501739502e-01" nType="-99"/>
          <Node pos="r" depth="2" NCoef="0" IVar="-1" Cut="0.0000000000000000e+00" cType="1" res="2.0157696679234505e-02" rms="3.1281217932701111e-01" purity="6.5766835212707520e-01" nType="-99"/>
        </Node>
      </Node>
    </BinaryTree>
    <BinaryTree type="DecisionTree" boostWeight="1.0000000000000000e+00" itree="366">
      <Node pos="s" depth="0" NCoef="0" IVar="2" Cut="4.7953204345703125e+02" cType="1" res="9.3243148876354098e-04" rms="2.8746503591537476e-01" purity="5.0239884853363037e-01" nType="0">
        <Node pos="l" depth="1" NCoef="0" IVar="4" Cut="2.0459939575195312e+02" cType="1" res="3.8248300552368164e-03" rms="2.8507205843925476e-01" purity="4.7966906428337097e-01" nType="0">
          <Node pos="l" depth="2" NCoef="0" IVar="4" Cut="1.0974594116210938e+02" cType="1" res="6.3323737122118473e-03" rms="2.9124799370765686e-01" purity="3.9416846632957458e-01" nType="0">
            <Node pos="l" depth="3" NCoef="0" IVar="-1" Cut="0.0000000000000000e+00" cType="1" res="-5.2434513345360756e-03" rms="2.3345363140106201e-01" purity="9.8497636616230011e-02" nType="-99"/>
            <Node pos="r" depth="3" NCoef="0" IVar="-1" Cut="0.0000000000000000e+00" cType="1" res="1.0893065482378006e-02" rms="3.1560513377189636e-01" purity="5.3890252113342285e-01" nType="-99"/>
          </Node>
          <Node pos="r" depth="2" NCoef="0" IVar="2" Cut="3.5146044921875000e+02" cType="1" res="-5.8918953873217106e-03" rms="2.5952824950218201e-01" purity="8.1098383665084839e-01" nType="0">
            <Node pos="l" depth="3" NCoef="0" IVar="-1" Cut="0.0000000000000000e+00" cType="1" res="-2.2376472130417824e-02" rms="2.6238223910331726e-01" purity="7.8588795661926270e-01" nType="-99"/>
            <Node pos="r" depth="3" NCoef="0" IVar="-1" Cut="0.0000000000000000e+00" cType="1" res="8.3332369104027748e-04" rms="2.5737896561622620e-01" purity="8.2796227931976318e-01" nType="-99"/>
          </Node>
        </Node>
        <Node pos="r" depth="1" NCoef="0" IVar="3" Cut="4.1480239868164062e+02" cType="1" res="-9.2813856899738312e-03" rms="2.9553398489952087e-01" purity="5.8266359567642212e-01" nType="0">
          <Node pos="l" depth="2" NCoef="0" IVar="0" Cut="2.1765541992187500e+03" cType="1" res="-1.4063159935176373e-02" rms="2.9455870389938354e-01" purity="5.2760076522827148e-01" nType="0">
            <Node pos="l" depth="3" NCoef="0" IVar="-1" Cut="0.0000000000000000e+00" cType="1" res="-1.8088134005665779e-02" rms="3.1548008322715759e-01" purity="3.9146718382835388e-01" nType="-99"/>
            <Node pos="r" depth="3" NCoef="0" IVar="-1" Cut="0.0000000000000000e+00" cType="1" res="-5.7555292733013630e-03" rms="2.2892360389232635e-01" purity="8.9236104488372803e-01" nType="-99"/>
          </Node>
          <Node pos="r" depth="2" NCoef="0" IVar="11" Cut="-1.6200567483901978e+00" cType="1" res="5.2096606232225895e-03" rms="2.9800188541412354e-01" purity="7.4953031539916992e-01" nType="0">
            <Node pos="l" depth="3" NCoef="0" IVar="-1" Cut="0.0000000000000000e+00" cType="1" res="2.1090025082230568e-02" rms="3.5277095437049866e-01" purity="5.9272783994674683e-01" nType="-99"/>
            <Node pos="r" depth="3" NCoef="0" IVar="-1" Cut="0.0000000000000000e+00" cType="1" res="-2.0688835531473160e-02" rms="2.3987302184104919e-01" purity="8.8436335325241089e-01" nType="-99"/>
          </Node>
        </Node>
      </Node>
    </BinaryTree>
    <BinaryTree type="DecisionTree" boostWeight="1.0000000000000000e+00" itree="367">
      <Node pos="s" depth="0" NCoef="0" IVar="8" Cut="-1.3333745300769806e-01" cType="1" res="2.4397738743573427e-03" rms="2.8952389955520630e-01" purity="5.0228404998779297e-01" nType="0">
        <Node pos="l" depth="1" NCoef="0" IVar="4" Cut="9.8314445495605469e+01" cType="1" res="7.2285919450223446e-03" rms="2.9015800356864929e-01" purity="4.8735952377319336e-01" nType="0">
          <Node pos="l" depth="2" NCoef="0" IVar="2" Cut="2.9093997192382812e+02" cType="1" res="-6.1313058249652386e-03" rms="1.9850298762321472e-01" purity="6.2439076602458954e-02" nType="0">
            <Node pos="l" depth="3" NCoef="0" IVar="-1" Cut="0.0000000000000000e+00" cType="1" res="4.6579074114561081e-03" rms="1.9893895089626312e-01" purity="6.6851340234279633e-02" nType="-99"/>
            <Node pos="r" depth="3" NCoef="0" IVar="-1" Cut="0.0000000000000000e+00" cType="1" res="-2.4787353351712227e-02" rms="1.9800513982772827e-01" purity="5.9404432773590088e-02" nType="-99"/>
          </Node>
          <Node pos="r" depth="2" NCoef="0" IVar="6" Cut="6.6524581909179688e+01" cType="1" res="9.8948953673243523e-03" rms="3.0510252714157104e-01" purity="5.7216304540634155e-01" nType="0">
            <Node pos="l" depth="3" NCoef="0" IVar="-1" Cut="0.0000000000000000e+00" cType="1" res="1.4472369104623795e-02" rms="3.3400958776473999e-01" purity="3.8735574483871460e-01" nType="-99"/>
            <Node pos="r" depth="3" NCoef="0" IVar="-1" Cut="0.0000000000000000e+00" cType="1" res="1.2286037672311068e-03" rms="2.5329196453094482e-01" purity="8.6020475625991821e-01" nType="-99"/>
          </Node>
        </Node>
        <Node pos="r" depth="1" NCoef="0" IVar="7" Cut="-6.4513760805130005e-01" cType="1" res="-1.4875032939016819e-03" rms="2.8894361853599548e-01" purity="5.1452362537384033e-01" nType="0">
          <Node pos="l" depth="2" NCoef="0" IVar="7" Cut="-8.4695327281951904e-01" cType="1" res="8.8115148246288300e-03" rms="2.7842989563941956e-01" purity="3.4821119904518127e-01" nType="0">
            <Node pos="l" depth="3" NCoef="0" IVar="-1" Cut="0.0000000000000000e+00" cType="1" res="2.5810976512730122e-03" rms="2.5543019175529480e-01" purity="2.7502852678298950e-01" nType="-99"/>
            <Node pos="r" depth="3" NCoef="0" IVar="-1" Cut="0.0000000000000000e+00" cType="1" res="3.1297806650400162e-02" rms="3.3340439200401306e-01" purity="5.5184376239776611e-01" nType="-99"/>
          </Node>
          <Node pos="r" depth="2" NCoef="0" IVar="1" Cut="8.4829971194267273e-02" cType="1" res="-4.2361109517514706e-03" rms="2.9162400960922241e-01" purity="5.5890911817550659e-01" nType="0">
            <Node pos="l" depth="3" NCoef="0" IVar="-1" Cut="0.0000000000000000e+00" cType="1" res="-1.1353627778589725e-02" rms="2.9953879117965698e-01" purity="3.7652879953384399e-01" nType="-99"/>
            <Node pos="r" depth="3" NCoef="0" IVar="-1" Cut="0.0000000000000000e+00" cType="1" res="6.4334329217672348e-03" rms="2.7940535545349121e-01" purity="8.2535177469253540e-01" nType="-99"/>
          </Node>
        </Node>
      </Node>
    </BinaryTree>
    <BinaryTree type="DecisionTree" boostWeight="1.0000000000000000e+00" itree="368">
      <Node pos="s" depth="0" NCoef="0" IVar="8" Cut="4.0010446310043335e-01" cType="1" res="-4.8557831905782223e-04" rms="2.8728151321411133e-01" purity="5.0115126371383667e-01" nType="0">
        <Node pos="l" depth="1" NCoef="0" IVar="0" Cut="1.3898133544921875e+03" cType="1" res="1.6604209085926414e-03" rms="2.8943547606468201e-01" purity="5.4087585210800171e-01" nType="0">
          <Node pos="l" depth="2" NCoef="0" IVar="8" Cut="-1.5805248022079468e+00" cType="1" res="6.7397956736385822e-03" rms="3.0237805843353271e-01" purity="2.0663268864154816e-01" nType="0">
            <Node pos="l" depth="3" NCoef="0" IVar="-1" Cut="0.0000000000000000e+00" cType="1" res="-3.4738976508378983e-02" rms="1.5427283942699432e-01" purity="3.0261898413300514e-02" nType="-99"/>
            <Node pos="r" depth="3" NCoef="0" IVar="-1" Cut="0.0000000000000000e+00" cType="1" res="1.0044217109680176e-02" rms="3.2384049892425537e-01" purity="2.4186694622039795e-01" nType="-99"/>
          </Node>
          <Node pos="r" depth="2" NCoef="0" IVar="10" Cut="3.9936748147010803e-01" cType="1" res="-1.7765340162441134e-03" rms="2.8028693795204163e-01" purity="7.6704114675521851e-01" nType="0">
            <Node pos="l" depth="3" NCoef="0" IVar="-1" Cut="0.0000000000000000e+00" cType="1" res="-7.0399572141468525e-03" rms="2.7813619375228882e-01" purity="7.6880955696105957e-01" nType="-99"/>
            <Node pos="r" depth="3" NCoef="0" IVar="-1" Cut="0.0000000000000000e+00" cType="1" res="6.6916113719344139e-03" rms="2.8427657485008240e-01" purity="7.6360565423965454e-01" nType="-99"/>
          </Node>
        </Node>
        <Node pos="r" depth="1" NCoef="0" IVar="0" Cut="1.6275792236328125e+03" cType="1" res="-4.7223540022969246e-03" rms="2.8293314576148987e-01" purity="4.2272427678108215e-01" nType="0">
          <Node pos="l" depth="2" NCoef="0" IVar="10" Cut="-6.6634511947631836e-01" cType="1" res="-9.3410685658454895e-03" rms="2.8703546524047852e-01" purity="2.4206332862377167e-01" nType="0">
            <Node pos="l" depth="3" NCoef="0" IVar="-1" Cut="0.0000000000000000e+00" cType="1" res="1.0486906394362450e-02" rms="2.8119120001792908e-01" purity="2.2689655423164368e-01" nType="-99"/>
            <Node pos="r" depth="3" NCoef="0" IVar="-1" Cut="0.0000000000000000e+00" cType="1" res="-1.7698466777801514e-02" rms="2.8886011242866516e-01" purity="2.4758206307888031e-01" nType="-99"/>
          </Node>
          <Node pos="r" depth="2" NCoef="0" IVar="10" Cut="-3.9912009239196777e-01" cType="1" res="4.5835259370505810e-03" rms="2.7424544095993042e-01" purity="7.8672379255294800e-01" nType="0">
            <Node pos="l" depth="3" NCoef="0" IVar="-1" Cut="0.0000000000000000e+00" cType="1" res="-8.1586064770817757e-03" rms="2.8725165128707886e-01" purity="7.4763339757919312e-01" nType="-99"/>
            <Node pos="r" depth="3" NCoef="0" IVar="-1" Cut="0.0000000000000000e+00" cType="1" res="1.2330198660492897e-02" rms="2.6838210225105286e-01" purity="8.0336236953735352e-01" nType="-99"/>
          </Node>
        </Node>
      </Node>
    </BinaryTree>
    <BinaryTree type="DecisionTree" boostWeight="1.0000000000000000e+00" itree="369">
      <Node pos="s" depth="0" NCoef="0" IVar="7" Cut="-3.9020085334777832e-01" cType="1" res="-4.0296863880939782e-04" rms="2.8673562407493591e-01" purity="5.0010472536087036e-01" nType="0">
        <Node pos="l" depth="1" NCoef="0" IVar="7" Cut="-6.1808174848556519e-01" cType="1" res="-7.6858121901750565e-03" rms="2.7949991822242737e-01" purity="4.0049433708190918e-01" nType="0">
          <Node pos="l" depth="2" NCoef="0" IVar="1" Cut="6.3583493232727051e-02" cType="1" res="-3.4513568971306086e-03" rms="2.7562007308006287e-01" purity="3.4404480457305908e-01" nType="0">
            <Node pos="l" depth="3" NCoef="0" IVar="-1" Cut="0.0000000000000000e+00" cType="1" res="4.0861303568817675e-04" rms="2.5717177987098694e-01" purity="2.0707069337368011e-01" nType="-99"/>
            <Node pos="r" depth="3" NCoef="0" IVar="-1" Cut="0.0000000000000000e+00" cType="1" res="-1.3081108219921589e-02" rms="3.1712931394577026e-01" purity="6.8864762783050537e-01" nType="-99"/>
          </Node>
          <Node pos="r" depth="2" NCoef="0" IVar="4" Cut="1.4379762268066406e+02" cType="1" res="-1.9918251782655716e-02" rms="2.9007002711296082e-01" purity="5.6356513500213623e-01" nType="0">
            <Node pos="l" depth="3" NCoef="0" IVar="-1" Cut="0.0000000000000000e+00" cType="1" res="-4.8938926309347153e-02" rms="2.9994353652000427e-01" purity="2.1957859396934509e-01" nType="-99"/>
            <Node pos="r" depth="3" NCoef="0" IVar="-1" Cut="0.0000000000000000e+00" cType="1" res="2.0705887582153082e-03" rms="2.8116407990455627e-01" purity="7.9579311609268188e-01" nType="-99"/>
          </Node>
        </Node>
        <Node pos="r" depth="1" NCoef="0" IVar="10" Cut="1.9999635219573975e+00" cType="1" res="3.1211725436151028e-03" rms="2.9010653495788574e-01" purity="5.4830580949783325e-01" nType="0">
          <Node pos="l" depth="2" NCoef="0" IVar="9" Cut="-6.6639238595962524e-01" cType="1" res="4.4345855712890625e-03" rms="2.9082018136978149e-01" purity="5.6317961215972900e-01" nType="0">
            <Node pos="l" depth="3" NCoef="0" IVar="-1" Cut="0.0000000000000000e+00" cType="1" res="1.5256780199706554e-02" rms="3.0178466439247131e-01" purity="4.7680950164794922e-01" nType="-99"/>
            <Node pos="r" depth="3" NCoef="0" IVar="-1" Cut="0.0000000000000000e+00" cType="1" res="1.7602518200874329e-03" rms="2.8716796636581421e-01" purity="5.9076178073883057e-01" nType="-99"/>
          </Node>
          <Node pos="r" depth="2" NCoef="0" IVar="-1" Cut="0.0000000000000000e+00" cType="1" res="-2.6160344481468201e-02" rms="2.7477049827575684e-01" purity="2.6167780160903931e-01" nType="-99"/>
        </Node>
      </Node>
    </BinaryTree>
    <BinaryTree type="DecisionTree" boostWeight="1.0000000000000000e+00" itree="370">
      <Node pos="s" depth="0" NCoef="0" IVar="9" Cut="-1.4665843248367310e+00" cType="1" res="2.2169014846440405e-04" rms="2.9050779342651367e-01" purity="4.9720692634582520e-01" nType="0">
        <Node pos="l" depth="1" NCoef="0" IVar="7" Cut="1.8545563519001007e-01" cType="1" res="1.3469030149281025e-02" rms="2.8581297397613525e-01" purity="2.3629568517208099e-01" nType="0">
          <Node pos="l" depth="2" NCoef="0" IVar="8" Cut="-1.3348489999771118e-01" cType="1" res="4.4820093899033964e-04" rms="2.8237327933311462e-01" purity="2.5069060921669006e-01" nType="0">
            <Node pos="l" depth="3" NCoef="0" IVar="-1" Cut="0.0000000000000000e+00" cType="1" res="1.6686158254742622e-02" rms="3.0641752481460571e-01" purity="2.7723050117492676e-01" nType="-99"/>
            <Node pos="r" depth="3" NCoef="0" IVar="-1" Cut="0.0000000000000000e+00" cType="1" res="-1.8283048644661903e-02" rms="2.5245219469070435e-01" purity="2.2152841091156006e-01" nType="-99"/>
          </Node>
          <Node pos="r" depth="2" NCoef="0" IVar="-1" Cut="0.0000000000000000e+00" cType="1" res="4.8891037702560425e-02" rms="2.8981432318687439e-01" purity="2.1461860835552216e-01" nType="-99"/>
        </Node>
        <Node pos="r" depth="1" NCoef="0" IVar="7" Cut="9.3694734573364258e-01" cType="1" res="-1.0700061684474349e-03" rms="2.9092922806739807e-01" purity="5.2264732122421265e-01" nType="0">
          <Node pos="l" depth="2" NCoef="0" IVar="11" Cut="1.6949778795242310e+00" cType="1" res="-2.5971375871449709e-03" rms="2.9528015851974487e-01" purity="5.6741702556610107e-01" nType="0">
            <Node pos="l" depth="3" NCoef="0" IVar="-1" Cut="0.0000000000000000e+00" cType="1" res="-2.0029905717819929e-03" rms="2.9455530643463135e-01" purity="5.6340324878692627e-01" nType="-99"/>
            <Node pos="r" depth="3" NCoef="0" IVar="-1" Cut="0.0000000000000000e+00" cType="1" res="-2.4444987997412682e-02" rms="3.1195899844169617e-01" purity="6.6696476936340332e-01" nType="-99"/>
          </Node>
          <Node pos="r" depth="2" NCoef="0" IVar="9" Cut="1.1733319759368896e+00" cType="1" res="7.9816011711955070e-03" rms="2.6348888874053955e-01" purity="2.5728842616081238e-01" nType="0">
            <Node pos="l" depth="3" NCoef="0" IVar="-1" Cut="0.0000000000000000e+00" cType="1" res="1.6803945181891322e-03" rms="2.6849579811096191e-01" purity="2.8063982725143433e-01" nType="-99"/>
            <Node pos="r" depth="3" NCoef="0" IVar="-1" Cut="0.0000000000000000e+00" cType="1" res="5.4504174739122391e-02" rms="2.4477289617061615e-01" purity="1.7963290214538574e-01" nType="-99"/>
          </Node>
        </Node>
      </Node>
    </BinaryTree>
    <BinaryTree type="DecisionTree" boostWeight="1.0000000000000000e+00" itree="371">
      <Node pos="s" depth="0" NCoef="0" IVar="9" Cut="-1.2002354860305786e+00" cType="1" res="2.1216813183855265e-04" rms="2.9150986671447754e-01" purity="5.0237244367599487e-01" nType="0">
        <Node pos="l" depth="1" NCoef="0" IVar="7" Cut="4.2179292440414429e-01" cType="1" res="9.2783588916063309e-03" rms="2.8735604882240295e-01" purity="2.9290211200714111e-01" nType="0">
          <Node pos="l" depth="2" NCoef="0" IVar="7" Cut="-9.3459516763687134e-01" cType="1" res="1.7320014536380768e-02" rms="3.0129757523536682e-01" purity="3.4499010443687439e-01" nType="0">
            <Node pos="l" depth="3" NCoef="0" IVar="-1" Cut="0.0000000000000000e+00" cType="1" res="-7.9994751140475273e-03" rms="2.2640930116176605e-01" purity="1.3430218398571014e-01" nType="-99"/>
            <Node pos="r" depth="3" NCoef="0" IVar="-1" Cut="0.0000000000000000e+00" cType="1" res="2.5987735018134117e-02" rms="3.3136731386184692e-01" purity="4.4829741120338440e-01" nType="-99"/>
          </Node>
          <Node pos="r" depth="2" NCoef="0" IVar="-1" Cut="0.0000000000000000e+00" cType="1" res="-1.4512850902974606e-02" rms="2.5093108415603638e-01" purity="1.7163664102554321e-01" nType="-99"/>
        </Node>
        <Node pos="r" depth="1" NCoef="0" IVar="7" Cut="-1.2477795034646988e-01" cType="1" res="-1.2160290498286486e-03" rms="2.9213318228721619e-01" purity="5.3537034988403320e-01" nType="0">
          <Node pos="l" depth="2" NCoef="0" IVar="5" Cut="9.0401473999023438e+01" cType="1" res="-5.8315186761319637e-03" rms="2.8851529955863953e-01" purity="5.0588846206665039e-01" nType="0">
            <Node pos="l" depth="3" NCoef="0" IVar="-1" Cut="0.0000000000000000e+00" cType="1" res="-1.2466577813029289e-02" rms="3.0279150605201721e-01" purity="2.9176527261734009e-01" nType="-99"/>
            <Node pos="r" depth="3" NCoef="0" IVar="-1" Cut="0.0000000000000000e+00" cType="1" res="3.8046955596655607e-03" rms="2.6540967822074890e-01" purity="8.2744687795639038e-01" nType="-99"/>
          </Node>
          <Node pos="r" depth="2" NCoef="0" IVar="1" Cut="6.5697379410266876e-02" cType="1" res="2.2899254690855742e-03" rms="2.9480341076850891e-01" purity="5.5776494741439819e-01" nType="0">
            <Node pos="l" depth="3" NCoef="0" IVar="-1" Cut="0.0000000000000000e+00" cType="1" res="9.6368016675114632e-03" rms="3.0256783962249756e-01" purity="3.3278110623359680e-01" nType="-99"/>
            <Node pos="r" depth="3" NCoef="0" IVar="-1" Cut="0.0000000000000000e+00" cType="1" res="-5.6412769481539726e-03" rms="2.8614997863769531e-01" purity="7.9715514183044434e-01" nType="-99"/>
          </Node>
        </Node>
      </Node>
    </BinaryTree>
    <BinaryTree type="DecisionTree" boostWeight="1.0000000000000000e+00" itree="372">
      <Node pos="s" depth="0" NCoef="0" IVar="9" Cut="6.6670429706573486e-01" cType="1" res="1.5896729892119765e-03" rms="2.9008114337921143e-01" purity="5.0456011295318604e-01" nType="0">
        <Node pos="l" depth="1" NCoef="0" IVar="8" Cut="-1.3277110457420349e-01" cType="1" res="4.8285885713994503e-03" rms="2.9029551148414612e-01" purity="5.4400795698165894e-01" nType="0">
          <Node pos="l" depth="2" NCoef="0" IVar="7" Cut="-3.4880155324935913e-01" cType="1" res="-3.4102963400073349e-04" rms="2.8822520375251770e-01" purity="5.1502728462219238e-01" nType="0">
            <Node pos="l" depth="3" NCoef="0" IVar="-1" Cut="0.0000000000000000e+00" cType="1" res="1.0436421260237694e-02" rms="2.9172486066818237e-01" purity="4.6990820765495300e-01" nType="-99"/>
            <Node pos="r" depth="3" NCoef="0" IVar="-1" Cut="0.0000000000000000e+00" cType="1" res="-7.0213680155575275e-03" rms="2.8594899177551270e-01" purity="5.4222649335861206e-01" nType="-99"/>
          </Node>
          <Node pos="r" depth="2" NCoef="0" IVar="0" Cut="1.6615377197265625e+03" cType="1" res="9.3363374471664429e-03" rms="2.9201409220695496e-01" purity="5.6927829980850220e-01" nType="0">
            <Node pos="l" depth="3" NCoef="0" IVar="-1" Cut="0.0000000000000000e+00" cType="1" res="1.5928927809000015e-02" rms="3.1779083609580994e-01" purity="3.7934359908103943e-01" nType="-99"/>
            <Node pos="r" depth="3" NCoef="0" IVar="-1" Cut="0.0000000000000000e+00" cType="1" res="-1.9587255083024502e-03" rms="2.4635449051856995e-01" purity="8.6410611867904663e-01" nType="-99"/>
          </Node>
        </Node>
        <Node pos="r" depth="1" NCoef="0" IVar="5" Cut="7.0671661376953125e+01" cType="1" res="-7.4444543570280075e-03" rms="2.8929078578948975e-01" purity="3.9453044533729553e-01" nType="0">
          <Node pos="l" depth="2" NCoef="0" IVar="2" Cut="3.1633584594726562e+02" cType="1" res="5.8121193433180451e-04" rms="2.6443660259246826e-01" purity="1.5023790299892426e-01" nType="0">
            <Node pos="l" depth="3" NCoef="0" IVar="-1" Cut="0.0000000000000000e+00" cType="1" res="-1.7824795097112656e-02" rms="2.4282425642013550e-01" purity="1.0223565995693207e-01" nType="-99"/>
            <Node pos="r" depth="3" NCoef="0" IVar="-1" Cut="0.0000000000000000e+00" cType="1" res="1.2832504697144032e-02" rms="2.8137335181236267e-01" purity="1.9161230325698853e-01" nType="-99"/>
          </Node>
          <Node pos="r" depth="2" NCoef="0" IVar="0" Cut="2.0771555175781250e+03" cType="1" res="-1.4765016734600067e-02" rms="3.1004858016967773e-01" purity="6.1736035346984863e-01" nType="0">
            <Node pos="l" depth="3" NCoef="0" IVar="-1" Cut="0.0000000000000000e+00" cType="1" res="-1.9063839688897133e-02" rms="3.2654169201850891e-01" purity="5.4841738939285278e-01" nType="-99"/>
            <Node pos="r" depth="3" NCoef="0" IVar="-1" Cut="0.0000000000000000e+00" cType="1" res="1.3203033246099949e-02" rms="2.2660641372203827e-01" purity="9.0742552280426025e-01" nType="-99"/>
          </Node>
        </Node>
      </Node>
    </BinaryTree>
    <BinaryTree type="DecisionTree" boostWeight="1.0000000000000000e+00" itree="373">
      <Node pos="s" depth="0" NCoef="0" IVar="10" Cut="1.9999926090240479e+00" cType="1" res="1.2921440065838397e-04" rms="2.8822526335716248e-01" purity="5.0448673963546753e-01" nType="0">
        <Node pos="l" depth="1" NCoef="0" IVar="10" Cut="1.7143456637859344e-01" cType="1" res="-6.5508077386766672e-04" rms="2.8861114382743835e-01" purity="5.1613283157348633e-01" nType="0">
          <Node pos="l" depth="2" NCoef="0" IVar="7" Cut="1.4729593992233276e+00" cType="1" res="1.9073638832196593e-03" rms="2.8670805692672729e-01" purity="5.0718146562576294e-01" nType="0">
            <Node pos="l" depth="3" NCoef="0" IVar="-1" Cut="0.0000000000000000e+00" cType="1" res="7.2939659003168344e-04" rms="2.8996053338050842e-01" purity="5.2824246883392334e-01" nType="-99"/>
            <Node pos="r" depth="3" NCoef="0" IVar="-1" Cut="0.0000000000000000e+00" cType="1" res="6.0045104473829269e-02" rms="2.2019883990287781e-01" purity="1.3466288149356842e-01" nType="-99"/>
          </Node>
          <Node pos="r" depth="2" NCoef="0" IVar="8" Cut="1.4666250944137573e+00" cType="1" res="-4.2700483463704586e-03" rms="2.9123643040657043e-01" purity="5.2876096963882446e-01" nType="0">
            <Node pos="l" depth="3" NCoef="0" IVar="-1" Cut="0.0000000000000000e+00" cType="1" res="-6.7915497347712517e-03" rms="2.9420030117034912e-01" purity="5.6069397926330566e-01" nType="-99"/>
            <Node pos="r" depth="3" NCoef="0" IVar="-1" Cut="0.0000000000000000e+00" cType="1" res="2.3779725655913353e-02" rms="2.5395891070365906e-01" purity="1.6167595982551575e-01" nType="-99"/>
          </Node>
        </Node>
        <Node pos="r" depth="1" NCoef="0" IVar="-1" Cut="0.0000000000000000e+00" cType="1" res="1.9188405945897102e-02" rms="2.7998691797256470e-01" purity="2.7292770147323608e-01" nType="-99"/>
      </Node>
    </BinaryTree>
    <BinaryTree type="DecisionTree" boostWeight="1.0000000000000000e+00" itree="374">
      <Node pos="s" depth="0" NCoef="0" IVar="0" Cut="1.3517238769531250e+03" cType="1" res="-2.2871466353535652e-03" rms="2.8797701001167297e-01" purity="4.9411913752555847e-01" nType="0">
        <Node pos="l" depth="1" NCoef="0" IVar="3" Cut="1.9122616577148438e+02" cType="1" res="-7.3615387082099915e-03" rms="2.7950561046600342e-01" purity="1.5697395801544189e-01" nType="0">
          <Node pos="l" depth="2" NCoef="0" IVar="2" Cut="3.5240911865234375e+02" cType="1" res="-1.3167858123779297e-03" rms="2.6673629879951477e-01" purity="1.4023691415786743e-01" nType="0">
            <Node pos="l" depth="3" NCoef="0" IVar="-1" Cut="0.0000000000000000e+00" cType="1" res="4.5839822851121426e-03" rms="2.8454041481018066e-01" purity="1.6732993721961975e-01" nType="-99"/>
            <Node pos="r" depth="3" NCoef="0" IVar="-1" Cut="0.0000000000000000e+00" cType="1" res="-3.6786045879125595e-02" rms="1.9465225934982300e-01" purity="4.9395490437746048e-02" nType="-99"/>
          </Node>
          <Node pos="r" depth="2" NCoef="0" IVar="7" Cut="-6.3368171453475952e-02" cType="1" res="-2.1127492189407349e-02" rms="3.0616241693496704e-01" purity="1.9508993625640869e-01" nType="0">
            <Node pos="l" depth="3" NCoef="0" IVar="-1" Cut="0.0000000000000000e+00" cType="1" res="-5.3903236985206604e-03" rms="3.0700725317001343e-01" purity="1.9706976413726807e-01" nType="-99"/>
            <Node pos="r" depth="3" NCoef="0" IVar="-1" Cut="0.0000000000000000e+00" cType="1" res="-3.2238002866506577e-02" rms="3.0479449033737183e-01" purity="1.9338493049144745e-01" nType="-99"/>
          </Node>
        </Node>
        <Node pos="r" depth="1" NCoef="0" IVar="7" Cut="-1.1429990530014038e+00" cType="1" res="1.0735907126218081e-03" rms="2.9340466856956482e-01" purity="7.1740823984146118e-01" nType="0">
          <Node pos="l" depth="2" NCoef="0" IVar="-1" Cut="0.0000000000000000e+00" cType="1" res="1.9200945273041725e-02" rms="3.0589997768402100e-01" purity="3.7908765673637390e-01" nType="-99"/>
          <Node pos="r" depth="2" NCoef="0" IVar="7" Cut="-7.6820319890975952e-01" cType="1" res="-2.1650850248988718e-04" rms="2.9238614439964294e-01" purity="7.4330675601959229e-01" nType="0">
            <Node pos="l" depth="3" NCoef="0" IVar="-1" Cut="0.0000000000000000e+00" cType="1" res="-1.8182480707764626e-02" rms="3.1687408685684204e-01" purity="6.4126783609390259e-01" nType="-99"/>
            <Node pos="r" depth="3" NCoef="0" IVar="-1" Cut="0.0000000000000000e+00" cType="1" res="1.6932633006945252e-03" rms="2.8996536135673523e-01" purity="7.5272589921951294e-01" nType="-99"/>
          </Node>
        </Node>
      </Node>
    </BinaryTree>
    <BinaryTree type="DecisionTree" boostWeight="1.0000000000000000e+00" itree="375">
      <Node pos="s" depth="0" NCoef="0" IVar="7" Cut="1.4022552967071533e-01" cType="1" res="7.0572854019701481e-04" rms="2.8804758191108704e-01" purity="5.0215709209442139e-01" nType="0">
        <Node pos="l" depth="1" NCoef="0" IVar="9" Cut="4.0032100677490234e-01" cType="1" res="3.7241738755255938e-03" rms="2.8988471627235413e-01" purity="5.2106517553329468e-01" nType="0">
          <Node pos="l" depth="2" NCoef="0" IVar="7" Cut="-1.2090770006179810e+00" cType="1" res="-5.6904315715655684e-04" rms="2.8620281815528870e-01" purity="5.4019415378570557e-01" nType="0">
            <Node pos="l" depth="3" NCoef="0" IVar="-1" Cut="0.0000000000000000e+00" cType="1" res="-2.4508971720933914e-02" rms="2.2584573924541473e-01" purity="1.6775923967361450e-01" nType="-99"/>
            <Node pos="r" depth="3" NCoef="0" IVar="-1" Cut="0.0000000000000000e+00" cType="1" res="2.6345460209995508e-03" rms="2.9669305682182312e-01" purity="6.1450093984603882e-01" nType="-99"/>
          </Node>
          <Node pos="r" depth="2" NCoef="0" IVar="7" Cut="-2.7737677097320557e-01" cType="1" res="1.2617378495633602e-02" rms="2.9716935753822327e-01" purity="4.8144030570983887e-01" nType="0">
            <Node pos="l" depth="3" NCoef="0" IVar="-1" Cut="0.0000000000000000e+00" cType="1" res="8.5570011287927628e-03" rms="2.9216772317886353e-01" purity="3.9578205347061157e-01" nType="-99"/>
            <Node pos="r" depth="3" NCoef="0" IVar="-1" Cut="0.0000000000000000e+00" cType="1" res="2.4534001946449280e-02" rms="3.0575135350227356e-01" purity="6.3668954372406006e-01" nType="-99"/>
          </Node>
        </Node>
        <Node pos="r" depth="1" NCoef="0" IVar="9" Cut="1.4665665626525879e+00" cType="1" res="-3.1995051540434361e-03" rms="2.8560581803321838e-01" purity="4.7769391536712646e-01" nType="0">
          <Node pos="l" depth="2" NCoef="0" IVar="9" Cut="1.0602102279663086e+00" cType="1" res="-1.3673346256837249e-03" rms="2.8795170783996582e-01" purity="5.0483649969100952e-01" nType="0">
            <Node pos="l" depth="3" NCoef="0" IVar="-1" Cut="0.0000000000000000e+00" cType="1" res="-3.8979263044893742e-03" rms="2.8555715084075928e-01" purity="5.1139777898788452e-01" nType="-99"/>
            <Node pos="r" depth="3" NCoef="0" IVar="-1" Cut="0.0000000000000000e+00" cType="1" res="1.8008409067988396e-02" rms="3.0914372205734253e-01" purity="4.4267964363098145e-01" nType="-99"/>
          </Node>
          <Node pos="r" depth="2" NCoef="0" IVar="-1" Cut="0.0000000000000000e+00" cType="1" res="-2.6550693437457085e-02" rms="2.6241797208786011e-01" purity="2.2771643102169037e-01" nType="-99"/>
        </Node>
      </Node>
    </BinaryTree>
    <BinaryTree type="DecisionTree" boostWeight="1.0000000000000000e+00" itree="376">
      <Node pos="s" depth="0" NCoef="0" IVar="2" Cut="7.4323168945312500e+02" cType="1" res="-1.5592566924169660e-03" rms="2.8758001327514648e-01" purity="4.9751773476600647e-01" nType="0">
        <Node pos="l" depth="1" NCoef="0" IVar="7" Cut="-1.1749360561370850e+00" cType="1" res="-8.6562853539362550e-04" rms="2.8570094704627991e-01" purity="4.9604156613349915e-01" nType="0">
          <Node pos="l" depth="2" NCoef="0" IVar="10" Cut="6.6717207431793213e-01" cType="1" res="1.0701552964746952e-02" rms="2.4561324715614319e-01" purity="1.7218038439750671e-01" nType="0">
            <Node pos="l" depth="3" NCoef="0" IVar="-1" Cut="0.0000000000000000e+00" cType="1" res="6.4692851155996323e-03" rms="2.3982605338096619e-01" purity="1.6989839076995850e-01" nType="-99"/>
            <Node pos="r" depth="3" NCoef="0" IVar="-1" Cut="0.0000000000000000e+00" cType="1" res="5.6682165712118149e-02" rms="2.6011076569557190e-01" purity="1.7853218317031860e-01" nType="-99"/>
          </Node>
          <Node pos="r" depth="2" NCoef="0" IVar="4" Cut="1.1121635437011719e+02" cType="1" res="-2.2354780230671167e-03" rms="2.9005116224288940e-01" purity="5.3439497947692871e-01" nType="0">
            <Node pos="l" depth="3" NCoef="0" IVar="-1" Cut="0.0000000000000000e+00" cType="1" res="-1.3387397862970829e-02" rms="2.5320670008659363e-01" purity="1.1436291038990021e-01" nType="-99"/>
            <Node pos="r" depth="3" NCoef="0" IVar="-1" Cut="0.0000000000000000e+00" cType="1" res="-2.2956538305152208e-04" rms="3.0021965503692627e-01" purity="6.6072171926498413e-01" nType="-99"/>
          </Node>
        </Node>
        <Node pos="r" depth="1" NCoef="0" IVar="-1" Cut="0.0000000000000000e+00" cType="1" res="-2.1790301427245140e-02" rms="3.4588146209716797e-01" purity="5.4894971847534180e-01" nType="-99"/>
      </Node>
    </BinaryTree>
    <BinaryTree type="DecisionTree" boostWeight="1.0000000000000000e+00" itree="377">
      <Node pos="s" depth="0" NCoef="0" IVar="8" Cut="1.1999419927597046e+00" cType="1" res="2.4816713994368911e-04" rms="2.8720328211784363e-01" purity="5.0461149215698242e-01" nType="0">
        <Node pos="l" depth="1" NCoef="0" IVar="11" Cut="8.6653500795364380e-01" cType="1" res="-1.3687553582713008e-03" rms="2.8964918851852417e-01" purity="5.4208791255950928e-01" nType="0">
          <Node pos="l" depth="2" NCoef="0" IVar="9" Cut="3.9925497770309448e-01" cType="1" res="-3.0321560334414244e-03" rms="2.8951624035835266e-01" purity="5.1285314559936523e-01" nType="0">
            <Node pos="l" depth="3" NCoef="0" IVar="-1" Cut="0.0000000000000000e+00" cType="1" res="-3.1372104422189295e-04" rms="2.9046100378036499e-01" purity="5.3608578443527222e-01" nType="-99"/>
            <Node pos="r" depth="3" NCoef="0" IVar="-1" Cut="0.0000000000000000e+00" cType="1" res="-1.0283555835485458e-02" rms="2.8748112916946411e-01" purity="4.6509671211242676e-01" nType="-99"/>
          </Node>
          <Node pos="r" depth="2" NCoef="0" IVar="9" Cut="6.6832870244979858e-01" cType="1" res="1.0497013106942177e-02" rms="2.9031947255134583e-01" purity="7.5063216686248779e-01" nType="0">
            <Node pos="l" depth="3" NCoef="0" IVar="-1" Cut="0.0000000000000000e+00" cType="1" res="3.3651646226644516e-03" rms="2.8647676110267639e-01" purity="7.6718658208847046e-01" nType="-99"/>
            <Node pos="r" depth="3" NCoef="0" IVar="-1" Cut="0.0000000000000000e+00" cType="1" res="2.9922492802143097e-02" rms="2.9857906699180603e-01" purity="7.1065646409988403e-01" nType="-99"/>
          </Node>
        </Node>
        <Node pos="r" depth="1" NCoef="0" IVar="10" Cut="-3.9942207932472229e-01" cType="1" res="1.2582222931087017e-02" rms="2.6748988032341003e-01" purity="2.1873772144317627e-01" nType="0">
          <Node pos="l" depth="2" NCoef="0" IVar="-1" Cut="0.0000000000000000e+00" cType="1" res="-6.4359637908637524e-03" rms="2.3529875278472900e-01" purity="1.8140260875225067e-01" nType="-99"/>
          <Node pos="r" depth="2" NCoef="0" IVar="5" Cut="6.2699718475341797e+01" cType="1" res="2.0971002057194710e-02" rms="2.8173285722732544e-01" purity="2.3727159202098846e-01" nType="0">
            <Node pos="l" depth="3" NCoef="0" IVar="-1" Cut="0.0000000000000000e+00" cType="1" res="9.4417342916131020e-03" rms="1.8550239503383636e-01" purity="5.0952911376953125e-02" nType="-99"/>
            <Node pos="r" depth="3" NCoef="0" IVar="-1" Cut="0.0000000000000000e+00" cType="1" res="3.3886749297380447e-02" rms="3.2717147469520569e-01" purity="3.5326769948005676e-01" nType="-99"/>
          </Node>
        </Node>
      </Node>
    </BinaryTree>
    <BinaryTree type="DecisionTree" boostWeight="1.0000000000000000e+00" itree="378">
      <Node pos="s" depth="0" NCoef="0" IVar="9" Cut="-9.3353968858718872e-01" cType="1" res="-3.0869551119394600e-04" rms="2.8709691762924194e-01" purity="5.0301575660705566e-01" nType="0">
        <Node pos="l" depth="1" NCoef="0" IVar="10" Cut="-3.9980790019035339e-01" cType="1" res="7.5892717577517033e-03" rms="2.9383766651153564e-01" purity="3.5774701833724976e-01" nType="0">
          <Node pos="l" depth="2" NCoef="0" IVar="11" Cut="-1.0692452192306519e+00" cType="1" res="-5.4671703837811947e-03" rms="2.8635051846504211e-01" purity="3.0896162986755371e-01" nType="0">
            <Node pos="l" depth="3" NCoef="0" IVar="-1" Cut="0.0000000000000000e+00" cType="1" res="9.8058441653847694e-03" rms="2.7495279908180237e-01" purity="1.8871295452117920e-01" nType="-99"/>
            <Node pos="r" depth="3" NCoef="0" IVar="-1" Cut="0.0000000000000000e+00" cType="1" res="-3.2680101692676544e-02" rms="3.0783072113990784e-01" purity="5.6992101669311523e-01" nType="-99"/>
          </Node>
          <Node pos="r" depth="2" NCoef="0" IVar="2" Cut="3.3977136230468750e+02" cType="1" res="1.8012655898928642e-02" rms="2.9927203059196472e-01" purity="3.9669403433799744e-01" nType="0">
            <Node pos="l" depth="3" NCoef="0" IVar="-1" Cut="0.0000000000000000e+00" cType="1" res="7.8674731776118279e-03" rms="2.9568555951118469e-01" purity="3.2283341884613037e-01" nType="-99"/>
            <Node pos="r" depth="3" NCoef="0" IVar="-1" Cut="0.0000000000000000e+00" cType="1" res="3.2699555158615112e-02" rms="3.0232188105583191e-01" purity="4.6885895729064941e-01" nType="-99"/>
          </Node>
        </Node>
        <Node pos="r" depth="1" NCoef="0" IVar="0" Cut="1.3748353271484375e+03" cType="1" res="-2.2328174673020840e-03" rms="2.8539749979972839e-01" purity="5.3840643167495728e-01" nType="0">
          <Node pos="l" depth="2" NCoef="0" IVar="0" Cut="1.2927159423828125e+03" cType="1" res="4.7188941389322281e-03" rms="2.9432910680770874e-01" purity="1.9989757239818573e-01" nType="0">
            <Node pos="l" depth="3" NCoef="0" IVar="-1" Cut="0.0000000000000000e+00" cType="1" res="2.6965278084389865e-04" rms="2.8127023577690125e-01" purity="1.4697079360485077e-01" nType="-99"/>
            <Node pos="r" depth="3" NCoef="0" IVar="-1" Cut="0.0000000000000000e+00" cType="1" res="1.9374463707208633e-02" rms="3.4623989462852478e-01" purity="4.3755990266799927e-01" nType="-99"/>
          </Node>
          <Node pos="r" depth="2" NCoef="0" IVar="11" Cut="-2.4476377964019775e+00" cType="1" res="-6.7278956994414330e-03" rms="2.7937820553779602e-01" purity="7.5729119777679443e-01" nType="0">
            <Node pos="l" depth="3" NCoef="0" IVar="-1" Cut="0.0000000000000000e+00" cType="1" res="-2.2372167557477951e-02" rms="3.5350218415260315e-01" purity="4.5927855372428894e-01" nType="-99"/>
            <Node pos="r" depth="3" NCoef="0" IVar="-1" Cut="0.0000000000000000e+00" cType="1" res="2.2188343573361635e-03" rms="2.4484424293041229e-01" purity="8.7077993154525757e-01" nType="-99"/>
          </Node>
        </Node>
      </Node>
    </BinaryTree>
    <BinaryTree type="DecisionTree" boostWeight="1.0000000000000000e+00" itree="379">
      <Node pos="s" depth="0" NCoef="0" IVar="9" Cut="6.6651189327239990e-01" cType="1" res="1.0564718395471573e-03" rms="2.8768074512481689e-01" purity="5.0398325920104980e-01" nType="0">
        <Node pos="l" depth="1" NCoef="0" IVar="9" Cut="3.3633744716644287e-01" cType="1" res="-9.1644225176423788e-04" rms="2.8674465417861938e-01" purity="5.3657817840576172e-01" nType="0">
          <Node pos="l" depth="2" NCoef="0" IVar="1" Cut="4.3799735605716705e-02" cType="1" res="1.9905667286366224e-03" rms="2.8567892313003540e-01" purity="5.3048944473266602e-01" nType="0">
            <Node pos="l" depth="3" NCoef="0" IVar="-1" Cut="0.0000000000000000e+00" cType="1" res="-6.1960844323039055e-03" rms="2.6971691846847534e-01" purity="2.2875051200389862e-01" nType="-99"/>
            <Node pos="r" depth="3" NCoef="0" IVar="-1" Cut="0.0000000000000000e+00" cType="1" res="7.4234954081475735e-03" rms="2.9602822661399841e-01" purity="7.3715180158615112e-01" nType="-99"/>
          </Node>
          <Node pos="r" depth="2" NCoef="0" IVar="5" Cut="6.4849159240722656e+01" cType="1" res="-1.8260529264807701e-02" rms="2.9242250323295593e-01" purity="5.7290571928024292e-01" nType="0">
            <Node pos="l" depth="3" NCoef="0" IVar="-1" Cut="0.0000000000000000e+00" cType="1" res="-5.6329451501369476e-02" rms="2.5847208499908447e-01" purity="1.3918696343898773e-01" nType="-99"/>
            <Node pos="r" depth="3" NCoef="0" IVar="-1" Cut="0.0000000000000000e+00" cType="1" res="-9.3032196164131165e-03" rms="3.0316984653472900e-01" purity="7.3068332672119141e-01" nType="-99"/>
          </Node>
        </Node>
        <Node pos="r" depth="1" NCoef="0" IVar="9" Cut="7.6811176538467407e-01" cType="1" res="6.6205323673784733e-03" rms="2.9023230075836182e-01" purity="4.1205814480781555e-01" nType="0">
          <Node pos="l" depth="2" NCoef="0" IVar="-1" Cut="0.0000000000000000e+00" cType="1" res="2.6684591546654701e-02" rms="2.9430618882179260e-01" purity="5.8767426013946533e-01" nType="-99"/>
          <Node pos="r" depth="2" NCoef="0" IVar="1" Cut="7.8195013105869293e-02" cType="1" res="4.6609644778072834e-03" rms="2.8966176509857178e-01" purity="3.9021989703178406e-01" nType="0">
            <Node pos="l" depth="3" NCoef="0" IVar="-1" Cut="0.0000000000000000e+00" cType="1" res="1.1720969341695309e-02" rms="2.8170090913772583e-01" purity="2.5039207935333252e-01" nType="-99"/>
            <Node pos="r" depth="3" NCoef="0" IVar="-1" Cut="0.0000000000000000e+00" cType="1" res="-6.2927706167101860e-03" rms="3.0720594525337219e-01" purity="7.1728420257568359e-01" nType="-99"/>
          </Node>
        </Node>
      </Node>
    </BinaryTree>
    <BinaryTree type="DecisionTree" boostWeight="1.0000000000000000e+00" itree="380">
      <Node pos="s" depth="0" NCoef="0" IVar="11" Cut="-1.0666847229003906e+00" cType="1" res="-1.0303214658051729e-03" rms="2.8502041101455688e-01" purity="5.0415498018264771e-01" nType="0">
        <Node pos="l" depth="1" NCoef="0" IVar="3" Cut="2.1880918884277344e+02" cType="1" res="-4.0775039233267307e-03" rms="2.9335954785346985e-01" purity="3.0156144499778748e-01" nType="0">
          <Node pos="l" depth="2" NCoef="0" IVar="10" Cut="-9.3327283859252930e-01" cType="1" res="7.1101792855188251e-04" rms="2.7534329891204834e-01" purity="1.8168798089027405e-01" nType="0">
            <Node pos="l" depth="3" NCoef="0" IVar="-1" Cut="0.0000000000000000e+00" cType="1" res="-1.5898672863841057e-02" rms="2.5356301665306091e-01" purity="1.3974423706531525e-01" nType="-99"/>
            <Node pos="r" depth="3" NCoef="0" IVar="-1" Cut="0.0000000000000000e+00" cType="1" res="6.5375627018511295e-03" rms="2.8298315405845642e-01" purity="1.9746460020542145e-01" nType="-99"/>
          </Node>
          <Node pos="r" depth="2" NCoef="0" IVar="4" Cut="2.4031330871582031e+02" cType="1" res="-1.0873046703636646e-02" rms="3.1705102324485779e-01" purity="4.7167766094207764e-01" nType="0">
            <Node pos="l" depth="3" NCoef="0" IVar="-1" Cut="0.0000000000000000e+00" cType="1" res="-1.3956444337964058e-02" rms="3.1957638263702393e-01" purity="3.9506295323371887e-01" nType="-99"/>
            <Node pos="r" depth="3" NCoef="0" IVar="-1" Cut="0.0000000000000000e+00" cType="1" res="2.4794507771730423e-03" rms="3.0780488252639771e-01" purity="7.3597371578216553e-01" nType="-99"/>
          </Node>
        </Node>
        <Node pos="r" depth="1" NCoef="0" IVar="2" Cut="4.2902163696289062e+02" cType="1" res="2.9737765435129404e-03" rms="2.7362489700317383e-01" purity="7.7036970853805542e-01" nType="0">
          <Node pos="l" depth="2" NCoef="0" IVar="9" Cut="-6.6656601428985596e-01" cType="1" res="7.7520813792943954e-03" rms="2.7825292944908142e-01" purity="7.5561362504959106e-01" nType="0">
            <Node pos="l" depth="3" NCoef="0" IVar="-1" Cut="0.0000000000000000e+00" cType="1" res="-4.6423692256212234e-03" rms="2.9735130071640015e-01" purity="6.7234843969345093e-01" nType="-99"/>
            <Node pos="r" depth="3" NCoef="0" IVar="-1" Cut="0.0000000000000000e+00" cType="1" res="1.4458215795457363e-02" rms="2.7211621403694153e-01" purity="7.8075712919235229e-01" nType="-99"/>
          </Node>
          <Node pos="r" depth="2" NCoef="0" IVar="8" Cut="6.6875267028808594e-01" cType="1" res="-6.4192577265202999e-03" rms="2.6403924822807312e-01" purity="7.9937654733657837e-01" nType="0">
            <Node pos="l" depth="3" NCoef="0" IVar="-1" Cut="0.0000000000000000e+00" cType="1" res="-1.7401041463017464e-02" rms="2.5683787465095520e-01" purity="8.2477188110351562e-01" nType="-99"/>
            <Node pos="r" depth="3" NCoef="0" IVar="-1" Cut="0.0000000000000000e+00" cType="1" res="1.4864292927086353e-02" rms="2.8961735963821411e-01" purity="7.0030415058135986e-01" nType="-99"/>
          </Node>
        </Node>
      </Node>
    </BinaryTree>
    <BinaryTree type="DecisionTree" boostWeight="1.0000000000000000e+00" itree="381">
      <Node pos="s" depth="0" NCoef="0" IVar="10" Cut="-6.6670781373977661e-01" cType="1" res="-1.6095568425953388e-03" rms="2.8734028339385986e-01" purity="4.9965748190879822e-01" nType="0">
        <Node pos="l" depth="1" NCoef="0" IVar="5" Cut="9.3159965515136719e+01" cType="1" res="5.5071455426514149e-03" rms="2.8281816840171814e-01" purity="4.4811984896659851e-01" nType="0">
          <Node pos="l" depth="2" NCoef="0" IVar="5" Cut="6.6442558288574219e+01" cType="1" res="9.5983389765024185e-03" rms="2.9506966471672058e-01" purity="2.8409084677696228e-01" nType="0">
            <Node pos="l" depth="3" NCoef="0" IVar="-1" Cut="0.0000000000000000e+00" cType="1" res="-3.4442613832652569e-03" rms="2.6081201434135437e-01" purity="1.5416131913661957e-01" nType="-99"/>
            <Node pos="r" depth="3" NCoef="0" IVar="-1" Cut="0.0000000000000000e+00" cType="1" res="2.2595027461647987e-02" rms="3.3326935768127441e-01" purity="4.5072960853576660e-01" nType="-99"/>
          </Node>
          <Node pos="r" depth="2" NCoef="0" IVar="10" Cut="-1.4790534973144531e+00" cType="1" res="-3.2721862662583590e-03" rms="2.5432279706001282e-01" purity="8.0011141300201416e-01" nType="0">
            <Node pos="l" depth="3" NCoef="0" IVar="-1" Cut="0.0000000000000000e+00" cType="1" res="-2.4209557101130486e-02" rms="2.9762670397758484e-01" purity="6.5483415126800537e-01" nType="-99"/>
            <Node pos="r" depth="3" NCoef="0" IVar="-1" Cut="0.0000000000000000e+00" cType="1" res="5.5238744243979454e-03" rms="2.3516021668910980e-01" purity="8.5611075162887573e-01" nType="-99"/>
          </Node>
        </Node>
        <Node pos="r" depth="1" NCoef="0" IVar="11" Cut="1.6950782537460327e+00" cType="1" res="-4.7267321497201920e-03" rms="2.8924360871315002e-01" purity="5.2223134040832520e-01" nType="0">
          <Node pos="l" depth="2" NCoef="0" IVar="0" Cut="1.5985982666015625e+03" cType="1" res="-6.2471628189086914e-03" rms="2.8815418481826782e-01" purity="5.1571261882781982e-01" nType="0">
            <Node pos="l" depth="3" NCoef="0" IVar="-1" Cut="0.0000000000000000e+00" cType="1" res="-1.2293126434087753e-02" rms="3.0772438645362854e-01" purity="2.8399610519409180e-01" nType="-99"/>
            <Node pos="r" depth="3" NCoef="0" IVar="-1" Cut="0.0000000000000000e+00" cType="1" res="1.6494636656716466e-03" rms="2.5880092382431030e-01" purity="8.3286952972412109e-01" nType="-99"/>
          </Node>
          <Node pos="r" depth="2" NCoef="0" IVar="-1" Cut="0.0000000000000000e+00" cType="1" res="2.4945955723524094e-02" rms="3.0943146347999573e-01" purity="6.5843975543975830e-01" nType="-99"/>
        </Node>
      </Node>
    </BinaryTree>
    <BinaryTree type="DecisionTree" boostWeight="1.0000000000000000e+00" itree="382">
      <Node pos="s" depth="0" NCoef="0" IVar="7" Cut="-1.2436866760253906e-01" cType="1" res="1.0073551675304770e-03" rms="2.8784126043319702e-01" purity="4.9549189209938049e-01" nType="0">
        <Node pos="l" depth="1" NCoef="0" IVar="9" Cut="-1.1994405984878540e+00" cType="1" res="-3.5741794854402542e-03" rms="2.8383988142013550e-01" purity="4.6742451190948486e-01" nType="0">
          <Node pos="l" depth="2" NCoef="0" IVar="9" Cut="-1.6565328836441040e+00" cType="1" res="-1.3951477594673634e-02" rms="2.6536831259727478e-01" purity="2.6879671216011047e-01" nType="0">
            <Node pos="l" depth="3" NCoef="0" IVar="-1" Cut="0.0000000000000000e+00" cType="1" res="7.1309083141386509e-03" rms="2.5844335556030273e-01" purity="1.7975766956806183e-01" nType="-99"/>
            <Node pos="r" depth="3" NCoef="0" IVar="-1" Cut="0.0000000000000000e+00" cType="1" res="-3.5237833857536316e-02" rms="2.7044937014579773e-01" purity="3.5024949908256531e-01" nType="-99"/>
          </Node>
          <Node pos="r" depth="2" NCoef="0" IVar="4" Cut="1.9259880065917969e+02" cType="1" res="-1.6882818890735507e-03" rms="2.8702887892723083e-01" purity="5.0352180004119873e-01" nType="0">
            <Node pos="l" depth="3" NCoef="0" IVar="-1" Cut="0.0000000000000000e+00" cType="1" res="-5.7572871446609497e-03" rms="2.9617923498153687e-01" purity="3.5327637195587158e-01" nType="-99"/>
            <Node pos="r" depth="3" NCoef="0" IVar="-1" Cut="0.0000000000000000e+00" cType="1" res="6.9341873750090599e-03" rms="2.6721343398094177e-01" purity="8.1073623895645142e-01" nType="-99"/>
          </Node>
        </Node>
        <Node pos="r" depth="1" NCoef="0" IVar="10" Cut="1.9999635219573975e+00" cType="1" res="4.6495124697685242e-03" rms="2.9093146324157715e-01" purity="5.1780450344085693e-01" nType="0">
          <Node pos="l" depth="2" NCoef="0" IVar="10" Cut="-1.6572135686874390e+00" cType="1" res="3.6241861525923014e-03" rms="2.8959408402442932e-01" purity="5.3086012601852417e-01" nType="0">
            <Node pos="l" depth="3" NCoef="0" IVar="-1" Cut="0.0000000000000000e+00" cType="1" res="-1.5305750072002411e-02" rms="2.8058648109436035e-01" purity="2.9247966408729553e-01" nType="-99"/>
            <Node pos="r" depth="3" NCoef="0" IVar="-1" Cut="0.0000000000000000e+00" cType="1" res="6.0906219296157360e-03" rms="2.9039061069488525e-01" purity="5.5361902713775635e-01" nType="-99"/>
          </Node>
          <Node pos="r" depth="2" NCoef="0" IVar="-1" Cut="0.0000000000000000e+00" cType="1" res="2.9356218874454498e-02" rms="3.1500777602195740e-01" purity="2.6554170250892639e-01" nType="-99"/>
        </Node>
      </Node>
    </BinaryTree>
    <BinaryTree type="DecisionTree" boostWeight="1.0000000000000000e+00" itree="383">
      <Node pos="s" depth="0" NCoef="0" IVar="10" Cut="1.7331434488296509e+00" cType="1" res="1.7766352975741029e-03" rms="2.9053723812103271e-01" purity="5.0114768743515015e-01" nType="0">
        <Node pos="l" depth="1" NCoef="0" IVar="4" Cut="1.9288612365722656e+02" cType="1" res="7.6473882654681802e-04" rms="2.9045078158378601e-01" purity="5.1733344793319702e-01" nType="0">
          <Node pos="l" depth="2" NCoef="0" IVar="3" Cut="3.4806185913085938e+02" cType="1" res="3.0630431137979031e-03" rms="3.0294424295425415e-01" purity="3.8500741124153137e-01" nType="0">
            <Node pos="l" depth="3" NCoef="0" IVar="-1" Cut="0.0000000000000000e+00" cType="1" res="2.0729054231196642e-03" rms="2.9985824227333069e-01" purity="3.7710541486740112e-01" nType="-99"/>
            <Node pos="r" depth="3" NCoef="0" IVar="-1" Cut="0.0000000000000000e+00" cType="1" res="2.2179417312145233e-02" rms="3.5262429714202881e-01" purity="5.2543354034423828e-01" nType="-99"/>
          </Node>
          <Node pos="r" depth="2" NCoef="0" IVar="0" Cut="1.8630100097656250e+03" cType="1" res="-4.3107834644615650e-03" rms="2.6067659258842468e-01" purity="8.0955916643142700e-01" nType="0">
            <Node pos="l" depth="3" NCoef="0" IVar="-1" Cut="0.0000000000000000e+00" cType="1" res="-1.3919034041464329e-02" rms="3.1895735859870911e-01" purity="6.3790291547775269e-01" nType="-99"/>
            <Node pos="r" depth="3" NCoef="0" IVar="-1" Cut="0.0000000000000000e+00" cType="1" res="5.8585614897310734e-03" rms="2.1451231837272644e-01" purity="9.2037802934646606e-01" nType="-99"/>
          </Node>
        </Node>
        <Node pos="r" depth="1" NCoef="0" IVar="9" Cut="1.3581416010856628e-01" cType="1" res="1.4150537550449371e-02" rms="2.9130807518959045e-01" purity="3.0322137475013733e-01" nType="0">
          <Node pos="l" depth="2" NCoef="0" IVar="-1" Cut="0.0000000000000000e+00" cType="1" res="-5.9289587661623955e-03" rms="2.7376210689544678e-01" purity="3.0591917037963867e-01" nType="-99"/>
          <Node pos="r" depth="2" NCoef="0" IVar="-1" Cut="0.0000000000000000e+00" cType="1" res="4.0056206285953522e-02" rms="3.0545735359191895e-01" purity="3.0075177550315857e-01" nType="-99"/>
        </Node>
      </Node>
    </BinaryTree>
    <BinaryTree type="DecisionTree" boostWeight="1.0000000000000000e+00" itree="384">
      <Node pos="s" depth="0" NCoef="0" IVar="9" Cut="-3.9982274174690247e-01" cType="1" res="-2.2245640866458416e-03" rms="2.8677040338516235e-01" purity="4.9584454298019409e-01" nType="0">
        <Node pos="l" depth="1" NCoef="0" IVar="9" Cut="-1.5425359010696411e+00" cType="1" res="3.5714616533368826e-03" rms="2.8578993678092957e-01" purity="4.5342966914176941e-01" nType="0">
          <Node pos="l" depth="2" NCoef="0" IVar="4" Cut="1.0419894409179688e+02" cType="1" res="-9.2723825946450233e-03" rms="2.6236620545387268e-01" purity="1.8570114672183990e-01" nType="0">
            <Node pos="l" depth="3" NCoef="0" IVar="-1" Cut="0.0000000000000000e+00" cType="1" res="3.4535404294729233e-02" rms="2.1995523571968079e-01" purity="7.6056137681007385e-02" nType="-99"/>
            <Node pos="r" depth="3" NCoef="0" IVar="-1" Cut="0.0000000000000000e+00" cType="1" res="-2.4881605058908463e-02" rms="2.8153011202812195e-01" purity="2.4416676163673401e-01" nType="-99"/>
          </Node>
          <Node pos="r" depth="2" NCoef="0" IVar="8" Cut="9.3373280763626099e-01" cType="1" res="7.1928929537534714e-03" rms="2.9195299744606018e-01" purity="5.2891802787780762e-01" nType="0">
            <Node pos="l" depth="3" NCoef="0" IVar="-1" Cut="0.0000000000000000e+00" cType="1" res="1.1383846402168274e-02" rms="2.9711851477622986e-01" purity="5.7093572616577148e-01" nType="-99"/>
            <Node pos="r" depth="3" NCoef="0" IVar="-1" Cut="0.0000000000000000e+00" cType="1" res="-1.5967397019267082e-02" rms="2.5544378161430359e-01" purity="2.5853464007377625e-01" nType="-99"/>
          </Node>
        </Node>
        <Node pos="r" depth="1" NCoef="0" IVar="4" Cut="9.8190589904785156e+01" cType="1" res="-5.5113723501563072e-03" rms="2.8727298974990845e-01" purity="5.1989710330963135e-01" nType="0">
          <Node pos="l" depth="2" NCoef="0" IVar="0" Cut="1.0118948364257812e+03" cType="1" res="3.8149526808410883e-03" rms="2.1451894938945770e-01" purity="7.9860389232635498e-02" nType="0">
            <Node pos="l" depth="3" NCoef="0" IVar="-1" Cut="0.0000000000000000e+00" cType="1" res="-4.5389205217361450e-02" rms="1.0835307836532593e-01" purity="1.1998003348708153e-02" nType="-99"/>
            <Node pos="r" depth="3" NCoef="0" IVar="-1" Cut="0.0000000000000000e+00" cType="1" res="1.6914861276745796e-02" rms="2.5523447990417480e-01" purity="1.1800881475210190e-01" nType="-99"/>
          </Node>
          <Node pos="r" depth="2" NCoef="0" IVar="0" Cut="1.3622871093750000e+03" cType="1" res="-7.2776903398334980e-03" rms="2.9903233051300049e-01" purity="6.0323596000671387e-01" nType="0">
            <Node pos="l" depth="3" NCoef="0" IVar="-1" Cut="0.0000000000000000e+00" cType="1" res="-1.5957184135913849e-02" rms="3.2207992672920227e-01" purity="2.3332154750823975e-01" nType="-99"/>
            <Node pos="r" depth="3" NCoef="0" IVar="-1" Cut="0.0000000000000000e+00" cType="1" res="-3.5519348457455635e-03" rms="2.8862133622169495e-01" purity="7.5968235731124878e-01" nType="-99"/>
          </Node>
        </Node>
      </Node>
    </BinaryTree>
    <BinaryTree type="DecisionTree" boostWeight="1.0000000000000000e+00" itree="385">
      <Node pos="s" depth="0" NCoef="0" IVar="10" Cut="-1.7333137989044189e+00" cType="1" res="3.8369276444427669e-04" rms="2.8660511970520020e-01" purity="4.9894663691520691e-01" nType="0">
        <Node pos="l" depth="1" NCoef="0" IVar="5" Cut="6.7264091491699219e+01" cType="1" res="1.5952868387103081e-02" rms="2.9643717408180237e-01" purity="2.9667899012565613e-01" nType="0">
          <Node pos="l" depth="2" NCoef="0" IVar="-1" Cut="0.0000000000000000e+00" cType="1" res="2.1523479372262955e-03" rms="2.4330566823482513e-01" purity="1.0650800168514252e-01" nType="-99"/>
          <Node pos="r" depth="2" NCoef="0" IVar="-1" Cut="0.0000000000000000e+00" cType="1" res="2.9986567795276642e-02" rms="3.4030872583389282e-01" purity="4.8473328351974487e-01" nType="-99"/>
        </Node>
        <Node pos="r" depth="1" NCoef="0" IVar="9" Cut="-1.9996038675308228e+00" cType="1" res="-9.8754803184419870e-04" rms="2.8568232059478760e-01" purity="5.1676118373870850e-01" nType="0">
          <Node pos="l" depth="2" NCoef="0" IVar="-1" Cut="0.0000000000000000e+00" cType="1" res="-4.5699220150709152e-02" rms="1.9932816922664642e-01" purity="9.3369543552398682e-02" nType="-99"/>
          <Node pos="r" depth="2" NCoef="0" IVar="8" Cut="4.0009132027626038e-01" cType="1" res="-1.8781292601488531e-04" rms="2.8805726766586304e-01" purity="5.3073811531066895e-01" nType="0">
            <Node pos="l" depth="3" NCoef="0" IVar="-1" Cut="0.0000000000000000e+00" cType="1" res="-3.4988950937986374e-03" rms="2.8595000505447388e-01" purity="5.6358033418655396e-01" nType="-99"/>
            <Node pos="r" depth="3" NCoef="0" IVar="-1" Cut="0.0000000000000000e+00" cType="1" res="5.9439912438392639e-03" rms="2.9202318191528320e-01" purity="4.6711692214012146e-01" nType="-99"/>
          </Node>
        </Node>
      </Node>
    </BinaryTree>
    <BinaryTree type="DecisionTree" boostWeight="1.0000000000000000e+00" itree="386">
      <Node pos="s" depth="0" NCoef="0" IVar="11" Cut="1.4190063476562500e+00" cType="1" res="-9.8698085639625788e-04" rms="2.8929436206817627e-01" purity="4.9954232573509216e-01" nType="0">
        <Node pos="l" depth="1" NCoef="0" IVar="10" Cut="1.1998711824417114e+00" cType="1" res="2.8075362206436694e-04" rms="2.8685349225997925e-01" purity="4.9065625667572021e-01" nType="0">
          <Node pos="l" depth="2" NCoef="0" IVar="3" Cut="1.3103692626953125e+02" cType="1" res="2.1823314018547535e-03" rms="2.8696867823600769e-01" purity="5.1679426431655884e-01" nType="0">
            <Node pos="l" depth="3" NCoef="0" IVar="-1" Cut="0.0000000000000000e+00" cType="1" res="-1.9174957647919655e-02" rms="1.9441002607345581e-01" purity="7.0430040359497070e-02" nType="-99"/>
            <Node pos="r" depth="3" NCoef="0" IVar="-1" Cut="0.0000000000000000e+00" cType="1" res="4.0043219923973083e-03" rms="2.9621770977973938e-01" purity="5.7099914550781250e-01" nType="-99"/>
          </Node>
          <Node pos="r" depth="2" NCoef="0" IVar="11" Cut="-1.3166425228118896e+00" cType="1" res="-9.9585587158799171e-03" rms="2.8601518273353577e-01" purity="3.4991249442100525e-01" nType="0">
            <Node pos="l" depth="3" NCoef="0" IVar="-1" Cut="0.0000000000000000e+00" cType="1" res="-1.6490769339725375e-03" rms="2.7409452199935913e-01" purity="2.0173338055610657e-01" nType="-99"/>
            <Node pos="r" depth="3" NCoef="0" IVar="-1" Cut="0.0000000000000000e+00" cType="1" res="-2.7459101751446724e-02" rms="3.0669179558753967e-01" purity="6.3107222318649292e-01" nType="-99"/>
          </Node>
        </Node>
        <Node pos="r" depth="1" NCoef="0" IVar="4" Cut="1.6285124206542969e+02" cType="1" res="-2.0369697362184525e-02" rms="3.2371649146080017e-01" purity="6.3540339469909668e-01" nType="0">
          <Node pos="l" depth="2" NCoef="0" IVar="-1" Cut="0.0000000000000000e+00" cType="1" res="-3.4820098429918289e-02" rms="3.6572870612144470e-01" purity="4.6440058946609497e-01" nType="-99"/>
          <Node pos="r" depth="2" NCoef="0" IVar="-1" Cut="0.0000000000000000e+00" cType="1" res="-2.3035346530377865e-03" rms="2.7932715415954590e-01" purity="7.8921687602996826e-01" nType="-99"/>
        </Node>
      </Node>
    </BinaryTree>
    <BinaryTree type="DecisionTree" boostWeight="1.0000000000000000e+00" itree="387">
      <Node pos="s" depth="0" NCoef="0" IVar="9" Cut="-1.4665843248367310e+00" cType="1" res="-1.7691943503450602e-04" rms="2.8890559077262878e-01" purity="5.0112497806549072e-01" nType="0">
        <Node pos="l" depth="1" NCoef="0" IVar="8" Cut="-6.6533637046813965e-01" cType="1" res="1.4973414130508900e-02" rms="2.8036174178123474e-01" purity="2.4168135225772858e-01" nType="0">
          <Node pos="l" depth="2" NCoef="0" IVar="-1" Cut="0.0000000000000000e+00" cType="1" res="-1.0689633898437023e-02" rms="2.4776345491409302e-01" purity="1.8008002638816833e-01" nType="-99"/>
          <Node pos="r" depth="2" NCoef="0" IVar="1" Cut="3.6727964878082275e-02" cType="1" res="2.6961509138345718e-02" rms="2.9594132304191589e-01" purity="2.7526545524597168e-01" nType="0">
            <Node pos="l" depth="3" NCoef="0" IVar="-1" Cut="0.0000000000000000e+00" cType="1" res="1.9658330827951431e-02" rms="2.2824348509311676e-01" purity="1.1129231005907059e-01" nType="-99"/>
            <Node pos="r" depth="3" NCoef="0" IVar="-1" Cut="0.0000000000000000e+00" cType="1" res="3.8037460297346115e-02" rms="3.5629078745841980e-01" purity="4.6028843522071838e-01" nType="-99"/>
          </Node>
        </Node>
        <Node pos="r" depth="1" NCoef="0" IVar="1" Cut="4.2413551360368729e-02" cType="1" res="-1.6914673615247011e-03" rms="2.8970229625701904e-01" purity="5.2706104516983032e-01" nType="0">
          <Node pos="l" depth="2" NCoef="0" IVar="8" Cut="1.7334707975387573e+00" cType="1" res="4.2389794252812862e-03" rms="2.8022789955139160e-01" purity="2.3294605314731598e-01" nType="0">
            <Node pos="l" depth="3" NCoef="0" IVar="-1" Cut="0.0000000000000000e+00" cType="1" res="7.1672112680971622e-03" rms="2.9014408588409424e-01" purity="2.5334873795509338e-01" nType="-99"/>
            <Node pos="r" depth="3" NCoef="0" IVar="-1" Cut="0.0000000000000000e+00" cType="1" res="-3.1343296170234680e-02" rms="1.6299201548099518e-01" purity="4.6418257057666779e-02" nType="-99"/>
          </Node>
          <Node pos="r" depth="2" NCoef="0" IVar="7" Cut="-9.4999724626541138e-01" cType="1" res="-5.6096720509231091e-03" rms="2.9573032259941101e-01" purity="7.2138071060180664e-01" nType="0">
            <Node pos="l" depth="3" NCoef="0" IVar="-1" Cut="0.0000000000000000e+00" cType="1" res="-3.0521931126713753e-02" rms="3.0584838986396790e-01" purity="5.5982488393783569e-01" nType="-99"/>
            <Node pos="r" depth="3" NCoef="0" IVar="-1" Cut="0.0000000000000000e+00" cType="1" res="-4.2936983518302441e-03" rms="2.9489025473594666e-01" purity="7.3312431573867798e-01" nType="-99"/>
          </Node>
        </Node>
      </Node>
    </BinaryTree>
    <BinaryTree type="DecisionTree" boostWeight="1.0000000000000000e+00" itree="388">
      <Node pos="s" depth="0" NCoef="0" IVar="10" Cut="-1.4665180444717407e+00" cType="1" res="-1.2622412759810686e-03" rms="2.8446862101554871e-01" purity="5.0253117084503174e-01" nType="0">
        <Node pos="l" depth="1" NCoef="0" IVar="5" Cut="7.5147567749023438e+01" cType="1" res="-1.6017708927392960e-02" rms="2.7574828267097473e-01" purity="3.2035881280899048e-01" nType="0">
          <Node pos="l" depth="2" NCoef="0" IVar="1" Cut="2.0872022956609726e-02" cType="1" res="-7.0736324414610863e-03" rms="2.5011628866195679e-01" purity="1.5037354826927185e-01" nType="0">
            <Node pos="l" depth="3" NCoef="0" IVar="-1" Cut="0.0000000000000000e+00" cType="1" res="3.6832820624113083e-02" rms="1.7157606780529022e-01" purity="4.3188974261283875e-02" nType="-99"/>
            <Node pos="r" depth="3" NCoef="0" IVar="-1" Cut="0.0000000000000000e+00" cType="1" res="-1.8323270604014397e-02" rms="2.9305663704872131e-01" purity="2.2690036892890930e-01" nType="-99"/>
          </Node>
          <Node pos="r" depth="2" NCoef="0" IVar="-1" Cut="0.0000000000000000e+00" cType="1" res="-2.9590360820293427e-02" rms="3.0825164914131165e-01" purity="5.6324464082717896e-01" nType="-99"/>
        </Node>
        <Node pos="r" depth="1" NCoef="0" IVar="1" Cut="1.6949136555194855e-01" cType="1" res="6.5271672792732716e-04" rms="2.8552490472793579e-01" purity="5.2617335319519043e-01" nType="0">
          <Node pos="l" depth="2" NCoef="0" IVar="11" Cut="1.6950782537460327e+00" cType="1" res="1.8751485040411353e-03" rms="2.9192584753036499e-01" purity="4.7697231173515320e-01" nType="0">
            <Node pos="l" depth="3" NCoef="0" IVar="-1" Cut="0.0000000000000000e+00" cType="1" res="1.1038510128855705e-03" rms="2.9002758860588074e-01" purity="4.7153398394584656e-01" nType="-99"/>
            <Node pos="r" depth="3" NCoef="0" IVar="-1" Cut="0.0000000000000000e+00" cType="1" res="2.0682709291577339e-02" rms="3.3226448297500610e-01" purity="6.0325127840042114e-01" nType="-99"/>
          </Node>
          <Node pos="r" depth="2" NCoef="0" IVar="-1" Cut="0.0000000000000000e+00" cType="1" res="-1.6769636422395706e-02" rms="2.3116071522235870e-01" purity="8.9878296852111816e-01" nType="-99"/>
        </Node>
      </Node>
    </BinaryTree>
    <BinaryTree type="DecisionTree" boostWeight="1.0000000000000000e+00" itree="389">
      <Node pos="s" depth="0" NCoef="0" IVar="1" Cut="1.0949882119894028e-01" cType="1" res="-1.1829684081021696e-04" rms="2.8708091378211975e-01" purity="5.0014358758926392e-01" nType="0">
        <Node pos="l" depth="1" NCoef="0" IVar="1" Cut="8.8640190660953522e-02" cType="1" res="-2.7785762213170528e-03" rms="2.9517558217048645e-01" purity="3.7668883800506592e-01" nType="0">
          <Node pos="l" depth="2" NCoef="0" IVar="3" Cut="2.2492512512207031e+02" cType="1" res="-8.7486510165035725e-04" rms="2.9428881406784058e-01" purity="3.4010928869247437e-01" nType="0">
            <Node pos="l" depth="3" NCoef="0" IVar="-1" Cut="0.0000000000000000e+00" cType="1" res="-7.8795794397592545e-03" rms="2.6773542165756226e-01" purity="2.0414303243160248e-01" nType="-99"/>
            <Node pos="r" depth="3" NCoef="0" IVar="-1" Cut="0.0000000000000000e+00" cType="1" res="6.1422670260071754e-03" rms="3.2763502001762390e-01" purity="5.2987438440322876e-01" nType="-99"/>
          </Node>
          <Node pos="r" depth="2" NCoef="0" IVar="-1" Cut="0.0000000000000000e+00" cType="1" res="-1.9966606050729752e-02" rms="3.0229952931404114e-01" purity="6.9610494375228882e-01" nType="-99"/>
        </Node>
        <Node pos="r" depth="1" NCoef="0" IVar="2" Cut="3.4769238281250000e+02" cType="1" res="7.3937536217272282e-03" rms="2.6273572444915771e-01" purity="8.4875291585922241e-01" nType="0">
          <Node pos="l" depth="2" NCoef="0" IVar="-1" Cut="0.0000000000000000e+00" cType="1" res="1.9528107717633247e-02" rms="2.8736481070518494e-01" purity="8.0075931549072266e-01" nType="-99"/>
          <Node pos="r" depth="2" NCoef="0" IVar="11" Cut="-2.1737172603607178e+00" cType="1" res="-2.6325427461415529e-03" rms="2.3274627327919006e-01" purity="9.0070456266403198e-01" nType="0">
            <Node pos="l" depth="3" NCoef="0" IVar="-1" Cut="0.0000000000000000e+00" cType="1" res="5.3104395046830177e-03" rms="3.5268479585647583e-01" purity="7.2277772426605225e-01" nType="-99"/>
            <Node pos="r" depth="3" NCoef="0" IVar="-1" Cut="0.0000000000000000e+00" cType="1" res="-1.5619119629263878e-02" rms="1.8626061081886292e-01" purity="9.4998151063919067e-01" nType="-99"/>
          </Node>
        </Node>
      </Node>
    </BinaryTree>
    <BinaryTree type="DecisionTree" boostWeight="1.0000000000000000e+00" itree="390">
      <Node pos="s" depth="0" NCoef="0" IVar="2" Cut="7.4323602294921875e+02" cType="1" res="3.1466947402805090e-03" rms="2.8776219487190247e-01" purity="5.0626522302627563e-01" nType="0">
        <Node pos="l" depth="1" NCoef="0" IVar="1" Cut="1.4789624512195587e-01" cType="1" res="3.7867417559027672e-03" rms="2.8648570179939270e-01" purity="5.0467884540557861e-01" nType="0">
          <Node pos="l" depth="2" NCoef="0" IVar="0" Cut="1.1626058349609375e+03" cType="1" res="5.4223854094743729e-03" rms="2.9378858208656311e-01" purity="4.3504494428634644e-01" nType="0">
            <Node pos="l" depth="3" NCoef="0" IVar="-1" Cut="0.0000000000000000e+00" cType="1" res="-3.5873332526534796e-03" rms="2.2110114991664886e-01" purity="6.2048960477113724e-02" nType="-99"/>
            <Node pos="r" depth="3" NCoef="0" IVar="-1" Cut="0.0000000000000000e+00" cType="1" res="7.8871510922908783e-03" rms="3.1527790427207947e-01" purity="5.6573140621185303e-01" nType="-99"/>
          </Node>
          <Node pos="r" depth="2" NCoef="0" IVar="-1" Cut="0.0000000000000000e+00" cType="1" res="-8.7546184659004211e-03" rms="2.4277161061763763e-01" purity="8.8331264257431030e-01" nType="-99"/>
        </Node>
        <Node pos="r" depth="1" NCoef="0" IVar="-1" Cut="0.0000000000000000e+00" cType="1" res="-1.6775181517004967e-02" rms="3.2846283912658691e-01" purity="5.6165581941604614e-01" nType="-99"/>
      </Node>
    </BinaryTree>
    <BinaryTree type="DecisionTree" boostWeight="1.0000000000000000e+00" itree="391">
      <Node pos="s" depth="0" NCoef="0" IVar="11" Cut="-5.1430892944335938e-01" cType="1" res="-1.0581492097117007e-04" rms="2.8740164637565613e-01" purity="5.0194555521011353e-01" nType="0">
        <Node pos="l" depth="1" NCoef="0" IVar="11" Cut="-1.2245324850082397e+00" cType="1" res="3.2223800662904978e-03" rms="2.9253420233726501e-01" purity="3.6578205227851868e-01" nType="0">
          <Node pos="l" depth="2" NCoef="0" IVar="2" Cut="6.1930303955078125e+02" cType="1" res="-6.9208977038215380e-06" rms="2.9401570558547974e-01" purity="2.8716826438903809e-01" nType="0">
            <Node pos="l" depth="3" NCoef="0" IVar="-1" Cut="0.0000000000000000e+00" cType="1" res="-1.9984887912869453e-03" rms="2.9010644555091858e-01" purity="2.7830392122268677e-01" nType="-99"/>
            <Node pos="r" depth="3" NCoef="0" IVar="-1" Cut="0.0000000000000000e+00" cType="1" res="1.8353795632719994e-02" rms="3.3815118670463562e-01" purity="3.9728119969367981e-01" nType="-99"/>
          </Node>
          <Node pos="r" depth="2" NCoef="0" IVar="4" Cut="1.6782360839843750e+02" cType="1" res="2.0660227164626122e-02" rms="2.8376677632331848e-01" purity="7.9028719663619995e-01" nType="0">
            <Node pos="l" depth="3" NCoef="0" IVar="-1" Cut="0.0000000000000000e+00" cType="1" res="3.2316479831933975e-02" rms="3.4323048591613770e-01" purity="6.3491874933242798e-01" nType="-99"/>
            <Node pos="r" depth="3" NCoef="0" IVar="-1" Cut="0.0000000000000000e+00" cType="1" res="1.4886723831295967e-02" rms="2.3222039639949799e-01" purity="8.9970260858535767e-01" nType="-99"/>
          </Node>
        </Node>
        <Node pos="r" depth="1" NCoef="0" IVar="9" Cut="-1.1983726024627686e+00" cType="1" res="-6.3971187919378281e-03" rms="2.7733120322227478e-01" purity="7.5933611392974854e-01" nType="0">
          <Node pos="l" depth="2" NCoef="0" IVar="-1" Cut="0.0000000000000000e+00" cType="1" res="-3.0787952244281769e-02" rms="3.0202037096023560e-01" purity="5.4041111469268799e-01" nType="-99"/>
          <Node pos="r" depth="2" NCoef="0" IVar="11" Cut="1.1720075458288193e-01" cType="1" res="-4.0408177301287651e-03" rms="2.7471593022346497e-01" purity="7.8046816587448120e-01" nType="0">
            <Node pos="l" depth="3" NCoef="0" IVar="-1" Cut="0.0000000000000000e+00" cType="1" res="-1.9180633127689362e-02" rms="2.6134136319160461e-01" purity="8.0992001295089722e-01" nType="-99"/>
            <Node pos="r" depth="3" NCoef="0" IVar="-1" Cut="0.0000000000000000e+00" cType="1" res="-3.3019317197613418e-04" rms="2.8006118535995483e-01" purity="7.6808828115463257e-01" nType="-99"/>
          </Node>
        </Node>
      </Node>
    </BinaryTree>
    <BinaryTree type="DecisionTree" boostWeight="1.0000000000000000e+00" itree="392">
      <Node pos="s" depth="0" NCoef="0" IVar="6" Cut="5.7308734893798828e+01" cType="1" res="1.0449262335896492e-03" rms="2.8904238343238831e-01" purity="5.0264507532119751e-01" nType="0">
        <Node pos="l" depth="1" NCoef="0" IVar="2" Cut="3.2072082519531250e+02" cType="1" res="5.1669604144990444e-03" rms="3.0436742305755615e-01" purity="2.7375841140747070e-01" nType="0">
          <Node pos="l" depth="2" NCoef="0" IVar="7" Cut="-3.4649151563644409e-01" cType="1" res="1.1570800095796585e-02" rms="2.9721054434776306e-01" purity="2.0745459198951721e-01" nType="0">
            <Node pos="l" depth="3" NCoef="0" IVar="-1" Cut="0.0000000000000000e+00" cType="1" res="3.1793389469385147e-02" rms="2.8309220075607300e-01" purity="1.8543988466262817e-01" nType="-99"/>
            <Node pos="r" depth="3" NCoef="0" IVar="-1" Cut="0.0000000000000000e+00" cType="1" res="4.3091070838272572e-03" rms="3.0588623881340027e-01" purity="2.2191962599754333e-01" nType="-99"/>
          </Node>
          <Node pos="r" depth="2" NCoef="0" IVar="1" Cut="1.1567614972591400e-01" cType="1" res="2.0972847414668649e-04" rms="3.0970317125320435e-01" purity="3.2508438825607300e-01" nType="0">
            <Node pos="l" depth="3" NCoef="0" IVar="-1" Cut="0.0000000000000000e+00" cType="1" res="3.1881686300039291e-03" rms="3.0302518606185913e-01" purity="2.7876201272010803e-01" nType="-99"/>
            <Node pos="r" depth="3" NCoef="0" IVar="-1" Cut="0.0000000000000000e+00" cType="1" res="-1.7334809526801109e-02" rms="3.5844063758850098e-01" purity="7.0010000467300415e-01" nType="-99"/>
          </Node>
        </Node>
        <Node pos="r" depth="1" NCoef="0" IVar="1" Cut="1.0956320166587830e-01" cType="1" res="-4.4368747621774673e-03" rms="2.6720571517944336e-01" purity="8.0703651905059814e-01" nType="0">
          <Node pos="l" depth="2" NCoef="0" IVar="11" Cut="-4.0000957250595093e-01" cType="1" res="-9.9398968741297722e-03" rms="3.0830365419387817e-01" purity="7.0226597785949707e-01" nType="0">
            <Node pos="l" depth="3" NCoef="0" IVar="-1" Cut="0.0000000000000000e+00" cType="1" res="-2.0635176450014114e-02" rms="3.1939765810966492e-01" purity="6.5898239612579346e-01" nType="-99"/>
            <Node pos="r" depth="3" NCoef="0" IVar="-1" Cut="0.0000000000000000e+00" cType="1" res="-4.0651075541973114e-03" rms="3.0176699161529541e-01" purity="7.2640526294708252e-01" nType="-99"/>
          </Node>
          <Node pos="r" depth="2" NCoef="0" IVar="-1" Cut="0.0000000000000000e+00" cType="1" res="7.4062943458557129e-03" rms="1.9790814816951752e-01" purity="9.4937872886657715e-01" nType="-99"/>
        </Node>
      </Node>
    </BinaryTree>
    <BinaryTree type="DecisionTree" boostWeight="1.0000000000000000e+00" itree="393">
      <Node pos="s" depth="0" NCoef="0" IVar="8" Cut="-1.3329833745956421e-01" cType="1" res="-1.7231574747711420e-03" rms="2.8236144781112671e-01" purity="4.9702879786491394e-01" nType="0">
        <Node pos="l" depth="1" NCoef="0" IVar="7" Cut="-6.2398558855056763e-01" cType="1" res="-6.1315922066569328e-03" rms="2.7797073125839233e-01" purity="4.7196894884109497e-01" nType="0">
          <Node pos="l" depth="2" NCoef="0" IVar="9" Cut="-1.1985441446304321e+00" cType="1" res="4.0419977158308029e-03" rms="2.7036240696907043e-01" purity="3.6710110306739807e-01" nType="0">
            <Node pos="l" depth="3" NCoef="0" IVar="-1" Cut="0.0000000000000000e+00" cType="1" res="-2.9679747298359871e-02" rms="2.4690376222133636e-01" purity="2.2607660293579102e-01" nType="-99"/>
            <Node pos="r" depth="3" NCoef="0" IVar="-1" Cut="0.0000000000000000e+00" cType="1" res="1.3491308316588402e-02" rms="2.7575802803039551e-01" purity="4.0409913659095764e-01" nType="-99"/>
          </Node>
          <Node pos="r" depth="2" NCoef="0" IVar="5" Cut="1.2497025299072266e+02" cType="1" res="-9.9287778139114380e-03" rms="2.8066316246986389e-01" purity="5.1110976934432983e-01" nType="0">
            <Node pos="l" depth="3" NCoef="0" IVar="-1" Cut="0.0000000000000000e+00" cType="1" res="-1.4170456677675247e-02" rms="2.9579687118530273e-01" purity="4.1948169469833374e-01" nType="-99"/>
            <Node pos="r" depth="3" NCoef="0" IVar="-1" Cut="0.0000000000000000e+00" cType="1" res="1.1928351595997810e-02" rms="1.9665111601352692e-01" purity="9.2941778898239136e-01" nType="-99"/>
          </Node>
        </Node>
        <Node pos="r" depth="1" NCoef="0" IVar="9" Cut="-9.3326896429061890e-01" cType="1" res="1.8320048693567514e-03" rms="2.8580367565155029e-01" purity="5.1723819971084595e-01" nType="0">
          <Node pos="l" depth="2" NCoef="0" IVar="8" Cut="1.1221619844436646e+00" cType="1" res="1.4838831499218941e-02" rms="2.9341012239456177e-01" purity="3.8478797674179077e-01" nType="0">
            <Node pos="l" depth="3" NCoef="0" IVar="-1" Cut="0.0000000000000000e+00" cType="1" res="7.8107593581080437e-03" rms="3.0459672212600708e-01" purity="4.7175681591033936e-01" nType="-99"/>
            <Node pos="r" depth="3" NCoef="0" IVar="-1" Cut="0.0000000000000000e+00" cType="1" res="6.1936482787132263e-02" rms="2.6133105158805847e-01" purity="1.5994308888912201e-01" nType="-99"/>
          </Node>
          <Node pos="r" depth="2" NCoef="0" IVar="10" Cut="-1.7334169149398804e+00" cType="1" res="-7.8221812145784497e-04" rms="2.8417843580245972e-01" purity="5.4385924339294434e-01" nType="0">
            <Node pos="l" depth="3" NCoef="0" IVar="-1" Cut="0.0000000000000000e+00" cType="1" res="2.5839539244771004e-02" rms="3.0334094166755676e-01" purity="3.9140614867210388e-01" nType="-99"/>
            <Node pos="r" depth="3" NCoef="0" IVar="-1" Cut="0.0000000000000000e+00" cType="1" res="-2.9108349699527025e-03" rms="2.8280436992645264e-01" purity="5.5384743213653564e-01" nType="-99"/>
          </Node>
        </Node>
      </Node>
    </BinaryTree>
    <BinaryTree type="DecisionTree" boostWeight="1.0000000000000000e+00" itree="394">
      <Node pos="s" depth="0" NCoef="0" IVar="10" Cut="-1.7333250045776367e+00" cType="1" res="-1.8063628813251853e-03" rms="2.8740334510803223e-01" purity="4.9140173196792603e-01" nType="0">
        <Node pos="l" depth="1" NCoef="0" IVar="5" Cut="6.7265869140625000e+01" cType="1" res="-1.5641365200281143e-02" rms="2.7636435627937317e-01" purity="2.5555422902107239e-01" nType="0">
          <Node pos="l" depth="2" NCoef="0" IVar="-1" Cut="0.0000000000000000e+00" cType="1" res="-6.0948035679757595e-03" rms="2.2946953773498535e-01" purity="1.0553467273712158e-01" nType="-99"/>
          <Node pos="r" depth="2" NCoef="0" IVar="-1" Cut="0.0000000000000000e+00" cType="1" res="-2.7371762320399284e-02" rms="3.1883415579795837e-01" purity="4.1746088862419128e-01" nType="-99"/>
        </Node>
        <Node pos="r" depth="1" NCoef="0" IVar="11" Cut="-5.1437032222747803e-01" cType="1" res="-6.2899955082684755e-04" rms="2.8829258680343628e-01" purity="5.1147240400314331e-01" nType="0">
          <Node pos="l" depth="2" NCoef="0" IVar="9" Cut="-1.7332178354263306e+00" cType="1" res="2.8427992947399616e-03" rms="2.9435408115386963e-01" purity="3.7419813871383667e-01" nType="0">
            <Node pos="l" depth="3" NCoef="0" IVar="-1" Cut="0.0000000000000000e+00" cType="1" res="-2.8664316982030869e-02" rms="2.1424506604671478e-01" purity="1.0565342009067535e-01" nType="-99"/>
            <Node pos="r" depth="3" NCoef="0" IVar="-1" Cut="0.0000000000000000e+00" cType="1" res="4.6799667179584503e-03" rms="2.9917529225349426e-01" purity="3.9323699474334717e-01" nType="-99"/>
          </Node>
          <Node pos="r" depth="2" NCoef="0" IVar="8" Cut="-9.2534226179122925e-01" cType="1" res="-7.1102380752563477e-03" rms="2.7650499343872070e-01" purity="7.6773941516876221e-01" nType="0">
            <Node pos="l" depth="3" NCoef="0" IVar="-1" Cut="0.0000000000000000e+00" cType="1" res="8.7978309020400047e-03" rms="3.0869367718696594e-01" purity="6.0716789960861206e-01" nType="-99"/>
            <Node pos="r" depth="3" NCoef="0" IVar="-1" Cut="0.0000000000000000e+00" cType="1" res="-1.2624629773199558e-02" rms="2.7164176106452942e-01" purity="7.9010117053985596e-01" nType="-99"/>
          </Node>
        </Node>
      </Node>
    </BinaryTree>
    <BinaryTree type="DecisionTree" boostWeight="1.0000000000000000e+00" itree="395">
      <Node pos="s" depth="0" NCoef="0" IVar="10" Cut="-1.7330559492111206e+00" cType="1" res="7.2381575591862202e-05" rms="2.8704440593719482e-01" purity="4.9808001518249512e-01" nType="0">
        <Node pos="l" depth="1" NCoef="0" IVar="4" Cut="1.2538902282714844e+02" cType="1" res="-1.7124008387327194e-02" rms="2.7566692233085632e-01" purity="2.6468077301979065e-01" nType="0">
          <Node pos="l" depth="2" NCoef="0" IVar="-1" Cut="0.0000000000000000e+00" cType="1" res="2.0772765856236219e-03" rms="2.3206895589828491e-01" purity="1.0227701067924500e-01" nType="-99"/>
          <Node pos="r" depth="2" NCoef="0" IVar="-1" Cut="0.0000000000000000e+00" cType="1" res="-3.3095173537731171e-02" rms="3.0865147709846497e-01" purity="4.1025790572166443e-01" nType="-99"/>
        </Node>
        <Node pos="r" depth="1" NCoef="0" IVar="0" Cut="1.6624144287109375e+03" cType="1" res="1.5589196700602770e-03" rms="2.8795862197875977e-01" purity="5.1825618743896484e-01" nType="0">
          <Node pos="l" depth="2" NCoef="0" IVar="5" Cut="1.0750351715087891e+02" cType="1" res="4.7436566092073917e-03" rms="3.0783501267433167e-01" purity="3.2960256934165955e-01" nType="0">
            <Node pos="l" depth="3" NCoef="0" IVar="-1" Cut="0.0000000000000000e+00" cType="1" res="7.4133402667939663e-03" rms="3.0646386742591858e-01" purity="2.7902176976203918e-01" nType="-99"/>
            <Node pos="r" depth="3" NCoef="0" IVar="-1" Cut="0.0000000000000000e+00" cType="1" res="-1.3458625413477421e-02" rms="3.1799697875976562e-01" purity="7.3530161380767822e-01" nType="-99"/>
          </Node>
          <Node pos="r" depth="2" NCoef="0" IVar="11" Cut="-2.4476377964019775e+00" cType="1" res="-3.9223129861056805e-03" rms="2.4998213350772858e-01" purity="8.4294676780700684e-01" nType="0">
            <Node pos="l" depth="3" NCoef="0" IVar="-1" Cut="0.0000000000000000e+00" cType="1" res="-1.4392531476914883e-02" rms="3.5059881210327148e-01" purity="5.8653676509857178e-01" nType="-99"/>
            <Node pos="r" depth="3" NCoef="0" IVar="-1" Cut="0.0000000000000000e+00" cType="1" res="-4.4502210221253335e-04" rms="2.1384337544441223e-01" purity="9.1380208730697632e-01" nType="-99"/>
          </Node>
        </Node>
      </Node>
    </BinaryTree>
    <BinaryTree type="DecisionTree" boostWeight="1.0000000000000000e+00" itree="396">
      <Node pos="s" depth="0" NCoef="0" IVar="5" Cut="8.5531944274902344e+01" cType="1" res="-1.2387083843350410e-03" rms="2.8726324439048767e-01" purity="5.0074684619903564e-01" nType="0">
        <Node pos="l" depth="1" NCoef="0" IVar="5" Cut="7.5378730773925781e+01" cType="1" res="-5.5362987332046032e-03" rms="3.0027863383293152e-01" purity="2.6076397299766541e-01" nType="0">
          <Node pos="l" depth="2" NCoef="0" IVar="9" Cut="1.3314016163349152e-01" cType="1" res="-1.2835133820772171e-03" rms="2.8839504718780518e-01" purity="2.1771530807018280e-01" nType="0">
            <Node pos="l" depth="3" NCoef="0" IVar="-1" Cut="0.0000000000000000e+00" cType="1" res="-9.2912195250391960e-03" rms="2.8241911530494690e-01" purity="2.2184333205223083e-01" nType="-99"/>
            <Node pos="r" depth="3" NCoef="0" IVar="-1" Cut="0.0000000000000000e+00" cType="1" res="8.2942694425582886e-03" rms="2.9519414901733398e-01" purity="2.1276482939720154e-01" nType="-99"/>
          </Node>
          <Node pos="r" depth="2" NCoef="0" IVar="8" Cut="-1.3585893809795380e-01" cType="1" res="-2.3943850770592690e-02" rms="3.4645256400108337e-01" purity="4.4709369540214539e-01" nType="0">
            <Node pos="l" depth="3" NCoef="0" IVar="-1" Cut="0.0000000000000000e+00" cType="1" res="-2.7349726296961308e-03" rms="3.3904302120208740e-01" purity="4.4094237685203552e-01" nType="-99"/>
            <Node pos="r" depth="3" NCoef="0" IVar="-1" Cut="0.0000000000000000e+00" cType="1" res="-3.4383300691843033e-02" rms="3.5162219405174255e-01" purity="4.5227959752082825e-01" nType="-99"/>
          </Node>
        </Node>
        <Node pos="r" depth="1" NCoef="0" IVar="6" Cut="5.7308734893798828e+01" cType="1" res="4.2602112516760826e-03" rms="2.6959520578384399e-01" purity="8.0781352519989014e-01" nType="0">
          <Node pos="l" depth="2" NCoef="0" IVar="8" Cut="-3.9932918548583984e-01" cType="1" res="1.6711980104446411e-02" rms="3.4724012017250061e-01" purity="5.8758682012557983e-01" nType="0">
            <Node pos="l" depth="3" NCoef="0" IVar="-1" Cut="0.0000000000000000e+00" cType="1" res="3.0735891312360764e-02" rms="3.6249995231628418e-01" purity="5.1081109046936035e-01" nType="-99"/>
            <Node pos="r" depth="3" NCoef="0" IVar="-1" Cut="0.0000000000000000e+00" cType="1" res="5.7066660374403000e-03" rms="3.3995652198791504e-01" purity="6.2087178230285645e-01" nType="-99"/>
          </Node>
          <Node pos="r" depth="2" NCoef="0" IVar="10" Cut="-9.3288040161132812e-01" cType="1" res="1.9095808966085315e-04" rms="2.3866817355155945e-01" purity="8.7978392839431763e-01" nType="0">
            <Node pos="l" depth="3" NCoef="0" IVar="-1" Cut="0.0000000000000000e+00" cType="1" res="1.8702674657106400e-02" rms="2.5800663232803345e-01" purity="8.4977084398269653e-01" nType="-99"/>
            <Node pos="r" depth="3" NCoef="0" IVar="-1" Cut="0.0000000000000000e+00" cType="1" res="-5.1117185503244400e-03" rms="2.3378333449363708e-01" purity="8.8683182001113892e-01" nType="-99"/>
          </Node>
        </Node>
      </Node>
    </BinaryTree>
    <BinaryTree type="DecisionTree" boostWeight="1.0000000000000000e+00" itree="397">
      <Node pos="s" depth="0" NCoef="0" IVar="10" Cut="1.4664859771728516e+00" cType="1" res="1.8936553969979286e-03" rms="2.8864347934722900e-01" purity="5.0174105167388916e-01" nType="0">
        <Node pos="l" depth="1" NCoef="0" IVar="7" Cut="-9.1034787893295288e-01" cType="1" res="2.0510563626885414e-04" rms="2.8690257668495178e-01" purity="5.2163517475128174e-01" nType="0">
          <Node pos="l" depth="2" NCoef="0" IVar="0" Cut="1.5730898437500000e+03" cType="1" res="-9.0506970882415771e-03" rms="2.4701941013336182e-01" purity="2.5763282179832458e-01" nType="0">
            <Node pos="l" depth="3" NCoef="0" IVar="-1" Cut="0.0000000000000000e+00" cType="1" res="-2.2665360942482948e-02" rms="2.2283799946308136e-01" purity="1.2343469262123108e-01" nType="-99"/>
            <Node pos="r" depth="3" NCoef="0" IVar="-1" Cut="0.0000000000000000e+00" cType="1" res="4.4617243111133575e-03" rms="3.0385828018188477e-01" purity="6.3030403852462769e-01" nType="-99"/>
          </Node>
          <Node pos="r" depth="2" NCoef="0" IVar="1" Cut="1.0230755060911179e-01" cType="1" res="1.9220454851165414e-03" rms="2.9367387294769287e-01" purity="5.7060730457305908e-01" nType="0">
            <Node pos="l" depth="3" NCoef="0" IVar="-1" Cut="0.0000000000000000e+00" cType="1" res="5.9482208453118801e-03" rms="3.0693799257278442e-01" purity="4.3603017926216125e-01" nType="-99"/>
            <Node pos="r" depth="3" NCoef="0" IVar="-1" Cut="0.0000000000000000e+00" cType="1" res="-7.8248446807265282e-03" rms="2.6445868611335754e-01" purity="8.4468108415603638e-01" nType="-99"/>
          </Node>
        </Node>
        <Node pos="r" depth="1" NCoef="0" IVar="11" Cut="-7.9069888591766357e-01" cType="1" res="1.5056273899972439e-02" rms="3.0154618620872498e-01" purity="3.4666186571121216e-01" nType="0">
          <Node pos="l" depth="2" NCoef="0" IVar="10" Cut="2.1014230251312256e+00" cType="1" res="1.6559526557102799e-03" rms="2.8053098917007446e-01" purity="2.0238038897514343e-01" nType="0">
            <Node pos="l" depth="3" NCoef="0" IVar="-1" Cut="0.0000000000000000e+00" cType="1" res="1.0205708444118500e-02" rms="2.9602929949760437e-01" purity="2.4543210864067078e-01" nType="-99"/>
            <Node pos="r" depth="3" NCoef="0" IVar="-1" Cut="0.0000000000000000e+00" cType="1" res="-1.6952499747276306e-02" rms="2.4752897024154663e-01" purity="1.1959081888198853e-01" nType="-99"/>
          </Node>
          <Node pos="r" depth="2" NCoef="0" IVar="-1" Cut="0.0000000000000000e+00" cType="1" res="3.6714453250169754e-02" rms="3.3752375841140747e-01" purity="6.3019537925720215e-01" nType="-99"/>
        </Node>
      </Node>
    </BinaryTree>
    <BinaryTree type="DecisionTree" boostWeight="1.0000000000000000e+00" itree="398">
      <Node pos="s" depth="0" NCoef="0" IVar="2" Cut="4.7953063964843750e+02" cType="1" res="1.2141247279942036e-03" rms="2.8678390383720398e-01" purity="4.9951240420341492e-01" nType="0">
        <Node pos="l" depth="1" NCoef="0" IVar="1" Cut="1.2723638117313385e-01" cType="1" res="-6.5437413286417723e-04" rms="2.8222075104713440e-01" purity="4.7398909926414490e-01" nType="0">
          <Node pos="l" depth="2" NCoef="0" IVar="8" Cut="-6.6656309366226196e-01" cType="1" res="-3.4359192941337824e-03" rms="2.8763747215270996e-01" purity="3.6133787035942078e-01" nType="0">
            <Node pos="l" depth="3" NCoef="0" IVar="-1" Cut="0.0000000000000000e+00" cType="1" res="-1.3933426700532436e-02" rms="2.6175439357757568e-01" purity="2.6476746797561646e-01" nType="-99"/>
            <Node pos="r" depth="3" NCoef="0" IVar="-1" Cut="0.0000000000000000e+00" cType="1" res="-5.1996746333315969e-04" rms="2.9735296964645386e-01" purity="4.0014392137527466e-01" nType="-99"/>
          </Node>
          <Node pos="r" depth="2" NCoef="0" IVar="5" Cut="8.8325859069824219e+01" cType="1" res="8.8787991553544998e-03" rms="2.6258689165115356e-01" purity="8.6007803678512573e-01" nType="0">
            <Node pos="l" depth="3" NCoef="0" IVar="-1" Cut="0.0000000000000000e+00" cType="1" res="1.7511485144495964e-02" rms="3.6678996682167053e-01" purity="6.8276745080947876e-01" nType="-99"/>
            <Node pos="r" depth="3" NCoef="0" IVar="-1" Cut="0.0000000000000000e+00" cType="1" res="4.3177399784326553e-03" rms="1.8910010159015656e-01" purity="9.4940400123596191e-01" nType="-99"/>
          </Node>
        </Node>
        <Node pos="r" depth="1" NCoef="0" IVar="10" Cut="-1.1997603178024292e+00" cType="1" res="7.8614279627799988e-03" rms="3.0236640572547913e-01" purity="5.9031307697296143e-01" nType="0">
          <Node pos="l" depth="2" NCoef="0" IVar="-1" Cut="0.0000000000000000e+00" cType="1" res="3.4234043210744858e-02" rms="3.3051159977912903e-01" purity="4.9045640230178833e-01" nType="-99"/>
          <Node pos="r" depth="2" NCoef="0" IVar="7" Cut="-6.5758562088012695e-01" cType="1" res="3.0507931951433420e-03" rms="2.9651606082916260e-01" purity="6.0913681983947754e-01" nType="0">
            <Node pos="l" depth="3" NCoef="0" IVar="-1" Cut="0.0000000000000000e+00" cType="1" res="-2.0035739988088608e-02" rms="2.9156255722045898e-01" purity="3.6168733239173889e-01" nType="-99"/>
            <Node pos="r" depth="3" NCoef="0" IVar="-1" Cut="0.0000000000000000e+00" cType="1" res="7.7303550206124783e-03" rms="2.9736128449440002e-01" purity="6.5956300497055054e-01" nType="-99"/>
          </Node>
        </Node>
      </Node>
    </BinaryTree>
    <BinaryTree type="DecisionTree" boostWeight="1.0000000000000000e+00" itree="399">
      <Node pos="s" depth="0" NCoef="0" IVar="10" Cut="-1.4666730165481567e+00" cType="1" res="1.8510953523218632e-03" rms="2.8851264715194702e-01" purity="5.0031775236129761e-01" nType="0">
        <Node pos="l" depth="1" NCoef="0" IVar="5" Cut="6.7265045166015625e+01" cType="1" res="1.1964263394474983e-02" rms="2.8718692064285278e-01" purity="3.3515286445617676e-01" nType="0">
          <Node pos="l" depth="2" NCoef="0" IVar="5" Cut="5.6576385498046875e+01" cType="1" res="2.1486654877662659e-02" rms="2.6429659128189087e-01" purity="1.5171195566654205e-01" nType="0">
            <Node pos="l" depth="3" NCoef="0" IVar="-1" Cut="0.0000000000000000e+00" cType="1" res="7.0970214903354645e-02" rms="2.6577946543693542e-01" purity="1.3936403393745422e-01" nType="-99"/>
            <Node pos="r" depth="3" NCoef="0" IVar="-1" Cut="0.0000000000000000e+00" cType="1" res="6.8717533722519875e-03" rms="2.6186573505401611e-01" purity="1.6248001158237457e-01" nType="-99"/>
          </Node>
          <Node pos="r" depth="2" NCoef="0" IVar="7" Cut="-3.1266146898269653e-01" cType="1" res="3.0337760690599680e-03" rms="3.0683955550193787e-01" purity="5.0719118118286133e-01" nType="0">
            <Node pos="l" depth="3" NCoef="0" IVar="-1" Cut="0.0000000000000000e+00" cType="1" res="-1.2436942197382450e-02" rms="3.0226415395736694e-01" purity="4.3424886465072632e-01" nType="-99"/>
            <Node pos="r" depth="3" NCoef="0" IVar="-1" Cut="0.0000000000000000e+00" cType="1" res="1.3213606551289558e-02" rms="3.0955964326858521e-01" purity="5.5736029148101807e-01" nType="-99"/>
          </Node>
        </Node>
        <Node pos="r" depth="1" NCoef="0" IVar="2" Cut="3.1853173828125000e+02" cType="1" res="4.7006501699797809e-04" rms="2.8866571187973022e-01" purity="5.2287226915359497e-01" nType="0">
          <Node pos="l" depth="2" NCoef="0" IVar="4" Cut="1.6289309692382812e+02" cType="1" res="-4.8533012159168720e-03" rms="2.8640332818031311e-01" purity="4.3214958906173706e-01" nType="0">
            <Node pos="l" depth="3" NCoef="0" IVar="-1" Cut="0.0000000000000000e+00" cType="1" res="-1.3281082734465599e-02" rms="2.8381043672561646e-01" purity="2.7877470850944519e-01" nType="-99"/>
            <Node pos="r" depth="3" NCoef="0" IVar="-1" Cut="0.0000000000000000e+00" cType="1" res="8.9053064584732056e-03" rms="2.9120731353759766e-01" purity="7.4468004703521729e-01" nType="-99"/>
          </Node>
          <Node pos="r" depth="2" NCoef="0" IVar="11" Cut="1.4187746047973633e+00" cType="1" res="3.9511462673544884e-03" rms="2.9008278250694275e-01" purity="5.8219814300537109e-01" nType="0">
            <Node pos="l" depth="3" NCoef="0" IVar="-1" Cut="0.0000000000000000e+00" cType="1" res="6.4553814008831978e-03" rms="2.8877043724060059e-01" purity="5.7558155059814453e-01" nType="-99"/>
            <Node pos="r" depth="3" NCoef="0" IVar="-1" Cut="0.0000000000000000e+00" cType="1" res="-1.8456466495990753e-02" rms="3.0835896730422974e-01" purity="6.8152600526809692e-01" nType="-99"/>
          </Node>
        </Node>
      </Node>
    </BinaryTree>
    <BinaryTree type="DecisionTree" boostWeight="1.0000000000000000e+00" itree="400">
      <Node pos="s" depth="0" NCoef="0" IVar="9" Cut="1.3359883427619934e-01" cType="1" res="-1.5361815458163619e-03" rms="2.8693357110023499e-01" purity="4.9608033895492554e-01" nType="0">
        <Node pos="l" depth="1" NCoef="0" IVar="10" Cut="1.3326533138751984e-01" cType="1" res="-6.9429539144039154e-03" rms="2.8095802664756775e-01" purity="5.0265574455261230e-01" nType="0">
          <Node pos="l" depth="2" NCoef="0" IVar="10" Cut="-1.9618111848831177e+00" cType="1" res="-1.1497717350721359e-02" rms="2.7907764911651611e-01" purity="4.8985192179679871e-01" nType="0">
            <Node pos="l" depth="3" NCoef="0" IVar="-1" Cut="0.0000000000000000e+00" cType="1" res="1.5747021883726120e-02" rms="2.8761401772499084e-01" purity="2.3478764295578003e-01" nType="-99"/>
            <Node pos="r" depth="3" NCoef="0" IVar="-1" Cut="0.0000000000000000e+00" cType="1" res="-1.7147121950984001e-02" rms="2.7792400121688843e-01" purity="5.1985895633697510e-01" nType="-99"/>
          </Node>
          <Node pos="r" depth="2" NCoef="0" IVar="1" Cut="6.0209121555089951e-02" cType="1" res="-7.6793058542534709e-04" rms="2.8337049484252930e-01" purity="5.2001422643661499e-01" nType="0">
            <Node pos="l" depth="3" NCoef="0" IVar="-1" Cut="0.0000000000000000e+00" cType="1" res="-8.4659140557050705e-03" rms="2.7793866395950317e-01" purity="2.7221843600273132e-01" nType="-99"/>
            <Node pos="r" depth="3" NCoef="0" IVar="-1" Cut="0.0000000000000000e+00" cType="1" res="6.6512050107121468e-03" rms="2.8868669271469116e-01" purity="7.7359712123870850e-01" nType="-99"/>
          </Node>
        </Node>
        <Node pos="r" depth="1" NCoef="0" IVar="6" Cut="7.9310623168945312e+01" cType="1" res="5.1043191924691200e-03" rms="2.9397052526473999e-01" purity="4.8800456523895264e-01" nType="0">
          <Node pos="l" depth="2" NCoef="0" IVar="6" Cut="5.6645179748535156e+01" cType="1" res="9.4912732020020485e-03" rms="3.1135460734367371e-01" purity="3.6689254641532898e-01" nType="0">
            <Node pos="l" depth="3" NCoef="0" IVar="-1" Cut="0.0000000000000000e+00" cType="1" res="6.4811529591679573e-03" rms="3.0470997095108032e-01" purity="2.6156994700431824e-01" nType="-99"/>
            <Node pos="r" depth="3" NCoef="0" IVar="-1" Cut="0.0000000000000000e+00" cType="1" res="1.8139978870749474e-02" rms="3.2976758480072021e-01" purity="6.7465001344680786e-01" nType="-99"/>
          </Node>
          <Node pos="r" depth="2" NCoef="0" IVar="-1" Cut="0.0000000000000000e+00" cType="1" res="-1.9302777945995331e-02" rms="2.2564332187175751e-01" purity="8.9340287446975708e-01" nType="-99"/>
        </Node>
      </Node>
    </BinaryTree>
    <BinaryTree type="DecisionTree" boostWeight="1.0000000000000000e+00" itree="401">
      <Node pos="s" depth="0" NCoef="0" IVar="8" Cut="1.3344968855381012e-01" cType="1" res="-8.5619033779948950e-04" rms="2.8716465830802917e-01" purity="4.9921661615371704e-01" nType="0">
        <Node pos="l" depth="1" NCoef="0" IVar="7" Cut="-1.1358723640441895e+00" cType="1" res="3.6002278793603182e-03" rms="2.8658312559127808e-01" purity="5.1540219783782959e-01" nType="0">
          <Node pos="l" depth="2" NCoef="0" IVar="8" Cut="-7.0440351963043213e-01" cType="1" res="-1.8089169636368752e-02" rms="2.3699450492858887e-01" purity="1.7063595354557037e-01" nType="0">
            <Node pos="l" depth="3" NCoef="0" IVar="-1" Cut="0.0000000000000000e+00" cType="1" res="-5.7890910655260086e-02" rms="1.9563817977905273e-01" purity="9.1726526618003845e-02" nType="-99"/>
            <Node pos="r" depth="3" NCoef="0" IVar="-1" Cut="0.0000000000000000e+00" cType="1" res="-8.1082861870527267e-03" rms="2.7782127261161804e-01" purity="2.6446595788002014e-01" nType="-99"/>
          </Node>
          <Node pos="r" depth="2" NCoef="0" IVar="7" Cut="-7.6100015640258789e-01" cType="1" res="6.3751698471605778e-03" rms="2.9220500588417053e-01" purity="5.5951160192489624e-01" nType="0">
            <Node pos="l" depth="3" NCoef="0" IVar="-1" Cut="0.0000000000000000e+00" cType="1" res="3.2849397510290146e-02" rms="3.1285980343818665e-01" purity="5.3412812948226929e-01" nType="-99"/>
            <Node pos="r" depth="3" NCoef="0" IVar="-1" Cut="0.0000000000000000e+00" cType="1" res="4.0904385969042778e-03" rms="2.8944441676139832e-01" purity="5.6261569261550903e-01" nType="-99"/>
          </Node>
        </Node>
        <Node pos="r" depth="1" NCoef="0" IVar="10" Cut="4.0006047487258911e-01" cType="1" res="-6.3368938863277435e-03" rms="2.8778365254402161e-01" purity="4.7931081056594849e-01" nType="0">
          <Node pos="l" depth="2" NCoef="0" IVar="10" Cut="-8.1879538297653198e-01" cType="1" res="1.1233534896746278e-03" rms="2.9111486673355103e-01" purity="5.0487500429153442e-01" nType="0">
            <Node pos="l" depth="3" NCoef="0" IVar="-1" Cut="0.0000000000000000e+00" cType="1" res="-1.1404135264456272e-02" rms="2.8889635205268860e-01" purity="4.0840265154838562e-01" nType="-99"/>
            <Node pos="r" depth="3" NCoef="0" IVar="-1" Cut="0.0000000000000000e+00" cType="1" res="9.1078802943229675e-03" rms="2.9227408766746521e-01" purity="5.6444579362869263e-01" nType="-99"/>
          </Node>
          <Node pos="r" depth="2" NCoef="0" IVar="9" Cut="-6.6492271423339844e-01" cType="1" res="-1.6838205978274345e-02" rms="2.8269463777542114e-01" purity="4.4332569837570190e-01" nType="0">
            <Node pos="l" depth="3" NCoef="0" IVar="-1" Cut="0.0000000000000000e+00" cType="1" res="8.7224496528506279e-03" rms="2.8939563035964966e-01" purity="3.6968693137168884e-01" nType="-99"/>
            <Node pos="r" depth="3" NCoef="0" IVar="-1" Cut="0.0000000000000000e+00" cType="1" res="-2.8186993673443794e-02" rms="2.8052610158920288e-01" purity="4.6302044391632080e-01" nType="-99"/>
          </Node>
        </Node>
      </Node>
    </BinaryTree>
    <BinaryTree type="DecisionTree" boostWeight="1.0000000000000000e+00" itree="402">
      <Node pos="s" depth="0" NCoef="0" IVar="3" Cut="2.3286648559570312e+02" cType="1" res="4.8446547589264810e-04" rms="2.8682622313499451e-01" purity="4.9914512038230896e-01" nType="0">
        <Node pos="l" depth="1" NCoef="0" IVar="9" Cut="-6.6663908958435059e-01" cType="1" res="3.7754066288471222e-03" rms="2.8724530339241028e-01" purity="3.5161849856376648e-01" nType="0">
          <Node pos="l" depth="2" NCoef="0" IVar="11" Cut="-1.6196812391281128e+00" cType="1" res="-4.3663415126502514e-03" rms="2.7324232459068298e-01" purity="2.7179488539695740e-01" nType="0">
            <Node pos="l" depth="3" NCoef="0" IVar="-1" Cut="0.0000000000000000e+00" cType="1" res="-1.6355684027075768e-02" rms="2.4125599861145020e-01" purity="1.1619354784488678e-01" nType="-99"/>
            <Node pos="r" depth="3" NCoef="0" IVar="-1" Cut="0.0000000000000000e+00" cType="1" res="7.0781493559479713e-03" rms="3.2416373491287231e-01" purity="5.6141233444213867e-01" nType="-99"/>
          </Node>
          <Node pos="r" depth="2" NCoef="0" IVar="11" Cut="-5.1453626155853271e-01" cType="1" res="7.1941316127777100e-03" rms="2.9285821318626404e-01" purity="3.8513648509979248e-01" nType="0">
            <Node pos="l" depth="3" NCoef="0" IVar="-1" Cut="0.0000000000000000e+00" cType="1" res="1.3769577257335186e-02" rms="2.9005166888237000e-01" purity="2.6780241727828979e-01" nType="-99"/>
            <Node pos="r" depth="3" NCoef="0" IVar="-1" Cut="0.0000000000000000e+00" cType="1" res="-2.2587839048355818e-03" rms="2.9925027489662170e-01" purity="6.6544896364212036e-01" nType="-99"/>
          </Node>
        </Node>
        <Node pos="r" depth="1" NCoef="0" IVar="9" Cut="6.6641891002655029e-01" cType="1" res="-3.6350993905216455e-03" rms="2.8624740242958069e-01" purity="6.8381738662719727e-01" nType="0">
          <Node pos="l" depth="2" NCoef="0" IVar="9" Cut="5.0134056806564331e-01" cType="1" res="-5.8009836357086897e-04" rms="2.8128251433372498e-01" purity="7.1659904718399048e-01" nType="0">
            <Node pos="l" depth="3" NCoef="0" IVar="-1" Cut="0.0000000000000000e+00" cType="1" res="-3.3421099651604891e-03" rms="2.8040909767150879e-01" purity="7.1170985698699951e-01" nType="-99"/>
            <Node pos="r" depth="3" NCoef="0" IVar="-1" Cut="0.0000000000000000e+00" cType="1" res="2.9651559889316559e-02" rms="2.9011103510856628e-01" purity="7.7408939599990845e-01" nType="-99"/>
          </Node>
          <Node pos="r" depth="2" NCoef="0" IVar="10" Cut="1.3444325327873230e-01" cType="1" res="-1.3976966030895710e-02" rms="3.0222120881080627e-01" purity="5.7284414768218994e-01" nType="0">
            <Node pos="l" depth="3" NCoef="0" IVar="-1" Cut="0.0000000000000000e+00" cType="1" res="-2.8308039531111717e-02" rms="2.9031965136528015e-01" purity="5.7476025819778442e-01" nType="-99"/>
            <Node pos="r" depth="3" NCoef="0" IVar="-1" Cut="0.0000000000000000e+00" cType="1" res="-5.2919825538992882e-03" rms="3.1202253699302673e-01" purity="5.7116037607192993e-01" nType="-99"/>
          </Node>
        </Node>
      </Node>
    </BinaryTree>
    <BinaryTree type="DecisionTree" boostWeight="1.0000000000000000e+00" itree="403">
      <Node pos="s" depth="0" NCoef="0" IVar="9" Cut="-1.9998307228088379e+00" cType="1" res="-1.0735179530456662e-03" rms="2.8624609112739563e-01" purity="5.0233781337738037e-01" nType="0">
        <Node pos="l" depth="1" NCoef="0" IVar="-1" Cut="0.0000000000000000e+00" cType="1" res="3.8498744368553162e-02" rms="2.5206857919692993e-01" purity="1.4345915615558624e-01" nType="-99"/>
        <Node pos="r" depth="1" NCoef="0" IVar="9" Cut="-8.5704976320266724e-01" cType="1" res="-1.8952008103951812e-03" rms="2.8735777735710144e-01" purity="5.1515805721282959e-01" nType="0">
          <Node pos="l" depth="2" NCoef="0" IVar="1" Cut="2.0944898948073387e-02" cType="1" res="-9.8566627129912376e-03" rms="2.9478845000267029e-01" purity="4.0375348925590515e-01" nType="0">
            <Node pos="l" depth="3" NCoef="0" IVar="-1" Cut="0.0000000000000000e+00" cType="1" res="1.6414118930697441e-02" rms="2.2119782865047455e-01" purity="1.1382238566875458e-01" nType="-99"/>
            <Node pos="r" depth="3" NCoef="0" IVar="-1" Cut="0.0000000000000000e+00" cType="1" res="-1.6283024102449417e-02" rms="3.1915804743766785e-01" purity="5.1941734552383423e-01" nType="-99"/>
          </Node>
          <Node pos="r" depth="2" NCoef="0" IVar="0" Cut="1.3517238769531250e+03" cType="1" res="-8.8690612756181508e-05" rms="2.8561389446258545e-01" purity="5.4043650627136230e-01" nType="0">
            <Node pos="l" depth="3" NCoef="0" IVar="-1" Cut="0.0000000000000000e+00" cType="1" res="-5.7340729981660843e-03" rms="2.8921234607696533e-01" purity="1.7050313949584961e-01" nType="-99"/>
            <Node pos="r" depth="3" NCoef="0" IVar="-1" Cut="0.0000000000000000e+00" cType="1" res="3.2178936526179314e-03" rms="2.8347226977348328e-01" purity="7.5470948219299316e-01" nType="-99"/>
          </Node>
        </Node>
      </Node>
    </BinaryTree>
    <BinaryTree type="DecisionTree" boostWeight="1.0000000000000000e+00" itree="404">
      <Node pos="s" depth="0" NCoef="0" IVar="8" Cut="-9.3309020996093750e-01" cType="1" res="-1.8098375585395843e-04" rms="2.8571784496307373e-01" purity="5.0022047758102417e-01" nType="0">
        <Node pos="l" depth="1" NCoef="0" IVar="8" Cut="-1.9997047185897827e+00" cType="1" res="9.4945877790451050e-03" rms="2.7465826272964478e-01" purity="3.0141940712928772e-01" nType="0">
          <Node pos="l" depth="2" NCoef="0" IVar="-1" Cut="0.0000000000000000e+00" cType="1" res="-3.6810472607612610e-02" rms="1.5483789145946503e-01" purity="5.2343994379043579e-02" nType="-99"/>
          <Node pos="r" depth="2" NCoef="0" IVar="8" Cut="-1.6440663337707520e+00" cType="1" res="1.3794864527881145e-02" rms="2.9229795932769775e-01" purity="3.5036844015121460e-01" nType="0">
            <Node pos="l" depth="3" NCoef="0" IVar="-1" Cut="0.0000000000000000e+00" cType="1" res="4.9144506454467773e-02" rms="2.6410564780235291e-01" purity="1.7745988070964813e-01" nType="-99"/>
            <Node pos="r" depth="3" NCoef="0" IVar="-1" Cut="0.0000000000000000e+00" cType="1" res="1.1762618087232113e-02" rms="2.9815945029258728e-01" purity="3.8924458622932434e-01" nType="-99"/>
          </Node>
        </Node>
        <Node pos="r" depth="1" NCoef="0" IVar="8" Cut="1.5556615591049194e+00" cType="1" res="-2.1823097486048937e-03" rms="2.8791186213493347e-01" purity="5.4134112596511841e-01" nType="0">
          <Node pos="l" depth="2" NCoef="0" IVar="4" Cut="1.4316043090820312e+02" cType="1" res="-9.3611626653000712e-04" rms="2.9430833458900452e-01" purity="5.7981508970260620e-01" nType="0">
            <Node pos="l" depth="3" NCoef="0" IVar="-1" Cut="0.0000000000000000e+00" cType="1" res="-6.1017824336886406e-03" rms="3.0676168203353882e-01" purity="2.6472771167755127e-01" nType="-99"/>
            <Node pos="r" depth="3" NCoef="0" IVar="-1" Cut="0.0000000000000000e+00" cType="1" res="2.3423759266734123e-03" rms="2.8642410039901733e-01" purity="7.7160328626632690e-01" nType="-99"/>
          </Node>
          <Node pos="r" depth="2" NCoef="0" IVar="3" Cut="1.7343116760253906e+02" cType="1" res="-1.6102721914649010e-02" rms="2.0268684625625610e-01" purity="1.1157382279634476e-01" nType="0">
            <Node pos="l" depth="3" NCoef="0" IVar="-1" Cut="0.0000000000000000e+00" cType="1" res="-4.7714030370116234e-03" rms="1.7437656223773956e-01" purity="5.7868242263793945e-02" nType="-99"/>
            <Node pos="r" depth="3" NCoef="0" IVar="-1" Cut="0.0000000000000000e+00" cType="1" res="-4.6439044177532196e-02" rms="2.2301056981086731e-01" purity="1.5674191713333130e-01" nType="-99"/>
          </Node>
        </Node>
      </Node>
    </BinaryTree>
    <BinaryTree type="DecisionTree" boostWeight="1.0000000000000000e+00" itree="405">
      <Node pos="s" depth="0" NCoef="0" IVar="7" Cut="4.2430940270423889e-01" cType="1" res="1.6058963956311345e-03" rms="2.8703108429908752e-01" purity="5.0044304132461548e-01" nType="0">
        <Node pos="l" depth="1" NCoef="0" IVar="5" Cut="6.7765991210937500e+01" cType="1" res="4.4599631801247597e-03" rms="2.9125499725341797e-01" purity="5.4442125558853149e-01" nType="0">
          <Node pos="l" depth="2" NCoef="0" IVar="9" Cut="3.9802378416061401e-01" cType="1" res="-1.5241215005517006e-03" rms="2.9452827572822571e-01" purity="2.0707575976848602e-01" nType="0">
            <Node pos="l" depth="3" NCoef="0" IVar="-1" Cut="0.0000000000000000e+00" cType="1" res="6.2851239927113056e-03" rms="3.0531221628189087e-01" purity="2.2507603466510773e-01" nType="-99"/>
            <Node pos="r" depth="3" NCoef="0" IVar="-1" Cut="0.0000000000000000e+00" cType="1" res="-1.8643470481038094e-02" rms="2.7273693680763245e-01" purity="1.7342863976955414e-01" nType="-99"/>
          </Node>
          <Node pos="r" depth="2" NCoef="0" IVar="5" Cut="1.0160608673095703e+02" cType="1" res="7.6049440540373325e-03" rms="2.8947028517723083e-01" purity="7.2171568870544434e-01" nType="0">
            <Node pos="l" depth="3" NCoef="0" IVar="-1" Cut="0.0000000000000000e+00" cType="1" res="1.2516402639448643e-02" rms="3.3682060241699219e-01" purity="5.6474673748016357e-01" nType="-99"/>
            <Node pos="r" depth="3" NCoef="0" IVar="-1" Cut="0.0000000000000000e+00" cType="1" res="1.6260453267022967e-03" rms="2.3189848661422729e-01" purity="8.8012653589248657e-01" nType="-99"/>
          </Node>
        </Node>
        <Node pos="r" depth="1" NCoef="0" IVar="6" Cut="6.6763839721679688e+01" cType="1" res="-4.7219144180417061e-03" rms="2.7733215689659119e-01" purity="4.0293797850608826e-01" nType="0">
          <Node pos="l" depth="2" NCoef="0" IVar="10" Cut="1.3339424133300781e-01" cType="1" res="-9.0952487662434578e-03" rms="2.8147122263908386e-01" purity="2.2280921041965485e-01" nType="0">
            <Node pos="l" depth="3" NCoef="0" IVar="-1" Cut="0.0000000000000000e+00" cType="1" res="-2.3779353126883507e-02" rms="2.7807632088661194e-01" purity="2.0982441306114197e-01" nType="-99"/>
            <Node pos="r" depth="3" NCoef="0" IVar="-1" Cut="0.0000000000000000e+00" cType="1" res="5.2971730474382639e-04" rms="2.8416416049003601e-01" purity="2.3453092575073242e-01" nType="-99"/>
          </Node>
          <Node pos="r" depth="2" NCoef="0" IVar="9" Cut="-1.3387845456600189e-01" cType="1" res="5.4301442578434944e-03" rms="2.6720136404037476e-01" purity="8.2108050584793091e-01" nType="0">
            <Node pos="l" depth="3" NCoef="0" IVar="-1" Cut="0.0000000000000000e+00" cType="1" res="-8.6001008749008179e-03" rms="2.7435502409934998e-01" purity="7.9195469617843628e-01" nType="-99"/>
            <Node pos="r" depth="3" NCoef="0" IVar="-1" Cut="0.0000000000000000e+00" cType="1" res="1.7922330647706985e-02" rms="2.6224043965339661e-01" purity="8.3968466520309448e-01" nType="-99"/>
          </Node>
        </Node>
      </Node>
    </BinaryTree>
    <BinaryTree type="DecisionTree" boostWeight="1.0000000000000000e+00" itree="406">
      <Node pos="s" depth="0" NCoef="0" IVar="2" Cut="4.7952947998046875e+02" cType="1" res="1.7631092341616750e-03" rms="2.8747349977493286e-01" purity="5.0175541639328003e-01" nType="0">
        <Node pos="l" depth="1" NCoef="0" IVar="2" Cut="3.8635324096679688e+02" cType="1" res="3.8203219883143902e-03" rms="2.8571382164955139e-01" purity="4.7916072607040405e-01" nType="0">
          <Node pos="l" depth="2" NCoef="0" IVar="10" Cut="1.4665155410766602e+00" cType="1" res="6.3091237097978592e-03" rms="2.8848567605018616e-01" purity="4.5008972287178040e-01" nType="0">
            <Node pos="l" depth="3" NCoef="0" IVar="-1" Cut="0.0000000000000000e+00" cType="1" res="9.4689698889851570e-03" rms="2.8959238529205322e-01" purity="4.7363498806953430e-01" nType="-99"/>
            <Node pos="r" depth="3" NCoef="0" IVar="-1" Cut="0.0000000000000000e+00" cType="1" res="-8.1500411033630371e-03" rms="2.7982711791992188e-01" purity="2.7587494254112244e-01" nType="-99"/>
          </Node>
          <Node pos="r" depth="2" NCoef="0" IVar="7" Cut="-9.1200762987136841e-01" cType="1" res="-3.9742053486406803e-03" rms="2.7670845389366150e-01" purity="5.7020646333694458e-01" nType="0">
            <Node pos="l" depth="3" NCoef="0" IVar="-1" Cut="0.0000000000000000e+00" cType="1" res="2.1347340196371078e-02" rms="2.7504771947860718e-01" purity="3.4864702820777893e-01" nType="-99"/>
            <Node pos="r" depth="3" NCoef="0" IVar="-1" Cut="0.0000000000000000e+00" cType="1" res="-8.9454771950840950e-03" rms="2.7684739232063293e-01" purity="6.0681062936782837e-01" nType="-99"/>
          </Node>
        </Node>
        <Node pos="r" depth="1" NCoef="0" IVar="7" Cut="6.6812807321548462e-01" cType="1" res="-5.4579083807766438e-03" rms="2.9345256090164185e-01" purity="5.8106482028961182e-01" nType="0">
          <Node pos="l" depth="2" NCoef="0" IVar="7" Cut="1.7512302100658417e-01" cType="1" res="-8.5424695862457156e-04" rms="2.9593959450721741e-01" purity="6.3003373146057129e-01" nType="0">
            <Node pos="l" depth="3" NCoef="0" IVar="-1" Cut="0.0000000000000000e+00" cType="1" res="-9.9033061414957047e-03" rms="2.9547467827796936e-01" purity="5.9499371051788330e-01" nType="-99"/>
            <Node pos="r" depth="3" NCoef="0" IVar="-1" Cut="0.0000000000000000e+00" cType="1" res="2.0683579146862030e-02" rms="2.9616448283195496e-01" purity="7.1984946727752686e-01" nType="-99"/>
          </Node>
          <Node pos="r" depth="2" NCoef="0" IVar="-1" Cut="0.0000000000000000e+00" cType="1" res="-3.4355200827121735e-02" rms="2.7996912598609924e-01" purity="3.4295466542243958e-01" nType="-99"/>
        </Node>
      </Node>
    </BinaryTree>
    <BinaryTree type="DecisionTree" boostWeight="1.0000000000000000e+00" itree="407">
      <Node pos="s" depth="0" NCoef="0" IVar="3" Cut="2.3391796875000000e+02" cType="1" res="2.0365726668387651e-03" rms="2.8919669985771179e-01" purity="5.0129413604736328e-01" nType="0">
        <Node pos="l" depth="1" NCoef="0" IVar="10" Cut="1.3351568579673767e-01" cType="1" res="6.9977981038391590e-03" rms="2.9157173633575439e-01" purity="3.5549804568290710e-01" nType="0">
          <Node pos="l" depth="2" NCoef="0" IVar="9" Cut="9.3369674682617188e-01" cType="1" res="1.3115585781633854e-02" rms="2.9444053769111633e-01" purity="3.6152380704879761e-01" nType="0">
            <Node pos="l" depth="3" NCoef="0" IVar="-1" Cut="0.0000000000000000e+00" cType="1" res="1.9962407648563385e-02" rms="2.9885709285736084e-01" purity="3.9199042320251465e-01" nType="-99"/>
            <Node pos="r" depth="3" NCoef="0" IVar="-1" Cut="0.0000000000000000e+00" cType="1" res="-5.9042358770966530e-03" rms="2.7431738376617432e-01" purity="2.3286829888820648e-01" nType="-99"/>
          </Node>
          <Node pos="r" depth="2" NCoef="0" IVar="10" Cut="1.1492530107498169e+00" cType="1" res="-5.0851260311901569e-04" rms="2.8783521056175232e-01" purity="3.4810459613800049e-01" nType="0">
            <Node pos="l" depth="3" NCoef="0" IVar="-1" Cut="0.0000000000000000e+00" cType="1" res="-1.0240637697279453e-02" rms="2.9470804333686829e-01" purity="3.9614892005920410e-01" nType="-99"/>
            <Node pos="r" depth="3" NCoef="0" IVar="-1" Cut="0.0000000000000000e+00" cType="1" res="1.3100805692374706e-02" rms="2.7799996733665466e-01" purity="2.8396758437156677e-01" nType="-99"/>
          </Node>
        </Node>
        <Node pos="r" depth="1" NCoef="0" IVar="7" Cut="-6.5614867210388184e-01" cType="1" res="-4.3036611750721931e-03" rms="2.8600758314132690e-01" purity="6.8761533498764038e-01" nType="0">
          <Node pos="l" depth="2" NCoef="0" IVar="1" Cut="5.1967922598123550e-02" cType="1" res="-1.8747396767139435e-02" rms="2.8511369228363037e-01" purity="5.0962799787521362e-01" nType="0">
            <Node pos="l" depth="3" NCoef="0" IVar="-1" Cut="0.0000000000000000e+00" cType="1" res="-3.6407299339771271e-02" rms="2.7809035778045654e-01" purity="2.6375073194503784e-01" nType="-99"/>
            <Node pos="r" depth="3" NCoef="0" IVar="-1" Cut="0.0000000000000000e+00" cType="1" res="-1.5650436980649829e-03" rms="2.9224878549575806e-01" purity="8.0023092031478882e-01" nType="-99"/>
          </Node>
          <Node pos="r" depth="2" NCoef="0" IVar="6" Cut="1.6594095230102539e+01" cType="1" res="-1.0900001507252455e-03" rms="2.8610691428184509e-01" purity="7.2721666097640991e-01" nType="0">
            <Node pos="l" depth="3" NCoef="0" IVar="-1" Cut="0.0000000000000000e+00" cType="1" res="7.4298069812357426e-03" rms="3.4833544492721558e-01" purity="4.5653027296066284e-01" nType="-99"/>
            <Node pos="r" depth="3" NCoef="0" IVar="-1" Cut="0.0000000000000000e+00" cType="1" res="-1.0266200639307499e-02" rms="2.4878409504890442e-01" purity="8.6355847120285034e-01" nType="-99"/>
          </Node>
        </Node>
      </Node>
    </BinaryTree>
    <BinaryTree type="DecisionTree" boostWeight="1.0000000000000000e+00" itree="408">
      <Node pos="s" depth="0" NCoef="0" IVar="4" Cut="3.3356005859375000e+02" cType="1" res="1.5316727512981743e-04" rms="2.8682604432106018e-01" purity="5.0242960453033447e-01" nType="0">
        <Node pos="l" depth="1" NCoef="0" IVar="11" Cut="5.9044265747070312e-01" cType="1" res="9.0274622198194265e-04" rms="2.8792616724967957e-01" purity="4.9200916290283203e-01" nType="0">
          <Node pos="l" depth="2" NCoef="0" IVar="1" Cut="1.2676827609539032e-01" cType="1" res="-8.7046070257201791e-04" rms="2.8716641664505005e-01" purity="4.4575139880180359e-01" nType="0">
            <Node pos="l" depth="3" NCoef="0" IVar="-1" Cut="0.0000000000000000e+00" cType="1" res="-3.1352792866528034e-03" rms="2.9195865988731384e-01" purity="3.5288918018341064e-01" nType="-99"/>
            <Node pos="r" depth="3" NCoef="0" IVar="-1" Cut="0.0000000000000000e+00" cType="1" res="9.6993632614612579e-03" rms="2.6516568660736084e-01" purity="8.4975856542587280e-01" nType="-99"/>
          </Node>
          <Node pos="r" depth="2" NCoef="0" IVar="6" Cut="7.1943801879882812e+01" cType="1" res="1.0146209038794041e-02" rms="2.9168015718460083e-01" purity="7.3314416408538818e-01" nType="0">
            <Node pos="l" depth="3" NCoef="0" IVar="-1" Cut="0.0000000000000000e+00" cType="1" res="1.6250325366854668e-02" rms="3.3214378356933594e-01" purity="5.7383215427398682e-01" nType="-99"/>
            <Node pos="r" depth="3" NCoef="0" IVar="-1" Cut="0.0000000000000000e+00" cType="1" res="3.7943273782730103e-03" rms="2.5021278858184814e-01" purity="8.7416189908981323e-01" nType="-99"/>
          </Node>
        </Node>
        <Node pos="r" depth="1" NCoef="0" IVar="-1" Cut="0.0000000000000000e+00" cType="1" res="-4.9059074372053146e-02" rms="2.4338465929031372e-01" purity="8.7015402317047119e-01" nType="-99"/>
      </Node>
    </BinaryTree>
    <BinaryTree type="DecisionTree" boostWeight="1.0000000000000000e+00" itree="409">
      <Node pos="s" depth="0" NCoef="0" IVar="2" Cut="6.1929498291015625e+02" cType="1" res="-9.7892538178712130e-04" rms="2.8531616926193237e-01" purity="5.0001722574234009e-01" nType="0">
        <Node pos="l" depth="1" NCoef="0" IVar="2" Cut="2.1997224426269531e+02" cType="1" res="-2.0008292049169540e-03" rms="2.8203690052032471e-01" purity="4.9198213219642639e-01" nType="0">
          <Node pos="l" depth="2" NCoef="0" IVar="-1" Cut="0.0000000000000000e+00" cType="1" res="1.4900755137205124e-02" rms="2.8753128647804260e-01" purity="3.3771800994873047e-01" nType="-99"/>
          <Node pos="r" depth="2" NCoef="0" IVar="10" Cut="-1.4666966199874878e+00" cType="1" res="-3.0837038066238165e-03" rms="2.8159201145172119e-01" purity="5.0351190567016602e-01" nType="0">
            <Node pos="l" depth="3" NCoef="0" IVar="-1" Cut="0.0000000000000000e+00" cType="1" res="-1.8069460988044739e-02" rms="2.5957578420639038e-01" purity="3.2968384027481079e-01" nType="-99"/>
            <Node pos="r" depth="3" NCoef="0" IVar="-1" Cut="0.0000000000000000e+00" cType="1" res="-1.9971593283116817e-03" rms="2.8437459468841553e-01" purity="5.2675241231918335e-01" nType="-99"/>
          </Node>
        </Node>
        <Node pos="r" depth="1" NCoef="0" IVar="5" Cut="9.1341789245605469e+01" cType="1" res="1.0913458652794361e-02" rms="3.2078546285629272e-01" purity="5.9352570772171021e-01" nType="0">
          <Node pos="l" depth="2" NCoef="0" IVar="-1" Cut="0.0000000000000000e+00" cType="1" res="1.7867203801870346e-02" rms="3.5450303554534912e-01" purity="3.8575121760368347e-01" nType="-99"/>
          <Node pos="r" depth="2" NCoef="0" IVar="-1" Cut="0.0000000000000000e+00" cType="1" res="-2.1336027421057224e-03" rms="2.7704927325248718e-01" purity="8.2940930128097534e-01" nType="-99"/>
        </Node>
      </Node>
    </BinaryTree>
    <BinaryTree type="DecisionTree" boostWeight="1.0000000000000000e+00" itree="410">
      <Node pos="s" depth="0" NCoef="0" IVar="1" Cut="1.0948505252599716e-01" cType="1" res="-4.9053889233618975e-04" rms="2.8706645965576172e-01" purity="4.9763041734695435e-01" nType="0">
        <Node pos="l" depth="1" NCoef="0" IVar="0" Cut="1.6172946777343750e+03" cType="1" res="1.8991576507687569e-03" rms="2.9487934708595276e-01" purity="3.8294368982315063e-01" nType="0">
          <Node pos="l" depth="2" NCoef="0" IVar="5" Cut="9.2360229492187500e+01" cType="1" res="5.7266559451818466e-03" rms="2.9354900121688843e-01" purity="2.1433228254318237e-01" nType="0">
            <Node pos="l" depth="3" NCoef="0" IVar="-1" Cut="0.0000000000000000e+00" cType="1" res="2.9756336007267237e-03" rms="2.7960193157196045e-01" purity="1.5894095599651337e-01" nType="-99"/>
            <Node pos="r" depth="3" NCoef="0" IVar="-1" Cut="0.0000000000000000e+00" cType="1" res="1.8770311027765274e-02" rms="3.6425945162773132e-01" purity="5.3982430696487427e-01" nType="-99"/>
          </Node>
          <Node pos="r" depth="2" NCoef="0" IVar="1" Cut="5.2137419581413269e-02" cType="1" res="-6.1908653005957603e-03" rms="2.9750967025756836e-01" purity="7.3933064937591553e-01" nType="0">
            <Node pos="l" depth="3" NCoef="0" IVar="-1" Cut="0.0000000000000000e+00" cType="1" res="-1.4409711584448814e-02" rms="3.3302500844001770e-01" purity="5.8252161741256714e-01" nType="-99"/>
            <Node pos="r" depth="3" NCoef="0" IVar="-1" Cut="0.0000000000000000e+00" cType="1" res="5.8074309490621090e-03" rms="2.5653648376464844e-01" purity="8.9683979749679565e-01" nType="-99"/>
          </Node>
        </Node>
        <Node pos="r" depth="1" NCoef="0" IVar="11" Cut="-1.0702480077743530e+00" cType="1" res="-7.6118386350572109e-03" rms="2.6227912306785583e-01" purity="8.3939707279205322e-01" nType="0">
          <Node pos="l" depth="2" NCoef="0" IVar="7" Cut="-1.8549863249063492e-02" cType="1" res="-2.2670298814773560e-02" rms="3.3958843350410461e-01" purity="6.7268365621566772e-01" nType="0">
            <Node pos="l" depth="3" NCoef="0" IVar="-1" Cut="0.0000000000000000e+00" cType="1" res="-3.2584413886070251e-02" rms="3.3982357382774353e-01" purity="6.7319214344024658e-01" nType="-99"/>
            <Node pos="r" depth="3" NCoef="0" IVar="-1" Cut="0.0000000000000000e+00" cType="1" res="-9.5863537862896919e-03" rms="3.3893558382987976e-01" purity="6.7219805717468262e-01" nType="-99"/>
          </Node>
          <Node pos="r" depth="2" NCoef="0" IVar="-1" Cut="0.0000000000000000e+00" cType="1" res="2.0536882802844048e-03" rms="2.0525358617305756e-01" purity="9.3419772386550903e-01" nType="-99"/>
        </Node>
      </Node>
    </BinaryTree>
    <BinaryTree type="DecisionTree" boostWeight="1.0000000000000000e+00" itree="411">
      <Node pos="s" depth="0" NCoef="0" IVar="9" Cut="4.0009650588035583e-01" cType="1" res="-1.0799932060763240e-03" rms="2.8964301943778992e-01" purity="5.0297904014587402e-01" nType="0">
        <Node pos="l" depth="1" NCoef="0" IVar="5" Cut="6.7381080627441406e+01" cType="1" res="-5.0530377775430679e-03" rms="2.8836378455162048e-01" purity="5.2639877796173096e-01" nType="0">
          <Node pos="l" depth="2" NCoef="0" IVar="6" Cut="5.1299949645996094e+01" cType="1" res="2.9945033602416515e-03" rms="2.8815972805023193e-01" purity="1.8797053396701813e-01" nType="0">
            <Node pos="l" depth="3" NCoef="0" IVar="-1" Cut="0.0000000000000000e+00" cType="1" res="-4.9401503056287766e-03" rms="2.6812404394149780e-01" purity="1.4770536124706268e-01" nType="-99"/>
            <Node pos="r" depth="3" NCoef="0" IVar="-1" Cut="0.0000000000000000e+00" cType="1" res="3.4420594573020935e-02" rms="3.8232749700546265e-01" purity="4.2233905196189880e-01" nType="-99"/>
          </Node>
          <Node pos="r" depth="2" NCoef="0" IVar="0" Cut="2.0058577880859375e+03" cType="1" res="-9.2033892869949341e-03" rms="2.8838121891021729e-01" purity="7.0093601942062378e-01" nType="0">
            <Node pos="l" depth="3" NCoef="0" IVar="-1" Cut="0.0000000000000000e+00" cType="1" res="-1.4181229285895824e-02" rms="3.1871032714843750e-01" purity="6.0687136650085449e-01" nType="-99"/>
            <Node pos="r" depth="3" NCoef="0" IVar="-1" Cut="0.0000000000000000e+00" cType="1" res="7.7023017220199108e-03" rms="1.9327130913734436e-01" purity="9.3385607004165649e-01" nType="-99"/>
          </Node>
        </Node>
        <Node pos="r" depth="1" NCoef="0" IVar="10" Cut="-1.3344286382198334e-01" cType="1" res="6.2003498896956444e-03" rms="2.9183223843574524e-01" purity="4.6006396412849426e-01" nType="0">
          <Node pos="l" depth="2" NCoef="0" IVar="8" Cut="9.3410879373550415e-01" cType="1" res="-2.6426916010677814e-03" rms="2.8958779573440552e-01" purity="4.5558524131774902e-01" nType="0">
            <Node pos="l" depth="3" NCoef="0" IVar="-1" Cut="0.0000000000000000e+00" cType="1" res="-1.2599684298038483e-02" rms="2.8621169924736023e-01" purity="4.9370366334915161e-01" nType="-99"/>
            <Node pos="r" depth="3" NCoef="0" IVar="-1" Cut="0.0000000000000000e+00" cType="1" res="4.0751539170742035e-02" rms="3.0180180072784424e-01" purity="2.8680375218391418e-01" nType="-99"/>
          </Node>
          <Node pos="r" depth="2" NCoef="0" IVar="10" Cut="1.2634145021438599e+00" cType="1" res="1.2260637246072292e-02" rms="2.9320651292800903e-01" purity="4.6313330531120300e-01" nType="0">
            <Node pos="l" depth="3" NCoef="0" IVar="-1" Cut="0.0000000000000000e+00" cType="1" res="2.3468151688575745e-02" rms="2.9074928164482117e-01" purity="5.2075040340423584e-01" nType="-99"/>
            <Node pos="r" depth="3" NCoef="0" IVar="-1" Cut="0.0000000000000000e+00" cType="1" res="-7.1175666525959969e-03" rms="2.9781693220138550e-01" purity="3.3449128270149231e-01" nType="-99"/>
          </Node>
        </Node>
      </Node>
    </BinaryTree>
    <BinaryTree type="DecisionTree" boostWeight="1.0000000000000000e+00" itree="412">
      <Node pos="s" depth="0" NCoef="0" IVar="9" Cut="1.7332980632781982e+00" cType="1" res="-8.9064276835415512e-05" rms="2.8547570109367371e-01" purity="4.9798160791397095e-01" nType="0">
        <Node pos="l" depth="1" NCoef="0" IVar="11" Cut="1.6949479579925537e+00" cType="1" res="-1.1622998863458633e-03" rms="2.8665256500244141e-01" purity="5.1567846536636353e-01" nType="0">
          <Node pos="l" depth="2" NCoef="0" IVar="11" Cut="-2.3293325901031494e+00" cType="1" res="-1.8210054258815944e-04" rms="2.8591671586036682e-01" purity="5.1219952106475830e-01" nType="0">
            <Node pos="l" depth="3" NCoef="0" IVar="-1" Cut="0.0000000000000000e+00" cType="1" res="-4.7298548743128777e-03" rms="2.9622319340705872e-01" purity="2.3715341091156006e-01" nType="-99"/>
            <Node pos="r" depth="3" NCoef="0" IVar="-1" Cut="0.0000000000000000e+00" cType="1" res="4.7937249764800072e-03" rms="2.7550017833709717e-01" purity="7.7885448932647705e-01" nType="-99"/>
          </Node>
          <Node pos="r" depth="2" NCoef="0" IVar="-1" Cut="0.0000000000000000e+00" cType="1" res="-2.4036491289734840e-02" rms="3.0314442515373230e-01" purity="6.0095554590225220e-01" nType="-99"/>
        </Node>
        <Node pos="r" depth="1" NCoef="0" IVar="7" Cut="1.8999691307544708e-01" cType="1" res="1.8677394837141037e-02" rms="2.6334494352340698e-01" purity="1.8853743374347687e-01" nType="0">
          <Node pos="l" depth="2" NCoef="0" IVar="-1" Cut="0.0000000000000000e+00" cType="1" res="6.7528807558119297e-03" rms="2.4840348958969116e-01" purity="1.6228382289409637e-01" nType="-99"/>
          <Node pos="r" depth="2" NCoef="0" IVar="-1" Cut="0.0000000000000000e+00" cType="1" res="5.1304340362548828e-02" rms="2.7848020195960999e-01" purity="2.1848596632480621e-01" nType="-99"/>
        </Node>
      </Node>
    </BinaryTree>
    <BinaryTree type="DecisionTree" boostWeight="1.0000000000000000e+00" itree="413">
      <Node pos="s" depth="0" NCoef="0" IVar="10" Cut="-1.9996362924575806e+00" cType="1" res="3.3849239116534591e-04" rms="2.8608664870262146e-01" purity="5.0223952531814575e-01" nType="0">
        <Node pos="l" depth="1" NCoef="0" IVar="7" Cut="-1.1690247803926468e-01" cType="1" res="1.8172126263380051e-02" rms="2.9023945331573486e-01" purity="2.4630591273307800e-01" nType="0">
          <Node pos="l" depth="2" NCoef="0" IVar="-1" Cut="0.0000000000000000e+00" cType="1" res="2.8999794274568558e-02" rms="2.8125390410423279e-01" purity="2.6725268363952637e-01" nType="-99"/>
          <Node pos="r" depth="2" NCoef="0" IVar="-1" Cut="0.0000000000000000e+00" cType="1" res="1.8147975206375122e-02" rms="2.9895618557929993e-01" purity="2.2525247931480408e-01" nType="-99"/>
        </Node>
        <Node pos="r" depth="1" NCoef="0" IVar="3" Cut="2.1986067199707031e+02" cType="1" res="-6.1457115225493908e-04" rms="2.8583168983459473e-01" purity="5.1591712236404419e-01" nType="0">
          <Node pos="l" depth="2" NCoef="0" IVar="5" Cut="1.0614556121826172e+02" cType="1" res="-5.4172524251043797e-03" rms="2.8362795710563660e-01" purity="3.3369874954223633e-01" nType="0">
            <Node pos="l" depth="3" NCoef="0" IVar="-1" Cut="0.0000000000000000e+00" cType="1" res="-9.8570305854082108e-03" rms="2.8635057806968689e-01" purity="2.4878673255443573e-01" nType="-99"/>
            <Node pos="r" depth="3" NCoef="0" IVar="-1" Cut="0.0000000000000000e+00" cType="1" res="1.6401194036006927e-02" rms="2.6591590046882629e-01" purity="8.4656292200088501e-01" nType="-99"/>
          </Node>
          <Node pos="r" depth="2" NCoef="0" IVar="8" Cut="-9.3068331480026245e-01" cType="1" res="3.9588473737239838e-03" rms="2.8784006834030151e-01" purity="6.8943697214126587e-01" nType="0">
            <Node pos="l" depth="3" NCoef="0" IVar="-1" Cut="0.0000000000000000e+00" cType="1" res="1.7572101205587387e-02" rms="2.9894676804542542e-01" purity="4.7538542747497559e-01" nType="-99"/>
            <Node pos="r" depth="3" NCoef="0" IVar="-1" Cut="0.0000000000000000e+00" cType="1" res="2.3412944283336401e-03" rms="2.8605070710182190e-01" purity="7.2218281030654907e-01" nType="-99"/>
          </Node>
        </Node>
      </Node>
    </BinaryTree>
    <BinaryTree type="DecisionTree" boostWeight="1.0000000000000000e+00" itree="414">
      <Node pos="s" depth="0" NCoef="0" IVar="8" Cut="-3.9978083968162537e-01" cType="1" res="9.4225752400234342e-04" rms="2.8817629814147949e-01" purity="5.0376355648040771e-01" nType="0">
        <Node pos="l" depth="1" NCoef="0" IVar="2" Cut="4.1289157104492188e+02" cType="1" res="5.0487550906836987e-03" rms="2.8555846214294434e-01" purity="4.4710010290145874e-01" nType="0">
          <Node pos="l" depth="2" NCoef="0" IVar="2" Cut="3.0137744140625000e+02" cType="1" res="1.1376230046153069e-02" rms="2.8696608543395996e-01" purity="4.1031387448310852e-01" nType="0">
            <Node pos="l" depth="3" NCoef="0" IVar="-1" Cut="0.0000000000000000e+00" cType="1" res="2.5513819418847561e-03" rms="2.7966070175170898e-01" purity="3.4771913290023804e-01" nType="-99"/>
            <Node pos="r" depth="3" NCoef="0" IVar="-1" Cut="0.0000000000000000e+00" cType="1" res="2.7667410671710968e-02" rms="2.9457762837409973e-01" purity="4.8038828372955322e-01" nType="-99"/>
          </Node>
          <Node pos="r" depth="2" NCoef="0" IVar="8" Cut="-1.0850129127502441e+00" cType="1" res="-7.8756166622042656e-03" rms="2.8222104907035828e-01" purity="5.2223885059356689e-01" nType="0">
            <Node pos="l" depth="3" NCoef="0" IVar="-1" Cut="0.0000000000000000e+00" cType="1" res="-3.0916480347514153e-02" rms="2.4931564927101135e-01" purity="2.7790150046348572e-01" nType="-99"/>
            <Node pos="r" depth="3" NCoef="0" IVar="-1" Cut="0.0000000000000000e+00" cType="1" res="6.0069561004638672e-04" rms="2.9716795682907104e-01" purity="6.4616769552230835e-01" nType="-99"/>
          </Node>
        </Node>
        <Node pos="r" depth="1" NCoef="0" IVar="8" Cut="-2.4741300940513611e-01" cType="1" res="-1.1960581177845597e-03" rms="2.8950700163841248e-01" purity="5.3326904773712158e-01" nType="0">
          <Node pos="l" depth="2" NCoef="0" IVar="-1" Cut="0.0000000000000000e+00" cType="1" res="-1.8783178180456161e-02" rms="2.8753718733787537e-01" purity="5.9677582979202271e-01" nType="-99"/>
          <Node pos="r" depth="2" NCoef="0" IVar="5" Cut="8.5531944274902344e+01" cType="1" res="2.1638948237523437e-04" rms="2.8965833783149719e-01" purity="5.2711039781570435e-01" nType="0">
            <Node pos="l" depth="3" NCoef="0" IVar="-1" Cut="0.0000000000000000e+00" cType="1" res="4.7359270974993706e-03" rms="3.0881381034851074e-01" purity="2.8694170713424683e-01" nType="-99"/>
            <Node pos="r" depth="3" NCoef="0" IVar="-1" Cut="0.0000000000000000e+00" cType="1" res="-6.5924171358346939e-03" rms="2.6483663916587830e-01" purity="8.1445860862731934e-01" nType="-99"/>
          </Node>
        </Node>
      </Node>
    </BinaryTree>
    <BinaryTree type="DecisionTree" boostWeight="1.0000000000000000e+00" itree="415">
      <Node pos="s" depth="0" NCoef="0" IVar="9" Cut="1.1999787092208862e+00" cType="1" res="-8.2897633546963334e-04" rms="2.8451320528984070e-01" purity="4.9749860167503357e-01" nType="0">
        <Node pos="l" depth="1" NCoef="0" IVar="10" Cut="9.3315452337265015e-01" cType="1" res="1.0627616429701447e-03" rms="2.8758266568183899e-01" purity="5.3239017724990845e-01" nType="0">
          <Node pos="l" depth="2" NCoef="0" IVar="1" Cut="6.3610710203647614e-02" cType="1" res="-1.3070740969851613e-03" rms="2.8104174137115479e-01" purity="5.5317026376724243e-01" nType="0">
            <Node pos="l" depth="3" NCoef="0" IVar="-1" Cut="0.0000000000000000e+00" cType="1" res="-6.6911689937114716e-03" rms="2.8503918647766113e-01" purity="3.1552180647850037e-01" nType="-99"/>
            <Node pos="r" depth="3" NCoef="0" IVar="-1" Cut="0.0000000000000000e+00" cType="1" res="4.2327851988375187e-03" rms="2.7678671479225159e-01" purity="7.9795420169830322e-01" nType="-99"/>
          </Node>
          <Node pos="r" depth="2" NCoef="0" IVar="0" Cut="1.9487272949218750e+03" cType="1" res="9.9901240319013596e-03" rms="3.1082788109779358e-01" purity="4.5410987734794617e-01" nType="0">
            <Node pos="l" depth="3" NCoef="0" IVar="-1" Cut="0.0000000000000000e+00" cType="1" res="1.7085088416934013e-02" rms="3.1709015369415283e-01" purity="3.7355229258537292e-01" nType="-99"/>
            <Node pos="r" depth="3" NCoef="0" IVar="-1" Cut="0.0000000000000000e+00" cType="1" res="-3.2023582607507706e-02" rms="2.7649942040443420e-01" purity="8.4467703104019165e-01" nType="-99"/>
          </Node>
        </Node>
        <Node pos="r" depth="1" NCoef="0" IVar="7" Cut="-7.0281699299812317e-02" cType="1" res="-1.3863216154277325e-02" rms="2.6201903820037842e-01" purity="2.5709235668182373e-01" nType="0">
          <Node pos="l" depth="2" NCoef="0" IVar="1" Cut="3.4897241741418839e-02" cType="1" res="1.4656473649665713e-03" rms="2.5719511508941650e-01" purity="2.3751285672187805e-01" nType="0">
            <Node pos="l" depth="3" NCoef="0" IVar="-1" Cut="0.0000000000000000e+00" cType="1" res="-3.2905049622058868e-02" rms="1.8173231184482574e-01" purity="5.8988478034734726e-02" nType="-99"/>
            <Node pos="r" depth="3" NCoef="0" IVar="-1" Cut="0.0000000000000000e+00" cType="1" res="1.5729585662484169e-02" rms="3.1889462471008301e-01" purity="4.3160286545753479e-01" nType="-99"/>
          </Node>
          <Node pos="r" depth="2" NCoef="0" IVar="0" Cut="1.2761041259765625e+03" cType="1" res="-2.5679271668195724e-02" rms="2.6507341861724854e-01" purity="2.7218493819236755e-01" nType="0">
            <Node pos="l" depth="3" NCoef="0" IVar="-1" Cut="0.0000000000000000e+00" cType="1" res="-2.1752012893557549e-02" rms="2.0722839236259460e-01" purity="7.0585355162620544e-02" nType="-99"/>
            <Node pos="r" depth="3" NCoef="0" IVar="-1" Cut="0.0000000000000000e+00" cType="1" res="-3.5883717238903046e-02" rms="3.0919545888900757e-01" purity="4.6167066693305969e-01" nType="-99"/>
          </Node>
        </Node>
      </Node>
    </BinaryTree>
    <BinaryTree type="DecisionTree" boostWeight="1.0000000000000000e+00" itree="416">
      <Node pos="s" depth="0" NCoef="0" IVar="11" Cut="3.1392425298690796e-01" cType="1" res="1.3151575112715364e-03" rms="2.8804460167884827e-01" purity="5.0444871187210083e-01" nType="0">
        <Node pos="l" depth="1" NCoef="0" IVar="2" Cut="4.7953500366210938e+02" cType="1" res="2.9205444734543562e-03" rms="2.8790754079818726e-01" purity="4.4584071636199951e-01" nType="0">
          <Node pos="l" depth="2" NCoef="0" IVar="2" Cut="3.8635525512695312e+02" cType="1" res="4.6566998935304582e-04" rms="2.8155308961868286e-01" purity="4.1526472568511963e-01" nType="0">
            <Node pos="l" depth="3" NCoef="0" IVar="-1" Cut="0.0000000000000000e+00" cType="1" res="4.7769104130566120e-03" rms="2.8527256846427917e-01" purity="3.8904792070388794e-01" nType="-99"/>
            <Node pos="r" depth="3" NCoef="0" IVar="-1" Cut="0.0000000000000000e+00" cType="1" res="-1.3283335603773594e-02" rms="2.6870548725128174e-01" purity="5.0110328197479248e-01" nType="-99"/>
          </Node>
          <Node pos="r" depth="2" NCoef="0" IVar="8" Cut="-6.6922938823699951e-01" cType="1" res="1.1689580976963043e-02" rms="3.0938386917114258e-01" purity="5.5506104230880737e-01" nType="0">
            <Node pos="l" depth="3" NCoef="0" IVar="-1" Cut="0.0000000000000000e+00" cType="1" res="3.7063948810100555e-02" rms="3.2219162583351135e-01" purity="4.3809354305267334e-01" nType="-99"/>
            <Node pos="r" depth="3" NCoef="0" IVar="-1" Cut="0.0000000000000000e+00" cType="1" res="4.8375017940998077e-03" rms="3.0487507581710815e-01" purity="5.9199398756027222e-01" nType="-99"/>
          </Node>
        </Node>
        <Node pos="r" depth="1" NCoef="0" IVar="10" Cut="1.1989108324050903e+00" cType="1" res="-4.8665693029761314e-03" rms="2.8848823904991150e-01" purity="7.3012548685073853e-01" nType="0">
          <Node pos="l" depth="2" NCoef="0" IVar="9" Cut="-6.6524153947830200e-01" cType="1" res="-2.1250329446047544e-03" rms="2.7918270230293274e-01" purity="7.5429522991180420e-01" nType="0">
            <Node pos="l" depth="3" NCoef="0" IVar="-1" Cut="0.0000000000000000e+00" cType="1" res="-1.6930550336837769e-02" rms="3.1317311525344849e-01" purity="6.6367006301879883e-01" nType="-99"/>
            <Node pos="r" depth="3" NCoef="0" IVar="-1" Cut="0.0000000000000000e+00" cType="1" res="1.8407099414616823e-03" rms="2.6987335085868835e-01" purity="7.7701628208160400e-01" nType="-99"/>
          </Node>
          <Node pos="r" depth="2" NCoef="0" IVar="-1" Cut="0.0000000000000000e+00" cType="1" res="-1.9915133714675903e-02" rms="3.3394441008567810e-01" purity="5.9948027133941650e-01" nType="-99"/>
        </Node>
      </Node>
    </BinaryTree>
    <BinaryTree type="DecisionTree" boostWeight="1.0000000000000000e+00" itree="417">
      <Node pos="s" depth="0" NCoef="0" IVar="7" Cut="-1.1524339765310287e-01" cType="1" res="-1.5949264634400606e-03" rms="2.8702762722969055e-01" purity="4.9817773699760437e-01" nType="0">
        <Node pos="l" depth="1" NCoef="0" IVar="9" Cut="3.9969348907470703e-01" cType="1" res="-6.3431109301745892e-03" rms="2.8237497806549072e-01" purity="4.7300517559051514e-01" nType="0">
          <Node pos="l" depth="2" NCoef="0" IVar="4" Cut="2.0966384887695312e+02" cType="1" res="-1.0136090219020844e-02" rms="2.7869579195976257e-01" purity="4.9835312366485596e-01" nType="0">
            <Node pos="l" depth="3" NCoef="0" IVar="-1" Cut="0.0000000000000000e+00" cType="1" res="-1.6522217541933060e-02" rms="2.8708660602569580e-01" purity="3.8113671541213989e-01" nType="-99"/>
            <Node pos="r" depth="3" NCoef="0" IVar="-1" Cut="0.0000000000000000e+00" cType="1" res="4.2224340140819550e-03" rms="2.5159147381782532e-01" purity="8.4774011373519897e-01" nType="-99"/>
          </Node>
          <Node pos="r" depth="2" NCoef="0" IVar="1" Cut="1.8491238355636597e-02" cType="1" res="1.8567066872492433e-03" rms="2.8999993205070496e-01" purity="4.1820704936981201e-01" nType="0">
            <Node pos="l" depth="3" NCoef="0" IVar="-1" Cut="0.0000000000000000e+00" cType="1" res="4.1662976145744324e-02" rms="2.2663037478923798e-01" purity="9.4690658152103424e-02" nType="-99"/>
            <Node pos="r" depth="3" NCoef="0" IVar="-1" Cut="0.0000000000000000e+00" cType="1" res="-3.6383443512022495e-03" rms="3.0870780348777771e-01" purity="5.2999275922775269e-01" nType="-99"/>
          </Node>
        </Node>
        <Node pos="r" depth="1" NCoef="0" IVar="10" Cut="9.3294519186019897e-01" cType="1" res="2.2755607496947050e-03" rms="2.9070776700973511e-01" purity="5.1869714260101318e-01" nType="0">
          <Node pos="l" depth="2" NCoef="0" IVar="11" Cut="-2.1716055870056152e+00" cType="1" res="5.3287264890968800e-03" rms="2.8869029879570007e-01" purity="5.4939115047454834e-01" nType="0">
            <Node pos="l" depth="3" NCoef="0" IVar="-1" Cut="0.0000000000000000e+00" cType="1" res="1.1437306180596352e-02" rms="3.1405776739120483e-01" purity="2.6944530010223389e-01" nType="-99"/>
            <Node pos="r" depth="3" NCoef="0" IVar="-1" Cut="0.0000000000000000e+00" cType="1" res="1.1005977867171168e-03" rms="2.6533603668212891e-01" purity="7.8547525405883789e-01" nType="-99"/>
          </Node>
          <Node pos="r" depth="2" NCoef="0" IVar="3" Cut="2.0316198730468750e+02" cType="1" res="-7.2743478231132030e-03" rms="2.9672694206237793e-01" purity="4.2269033193588257e-01" nType="0">
            <Node pos="l" depth="3" NCoef="0" IVar="-1" Cut="0.0000000000000000e+00" cType="1" res="-2.3085771128535271e-02" rms="2.6441583037376404e-01" purity="2.3471066355705261e-01" nType="-99"/>
            <Node pos="r" depth="3" NCoef="0" IVar="-1" Cut="0.0000000000000000e+00" cType="1" res="1.8771355971693993e-03" rms="3.2204112410545349e-01" purity="5.8693552017211914e-01" nType="-99"/>
          </Node>
        </Node>
      </Node>
    </BinaryTree>
    <BinaryTree type="DecisionTree" boostWeight="1.0000000000000000e+00" itree="418">
      <Node pos="s" depth="0" NCoef="0" IVar="6" Cut="6.6376380920410156e+01" cType="1" res="1.1035440256819129e-03" rms="2.8304886817932129e-01" purity="4.9971064925193787e-01" nType="0">
        <Node pos="l" depth="1" NCoef="0" IVar="7" Cut="9.5878958702087402e-01" cType="1" res="-2.4347978178411722e-03" rms="3.0161419510841370e-01" purity="3.1102910637855530e-01" nType="0">
          <Node pos="l" depth="2" NCoef="0" IVar="5" Cut="1.2121212768554688e+02" cType="1" res="-5.1784361712634563e-03" rms="3.1341519951820374e-01" purity="3.5026252269744873e-01" nType="0">
            <Node pos="l" depth="3" NCoef="0" IVar="-1" Cut="0.0000000000000000e+00" cType="1" res="-7.0058899000287056e-03" rms="3.1499385833740234e-01" purity="3.1591799855232239e-01" nType="-99"/>
            <Node pos="r" depth="3" NCoef="0" IVar="-1" Cut="0.0000000000000000e+00" cType="1" res="2.3718617856502533e-02" rms="2.8898322582244873e-01" purity="8.3122998476028442e-01" nType="-99"/>
          </Node>
          <Node pos="r" depth="2" NCoef="0" IVar="1" Cut="2.7687506750226021e-02" cType="1" res="1.0611522942781448e-02" rms="2.3717634379863739e-01" purity="1.2446966767311096e-01" nType="0">
            <Node pos="l" depth="3" NCoef="0" IVar="-1" Cut="0.0000000000000000e+00" cType="1" res="-6.5784985199570656e-03" rms="1.6167731583118439e-01" purity="4.0146280080080032e-02" nType="-99"/>
            <Node pos="r" depth="3" NCoef="0" IVar="-1" Cut="0.0000000000000000e+00" cType="1" res="3.2414283603429794e-02" rms="3.4123256802558899e-01" purity="2.9569718241691589e-01" nType="-99"/>
          </Node>
        </Node>
        <Node pos="r" depth="1" NCoef="0" IVar="6" Cut="7.9813690185546875e+01" cType="1" res="8.0427462235093117e-03" rms="2.4239800870418549e-01" purity="8.6974275112152100e-01" nType="0">
          <Node pos="l" depth="2" NCoef="0" IVar="11" Cut="4.0059474110603333e-01" cType="1" res="2.4178316816687584e-02" rms="3.0294996500015259e-01" purity="7.6359605789184570e-01" nType="0">
            <Node pos="l" depth="3" NCoef="0" IVar="-1" Cut="0.0000000000000000e+00" cType="1" res="1.3399989344179630e-02" rms="3.0133038759231567e-01" purity="7.5423300266265869e-01" nType="-99"/>
            <Node pos="r" depth="3" NCoef="0" IVar="-1" Cut="0.0000000000000000e+00" cType="1" res="4.0001902729272842e-02" rms="3.0475959181785583e-01" purity="7.7881824970245361e-01" nType="-99"/>
          </Node>
          <Node pos="r" depth="2" NCoef="0" IVar="8" Cut="-1.3404329121112823e-01" cType="1" res="1.0957890190184116e-03" rms="2.1066394448280334e-01" purity="9.1544270515441895e-01" nType="0">
            <Node pos="l" depth="3" NCoef="0" IVar="-1" Cut="0.0000000000000000e+00" cType="1" res="1.2939490377902985e-02" rms="2.0893774926662445e-01" purity="9.1409981250762939e-01" nType="-99"/>
            <Node pos="r" depth="3" NCoef="0" IVar="-1" Cut="0.0000000000000000e+00" cType="1" res="-6.4630783163011074e-03" rms="2.1189792454242706e-01" purity="9.1648119688034058e-01" nType="-99"/>
          </Node>
        </Node>
      </Node>
    </BinaryTree>
    <BinaryTree type="DecisionTree" boostWeight="1.0000000000000000e+00" itree="419">
      <Node pos="s" depth="0" NCoef="0" IVar="3" Cut="1.3465838623046875e+02" cType="1" res="-1.0441433405503631e-03" rms="2.8871476650238037e-01" purity="5.0031268596649170e-01" nType="0">
        <Node pos="l" depth="1" NCoef="0" IVar="11" Cut="-2.7238528728485107e+00" cType="1" res="8.1227906048297882e-03" rms="2.2200582921504974e-01" purity="8.6286492645740509e-02" nType="0">
          <Node pos="l" depth="2" NCoef="0" IVar="1" Cut="2.7566974982619286e-02" cType="1" res="2.4243858642876148e-03" rms="1.8126568198204041e-01" purity="3.9135612547397614e-02" nType="0">
            <Node pos="l" depth="3" NCoef="0" IVar="-1" Cut="0.0000000000000000e+00" cType="1" res="-3.3824827522039413e-02" rms="1.0155487805604935e-01" purity="1.1599378660321236e-02" nType="-99"/>
            <Node pos="r" depth="3" NCoef="0" IVar="-1" Cut="0.0000000000000000e+00" cType="1" res="2.3613834753632545e-02" rms="2.4986670911312103e-01" purity="7.5466975569725037e-02" nType="-99"/>
          </Node>
          <Node pos="r" depth="2" NCoef="0" IVar="-1" Cut="0.0000000000000000e+00" cType="1" res="2.9441172257065773e-02" rms="3.2685923576354980e-01" purity="2.5294506549835205e-01" nType="-99"/>
        </Node>
        <Node pos="r" depth="1" NCoef="0" IVar="5" Cut="6.7765930175781250e+01" cType="1" res="-2.3607856128364801e-03" rms="2.9704514145851135e-01" purity="5.5977904796600342e-01" nType="0">
          <Node pos="l" depth="2" NCoef="0" IVar="0" Cut="1.0729704589843750e+03" cType="1" res="-9.8720248788595200e-03" rms="3.0427798628807068e-01" purity="2.1102628111839294e-01" nType="0">
            <Node pos="l" depth="3" NCoef="0" IVar="-1" Cut="0.0000000000000000e+00" cType="1" res="2.3333081975579262e-02" rms="2.1251578629016876e-01" purity="5.3850740194320679e-02" nType="-99"/>
            <Node pos="r" depth="3" NCoef="0" IVar="-1" Cut="0.0000000000000000e+00" cType="1" res="-1.3550390489399433e-02" rms="3.2228201627731323e-01" purity="2.4877262115478516e-01" nType="-99"/>
          </Node>
          <Node pos="r" depth="2" NCoef="0" IVar="7" Cut="-6.3190710544586182e-01" cType="1" res="8.5057760588824749e-04" rms="2.9383987188339233e-01" purity="7.0888513326644897e-01" nType="0">
            <Node pos="l" depth="3" NCoef="0" IVar="-1" Cut="0.0000000000000000e+00" cType="1" res="1.1042592115700245e-02" rms="3.1142637133598328e-01" purity="5.6103789806365967e-01" nType="-99"/>
            <Node pos="r" depth="3" NCoef="0" IVar="-1" Cut="0.0000000000000000e+00" cType="1" res="-2.1174869034439325e-03" rms="2.8900945186614990e-01" purity="7.4751991033554077e-01" nType="-99"/>
          </Node>
        </Node>
      </Node>
    </BinaryTree>
    <BinaryTree type="DecisionTree" boostWeight="1.0000000000000000e+00" itree="420">
      <Node pos="s" depth="0" NCoef="0" IVar="3" Cut="2.1727513122558594e+02" cType="1" res="-2.8200956876389682e-04" rms="2.8644433617591858e-01" purity="4.9371513724327087e-01" nType="0">
        <Node pos="l" depth="1" NCoef="0" IVar="10" Cut="-3.9998182654380798e-01" cType="1" res="3.6415234208106995e-03" rms="2.8490599989891052e-01" purity="3.1795579195022583e-01" nType="0">
          <Node pos="l" depth="2" NCoef="0" IVar="9" Cut="-1.4654399156570435e+00" cType="1" res="9.2548709362745285e-03" rms="2.8475663065910339e-01" purity="2.9665759205818176e-01" nType="0">
            <Node pos="l" depth="3" NCoef="0" IVar="-1" Cut="0.0000000000000000e+00" cType="1" res="4.0461745113134384e-02" rms="2.6822486519813538e-01" purity="1.4825199544429779e-01" nType="-99"/>
            <Node pos="r" depth="3" NCoef="0" IVar="-1" Cut="0.0000000000000000e+00" cType="1" res="8.1891808658838272e-03" rms="2.8732904791831970e-01" purity="3.2129970192909241e-01" nType="-99"/>
          </Node>
          <Node pos="r" depth="2" NCoef="0" IVar="4" Cut="1.6903596496582031e+02" cType="1" res="-7.9814737546257675e-05" rms="2.8494402766227722e-01" purity="3.3207532763481140e-01" nType="0">
            <Node pos="l" depth="3" NCoef="0" IVar="-1" Cut="0.0000000000000000e+00" cType="1" res="-3.0939790885895491e-03" rms="2.8175893425941467e-01" purity="2.6821592450141907e-01" nType="-99"/>
            <Node pos="r" depth="3" NCoef="0" IVar="-1" Cut="0.0000000000000000e+00" cType="1" res="1.5517675317823887e-02" rms="3.0268815159797668e-01" purity="7.0901536941528320e-01" nType="-99"/>
          </Node>
        </Node>
        <Node pos="r" depth="1" NCoef="0" IVar="11" Cut="-2.4476242065429688e+00" cType="1" res="-4.1060000658035278e-03" rms="2.8788429498672485e-01" purity="6.6501533985137939e-01" nType="0">
          <Node pos="l" depth="2" NCoef="0" IVar="9" Cut="1.1998990774154663e+00" cType="1" res="-1.2650908902287483e-02" rms="3.3186021447181702e-01" purity="3.6330202221870422e-01" nType="0">
            <Node pos="l" depth="3" NCoef="0" IVar="-1" Cut="0.0000000000000000e+00" cType="1" res="-1.4413784258067608e-02" rms="3.3627393841743469e-01" purity="3.8784793019294739e-01" nType="-99"/>
            <Node pos="r" depth="3" NCoef="0" IVar="-1" Cut="0.0000000000000000e+00" cType="1" res="1.8906146287918091e-02" rms="3.0157795548439026e-01" purity="2.1179917454719543e-01" nType="-99"/>
          </Node>
          <Node pos="r" depth="2" NCoef="0" IVar="8" Cut="9.3488883972167969e-01" cType="1" res="8.5255294106900692e-04" rms="2.5883430242538452e-01" purity="8.4009754657745361e-01" nType="0">
            <Node pos="l" depth="3" NCoef="0" IVar="-1" Cut="0.0000000000000000e+00" cType="1" res="4.7741862945258617e-03" rms="2.5270187854766846e-01" purity="8.6360943317413330e-01" nType="-99"/>
            <Node pos="r" depth="3" NCoef="0" IVar="-1" Cut="0.0000000000000000e+00" cType="1" res="-1.8766473978757858e-02" rms="3.0520194768905640e-01" purity="6.4108151197433472e-01" nType="-99"/>
          </Node>
        </Node>
      </Node>
    </BinaryTree>
    <BinaryTree type="DecisionTree" boostWeight="1.0000000000000000e+00" itree="421">
      <Node pos="s" depth="0" NCoef="0" IVar="11" Cut="-7.9061269760131836e-01" cType="1" res="1.9816369749605656e-03" rms="2.8983172774314880e-01" purity="5.0177943706512451e-01" nType="0">
        <Node pos="l" depth="1" NCoef="0" IVar="2" Cut="4.7952947998046875e+02" cType="1" res="5.9223016723990440e-03" rms="2.9793581366539001e-01" purity="3.3551120758056641e-01" nType="0">
          <Node pos="l" depth="2" NCoef="0" IVar="3" Cut="2.1371997070312500e+02" cType="1" res="2.8380595613270998e-03" rms="2.8998792171478271e-01" purity="3.0594623088836670e-01" nType="0">
            <Node pos="l" depth="3" NCoef="0" IVar="-1" Cut="0.0000000000000000e+00" cType="1" res="1.0145363397896290e-02" rms="2.7074927091598511e-01" purity="1.8862232565879822e-01" nType="-99"/>
            <Node pos="r" depth="3" NCoef="0" IVar="-1" Cut="0.0000000000000000e+00" cType="1" res="-3.8320731837302446e-03" rms="3.1827741861343384e-01" purity="4.9390292167663574e-01" nType="-99"/>
          </Node>
          <Node pos="r" depth="2" NCoef="0" IVar="8" Cut="1.3310997188091278e-01" cType="1" res="1.7369404435157776e-02" rms="3.2548767328262329e-01" purity="4.4524094462394714e-01" nType="0">
            <Node pos="l" depth="3" NCoef="0" IVar="-1" Cut="0.0000000000000000e+00" cType="1" res="2.6754937134683132e-03" rms="3.1812611222267151e-01" purity="4.6916007995605469e-01" nType="-99"/>
            <Node pos="r" depth="3" NCoef="0" IVar="-1" Cut="0.0000000000000000e+00" cType="1" res="3.7204794585704803e-02" rms="3.3403763175010681e-01" purity="4.1340577602386475e-01" nType="-99"/>
          </Node>
        </Node>
        <Node pos="r" depth="1" NCoef="0" IVar="10" Cut="1.4652748107910156e+00" cType="1" res="-4.1267834603786469e-03" rms="2.7669018507003784e-01" purity="7.5951164960861206e-01" nType="0">
          <Node pos="l" depth="2" NCoef="0" IVar="10" Cut="4.4963255524635315e-01" cType="1" res="-6.1053344979882240e-03" rms="2.7140396833419800e-01" purity="7.7361047267913818e-01" nType="0">
            <Node pos="l" depth="3" NCoef="0" IVar="-1" Cut="0.0000000000000000e+00" cType="1" res="-2.2491668350994587e-03" rms="2.6973599195480347e-01" purity="7.7637630701065063e-01" nType="-99"/>
            <Node pos="r" depth="3" NCoef="0" IVar="-1" Cut="0.0000000000000000e+00" cType="1" res="-2.2078128531575203e-02" rms="2.7510699629783630e-01" purity="7.6691681146621704e-01" nType="-99"/>
          </Node>
          <Node pos="r" depth="2" NCoef="0" IVar="-1" Cut="0.0000000000000000e+00" cType="1" res="1.3308593071997166e-02" rms="3.2180929183959961e-01" purity="6.2622457742691040e-01" nType="-99"/>
        </Node>
      </Node>
    </BinaryTree>
    <BinaryTree type="DecisionTree" boostWeight="1.0000000000000000e+00" itree="422">
      <Node pos="s" depth="0" NCoef="0" IVar="2" Cut="4.7161538696289062e+02" cType="1" res="4.2485227459110320e-04" rms="2.8617569804191589e-01" purity="5.0113081932067871e-01" nType="0">
        <Node pos="l" depth="1" NCoef="0" IVar="7" Cut="-6.2335103750228882e-01" cType="1" res="-2.0791615825146437e-03" rms="2.8029018640518188e-01" purity="4.7365263104438782e-01" nType="0">
          <Node pos="l" depth="2" NCoef="0" IVar="2" Cut="3.8107434082031250e+02" cType="1" res="-9.0352976694703102e-03" rms="2.5228273868560791e-01" purity="3.2028898596763611e-01" nType="0">
            <Node pos="l" depth="3" NCoef="0" IVar="-1" Cut="0.0000000000000000e+00" cType="1" res="-6.9900266826152802e-03" rms="2.5516140460968018e-01" purity="3.0211049318313599e-01" nType="-99"/>
            <Node pos="r" depth="3" NCoef="0" IVar="-1" Cut="0.0000000000000000e+00" cType="1" res="-3.3435154706239700e-02" rms="2.4144971370697021e-01" purity="3.8378426432609558e-01" nType="-99"/>
          </Node>
          <Node pos="r" depth="2" NCoef="0" IVar="2" Cut="2.5173828125000000e+02" cType="1" res="1.8411062774248421e-04" rms="2.8878164291381836e-01" purity="5.2355152368545532e-01" nType="0">
            <Node pos="l" depth="3" NCoef="0" IVar="-1" Cut="0.0000000000000000e+00" cType="1" res="-1.2948782183229923e-02" rms="2.9776531457901001e-01" purity="4.1013664007186890e-01" nType="-99"/>
            <Node pos="r" depth="3" NCoef="0" IVar="-1" Cut="0.0000000000000000e+00" cType="1" res="4.0686195716261864e-03" rms="2.8617009520530701e-01" purity="5.5484807491302490e-01" nType="-99"/>
          </Node>
        </Node>
        <Node pos="r" depth="1" NCoef="0" IVar="11" Cut="-2.1714744567871094e+00" cType="1" res="8.5788005962967873e-03" rms="3.0441108345985413e-01" purity="5.9060925245285034e-01" nType="0">
          <Node pos="l" depth="2" NCoef="0" IVar="7" Cut="1.3915674388408661e-01" cType="1" res="2.1105214953422546e-02" rms="3.3608311414718628e-01" purity="3.6145165562629700e-01" nType="0">
            <Node pos="l" depth="3" NCoef="0" IVar="-1" Cut="0.0000000000000000e+00" cType="1" res="3.2284345477819443e-02" rms="3.5020545125007629e-01" purity="4.0025773644447327e-01" nType="-99"/>
            <Node pos="r" depth="3" NCoef="0" IVar="-1" Cut="0.0000000000000000e+00" cType="1" res="2.1192289423197508e-03" rms="3.1433498859405518e-01" purity="3.0729490518569946e-01" nType="-99"/>
          </Node>
          <Node pos="r" depth="2" NCoef="0" IVar="8" Cut="3.9995375275611877e-01" cType="1" res="-2.5995387695729733e-03" rms="2.7257752418518066e-01" purity="7.9510515928268433e-01" nType="0">
            <Node pos="l" depth="3" NCoef="0" IVar="-1" Cut="0.0000000000000000e+00" cType="1" res="-1.3467435725033283e-02" rms="2.6878932118415833e-01" purity="8.1619262695312500e-01" nType="-99"/>
            <Node pos="r" depth="3" NCoef="0" IVar="-1" Cut="0.0000000000000000e+00" cType="1" res="1.4674074947834015e-02" rms="2.8034168481826782e-01" purity="7.4760937690734863e-01" nType="-99"/>
          </Node>
        </Node>
      </Node>
    </BinaryTree>
    <BinaryTree type="DecisionTree" boostWeight="1.0000000000000000e+00" itree="423">
      <Node pos="s" depth="0" NCoef="0" IVar="2" Cut="3.3581515502929688e+02" cType="1" res="2.2012341651134193e-04" rms="2.8849834203720093e-01" purity="4.9856564402580261e-01" nType="0">
        <Node pos="l" depth="1" NCoef="0" IVar="0" Cut="1.2041926269531250e+03" cType="1" res="-4.2285863310098648e-03" rms="2.8740066289901733e-01" purity="4.1689613461494446e-01" nType="0">
          <Node pos="l" depth="2" NCoef="0" IVar="1" Cut="6.1657857149839401e-02" cType="1" res="3.6036018282175064e-03" rms="2.5918874144554138e-01" purity="1.0544151812791824e-01" nType="0">
            <Node pos="l" depth="3" NCoef="0" IVar="-1" Cut="0.0000000000000000e+00" cType="1" res="-8.0830836668610573e-03" rms="1.9643282890319824e-01" purity="4.8165522515773773e-02" nType="-99"/>
            <Node pos="r" depth="3" NCoef="0" IVar="-1" Cut="0.0000000000000000e+00" cType="1" res="1.5954680740833282e-02" rms="3.7473279237747192e-01" purity="2.5306019186973572e-01" nType="-99"/>
          </Node>
          <Node pos="r" depth="2" NCoef="0" IVar="0" Cut="1.3676629638671875e+03" cType="1" res="-1.1584136635065079e-02" rms="3.1139898300170898e-01" purity="7.0939677953720093e-01" nType="0">
            <Node pos="l" depth="3" NCoef="0" IVar="-1" Cut="0.0000000000000000e+00" cType="1" res="-1.9266339018940926e-02" rms="3.8159158825874329e-01" purity="4.2698803544044495e-01" nType="-99"/>
            <Node pos="r" depth="3" NCoef="0" IVar="-1" Cut="0.0000000000000000e+00" cType="1" res="-4.8152334056794643e-03" rms="2.6848843693733215e-01" purity="8.5274165868759155e-01" nType="-99"/>
          </Node>
        </Node>
        <Node pos="r" depth="1" NCoef="0" IVar="11" Cut="3.1425476074218750e-01" cType="1" res="3.8556095678359270e-03" rms="2.8934147953987122e-01" purity="5.6530594825744629e-01" nType="0">
          <Node pos="l" depth="2" NCoef="0" IVar="11" Cut="-4.7485440969467163e-01" cType="1" res="5.9776785783469677e-03" rms="2.9125639796257019e-01" purity="5.0929695367813110e-01" nType="0">
            <Node pos="l" depth="3" NCoef="0" IVar="-1" Cut="0.0000000000000000e+00" cType="1" res="4.0379031561315060e-03" rms="2.9760545492172241e-01" purity="4.3905416131019592e-01" nType="-99"/>
            <Node pos="r" depth="3" NCoef="0" IVar="-1" Cut="0.0000000000000000e+00" cType="1" res="2.4078819900751114e-02" rms="2.6025682687759399e-01" purity="8.2788848876953125e-01" nType="-99"/>
          </Node>
          <Node pos="r" depth="2" NCoef="0" IVar="11" Cut="7.8774625062942505e-01" cType="1" res="-3.8274743128567934e-03" rms="2.8216630220413208e-01" purity="7.6809000968933105e-01" nType="0">
            <Node pos="l" depth="3" NCoef="0" IVar="-1" Cut="0.0000000000000000e+00" cType="1" res="-2.6332469657063484e-02" rms="2.6916801929473877e-01" purity="7.9775887727737427e-01" nType="-99"/>
            <Node pos="r" depth="3" NCoef="0" IVar="-1" Cut="0.0000000000000000e+00" cType="1" res="4.3380176648497581e-03" rms="2.8863257169723511e-01" purity="7.5215309858322144e-01" nType="-99"/>
          </Node>
        </Node>
      </Node>
    </BinaryTree>
    <BinaryTree type="DecisionTree" boostWeight="1.0000000000000000e+00" itree="424">
      <Node pos="s" depth="0" NCoef="0" IVar="11" Cut="1.4190063476562500e+00" cType="1" res="2.3381505161523819e-03" rms="2.8808060288429260e-01" purity="5.0499516725540161e-01" nType="0">
        <Node pos="l" depth="1" NCoef="0" IVar="7" Cut="-9.7276434302330017e-02" cType="1" res="9.6590403700247407e-04" rms="2.8625279664993286e-01" purity="4.9382001161575317e-01" nType="0">
          <Node pos="l" depth="2" NCoef="0" IVar="1" Cut="3.8795258849859238e-02" cType="1" res="5.3531872108578682e-03" rms="2.8353053331375122e-01" purity="4.8382741212844849e-01" nType="0">
            <Node pos="l" depth="3" NCoef="0" IVar="-1" Cut="0.0000000000000000e+00" cType="1" res="-4.2385314591228962e-03" rms="2.5614741444587708e-01" purity="1.7975477874279022e-01" nType="-99"/>
            <Node pos="r" depth="3" NCoef="0" IVar="-1" Cut="0.0000000000000000e+00" cType="1" res="1.2232442386448383e-02" rms="3.0080038309097290e-01" purity="6.9309902191162109e-01" nType="-99"/>
          </Node>
          <Node pos="r" depth="2" NCoef="0" IVar="4" Cut="1.7517549133300781e+02" cType="1" res="-2.7589364908635616e-03" rms="2.8849151730537415e-01" purity="5.0230383872985840e-01" nType="0">
            <Node pos="l" depth="3" NCoef="0" IVar="-1" Cut="0.0000000000000000e+00" cType="1" res="-9.0769389644265175e-03" rms="2.9730030894279480e-01" purity="3.1485629081726074e-01" nType="-99"/>
            <Node pos="r" depth="3" NCoef="0" IVar="-1" Cut="0.0000000000000000e+00" cType="1" res="6.8072169087827206e-03" rms="2.7431955933570862e-01" purity="7.8827357292175293e-01" nType="-99"/>
          </Node>
        </Node>
        <Node pos="r" depth="1" NCoef="0" IVar="9" Cut="1.3597612082958221e-01" cType="1" res="2.3321093991398811e-02" rms="3.1396368145942688e-01" purity="6.7587369680404663e-01" nType="0">
          <Node pos="l" depth="2" NCoef="0" IVar="-1" Cut="0.0000000000000000e+00" cType="1" res="3.0218968167901039e-02" rms="3.0563151836395264e-01" purity="7.0358073711395264e-01" nType="-99"/>
          <Node pos="r" depth="2" NCoef="0" IVar="-1" Cut="0.0000000000000000e+00" cType="1" res="1.6264934092760086e-02" rms="3.2263758778572083e-01" purity="6.4585721492767334e-01" nType="-99"/>
        </Node>
      </Node>
    </BinaryTree>
    <BinaryTree type="DecisionTree" boostWeight="1.0000000000000000e+00" itree="425">
      <Node pos="s" depth="0" NCoef="0" IVar="9" Cut="-1.9997971057891846e+00" cType="1" res="9.5473235705867410e-04" rms="2.8877085447311401e-01" purity="4.9658167362213135e-01" nType="0">
        <Node pos="l" depth="1" NCoef="0" IVar="-1" Cut="0.0000000000000000e+00" cType="1" res="-3.9784010499715805e-02" rms="2.0611785352230072e-01" purity="9.7255058586597443e-02" nType="-99"/>
        <Node pos="r" depth="1" NCoef="0" IVar="4" Cut="1.4344808959960938e+02" cType="1" res="1.7009323928505182e-03" rms="2.9110184311866760e-01" purity="5.0994533300399780e-01" nType="0">
          <Node pos="l" depth="2" NCoef="0" IVar="1" Cut="2.0873658359050751e-02" cType="1" res="6.6686128266155720e-03" rms="2.8900325298309326e-01" purity="2.3788496851921082e-01" nType="0">
            <Node pos="l" depth="3" NCoef="0" IVar="-1" Cut="0.0000000000000000e+00" cType="1" res="-9.2240115627646446e-03" rms="1.8195739388465881e-01" purity="4.7577209770679474e-02" nType="-99"/>
            <Node pos="r" depth="3" NCoef="0" IVar="-1" Cut="0.0000000000000000e+00" cType="1" res="1.1074023321270943e-02" rms="3.3280447125434875e-01" purity="3.4100922942161560e-01" nType="-99"/>
          </Node>
          <Node pos="r" depth="2" NCoef="0" IVar="0" Cut="1.5214323730468750e+03" cType="1" res="-2.0790200214833021e-03" rms="2.9263213276863098e-01" purity="7.1695846319198608e-01" nType="0">
            <Node pos="l" depth="3" NCoef="0" IVar="-1" Cut="0.0000000000000000e+00" cType="1" res="-1.1676761321723461e-02" rms="3.5346373915672302e-01" purity="4.1613525152206421e-01" nType="-99"/>
            <Node pos="r" depth="3" NCoef="0" IVar="-1" Cut="0.0000000000000000e+00" cType="1" res="4.4448329135775566e-03" rms="2.6348274946212769e-01" purity="8.4031766653060913e-01" nType="-99"/>
          </Node>
        </Node>
      </Node>
    </BinaryTree>
    <BinaryTree type="DecisionTree" boostWeight="1.0000000000000000e+00" itree="426">
      <Node pos="s" depth="0" NCoef="0" IVar="10" Cut="1.1997790336608887e+00" cType="1" res="-2.2356577683240175e-03" rms="2.8395515680313110e-01" purity="4.9768412113189697e-01" nType="0">
        <Node pos="l" depth="1" NCoef="0" IVar="10" Cut="2.4745415151119232e-01" cType="1" res="-4.0622512460686266e-04" rms="2.8275865316390991e-01" purity="5.2373182773590088e-01" nType="0">
          <Node pos="l" depth="2" NCoef="0" IVar="4" Cut="9.5265411376953125e+01" cType="1" res="-4.3565384112298489e-03" rms="2.8265148401260376e-01" purity="5.0297194719314575e-01" nType="0">
            <Node pos="l" depth="3" NCoef="0" IVar="-1" Cut="0.0000000000000000e+00" cType="1" res="1.9861411303281784e-02" rms="2.2632329165935516e-01" purity="7.9175256192684174e-02" nType="-99"/>
            <Node pos="r" depth="3" NCoef="0" IVar="-1" Cut="0.0000000000000000e+00" cType="1" res="-7.5623891316354275e-03" rms="2.9112049937248230e-01" purity="5.7535225152969360e-01" nType="-99"/>
          </Node>
          <Node pos="r" depth="2" NCoef="0" IVar="7" Cut="-6.3301026821136475e-01" cType="1" res="8.4010390564799309e-03" rms="2.8279888629913330e-01" purity="5.7001614570617676e-01" nType="0">
            <Node pos="l" depth="3" NCoef="0" IVar="-1" Cut="0.0000000000000000e+00" cType="1" res="-8.7380139157176018e-03" rms="2.6134794950485229e-01" purity="3.9707851409912109e-01" nType="-99"/>
            <Node pos="r" depth="3" NCoef="0" IVar="-1" Cut="0.0000000000000000e+00" cType="1" res="1.4252805151045322e-02" rms="2.8733524680137634e-01" purity="6.0928994417190552e-01" nType="-99"/>
          </Node>
        </Node>
        <Node pos="r" depth="1" NCoef="0" IVar="7" Cut="9.7471451759338379e-01" cType="1" res="-1.1624618433415890e-02" rms="2.8983643651008606e-01" purity="3.6400279402732849e-01" nType="0">
          <Node pos="l" depth="2" NCoef="0" IVar="1" Cut="6.0218017548322678e-02" cType="1" res="-1.6903577372431755e-02" rms="2.9784220457077026e-01" purity="4.1148924827575684e-01" nType="0">
            <Node pos="l" depth="3" NCoef="0" IVar="-1" Cut="0.0000000000000000e+00" cType="1" res="-3.8406465202569962e-02" rms="2.7131313085556030e-01" purity="1.7489682137966156e-01" nType="-99"/>
            <Node pos="r" depth="3" NCoef="0" IVar="-1" Cut="0.0000000000000000e+00" cType="1" res="-2.5885805953294039e-03" rms="3.2183536887168884e-01" purity="6.5068876743316650e-01" nType="-99"/>
          </Node>
          <Node pos="r" depth="2" NCoef="0" IVar="-1" Cut="0.0000000000000000e+00" cType="1" res="1.9901858642697334e-02" rms="2.5141239166259766e-01" purity="1.6046862304210663e-01" nType="-99"/>
        </Node>
      </Node>
    </BinaryTree>
    <BinaryTree type="DecisionTree" boostWeight="1.0000000000000000e+00" itree="427">
      <Node pos="s" depth="0" NCoef="0" IVar="2" Cut="5.5882800292968750e+02" cType="1" res="1.5489839715883136e-03" rms="2.8784841299057007e-01" purity="4.9997714161872864e-01" nType="0">
        <Node pos="l" depth="1" NCoef="0" IVar="1" Cut="2.1926684305071831e-02" cType="1" res="4.0305727161467075e-03" rms="2.8595116734504700e-01" purity="4.8976159095764160e-01" nType="0">
          <Node pos="l" depth="2" NCoef="0" IVar="2" Cut="3.5378137207031250e+02" cType="1" res="-4.4399988837540150e-03" rms="2.0703198015689850e-01" purity="9.2306181788444519e-02" nType="0">
            <Node pos="l" depth="3" NCoef="0" IVar="-1" Cut="0.0000000000000000e+00" cType="1" res="5.5635273456573486e-03" rms="1.9865785539150238e-01" purity="7.1007907390594482e-02" nType="-99"/>
            <Node pos="r" depth="3" NCoef="0" IVar="-1" Cut="0.0000000000000000e+00" cType="1" res="-2.3022277280688286e-02" rms="2.1679578721523285e-01" purity="1.1902475357055664e-01" nType="-99"/>
          </Node>
          <Node pos="r" depth="2" NCoef="0" IVar="11" Cut="-2.1714568138122559e+00" cType="1" res="6.6151148639619350e-03" rms="3.0595824122428894e-01" purity="6.1103326082229614e-01" nType="0">
            <Node pos="l" depth="3" NCoef="0" IVar="-1" Cut="0.0000000000000000e+00" cType="1" res="1.2604597024619579e-02" rms="3.4144422411918640e-01" purity="3.2844361662864685e-01" nType="-99"/>
            <Node pos="r" depth="3" NCoef="0" IVar="-1" Cut="0.0000000000000000e+00" cType="1" res="1.5874815871939063e-03" rms="2.7801880240440369e-01" purity="8.1088209152221680e-01" nType="-99"/>
          </Node>
        </Node>
        <Node pos="r" depth="1" NCoef="0" IVar="4" Cut="2.8748461914062500e+02" cType="1" res="-1.6187803819775581e-02" rms="3.0046471953392029e-01" purity="5.7299125194549561e-01" nType="0">
          <Node pos="l" depth="2" NCoef="0" IVar="10" Cut="-6.6689401865005493e-01" cType="1" res="-2.2831995040178299e-02" rms="3.1027975678443909e-01" purity="4.9404704570770264e-01" nType="0">
            <Node pos="l" depth="3" NCoef="0" IVar="-1" Cut="0.0000000000000000e+00" cType="1" res="-3.9056770503520966e-02" rms="3.1113302707672119e-01" purity="4.2932513356208801e-01" nType="-99"/>
            <Node pos="r" depth="3" NCoef="0" IVar="-1" Cut="0.0000000000000000e+00" cType="1" res="-1.6271211206912994e-02" rms="3.0961930751800537e-01" purity="5.2083301544189453e-01" nType="-99"/>
          </Node>
          <Node pos="r" depth="2" NCoef="0" IVar="-1" Cut="0.0000000000000000e+00" cType="1" res="1.1930173262953758e-02" rms="2.5788274407386780e-01" purity="8.7534761428833008e-01" nType="-99"/>
        </Node>
      </Node>
    </BinaryTree>
    <BinaryTree type="DecisionTree" boostWeight="1.0000000000000000e+00" itree="428">
      <Node pos="s" depth="0" NCoef="0" IVar="7" Cut="-1.1580348014831543e-01" cType="1" res="-2.6810367126017809e-03" rms="2.8753975033760071e-01" purity="4.9709820747375488e-01" nType="0">
        <Node pos="l" depth="1" NCoef="0" IVar="1" Cut="1.2711499631404877e-01" cType="1" res="1.5743114054203033e-03" rms="2.8662914037704468e-01" purity="4.7877916693687439e-01" nType="0">
          <Node pos="l" depth="2" NCoef="0" IVar="8" Cut="-6.6727834939956665e-01" cType="1" res="4.3405764736235142e-03" rms="2.9258525371551514e-01" purity="3.8621217012405396e-01" nType="0">
            <Node pos="l" depth="3" NCoef="0" IVar="-1" Cut="0.0000000000000000e+00" cType="1" res="1.8150197342038155e-02" rms="2.8861871361732483e-01" purity="3.1289321184158325e-01" nType="-99"/>
            <Node pos="r" depth="3" NCoef="0" IVar="-1" Cut="0.0000000000000000e+00" cType="1" res="-4.5855363714508712e-04" rms="2.9420244693756104e-01" purity="4.1871836781501770e-01" nType="-99"/>
          </Node>
          <Node pos="r" depth="2" NCoef="0" IVar="-1" Cut="0.0000000000000000e+00" cType="1" res="-1.5138089656829834e-02" rms="2.6034587621688843e-01" purity="8.6019241809844971e-01" nType="-99"/>
        </Node>
        <Node pos="r" depth="1" NCoef="0" IVar="4" Cut="9.8639503479003906e+01" cType="1" res="-6.1354925855994225e-03" rms="2.8823065757751465e-01" purity="5.1196944713592529e-01" nType="0">
          <Node pos="l" depth="2" NCoef="0" IVar="0" Cut="1.0360327148437500e+03" cType="1" res="-1.7496263608336449e-02" rms="2.0842187106609344e-01" purity="6.5380550920963287e-02" nType="0">
            <Node pos="l" depth="3" NCoef="0" IVar="-1" Cut="0.0000000000000000e+00" cType="1" res="-8.4076803177595139e-03" rms="1.4436306059360504e-01" purity="2.5712803006172180e-02" nType="-99"/>
            <Node pos="r" depth="3" NCoef="0" IVar="-1" Cut="0.0000000000000000e+00" cType="1" res="-4.0092132985591888e-02" rms="2.4354866147041321e-01" purity="9.3757204711437225e-02" nType="-99"/>
          </Node>
          <Node pos="r" depth="2" NCoef="0" IVar="10" Cut="-1.4669634103775024e+00" cType="1" res="-3.8210647180676460e-03" rms="3.0186122655868530e-01" purity="6.0294896364212036e-01" nType="0">
            <Node pos="l" depth="3" NCoef="0" IVar="-1" Cut="0.0000000000000000e+00" cType="1" res="1.3097826391458511e-02" rms="3.1266438961029053e-01" purity="4.4109106063842773e-01" nType="-99"/>
            <Node pos="r" depth="3" NCoef="0" IVar="-1" Cut="0.0000000000000000e+00" cType="1" res="-6.3862986862659454e-03" rms="3.0058845877647400e-01" purity="6.2078642845153809e-01" nType="-99"/>
          </Node>
        </Node>
      </Node>
    </BinaryTree>
    <BinaryTree type="DecisionTree" boostWeight="1.0000000000000000e+00" itree="429">
      <Node pos="s" depth="0" NCoef="0" IVar="10" Cut="-2.0000030994415283e+00" cType="1" res="-1.2481563026085496e-03" rms="2.8575611114501953e-01" purity="4.9740150570869446e-01" nType="0">
        <Node pos="l" depth="1" NCoef="0" IVar="7" Cut="-7.2282969951629639e-02" cType="1" res="1.6223883256316185e-02" rms="2.8438952565193176e-01" purity="2.6011461019515991e-01" nType="0">
          <Node pos="l" depth="2" NCoef="0" IVar="-1" Cut="0.0000000000000000e+00" cType="1" res="2.0984072238206863e-02" rms="2.8015369176864624e-01" purity="2.5736612081527710e-01" nType="-99"/>
          <Node pos="r" depth="2" NCoef="0" IVar="-1" Cut="0.0000000000000000e+00" cType="1" res="1.7964478582143784e-02" rms="2.8869444131851196e-01" purity="2.6295122504234314e-01" nType="-99"/>
        </Node>
        <Node pos="r" depth="1" NCoef="0" IVar="10" Cut="1.1998628377914429e+00" cType="1" res="-2.1916395053267479e-03" rms="2.8579932451248169e-01" purity="5.1021498441696167e-01" nType="0">
          <Node pos="l" depth="2" NCoef="0" IVar="8" Cut="-1.4663414955139160e+00" cType="1" res="-3.7596717011183500e-03" rms="2.8423562645912170e-01" purity="5.3703737258911133e-01" nType="0">
            <Node pos="l" depth="3" NCoef="0" IVar="-1" Cut="0.0000000000000000e+00" cType="1" res="2.0634010434150696e-02" rms="2.4369691312313080e-01" purity="1.8152728676795959e-01" nType="-99"/>
            <Node pos="r" depth="3" NCoef="0" IVar="-1" Cut="0.0000000000000000e+00" cType="1" res="-5.9904824011027813e-03" rms="2.8714081645011902e-01" purity="5.6500375270843506e-01" nType="-99"/>
          </Node>
          <Node pos="r" depth="2" NCoef="0" IVar="3" Cut="1.8243168640136719e+02" cType="1" res="5.5881766602396965e-03" rms="2.9331055283546448e-01" purity="3.7713497877120972e-01" nType="0">
            <Node pos="l" depth="3" NCoef="0" IVar="-1" Cut="0.0000000000000000e+00" cType="1" res="-2.0605931058526039e-02" rms="2.3630285263061523e-01" purity="1.5794138610363007e-01" nType="-99"/>
            <Node pos="r" depth="3" NCoef="0" IVar="-1" Cut="0.0000000000000000e+00" cType="1" res="1.7279963940382004e-02" rms="3.2184657454490662e-01" purity="5.0703620910644531e-01" nType="-99"/>
          </Node>
        </Node>
      </Node>
    </BinaryTree>
    <BinaryTree type="DecisionTree" boostWeight="1.0000000000000000e+00" itree="430">
      <Node pos="s" depth="0" NCoef="0" IVar="1" Cut="4.1738197207450867e-02" cType="1" res="3.3559908624738455e-03" rms="2.8981575369834900e-01" purity="4.9781185388565063e-01" nType="0">
        <Node pos="l" depth="1" NCoef="0" IVar="0" Cut="1.3751234130859375e+03" cType="1" res="9.8556261509656906e-03" rms="2.7499866485595703e-01" purity="2.1292993426322937e-01" nType="0">
          <Node pos="l" depth="2" NCoef="0" IVar="0" Cut="1.1561540527343750e+03" cType="1" res="3.8836889434605837e-03" rms="2.1220088005065918e-01" purity="6.5431438386440277e-02" nType="0">
            <Node pos="l" depth="3" NCoef="0" IVar="-1" Cut="0.0000000000000000e+00" cType="1" res="-7.6921950094401836e-03" rms="1.5451906621456146e-01" purity="2.6507681235671043e-02" nType="-99"/>
            <Node pos="r" depth="3" NCoef="0" IVar="-1" Cut="0.0000000000000000e+00" cType="1" res="1.6768733039498329e-02" rms="2.6852297782897949e-01" purity="1.1543326824903488e-01" nType="-99"/>
          </Node>
          <Node pos="r" depth="2" NCoef="0" IVar="5" Cut="1.1072731018066406e+02" cType="1" res="1.8179811537265778e-02" rms="3.4373131394386292e-01" purity="4.1852566599845886e-01" nType="0">
            <Node pos="l" depth="3" NCoef="0" IVar="-1" Cut="0.0000000000000000e+00" cType="1" res="2.0515628159046173e-02" rms="3.4849923849105835e-01" purity="3.5191583633422852e-01" nType="-99"/>
            <Node pos="r" depth="3" NCoef="0" IVar="-1" Cut="0.0000000000000000e+00" cType="1" res="-6.1104218475520611e-03" rms="3.2203036546707153e-01" purity="6.9466787576675415e-01" nType="-99"/>
          </Node>
        </Node>
        <Node pos="r" depth="1" NCoef="0" IVar="1" Cut="9.8371542990207672e-02" cType="1" res="-1.3011542614549398e-03" rms="2.9989618062973022e-01" purity="7.0193660259246826e-01" nType="0">
          <Node pos="l" depth="2" NCoef="0" IVar="11" Cut="5.8991134166717529e-01" cType="1" res="-6.1650471761822701e-03" rms="3.2520526647567749e-01" purity="5.6791299581527710e-01" nType="0">
            <Node pos="l" depth="3" NCoef="0" IVar="-1" Cut="0.0000000000000000e+00" cType="1" res="-9.5532070845365524e-03" rms="3.2504835724830627e-01" purity="5.2665030956268311e-01" nType="-99"/>
            <Node pos="r" depth="3" NCoef="0" IVar="-1" Cut="0.0000000000000000e+00" cType="1" res="1.1832509189844131e-02" rms="3.2525369524955750e-01" purity="7.5793546438217163e-01" nType="-99"/>
          </Node>
          <Node pos="r" depth="2" NCoef="0" IVar="9" Cut="-6.6313982009887695e-01" cType="1" res="3.4588507842272520e-03" rms="2.7278029918670654e-01" purity="8.3309745788574219e-01" nType="0">
            <Node pos="l" depth="3" NCoef="0" IVar="-1" Cut="0.0000000000000000e+00" cType="1" res="-1.0033302940428257e-02" rms="3.1417548656463623e-01" purity="7.6426762342453003e-01" nType="-99"/>
            <Node pos="r" depth="3" NCoef="0" IVar="-1" Cut="0.0000000000000000e+00" cType="1" res="1.0120685212314129e-02" rms="2.5984597206115723e-01" purity="8.5244333744049072e-01" nType="-99"/>
          </Node>
        </Node>
      </Node>
    </BinaryTree>
    <BinaryTree type="DecisionTree" boostWeight="1.0000000000000000e+00" itree="431">
      <Node pos="s" depth="0" NCoef="0" IVar="11" Cut="8.6663055419921875e-01" cType="1" res="3.8090074667707086e-04" rms="2.8421604633331299e-01" purity="5.0579679012298584e-01" nType="0">
        <Node pos="l" depth="1" NCoef="0" IVar="0" Cut="1.0871579589843750e+03" cType="1" res="1.7839536303654313e-03" rms="2.8300926089286804e-01" purity="4.7737011313438416e-01" nType="0">
          <Node pos="l" depth="2" NCoef="0" IVar="9" Cut="-4.0051874518394470e-01" cType="1" res="-6.1067957431077957e-03" rms="1.8209576606750488e-01" purity="3.8220722228288651e-02" nType="0">
            <Node pos="l" depth="3" NCoef="0" IVar="-1" Cut="0.0000000000000000e+00" cType="1" res="-3.8918122649192810e-02" rms="1.6619990766048431e-01" purity="3.0884224921464920e-02" nType="-99"/>
            <Node pos="r" depth="3" NCoef="0" IVar="-1" Cut="0.0000000000000000e+00" cType="1" res="1.8198982579633594e-03" rms="1.9269618391990662e-01" purity="4.3628349900245667e-02" nType="-99"/>
          </Node>
          <Node pos="r" depth="2" NCoef="0" IVar="9" Cut="-1.1996375322341919e+00" cType="1" res="3.3608903177082539e-03" rms="2.9909723997116089e-01" purity="5.6513243913650513e-01" nType="0">
            <Node pos="l" depth="3" NCoef="0" IVar="-1" Cut="0.0000000000000000e+00" cType="1" res="1.3925766572356224e-02" rms="2.9504007101058960e-01" purity="3.6085498332977295e-01" nType="-99"/>
            <Node pos="r" depth="3" NCoef="0" IVar="-1" Cut="0.0000000000000000e+00" cType="1" res="2.1313873585313559e-03" rms="2.9966396093368530e-01" purity="5.9522688388824463e-01" nType="-99"/>
          </Node>
        </Node>
        <Node pos="r" depth="1" NCoef="0" IVar="0" Cut="1.6321751708984375e+03" cType="1" res="-9.5284720882773399e-03" rms="2.9240599274635315e-01" purity="7.0656633377075195e-01" nType="0">
          <Node pos="l" depth="2" NCoef="0" IVar="-1" Cut="0.0000000000000000e+00" cType="1" res="-1.5422920696437359e-02" rms="3.4705597162246704e-01" purity="4.9637287855148315e-01" nType="-99"/>
          <Node pos="r" depth="2" NCoef="0" IVar="-1" Cut="0.0000000000000000e+00" cType="1" res="-3.2806773670017719e-03" rms="2.3540337383747101e-01" purity="8.8676816225051880e-01" nType="-99"/>
        </Node>
      </Node>
    </BinaryTree>
    <BinaryTree type="DecisionTree" boostWeight="1.0000000000000000e+00" itree="432">
      <Node pos="s" depth="0" NCoef="0" IVar="5" Cut="7.0200714111328125e+01" cType="1" res="-4.8970011994242668e-04" rms="2.8587630391120911e-01" purity="4.9746742844581604e-01" nType="0">
        <Node pos="l" depth="1" NCoef="0" IVar="10" Cut="-1.7332079410552979e+00" cType="1" res="-5.1978607662022114e-03" rms="2.7805247902870178e-01" purity="1.7510485649108887e-01" nType="0">
          <Node pos="l" depth="2" NCoef="0" IVar="-1" Cut="0.0000000000000000e+00" cType="1" res="2.5221461430191994e-02" rms="2.6254570484161377e-01" purity="1.6852404177188873e-01" nType="-99"/>
          <Node pos="r" depth="2" NCoef="0" IVar="10" Cut="1.7205073833465576e+00" cType="1" res="-8.0236094072461128e-03" rms="2.7975234389305115e-01" purity="1.7590692639350891e-01" nType="0">
            <Node pos="l" depth="3" NCoef="0" IVar="-1" Cut="0.0000000000000000e+00" cType="1" res="-1.4247654005885124e-02" rms="2.8242132067680359e-01" purity="1.8210089206695557e-01" nType="-99"/>
            <Node pos="r" depth="3" NCoef="0" IVar="-1" Cut="0.0000000000000000e+00" cType="1" res="3.1989380717277527e-02" rms="2.5797393918037415e-01" purity="1.3089819252490997e-01" nType="-99"/>
          </Node>
        </Node>
        <Node pos="r" depth="1" NCoef="0" IVar="8" Cut="-1.1999680995941162e+00" cType="1" res="2.5760254357010126e-03" rms="2.9081669449806213e-01" purity="7.0737421512603760e-01" nType="0">
          <Node pos="l" depth="2" NCoef="0" IVar="-1" Cut="0.0000000000000000e+00" cType="1" res="-1.5551226213574409e-02" rms="3.0613183975219727e-01" purity="3.7006139755249023e-01" nType="-99"/>
          <Node pos="r" depth="2" NCoef="0" IVar="6" Cut="1.3352768898010254e+01" cType="1" res="4.1247266344726086e-03" rms="2.8934624791145325e-01" purity="7.3777931928634644e-01" nType="0">
            <Node pos="l" depth="3" NCoef="0" IVar="-1" Cut="0.0000000000000000e+00" cType="1" res="1.0330840945243835e-02" rms="3.5756483674049377e-01" purity="4.4095346331596375e-01" nType="-99"/>
            <Node pos="r" depth="3" NCoef="0" IVar="-1" Cut="0.0000000000000000e+00" cType="1" res="1.6838402952998877e-03" rms="2.6204168796539307e-01" purity="8.3881539106369019e-01" nType="-99"/>
          </Node>
        </Node>
      </Node>
    </BinaryTree>
    <BinaryTree type="DecisionTree" boostWeight="1.0000000000000000e+00" itree="433">
      <Node pos="s" depth="0" NCoef="0" IVar="8" Cut="4.0015533566474915e-01" cType="1" res="-1.4939471147954464e-03" rms="2.8513339161872864e-01" purity="4.9951347708702087e-01" nType="0">
        <Node pos="l" depth="1" NCoef="0" IVar="4" Cut="9.8234375000000000e+01" cType="1" res="-4.3424740433692932e-03" rms="2.8248053789138794e-01" purity="5.3251153230667114e-01" nType="0">
          <Node pos="l" depth="2" NCoef="0" IVar="7" Cut="6.9270783662796021e-01" cType="1" res="1.0547819547355175e-02" rms="2.3857250809669495e-01" purity="9.1690383851528168e-02" nType="0">
            <Node pos="l" depth="3" NCoef="0" IVar="-1" Cut="0.0000000000000000e+00" cType="1" res="3.0241454020142555e-02" rms="2.6949930191040039e-01" purity="1.1537144333124161e-01" nType="-99"/>
            <Node pos="r" depth="3" NCoef="0" IVar="-1" Cut="0.0000000000000000e+00" cType="1" res="-3.1970977783203125e-02" rms="1.2744635343551636e-01" purity="3.1146056950092316e-02" nType="-99"/>
          </Node>
          <Node pos="r" depth="2" NCoef="0" IVar="0" Cut="1.1189989013671875e+03" cType="1" res="-7.1039893664419651e-03" rms="2.8980937600135803e-01" purity="6.1426508426666260e-01" nType="0">
            <Node pos="l" depth="3" NCoef="0" IVar="-1" Cut="0.0000000000000000e+00" cType="1" res="-4.0052630007266998e-02" rms="2.3127405345439911e-01" purity="6.9892950356006622e-02" nType="-99"/>
            <Node pos="r" depth="3" NCoef="0" IVar="-1" Cut="0.0000000000000000e+00" cType="1" res="-5.4223593324422836e-03" rms="2.9501280188560486e-01" purity="6.6957271099090576e-01" nType="-99"/>
          </Node>
        </Node>
        <Node pos="r" depth="1" NCoef="0" IVar="1" Cut="1.0603147745132446e-01" cType="1" res="4.1596754454076290e-03" rms="2.9024401307106018e-01" purity="4.3402045965194702e-01" nType="0">
          <Node pos="l" depth="2" NCoef="0" IVar="4" Cut="1.4568190002441406e+02" cType="1" res="7.1052485145628452e-03" rms="2.9050776362419128e-01" purity="3.3410227298736572e-01" nType="0">
            <Node pos="l" depth="3" NCoef="0" IVar="-1" Cut="0.0000000000000000e+00" cType="1" res="1.4986951136961579e-03" rms="2.5634047389030457e-01" purity="1.4762301743030548e-01" nType="-99"/>
            <Node pos="r" depth="3" NCoef="0" IVar="-1" Cut="0.0000000000000000e+00" cType="1" res="1.3861043378710747e-02" rms="3.2829269766807556e-01" purity="5.6851398944854736e-01" nType="-99"/>
          </Node>
          <Node pos="r" depth="2" NCoef="0" IVar="-1" Cut="0.0000000000000000e+00" cType="1" res="-8.5924919694662094e-03" rms="2.8900077939033508e-01" purity="8.0483520030975342e-01" nType="-99"/>
        </Node>
      </Node>
    </BinaryTree>
    <BinaryTree type="DecisionTree" boostWeight="1.0000000000000000e+00" itree="434">
      <Node pos="s" depth="0" NCoef="0" IVar="9" Cut="9.3275171518325806e-01" cType="1" res="-9.3434017617255449e-04" rms="2.8681769967079163e-01" purity="4.9674996733665466e-01" nType="0">
        <Node pos="l" depth="1" NCoef="0" IVar="6" Cut="8.5963096618652344e+01" cType="1" res="-2.7788926381617785e-03" rms="2.8599756956100464e-01" purity="5.3120785951614380e-01" nType="0">
          <Node pos="l" depth="2" NCoef="0" IVar="9" Cut="4.4001296162605286e-02" cType="1" res="-5.0248368643224239e-03" rms="3.0760768055915833e-01" purity="4.2033872008323669e-01" nType="0">
            <Node pos="l" depth="3" NCoef="0" IVar="-1" Cut="0.0000000000000000e+00" cType="1" res="-2.2281920537352562e-03" rms="3.0586466193199158e-01" purity="3.9735537767410278e-01" nType="-99"/>
            <Node pos="r" depth="3" NCoef="0" IVar="-1" Cut="0.0000000000000000e+00" cType="1" res="-1.1063025332987309e-02" rms="3.1091547012329102e-01" purity="4.6538105607032776e-01" nType="-99"/>
          </Node>
          <Node pos="r" depth="2" NCoef="0" IVar="3" Cut="2.8910778808593750e+02" cType="1" res="5.5620819330215454e-03" rms="1.8457038700580597e-01" purity="9.4295299053192139e-01" nType="0">
            <Node pos="l" depth="3" NCoef="0" IVar="-1" Cut="0.0000000000000000e+00" cType="1" res="1.8966235220432281e-02" rms="1.9727934896945953e-01" purity="9.3364053964614868e-01" nType="-99"/>
            <Node pos="r" depth="3" NCoef="0" IVar="-1" Cut="0.0000000000000000e+00" cType="1" res="2.9506152495741844e-03" rms="1.6341750323772430e-01" purity="9.5700943470001221e-01" nType="-99"/>
          </Node>
        </Node>
        <Node pos="r" depth="1" NCoef="0" IVar="6" Cut="5.1628398895263672e+01" cType="1" res="6.8286894820630550e-03" rms="2.9011544585227966e-01" purity="3.5172960162162781e-01" nType="0">
          <Node pos="l" depth="2" NCoef="0" IVar="8" Cut="-1.3304038345813751e-01" cType="1" res="-1.2095300480723381e-03" rms="2.6522356271743774e-01" purity="1.4523591101169586e-01" nType="0">
            <Node pos="l" depth="3" NCoef="0" IVar="-1" Cut="0.0000000000000000e+00" cType="1" res="-2.1161427721381187e-02" rms="2.3629750311374664e-01" purity="1.1828394979238510e-01" nType="-99"/>
            <Node pos="r" depth="3" NCoef="0" IVar="-1" Cut="0.0000000000000000e+00" cType="1" res="8.7451487779617310e-03" rms="2.8241384029388428e-01" purity="1.6301432251930237e-01" nType="-99"/>
          </Node>
          <Node pos="r" depth="2" NCoef="0" IVar="5" Cut="8.0585136413574219e+01" cType="1" res="1.8318524584174156e-02" rms="3.2202765345573425e-01" purity="6.4689177274703979e-01" nType="0">
            <Node pos="l" depth="3" NCoef="0" IVar="-1" Cut="0.0000000000000000e+00" cType="1" res="2.8688663616776466e-02" rms="3.5501718521118164e-01" purity="4.0257436037063599e-01" nType="-99"/>
            <Node pos="r" depth="3" NCoef="0" IVar="-1" Cut="0.0000000000000000e+00" cType="1" res="1.1219950392842293e-02" rms="3.0384799838066101e-01" purity="7.6924622058868408e-01" nType="-99"/>
          </Node>
        </Node>
      </Node>
    </BinaryTree>
    <BinaryTree type="DecisionTree" boostWeight="1.0000000000000000e+00" itree="435">
      <Node pos="s" depth="0" NCoef="0" IVar="7" Cut="-1.1501034349203110e-01" cType="1" res="6.2342092860490084e-04" rms="2.8784126043319702e-01" purity="4.9796649813652039e-01" nType="0">
        <Node pos="l" depth="1" NCoef="0" IVar="9" Cut="9.3369674682617188e-01" cType="1" res="5.6387856602668762e-03" rms="2.8731176257133484e-01" purity="4.8220726847648621e-01" nType="0">
          <Node pos="l" depth="2" NCoef="0" IVar="4" Cut="9.7641006469726562e+01" cType="1" res="8.5922284051775932e-03" rms="2.8954163193702698e-01" purity="5.2154499292373657e-01" nType="0">
            <Node pos="l" depth="3" NCoef="0" IVar="-1" Cut="0.0000000000000000e+00" cType="1" res="-1.7340339720249176e-02" rms="2.0897282660007477e-01" purity="6.5479129552841187e-02" nType="-99"/>
            <Node pos="r" depth="3" NCoef="0" IVar="-1" Cut="0.0000000000000000e+00" cType="1" res="1.2729160487651825e-02" rms="3.0151116847991943e-01" purity="6.0256022214889526e-01" nType="-99"/>
          </Node>
          <Node pos="r" depth="2" NCoef="0" IVar="10" Cut="6.6731554269790649e-01" cType="1" res="-9.1055156663060188e-03" rms="2.7543699741363525e-01" purity="2.8582394123077393e-01" nType="0">
            <Node pos="l" depth="3" NCoef="0" IVar="-1" Cut="0.0000000000000000e+00" cType="1" res="-2.8009548783302307e-02" rms="2.6675951480865479e-01" purity="2.9263916611671448e-01" nType="-99"/>
            <Node pos="r" depth="3" NCoef="0" IVar="-1" Cut="0.0000000000000000e+00" cType="1" res="1.9852006807923317e-02" rms="2.8979244828224182e-01" purity="2.7279016375541687e-01" nType="-99"/>
          </Node>
        </Node>
        <Node pos="r" depth="1" NCoef="0" IVar="8" Cut="-1.7321219444274902e+00" cType="1" res="-3.3737684134393930e-03" rms="2.8820008039474487e-01" purity="5.1052641868591309e-01" nType="0">
          <Node pos="l" depth="2" NCoef="0" IVar="-1" Cut="0.0000000000000000e+00" cType="1" res="5.3639173507690430e-02" rms="2.4462151527404785e-01" purity="1.2694066762924194e-01" nType="-99"/>
          <Node pos="r" depth="2" NCoef="0" IVar="4" Cut="9.6110275268554688e+01" cType="1" res="-4.9864854663610458e-03" rms="2.9031059145927429e-01" purity="5.3152453899383545e-01" nType="0">
            <Node pos="l" depth="3" NCoef="0" IVar="-1" Cut="0.0000000000000000e+00" cType="1" res="1.6229655593633652e-02" rms="2.3363107442855835e-01" purity="9.0477496385574341e-02" nType="-99"/>
            <Node pos="r" depth="3" NCoef="0" IVar="-1" Cut="0.0000000000000000e+00" cType="1" res="-7.8843748196959496e-03" rms="2.9901060461997986e-01" purity="6.0818868875503540e-01" nType="-99"/>
          </Node>
        </Node>
      </Node>
    </BinaryTree>
    <BinaryTree type="DecisionTree" boostWeight="1.0000000000000000e+00" itree="436">
      <Node pos="s" depth="0" NCoef="0" IVar="1" Cut="4.1738197207450867e-02" cType="1" res="4.2124348692595959e-03" rms="2.8622317314147949e-01" purity="5.0696599483489990e-01" nType="0">
        <Node pos="l" depth="1" NCoef="0" IVar="11" Cut="-1.0666847229003906e+00" cType="1" res="8.3713792264461517e-03" rms="2.7180698513984680e-01" purity="2.2012890875339508e-01" nType="0">
          <Node pos="l" depth="2" NCoef="0" IVar="1" Cut="3.3785924315452576e-02" cType="1" res="2.7840819675475359e-03" rms="2.5089532136917114e-01" purity="1.3484340906143188e-01" nType="0">
            <Node pos="l" depth="3" NCoef="0" IVar="-1" Cut="0.0000000000000000e+00" cType="1" res="9.1489069163799286e-03" rms="2.4052269756793976e-01" purity="1.2002249807119370e-01" nType="-99"/>
            <Node pos="r" depth="3" NCoef="0" IVar="-1" Cut="0.0000000000000000e+00" cType="1" res="-1.5392685309052467e-02" rms="3.1496730446815491e-01" purity="2.4130052328109741e-01" nType="-99"/>
          </Node>
          <Node pos="r" depth="2" NCoef="0" IVar="6" Cut="7.3893241882324219e+01" cType="1" res="2.4867892265319824e-02" rms="3.2524952292442322e-01" purity="4.7193458676338196e-01" nType="0">
            <Node pos="l" depth="3" NCoef="0" IVar="-1" Cut="0.0000000000000000e+00" cType="1" res="1.2911124154925346e-02" rms="3.2180821895599365e-01" purity="3.4447082877159119e-01" nType="-99"/>
            <Node pos="r" depth="3" NCoef="0" IVar="-1" Cut="0.0000000000000000e+00" cType="1" res="4.0294799953699112e-02" rms="3.3075699210166931e-01" purity="7.1793007850646973e-01" nType="-99"/>
          </Node>
        </Node>
        <Node pos="r" depth="1" NCoef="0" IVar="2" Cut="3.0072491455078125e+02" cType="1" res="1.2753925984725356e-03" rms="2.9594597220420837e-01" purity="7.0952999591827393e-01" nType="0">
          <Node pos="l" depth="2" NCoef="0" IVar="9" Cut="-3.9311194419860840e-01" cType="1" res="9.7417244687676430e-03" rms="3.1545296311378479e-01" purity="6.0240393877029419e-01" nType="0">
            <Node pos="l" depth="3" NCoef="0" IVar="-1" Cut="0.0000000000000000e+00" cType="1" res="2.2634088993072510e-02" rms="3.1761279702186584e-01" purity="5.7336568832397461e-01" nType="-99"/>
            <Node pos="r" depth="3" NCoef="0" IVar="-1" Cut="0.0000000000000000e+00" cType="1" res="2.0223096944391727e-03" rms="3.1398099660873413e-01" purity="6.1852467060089111e-01" nType="-99"/>
          </Node>
          <Node pos="r" depth="2" NCoef="0" IVar="4" Cut="1.4035153198242188e+02" cType="1" res="-3.2175444066524506e-03" rms="2.8495010733604431e-01" purity="7.6637989282608032e-01" nType="0">
            <Node pos="l" depth="3" NCoef="0" IVar="-1" Cut="0.0000000000000000e+00" cType="1" res="-1.4899485744535923e-02" rms="3.5441017150878906e-01" purity="4.0282341837882996e-01" nType="-99"/>
            <Node pos="r" depth="3" NCoef="0" IVar="-1" Cut="0.0000000000000000e+00" cType="1" res="1.1231673415750265e-03" rms="2.6427102088928223e-01" purity="8.5869902372360229e-01" nType="-99"/>
          </Node>
        </Node>
      </Node>
    </BinaryTree>
    <BinaryTree type="DecisionTree" boostWeight="1.0000000000000000e+00" itree="437">
      <Node pos="s" depth="0" NCoef="0" IVar="7" Cut="-1.1541962623596191e-01" cType="1" res="-6.9869292201474309e-04" rms="2.8736516833305359e-01" purity="4.9722471833229065e-01" nType="0">
        <Node pos="l" depth="1" NCoef="0" IVar="4" Cut="1.4527648925781250e+02" cType="1" res="-4.9945646896958351e-03" rms="2.8478720784187317e-01" purity="4.7054365277290344e-01" nType="0">
          <Node pos="l" depth="2" NCoef="0" IVar="11" Cut="-1.0686267614364624e+00" cType="1" res="-5.8211557188769802e-05" rms="2.7588328719139099e-01" purity="2.0770947635173798e-01" nType="0">
            <Node pos="l" depth="3" NCoef="0" IVar="-1" Cut="0.0000000000000000e+00" cType="1" res="-1.0953196324408054e-02" rms="2.4852238595485687e-01" purity="1.1975648999214172e-01" nType="-99"/>
            <Node pos="r" depth="3" NCoef="0" IVar="-1" Cut="0.0000000000000000e+00" cType="1" res="1.9491828978061676e-02" rms="3.4971630573272705e-01" purity="4.9508410692214966e-01" nType="-99"/>
          </Node>
          <Node pos="r" depth="2" NCoef="0" IVar="0" Cut="2.1008994140625000e+03" cType="1" res="-9.1845830902457237e-03" rms="2.9206660389900208e-01" purity="6.9363957643508911e-01" nType="0">
            <Node pos="l" depth="3" NCoef="0" IVar="-1" Cut="0.0000000000000000e+00" cType="1" res="-1.4823704957962036e-02" rms="3.1426888704299927e-01" purity="6.1249238252639771e-01" nType="-99"/>
            <Node pos="r" depth="3" NCoef="0" IVar="-1" Cut="0.0000000000000000e+00" cType="1" res="1.1637521907687187e-02" rms="2.1781803667545319e-01" purity="9.2005425691604614e-01" nType="-99"/>
          </Node>
        </Node>
        <Node pos="r" depth="1" NCoef="0" IVar="5" Cut="1.1201216125488281e+02" cType="1" res="2.7826835867017508e-03" rms="2.8939071297645569e-01" purity="5.1884704828262329e-01" nType="0">
          <Node pos="l" depth="2" NCoef="0" IVar="0" Cut="2.1081408691406250e+03" cType="1" res="5.1974179223179817e-03" rms="3.0934295058250427e-01" purity="3.9182096719741821e-01" nType="0">
            <Node pos="l" depth="3" NCoef="0" IVar="-1" Cut="0.0000000000000000e+00" cType="1" res="6.9529488682746887e-03" rms="3.1007772684097290e-01" purity="3.6559760570526123e-01" nType="-99"/>
            <Node pos="r" depth="3" NCoef="0" IVar="-1" Cut="0.0000000000000000e+00" cType="1" res="-1.9493481144309044e-02" rms="2.9723349213600159e-01" purity="7.8320878744125366e-01" nType="-99"/>
          </Node>
          <Node pos="r" depth="2" NCoef="0" IVar="7" Cut="7.1519321203231812e-01" cType="1" res="-4.4254180975258350e-03" rms="2.1913000941276550e-01" purity="8.9802616834640503e-01" nType="0">
            <Node pos="l" depth="3" NCoef="0" IVar="-1" Cut="0.0000000000000000e+00" cType="1" res="3.0964978504925966e-03" rms="1.9477736949920654e-01" purity="9.3812686204910278e-01" nType="-99"/>
            <Node pos="r" depth="3" NCoef="0" IVar="-1" Cut="0.0000000000000000e+00" cType="1" res="-2.7376415207982063e-02" rms="2.7917143702507019e-01" purity="7.7742606401443481e-01" nType="-99"/>
          </Node>
        </Node>
      </Node>
    </BinaryTree>
    <BinaryTree type="DecisionTree" boostWeight="1.0000000000000000e+00" itree="438">
      <Node pos="s" depth="0" NCoef="0" IVar="8" Cut="-1.4665678739547729e+00" cType="1" res="-7.5466983253136277e-04" rms="2.8719043731689453e-01" purity="4.9966767430305481e-01" nType="0">
        <Node pos="l" depth="1" NCoef="0" IVar="1" Cut="2.8322298079729080e-02" cType="1" res="-1.8859345465898514e-02" rms="2.1782167255878448e-01" purity="1.2428674846887589e-01" nType="0">
          <Node pos="l" depth="2" NCoef="0" IVar="-1" Cut="0.0000000000000000e+00" cType="1" res="-2.8856180608272552e-02" rms="1.6772843897342682e-01" purity="4.9617171287536621e-02" nType="-99"/>
          <Node pos="r" depth="2" NCoef="0" IVar="-1" Cut="0.0000000000000000e+00" cType="1" res="-3.6083895713090897e-02" rms="2.8550890088081360e-01" purity="2.5756248831748962e-01" nType="-99"/>
        </Node>
        <Node pos="r" depth="1" NCoef="0" IVar="11" Cut="-1.3430292606353760e+00" cType="1" res="7.0214399602264166e-04" rms="2.9200813174247742e-01" purity="5.2987313270568848e-01" nType="0">
          <Node pos="l" depth="2" NCoef="0" IVar="10" Cut="-2.0000030994415283e+00" cType="1" res="3.9517711848020554e-03" rms="3.0503913760185242e-01" purity="3.0145657062530518e-01" nType="0">
            <Node pos="l" depth="3" NCoef="0" IVar="-1" Cut="0.0000000000000000e+00" cType="1" res="-3.3771421760320663e-02" rms="2.3069201409816742e-01" purity="1.0532987117767334e-01" nType="-99"/>
            <Node pos="r" depth="3" NCoef="0" IVar="-1" Cut="0.0000000000000000e+00" cType="1" res="6.1006145551800728e-03" rms="3.0918923020362854e-01" purity="3.1425955891609192e-01" nType="-99"/>
          </Node>
          <Node pos="r" depth="2" NCoef="0" IVar="11" Cut="-3.5664489865303040e-01" cType="1" res="-2.8499169275164604e-03" rms="2.7702057361602783e-01" purity="7.7954787015914917e-01" nType="0">
            <Node pos="l" depth="3" NCoef="0" IVar="-1" Cut="0.0000000000000000e+00" cType="1" res="-2.1290868520736694e-02" rms="2.7990365028381348e-01" purity="7.7785474061965942e-01" nType="-99"/>
            <Node pos="r" depth="3" NCoef="0" IVar="-1" Cut="0.0000000000000000e+00" cType="1" res="3.5110246390104294e-03" rms="2.7559852600097656e-01" purity="7.8026258945465088e-01" nType="-99"/>
          </Node>
        </Node>
      </Node>
    </BinaryTree>
    <BinaryTree type="DecisionTree" boostWeight="1.0000000000000000e+00" itree="439">
      <Node pos="s" depth="0" NCoef="0" IVar="10" Cut="1.4664212465286255e+00" cType="1" res="1.7421036027371883e-03" rms="2.8881812095642090e-01" purity="5.0186836719512939e-01" nType="0">
        <Node pos="l" depth="1" NCoef="0" IVar="8" Cut="-1.4662039279937744e+00" cType="1" res="3.2526860013604164e-04" rms="2.8732272982597351e-01" purity="5.2055323123931885e-01" nType="0">
          <Node pos="l" depth="2" NCoef="0" IVar="8" Cut="-1.9106106758117676e+00" cType="1" res="1.3815900310873985e-02" rms="2.4432615935802460e-01" purity="1.5893229842185974e-01" nType="0">
            <Node pos="l" depth="3" NCoef="0" IVar="-1" Cut="0.0000000000000000e+00" cType="1" res="-5.4574706591665745e-03" rms="1.7326745390892029e-01" purity="8.1413142383098602e-02" nType="-99"/>
            <Node pos="r" depth="3" NCoef="0" IVar="-1" Cut="0.0000000000000000e+00" cType="1" res="3.7431307137012482e-02" rms="2.8896519541740417e-01" purity="2.2210851311683655e-01" nType="-99"/>
          </Node>
          <Node pos="r" depth="2" NCoef="0" IVar="8" Cut="-1.0598798990249634e+00" cType="1" res="-8.2619790919125080e-04" rms="2.9066920280456543e-01" purity="5.5141860246658325e-01" nType="0">
            <Node pos="l" depth="3" NCoef="0" IVar="-1" Cut="0.0000000000000000e+00" cType="1" res="-2.0619360730051994e-02" rms="2.9332438111305237e-01" purity="3.6619997024536133e-01" nType="-99"/>
            <Node pos="r" depth="3" NCoef="0" IVar="-1" Cut="0.0000000000000000e+00" cType="1" res="5.3185789147391915e-04" rms="2.9042804241180420e-01" purity="5.6534659862518311e-01" nType="-99"/>
          </Node>
        </Node>
        <Node pos="r" depth="1" NCoef="0" IVar="1" Cut="3.7192046642303467e-02" cType="1" res="1.2730981223285198e-02" rms="2.9993620514869690e-01" purity="3.5694977641105652e-01" nType="0">
          <Node pos="l" depth="2" NCoef="0" IVar="-1" Cut="0.0000000000000000e+00" cType="1" res="-3.6986703053116798e-03" rms="2.2427456080913544e-01" purity="1.0164780914783478e-01" nType="-99"/>
          <Node pos="r" depth="2" NCoef="0" IVar="1" Cut="7.0826195180416107e-02" cType="1" res="2.4113573133945465e-02" rms="3.4704712033271790e-01" purity="5.5505305528640747e-01" nType="0">
            <Node pos="l" depth="3" NCoef="0" IVar="-1" Cut="0.0000000000000000e+00" cType="1" res="5.6271374225616455e-02" rms="3.6386334896087646e-01" purity="4.1553607583045959e-01" nType="-99"/>
            <Node pos="r" depth="3" NCoef="0" IVar="-1" Cut="0.0000000000000000e+00" cType="1" res="-2.9131732881069183e-03" rms="3.3235189318656921e-01" purity="6.5033870935440063e-01" nType="-99"/>
          </Node>
        </Node>
      </Node>
    </BinaryTree>
    <BinaryTree type="DecisionTree" boostWeight="1.0000000000000000e+00" itree="440">
      <Node pos="s" depth="0" NCoef="0" IVar="0" Cut="1.0948552246093750e+03" cType="1" res="-1.0559734655544162e-03" rms="2.8867864608764648e-01" purity="4.9521565437316895e-01" nType="0">
        <Node pos="l" depth="1" NCoef="0" IVar="4" Cut="9.7248901367187500e+01" cType="1" res="6.4874505624175072e-03" rms="2.1040865778923035e-01" purity="5.5306389927864075e-02" nType="0">
          <Node pos="l" depth="2" NCoef="0" IVar="7" Cut="-3.6040121316909790e-01" cType="1" res="-5.0181429833173752e-03" rms="1.4751908183097839e-01" purity="2.4041721597313881e-02" nType="0">
            <Node pos="l" depth="3" NCoef="0" IVar="-1" Cut="0.0000000000000000e+00" cType="1" res="2.3264864459633827e-02" rms="1.5353070199489594e-01" purity="2.7966955676674843e-02" nType="-99"/>
            <Node pos="r" depth="3" NCoef="0" IVar="-1" Cut="0.0000000000000000e+00" cType="1" res="-3.8792401552200317e-02" rms="1.4321106672286987e-01" purity="2.1546827629208565e-02" nType="-99"/>
          </Node>
          <Node pos="r" depth="2" NCoef="0" IVar="-1" Cut="0.0000000000000000e+00" cType="1" res="3.5206776112318039e-02" rms="2.6648679375648499e-01" purity="9.2938765883445740e-02" nType="-99"/>
        </Node>
        <Node pos="r" depth="1" NCoef="0" IVar="1" Cut="4.3795950710773468e-02" cType="1" res="-2.5118654593825340e-03" rms="3.0143254995346069e-01" purity="5.8011883497238159e-01" nType="0">
          <Node pos="l" depth="2" NCoef="0" IVar="9" Cut="-1.1994761228561401e+00" cType="1" res="2.1168817766010761e-03" rms="3.0373451113700867e-01" purity="2.7469429373741150e-01" nType="0">
            <Node pos="l" depth="3" NCoef="0" IVar="-1" Cut="0.0000000000000000e+00" cType="1" res="-2.2885819897055626e-02" rms="2.5107806921005249e-01" purity="1.3200607895851135e-01" nType="-99"/>
            <Node pos="r" depth="3" NCoef="0" IVar="-1" Cut="0.0000000000000000e+00" cType="1" res="5.9617632068693638e-03" rms="3.1339934468269348e-01" purity="3.0420666933059692e-01" nType="-99"/>
          </Node>
          <Node pos="r" depth="2" NCoef="0" IVar="0" Cut="1.6064736328125000e+03" cType="1" res="-5.4145134054124355e-03" rms="2.9994356632232666e-01" purity="7.7164798974990845e-01" nType="0">
            <Node pos="l" depth="3" NCoef="0" IVar="-1" Cut="0.0000000000000000e+00" cType="1" res="-1.0460245423018932e-02" rms="3.7354853749275208e-01" purity="5.7142037153244019e-01" nType="-99"/>
            <Node pos="r" depth="3" NCoef="0" IVar="-1" Cut="0.0000000000000000e+00" cType="1" res="3.1721708364784718e-03" rms="2.2977003455162048e-01" purity="9.2131191492080688e-01" nType="-99"/>
          </Node>
        </Node>
      </Node>
    </BinaryTree>
    <BinaryTree type="DecisionTree" boostWeight="1.0000000000000000e+00" itree="441">
      <Node pos="s" depth="0" NCoef="0" IVar="10" Cut="1.1999704837799072e+00" cType="1" res="-2.0463203545659781e-03" rms="2.8304782509803772e-01" purity="4.9563527107238770e-01" nType="0">
        <Node pos="l" depth="1" NCoef="0" IVar="10" Cut="-1.8476502895355225e+00" cType="1" res="-4.9953890265896916e-04" rms="2.8361096978187561e-01" purity="5.2159065008163452e-01" nType="0">
          <Node pos="l" depth="2" NCoef="0" IVar="9" Cut="-3.9989063143730164e-01" cType="1" res="-1.2805273756384850e-02" rms="2.7132472395896912e-01" purity="2.6317191123962402e-01" nType="0">
            <Node pos="l" depth="3" NCoef="0" IVar="-1" Cut="0.0000000000000000e+00" cType="1" res="2.6654244866222143e-03" rms="2.6481968164443970e-01" purity="2.4289683997631073e-01" nType="-99"/>
            <Node pos="r" depth="3" NCoef="0" IVar="-1" Cut="0.0000000000000000e+00" cType="1" res="-2.9982047155499458e-02" rms="2.7588167786598206e-01" purity="2.7954995632171631e-01" nType="-99"/>
          </Node>
          <Node pos="r" depth="2" NCoef="0" IVar="9" Cut="6.6655683517456055e-01" cType="1" res="5.7130568893626332e-04" rms="2.8462988138198853e-01" purity="5.4407823085784912e-01" nType="0">
            <Node pos="l" depth="3" NCoef="0" IVar="-1" Cut="0.0000000000000000e+00" cType="1" res="3.3738198690116405e-03" rms="2.8514415025711060e-01" purity="5.7551246881484985e-01" nType="-99"/>
            <Node pos="r" depth="3" NCoef="0" IVar="-1" Cut="0.0000000000000000e+00" cType="1" res="-7.1395724080502987e-03" rms="2.8296267986297607e-01" purity="4.4882774353027344e-01" nType="-99"/>
          </Node>
        </Node>
        <Node pos="r" depth="1" NCoef="0" IVar="11" Cut="-7.9109293222427368e-01" cType="1" res="-1.0022558271884918e-02" rms="2.7999031543731689e-01" purity="3.6179190874099731e-01" nType="0">
          <Node pos="l" depth="2" NCoef="0" IVar="7" Cut="7.2777217626571655e-01" cType="1" res="-1.6193689778447151e-02" rms="2.6757061481475830e-01" purity="2.1081852912902832e-01" nType="0">
            <Node pos="l" depth="3" NCoef="0" IVar="-1" Cut="0.0000000000000000e+00" cType="1" res="-2.8772274032235146e-02" rms="2.7781733870506287e-01" purity="2.5058811902999878e-01" nType="-99"/>
            <Node pos="r" depth="3" NCoef="0" IVar="-1" Cut="0.0000000000000000e+00" cType="1" res="7.0794573985040188e-03" rms="2.4032068252563477e-01" purity="1.1634385585784912e-01" nType="-99"/>
          </Node>
          <Node pos="r" depth="2" NCoef="0" IVar="-1" Cut="0.0000000000000000e+00" cType="1" res="1.5069812070578337e-03" rms="3.0140253901481628e-01" purity="6.4265906810760498e-01" nType="-99"/>
        </Node>
      </Node>
    </BinaryTree>
    <BinaryTree type="DecisionTree" boostWeight="1.0000000000000000e+00" itree="442">
      <Node pos="s" depth="0" NCoef="0" IVar="10" Cut="-3.9996001124382019e-01" cType="1" res="-3.3802181133069098e-04" rms="2.8337317705154419e-01" purity="4.9654626846313477e-01" nType="0">
        <Node pos="l" depth="1" NCoef="0" IVar="10" Cut="-1.8856464624404907e+00" cType="1" res="4.2166556231677532e-03" rms="2.8513476252555847e-01" purity="4.6842664480209351e-01" nType="0">
          <Node pos="l" depth="2" NCoef="0" IVar="9" Cut="-1.3438530266284943e-01" cType="1" res="-1.2066298164427280e-02" rms="2.6061335206031799e-01" purity="2.4251908063888550e-01" nType="0">
            <Node pos="l" depth="3" NCoef="0" IVar="-1" Cut="0.0000000000000000e+00" cType="1" res="-4.0426072664558887e-03" rms="2.6241028308868408e-01" purity="2.3610347509384155e-01" nType="-99"/>
            <Node pos="r" depth="3" NCoef="0" IVar="-1" Cut="0.0000000000000000e+00" cType="1" res="-2.7454841881990433e-02" rms="2.5821009278297424e-01" purity="2.4970433115959167e-01" nType="-99"/>
          </Node>
          <Node pos="r" depth="2" NCoef="0" IVar="9" Cut="1.1997399330139160e+00" cType="1" res="7.4425791390240192e-03" rms="2.8963804244995117e-01" purity="5.1318264007568359e-01" nType="0">
            <Node pos="l" depth="3" NCoef="0" IVar="-1" Cut="0.0000000000000000e+00" cType="1" res="1.0934685356914997e-02" rms="2.9253512620925903e-01" purity="5.4070812463760376e-01" nType="-99"/>
            <Node pos="r" depth="3" NCoef="0" IVar="-1" Cut="0.0000000000000000e+00" cType="1" res="-9.8700085654854774e-03" rms="2.6455378532409668e-01" purity="2.9061433672904968e-01" nType="-99"/>
          </Node>
        </Node>
        <Node pos="r" depth="1" NCoef="0" IVar="9" Cut="-6.6667193174362183e-01" cType="1" res="-3.1484726350754499e-03" rms="2.8224405646324158e-01" purity="5.1389741897583008e-01" nType="0">
          <Node pos="l" depth="2" NCoef="0" IVar="7" Cut="7.1277630329132080e-01" cType="1" res="-1.2983744964003563e-02" rms="2.8809472918510437e-01" purity="4.1502100229263306e-01" nType="0">
            <Node pos="l" depth="3" NCoef="0" IVar="-1" Cut="0.0000000000000000e+00" cType="1" res="-2.1218271926045418e-02" rms="2.9540356993675232e-01" purity="4.5953211188316345e-01" nType="-99"/>
            <Node pos="r" depth="3" NCoef="0" IVar="-1" Cut="0.0000000000000000e+00" cType="1" res="1.2883868999779224e-02" rms="2.5980606675148010e-01" purity="2.5971007347106934e-01" nType="-99"/>
          </Node>
          <Node pos="r" depth="2" NCoef="0" IVar="9" Cut="4.8854291439056396e-01" cType="1" res="-5.5073243856895715e-05" rms="2.8030732274055481e-01" purity="5.4499614238739014e-01" nType="0">
            <Node pos="l" depth="3" NCoef="0" IVar="-1" Cut="0.0000000000000000e+00" cType="1" res="6.4083822071552277e-03" rms="2.7723112702369690e-01" purity="6.2989139556884766e-01" nType="-99"/>
            <Node pos="r" depth="3" NCoef="0" IVar="-1" Cut="0.0000000000000000e+00" cType="1" res="-7.6420465484261513e-03" rms="2.8385233879089355e-01" purity="4.4241589307785034e-01" nType="-99"/>
          </Node>
        </Node>
      </Node>
    </BinaryTree>
    <BinaryTree type="DecisionTree" boostWeight="1.0000000000000000e+00" itree="443">
      <Node pos="s" depth="0" NCoef="0" IVar="11" Cut="1.1428184509277344e+00" cType="1" res="-4.7378387534990907e-04" rms="2.9073077440261841e-01" purity="4.9895063042640686e-01" nType="0">
        <Node pos="l" depth="1" NCoef="0" IVar="9" Cut="-6.6672980785369873e-01" cType="1" res="8.2438578829169273e-04" rms="2.9017159342765808e-01" purity="4.8238456249237061e-01" nType="0">
          <Node pos="l" depth="2" NCoef="0" IVar="10" Cut="-4.0001922845840454e-01" cType="1" res="6.2739178538322449e-03" rms="2.9183694720268250e-01" purity="3.9973735809326172e-01" nType="0">
            <Node pos="l" depth="3" NCoef="0" IVar="-1" Cut="0.0000000000000000e+00" cType="1" res="-6.3831964507699013e-03" rms="2.7534064650535583e-01" purity="3.5862144827842712e-01" nType="-99"/>
            <Node pos="r" depth="3" NCoef="0" IVar="-1" Cut="0.0000000000000000e+00" cType="1" res="1.7899174243211746e-02" rms="3.0371785163879395e-01" purity="4.3164494633674622e-01" nType="-99"/>
          </Node>
          <Node pos="r" depth="2" NCoef="0" IVar="11" Cut="1.5642239153385162e-01" cType="1" res="-1.2292400933802128e-03" rms="2.8951489925384521e-01" purity="5.1352971792221069e-01" nType="0">
            <Node pos="l" depth="3" NCoef="0" IVar="-1" Cut="0.0000000000000000e+00" cType="1" res="-3.7867724895477295e-03" rms="2.9295679926872253e-01" purity="4.5210584998130798e-01" nType="-99"/>
            <Node pos="r" depth="3" NCoef="0" IVar="-1" Cut="0.0000000000000000e+00" cType="1" res="1.1891329661011696e-02" rms="2.7194643020629883e-01" purity="8.1222254037857056e-01" nType="-99"/>
          </Node>
        </Node>
        <Node pos="r" depth="1" NCoef="0" IVar="8" Cut="-1.3041050732135773e-01" cType="1" res="-1.3414758257567883e-02" rms="2.9593640565872192e-01" purity="6.6409152746200562e-01" nType="0">
          <Node pos="l" depth="2" NCoef="0" IVar="-1" Cut="0.0000000000000000e+00" cType="1" res="-2.9495425522327423e-02" rms="3.0412346124649048e-01" purity="6.2391513586044312e-01" nType="-99"/>
          <Node pos="r" depth="2" NCoef="0" IVar="-1" Cut="0.0000000000000000e+00" cType="1" res="-4.1812700219452381e-03" rms="2.8985944390296936e-01" purity="6.9128924608230591e-01" nType="-99"/>
        </Node>
      </Node>
    </BinaryTree>
    <BinaryTree type="DecisionTree" boostWeight="1.0000000000000000e+00" itree="444">
      <Node pos="s" depth="0" NCoef="0" IVar="1" Cut="4.2377594858407974e-02" cType="1" res="1.8392076017335057e-03" rms="2.8895029425621033e-01" purity="4.9847814440727234e-01" nType="0">
        <Node pos="l" depth="1" NCoef="0" IVar="11" Cut="-1.3428726196289062e+00" cType="1" res="6.2059457413852215e-03" rms="2.7467355132102966e-01" purity="2.1708554029464722e-01" nType="0">
          <Node pos="l" depth="2" NCoef="0" IVar="1" Cut="3.6324702203273773e-02" cType="1" res="2.4977126158773899e-03" rms="2.5064197182655334e-01" purity="1.2632416188716888e-01" nType="0">
            <Node pos="l" depth="3" NCoef="0" IVar="-1" Cut="0.0000000000000000e+00" cType="1" res="7.1041011251509190e-03" rms="2.4346034228801727e-01" purity="1.1505699157714844e-01" nType="-99"/>
            <Node pos="r" depth="3" NCoef="0" IVar="-1" Cut="0.0000000000000000e+00" cType="1" res="-1.4482444152235985e-02" rms="3.1792461872100830e-01" purity="2.4878148734569550e-01" nType="-99"/>
          </Node>
          <Node pos="r" depth="2" NCoef="0" IVar="4" Cut="1.3700817871093750e+02" cType="1" res="1.5930106863379478e-02" rms="3.2927107810974121e-01" purity="4.5509055256843567e-01" nType="0">
            <Node pos="l" depth="3" NCoef="0" IVar="-1" Cut="0.0000000000000000e+00" cType="1" res="3.2596364617347717e-02" rms="3.1861397624015808e-01" purity="2.5660592317581177e-01" nType="-99"/>
            <Node pos="r" depth="3" NCoef="0" IVar="-1" Cut="0.0000000000000000e+00" cType="1" res="4.3949456885457039e-03" rms="3.3559483289718628e-01" purity="5.8440232276916504e-01" nType="-99"/>
          </Node>
        </Node>
        <Node pos="r" depth="1" NCoef="0" IVar="4" Cut="1.4035153198242188e+02" cType="1" res="-1.3273730874061584e-03" rms="2.9883703589439392e-01" purity="7.0253264904022217e-01" nType="0">
          <Node pos="l" depth="2" NCoef="0" IVar="9" Cut="-9.3154186010360718e-01" cType="1" res="-1.0546287521719933e-02" rms="3.4487497806549072e-01" purity="3.7506049871444702e-01" nType="0">
            <Node pos="l" depth="3" NCoef="0" IVar="-1" Cut="0.0000000000000000e+00" cType="1" res="1.4496698044240475e-02" rms="3.4742444753646851e-01" purity="3.7827917933464050e-01" nType="-99"/>
            <Node pos="r" depth="3" NCoef="0" IVar="-1" Cut="0.0000000000000000e+00" cType="1" res="-1.5283314511179924e-02" rms="3.4372428059577942e-01" purity="3.7415468692779541e-01" nType="-99"/>
          </Node>
          <Node pos="r" depth="2" NCoef="0" IVar="5" Cut="1.2106478118896484e+02" cType="1" res="2.4604180362075567e-03" rms="2.7762934565544128e-01" purity="8.3708161115646362e-01" nType="0">
            <Node pos="l" depth="3" NCoef="0" IVar="-1" Cut="0.0000000000000000e+00" cType="1" res="5.6236437521874905e-03" rms="3.1950709223747253e-01" purity="7.6664453744888306e-01" nType="-99"/>
            <Node pos="r" depth="3" NCoef="0" IVar="-1" Cut="0.0000000000000000e+00" cType="1" res="-8.1247072666883469e-03" rms="1.9528935849666595e-01" purity="9.4662630558013916e-01" nType="-99"/>
          </Node>
        </Node>
      </Node>
    </BinaryTree>
    <BinaryTree type="DecisionTree" boostWeight="1.0000000000000000e+00" itree="445">
      <Node pos="s" depth="0" NCoef="0" IVar="9" Cut="1.4666383266448975e+00" cType="1" res="-3.1214838381856680e-03" rms="2.8747439384460449e-01" purity="4.9794375896453857e-01" nType="0">
        <Node pos="l" depth="1" NCoef="0" IVar="11" Cut="1.6951942443847656e+00" cType="1" res="-4.5852186158299446e-03" rms="2.8865921497344971e-01" purity="5.2251589298248291e-01" nType="0">
          <Node pos="l" depth="2" NCoef="0" IVar="9" Cut="1.2634671926498413e+00" cType="1" res="-3.8210402708500624e-03" rms="2.8731173276901245e-01" purity="5.1830756664276123e-01" nType="0">
            <Node pos="l" depth="3" NCoef="0" IVar="-1" Cut="0.0000000000000000e+00" cType="1" res="-5.4878150112926960e-03" rms="2.8600192070007324e-01" purity="5.2175390720367432e-01" nType="-99"/>
            <Node pos="r" depth="3" NCoef="0" IVar="-1" Cut="0.0000000000000000e+00" cType="1" res="1.7354978248476982e-02" rms="3.1943690776824951e-01" purity="4.2703762650489807e-01" nType="-99"/>
          </Node>
          <Node pos="r" depth="2" NCoef="0" IVar="-1" Cut="0.0000000000000000e+00" cType="1" res="-2.2631885483860970e-02" rms="3.1998142600059509e-01" purity="6.2795466184616089e-01" nType="-99"/>
        </Node>
        <Node pos="r" depth="1" NCoef="0" IVar="1" Cut="3.2722197473049164e-02" cType="1" res="1.2448976747691631e-02" rms="2.7407112717628479e-01" purity="2.3655836284160614e-01" nType="0">
          <Node pos="l" depth="2" NCoef="0" IVar="-1" Cut="0.0000000000000000e+00" cType="1" res="3.2987054437398911e-03" rms="2.0782615244388580e-01" purity="8.6563572287559509e-02" nType="-99"/>
          <Node pos="r" depth="2" NCoef="0" IVar="-1" Cut="0.0000000000000000e+00" cType="1" res="2.3737827315926552e-02" rms="3.3574226498603821e-01" purity="4.1472461819648743e-01" nType="-99"/>
        </Node>
      </Node>
    </BinaryTree>
    <BinaryTree type="DecisionTree" boostWeight="1.0000000000000000e+00" itree="446">
      <Node pos="s" depth="0" NCoef="0" IVar="7" Cut="-6.4497321844100952e-01" cType="1" res="4.3309023603796959e-03" rms="2.8827953338623047e-01" purity="5.0341689586639404e-01" nType="0">
        <Node pos="l" depth="1" NCoef="0" IVar="0" Cut="1.9796086425781250e+03" cType="1" res="-3.3554164692759514e-03" rms="2.6616880297660828e-01" purity="3.3377170562744141e-01" nType="0">
          <Node pos="l" depth="2" NCoef="0" IVar="4" Cut="1.5698536682128906e+02" cType="1" res="-8.9365377789363265e-04" rms="2.6676324009895325e-01" purity="2.6795610785484314e-01" nType="0">
            <Node pos="l" depth="3" NCoef="0" IVar="-1" Cut="0.0000000000000000e+00" cType="1" res="-1.1285023763775826e-02" rms="2.3719692230224609e-01" purity="1.4244256913661957e-01" nType="-99"/>
            <Node pos="r" depth="3" NCoef="0" IVar="-1" Cut="0.0000000000000000e+00" cType="1" res="1.0631221346557140e-02" rms="3.1633615493774414e-01" purity="5.1322597265243530e-01" nType="-99"/>
          </Node>
          <Node pos="r" depth="2" NCoef="0" IVar="-1" Cut="0.0000000000000000e+00" cType="1" res="-3.0567148700356483e-02" rms="2.6116314530372620e-01" purity="8.0779677629470825e-01" nType="-99"/>
        </Node>
        <Node pos="r" depth="1" NCoef="0" IVar="0" Cut="1.6622463378906250e+03" cType="1" res="6.6409055143594742e-03" rms="2.9456126689910889e-01" purity="5.5440109968185425e-01" nType="0">
          <Node pos="l" depth="2" NCoef="0" IVar="7" Cut="8.3135265111923218e-01" cType="1" res="1.1244413442909718e-02" rms="3.1932172179222107e-01" purity="3.6085569858551025e-01" nType="0">
            <Node pos="l" depth="3" NCoef="0" IVar="-1" Cut="0.0000000000000000e+00" cType="1" res="1.4583770185709000e-02" rms="3.4290903806686401e-01" purity="4.4715684652328491e-01" nType="-99"/>
            <Node pos="r" depth="3" NCoef="0" IVar="-1" Cut="0.0000000000000000e+00" cType="1" res="-3.5561555996537209e-03" rms="2.5183418393135071e-01" purity="1.4932008087635040e-01" nType="-99"/>
          </Node>
          <Node pos="r" depth="2" NCoef="0" IVar="1" Cut="2.0072307437658310e-02" cType="1" res="-5.4710480617359281e-04" rms="2.5089430809020996e-01" purity="8.5660684108734131e-01" nType="0">
            <Node pos="l" depth="3" NCoef="0" IVar="-1" Cut="0.0000000000000000e+00" cType="1" res="-1.5683015808463097e-02" rms="3.4098395705223083e-01" purity="3.9923959970474243e-01" nType="-99"/>
            <Node pos="r" depth="3" NCoef="0" IVar="-1" Cut="0.0000000000000000e+00" cType="1" res="2.2783633321523666e-03" rms="2.3997333645820618e-01" purity="9.0225505828857422e-01" nType="-99"/>
          </Node>
        </Node>
      </Node>
    </BinaryTree>
    <BinaryTree type="DecisionTree" boostWeight="1.0000000000000000e+00" itree="447">
      <Node pos="s" depth="0" NCoef="0" IVar="10" Cut="-9.3311762809753418e-01" cType="1" res="8.0408289795741439e-04" rms="2.8822582960128784e-01" purity="4.9824163317680359e-01" nType="0">
        <Node pos="l" depth="1" NCoef="0" IVar="8" Cut="-6.6636574268341064e-01" cType="1" res="8.3680497482419014e-03" rms="2.9519557952880859e-01" purity="4.1580539941787720e-01" nType="0">
          <Node pos="l" depth="2" NCoef="0" IVar="7" Cut="-3.1547904014587402e-01" cType="1" res="-3.9007382001727819e-03" rms="2.6686388254165649e-01" purity="2.7860173583030701e-01" nType="0">
            <Node pos="l" depth="3" NCoef="0" IVar="-1" Cut="0.0000000000000000e+00" cType="1" res="1.2700989842414856e-02" rms="2.6718154549598694e-01" purity="2.7979069948196411e-01" nType="-99"/>
            <Node pos="r" depth="3" NCoef="0" IVar="-1" Cut="0.0000000000000000e+00" cType="1" res="-1.9505616277456284e-02" rms="2.6606202125549316e-01" purity="2.7762585878372192e-01" nType="-99"/>
          </Node>
          <Node pos="r" depth="2" NCoef="0" IVar="7" Cut="1.8845230340957642e-01" cType="1" res="1.3694389723241329e-02" rms="3.0652889609336853e-01" purity="4.7537058591842651e-01" nType="0">
            <Node pos="l" depth="3" NCoef="0" IVar="-1" Cut="0.0000000000000000e+00" cType="1" res="5.8923163451254368e-03" rms="3.0250751972198486e-01" purity="4.8462322354316711e-01" nType="-99"/>
            <Node pos="r" depth="3" NCoef="0" IVar="-1" Cut="0.0000000000000000e+00" cType="1" res="2.9606577008962631e-02" rms="3.1260201334953308e-01" purity="4.5991635322570801e-01" nType="-99"/>
          </Node>
        </Node>
        <Node pos="r" depth="1" NCoef="0" IVar="10" Cut="1.5554189682006836e+00" cType="1" res="-1.5278833452612162e-03" rms="2.8600245714187622e-01" purity="5.2365654706954956e-01" nType="0">
          <Node pos="l" depth="2" NCoef="0" IVar="9" Cut="-9.3307548761367798e-01" cType="1" res="-3.3462340943515301e-03" rms="2.8591570258140564e-01" purity="5.5202490091323853e-01" nType="0">
            <Node pos="l" depth="3" NCoef="0" IVar="-1" Cut="0.0000000000000000e+00" cType="1" res="8.5005881264805794e-03" rms="2.9439297318458557e-01" purity="4.1492536664009094e-01" nType="-99"/>
            <Node pos="r" depth="3" NCoef="0" IVar="-1" Cut="0.0000000000000000e+00" cType="1" res="-6.8282280117273331e-03" rms="2.8404697775840759e-01" purity="5.8087557554244995e-01" nType="-99"/>
          </Node>
          <Node pos="r" depth="2" NCoef="0" IVar="10" Cut="1.7331833839416504e+00" cType="1" res="1.0306225158274174e-02" rms="2.8628450632095337e-01" purity="3.3903166651725769e-01" nType="0">
            <Node pos="l" depth="3" NCoef="0" IVar="-1" Cut="0.0000000000000000e+00" cType="1" res="4.2655650526285172e-02" rms="2.9867023229598999e-01" purity="4.7479671239852905e-01" nType="-99"/>
            <Node pos="r" depth="3" NCoef="0" IVar="-1" Cut="0.0000000000000000e+00" cType="1" res="6.8458914756774902e-04" rms="2.8117641806602478e-01" purity="2.9158732295036316e-01" nType="-99"/>
          </Node>
        </Node>
      </Node>
    </BinaryTree>
    <BinaryTree type="DecisionTree" boostWeight="1.0000000000000000e+00" itree="448">
      <Node pos="s" depth="0" NCoef="0" IVar="10" Cut="1.4664938449859619e+00" cType="1" res="-9.5227762358263135e-04" rms="2.8757947683334351e-01" purity="4.9702715873718262e-01" nType="0">
        <Node pos="l" depth="1" NCoef="0" IVar="4" Cut="1.4285162353515625e+02" cType="1" res="5.8486702619120479e-04" rms="2.8706410527229309e-01" purity="5.2224767208099365e-01" nType="0">
          <Node pos="l" depth="2" NCoef="0" IVar="4" Cut="1.1663657379150391e+02" cType="1" res="5.0016744062304497e-03" rms="2.9279431700706482e-01" purity="2.3292545974254608e-01" nType="0">
            <Node pos="l" depth="3" NCoef="0" IVar="-1" Cut="0.0000000000000000e+00" cType="1" res="-3.5769098903983831e-03" rms="2.5684744119644165e-01" purity="1.3434645533561707e-01" nType="-99"/>
            <Node pos="r" depth="3" NCoef="0" IVar="-1" Cut="0.0000000000000000e+00" cType="1" res="1.5624252147972584e-02" rms="3.4525883197784424e-01" purity="4.0120649337768555e-01" nType="-99"/>
          </Node>
          <Node pos="r" depth="2" NCoef="0" IVar="9" Cut="-6.6708946228027344e-01" cType="1" res="-2.5481618940830231e-03" rms="2.8288725018501282e-01" purity="7.2747617959976196e-01" nType="0">
            <Node pos="l" depth="3" NCoef="0" IVar="-1" Cut="0.0000000000000000e+00" cType="1" res="-1.3461636379361153e-02" rms="2.9867470264434814e-01" purity="6.1918067932128906e-01" nType="-99"/>
            <Node pos="r" depth="3" NCoef="0" IVar="-1" Cut="0.0000000000000000e+00" cType="1" res="6.6238775616511703e-04" rms="2.7778342366218567e-01" purity="7.6075029373168945e-01" nType="-99"/>
          </Node>
        </Node>
        <Node pos="r" depth="1" NCoef="0" IVar="5" Cut="7.4397544860839844e+01" cType="1" res="-1.2749365530908108e-02" rms="2.9123467206954956e-01" purity="3.0346807837486267e-01" nType="0">
          <Node pos="l" depth="2" NCoef="0" IVar="5" Cut="6.1617336273193359e+01" cType="1" res="2.7695326134562492e-03" rms="2.6613846421241760e-01" purity="1.6213288903236389e-01" nType="0">
            <Node pos="l" depth="3" NCoef="0" IVar="-1" Cut="0.0000000000000000e+00" cType="1" res="-1.7095413058996201e-02" rms="2.2709783911705017e-01" purity="9.9232658743858337e-02" nType="-99"/>
            <Node pos="r" depth="3" NCoef="0" IVar="-1" Cut="0.0000000000000000e+00" cType="1" res="2.2333467379212379e-02" rms="3.1069552898406982e-01" purity="2.4776600301265717e-01" nType="-99"/>
          </Node>
          <Node pos="r" depth="2" NCoef="0" IVar="-1" Cut="0.0000000000000000e+00" cType="1" res="-3.3961396664381027e-02" rms="3.2273840904235840e-01" purity="5.0748848915100098e-01" nType="-99"/>
        </Node>
      </Node>
    </BinaryTree>
    <BinaryTree type="DecisionTree" boostWeight="1.0000000000000000e+00" itree="449">
      <Node pos="s" depth="0" NCoef="0" IVar="7" Cut="1.2047922611236572e+00" cType="1" res="-1.4205350307747722e-03" rms="2.8927949070930481e-01" purity="4.9797242879867554e-01" nType="0">
        <Node pos="l" depth="1" NCoef="0" IVar="2" Cut="3.3976760864257812e+02" cType="1" res="-1.8778310914058238e-04" rms="2.9687982797622681e-01" purity="5.3478199243545532e-01" nType="0">
          <Node pos="l" depth="2" NCoef="0" IVar="8" Cut="9.3346470594406128e-01" cType="1" res="3.0038480181246996e-03" rms="3.0070364475250244e-01" purity="4.7005948424339294e-01" nType="0">
            <Node pos="l" depth="3" NCoef="0" IVar="-1" Cut="0.0000000000000000e+00" cType="1" res="6.8661719560623169e-03" rms="3.0455943942070007e-01" purity="5.1251745223999023e-01" nType="-99"/>
            <Node pos="r" depth="3" NCoef="0" IVar="-1" Cut="0.0000000000000000e+00" cType="1" res="-1.5747036784887314e-02" rms="2.8068730235099792e-01" purity="2.6370626688003540e-01" nType="-99"/>
          </Node>
          <Node pos="r" depth="2" NCoef="0" IVar="5" Cut="7.0200714111328125e+01" cType="1" res="-2.8726675081998110e-03" rms="2.9359769821166992e-01" purity="5.8922833204269409e-01" nType="0">
            <Node pos="l" depth="3" NCoef="0" IVar="-1" Cut="0.0000000000000000e+00" cType="1" res="-1.1820173822343349e-02" rms="3.0566343665122986e-01" purity="2.3462298512458801e-01" nType="-99"/>
            <Node pos="r" depth="3" NCoef="0" IVar="-1" Cut="0.0000000000000000e+00" cType="1" res="1.6792961396276951e-03" rms="2.8732806444168091e-01" purity="7.6520770788192749e-01" nType="-99"/>
          </Node>
        </Node>
        <Node pos="r" depth="1" NCoef="0" IVar="7" Cut="1.5845687389373779e+00" cType="1" res="-1.3345198705792427e-02" rms="2.0107595622539520e-01" purity="1.4190602302551270e-01" nType="0">
          <Node pos="l" depth="2" NCoef="0" IVar="-1" Cut="0.0000000000000000e+00" cType="1" res="-3.3859230577945709e-02" rms="2.4574099481105804e-01" purity="2.1694216132164001e-01" nType="-99"/>
          <Node pos="r" depth="2" NCoef="0" IVar="7" Cut="1.9318172931671143e+00" cType="1" res="-3.4435924608260393e-03" rms="1.5355533361434937e-01" purity="7.9354345798492432e-02" nType="0">
            <Node pos="l" depth="3" NCoef="0" IVar="-1" Cut="0.0000000000000000e+00" cType="1" res="-1.0944044217467308e-02" rms="1.5769307315349579e-01" purity="9.9245555698871613e-02" nType="-99"/>
            <Node pos="r" depth="3" NCoef="0" IVar="-1" Cut="0.0000000000000000e+00" cType="1" res="-1.0035853832960129e-02" rms="1.4934414625167847e-01" purity="5.9662967920303345e-02" nType="-99"/>
          </Node>
        </Node>
      </Node>
    </BinaryTree>
    <BinaryTree type="DecisionTree" boostWeight="1.0000000000000000e+00" itree="450">
      <Node pos="s" depth="0" NCoef="0" IVar="2" Cut="6.7411932373046875e+02" cType="1" res="1.0508864652365446e-03" rms="2.8855079412460327e-01" purity="4.9616426229476929e-01" nType="0">
        <Node pos="l" depth="1" NCoef="0" IVar="2" Cut="4.7092257690429688e+02" cType="1" res="1.9655597861856222e-03" rms="2.8705707192420959e-01" purity="4.9289360642433167e-01" nType="0">
          <Node pos="l" depth="2" NCoef="0" IVar="2" Cut="2.3870767211914062e+02" cType="1" res="-1.2695895566139370e-04" rms="2.8514388203620911e-01" purity="4.6953168511390686e-01" nType="0">
            <Node pos="l" depth="3" NCoef="0" IVar="-1" Cut="0.0000000000000000e+00" cType="1" res="1.3983179815113544e-02" rms="2.8980338573455811e-01" purity="3.5471126437187195e-01" nType="-99"/>
            <Node pos="r" depth="3" NCoef="0" IVar="-1" Cut="0.0000000000000000e+00" cType="1" res="-2.9964265413582325e-03" rms="2.8415423631668091e-01" purity="4.9230137467384338e-01" nType="-99"/>
          </Node>
          <Node pos="r" depth="2" NCoef="0" IVar="5" Cut="1.1060235595703125e+02" cType="1" res="1.0619171895086765e-02" rms="2.9467955231666565e-01" purity="5.8950680494308472e-01" nType="0">
            <Node pos="l" depth="3" NCoef="0" IVar="-1" Cut="0.0000000000000000e+00" cType="1" res="1.7162851989269257e-02" rms="3.2103410363197327e-01" purity="4.5263084769248962e-01" nType="-99"/>
            <Node pos="r" depth="3" NCoef="0" IVar="-1" Cut="0.0000000000000000e+00" cType="1" res="-7.9172691330313683e-03" rms="2.2268977761268616e-01" purity="9.0112137794494629e-01" nType="-99"/>
          </Node>
        </Node>
        <Node pos="r" depth="1" NCoef="0" IVar="-1" Cut="0.0000000000000000e+00" cType="1" res="-1.6025329008698463e-02" rms="3.1592977046966553e-01" purity="5.6041133403778076e-01" nType="-99"/>
      </Node>
    </BinaryTree>
    <BinaryTree type="DecisionTree" boostWeight="1.0000000000000000e+00" itree="451">
      <Node pos="s" depth="0" NCoef="0" IVar="11" Cut="-1.3429135084152222e+00" cType="1" res="1.3150168524589390e-04" rms="2.8506383299827576e-01" purity="5.0227415561676025e-01" nType="0">
        <Node pos="l" depth="1" NCoef="0" IVar="1" Cut="1.4606089890003204e-01" cType="1" res="3.4331260249018669e-03" rms="2.9387882351875305e-01" purity="2.8563672304153442e-01" nType="0">
          <Node pos="l" depth="2" NCoef="0" IVar="9" Cut="-1.4665493965148926e+00" cType="1" res="1.7478538211435080e-03" rms="2.8967204689979553e-01" purity="2.4036549031734467e-01" nType="0">
            <Node pos="l" depth="3" NCoef="0" IVar="-1" Cut="0.0000000000000000e+00" cType="1" res="2.4910485371947289e-02" rms="2.5683289766311646e-01" purity="1.2841556966304779e-01" nType="-99"/>
            <Node pos="r" depth="3" NCoef="0" IVar="-1" Cut="0.0000000000000000e+00" cType="1" res="-1.5556871949229389e-04" rms="2.9383432865142822e-01" purity="2.5569915771484375e-01" nType="-99"/>
          </Node>
          <Node pos="r" depth="2" NCoef="0" IVar="-1" Cut="0.0000000000000000e+00" cType="1" res="1.7888195812702179e-02" rms="3.3316305279731750e-01" purity="7.4584734439849854e-01" nType="-99"/>
        </Node>
        <Node pos="r" depth="1" NCoef="0" IVar="1" Cut="9.6932731568813324e-02" cType="1" res="-3.7378084380179644e-03" rms="2.7432242035865784e-01" purity="7.5616049766540527e-01" nType="0">
          <Node pos="l" depth="2" NCoef="0" IVar="10" Cut="-9.3272137641906738e-01" cType="1" res="-9.6059925854206085e-03" rms="3.1176424026489258e-01" purity="6.2145590782165527e-01" nType="0">
            <Node pos="l" depth="3" NCoef="0" IVar="-1" Cut="0.0000000000000000e+00" cType="1" res="-2.8097786009311676e-02" rms="3.1742301583290100e-01" purity="5.0984334945678711e-01" nType="-99"/>
            <Node pos="r" depth="3" NCoef="0" IVar="-1" Cut="0.0000000000000000e+00" cType="1" res="-4.2780293151736259e-03" rms="3.1013906002044678e-01" purity="6.4860755205154419e-01" nType="-99"/>
          </Node>
          <Node pos="r" depth="2" NCoef="0" IVar="1" Cut="1.4123959839344025e-01" cType="1" res="3.5851942375302315e-03" rms="2.1856740117073059e-01" purity="9.2426055669784546e-01" nType="0">
            <Node pos="l" depth="3" NCoef="0" IVar="-1" Cut="0.0000000000000000e+00" cType="1" res="1.6213251277804375e-02" rms="2.4854558706283569e-01" purity="8.9331030845642090e-01" nType="-99"/>
            <Node pos="r" depth="3" NCoef="0" IVar="-1" Cut="0.0000000000000000e+00" cType="1" res="-4.8788362182676792e-03" rms="1.9478283822536469e-01" purity="9.4582760334014893e-01" nType="-99"/>
          </Node>
        </Node>
      </Node>
    </BinaryTree>
    <BinaryTree type="DecisionTree" boostWeight="1.0000000000000000e+00" itree="452">
      <Node pos="s" depth="0" NCoef="0" IVar="8" Cut="9.3332910537719727e-01" cType="1" res="3.7543181679211557e-04" rms="2.8785169124603271e-01" purity="5.0160068273544312e-01" nType="0">
        <Node pos="l" depth="1" NCoef="0" IVar="9" Cut="1.7330117225646973e+00" cType="1" res="-1.7218288267031312e-03" rms="2.8931790590286255e-01" purity="5.4358106851577759e-01" nType="0">
          <Node pos="l" depth="2" NCoef="0" IVar="0" Cut="2.5246196289062500e+03" cType="1" res="-2.5685690343379974e-03" rms="2.8952953219413757e-01" purity="5.6066203117370605e-01" nType="0">
            <Node pos="l" depth="3" NCoef="0" IVar="-1" Cut="0.0000000000000000e+00" cType="1" res="-4.0181414224207401e-03" rms="2.9328262805938721e-01" purity="5.3921246528625488e-01" nType="-99"/>
            <Node pos="r" depth="3" NCoef="0" IVar="-1" Cut="0.0000000000000000e+00" cType="1" res="2.5670677423477173e-02" rms="2.1433402597904205e-01" purity="9.2946338653564453e-01" nType="-99"/>
          </Node>
          <Node pos="r" depth="2" NCoef="0" IVar="-1" Cut="0.0000000000000000e+00" cType="1" res="1.9066663458943367e-02" rms="2.8478097915649414e-01" purity="2.1853046119213104e-01" nType="-99"/>
        </Node>
        <Node pos="r" depth="1" NCoef="0" IVar="9" Cut="-3.9998787641525269e-01" cType="1" res="1.0587488301098347e-02" rms="2.8037884831428528e-01" purity="2.9718810319900513e-01" nType="0">
          <Node pos="l" depth="2" NCoef="0" IVar="1" Cut="2.6977846398949623e-02" cType="1" res="-7.4148140847682953e-03" rms="2.5638034939765930e-01" purity="2.3103375732898712e-01" nType="0">
            <Node pos="l" depth="3" NCoef="0" IVar="-1" Cut="0.0000000000000000e+00" cType="1" res="6.7237108014523983e-03" rms="1.8334357440471649e-01" purity="7.4157513678073883e-02" nType="-99"/>
            <Node pos="r" depth="3" NCoef="0" IVar="-1" Cut="0.0000000000000000e+00" cType="1" res="-1.7103936523199081e-02" rms="3.1218966841697693e-01" purity="3.8698828220367432e-01" nType="-99"/>
          </Node>
          <Node pos="r" depth="2" NCoef="0" IVar="8" Cut="1.5555406808853149e+00" cType="1" res="1.8509555608034134e-02" rms="2.8995773196220398e-01" purity="3.2629990577697754e-01" nType="0">
            <Node pos="l" depth="3" NCoef="0" IVar="-1" Cut="0.0000000000000000e+00" cType="1" res="2.9390092939138412e-02" rms="3.2280519604682922e-01" purity="4.3212485313415527e-01" nType="-99"/>
            <Node pos="r" depth="3" NCoef="0" IVar="-1" Cut="0.0000000000000000e+00" cType="1" res="3.5513113252818584e-03" rms="2.2077627480030060e-01" purity="1.4282290637493134e-01" nType="-99"/>
          </Node>
        </Node>
      </Node>
    </BinaryTree>
    <BinaryTree type="DecisionTree" boostWeight="1.0000000000000000e+00" itree="453">
      <Node pos="s" depth="0" NCoef="0" IVar="11" Cut="-1.6190605163574219e+00" cType="1" res="1.3710537459701300e-03" rms="2.8526929020881653e-01" purity="4.9688091874122620e-01" nType="0">
        <Node pos="l" depth="1" NCoef="0" IVar="6" Cut="5.2282840728759766e+01" cType="1" res="-2.0942417904734612e-03" rms="2.9097139835357666e-01" purity="2.5499159097671509e-01" nType="0">
          <Node pos="l" depth="2" NCoef="0" IVar="8" Cut="-1.3331922888755798e-01" cType="1" res="-1.3587034118245356e-05" rms="2.8983047604560852e-01" purity="2.2628539800643921e-01" nType="0">
            <Node pos="l" depth="3" NCoef="0" IVar="-1" Cut="0.0000000000000000e+00" cType="1" res="7.7033308334648609e-03" rms="2.9129165410995483e-01" purity="2.2049359977245331e-01" nType="-99"/>
            <Node pos="r" depth="3" NCoef="0" IVar="-1" Cut="0.0000000000000000e+00" cType="1" res="-6.0759503394365311e-03" rms="2.8848165273666382e-01" purity="2.3118311166763306e-01" nType="-99"/>
          </Node>
          <Node pos="r" depth="2" NCoef="0" IVar="-1" Cut="0.0000000000000000e+00" cType="1" res="-3.0365008860826492e-02" rms="3.0384674668312073e-01" purity="6.1934369802474976e-01" nType="-99"/>
        </Node>
        <Node pos="r" depth="1" NCoef="0" IVar="5" Cut="8.3002548217773438e+01" cType="1" res="5.1357843913137913e-03" rms="2.7889356017112732e-01" purity="7.5967186689376831e-01" nType="0">
          <Node pos="l" depth="2" NCoef="0" IVar="6" Cut="5.3111587524414062e+01" cType="1" res="1.4422232285141945e-02" rms="3.4599193930625916e-01" purity="4.9328532814979553e-01" nType="0">
            <Node pos="l" depth="3" NCoef="0" IVar="-1" Cut="0.0000000000000000e+00" cType="1" res="-2.0820723846554756e-02" rms="3.2680130004882812e-01" purity="3.0664929747581482e-01" nType="-99"/>
            <Node pos="r" depth="3" NCoef="0" IVar="-1" Cut="0.0000000000000000e+00" cType="1" res="1.8882721662521362e-02" rms="3.4999480843544006e-01" purity="5.3963816165924072e-01" nType="-99"/>
          </Node>
          <Node pos="r" depth="2" NCoef="0" IVar="8" Cut="-9.3375611305236816e-01" cType="1" res="1.4138465048745275e-03" rms="2.4683691561222076e-01" purity="8.6643749475479126e-01" nType="0">
            <Node pos="l" depth="3" NCoef="0" IVar="-1" Cut="0.0000000000000000e+00" cType="1" res="1.8594134598970413e-02" rms="3.0082643032073975e-01" purity="7.4498498439788818e-01" nType="-99"/>
            <Node pos="r" depth="3" NCoef="0" IVar="-1" Cut="0.0000000000000000e+00" cType="1" res="-1.3251048512756824e-03" rms="2.3924595117568970e-01" purity="8.8141131401062012e-01" nType="-99"/>
          </Node>
        </Node>
      </Node>
    </BinaryTree>
    <BinaryTree type="DecisionTree" boostWeight="1.0000000000000000e+00" itree="454">
      <Node pos="s" depth="0" NCoef="0" IVar="9" Cut="-6.6644859313964844e-01" cType="1" res="1.0125800035893917e-03" rms="2.8466039896011353e-01" purity="5.0264203548431396e-01" nType="0">
        <Node pos="l" depth="1" NCoef="0" IVar="10" Cut="3.9993244409561157e-01" cType="1" res="1.0712405666708946e-02" rms="2.8957194089889526e-01" purity="4.1320487856864929e-01" nType="0">
          <Node pos="l" depth="2" NCoef="0" IVar="10" Cut="-1.7332249879837036e+00" cType="1" res="1.7359865829348564e-02" rms="2.9127025604248047e-01" purity="4.2567348480224609e-01" nType="0">
            <Node pos="l" depth="3" NCoef="0" IVar="-1" Cut="0.0000000000000000e+00" cType="1" res="-5.7769515551626682e-03" rms="2.6135432720184326e-01" purity="2.0535790920257568e-01" nType="-99"/>
            <Node pos="r" depth="3" NCoef="0" IVar="-1" Cut="0.0000000000000000e+00" cType="1" res="2.4947050958871841e-02" rms="2.9660254716873169e-01" purity="4.6895474195480347e-01" nType="-99"/>
          </Node>
          <Node pos="r" depth="2" NCoef="0" IVar="7" Cut="4.5058196783065796e-01" cType="1" res="-2.9480094090104103e-03" rms="2.8556498885154724e-01" purity="3.8758221268653870e-01" nType="0">
            <Node pos="l" depth="3" NCoef="0" IVar="-1" Cut="0.0000000000000000e+00" cType="1" res="-1.0910314507782459e-02" rms="2.8771895170211792e-01" purity="4.3183863162994385e-01" nType="-99"/>
            <Node pos="r" depth="3" NCoef="0" IVar="-1" Cut="0.0000000000000000e+00" cType="1" res="1.4869713224470615e-02" rms="2.8056952357292175e-01" purity="2.9642140865325928e-01" nType="-99"/>
          </Node>
        </Node>
        <Node pos="r" depth="1" NCoef="0" IVar="0" Cut="1.0949584960937500e+03" cType="1" res="-2.5085064116865396e-03" rms="2.8277409076690674e-01" purity="5.3510814905166626e-01" nType="0">
          <Node pos="l" depth="2" NCoef="0" IVar="3" Cut="1.2075003814697266e+02" cType="1" res="-1.5064994804561138e-02" rms="1.7089170217514038e-01" purity="3.5342611372470856e-02" nType="0">
            <Node pos="l" depth="3" NCoef="0" IVar="-1" Cut="0.0000000000000000e+00" cType="1" res="-2.3942798376083374e-02" rms="1.3523557782173157e-01" purity="2.1167062222957611e-02" nType="-99"/>
            <Node pos="r" depth="3" NCoef="0" IVar="-1" Cut="0.0000000000000000e+00" cType="1" res="-4.0205873548984528e-02" rms="1.8703253567218781e-01" purity="4.2940933257341385e-02" nType="-99"/>
          </Node>
          <Node pos="r" depth="2" NCoef="0" IVar="10" Cut="-1.7333965301513672e+00" cType="1" res="-4.2052660137414932e-04" rms="2.9727238416671753e-01" purity="6.1821264028549194e-01" nType="0">
            <Node pos="l" depth="3" NCoef="0" IVar="-1" Cut="0.0000000000000000e+00" cType="1" res="1.7546502873301506e-02" rms="3.2374274730682373e-01" purity="4.1880607604980469e-01" nType="-99"/>
            <Node pos="r" depth="3" NCoef="0" IVar="-1" Cut="0.0000000000000000e+00" cType="1" res="-1.8470651702955365e-03" rms="2.9538705945014954e-01" purity="6.3147819042205811e-01" nType="-99"/>
          </Node>
        </Node>
      </Node>
    </BinaryTree>
    <BinaryTree type="DecisionTree" boostWeight="1.0000000000000000e+00" itree="455">
      <Node pos="s" depth="0" NCoef="0" IVar="4" Cut="1.4552420043945312e+02" cType="1" res="-2.7659342158585787e-03" rms="2.8299680352210999e-01" purity="4.9826222658157349e-01" nType="0">
        <Node pos="l" depth="1" NCoef="0" IVar="10" Cut="-9.3317419290542603e-01" cType="1" res="-8.3289081230759621e-03" rms="2.7904954552650452e-01" purity="2.2482551634311676e-01" nType="0">
          <Node pos="l" depth="2" NCoef="0" IVar="11" Cut="-2.7238266468048096e+00" cType="1" res="-1.9968790933489799e-02" rms="2.5985780358314514e-01" purity="1.6870126128196716e-01" nType="0">
            <Node pos="l" depth="3" NCoef="0" IVar="-1" Cut="0.0000000000000000e+00" cType="1" res="-1.8182795494794846e-02" rms="2.2250314056873322e-01" purity="7.9098939895629883e-02" nType="-99"/>
            <Node pos="r" depth="3" NCoef="0" IVar="-1" Cut="0.0000000000000000e+00" cType="1" res="-3.5645030438899994e-02" rms="3.2848244905471802e-01" purity="3.7300002574920654e-01" nType="-99"/>
          </Node>
          <Node pos="r" depth="2" NCoef="0" IVar="3" Cut="1.2777152252197266e+02" cType="1" res="-4.2283101938664913e-03" rms="2.8539037704467773e-01" purity="2.4459746479988098e-01" nType="0">
            <Node pos="l" depth="3" NCoef="0" IVar="-1" Cut="0.0000000000000000e+00" cType="1" res="1.3672538101673126e-02" rms="2.2847317159175873e-01" purity="8.9275225996971130e-02" nType="-99"/>
            <Node pos="r" depth="3" NCoef="0" IVar="-1" Cut="0.0000000000000000e+00" cType="1" res="-7.9069631174206734e-03" rms="3.0009335279464722e-01" purity="2.9054537415504456e-01" nType="-99"/>
          </Node>
        </Node>
        <Node pos="r" depth="1" NCoef="0" IVar="5" Cut="7.0200958251953125e+01" cType="1" res="1.6572993481531739e-03" rms="2.8601926565170288e-01" purity="7.1567732095718384e-01" nType="0">
          <Node pos="l" depth="2" NCoef="0" IVar="5" Cut="6.4427925109863281e+01" cType="1" res="1.0591487400233746e-02" rms="3.4493693709373474e-01" purity="3.9072105288505554e-01" nType="0">
            <Node pos="l" depth="3" NCoef="0" IVar="-1" Cut="0.0000000000000000e+00" cType="1" res="1.0187864245381206e-04" rms="3.3248642086982727e-01" purity="3.5015991330146790e-01" nType="-99"/>
            <Node pos="r" depth="3" NCoef="0" IVar="-1" Cut="0.0000000000000000e+00" cType="1" res="3.0283343046903610e-02" rms="3.7564030289649963e-01" purity="5.0258296728134155e-01" nType="-99"/>
          </Node>
          <Node pos="r" depth="2" NCoef="0" IVar="1" Cut="4.3799735605716705e-02" cType="1" res="-6.0883950209245086e-04" rms="2.6898401975631714e-01" purity="7.9810184240341187e-01" nType="0">
            <Node pos="l" depth="3" NCoef="0" IVar="-1" Cut="0.0000000000000000e+00" cType="1" res="-6.4266296103596687e-03" rms="3.2770708203315735e-01" purity="4.9690073728561401e-01" nType="-99"/>
            <Node pos="r" depth="3" NCoef="0" IVar="-1" Cut="0.0000000000000000e+00" cType="1" res="2.3022985551506281e-03" rms="2.4829164147377014e-01" purity="8.8995081186294556e-01" nType="-99"/>
          </Node>
        </Node>
      </Node>
    </BinaryTree>
    <BinaryTree type="DecisionTree" boostWeight="1.0000000000000000e+00" itree="456">
      <Node pos="s" depth="0" NCoef="0" IVar="4" Cut="1.4301225280761719e+02" cType="1" res="3.7525911466218531e-04" rms="2.8558459877967834e-01" purity="4.9963650107383728e-01" nType="0">
        <Node pos="l" depth="1" NCoef="0" IVar="4" Cut="1.0369922637939453e+02" cType="1" res="5.5871848016977310e-03" rms="2.8731140494346619e-01" purity="2.2513335943222046e-01" nType="0">
          <Node pos="l" depth="2" NCoef="0" IVar="6" Cut="5.4281669616699219e+01" cType="1" res="1.1442285962402821e-02" rms="2.4111184477806091e-01" purity="9.9950544536113739e-02" nType="0">
            <Node pos="l" depth="3" NCoef="0" IVar="-1" Cut="0.0000000000000000e+00" cType="1" res="1.3470379635691643e-02" rms="2.1494922041893005e-01" purity="6.4220882952213287e-02" nType="-99"/>
            <Node pos="r" depth="3" NCoef="0" IVar="-1" Cut="0.0000000000000000e+00" cType="1" res="3.9721786975860596e-02" rms="3.6465591192245483e-01" purity="3.2886219024658203e-01" nType="-99"/>
          </Node>
          <Node pos="r" depth="2" NCoef="0" IVar="5" Cut="6.7435676574707031e+01" cType="1" res="6.5682129934430122e-04" rms="3.2101696729660034e-01" purity="3.3054518699645996e-01" nType="0">
            <Node pos="l" depth="3" NCoef="0" IVar="-1" Cut="0.0000000000000000e+00" cType="1" res="1.4830116182565689e-02" rms="2.9755192995071411e-01" purity="1.7976622283458710e-01" nType="-99"/>
            <Node pos="r" depth="3" NCoef="0" IVar="-1" Cut="0.0000000000000000e+00" cType="1" res="-7.8711938112974167e-03" rms="3.3782505989074707e-01" purity="4.4779115915298462e-01" nType="-99"/>
          </Node>
        </Node>
        <Node pos="r" depth="1" NCoef="0" IVar="1" Cut="4.3821588158607483e-02" cType="1" res="-3.5136251244693995e-03" rms="2.8422704339027405e-01" purity="7.0445734262466431e-01" nType="0">
          <Node pos="l" depth="2" NCoef="0" IVar="7" Cut="9.7124606370925903e-01" cType="1" res="-1.1877427808940411e-02" rms="3.1021898984909058e-01" purity="3.8158455491065979e-01" nType="0">
            <Node pos="l" depth="3" NCoef="0" IVar="-1" Cut="0.0000000000000000e+00" cType="1" res="-1.5817126259207726e-02" rms="3.1860932707786560e-01" purity="4.2417752742767334e-01" nType="-99"/>
            <Node pos="r" depth="3" NCoef="0" IVar="-1" Cut="0.0000000000000000e+00" cType="1" res="1.0210272856056690e-02" rms="2.7589738368988037e-01" purity="2.2346615791320801e-01" nType="-99"/>
          </Node>
          <Node pos="r" depth="2" NCoef="0" IVar="8" Cut="7.2199702262878418e-01" cType="1" res="3.0357548894244246e-05" rms="2.7238917350769043e-01" purity="8.4126776456832886e-01" nType="0">
            <Node pos="l" depth="3" NCoef="0" IVar="-1" Cut="0.0000000000000000e+00" cType="1" res="3.3722098451107740e-03" rms="2.6484349370002747e-01" purity="8.5851997137069702e-01" nType="-99"/>
            <Node pos="r" depth="3" NCoef="0" IVar="-1" Cut="0.0000000000000000e+00" cType="1" res="-1.4089961536228657e-02" rms="3.0969995260238647e-01" purity="7.4794512987136841e-01" nType="-99"/>
          </Node>
        </Node>
      </Node>
    </BinaryTree>
    <BinaryTree type="DecisionTree" boostWeight="1.0000000000000000e+00" itree="457">
      <Node pos="s" depth="0" NCoef="0" IVar="10" Cut="1.7333047389984131e+00" cType="1" res="-2.8949449770152569e-03" rms="2.8554689884185791e-01" purity="4.9658936262130737e-01" nType="0">
        <Node pos="l" depth="1" NCoef="0" IVar="4" Cut="9.2405570983886719e+01" cType="1" res="-4.1438653133809566e-03" rms="2.8535199165344238e-01" purity="5.1298177242279053e-01" nType="0">
          <Node pos="l" depth="2" NCoef="0" IVar="4" Cut="8.4521713256835938e+01" cType="1" res="7.6389149762690067e-03" rms="2.1370641887187958e-01" purity="7.2500877082347870e-02" nType="0">
            <Node pos="l" depth="3" NCoef="0" IVar="-1" Cut="0.0000000000000000e+00" cType="1" res="-1.7760489135980606e-03" rms="1.8619051575660706e-01" purity="5.1902234554290771e-02" nType="-99"/>
            <Node pos="r" depth="3" NCoef="0" IVar="-1" Cut="0.0000000000000000e+00" cType="1" res="4.7616694122552872e-02" rms="2.6658567786216736e-01" purity="1.2106446921825409e-01" nType="-99"/>
          </Node>
          <Node pos="r" depth="2" NCoef="0" IVar="9" Cut="1.3359883427619934e-01" cType="1" res="-5.8993278071284294e-03" rms="2.9449787735939026e-01" purity="5.7860696315765381e-01" nType="0">
            <Node pos="l" depth="3" NCoef="0" IVar="-1" Cut="0.0000000000000000e+00" cType="1" res="-1.1078784242272377e-02" rms="2.9060035943984985e-01" purity="5.8206295967102051e-01" nType="-99"/>
            <Node pos="r" depth="3" NCoef="0" IVar="-1" Cut="0.0000000000000000e+00" cType="1" res="-1.1506974697113037e-03" rms="2.9942750930786133e-01" purity="5.7410669326782227e-01" nType="-99"/>
          </Node>
        </Node>
        <Node pos="r" depth="1" NCoef="0" IVar="8" Cut="6.6230243444442749e-01" cType="1" res="1.1332983151078224e-02" rms="2.8737533092498779e-01" purity="3.0984413623809814e-01" nType="0">
          <Node pos="l" depth="2" NCoef="0" IVar="10" Cut="2.0888628959655762e+00" cType="1" res="-1.4543903525918722e-03" rms="2.8923776745796204e-01" purity="3.4402516484260559e-01" nType="0">
            <Node pos="l" depth="3" NCoef="0" IVar="-1" Cut="0.0000000000000000e+00" cType="1" res="8.2005877047777176e-03" rms="3.1282049417495728e-01" purity="4.3317964673042297e-01" nType="-99"/>
            <Node pos="r" depth="3" NCoef="0" IVar="-1" Cut="0.0000000000000000e+00" cType="1" res="-1.1661536991596222e-02" rms="2.6521179080009460e-01" purity="2.6120916008949280e-01" nType="-99"/>
          </Node>
          <Node pos="r" depth="2" NCoef="0" IVar="-1" Cut="0.0000000000000000e+00" cType="1" res="4.9426354467868805e-02" rms="2.8193244338035583e-01" purity="2.4202890694141388e-01" nType="-99"/>
        </Node>
      </Node>
    </BinaryTree>
    <BinaryTree type="DecisionTree" boostWeight="1.0000000000000000e+00" itree="458">
      <Node pos="s" depth="0" NCoef="0" IVar="11" Cut="5.9044265747070312e-01" cType="1" res="3.0693344306200743e-03" rms="2.8555166721343994e-01" purity="5.0835371017456055e-01" nType="0">
        <Node pos="l" depth="1" NCoef="0" IVar="0" Cut="1.3459270019531250e+03" cType="1" res="4.9782847054302692e-03" rms="2.8480887413024902e-01" purity="4.6646597981452942e-01" nType="0">
          <Node pos="l" depth="2" NCoef="0" IVar="11" Cut="-2.1451926231384277e+00" cType="1" res="-1.1747394455596805e-03" rms="2.7148991823196411e-01" purity="1.4377555251121521e-01" nType="0">
            <Node pos="l" depth="3" NCoef="0" IVar="-1" Cut="0.0000000000000000e+00" cType="1" res="5.2212271839380264e-03" rms="2.5128653645515442e-01" purity="1.0126078128814697e-01" nType="-99"/>
            <Node pos="r" depth="3" NCoef="0" IVar="-1" Cut="0.0000000000000000e+00" cType="1" res="-1.6784682869911194e-02" rms="3.5245102643966675e-01" purity="3.4934708476066589e-01" nType="-99"/>
          </Node>
          <Node pos="r" depth="2" NCoef="0" IVar="5" Cut="8.5532867431640625e+01" cType="1" res="9.4622569158673286e-03" rms="2.9405421018600464e-01" purity="7.0162433385848999e-01" nType="0">
            <Node pos="l" depth="3" NCoef="0" IVar="-1" Cut="0.0000000000000000e+00" cType="1" res="1.4496429823338985e-02" rms="3.4869116544723511e-01" purity="4.7093239426612854e-01" nType="-99"/>
            <Node pos="r" depth="3" NCoef="0" IVar="-1" Cut="0.0000000000000000e+00" cType="1" res="5.9383763000369072e-03" rms="2.5148504972457886e-01" purity="8.5368937253952026e-01" nType="-99"/>
          </Node>
        </Node>
        <Node pos="r" depth="1" NCoef="0" IVar="10" Cut="-1.3471208512783051e-01" cType="1" res="-6.6746119409799576e-03" rms="2.8911721706390381e-01" purity="7.2216320037841797e-01" nType="0">
          <Node pos="l" depth="2" NCoef="0" IVar="-1" Cut="0.0000000000000000e+00" cType="1" res="9.9156424403190613e-03" rms="2.7951979637145996e-01" purity="7.3761647939682007e-01" nType="-99"/>
          <Node pos="r" depth="2" NCoef="0" IVar="9" Cut="6.6643434762954712e-01" cType="1" res="-1.8162216991186142e-02" rms="2.9562616348266602e-01" purity="7.1051651239395142e-01" nType="0">
            <Node pos="l" depth="3" NCoef="0" IVar="-1" Cut="0.0000000000000000e+00" cType="1" res="-4.4740475714206696e-03" rms="2.8021383285522461e-01" purity="7.6521378755569458e-01" nType="-99"/>
            <Node pos="r" depth="3" NCoef="0" IVar="-1" Cut="0.0000000000000000e+00" cType="1" res="-5.3666882216930389e-02" rms="3.2636353373527527e-01" purity="5.8242237567901611e-01" nType="-99"/>
          </Node>
        </Node>
      </Node>
    </BinaryTree>
    <BinaryTree type="DecisionTree" boostWeight="1.0000000000000000e+00" itree="459">
      <Node pos="s" depth="0" NCoef="0" IVar="4" Cut="1.4077770996093750e+02" cType="1" res="1.5037240227684379e-03" rms="2.8662616014480591e-01" purity="5.0441312789916992e-01" nType="0">
        <Node pos="l" depth="1" NCoef="0" IVar="9" Cut="-1.3297341763973236e-01" cType="1" res="-3.4421582240611315e-03" rms="2.8158068656921387e-01" purity="2.1108999848365784e-01" nType="0">
          <Node pos="l" depth="2" NCoef="0" IVar="5" Cut="6.2671634674072266e+01" cType="1" res="-1.0053707286715508e-02" rms="2.7664825320243835e-01" purity="2.0036457479000092e-01" nType="0">
            <Node pos="l" depth="3" NCoef="0" IVar="-1" Cut="0.0000000000000000e+00" cType="1" res="4.5586451888084412e-03" rms="2.3456946015357971e-01" purity="8.2745462656021118e-02" nType="-99"/>
            <Node pos="r" depth="3" NCoef="0" IVar="-1" Cut="0.0000000000000000e+00" cType="1" res="-2.0304594188928604e-02" rms="3.1011468172073364e-01" purity="3.0924853682518005e-01" nType="-99"/>
          </Node>
          <Node pos="r" depth="2" NCoef="0" IVar="4" Cut="1.0234600067138672e+02" cType="1" res="2.3217780981212854e-03" rms="2.8568649291992188e-01" purity="2.2044038772583008e-01" nType="0">
            <Node pos="l" depth="3" NCoef="0" IVar="-1" Cut="0.0000000000000000e+00" cType="1" res="-1.2551128864288330e-02" rms="2.2165352106094360e-01" purity="7.9452686011791229e-02" nType="-99"/>
            <Node pos="r" depth="3" NCoef="0" IVar="-1" Cut="0.0000000000000000e+00" cType="1" res="9.3631278723478317e-03" rms="3.2896921038627625e-01" purity="3.3641973137855530e-01" nType="-99"/>
          </Node>
        </Node>
        <Node pos="r" depth="1" NCoef="0" IVar="1" Cut="2.0569540560245514e-02" cType="1" res="4.9924389459192753e-03" rms="2.9008167982101440e-01" purity="7.1131670475006104e-01" nType="0">
          <Node pos="l" depth="2" NCoef="0" IVar="1" Cut="9.8149124532938004e-03" cType="1" res="-9.8999813199043274e-03" rms="2.8417468070983887e-01" purity="2.3626276850700378e-01" nType="0">
            <Node pos="l" depth="3" NCoef="0" IVar="-1" Cut="0.0000000000000000e+00" cType="1" res="1.7788035795092583e-02" rms="2.7024450898170471e-01" purity="1.5698625147342682e-01" nType="-99"/>
            <Node pos="r" depth="3" NCoef="0" IVar="-1" Cut="0.0000000000000000e+00" cType="1" res="-2.6648173108696938e-02" rms="2.9319474101066589e-01" purity="2.9670417308807373e-01" nType="-99"/>
          </Node>
          <Node pos="r" depth="2" NCoef="0" IVar="5" Cut="7.0670890808105469e+01" cType="1" res="7.2331824339926243e-03" rms="2.9089409112930298e-01" purity="7.8279423713684082e-01" nType="0">
            <Node pos="l" depth="3" NCoef="0" IVar="-1" Cut="0.0000000000000000e+00" cType="1" res="1.7030976712703705e-02" rms="3.7404263019561768e-01" purity="4.9462038278579712e-01" nType="-99"/>
            <Node pos="r" depth="3" NCoef="0" IVar="-1" Cut="0.0000000000000000e+00" cType="1" res="4.7452496364712715e-03" rms="2.6979526877403259e-01" purity="8.4405702352523804e-01" nType="-99"/>
          </Node>
        </Node>
      </Node>
    </BinaryTree>
    <BinaryTree type="DecisionTree" boostWeight="1.0000000000000000e+00" itree="460">
      <Node pos="s" depth="0" NCoef="0" IVar="9" Cut="9.3331903219223022e-01" cType="1" res="-5.2946390496799722e-05" rms="2.8415858745574951e-01" purity="5.0369256734848022e-01" nType="0">
        <Node pos="l" depth="1" NCoef="0" IVar="7" Cut="-6.5704029798507690e-01" cType="1" res="2.8488733805716038e-03" rms="2.8581345081329346e-01" purity="5.4032158851623535e-01" nType="0">
          <Node pos="l" depth="2" NCoef="0" IVar="1" Cut="5.5415894836187363e-02" cType="1" res="1.0141954757273197e-02" rms="2.8096830844879150e-01" purity="3.7329584360122681e-01" nType="0">
            <Node pos="l" depth="3" NCoef="0" IVar="-1" Cut="0.0000000000000000e+00" cType="1" res="5.3231180645525455e-03" rms="2.6504305005073547e-01" purity="1.9296486675739288e-01" nType="-99"/>
            <Node pos="r" depth="3" NCoef="0" IVar="-1" Cut="0.0000000000000000e+00" cType="1" res="2.3280141875147820e-02" rms="3.0905979871749878e-01" purity="7.2192245721817017e-01" nType="-99"/>
          </Node>
          <Node pos="r" depth="2" NCoef="0" IVar="10" Cut="1.4664818048477173e+00" cType="1" res="7.0650037378072739e-04" rms="2.8718599677085876e-01" purity="5.8938610553741455e-01" nType="0">
            <Node pos="l" depth="3" NCoef="0" IVar="-1" Cut="0.0000000000000000e+00" cType="1" res="2.7098874561488628e-03" rms="2.8599637746810913e-01" purity="6.1098170280456543e-01" nType="-99"/>
            <Node pos="r" depth="3" NCoef="0" IVar="-1" Cut="0.0000000000000000e+00" cType="1" res="-1.4963102526962757e-02" rms="2.9711189866065979e-01" purity="3.9881411194801331e-01" nType="-99"/>
          </Node>
        </Node>
        <Node pos="r" depth="1" NCoef="0" IVar="7" Cut="-8.3325225114822388e-01" cType="1" res="-1.2575717642903328e-02" rms="2.7655464410781860e-01" purity="3.4562042355537415e-01" nType="0">
          <Node pos="l" depth="2" NCoef="0" IVar="-1" Cut="0.0000000000000000e+00" cType="1" res="2.6157639920711517e-02" rms="2.3484648764133453e-01" purity="1.5959714353084564e-01" nType="-99"/>
          <Node pos="r" depth="2" NCoef="0" IVar="9" Cut="1.1110125780105591e+00" cType="1" res="-1.8019642680883408e-02" rms="2.8419405221939087e-01" purity="3.8447692990303040e-01" nType="0">
            <Node pos="l" depth="3" NCoef="0" IVar="-1" Cut="0.0000000000000000e+00" cType="1" res="-3.3196702599525452e-02" rms="3.0295628309249878e-01" purity="5.0251078605651855e-01" nType="-99"/>
            <Node pos="r" depth="3" NCoef="0" IVar="-1" Cut="0.0000000000000000e+00" cType="1" res="-1.4941482804715633e-02" rms="2.7761143445968628e-01" purity="3.4592905640602112e-01" nType="-99"/>
          </Node>
        </Node>
      </Node>
    </BinaryTree>
    <BinaryTree type="DecisionTree" boostWeight="1.0000000000000000e+00" itree="461">
      <Node pos="s" depth="0" NCoef="0" IVar="10" Cut="1.1999788284301758e+00" cType="1" res="-9.7979485872201622e-05" rms="2.8569212555885315e-01" purity="5.0125598907470703e-01" nType="0">
        <Node pos="l" depth="1" NCoef="0" IVar="8" Cut="9.3337887525558472e-01" cType="1" res="-2.1798091474920511e-03" rms="2.8330358862876892e-01" purity="5.2381086349487305e-01" nType="0">
          <Node pos="l" depth="2" NCoef="0" IVar="3" Cut="1.4552398681640625e+02" cType="1" res="-3.0972136300988495e-04" rms="2.8660303354263306e-01" purity="5.6707173585891724e-01" nType="0">
            <Node pos="l" depth="3" NCoef="0" IVar="-1" Cut="0.0000000000000000e+00" cType="1" res="-2.6947511360049248e-02" rms="2.3087444901466370e-01" purity="1.1405996233224869e-01" nType="-99"/>
            <Node pos="r" depth="3" NCoef="0" IVar="-1" Cut="0.0000000000000000e+00" cType="1" res="2.4863295257091522e-03" rms="2.9443517327308655e-01" purity="6.3927847146987915e-01" nType="-99"/>
          </Node>
          <Node pos="r" depth="2" NCoef="0" IVar="5" Cut="7.7887954711914062e+01" cType="1" res="-1.2231539934873581e-02" rms="2.6463943719863892e-01" purity="2.9128330945968628e-01" nType="0">
            <Node pos="l" depth="3" NCoef="0" IVar="-1" Cut="0.0000000000000000e+00" cType="1" res="-3.5579752177000046e-02" rms="2.2790069878101349e-01" purity="8.4475189447402954e-02" nType="-99"/>
            <Node pos="r" depth="3" NCoef="0" IVar="-1" Cut="0.0000000000000000e+00" cType="1" res="2.6719257220975123e-05" rms="3.0864441394805908e-01" purity="5.8253961801528931e-01" nType="-99"/>
          </Node>
        </Node>
        <Node pos="r" depth="1" NCoef="0" IVar="0" Cut="1.6614107666015625e+03" cType="1" res="1.0803284123539925e-02" rms="2.9764932394027710e-01" purity="3.8314989209175110e-01" nType="0">
          <Node pos="l" depth="2" NCoef="0" IVar="4" Cut="1.3656961059570312e+02" cType="1" res="1.8476909026503563e-02" rms="2.9370272159576416e-01" purity="2.5108969211578369e-01" nType="0">
            <Node pos="l" depth="3" NCoef="0" IVar="-1" Cut="0.0000000000000000e+00" cType="1" res="5.5701211094856262e-03" rms="2.5163266062736511e-01" purity="1.3188068568706512e-01" nType="-99"/>
            <Node pos="r" depth="3" NCoef="0" IVar="-1" Cut="0.0000000000000000e+00" cType="1" res="3.4361436963081360e-02" rms="3.4641167521476746e-01" purity="4.3080466985702515e-01" nType="-99"/>
          </Node>
          <Node pos="r" depth="2" NCoef="0" IVar="-1" Cut="0.0000000000000000e+00" cType="1" res="-1.0579822584986687e-02" rms="3.0694392323493958e-01" purity="7.3340201377868652e-01" nType="-99"/>
        </Node>
      </Node>
    </BinaryTree>
    <BinaryTree type="DecisionTree" boostWeight="1.0000000000000000e+00" itree="462">
      <Node pos="s" depth="0" NCoef="0" IVar="1" Cut="1.9493589177727699e-02" cType="1" res="5.1814806647598743e-03" rms="2.8880009055137634e-01" purity="5.0137633085250854e-01" nType="0">
        <Node pos="l" depth="1" NCoef="0" IVar="10" Cut="-1.2002040147781372e+00" cType="1" res="1.3581559062004089e-02" rms="2.3505707085132599e-01" purity="1.2659186124801636e-01" nType="0">
          <Node pos="l" depth="2" NCoef="0" IVar="-1" Cut="0.0000000000000000e+00" cType="1" res="-7.3624262586236000e-03" rms="1.8133494257926941e-01" purity="5.7819437235593796e-02" nType="-99"/>
          <Node pos="r" depth="2" NCoef="0" IVar="8" Cut="1.1998460292816162e+00" cType="1" res="1.7940988764166832e-02" rms="2.4730600416660309e-01" purity="1.4503297209739685e-01" nType="0">
            <Node pos="l" depth="3" NCoef="0" IVar="-1" Cut="0.0000000000000000e+00" cType="1" res="3.5947114229202271e-02" rms="2.6525422930717468e-01" purity="1.7465063929557800e-01" nType="-99"/>
            <Node pos="r" depth="3" NCoef="0" IVar="-1" Cut="0.0000000000000000e+00" cType="1" res="-1.5056332340463996e-03" rms="1.7217434942722321e-01" purity="4.4977124780416489e-02" nType="-99"/>
          </Node>
        </Node>
        <Node pos="r" depth="1" NCoef="0" IVar="9" Cut="-3.9909848570823669e-01" cType="1" res="2.6501060929149389e-03" rms="3.0308741331100464e-01" purity="6.1431813240051270e-01" nType="0">
          <Node pos="l" depth="2" NCoef="0" IVar="4" Cut="1.4347125244140625e+02" cType="1" res="1.0216880589723587e-02" rms="3.1524616479873657e-01" purity="5.7729125022888184e-01" nType="0">
            <Node pos="l" depth="3" NCoef="0" IVar="-1" Cut="0.0000000000000000e+00" cType="1" res="2.0014116540551186e-02" rms="3.3831101655960083e-01" purity="3.2052108645439148e-01" nType="-99"/>
            <Node pos="r" depth="3" NCoef="0" IVar="-1" Cut="0.0000000000000000e+00" cType="1" res="2.9473083559423685e-03" rms="2.9851371049880981e-01" purity="7.4981260299682617e-01" nType="-99"/>
          </Node>
          <Node pos="r" depth="2" NCoef="0" IVar="7" Cut="-2.6409396529197693e-01" cType="1" res="-1.3699711998924613e-03" rms="2.9634630680084229e-01" purity="6.3398981094360352e-01" nType="0">
            <Node pos="l" depth="3" NCoef="0" IVar="-1" Cut="0.0000000000000000e+00" cType="1" res="6.5812799148261547e-03" rms="2.9772174358367920e-01" purity="6.0381740331649780e-01" nType="-99"/>
            <Node pos="r" depth="3" NCoef="0" IVar="-1" Cut="0.0000000000000000e+00" cType="1" res="-5.6977728381752968e-03" rms="2.9556795954704285e-01" purity="6.4948034286499023e-01" nType="-99"/>
          </Node>
        </Node>
      </Node>
    </BinaryTree>
    <BinaryTree type="DecisionTree" boostWeight="1.0000000000000000e+00" itree="463">
      <Node pos="s" depth="0" NCoef="0" IVar="7" Cut="-3.7999176979064941e-01" cType="1" res="-9.3075941549614072e-04" rms="2.8410422801971436e-01" purity="5.0222790241241455e-01" nType="0">
        <Node pos="l" depth="1" NCoef="0" IVar="10" Cut="-1.1993479728698730e+00" cType="1" res="5.5145090445876122e-03" rms="2.7820569276809692e-01" purity="4.2754560708999634e-01" nType="0">
          <Node pos="l" depth="2" NCoef="0" IVar="11" Cut="-2.4482128620147705e+00" cType="1" res="-8.1674773246049881e-03" rms="2.5739350914955139e-01" purity="3.0573135614395142e-01" nType="0">
            <Node pos="l" depth="3" NCoef="0" IVar="-1" Cut="0.0000000000000000e+00" cType="1" res="-3.9404928684234619e-02" rms="2.1840935945510864e-01" purity="1.0442060232162476e-01" nType="-99"/>
            <Node pos="r" depth="3" NCoef="0" IVar="-1" Cut="0.0000000000000000e+00" cType="1" res="1.5557187609374523e-02" rms="3.0666258931159973e-01" purity="6.1709159612655640e-01" nType="-99"/>
          </Node>
          <Node pos="r" depth="2" NCoef="0" IVar="8" Cut="-3.9966997504234314e-01" cType="1" res="8.9747672900557518e-03" rms="2.8312230110168457e-01" purity="4.5835316181182861e-01" nType="0">
            <Node pos="l" depth="3" NCoef="0" IVar="-1" Cut="0.0000000000000000e+00" cType="1" res="-4.7121939132921398e-04" rms="2.7526000142097473e-01" purity="4.1822111606597900e-01" nType="-99"/>
            <Node pos="r" depth="3" NCoef="0" IVar="-1" Cut="0.0000000000000000e+00" cType="1" res="1.7650339752435684e-02" rms="2.8757140040397644e-01" purity="4.8232573270797729e-01" nType="-99"/>
          </Node>
        </Node>
        <Node pos="r" depth="1" NCoef="0" IVar="8" Cut="6.6709434986114502e-01" cType="1" res="-4.1259238496422768e-03" rms="2.8692972660064697e-01" purity="5.3925079107284546e-01" nType="0">
          <Node pos="l" depth="2" NCoef="0" IVar="1" Cut="8.4514655172824860e-02" cType="1" res="-4.5739635243080556e-04" rms="2.8819936513900757e-01" purity="5.8328086137771606e-01" nType="0">
            <Node pos="l" depth="3" NCoef="0" IVar="-1" Cut="0.0000000000000000e+00" cType="1" res="-4.6158516779541969e-03" rms="3.0435183644294739e-01" purity="3.8847574591636658e-01" nType="-99"/>
            <Node pos="r" depth="3" NCoef="0" IVar="-1" Cut="0.0000000000000000e+00" cType="1" res="6.3067050650715828e-03" rms="2.6568514108657837e-01" purity="8.3617728948593140e-01" nType="-99"/>
          </Node>
          <Node pos="r" depth="2" NCoef="0" IVar="0" Cut="1.7655238037109375e+03" cType="1" res="-1.5044643543660641e-02" rms="2.8283575177192688e-01" purity="4.0820318460464478e-01" nType="0">
            <Node pos="l" depth="3" NCoef="0" IVar="-1" Cut="0.0000000000000000e+00" cType="1" res="-2.6460364460945129e-02" rms="2.9086679220199585e-01" purity="2.5405746698379517e-01" nType="-99"/>
            <Node pos="r" depth="3" NCoef="0" IVar="-1" Cut="0.0000000000000000e+00" cType="1" res="1.1424335651099682e-02" rms="2.5759941339492798e-01" purity="8.3983224630355835e-01" nType="-99"/>
          </Node>
        </Node>
      </Node>
    </BinaryTree>
    <BinaryTree type="DecisionTree" boostWeight="1.0000000000000000e+00" itree="464">
      <Node pos="s" depth="0" NCoef="0" IVar="1" Cut="1.0601570457220078e-01" cType="1" res="-1.0593065526336432e-03" rms="2.8859758377075195e-01" purity="4.9975466728210449e-01" nType="0">
        <Node pos="l" depth="1" NCoef="0" IVar="9" Cut="3.9986491203308105e-01" cType="1" res="1.7864030087366700e-03" rms="2.9578462243080139e-01" purity="3.7664756178855896e-01" nType="0">
          <Node pos="l" depth="2" NCoef="0" IVar="1" Cut="4.0387768298387527e-02" cType="1" res="-2.4894170928746462e-03" rms="2.9688590764999390e-01" purity="3.9352205395698547e-01" nType="0">
            <Node pos="l" depth="3" NCoef="0" IVar="-1" Cut="0.0000000000000000e+00" cType="1" res="2.2568290587514639e-03" rms="2.6820662617683411e-01" purity="2.2080385684967041e-01" nType="-99"/>
            <Node pos="r" depth="3" NCoef="0" IVar="-1" Cut="0.0000000000000000e+00" cType="1" res="-6.8854191340506077e-03" rms="3.2644960284233093e-01" purity="5.9037584066390991e-01" nType="-99"/>
          </Node>
          <Node pos="r" depth="2" NCoef="0" IVar="9" Cut="1.5426610708236694e+00" cType="1" res="9.0883579105138779e-03" rms="2.9375049471855164e-01" purity="3.4783032536506653e-01" nType="0">
            <Node pos="l" depth="3" NCoef="0" IVar="-1" Cut="0.0000000000000000e+00" cType="1" res="1.5487228520214558e-02" rms="3.0953308939933777e-01" purity="4.1227024793624878e-01" nType="-99"/>
            <Node pos="r" depth="3" NCoef="0" IVar="-1" Cut="0.0000000000000000e+00" cType="1" res="-1.0031273588538170e-02" rms="2.4380327761173248e-01" purity="1.6837862133979797e-01" nType="-99"/>
          </Node>
        </Node>
        <Node pos="r" depth="1" NCoef="0" IVar="0" Cut="1.3400659179687500e+03" cType="1" res="-8.7352730333805084e-03" rms="2.6810234785079956e-01" purity="8.3182173967361450e-01" nType="0">
          <Node pos="l" depth="2" NCoef="0" IVar="-1" Cut="0.0000000000000000e+00" cType="1" res="-1.7764834687113762e-02" rms="3.9815339446067810e-01" purity="4.4346061348915100e-01" nType="-99"/>
          <Node pos="r" depth="2" NCoef="0" IVar="10" Cut="-3.9673441648483276e-01" cType="1" res="-3.7889874074608088e-03" rms="2.2477646172046661e-01" purity="9.2697703838348389e-01" nType="0">
            <Node pos="l" depth="3" NCoef="0" IVar="-1" Cut="0.0000000000000000e+00" cType="1" res="-2.1264003589749336e-02" rms="2.3192940652370453e-01" purity="9.1762268543243408e-01" nType="-99"/>
            <Node pos="r" depth="3" NCoef="0" IVar="-1" Cut="0.0000000000000000e+00" cType="1" res="-2.8993122396059334e-04" rms="2.2058464586734772e-01" purity="9.3221652507781982e-01" nType="-99"/>
          </Node>
        </Node>
      </Node>
    </BinaryTree>
    <BinaryTree type="DecisionTree" boostWeight="1.0000000000000000e+00" itree="465">
      <Node pos="s" depth="0" NCoef="0" IVar="11" Cut="1.6949479579925537e+00" cType="1" res="1.9657153170555830e-03" rms="2.9351264238357544e-01" purity="5.0180315971374512e-01" nType="0">
        <Node pos="l" depth="1" NCoef="0" IVar="1" Cut="4.2257241904735565e-02" cType="1" res="1.0121215600520372e-03" rms="2.9120931029319763e-01" purity="4.9694165587425232e-01" nType="0">
          <Node pos="l" depth="2" NCoef="0" IVar="1" Cut="3.8231000304222107e-02" cType="1" res="4.7473409213125706e-03" rms="2.7488809823989868e-01" purity="2.0863549411296844e-01" nType="0">
            <Node pos="l" depth="3" NCoef="0" IVar="-1" Cut="0.0000000000000000e+00" cType="1" res="9.4191143289208412e-03" rms="2.7071860432624817e-01" purity="1.9668371975421906e-01" nType="-99"/>
            <Node pos="r" depth="3" NCoef="0" IVar="-1" Cut="0.0000000000000000e+00" cType="1" res="-2.1503062918782234e-02" rms="3.2546398043632507e-01" purity="3.7255355715751648e-01" nType="-99"/>
          </Node>
          <Node pos="r" depth="2" NCoef="0" IVar="9" Cut="9.3208032846450806e-01" cType="1" res="-1.6101909568533301e-03" rms="3.0211374163627625e-01" purity="6.9934713840484619e-01" nType="0">
            <Node pos="l" depth="3" NCoef="0" IVar="-1" Cut="0.0000000000000000e+00" cType="1" res="-5.7511958293616772e-03" rms="2.9623359441757202e-01" purity="7.2144889831542969e-01" nType="-99"/>
            <Node pos="r" depth="3" NCoef="0" IVar="-1" Cut="0.0000000000000000e+00" cType="1" res="1.6130240634083748e-02" rms="3.3202973008155823e-01" purity="5.7762169837951660e-01" nType="-99"/>
          </Node>
        </Node>
        <Node pos="r" depth="1" NCoef="0" IVar="-1" Cut="0.0000000000000000e+00" cType="1" res="2.4038109928369522e-02" rms="3.4636303782463074e-01" purity="6.2610179185867310e-01" nType="-99"/>
      </Node>
    </BinaryTree>
    <BinaryTree type="DecisionTree" boostWeight="1.0000000000000000e+00" itree="466">
      <Node pos="s" depth="0" NCoef="0" IVar="7" Cut="6.7312788963317871e-01" cType="1" res="-2.2083723451942205e-03" rms="2.8392192721366882e-01" purity="4.9941202998161316e-01" nType="0">
        <Node pos="l" depth="1" NCoef="0" IVar="10" Cut="1.4664050340652466e+00" cType="1" res="-4.3204259127378464e-03" rms="2.8723916411399841e-01" purity="5.4704678058624268e-01" nType="0">
          <Node pos="l" depth="2" NCoef="0" IVar="10" Cut="8.5688787698745728e-01" cType="1" res="-2.4234165903180838e-03" rms="2.8655934333801270e-01" purity="5.6720018386840820e-01" nType="0">
            <Node pos="l" depth="3" NCoef="0" IVar="-1" Cut="0.0000000000000000e+00" cType="1" res="-6.2945829704403877e-03" rms="2.8366312384605408e-01" purity="5.6348478794097900e-01" nType="-99"/>
            <Node pos="r" depth="3" NCoef="0" IVar="-1" Cut="0.0000000000000000e+00" cType="1" res="1.5499891713261604e-02" rms="3.0305519700050354e-01" purity="5.8986741304397583e-01" nType="-99"/>
          </Node>
          <Node pos="r" depth="2" NCoef="0" IVar="10" Cut="1.8473423719406128e+00" cType="1" res="-2.0837008953094482e-02" rms="2.9257223010063171e-01" purity="3.7157779932022095e-01" nType="0">
            <Node pos="l" depth="3" NCoef="0" IVar="-1" Cut="0.0000000000000000e+00" cType="1" res="-3.7343315780162811e-02" rms="2.9026049375534058e-01" purity="4.5080286264419556e-01" nType="-99"/>
            <Node pos="r" depth="3" NCoef="0" IVar="-1" Cut="0.0000000000000000e+00" cType="1" res="-1.2489714659750462e-02" rms="2.9393789172172546e-01" purity="3.1109467148780823e-01" nType="-99"/>
          </Node>
        </Node>
        <Node pos="r" depth="1" NCoef="0" IVar="11" Cut="-7.9069888591766357e-01" cType="1" res="5.2385567687451839e-03" rms="2.7177196741104126e-01" purity="3.3145585656166077e-01" nType="0">
          <Node pos="l" depth="2" NCoef="0" IVar="8" Cut="9.3352192640304565e-01" cType="1" res="-1.4964257134124637e-03" rms="2.5491118431091309e-01" purity="1.7671395838260651e-01" nType="0">
            <Node pos="l" depth="3" NCoef="0" IVar="-1" Cut="0.0000000000000000e+00" cType="1" res="-1.0766984894871712e-02" rms="2.5451996922492981e-01" purity="1.9221128523349762e-01" nType="-99"/>
            <Node pos="r" depth="3" NCoef="0" IVar="-1" Cut="0.0000000000000000e+00" cType="1" res="2.6336133480072021e-02" rms="2.5536048412322998e-01" purity="1.2987810373306274e-01" nType="-99"/>
          </Node>
          <Node pos="r" depth="2" NCoef="0" IVar="2" Cut="3.8957916259765625e+02" cType="1" res="1.7953036352992058e-02" rms="3.0062794685363770e-01" purity="6.2358182668685913e-01" nType="0">
            <Node pos="l" depth="3" NCoef="0" IVar="-1" Cut="0.0000000000000000e+00" cType="1" res="2.8923707082867622e-02" rms="3.0365395545959473e-01" purity="6.0980504751205444e-01" nType="-99"/>
            <Node pos="r" depth="3" NCoef="0" IVar="-1" Cut="0.0000000000000000e+00" cType="1" res="1.1129940394312143e-03" rms="2.9464784264564514e-01" purity="6.4697229862213135e-01" nType="-99"/>
          </Node>
        </Node>
      </Node>
    </BinaryTree>
    <BinaryTree type="DecisionTree" boostWeight="1.0000000000000000e+00" itree="467">
      <Node pos="s" depth="0" NCoef="0" IVar="1" Cut="4.2377594858407974e-02" cType="1" res="-5.5510672973468900e-04" rms="2.8643521666526794e-01" purity="4.9899169802665710e-01" nType="0">
        <Node pos="l" depth="1" NCoef="0" IVar="3" Cut="3.8546603393554688e+02" cType="1" res="-6.4020729623734951e-03" rms="2.6557379961013794e-01" purity="2.0071484148502350e-01" nType="0">
          <Node pos="l" depth="2" NCoef="0" IVar="9" Cut="-4.0003046393394470e-01" cType="1" res="-4.3411189690232277e-03" rms="2.6089903712272644e-01" purity="1.7891378700733185e-01" nType="0">
            <Node pos="l" depth="3" NCoef="0" IVar="-1" Cut="0.0000000000000000e+00" cType="1" res="-1.9620988517999649e-02" rms="2.4392822384834290e-01" purity="1.5000288188457489e-01" nType="-99"/>
            <Node pos="r" depth="3" NCoef="0" IVar="-1" Cut="0.0000000000000000e+00" cType="1" res="1.5635961899533868e-03" rms="2.7090284228324890e-01" purity="1.9713075459003448e-01" nType="-99"/>
          </Node>
          <Node pos="r" depth="2" NCoef="0" IVar="-1" Cut="0.0000000000000000e+00" cType="1" res="-2.9789820313453674e-02" rms="3.1787976622581482e-01" purity="4.7759506106376648e-01" nType="-99"/>
        </Node>
        <Node pos="r" depth="1" NCoef="0" IVar="1" Cut="6.1545677483081818e-02" cType="1" res="3.5450747236609459e-03" rms="3.0013281106948853e-01" purity="7.0815819501876831e-01" nType="0">
          <Node pos="l" depth="2" NCoef="0" IVar="10" Cut="-1.3364054262638092e-01" cType="1" res="1.5722259879112244e-02" rms="3.3605986833572388e-01" purity="5.0045633316040039e-01" nType="0">
            <Node pos="l" depth="3" NCoef="0" IVar="-1" Cut="0.0000000000000000e+00" cType="1" res="2.7019394561648369e-02" rms="3.3980321884155273e-01" purity="5.1036304235458374e-01" nType="-99"/>
            <Node pos="r" depth="3" NCoef="0" IVar="-1" Cut="0.0000000000000000e+00" cType="1" res="2.8880243189632893e-03" rms="3.3225235342979431e-01" purity="4.9183675646781921e-01" nType="-99"/>
          </Node>
          <Node pos="r" depth="2" NCoef="0" IVar="11" Cut="-1.3430292606353760e+00" cType="1" res="3.5090453457087278e-04" rms="2.8988820314407349e-01" purity="7.6264005899429321e-01" nType="0">
            <Node pos="l" depth="3" NCoef="0" IVar="-1" Cut="0.0000000000000000e+00" cType="1" res="6.8662734702229500e-03" rms="3.4817147254943848e-01" purity="5.4696780443191528e-01" nType="-99"/>
            <Node pos="r" depth="3" NCoef="0" IVar="-1" Cut="0.0000000000000000e+00" cType="1" res="-6.9041433744132519e-03" rms="2.4932627379894257e-01" purity="8.8914233446121216e-01" nType="-99"/>
          </Node>
        </Node>
      </Node>
    </BinaryTree>
    <BinaryTree type="DecisionTree" boostWeight="1.0000000000000000e+00" itree="468">
      <Node pos="s" depth="0" NCoef="0" IVar="1" Cut="1.0594347119331360e-01" cType="1" res="6.0771766584366560e-04" rms="2.8706452250480652e-01" purity="5.0175535678863525e-01" nType="0">
        <Node pos="l" depth="1" NCoef="0" IVar="10" Cut="-1.2000666856765747e+00" cType="1" res="-2.5883985217660666e-03" rms="2.9270702600479126e-01" purity="3.7212905287742615e-01" nType="0">
          <Node pos="l" depth="2" NCoef="0" IVar="4" Cut="1.9401522827148438e+02" cType="1" res="8.0268615856766701e-03" rms="2.8440642356872559e-01" purity="2.8176888823509216e-01" nType="0">
            <Node pos="l" depth="3" NCoef="0" IVar="-1" Cut="0.0000000000000000e+00" cType="1" res="-1.0271139035467058e-04" rms="2.7086269855499268e-01" purity="1.9291850924491882e-01" nType="-99"/>
            <Node pos="r" depth="3" NCoef="0" IVar="-1" Cut="0.0000000000000000e+00" cType="1" res="3.6406420171260834e-02" rms="3.3114838600158691e-01" purity="6.3722395896911621e-01" nType="-99"/>
          </Node>
          <Node pos="r" depth="2" NCoef="0" IVar="7" Cut="6.7294001579284668e-01" cType="1" res="-4.9915290437638760e-03" rms="2.9450055956840515e-01" purity="3.9258524775505066e-01" nType="0">
            <Node pos="l" depth="3" NCoef="0" IVar="-1" Cut="0.0000000000000000e+00" cType="1" res="-9.3213729560375214e-03" rms="3.0047541856765747e-01" purity="4.3364033102989197e-01" nType="-99"/>
            <Node pos="r" depth="3" NCoef="0" IVar="-1" Cut="0.0000000000000000e+00" cType="1" res="6.7583397030830383e-03" rms="2.7730068564414978e-01" purity="2.8066825866699219e-01" nType="-99"/>
          </Node>
        </Node>
        <Node pos="r" depth="1" NCoef="0" IVar="6" Cut="6.2487606048583984e+01" cType="1" res="9.1008758172392845e-03" rms="2.7131837606430054e-01" purity="8.4621602296829224e-01" nType="0">
          <Node pos="l" depth="2" NCoef="0" IVar="1" Cut="1.5436542034149170e-01" cType="1" res="1.9224695861339569e-02" rms="3.6979404091835022e-01" purity="6.6462439298629761e-01" nType="0">
            <Node pos="l" depth="3" NCoef="0" IVar="-1" Cut="0.0000000000000000e+00" cType="1" res="2.5618892163038254e-02" rms="3.8141578435897827e-01" purity="6.1181217432022095e-01" nType="-99"/>
            <Node pos="r" depth="3" NCoef="0" IVar="-1" Cut="0.0000000000000000e+00" cType="1" res="-1.1277807643637061e-03" rms="3.5391002893447876e-01" purity="7.2948777675628662e-01" nType="-99"/>
          </Node>
          <Node pos="r" depth="2" NCoef="0" IVar="-1" Cut="0.0000000000000000e+00" cType="1" res="8.0242529511451721e-03" rms="1.8994320929050446e-01" purity="9.5389974117279053e-01" nType="-99"/>
        </Node>
      </Node>
    </BinaryTree>
    <BinaryTree type="DecisionTree" boostWeight="1.0000000000000000e+00" itree="469">
      <Node pos="s" depth="0" NCoef="0" IVar="1" Cut="1.5328793227672577e-01" cType="1" res="2.1450964268296957e-03" rms="2.8740966320037842e-01" purity="5.0468713045120239e-01" nType="0">
        <Node pos="l" depth="1" NCoef="0" IVar="1" Cut="2.1914064884185791e-02" cType="1" res="4.1902549564838409e-03" rms="2.9437676072120667e-01" purity="4.4144102931022644e-01" nType="0">
          <Node pos="l" depth="2" NCoef="0" IVar="11" Cut="3.8066864013671875e-02" cType="1" res="-3.0985234770923853e-03" rms="2.2839350998401642e-01" purity="1.1934106051921844e-01" nType="0">
            <Node pos="l" depth="3" NCoef="0" IVar="-1" Cut="0.0000000000000000e+00" cType="1" res="-1.8927797209471464e-03" rms="2.1967031061649323e-01" purity="9.9123544991016388e-02" nType="-99"/>
            <Node pos="r" depth="3" NCoef="0" IVar="-1" Cut="0.0000000000000000e+00" cType="1" res="-1.8856264650821686e-02" rms="2.8111013770103455e-01" purity="2.5961163640022278e-01" nType="-99"/>
          </Node>
          <Node pos="r" depth="2" NCoef="0" IVar="0" Cut="1.3517862548828125e+03" cType="1" res="7.0731206797063351e-03" rms="3.1665670871734619e-01" purity="5.6883835792541504e-01" nType="0">
            <Node pos="l" depth="3" NCoef="0" IVar="-1" Cut="0.0000000000000000e+00" cType="1" res="1.4238056726753712e-02" rms="3.2972484827041626e-01" purity="2.1518719196319580e-01" nType="-99"/>
            <Node pos="r" depth="3" NCoef="0" IVar="-1" Cut="0.0000000000000000e+00" cType="1" res="2.3732588160783052e-03" rms="3.0867367982864380e-01" purity="7.7529060840606689e-01" nType="-99"/>
          </Node>
        </Node>
        <Node pos="r" depth="1" NCoef="0" IVar="-1" Cut="0.0000000000000000e+00" cType="1" res="-1.6907060518860817e-02" rms="2.4183100461959839e-01" purity="8.7840825319290161e-01" nType="-99"/>
      </Node>
    </BinaryTree>
    <BinaryTree type="DecisionTree" boostWeight="1.0000000000000000e+00" itree="470">
      <Node pos="s" depth="0" NCoef="0" IVar="8" Cut="9.3341398239135742e-01" cType="1" res="-9.5174351008608937e-04" rms="2.8707423806190491e-01" purity="5.0501996278762817e-01" nType="0">
        <Node pos="l" depth="1" NCoef="0" IVar="11" Cut="1.6949778795242310e+00" cType="1" res="-2.6631946675479412e-03" rms="2.9000383615493774e-01" purity="5.5046015977859497e-01" nType="0">
          <Node pos="l" depth="2" NCoef="0" IVar="7" Cut="4.1446137428283691e-01" cType="1" res="-1.6362373717129230e-03" rms="2.8872141242027283e-01" purity="5.4670828580856323e-01" nType="0">
            <Node pos="l" depth="3" NCoef="0" IVar="-1" Cut="0.0000000000000000e+00" cType="1" res="1.2970124371349812e-03" rms="2.9151245951652527e-01" purity="5.8860671520233154e-01" nType="-99"/>
            <Node pos="r" depth="3" NCoef="0" IVar="-1" Cut="0.0000000000000000e+00" cType="1" res="-1.0377659462392330e-02" rms="2.8160113096237183e-01" purity="4.4331672787666321e-01" nType="-99"/>
          </Node>
          <Node pos="r" depth="2" NCoef="0" IVar="-1" Cut="0.0000000000000000e+00" cType="1" res="-2.7907961979508400e-02" rms="3.1926941871643066e-01" purity="6.4405113458633423e-01" nType="-99"/>
        </Node>
        <Node pos="r" depth="1" NCoef="0" IVar="4" Cut="1.4344808959960938e+02" cType="1" res="7.1642012335360050e-03" rms="2.7260729670524597e-01" purity="2.8953590989112854e-01" nType="0">
          <Node pos="l" depth="2" NCoef="0" IVar="4" Cut="1.1288475036621094e+02" cType="1" res="-6.2329820357263088e-03" rms="2.3012465238571167e-01" purity="1.0469947010278702e-01" nType="0">
            <Node pos="l" depth="3" NCoef="0" IVar="-1" Cut="0.0000000000000000e+00" cType="1" res="7.9458383843302727e-03" rms="1.9941404461860657e-01" purity="6.3736245036125183e-02" nType="-99"/>
            <Node pos="r" depth="3" NCoef="0" IVar="-1" Cut="0.0000000000000000e+00" cType="1" res="-2.4360865354537964e-02" rms="2.6989459991455078e-01" purity="1.6747707128524780e-01" nType="-99"/>
          </Node>
          <Node pos="r" depth="2" NCoef="0" IVar="8" Cut="1.4666880369186401e+00" cType="1" res="2.3286711424589157e-02" rms="3.1550091505050659e-01" purity="5.1197278499603271e-01" nType="0">
            <Node pos="l" depth="3" NCoef="0" IVar="-1" Cut="0.0000000000000000e+00" cType="1" res="2.9823234304785728e-02" rms="3.2930794358253479e-01" purity="6.3892549276351929e-01" nType="-99"/>
            <Node pos="r" depth="3" NCoef="0" IVar="-1" Cut="0.0000000000000000e+00" cType="1" res="8.1770168617367744e-03" rms="2.8902560472488403e-01" purity="2.8968644142150879e-01" nType="-99"/>
          </Node>
        </Node>
      </Node>
    </BinaryTree>
    <BinaryTree type="DecisionTree" boostWeight="1.0000000000000000e+00" itree="471">
      <Node pos="s" depth="0" NCoef="0" IVar="10" Cut="1.9999774694442749e+00" cType="1" res="1.2944641639478505e-05" rms="2.8328740596771240e-01" purity="4.9995619058609009e-01" nType="0">
        <Node pos="l" depth="1" NCoef="0" IVar="2" Cut="4.4142785644531250e+02" cType="1" res="8.9932151604443789e-04" rms="2.8442984819412231e-01" purity="5.1245009899139404e-01" nType="0">
          <Node pos="l" depth="2" NCoef="0" IVar="11" Cut="-2.1714797019958496e+00" cType="1" res="-1.1130829807370901e-03" rms="2.8126361966133118e-01" purity="4.7496485710144043e-01" nType="0">
            <Node pos="l" depth="3" NCoef="0" IVar="-1" Cut="0.0000000000000000e+00" cType="1" res="-7.0629729889333248e-03" rms="2.8305774927139282e-01" purity="1.9033989310264587e-01" nType="-99"/>
            <Node pos="r" depth="3" NCoef="0" IVar="-1" Cut="0.0000000000000000e+00" cType="1" res="3.8925663102418184e-03" rms="2.7946412563323975e-01" purity="7.4758756160736084e-01" nType="-99"/>
          </Node>
          <Node pos="r" depth="2" NCoef="0" IVar="9" Cut="9.3348860740661621e-01" cType="1" res="5.8800908736884594e-03" rms="2.9205927252769470e-01" purity="6.0522741079330444e-01" nType="0">
            <Node pos="l" depth="3" NCoef="0" IVar="-1" Cut="0.0000000000000000e+00" cType="1" res="1.0732250288128853e-02" rms="2.9114407300949097e-01" purity="6.3641482591629028e-01" nType="-99"/>
            <Node pos="r" depth="3" NCoef="0" IVar="-1" Cut="0.0000000000000000e+00" cType="1" res="-1.2333334423601627e-02" rms="2.9609125852584839e-01" purity="4.4586724042892456e-01" nType="-99"/>
          </Node>
        </Node>
        <Node pos="r" depth="1" NCoef="0" IVar="-1" Cut="0.0000000000000000e+00" cType="1" res="-2.3851290345191956e-02" rms="2.5720626115798950e-01" purity="2.3550824820995331e-01" nType="-99"/>
      </Node>
    </BinaryTree>
    <BinaryTree type="DecisionTree" boostWeight="1.0000000000000000e+00" itree="472">
      <Node pos="s" depth="0" NCoef="0" IVar="11" Cut="5.9044265747070312e-01" cType="1" res="-1.3386056525632739e-03" rms="2.8640422224998474e-01" purity="4.9707654118537903e-01" nType="0">
        <Node pos="l" depth="1" NCoef="0" IVar="4" Cut="1.9297036743164062e+02" cType="1" res="-3.3563962206244469e-03" rms="2.8617241978645325e-01" purity="4.5130774378776550e-01" nType="0">
          <Node pos="l" depth="2" NCoef="0" IVar="5" Cut="5.6533729553222656e+01" cType="1" res="-5.6514604948461056e-03" rms="2.9200050234794617e-01" purity="3.1385865807533264e-01" nType="0">
            <Node pos="l" depth="3" NCoef="0" IVar="-1" Cut="0.0000000000000000e+00" cType="1" res="1.0019247420132160e-02" rms="2.4330735206604004e-01" purity="9.7527578473091125e-02" nType="-99"/>
            <Node pos="r" depth="3" NCoef="0" IVar="-1" Cut="0.0000000000000000e+00" cType="1" res="-9.8842568695545197e-03" rms="3.0598971247673035e-01" purity="3.8373792171478271e-01" nType="-99"/>
          </Node>
          <Node pos="r" depth="2" NCoef="0" IVar="1" Cut="3.8508903235197067e-02" cType="1" res="2.2620940580964088e-03" rms="2.7129510045051575e-01" purity="7.8779351711273193e-01" nType="0">
            <Node pos="l" depth="3" NCoef="0" IVar="-1" Cut="0.0000000000000000e+00" cType="1" res="1.5418140217661858e-02" rms="3.1980350613594055e-01" purity="5.1616179943084717e-01" nType="-99"/>
            <Node pos="r" depth="3" NCoef="0" IVar="-1" Cut="0.0000000000000000e+00" cType="1" res="-3.6879698745906353e-03" rms="2.5406435132026672e-01" purity="8.7265837192535400e-01" nType="-99"/>
          </Node>
        </Node>
        <Node pos="r" depth="1" NCoef="0" IVar="4" Cut="1.6864527893066406e+02" cType="1" res="8.9894700795412064e-03" rms="2.8736603260040283e-01" purity="7.3134446144104004e-01" nType="0">
          <Node pos="l" depth="2" NCoef="0" IVar="9" Cut="1.4014761149883270e-01" cType="1" res="2.1077796816825867e-02" rms="3.2304200530052185e-01" purity="5.8050328493118286e-01" nType="0">
            <Node pos="l" depth="3" NCoef="0" IVar="-1" Cut="0.0000000000000000e+00" cType="1" res="3.7586357444524765e-02" rms="3.1786450743675232e-01" purity="6.1788350343704224e-01" nType="-99"/>
            <Node pos="r" depth="3" NCoef="0" IVar="-1" Cut="0.0000000000000000e+00" cType="1" res="-2.9662814922630787e-03" rms="3.2698529958724976e-01" purity="5.3889179229736328e-01" nType="-99"/>
          </Node>
          <Node pos="r" depth="2" NCoef="0" IVar="10" Cut="1.3162910938262939e-01" cType="1" res="-1.5293265460059047e-03" rms="2.5177770853042603e-01" purity="8.6260068416595459e-01" nType="0">
            <Node pos="l" depth="3" NCoef="0" IVar="-1" Cut="0.0000000000000000e+00" cType="1" res="8.6983786895871162e-03" rms="2.3686403036117554e-01" purity="8.7669259309768677e-01" nType="-99"/>
            <Node pos="r" depth="3" NCoef="0" IVar="-1" Cut="0.0000000000000000e+00" cType="1" res="-1.3398043811321259e-02" rms="2.6739996671676636e-01" purity="8.4669423103332520e-01" nType="-99"/>
          </Node>
        </Node>
      </Node>
    </BinaryTree>
    <BinaryTree type="DecisionTree" boostWeight="1.0000000000000000e+00" itree="473">
      <Node pos="s" depth="0" NCoef="0" IVar="9" Cut="-1.4667901992797852e+00" cType="1" res="-3.3476106182206422e-05" rms="2.8334969282150269e-01" purity="5.0379264354705811e-01" nType="0">
        <Node pos="l" depth="1" NCoef="0" IVar="1" Cut="3.8744963705539703e-02" cType="1" res="-1.1613748036324978e-02" rms="2.6225095987319946e-01" purity="2.2884523868560791e-01" nType="0">
          <Node pos="l" depth="2" NCoef="0" IVar="10" Cut="-3.9999848604202271e-01" cType="1" res="-7.1526090323459357e-05" rms="2.0589317381381989e-01" purity="9.2439435422420502e-02" nType="0">
            <Node pos="l" depth="3" NCoef="0" IVar="-1" Cut="0.0000000000000000e+00" cType="1" res="1.6195623204112053e-02" rms="2.0674048364162445e-01" purity="9.4866521656513214e-02" nType="-99"/>
            <Node pos="r" depth="3" NCoef="0" IVar="-1" Cut="0.0000000000000000e+00" cType="1" res="-1.5857961028814316e-02" rms="2.0475879311561584e-01" purity="9.0001672506332397e-02" nType="-99"/>
          </Node>
          <Node pos="r" depth="2" NCoef="0" IVar="-1" Cut="0.0000000000000000e+00" cType="1" res="-2.4125415831804276e-02" rms="3.2530063390731812e-01" purity="4.2274221777915955e-01" nType="-99"/>
        </Node>
        <Node pos="r" depth="1" NCoef="0" IVar="3" Cut="4.6941860961914062e+02" cType="1" res="1.1224915506318212e-03" rms="2.8534439206123352e-01" purity="5.3123849630355835e-01" nType="0">
          <Node pos="l" depth="2" NCoef="0" IVar="7" Cut="9.4512456655502319e-01" cType="1" res="1.7959777032956481e-03" rms="2.8528967499732971e-01" purity="5.2351081371307373e-01" nType="0">
            <Node pos="l" depth="3" NCoef="0" IVar="-1" Cut="0.0000000000000000e+00" cType="1" res="3.6709485575556755e-03" rms="2.9055225849151611e-01" purity="5.7334953546524048e-01" nType="-99"/>
            <Node pos="r" depth="3" NCoef="0" IVar="-1" Cut="0.0000000000000000e+00" cType="1" res="-9.3270298093557358e-03" rms="2.5236654281616211e-01" purity="2.3360283672809601e-01" nType="-99"/>
          </Node>
          <Node pos="r" depth="2" NCoef="0" IVar="-1" Cut="0.0000000000000000e+00" cType="1" res="-2.2541197016835213e-02" rms="2.8624224662780762e-01" purity="7.5976270437240601e-01" nType="-99"/>
        </Node>
      </Node>
    </BinaryTree>
    <BinaryTree type="DecisionTree" boostWeight="1.0000000000000000e+00" itree="474">
      <Node pos="s" depth="0" NCoef="0" IVar="9" Cut="-1.9999374151229858e+00" cType="1" res="-6.7485251929610968e-04" rms="2.8641819953918457e-01" purity="4.9432134628295898e-01" nType="0">
        <Node pos="l" depth="1" NCoef="0" IVar="-1" Cut="0.0000000000000000e+00" cType="1" res="3.3911351114511490e-02" rms="2.5621432065963745e-01" purity="1.3261404633522034e-01" nType="-99"/>
        <Node pos="r" depth="1" NCoef="0" IVar="9" Cut="-1.3142197132110596e+00" cType="1" res="-1.3679105322808027e-03" rms="2.8738451004028320e-01" purity="5.0687420368194580e-01" nType="0">
          <Node pos="l" depth="2" NCoef="0" IVar="9" Cut="-1.6080975532531738e+00" cType="1" res="-1.2237951159477234e-02" rms="2.9041045904159546e-01" purity="2.9962897300720215e-01" nType="0">
            <Node pos="l" depth="3" NCoef="0" IVar="-1" Cut="0.0000000000000000e+00" cType="1" res="7.9169562086462975e-03" rms="2.9996293783187866e-01" purity="2.5267153978347778e-01" nType="-99"/>
            <Node pos="r" depth="3" NCoef="0" IVar="-1" Cut="0.0000000000000000e+00" cType="1" res="-3.1359747052192688e-02" rms="2.8036606311798096e-01" purity="3.4222051501274109e-01" nType="-99"/>
          </Node>
          <Node pos="r" depth="2" NCoef="0" IVar="11" Cut="1.4188971519470215e+00" cType="1" res="-4.3497406295500696e-04" rms="2.8710415959358215e-01" purity="5.2466136217117310e-01" nType="0">
            <Node pos="l" depth="3" NCoef="0" IVar="-1" Cut="0.0000000000000000e+00" cType="1" res="-1.5292851021513343e-03" rms="2.8614851832389832e-01" purity="5.1321178674697876e-01" nType="-99"/>
            <Node pos="r" depth="3" NCoef="0" IVar="-1" Cut="0.0000000000000000e+00" cType="1" res="1.2126795947551727e-02" rms="3.0041453242301941e-01" purity="6.9134455919265747e-01" nType="-99"/>
          </Node>
        </Node>
      </Node>
    </BinaryTree>
    <BinaryTree type="DecisionTree" boostWeight="1.0000000000000000e+00" itree="475">
      <Node pos="s" depth="0" NCoef="0" IVar="9" Cut="1.4664868116378784e+00" cType="1" res="1.3503299560397863e-03" rms="2.8697556257247925e-01" purity="5.0091010332107544e-01" nType="0">
        <Node pos="l" depth="1" NCoef="0" IVar="5" Cut="7.0670593261718750e+01" cType="1" res="1.8354172061663121e-04" rms="2.8895509243011475e-01" purity="5.2492034435272217e-01" nType="0">
          <Node pos="l" depth="2" NCoef="0" IVar="9" Cut="-9.7120118141174316e-01" cType="1" res="-4.8929457552731037e-03" rms="2.8865507245063782e-01" purity="1.9747696816921234e-01" nType="0">
            <Node pos="l" depth="3" NCoef="0" IVar="-1" Cut="0.0000000000000000e+00" cType="1" res="8.4507968276739120e-03" rms="2.6409897208213806e-01" purity="1.3337826728820801e-01" nType="-99"/>
            <Node pos="r" depth="3" NCoef="0" IVar="-1" Cut="0.0000000000000000e+00" cType="1" res="-9.7654210403561592e-03" rms="2.9696252942085266e-01" purity="2.2071737051010132e-01" nType="-99"/>
          </Node>
          <Node pos="r" depth="2" NCoef="0" IVar="11" Cut="-2.4476242065429688e+00" cType="1" res="3.3647352829575539e-03" rms="2.8909751772880554e-01" purity="7.3011350631713867e-01" nType="0">
            <Node pos="l" depth="3" NCoef="0" IVar="-1" Cut="0.0000000000000000e+00" cType="1" res="1.5345934778451920e-02" rms="3.5590609908103943e-01" purity="4.4737133383750916e-01" nType="-99"/>
            <Node pos="r" depth="3" NCoef="0" IVar="-1" Cut="0.0000000000000000e+00" cType="1" res="-2.6346649974584579e-03" rms="2.6116159558296204e-01" purity="8.3028233051300049e-01" nType="-99"/>
          </Node>
        </Node>
        <Node pos="r" depth="1" NCoef="0" IVar="8" Cut="-3.9779439568519592e-01" cType="1" res="1.3216740451753139e-02" rms="2.6571732759475708e-01" purity="2.5672242045402527e-01" nType="0">
          <Node pos="l" depth="2" NCoef="0" IVar="-1" Cut="0.0000000000000000e+00" cType="1" res="-1.9679581746459007e-02" rms="2.0979836583137512e-01" purity="1.7385706305503845e-01" nType="-99"/>
          <Node pos="r" depth="2" NCoef="0" IVar="7" Cut="2.1560966968536377e-01" cType="1" res="2.5297369807958603e-02" rms="2.8803727030754089e-01" purity="2.9663902521133423e-01" nType="0">
            <Node pos="l" depth="3" NCoef="0" IVar="-1" Cut="0.0000000000000000e+00" cType="1" res="2.7277383487671614e-03" rms="2.7002978324890137e-01" purity="2.6419770717620850e-01" nType="-99"/>
            <Node pos="r" depth="3" NCoef="0" IVar="-1" Cut="0.0000000000000000e+00" cType="1" res="5.3904447704553604e-02" rms="3.0196830630302429e-01" purity="3.2619374990463257e-01" nType="-99"/>
          </Node>
        </Node>
      </Node>
    </BinaryTree>
    <BinaryTree type="DecisionTree" boostWeight="1.0000000000000000e+00" itree="476">
      <Node pos="s" depth="0" NCoef="0" IVar="10" Cut="-1.2000051736831665e+00" cType="1" res="-1.6638200031593442e-03" rms="2.8478172421455383e-01" purity="4.9680343270301819e-01" nType="0">
        <Node pos="l" depth="1" NCoef="0" IVar="7" Cut="-3.8070559501647949e-01" cType="1" res="-1.0937500745058060e-02" rms="2.7584674954414368e-01" purity="3.5959926247596741e-01" nType="0">
          <Node pos="l" depth="2" NCoef="0" IVar="8" Cut="1.3467909395694733e-01" cType="1" res="-2.1984359249472618e-02" rms="2.6612117886543274e-01" purity="2.8188827633857727e-01" nType="0">
            <Node pos="l" depth="3" NCoef="0" IVar="-1" Cut="0.0000000000000000e+00" cType="1" res="-3.7717279046773911e-02" rms="2.6501327753067017e-01" purity="3.1813025474548340e-01" nType="-99"/>
            <Node pos="r" depth="3" NCoef="0" IVar="-1" Cut="0.0000000000000000e+00" cType="1" res="-1.4358722604811192e-02" rms="2.6757264137268066e-01" purity="2.2129829227924347e-01" nType="-99"/>
          </Node>
          <Node pos="r" depth="2" NCoef="0" IVar="7" Cut="3.7619918584823608e-01" cType="1" res="-3.7980664055794477e-03" rms="2.8172346949577332e-01" purity="4.0982279181480408e-01" nType="0">
            <Node pos="l" depth="3" NCoef="0" IVar="-1" Cut="0.0000000000000000e+00" cType="1" res="6.9196457043290138e-03" rms="3.0373334884643555e-01" purity="5.5917179584503174e-01" nType="-99"/>
            <Node pos="r" depth="3" NCoef="0" IVar="-1" Cut="0.0000000000000000e+00" cType="1" res="-1.8496757373213768e-02" rms="2.5788927078247070e-01" purity="2.6319685578346252e-01" nType="-99"/>
          </Node>
        </Node>
        <Node pos="r" depth="1" NCoef="0" IVar="8" Cut="-1.3320507109165192e-01" cType="1" res="2.2764097957406193e-04" rms="2.8653305768966675e-01" purity="5.2478754520416260e-01" nType="0">
          <Node pos="l" depth="2" NCoef="0" IVar="9" Cut="-1.1997988224029541e+00" cType="1" res="5.7373782619833946e-03" rms="2.8774151206016541e-01" purity="5.1439309120178223e-01" nType="0">
            <Node pos="l" depth="3" NCoef="0" IVar="-1" Cut="0.0000000000000000e+00" cType="1" res="2.7531038969755173e-02" rms="3.0286493897438049e-01" purity="3.2755163311958313e-01" nType="-99"/>
            <Node pos="r" depth="3" NCoef="0" IVar="-1" Cut="0.0000000000000000e+00" cType="1" res="3.3840390387922525e-03" rms="2.8496849536895752e-01" purity="5.4635471105575562e-01" nType="-99"/>
          </Node>
          <Node pos="r" depth="2" NCoef="0" IVar="3" Cut="1.4552398681640625e+02" cType="1" res="-4.0446077473461628e-03" rms="2.8551930189132690e-01" purity="5.3284740447998047e-01" nType="0">
            <Node pos="l" depth="3" NCoef="0" IVar="-1" Cut="0.0000000000000000e+00" cType="1" res="1.5095707960426807e-02" rms="2.4247962236404419e-01" purity="1.3442771136760712e-01" nType="-99"/>
            <Node pos="r" depth="3" NCoef="0" IVar="-1" Cut="0.0000000000000000e+00" cType="1" res="-7.1878754533827305e-03" rms="2.9253894090652466e-01" purity="6.0459452867507935e-01" nType="-99"/>
          </Node>
        </Node>
      </Node>
    </BinaryTree>
    <BinaryTree type="DecisionTree" boostWeight="1.0000000000000000e+00" itree="477">
      <Node pos="s" depth="0" NCoef="0" IVar="2" Cut="4.7162091064453125e+02" cType="1" res="-1.1938621755689383e-03" rms="2.8547409176826477e-01" purity="4.9614021182060242e-01" nType="0">
        <Node pos="l" depth="1" NCoef="0" IVar="8" Cut="9.3341106176376343e-01" cType="1" res="1.1405356926843524e-03" rms="2.8318575024604797e-01" purity="4.7086620330810547e-01" nType="0">
          <Node pos="l" depth="2" NCoef="0" IVar="0" Cut="1.1745823974609375e+03" cType="1" res="3.7311599589884281e-03" rms="2.8679886460304260e-01" purity="5.1463520526885986e-01" nType="0">
            <Node pos="l" depth="3" NCoef="0" IVar="-1" Cut="0.0000000000000000e+00" cType="1" res="-5.8253891766071320e-03" rms="2.4602495133876801e-01" purity="8.8164567947387695e-02" nType="-99"/>
            <Node pos="r" depth="3" NCoef="0" IVar="-1" Cut="0.0000000000000000e+00" cType="1" res="7.2813448496162891e-03" rms="3.0161246657371521e-01" purity="6.8635022640228271e-01" nType="-99"/>
          </Node>
          <Node pos="r" depth="2" NCoef="0" IVar="0" Cut="1.1510948486328125e+03" cType="1" res="-1.1291806586086750e-02" rms="2.6480996608734131e-01" purity="2.6081985235214233e-01" nType="0">
            <Node pos="l" depth="3" NCoef="0" IVar="-1" Cut="0.0000000000000000e+00" cType="1" res="1.7056830227375031e-02" rms="1.9580641388893127e-01" purity="5.0012461841106415e-02" nType="-99"/>
            <Node pos="r" depth="3" NCoef="0" IVar="-1" Cut="0.0000000000000000e+00" cType="1" res="-2.2709602490067482e-02" rms="3.0010116100311279e-01" purity="3.9511373639106750e-01" nType="-99"/>
          </Node>
        </Node>
        <Node pos="r" depth="1" NCoef="0" IVar="8" Cut="9.3253135681152344e-01" cType="1" res="-8.8629601523280144e-03" rms="2.9273501038551331e-01" purity="5.7917171716690063e-01" nType="0">
          <Node pos="l" depth="2" NCoef="0" IVar="3" Cut="4.4567886352539062e+02" cType="1" res="-1.1687035672366619e-02" rms="2.9642957448959351e-01" purity="6.2020421028137207e-01" nType="0">
            <Node pos="l" depth="3" NCoef="0" IVar="-1" Cut="0.0000000000000000e+00" cType="1" res="-1.6593815758824348e-02" rms="3.0109530687332153e-01" purity="5.7876014709472656e-01" nType="-99"/>
            <Node pos="r" depth="3" NCoef="0" IVar="-1" Cut="0.0000000000000000e+00" cType="1" res="2.3673437535762787e-03" rms="2.7620407938957214e-01" purity="7.8891587257385254e-01" nType="-99"/>
          </Node>
          <Node pos="r" depth="2" NCoef="0" IVar="-1" Cut="0.0000000000000000e+00" cType="1" res="8.1861168146133423e-03" rms="2.7100262045860291e-01" purity="3.5359454154968262e-01" nType="-99"/>
        </Node>
      </Node>
    </BinaryTree>
    <BinaryTree type="DecisionTree" boostWeight="1.0000000000000000e+00" itree="478">
      <Node pos="s" depth="0" NCoef="0" IVar="11" Cut="-2.7238190174102783e+00" cType="1" res="-8.3941813500132412e-06" rms="2.8719183802604675e-01" purity="4.9826437234878540e-01" nType="0">
        <Node pos="l" depth="1" NCoef="0" IVar="5" Cut="1.1201181793212891e+02" cType="1" res="-4.1379048489034176e-03" rms="2.9287976026535034e-01" purity="2.2335059940814972e-01" nType="0">
          <Node pos="l" depth="2" NCoef="0" IVar="1" Cut="8.2136109471321106e-02" cType="1" res="-2.1211791317909956e-03" rms="2.9030483961105347e-01" purity="1.9898815453052521e-01" nType="0">
            <Node pos="l" depth="3" NCoef="0" IVar="-1" Cut="0.0000000000000000e+00" cType="1" res="-7.5540984980762005e-03" rms="2.6089277863502502e-01" purity="1.3587331771850586e-01" nType="-99"/>
            <Node pos="r" depth="3" NCoef="0" IVar="-1" Cut="0.0000000000000000e+00" cType="1" res="7.5167180038988590e-03" rms="3.9136195182800293e-01" purity="4.6802127361297607e-01" nType="-99"/>
          </Node>
          <Node pos="r" depth="2" NCoef="0" IVar="-1" Cut="0.0000000000000000e+00" cType="1" res="-3.1190447509288788e-02" rms="3.2992342114448547e-01" purity="6.1583411693572998e-01" nType="-99"/>
        </Node>
        <Node pos="r" depth="1" NCoef="0" IVar="11" Cut="-1.6716849803924561e+00" cType="1" res="3.7526017986238003e-03" rms="2.8185904026031494e-01" purity="7.4864506721496582e-01" nType="0">
          <Node pos="l" depth="2" NCoef="0" IVar="-1" Cut="0.0000000000000000e+00" cType="1" res="2.9743110761046410e-02" rms="2.9977011680603027e-01" purity="6.5613961219787598e-01" nType="-99"/>
          <Node pos="r" depth="2" NCoef="0" IVar="10" Cut="-1.1992447376251221e+00" cType="1" res="1.6472274437546730e-03" rms="2.8024142980575562e-01" purity="7.5619745254516602e-01" nType="0">
            <Node pos="l" depth="3" NCoef="0" IVar="-1" Cut="0.0000000000000000e+00" cType="1" res="1.2785681523382664e-02" rms="2.9245871305465698e-01" purity="6.6520607471466064e-01" nType="-99"/>
            <Node pos="r" depth="3" NCoef="0" IVar="-1" Cut="0.0000000000000000e+00" cType="1" res="-2.7015374507755041e-04" rms="2.7803954482078552e-01" purity="7.7187716960906982e-01" nType="-99"/>
          </Node>
        </Node>
      </Node>
    </BinaryTree>
    <BinaryTree type="DecisionTree" boostWeight="1.0000000000000000e+00" itree="479">
      <Node pos="s" depth="0" NCoef="0" IVar="10" Cut="-1.4666730165481567e+00" cType="1" res="1.3617832446470857e-03" rms="2.9097118973731995e-01" purity="5.0179630517959595e-01" nType="0">
        <Node pos="l" depth="1" NCoef="0" IVar="9" Cut="-9.3340802192687988e-01" cType="1" res="1.5939533710479736e-02" rms="2.9857543110847473e-01" purity="3.6389556527137756e-01" nType="0">
          <Node pos="l" depth="2" NCoef="0" IVar="-1" Cut="0.0000000000000000e+00" cType="1" res="-7.6390393078327179e-03" rms="2.7017632126808167e-01" purity="2.2367651760578156e-01" nType="-99"/>
          <Node pos="r" depth="2" NCoef="0" IVar="9" Cut="-4.5214619487524033e-02" cType="1" res="2.3976769298315048e-02" rms="3.0806434154510498e-01" purity="4.1593927145004272e-01" nType="0">
            <Node pos="l" depth="3" NCoef="0" IVar="-1" Cut="0.0000000000000000e+00" cType="1" res="4.9494072794914246e-02" rms="3.3048838376998901e-01" purity="4.7904643416404724e-01" nType="-99"/>
            <Node pos="r" depth="3" NCoef="0" IVar="-1" Cut="0.0000000000000000e+00" cType="1" res="1.1746305041015148e-02" rms="2.9186925292015076e-01" purity="3.7524715065956116e-01" nType="-99"/>
          </Node>
        </Node>
        <Node pos="r" depth="1" NCoef="0" IVar="3" Cut="3.8553573608398438e+02" cType="1" res="-5.8286037528887391e-04" rms="2.8988629579544067e-01" purity="5.2019202709197998e-01" nType="0">
          <Node pos="l" depth="2" NCoef="0" IVar="8" Cut="1.2000445127487183e+00" cType="1" res="-2.1933962125331163e-03" rms="2.9071420431137085e-01" purity="4.9253916740417480e-01" nType="0">
            <Node pos="l" depth="3" NCoef="0" IVar="-1" Cut="0.0000000000000000e+00" cType="1" res="-4.4006444513797760e-03" rms="2.9404106736183167e-01" purity="5.3149563074111938e-01" nType="-99"/>
            <Node pos="r" depth="3" NCoef="0" IVar="-1" Cut="0.0000000000000000e+00" cType="1" res="1.3599495403468609e-02" rms="2.6563000679016113e-01" purity="2.1610490977764130e-01" nType="-99"/>
          </Node>
          <Node pos="r" depth="2" NCoef="0" IVar="1" Cut="6.0198687016963959e-02" cType="1" res="1.4661209657788277e-02" rms="2.8147360682487488e-01" purity="7.8193187713623047e-01" nType="0">
            <Node pos="l" depth="3" NCoef="0" IVar="-1" Cut="0.0000000000000000e+00" cType="1" res="2.9784791171550751e-02" rms="3.4112989902496338e-01" purity="6.1852002143859863e-01" nType="-99"/>
            <Node pos="r" depth="3" NCoef="0" IVar="-1" Cut="0.0000000000000000e+00" cType="1" res="-4.2420178651809692e-03" rms="2.1496516466140747e-01" purity="9.2453390359878540e-01" nType="-99"/>
          </Node>
        </Node>
      </Node>
    </BinaryTree>
    <BinaryTree type="DecisionTree" boostWeight="1.0000000000000000e+00" itree="480">
      <Node pos="s" depth="0" NCoef="0" IVar="8" Cut="-9.3322581052780151e-01" cType="1" res="4.3138847104273736e-04" rms="2.8506025671958923e-01" purity="5.0198894739151001e-01" nType="0">
        <Node pos="l" depth="1" NCoef="0" IVar="9" Cut="1.3142441213130951e-01" cType="1" res="-9.6489069983363152e-03" rms="2.5876396894454956e-01" purity="2.7378532290458679e-01" nType="0">
          <Node pos="l" depth="2" NCoef="0" IVar="8" Cut="-1.1999423503875732e+00" cType="1" res="-3.3588709775358438e-03" rms="2.6439487934112549e-01" purity="2.9505723714828491e-01" nType="0">
            <Node pos="l" depth="3" NCoef="0" IVar="-1" Cut="0.0000000000000000e+00" cType="1" res="4.9728420563042164e-03" rms="2.4910607933998108e-01" purity="2.2456151247024536e-01" nType="-99"/>
            <Node pos="r" depth="3" NCoef="0" IVar="-1" Cut="0.0000000000000000e+00" cType="1" res="-1.9145203754305840e-02" rms="2.9386889934539795e-01" purity="4.4539654254913330e-01" nType="-99"/>
          </Node>
          <Node pos="r" depth="2" NCoef="0" IVar="8" Cut="-1.2885360717773438e+00" cType="1" res="-1.9253630191087723e-02" rms="2.4961543083190918e-01" purity="2.4130362272262573e-01" nType="0">
            <Node pos="l" depth="3" NCoef="0" IVar="-1" Cut="0.0000000000000000e+00" cType="1" res="-5.1155976951122284e-02" rms="2.0912013947963715e-01" purity="1.4023521542549133e-01" nType="-99"/>
            <Node pos="r" depth="3" NCoef="0" IVar="-1" Cut="0.0000000000000000e+00" cType="1" res="-3.3675208687782288e-03" rms="2.9955121874809265e-01" purity="3.9295321702957153e-01" nType="-99"/>
          </Node>
        </Node>
        <Node pos="r" depth="1" NCoef="0" IVar="5" Cut="6.8742439270019531e+01" cType="1" res="2.4756740313023329e-03" rms="2.9005986452102661e-01" purity="5.4826867580413818e-01" nType="0">
          <Node pos="l" depth="2" NCoef="0" IVar="5" Cut="5.6247257232666016e+01" cType="1" res="9.6440017223358154e-03" rms="2.9715043306350708e-01" purity="2.1673808991909027e-01" nType="0">
            <Node pos="l" depth="3" NCoef="0" IVar="-1" Cut="0.0000000000000000e+00" cType="1" res="-7.4964854866266251e-03" rms="2.5872793793678284e-01" purity="1.3846339285373688e-01" nType="-99"/>
            <Node pos="r" depth="3" NCoef="0" IVar="-1" Cut="0.0000000000000000e+00" cType="1" res="2.0612586289644241e-02" rms="3.2100334763526917e-01" purity="2.7175566554069519e-01" nType="-99"/>
          </Node>
          <Node pos="r" depth="2" NCoef="0" IVar="5" Cut="1.0444229888916016e+02" cType="1" res="-1.4813995221629739e-03" rms="2.8599348664283752e-01" purity="7.3128086328506470e-01" nType="0">
            <Node pos="l" depth="3" NCoef="0" IVar="-1" Cut="0.0000000000000000e+00" cType="1" res="-6.8681607954204082e-03" rms="3.3720570802688599e-01" purity="5.6360530853271484e-01" nType="-99"/>
            <Node pos="r" depth="3" NCoef="0" IVar="-1" Cut="0.0000000000000000e+00" cType="1" res="9.0502342209219933e-03" rms="2.2201558947563171e-01" purity="9.0160393714904785e-01" nType="-99"/>
          </Node>
        </Node>
      </Node>
    </BinaryTree>
    <BinaryTree type="DecisionTree" boostWeight="1.0000000000000000e+00" itree="481">
      <Node pos="s" depth="0" NCoef="0" IVar="3" Cut="4.7651708984375000e+02" cType="1" res="-2.0479863451328129e-04" rms="2.8642803430557251e-01" purity="5.0106412172317505e-01" nType="0">
        <Node pos="l" depth="1" NCoef="0" IVar="7" Cut="-9.1972135007381439e-02" cType="1" res="3.3148252987302840e-04" rms="2.8654375672340393e-01" purity="4.9361050128936768e-01" nType="0">
          <Node pos="l" depth="2" NCoef="0" IVar="10" Cut="3.9998990297317505e-01" cType="1" res="4.1234260424971581e-03" rms="2.8778535127639771e-01" purity="4.8120504617691040e-01" nType="0">
            <Node pos="l" depth="3" NCoef="0" IVar="-1" Cut="0.0000000000000000e+00" cType="1" res="-1.1477470980025828e-04" rms="2.8802263736724854e-01" purity="4.8876720666885376e-01" nType="-99"/>
            <Node pos="r" depth="3" NCoef="0" IVar="-1" Cut="0.0000000000000000e+00" cType="1" res="1.4494962990283966e-02" rms="2.8715145587921143e-01" purity="4.6660348773002625e-01" nType="-99"/>
          </Node>
          <Node pos="r" depth="2" NCoef="0" IVar="6" Cut="7.1395156860351562e+01" cType="1" res="-2.8872319962829351e-03" rms="2.8544607758522034e-01" purity="5.0414055585861206e-01" nType="0">
            <Node pos="l" depth="3" NCoef="0" IVar="-1" Cut="0.0000000000000000e+00" cType="1" res="-6.7208814434707165e-03" rms="3.0805638432502747e-01" purity="3.2980397343635559e-01" nType="-99"/>
            <Node pos="r" depth="3" NCoef="0" IVar="-1" Cut="0.0000000000000000e+00" cType="1" res="8.9774886146187782e-03" rms="2.2671383619308472e-01" purity="8.9369571208953857e-01" nType="-99"/>
          </Node>
        </Node>
        <Node pos="r" depth="1" NCoef="0" IVar="-1" Cut="0.0000000000000000e+00" cType="1" res="-2.1230487152934074e-02" rms="2.8195601701736450e-01" purity="7.4974632263183594e-01" nType="-99"/>
      </Node>
    </BinaryTree>
    <BinaryTree type="DecisionTree" boostWeight="1.0000000000000000e+00" itree="482">
      <Node pos="s" depth="0" NCoef="0" IVar="8" Cut="-1.1998845338821411e+00" cType="1" res="3.9428672607755288e-05" rms="2.8669762611389160e-01" purity="4.9835407733917236e-01" nType="0">
        <Node pos="l" depth="1" NCoef="0" IVar="11" Cut="-7.9205858707427979e-01" cType="1" res="-1.3180718757212162e-02" rms="2.4124120175838470e-01" purity="1.9697962701320648e-01" nType="0">
          <Node pos="l" depth="2" NCoef="0" IVar="9" Cut="3.9990442991256714e-01" cType="1" res="-5.4483399726450443e-03" rms="2.1583868563175201e-01" purity="1.1245491355657578e-01" nType="0">
            <Node pos="l" depth="3" NCoef="0" IVar="-1" Cut="0.0000000000000000e+00" cType="1" res="-2.4055875837802887e-02" rms="2.1518950164318085e-01" purity="1.1816696077585220e-01" nType="-99"/>
            <Node pos="r" depth="3" NCoef="0" IVar="-1" Cut="0.0000000000000000e+00" cType="1" res="1.9687749445438385e-02" rms="2.1645255386829376e-01" purity="1.0098954290151596e-01" nType="-99"/>
          </Node>
          <Node pos="r" depth="2" NCoef="0" IVar="-1" Cut="0.0000000000000000e+00" cType="1" res="-3.5372022539377213e-02" rms="3.0473890900611877e-01" purity="4.5473107695579529e-01" nType="-99"/>
        </Node>
        <Node pos="r" depth="1" NCoef="0" IVar="11" Cut="1.1428184509277344e+00" cType="1" res="1.7563599394634366e-03" rms="2.9203867912292480e-01" purity="5.3749424219131470e-01" nType="0">
          <Node pos="l" depth="2" NCoef="0" IVar="4" Cut="1.4558529663085938e+02" cType="1" res="3.3252306748181581e-03" rms="2.9145717620849609e-01" purity="5.2071845531463623e-01" nType="0">
            <Node pos="l" depth="3" NCoef="0" IVar="-1" Cut="0.0000000000000000e+00" cType="1" res="9.7334291785955429e-03" rms="2.9374292492866516e-01" purity="2.4674679338932037e-01" nType="-99"/>
            <Node pos="r" depth="3" NCoef="0" IVar="-1" Cut="0.0000000000000000e+00" cType="1" res="-4.4188572792336345e-04" rms="2.8963443636894226e-01" purity="7.3118841648101807e-01" nType="-99"/>
          </Node>
          <Node pos="r" depth="2" NCoef="0" IVar="0" Cut="1.5597489013671875e+03" cType="1" res="-1.3118966482579708e-02" rms="2.9708418250083923e-01" purity="6.9655489921569824e-01" nType="0">
            <Node pos="l" depth="3" NCoef="0" IVar="-1" Cut="0.0000000000000000e+00" cType="1" res="-2.4535218253731728e-02" rms="3.4994485974311829e-01" purity="4.6568357944488525e-01" nType="-99"/>
            <Node pos="r" depth="3" NCoef="0" IVar="-1" Cut="0.0000000000000000e+00" cType="1" res="-1.6212348418775946e-04" rms="2.5151029229164124e-01" purity="8.6258769035339355e-01" nType="-99"/>
          </Node>
        </Node>
      </Node>
    </BinaryTree>
    <BinaryTree type="DecisionTree" boostWeight="1.0000000000000000e+00" itree="483">
      <Node pos="s" depth="0" NCoef="0" IVar="10" Cut="-1.1999162435531616e+00" cType="1" res="1.6286779427900910e-03" rms="2.8645390272140503e-01" purity="4.9906802177429199e-01" nType="0">
        <Node pos="l" depth="1" NCoef="0" IVar="2" Cut="4.5166296386718750e+02" cType="1" res="-5.2538956515491009e-03" rms="2.8730207681655884e-01" purity="3.7912061810493469e-01" nType="0">
          <Node pos="l" depth="2" NCoef="0" IVar="4" Cut="1.6022718811035156e+02" cType="1" res="-9.7396587952971458e-03" rms="2.7723073959350586e-01" purity="3.3642256259918213e-01" nType="0">
            <Node pos="l" depth="3" NCoef="0" IVar="-1" Cut="0.0000000000000000e+00" cType="1" res="1.3293389929458499e-03" rms="2.6583248376846313e-01" purity="2.0466874539852142e-01" nType="-99"/>
            <Node pos="r" depth="3" NCoef="0" IVar="-1" Cut="0.0000000000000000e+00" cType="1" res="-3.2742869108915329e-02" rms="2.9711878299713135e-01" purity="5.9360808134078979e-01" nType="-99"/>
          </Node>
          <Node pos="r" depth="2" NCoef="0" IVar="-1" Cut="0.0000000000000000e+00" cType="1" res="7.5795827433466911e-03" rms="3.1345430016517639e-01" purity="4.9871763586997986e-01" nType="-99"/>
        </Node>
        <Node pos="r" depth="1" NCoef="0" IVar="2" Cut="6.8285015869140625e+02" cType="1" res="3.0431069899350405e-03" rms="2.8625881671905518e-01" purity="5.2371823787689209e-01" nType="0">
          <Node pos="l" depth="2" NCoef="0" IVar="9" Cut="-6.6644859313964844e-01" cType="1" res="3.9037421811372042e-03" rms="2.8481799364089966e-01" purity="5.2098095417022705e-01" nType="0">
            <Node pos="l" depth="3" NCoef="0" IVar="-1" Cut="0.0000000000000000e+00" cType="1" res="-3.3139106817543507e-03" rms="2.8581792116165161e-01" purity="4.2621830105781555e-01" nType="-99"/>
            <Node pos="r" depth="3" NCoef="0" IVar="-1" Cut="0.0000000000000000e+00" cType="1" res="7.6365517452359200e-03" rms="2.8443464636802673e-01" purity="5.5379468202590942e-01" nType="-99"/>
          </Node>
          <Node pos="r" depth="2" NCoef="0" IVar="-1" Cut="0.0000000000000000e+00" cType="1" res="-1.3982142321765423e-02" rms="3.1394788622856140e-01" purity="5.8010268211364746e-01" nType="-99"/>
        </Node>
      </Node>
    </BinaryTree>
    <BinaryTree type="DecisionTree" boostWeight="1.0000000000000000e+00" itree="484">
      <Node pos="s" depth="0" NCoef="0" IVar="7" Cut="6.9650113582611084e-01" cType="1" res="2.9399644699878991e-04" rms="2.8368696570396423e-01" purity="5.0384265184402466e-01" nType="0">
        <Node pos="l" depth="1" NCoef="0" IVar="8" Cut="-1.3271944224834442e-01" cType="1" res="-1.8829952459782362e-03" rms="2.8689706325531006e-01" purity="5.4934674501419067e-01" nType="0">
          <Node pos="l" depth="2" NCoef="0" IVar="3" Cut="1.3248765563964844e+02" cType="1" res="4.4691530056297779e-03" rms="2.8826987743377686e-01" purity="5.4313015937805176e-01" nType="0">
            <Node pos="l" depth="3" NCoef="0" IVar="-1" Cut="0.0000000000000000e+00" cType="1" res="-3.6488797515630722e-02" rms="2.0129370689392090e-01" purity="6.8781934678554535e-02" nType="-99"/>
            <Node pos="r" depth="3" NCoef="0" IVar="-1" Cut="0.0000000000000000e+00" cType="1" res="8.0267749726772308e-03" rms="2.9766425490379333e-01" purity="6.0522943735122681e-01" nType="-99"/>
          </Node>
          <Node pos="r" depth="2" NCoef="0" IVar="11" Cut="-2.3812103271484375e-01" cType="1" res="-7.2960574179887772e-03" rms="2.8561052680015564e-01" purity="5.5464434623718262e-01" nType="0">
            <Node pos="l" depth="3" NCoef="0" IVar="-1" Cut="0.0000000000000000e+00" cType="1" res="-1.4518278650939465e-02" rms="2.9152467846870422e-01" purity="4.3617859482765198e-01" nType="-99"/>
            <Node pos="r" depth="3" NCoef="0" IVar="-1" Cut="0.0000000000000000e+00" cType="1" res="5.6059178896248341e-03" rms="2.7267792820930481e-01" purity="7.9820805788040161e-01" nType="-99"/>
          </Node>
        </Node>
        <Node pos="r" depth="1" NCoef="0" IVar="1" Cut="3.7863600999116898e-02" cType="1" res="8.4416279569268227e-03" rms="2.7118098735809326e-01" purity="3.3353850245475769e-01" nType="0">
          <Node pos="l" depth="2" NCoef="0" IVar="9" Cut="-6.6708964109420776e-01" cType="1" res="-7.9613021807745099e-04" rms="2.2358886897563934e-01" purity="1.1944831907749176e-01" nType="0">
            <Node pos="l" depth="3" NCoef="0" IVar="-1" Cut="0.0000000000000000e+00" cType="1" res="-3.6033209413290024e-02" rms="1.6280150413513184e-01" purity="7.9961389303207397e-02" nType="-99"/>
            <Node pos="r" depth="3" NCoef="0" IVar="-1" Cut="0.0000000000000000e+00" cType="1" res="8.5946191102266312e-03" rms="2.4325282871723175e-01" purity="1.3507513701915741e-01" nType="-99"/>
          </Node>
          <Node pos="r" depth="2" NCoef="0" IVar="0" Cut="1.6098756103515625e+03" cType="1" res="2.0892841741442680e-02" rms="3.2404839992523193e-01" purity="6.2210232019424438e-01" nType="0">
            <Node pos="l" depth="3" NCoef="0" IVar="-1" Cut="0.0000000000000000e+00" cType="1" res="2.8421575203537941e-02" rms="3.6237755417823792e-01" purity="4.2718365788459778e-01" nType="-99"/>
            <Node pos="r" depth="3" NCoef="0" IVar="-1" Cut="0.0000000000000000e+00" cType="1" res="1.5791360056027770e-03" rms="2.6451095938682556e-01" purity="8.7656432390213013e-01" nType="-99"/>
          </Node>
        </Node>
      </Node>
    </BinaryTree>
    <BinaryTree type="DecisionTree" boostWeight="1.0000000000000000e+00" itree="485">
      <Node pos="s" depth="0" NCoef="0" IVar="10" Cut="2.2666277885437012e+00" cType="1" res="1.9313973607495427e-03" rms="2.8853127360343933e-01" purity="5.0382703542709351e-01" nType="0">
        <Node pos="l" depth="1" NCoef="0" IVar="10" Cut="-1.3523956537246704e+00" cType="1" res="1.3876733137294650e-03" rms="2.8854236006736755e-01" purity="5.1107853651046753e-01" nType="0">
          <Node pos="l" depth="2" NCoef="0" IVar="3" Cut="2.1944349670410156e+02" cType="1" res="-7.5120325200259686e-03" rms="2.7987405657768250e-01" purity="3.4568604826927185e-01" nType="0">
            <Node pos="l" depth="3" NCoef="0" IVar="-1" Cut="0.0000000000000000e+00" cType="1" res="-2.1039374172687531e-02" rms="2.5000733137130737e-01" purity="1.9950775802135468e-01" nType="-99"/>
            <Node pos="r" depth="3" NCoef="0" IVar="-1" Cut="0.0000000000000000e+00" cType="1" res="1.7752151470631361e-03" rms="3.1459367275238037e-01" purity="5.3770691156387329e-01" nType="-99"/>
          </Node>
          <Node pos="r" depth="2" NCoef="0" IVar="2" Cut="3.2172802734375000e+02" cType="1" res="2.8064071666449308e-03" rms="2.8987500071525574e-01" purity="5.3744429349899292e-01" nType="0">
            <Node pos="l" depth="3" NCoef="0" IVar="-1" Cut="0.0000000000000000e+00" cType="1" res="9.3450453132390976e-03" rms="2.9121384024620056e-01" purity="4.6124079823493958e-01" nType="-99"/>
            <Node pos="r" depth="3" NCoef="0" IVar="-1" Cut="0.0000000000000000e+00" cType="1" res="-7.0399034302681684e-04" rms="2.8893083333969116e-01" purity="5.8815354108810425e-01" nType="-99"/>
          </Node>
        </Node>
        <Node pos="r" depth="1" NCoef="0" IVar="-1" Cut="0.0000000000000000e+00" cType="1" res="2.6471756398677826e-02" rms="2.8749689459800720e-01" purity="2.5022652745246887e-01" nType="-99"/>
      </Node>
    </BinaryTree>
    <BinaryTree type="DecisionTree" boostWeight="1.0000000000000000e+00" itree="486">
      <Node pos="s" depth="0" NCoef="0" IVar="10" Cut="3.9997744560241699e-01" cType="1" res="-1.5207824762910604e-03" rms="2.8460252285003662e-01" purity="5.0139617919921875e-01" nType="0">
        <Node pos="l" depth="1" NCoef="0" IVar="7" Cut="6.9234150648117065e-01" cType="1" res="-3.9395340718328953e-03" rms="2.8280144929885864e-01" purity="5.1352679729461670e-01" nType="0">
          <Node pos="l" depth="2" NCoef="0" IVar="10" Cut="-5.1415568590164185e-01" cType="1" res="-2.0759815815836191e-03" rms="2.8665694594383240e-01" purity="5.5730760097503662e-01" nType="0">
            <Node pos="l" depth="3" NCoef="0" IVar="-1" Cut="0.0000000000000000e+00" cType="1" res="2.4415189400315285e-03" rms="2.8906261920928955e-01" purity="5.1211720705032349e-01" nType="-99"/>
            <Node pos="r" depth="3" NCoef="0" IVar="-1" Cut="0.0000000000000000e+00" cType="1" res="-8.6554586887359619e-03" rms="2.8361922502517700e-01" purity="6.1229580640792847e-01" nType="-99"/>
          </Node>
          <Node pos="r" depth="2" NCoef="0" IVar="7" Cut="8.9294105768203735e-01" cType="1" res="-1.2271243147552013e-02" rms="2.6471826434135437e-01" purity="3.1778806447982788e-01" nType="0">
            <Node pos="l" depth="3" NCoef="0" IVar="-1" Cut="0.0000000000000000e+00" cType="1" res="-3.3933099359273911e-02" rms="3.0918705463409424e-01" purity="4.9482211470603943e-01" nType="-99"/>
            <Node pos="r" depth="3" NCoef="0" IVar="-1" Cut="0.0000000000000000e+00" cType="1" res="-7.7725364826619625e-03" rms="2.4716344475746155e-01" purity="2.5679677724838257e-01" nType="-99"/>
          </Node>
        </Node>
        <Node pos="r" depth="1" NCoef="0" IVar="1" Cut="6.3392266631126404e-02" cType="1" res="2.5175334885716438e-03" rms="2.8753906488418579e-01" purity="4.8114311695098877e-01" nType="0">
          <Node pos="l" depth="2" NCoef="0" IVar="7" Cut="-5.9026014804840088e-01" cType="1" res="8.3037447184324265e-03" rms="2.8014647960662842e-01" purity="2.7597084641456604e-01" nType="0">
            <Node pos="l" depth="3" NCoef="0" IVar="-1" Cut="0.0000000000000000e+00" cType="1" res="-1.4734042808413506e-02" rms="2.4230493605136871e-01" purity="1.8460382521152496e-01" nType="-99"/>
            <Node pos="r" depth="3" NCoef="0" IVar="-1" Cut="0.0000000000000000e+00" cType="1" res="1.6888508573174477e-02" rms="2.9225015640258789e-01" purity="3.0871823430061340e-01" nType="-99"/>
          </Node>
          <Node pos="r" depth="2" NCoef="0" IVar="8" Cut="5.1508402824401855e-01" cType="1" res="-4.7454265877604485e-03" rms="2.9639783501625061e-01" purity="7.3867911100387573e-01" nType="0">
            <Node pos="l" depth="3" NCoef="0" IVar="-1" Cut="0.0000000000000000e+00" cType="1" res="1.3162398245185614e-03" rms="2.9330894351005554e-01" purity="7.6040422916412354e-01" nType="-99"/>
            <Node pos="r" depth="3" NCoef="0" IVar="-1" Cut="0.0000000000000000e+00" cType="1" res="-2.1980695426464081e-02" rms="3.0409961938858032e-01" purity="6.7924755811691284e-01" nType="-99"/>
          </Node>
        </Node>
      </Node>
    </BinaryTree>
    <BinaryTree type="DecisionTree" boostWeight="1.0000000000000000e+00" itree="487">
      <Node pos="s" depth="0" NCoef="0" IVar="11" Cut="8.6642771959304810e-01" cType="1" res="-1.0158850345760584e-03" rms="2.8700774908065796e-01" purity="4.9544090032577515e-01" nType="0">
        <Node pos="l" depth="1" NCoef="0" IVar="8" Cut="-4.0067055821418762e-01" cType="1" res="9.1714912559837103e-04" rms="2.8663223981857300e-01" purity="4.6803021430969238e-01" nType="0">
          <Node pos="l" depth="2" NCoef="0" IVar="8" Cut="-8.5765498876571655e-01" cType="1" res="-4.2684450745582581e-03" rms="2.8080141544342041e-01" purity="4.0377488732337952e-01" nType="0">
            <Node pos="l" depth="3" NCoef="0" IVar="-1" Cut="0.0000000000000000e+00" cType="1" res="2.4144931230694056e-03" rms="2.6892977952957153e-01" purity="2.8839123249053955e-01" nType="-99"/>
            <Node pos="r" depth="3" NCoef="0" IVar="-1" Cut="0.0000000000000000e+00" cType="1" res="-1.4223180711269379e-02" rms="2.9560679197311401e-01" purity="5.5662339925765991e-01" nType="-99"/>
          </Node>
          <Node pos="r" depth="2" NCoef="0" IVar="3" Cut="1.3576521301269531e+02" cType="1" res="3.6190641112625599e-03" rms="2.8958702087402344e-01" purity="5.0150990486145020e-01" nType="0">
            <Node pos="l" depth="3" NCoef="0" IVar="-1" Cut="0.0000000000000000e+00" cType="1" res="-1.6236711293458939e-02" rms="2.0130725204944611e-01" purity="7.5431771576404572e-02" nType="-99"/>
            <Node pos="r" depth="3" NCoef="0" IVar="-1" Cut="0.0000000000000000e+00" cType="1" res="6.0174558311700821e-03" rms="3.0079403519630432e-01" purity="5.6678861379623413e-01" nType="-99"/>
          </Node>
        </Node>
        <Node pos="r" depth="1" NCoef="0" IVar="7" Cut="-3.2818126678466797e-01" cType="1" res="-1.4816408045589924e-02" rms="2.8929936885833740e-01" purity="6.9113445281982422e-01" nType="0">
          <Node pos="l" depth="2" NCoef="0" IVar="-1" Cut="0.0000000000000000e+00" cType="1" res="-3.6065489053726196e-02" rms="3.0286949872970581e-01" purity="5.8188998699188232e-01" nType="-99"/>
          <Node pos="r" depth="2" NCoef="0" IVar="5" Cut="8.7542961120605469e+01" cType="1" res="-6.8396884016692638e-03" rms="2.8346556425094604e-01" purity="7.3346215486526489e-01" nType="0">
            <Node pos="l" depth="3" NCoef="0" IVar="-1" Cut="0.0000000000000000e+00" cType="1" res="-2.1964175626635551e-02" rms="3.3865058422088623e-01" purity="4.9663642048835754e-01" nType="-99"/>
            <Node pos="r" depth="3" NCoef="0" IVar="-1" Cut="0.0000000000000000e+00" cType="1" res="6.8753971718251705e-03" rms="2.4450874328613281e-01" purity="8.7294322252273560e-01" nType="-99"/>
          </Node>
        </Node>
      </Node>
    </BinaryTree>
    <BinaryTree type="DecisionTree" boostWeight="1.0000000000000000e+00" itree="488">
      <Node pos="s" depth="0" NCoef="0" IVar="8" Cut="4.0011292695999146e-01" cType="1" res="-1.7220363952219486e-03" rms="2.8494712710380554e-01" purity="4.9646347761154175e-01" nType="0">
        <Node pos="l" depth="1" NCoef="0" IVar="2" Cut="3.1963446044921875e+02" cType="1" res="-4.8221447505056858e-03" rms="2.8405576944351196e-01" purity="5.2957618236541748e-01" nType="0">
          <Node pos="l" depth="2" NCoef="0" IVar="0" Cut="1.0860340576171875e+03" cType="1" res="-1.0088444687426090e-02" rms="2.8869381546974182e-01" purity="4.3570646643638611e-01" nType="0">
            <Node pos="l" depth="3" NCoef="0" IVar="-1" Cut="0.0000000000000000e+00" cType="1" res="1.4265016652643681e-02" rms="2.2356864809989929e-01" purity="6.1053056269884109e-02" nType="-99"/>
            <Node pos="r" depth="3" NCoef="0" IVar="-1" Cut="0.0000000000000000e+00" cType="1" res="-1.7495306208729744e-02" rms="3.1316137313842773e-01" purity="6.0305219888687134e-01" nType="-99"/>
          </Node>
          <Node pos="r" depth="2" NCoef="0" IVar="7" Cut="-3.8187912106513977e-01" cType="1" res="-1.3294247910380363e-03" rms="2.8088304400444031e-01" purity="5.9183257818222046e-01" nType="0">
            <Node pos="l" depth="3" NCoef="0" IVar="-1" Cut="0.0000000000000000e+00" cType="1" res="-1.2393536977469921e-02" rms="2.8317609429359436e-01" purity="5.2125233411788940e-01" nType="-99"/>
            <Node pos="r" depth="3" NCoef="0" IVar="-1" Cut="0.0000000000000000e+00" cType="1" res="3.1982348300516605e-03" rms="2.7974173426628113e-01" purity="6.2398475408554077e-01" nType="-99"/>
          </Node>
        </Node>
        <Node pos="r" depth="1" NCoef="0" IVar="0" Cut="1.3945023193359375e+03" cType="1" res="4.3791085481643677e-03" rms="2.8659534454345703e-01" purity="4.3129628896713257e-01" nType="0">
          <Node pos="l" depth="2" NCoef="0" IVar="1" Cut="4.0949422866106033e-02" cType="1" res="1.0314997285604477e-02" rms="2.7375781536102295e-01" purity="1.6503527760505676e-01" nType="0">
            <Node pos="l" depth="3" NCoef="0" IVar="-1" Cut="0.0000000000000000e+00" cType="1" res="-7.5104227289557457e-03" rms="1.9477571547031403e-01" purity="5.4495364427566528e-02" nType="-99"/>
            <Node pos="r" depth="3" NCoef="0" IVar="-1" Cut="0.0000000000000000e+00" cType="1" res="2.3608496412634850e-02" rms="3.6008530855178833e-01" purity="3.3050259947776794e-01" nType="-99"/>
          </Node>
          <Node pos="r" depth="2" NCoef="0" IVar="1" Cut="3.8298495113849640e-02" cType="1" res="-1.2411068892106414e-03" rms="2.9813241958618164e-01" purity="6.8339741230010986e-01" nType="0">
            <Node pos="l" depth="3" NCoef="0" IVar="-1" Cut="0.0000000000000000e+00" cType="1" res="1.4634419232606888e-02" rms="3.3392506837844849e-01" purity="3.7364107370376587e-01" nType="-99"/>
            <Node pos="r" depth="3" NCoef="0" IVar="-1" Cut="0.0000000000000000e+00" cType="1" res="-1.2129536829888821e-02" rms="2.7825438976287842e-01" purity="8.3733046054840088e-01" nType="-99"/>
          </Node>
        </Node>
      </Node>
    </BinaryTree>
    <BinaryTree type="DecisionTree" boostWeight="1.0000000000000000e+00" itree="489">
      <Node pos="s" depth="0" NCoef="0" IVar="11" Cut="1.1428184509277344e+00" cType="1" res="5.4742157226428390e-04" rms="2.8408575057983398e-01" purity="5.0127738714218140e-01" nType="0">
        <Node pos="l" depth="1" NCoef="0" IVar="10" Cut="-2.0000042915344238e+00" cType="1" res="-6.1065820045769215e-04" rms="2.8225851058959961e-01" purity="4.8121994733810425e-01" nType="0">
          <Node pos="l" depth="2" NCoef="0" IVar="-1" Cut="0.0000000000000000e+00" cType="1" res="-2.4911291897296906e-02" rms="2.5204855203628540e-01" purity="2.1375077962875366e-01" nType="-99"/>
          <Node pos="r" depth="2" NCoef="0" IVar="9" Cut="-9.3329876661300659e-01" cType="1" res="2.9609882039949298e-04" rms="2.8375935554504395e-01" purity="4.9556446075439453e-01" nType="0">
            <Node pos="l" depth="3" NCoef="0" IVar="-1" Cut="0.0000000000000000e+00" cType="1" res="-8.2126706838607788e-03" rms="2.7615985274314880e-01" purity="3.4171020984649658e-01" nType="-99"/>
            <Node pos="r" depth="3" NCoef="0" IVar="-1" Cut="0.0000000000000000e+00" cType="1" res="2.3559604305773973e-03" rms="2.8551650047302246e-01" purity="5.3224843740463257e-01" nType="-99"/>
          </Node>
        </Node>
        <Node pos="r" depth="1" NCoef="0" IVar="5" Cut="8.7715705871582031e+01" cType="1" res="1.2055869214236736e-02" rms="3.0140143632888794e-01" purity="7.0059853792190552e-01" nType="0">
          <Node pos="l" depth="2" NCoef="0" IVar="-1" Cut="0.0000000000000000e+00" cType="1" res="2.1952364593744278e-02" rms="3.3771142363548279e-01" purity="5.1182174682617188e-01" nType="-99"/>
          <Node pos="r" depth="2" NCoef="0" IVar="-1" Cut="0.0000000000000000e+00" cType="1" res="3.1272142659872770e-03" rms="2.7255076169967651e-01" purity="8.3348327875137329e-01" nType="-99"/>
        </Node>
      </Node>
    </BinaryTree>
    <BinaryTree type="DecisionTree" boostWeight="1.0000000000000000e+00" itree="490">
      <Node pos="s" depth="0" NCoef="0" IVar="4" Cut="1.4543711853027344e+02" cType="1" res="-1.3071189168840647e-03" rms="2.8429642319679260e-01" purity="4.9534878134727478e-01" nType="0">
        <Node pos="l" depth="1" NCoef="0" IVar="8" Cut="-3.9960876107215881e-01" cType="1" res="-6.6895713098347187e-03" rms="2.8047940135002136e-01" purity="2.1687619388103485e-01" nType="0">
          <Node pos="l" depth="2" NCoef="0" IVar="9" Cut="1.3332846760749817e-01" cType="1" res="2.4439643602818251e-03" rms="2.7115023136138916e-01" purity="1.8346589803695679e-01" nType="0">
            <Node pos="l" depth="3" NCoef="0" IVar="-1" Cut="0.0000000000000000e+00" cType="1" res="-6.7231464199721813e-03" rms="2.7040860056877136e-01" purity="1.8498627841472626e-01" nType="-99"/>
            <Node pos="r" depth="3" NCoef="0" IVar="-1" Cut="0.0000000000000000e+00" cType="1" res="2.0866116508841515e-02" rms="2.7190756797790527e-01" purity="1.8110431730747223e-01" nType="-99"/>
          </Node>
          <Node pos="r" depth="2" NCoef="0" IVar="8" Cut="1.1239604949951172e+00" cType="1" res="-1.2060913257300854e-02" rms="2.8568729758262634e-01" purity="2.3652443289756775e-01" nType="0">
            <Node pos="l" depth="3" NCoef="0" IVar="-1" Cut="0.0000000000000000e+00" cType="1" res="-1.8977565690875053e-02" rms="3.0476641654968262e-01" purity="2.8886118531227112e-01" nType="-99"/>
            <Node pos="r" depth="3" NCoef="0" IVar="-1" Cut="0.0000000000000000e+00" cType="1" res="8.0667017027735710e-03" rms="2.3069703578948975e-01" purity="1.0631416738033295e-01" nType="-99"/>
          </Node>
        </Node>
        <Node pos="r" depth="1" NCoef="0" IVar="9" Cut="-9.3353968858718872e-01" cType="1" res="2.9650025535374880e-03" rms="2.8721815347671509e-01" purity="7.1637600660324097e-01" nType="0">
          <Node pos="l" depth="2" NCoef="0" IVar="8" Cut="-3.9902043342590332e-01" cType="1" res="1.7617681995034218e-02" rms="3.1011217832565308e-01" purity="5.6696146726608276e-01" nType="0">
            <Node pos="l" depth="3" NCoef="0" IVar="-1" Cut="0.0000000000000000e+00" cType="1" res="3.4162286669015884e-02" rms="3.2369986176490784e-01" purity="5.5751395225524902e-01" nType="-99"/>
            <Node pos="r" depth="3" NCoef="0" IVar="-1" Cut="0.0000000000000000e+00" cType="1" res="5.7982108555734158e-03" rms="2.9958620667457581e-01" purity="5.7363462448120117e-01" nType="-99"/>
          </Node>
          <Node pos="r" depth="2" NCoef="0" IVar="10" Cut="-1.7332442998886108e+00" cType="1" res="3.2474505132995546e-04" rms="2.8281527757644653e-01" purity="7.4329888820648193e-01" nType="0">
            <Node pos="l" depth="3" NCoef="0" IVar="-1" Cut="0.0000000000000000e+00" cType="1" res="2.4610240012407303e-02" rms="3.3477625250816345e-01" purity="5.6093019247055054e-01" nType="-99"/>
            <Node pos="r" depth="3" NCoef="0" IVar="-1" Cut="0.0000000000000000e+00" cType="1" res="-1.4613560633733869e-03" rms="2.7951952815055847e-01" purity="7.5358462333679199e-01" nType="-99"/>
          </Node>
        </Node>
      </Node>
    </BinaryTree>
    <BinaryTree type="DecisionTree" boostWeight="1.0000000000000000e+00" itree="491">
      <Node pos="s" depth="0" NCoef="0" IVar="8" Cut="-3.9990386366844177e-01" cType="1" res="2.6986012235283852e-03" rms="2.8776934742927551e-01" purity="5.0532031059265137e-01" nType="0">
        <Node pos="l" depth="1" NCoef="0" IVar="10" Cut="1.1990598440170288e+00" cType="1" res="-4.1707307100296021e-03" rms="2.8031396865844727e-01" purity="4.3109515309333801e-01" nType="0">
          <Node pos="l" depth="2" NCoef="0" IVar="10" Cut="4.3751496076583862e-01" cType="1" res="-6.9165462628006935e-03" rms="2.7694997191429138e-01" purity="4.4700828194618225e-01" nType="0">
            <Node pos="l" depth="3" NCoef="0" IVar="-1" Cut="0.0000000000000000e+00" cType="1" res="-4.2781406082212925e-03" rms="2.7399760484695435e-01" purity="4.3725153803825378e-01" nType="-99"/>
            <Node pos="r" depth="3" NCoef="0" IVar="-1" Cut="0.0000000000000000e+00" cType="1" res="-2.4930758401751518e-02" rms="2.8825309872627258e-01" purity="4.8678171634674072e-01" nType="-99"/>
          </Node>
          <Node pos="r" depth="2" NCoef="0" IVar="-1" Cut="0.0000000000000000e+00" cType="1" res="1.5610085800290108e-02" rms="2.9973101615905762e-01" purity="3.3264353871345520e-01" nType="-99"/>
        </Node>
        <Node pos="r" depth="1" NCoef="0" IVar="0" Cut="1.6626463623046875e+03" cType="1" res="6.1098025180399418e-03" rms="2.9134052991867065e-01" purity="5.4217934608459473e-01" nType="0">
          <Node pos="l" depth="2" NCoef="0" IVar="1" Cut="2.1923938766121864e-02" cType="1" res="1.0057374835014343e-02" rms="3.1396916508674622e-01" purity="3.4744167327880859e-01" nType="0">
            <Node pos="l" depth="3" NCoef="0" IVar="-1" Cut="0.0000000000000000e+00" cType="1" res="-2.3748930543661118e-03" rms="2.0648965239524841e-01" purity="7.3801703751087189e-02" nType="-99"/>
            <Node pos="r" depth="3" NCoef="0" IVar="-1" Cut="0.0000000000000000e+00" cType="1" res="1.2024343013763428e-02" rms="3.4734052419662476e-01" purity="4.5573201775550842e-01" nType="-99"/>
          </Node>
          <Node pos="r" depth="2" NCoef="0" IVar="0" Cut="2.4016577148437500e+03" cType="1" res="-1.6563637473154813e-04" rms="2.5107881426811218e-01" purity="8.5175293684005737e-01" nType="0">
            <Node pos="l" depth="3" NCoef="0" IVar="-1" Cut="0.0000000000000000e+00" cType="1" res="-4.1349730454385281e-03" rms="2.5894272327423096e-01" purity="8.3622413873672485e-01" nType="-99"/>
            <Node pos="r" depth="3" NCoef="0" IVar="-1" Cut="0.0000000000000000e+00" cType="1" res="2.1688805893063545e-02" rms="2.1163836121559143e-01" purity="9.2177075147628784e-01" nType="-99"/>
          </Node>
        </Node>
      </Node>
    </BinaryTree>
    <BinaryTree type="DecisionTree" boostWeight="1.0000000000000000e+00" itree="492">
      <Node pos="s" depth="0" NCoef="0" IVar="9" Cut="3.9999964833259583e-01" cType="1" res="2.0125447772443295e-03" rms="2.8725728392601013e-01" purity="5.0420737266540527e-01" nType="0">
        <Node pos="l" depth="1" NCoef="0" IVar="9" Cut="-1.5809208154678345e+00" cType="1" res="3.8836922030895948e-03" rms="2.8702098131179810e-01" purity="5.3268128633499146e-01" nType="0">
          <Node pos="l" depth="2" NCoef="0" IVar="8" Cut="3.9778670668601990e-01" cType="1" res="-8.0642038956284523e-03" rms="2.5773993134498596e-01" purity="1.9404657185077667e-01" nType="0">
            <Node pos="l" depth="3" NCoef="0" IVar="-1" Cut="0.0000000000000000e+00" cType="1" res="-2.1895691752433777e-02" rms="2.6536446809768677e-01" purity="2.0917938649654388e-01" nType="-99"/>
            <Node pos="r" depth="3" NCoef="0" IVar="-1" Cut="0.0000000000000000e+00" cType="1" res="1.2056230567395687e-02" rms="2.4204951524734497e-01" purity="1.6572694480419159e-01" nType="-99"/>
          </Node>
          <Node pos="r" depth="2" NCoef="0" IVar="9" Cut="-5.4329216480255127e-01" cType="1" res="5.3981845267117023e-03" rms="2.9048684239387512e-01" purity="5.7560592889785767e-01" nType="0">
            <Node pos="l" depth="3" NCoef="0" IVar="-1" Cut="0.0000000000000000e+00" cType="1" res="1.3764494098722935e-02" rms="3.0110725760459900e-01" purity="5.2414608001708984e-01" nType="-99"/>
            <Node pos="r" depth="3" NCoef="0" IVar="-1" Cut="0.0000000000000000e+00" cType="1" res="8.8239437900483608e-04" rms="2.8290781378746033e-01" purity="6.1075794696807861e-01" nType="-99"/>
          </Node>
        </Node>
        <Node pos="r" depth="1" NCoef="0" IVar="4" Cut="1.2737461090087891e+02" cType="1" res="-1.4680023305118084e-03" rms="2.8766393661499023e-01" purity="4.5124271512031555e-01" nType="0">
          <Node pos="l" depth="2" NCoef="0" IVar="4" Cut="9.8314430236816406e+01" cType="1" res="8.2187792286276817e-03" rms="2.6472166180610657e-01" purity="1.6177867352962494e-01" nType="0">
            <Node pos="l" depth="3" NCoef="0" IVar="-1" Cut="0.0000000000000000e+00" cType="1" res="-1.1716597713530064e-02" rms="2.0390073955059052e-01" purity="6.5098434686660767e-02" nType="-99"/>
            <Node pos="r" depth="3" NCoef="0" IVar="-1" Cut="0.0000000000000000e+00" cType="1" res="2.4278173223137856e-02" rms="3.1429269909858704e-01" purity="2.6041597127914429e-01" nType="-99"/>
          </Node>
          <Node pos="r" depth="2" NCoef="0" IVar="8" Cut="1.1999889612197876e+00" cType="1" res="-7.2471932508051395e-03" rms="3.0036967992782593e-01" purity="6.2393873929977417e-01" nType="0">
            <Node pos="l" depth="3" NCoef="0" IVar="-1" Cut="0.0000000000000000e+00" cType="1" res="-4.1237864643335342e-03" rms="3.0130776762962341e-01" purity="6.6534656286239624e-01" nType="-99"/>
            <Node pos="r" depth="3" NCoef="0" IVar="-1" Cut="0.0000000000000000e+00" cType="1" res="-3.4827411174774170e-02" rms="2.9156333208084106e-01" purity="3.0134400725364685e-01" nType="-99"/>
          </Node>
        </Node>
      </Node>
    </BinaryTree>
    <BinaryTree type="DecisionTree" boostWeight="1.0000000000000000e+00" itree="493">
      <Node pos="s" depth="0" NCoef="0" IVar="0" Cut="1.0972578125000000e+03" cType="1" res="1.5503837494179606e-03" rms="2.8703317046165466e-01" purity="5.0118285417556763e-01" nType="0">
        <Node pos="l" depth="1" NCoef="0" IVar="1" Cut="5.2952960133552551e-02" cType="1" res="1.0641504079103470e-02" rms="2.2265918552875519e-01" purity="6.4366951584815979e-02" nType="0">
          <Node pos="l" depth="2" NCoef="0" IVar="7" Cut="1.4981968700885773e-01" cType="1" res="4.7169080935418606e-03" rms="1.6267900168895721e-01" purity="3.0572701245546341e-02" nType="0">
            <Node pos="l" depth="3" NCoef="0" IVar="-1" Cut="0.0000000000000000e+00" cType="1" res="-1.3491923920810223e-02" rms="1.5176099538803101e-01" purity="2.4129988625645638e-02" nType="-99"/>
            <Node pos="r" depth="3" NCoef="0" IVar="-1" Cut="0.0000000000000000e+00" cType="1" res="6.4749918878078461e-02" rms="1.7399172484874725e-01" purity="3.8025636225938797e-02" nType="-99"/>
          </Node>
          <Node pos="r" depth="2" NCoef="0" IVar="-1" Cut="0.0000000000000000e+00" cType="1" res="2.7523826807737350e-02" rms="3.2958650588989258e-01" purity="1.5117782354354858e-01" nType="-99"/>
        </Node>
        <Node pos="r" depth="1" NCoef="0" IVar="7" Cut="6.7239761352539062e-01" cType="1" res="-2.1669451962225139e-04" rms="2.9790341854095459e-01" purity="5.8608853816986084e-01" nType="0">
          <Node pos="l" depth="2" NCoef="0" IVar="1" Cut="8.4817983210086823e-02" cType="1" res="-2.5647503789514303e-03" rms="2.9831212759017944e-01" purity="6.3065189123153687e-01" nType="0">
            <Node pos="l" depth="3" NCoef="0" IVar="-1" Cut="0.0000000000000000e+00" cType="1" res="-7.3216846212744713e-03" rms="3.2073199748992920e-01" purity="4.4659796357154846e-01" nType="-99"/>
            <Node pos="r" depth="3" NCoef="0" IVar="-1" Cut="0.0000000000000000e+00" cType="1" res="5.2832677029073238e-03" rms="2.6678967475891113e-01" purity="8.6588203907012939e-01" nType="-99"/>
          </Node>
          <Node pos="r" depth="2" NCoef="0" IVar="1" Cut="3.3499572426080704e-02" cType="1" res="8.9933909475803375e-03" rms="2.9611507058143616e-01" purity="4.1129192709922791e-01" nType="0">
            <Node pos="l" depth="3" NCoef="0" IVar="-1" Cut="0.0000000000000000e+00" cType="1" res="9.9252304062247276e-04" rms="2.4619971215724945e-01" purity="1.5061534941196442e-01" nType="-99"/>
            <Node pos="r" depth="3" NCoef="0" IVar="-1" Cut="0.0000000000000000e+00" cType="1" res="1.5195506624877453e-02" rms="3.3707255125045776e-01" purity="6.6228830814361572e-01" nType="-99"/>
          </Node>
        </Node>
      </Node>
    </BinaryTree>
    <BinaryTree type="DecisionTree" boostWeight="1.0000000000000000e+00" itree="494">
      <Node pos="s" depth="0" NCoef="0" IVar="4" Cut="2.8728875732421875e+02" cType="1" res="-9.0365979121997952e-04" rms="2.8652662038803101e-01" purity="5.0133764743804932e-01" nType="0">
        <Node pos="l" depth="1" NCoef="0" IVar="4" Cut="1.5242747497558594e+02" cType="1" res="-2.0216826815158129e-03" rms="2.9036030173301697e-01" purity="4.7180730104446411e-01" nType="0">
          <Node pos="l" depth="2" NCoef="0" IVar="10" Cut="1.4665070772171021e+00" cType="1" res="2.7023241855204105e-03" rms="2.9082545638084412e-01" purity="2.5419139862060547e-01" nType="0">
            <Node pos="l" depth="3" NCoef="0" IVar="-1" Cut="0.0000000000000000e+00" cType="1" res="4.8372056335210800e-04" rms="2.9280561208724976e-01" purity="2.6296335458755493e-01" nType="-99"/>
            <Node pos="r" depth="3" NCoef="0" IVar="-1" Cut="0.0000000000000000e+00" cType="1" res="2.1594360470771790e-02" rms="2.7863937616348267e-01" purity="2.0309443771839142e-01" nType="-99"/>
          </Node>
          <Node pos="r" depth="2" NCoef="0" IVar="1" Cut="2.1215502172708511e-02" cType="1" res="-7.1967346593737602e-03" rms="2.8976148366928101e-01" purity="7.1020102500915527e-01" nType="0">
            <Node pos="l" depth="3" NCoef="0" IVar="-1" Cut="0.0000000000000000e+00" cType="1" res="-2.5773001834750175e-02" rms="2.8542345762252808e-01" purity="2.2143965959548950e-01" nType="-99"/>
            <Node pos="r" depth="3" NCoef="0" IVar="-1" Cut="0.0000000000000000e+00" cType="1" res="-5.6468034163117409e-03" rms="2.9031321406364441e-01" purity="7.8179347515106201e-01" nType="-99"/>
          </Node>
        </Node>
        <Node pos="r" depth="1" NCoef="0" IVar="9" Cut="1.2562586367130280e-01" cType="1" res="1.3916877098381519e-02" rms="2.2922527790069580e-01" purity="8.9279299974441528e-01" nType="0">
          <Node pos="l" depth="2" NCoef="0" IVar="-1" Cut="0.0000000000000000e+00" cType="1" res="3.3236119896173477e-02" rms="2.2908608615398407e-01" purity="9.0092647075653076e-01" nType="-99"/>
          <Node pos="r" depth="2" NCoef="0" IVar="-1" Cut="0.0000000000000000e+00" cType="1" res="6.0210023075342178e-03" rms="2.2899425029754639e-01" purity="8.8241726160049438e-01" nType="-99"/>
        </Node>
      </Node>
    </BinaryTree>
    <BinaryTree type="DecisionTree" boostWeight="1.0000000000000000e+00" itree="495">
      <Node pos="s" depth="0" NCoef="0" IVar="7" Cut="-3.7963318824768066e-01" cType="1" res="1.0373902041465044e-03" rms="2.8810915350914001e-01" purity="4.9886026978492737e-01" nType="0">
        <Node pos="l" depth="1" NCoef="0" IVar="4" Cut="9.8453262329101562e+01" cType="1" res="8.1304693594574928e-03" rms="2.8431484103202820e-01" purity="4.2942914366722107e-01" nType="0">
          <Node pos="l" depth="2" NCoef="0" IVar="5" Cut="5.8794914245605469e+01" cType="1" res="-7.7855773270130157e-03" rms="1.8551442027091980e-01" purity="5.0002906471490860e-02" nType="0">
            <Node pos="l" depth="3" NCoef="0" IVar="-1" Cut="0.0000000000000000e+00" cType="1" res="2.1510291844606400e-02" rms="1.6835002601146698e-01" purity="3.5327292978763580e-02" nType="-99"/>
            <Node pos="r" depth="3" NCoef="0" IVar="-1" Cut="0.0000000000000000e+00" cType="1" res="-4.1673067957162857e-02" rms="2.0302015542984009e-01" purity="6.7515507340431213e-02" nType="-99"/>
          </Node>
          <Node pos="r" depth="2" NCoef="0" IVar="9" Cut="-1.1989107131958008e+00" cType="1" res="1.1713353917002678e-02" rms="3.0201753973960876e-01" purity="5.1484233140945435e-01" nType="0">
            <Node pos="l" depth="3" NCoef="0" IVar="-1" Cut="0.0000000000000000e+00" cType="1" res="3.4222308546304703e-02" rms="2.9572105407714844e-01" purity="3.5549384355545044e-01" nType="-99"/>
            <Node pos="r" depth="3" NCoef="0" IVar="-1" Cut="0.0000000000000000e+00" cType="1" res="9.5575852319598198e-03" rms="3.0298835039138794e-01" purity="5.4248952865600586e-01" nType="-99"/>
          </Node>
        </Node>
        <Node pos="r" depth="1" NCoef="0" IVar="1" Cut="2.1139133721590042e-02" cType="1" res="-2.4521937593817711e-03" rms="2.8989392518997192e-01" purity="5.3301835060119629e-01" nType="0">
          <Node pos="l" depth="2" NCoef="0" IVar="0" Cut="1.3207448730468750e+03" cType="1" res="7.9144388437271118e-03" rms="2.4774396419525146e-01" purity="1.4517185091972351e-01" nType="0">
            <Node pos="l" depth="3" NCoef="0" IVar="-1" Cut="0.0000000000000000e+00" cType="1" res="6.1394565273076296e-04" rms="1.5568281710147858e-01" purity="3.0991025269031525e-02" nType="-99"/>
            <Node pos="r" depth="3" NCoef="0" IVar="-1" Cut="0.0000000000000000e+00" cType="1" res="1.7344800755381584e-02" rms="3.2542774081230164e-01" purity="2.8255110979080200e-01" nType="-99"/>
          </Node>
          <Node pos="r" depth="2" NCoef="0" IVar="6" Cut="6.6376380920410156e+01" cType="1" res="-5.2013862878084183e-03" rms="3.0002024769783020e-01" purity="6.3587379455566406e-01" nType="0">
            <Node pos="l" depth="3" NCoef="0" IVar="-1" Cut="0.0000000000000000e+00" cType="1" res="-8.4325792267918587e-03" rms="3.3993729948997498e-01" purity="4.3178561329841614e-01" nType="-99"/>
            <Node pos="r" depth="3" NCoef="0" IVar="-1" Cut="0.0000000000000000e+00" cType="1" res="1.8329236190766096e-03" rms="2.3688922822475433e-01" purity="9.0612488985061646e-01" nType="-99"/>
          </Node>
        </Node>
      </Node>
    </BinaryTree>
    <BinaryTree type="DecisionTree" boostWeight="1.0000000000000000e+00" itree="496">
      <Node pos="s" depth="0" NCoef="0" IVar="8" Cut="-1.3330276310443878e-01" cType="1" res="1.5684968093410134e-03" rms="2.8655663132667542e-01" purity="5.0030773878097534e-01" nType="0">
        <Node pos="l" depth="1" NCoef="0" IVar="7" Cut="1.8388235569000244e-01" cType="1" res="7.4769142083823681e-03" rms="2.9014021158218384e-01" purity="4.8475092649459839e-01" nType="0">
          <Node pos="l" depth="2" NCoef="0" IVar="8" Cut="-8.9519333839416504e-01" cType="1" res="2.4245451204478741e-03" rms="2.8800609707832336e-01" purity="5.1443415880203247e-01" nType="0">
            <Node pos="l" depth="3" NCoef="0" IVar="-1" Cut="0.0000000000000000e+00" cType="1" res="1.6818156465888023e-02" rms="2.8411170840263367e-01" purity="3.4723192453384399e-01" nType="-99"/>
            <Node pos="r" depth="3" NCoef="0" IVar="-1" Cut="0.0000000000000000e+00" cType="1" res="-5.9335017576813698e-03" rms="2.9031759500503540e-01" purity="6.2544268369674683e-01" nType="-99"/>
          </Node>
          <Node pos="r" depth="2" NCoef="0" IVar="8" Cut="-1.5300147533416748e+00" cType="1" res="1.5721248462796211e-02" rms="2.9340255260467529e-01" purity="4.3631452322006226e-01" nType="0">
            <Node pos="l" depth="3" NCoef="0" IVar="-1" Cut="0.0000000000000000e+00" cType="1" res="-2.6970107108354568e-02" rms="1.8807855248451233e-01" purity="8.7193384766578674e-02" nType="-99"/>
            <Node pos="r" depth="3" NCoef="0" IVar="-1" Cut="0.0000000000000000e+00" cType="1" res="2.3712012916803360e-02" rms="3.1111267209053040e-01" purity="5.1130294799804688e-01" nType="-99"/>
          </Node>
        </Node>
        <Node pos="r" depth="1" NCoef="0" IVar="9" Cut="-1.3386799395084381e-01" cType="1" res="-3.1484677456319332e-03" rms="2.8357484936714172e-01" purity="5.1272749900817871e-01" nType="0">
          <Node pos="l" depth="2" NCoef="0" IVar="2" Cut="3.1451211547851562e+02" cType="1" res="3.8247669581323862e-03" rms="2.8433975577354431e-01" purity="5.0935477018356323e-01" nType="0">
            <Node pos="l" depth="3" NCoef="0" IVar="-1" Cut="0.0000000000000000e+00" cType="1" res="1.3242847286164761e-02" rms="2.9340898990631104e-01" purity="4.3333941698074341e-01" nType="-99"/>
            <Node pos="r" depth="3" NCoef="0" IVar="-1" Cut="0.0000000000000000e+00" cType="1" res="-1.1749501572921872e-03" rms="2.7850452065467834e-01" purity="5.5613082647323608e-01" nType="-99"/>
          </Node>
          <Node pos="r" depth="2" NCoef="0" IVar="2" Cut="3.0469656372070312e+02" cType="1" res="-8.1861363723874092e-03" rms="2.8291407227516174e-01" purity="5.1516413688659668e-01" nType="0">
            <Node pos="l" depth="3" NCoef="0" IVar="-1" Cut="0.0000000000000000e+00" cType="1" res="-2.0325226709246635e-02" rms="2.7388381958007812e-01" purity="4.0707555413246155e-01" nType="-99"/>
            <Node pos="r" depth="3" NCoef="0" IVar="-1" Cut="0.0000000000000000e+00" cType="1" res="-3.8723584730178118e-03" rms="2.8776261210441589e-01" purity="5.7613545656204224e-01" nType="-99"/>
          </Node>
        </Node>
      </Node>
    </BinaryTree>
    <BinaryTree type="DecisionTree" boostWeight="1.0000000000000000e+00" itree="497">
      <Node pos="s" depth="0" NCoef="0" IVar="9" Cut="-6.6656601428985596e-01" cType="1" res="-3.1538826879113913e-03" rms="2.8417286276817322e-01" purity="4.9604347348213196e-01" nType="0">
        <Node pos="l" depth="1" NCoef="0" IVar="8" Cut="9.3162649869918823e-01" cType="1" res="-1.0226776823401451e-02" rms="2.8516280651092529e-01" purity="3.8669946789741516e-01" nType="0">
          <Node pos="l" depth="2" NCoef="0" IVar="1" Cut="4.1755877435207367e-02" cType="1" res="-1.3439496979117393e-02" rms="2.9279473423957825e-01" purity="4.2260664701461792e-01" nType="0">
            <Node pos="l" depth="3" NCoef="0" IVar="-1" Cut="0.0000000000000000e+00" cType="1" res="-5.8323182165622711e-03" rms="2.5054070353507996e-01" purity="1.7108900845050812e-01" nType="-99"/>
            <Node pos="r" depth="3" NCoef="0" IVar="-1" Cut="0.0000000000000000e+00" cType="1" res="-2.0037747919559479e-02" rms="3.2263830304145813e-01" purity="6.2523889541625977e-01" nType="-99"/>
          </Node>
          <Node pos="r" depth="2" NCoef="0" IVar="-1" Cut="0.0000000000000000e+00" cType="1" res="9.1870613396167755e-03" rms="2.4224150180816650e-01" purity="2.0500038564205170e-01" nType="-99"/>
        </Node>
        <Node pos="r" depth="1" NCoef="0" IVar="7" Cut="9.4434237480163574e-01" cType="1" res="-6.2631687615066767e-04" rms="2.8377550840377808e-01" purity="5.3511857986450195e-01" nType="0">
          <Node pos="l" depth="2" NCoef="0" IVar="10" Cut="1.7333210706710815e+00" cType="1" res="1.4641269808635116e-03" rms="2.8905707597732544e-01" purity="5.8554506301879883e-01" nType="0">
            <Node pos="l" depth="3" NCoef="0" IVar="-1" Cut="0.0000000000000000e+00" cType="1" res="3.3705260138958693e-03" rms="2.8751653432846069e-01" purity="6.0332709550857544e-01" nType="-99"/>
            <Node pos="r" depth="3" NCoef="0" IVar="-1" Cut="0.0000000000000000e+00" cType="1" res="-1.8620522692799568e-02" rms="3.0816709995269775e-01" purity="3.4980529546737671e-01" nType="-99"/>
          </Node>
          <Node pos="r" depth="2" NCoef="0" IVar="2" Cut="2.9478982543945312e+02" cType="1" res="-1.2654707767069340e-02" rms="2.5089895725250244e-01" purity="2.4496477842330933e-01" nType="0">
            <Node pos="l" depth="3" NCoef="0" IVar="-1" Cut="0.0000000000000000e+00" cType="1" res="4.9530044198036194e-03" rms="2.4968355894088745e-01" purity="2.4226374924182892e-01" nType="-99"/>
            <Node pos="r" depth="3" NCoef="0" IVar="-1" Cut="0.0000000000000000e+00" cType="1" res="-3.6551855504512787e-02" rms="2.5114768743515015e-01" purity="2.4693927168846130e-01" nType="-99"/>
          </Node>
        </Node>
      </Node>
    </BinaryTree>
    <BinaryTree type="DecisionTree" boostWeight="1.0000000000000000e+00" itree="498">
      <Node pos="s" depth="0" NCoef="0" IVar="8" Cut="4.0012195706367493e-01" cType="1" res="4.3985867523588240e-04" rms="2.8539463877677917e-01" purity="5.0203621387481689e-01" nType="0">
        <Node pos="l" depth="1" NCoef="0" IVar="7" Cut="9.4434237480163574e-01" cType="1" res="3.9635472930967808e-03" rms="2.8635525703430176e-01" purity="5.4191642999649048e-01" nType="0">
          <Node pos="l" depth="2" NCoef="0" IVar="7" Cut="-8.2195556163787842e-01" cType="1" res="1.9036893500015140e-03" rms="2.8971111774444580e-01" purity="5.8419597148895264e-01" nType="0">
            <Node pos="l" depth="3" NCoef="0" IVar="-1" Cut="0.0000000000000000e+00" cType="1" res="1.4571946114301682e-02" rms="2.8068900108337402e-01" purity="3.3044540882110596e-01" nType="-99"/>
            <Node pos="r" depth="3" NCoef="0" IVar="-1" Cut="0.0000000000000000e+00" cType="1" res="-5.5956933647394180e-04" rms="2.9192924499511719e-01" purity="6.4919048547744751e-01" nType="-99"/>
          </Node>
          <Node pos="r" depth="2" NCoef="0" IVar="11" Cut="-1.6192618608474731e+00" cType="1" res="1.7467303201556206e-02" rms="2.6289880275726318e-01" purity="2.6474520564079285e-01" nType="0">
            <Node pos="l" depth="3" NCoef="0" IVar="-1" Cut="0.0000000000000000e+00" cType="1" res="4.2197941802442074e-03" rms="2.0866104960441589e-01" purity="9.1577708721160889e-02" nType="-99"/>
            <Node pos="r" depth="3" NCoef="0" IVar="-1" Cut="0.0000000000000000e+00" cType="1" res="3.9273131638765335e-02" rms="3.2795476913452148e-01" purity="5.3149902820587158e-01" nType="-99"/>
          </Node>
        </Node>
        <Node pos="r" depth="1" NCoef="0" IVar="10" Cut="4.0014076232910156e-01" cType="1" res="-6.6102924756705761e-03" rms="2.8333130478858948e-01" purity="4.2224436998367310e-01" nType="0">
          <Node pos="l" depth="2" NCoef="0" IVar="8" Cut="9.7145950794219971e-01" cType="1" res="-1.0926574468612671e-03" rms="2.8984540700912476e-01" purity="4.5215079188346863e-01" nType="0">
            <Node pos="l" depth="3" NCoef="0" IVar="-1" Cut="0.0000000000000000e+00" cType="1" res="6.6213924437761307e-03" rms="3.0499958992004395e-01" purity="5.9038180112838745e-01" nType="-99"/>
            <Node pos="r" depth="3" NCoef="0" IVar="-1" Cut="0.0000000000000000e+00" cType="1" res="-1.3233483768999577e-02" rms="2.7056631445884705e-01" purity="2.8863540291786194e-01" nType="-99"/>
          </Node>
          <Node pos="r" depth="2" NCoef="0" IVar="8" Cut="1.4265081882476807e+00" cType="1" res="-1.4023799449205399e-02" rms="2.7416071295738220e-01" purity="3.8206201791763306e-01" nType="0">
            <Node pos="l" depth="3" NCoef="0" IVar="-1" Cut="0.0000000000000000e+00" cType="1" res="-2.2294959053397179e-02" rms="2.8485888242721558e-01" purity="4.6136090159416199e-01" nType="-99"/>
            <Node pos="r" depth="3" NCoef="0" IVar="-1" Cut="0.0000000000000000e+00" cType="1" res="1.0237008333206177e-02" rms="2.3862119019031525e-01" purity="1.4747190475463867e-01" nType="-99"/>
          </Node>
        </Node>
      </Node>
    </BinaryTree>
    <BinaryTree type="DecisionTree" boostWeight="1.0000000000000000e+00" itree="499">
      <Node pos="s" depth="0" NCoef="0" IVar="7" Cut="6.7914193868637085e-01" cType="1" res="3.6238931352272630e-04" rms="2.8704166412353516e-01" purity="4.9729314446449280e-01" nType="0">
        <Node pos="l" depth="1" NCoef="0" IVar="10" Cut="3.9988419413566589e-01" cType="1" res="2.1997175645083189e-03" rms="2.9206708073616028e-01" purity="5.4848581552505493e-01" nType="0">
          <Node pos="l" depth="2" NCoef="0" IVar="9" Cut="-9.3284863233566284e-01" cType="1" res="-1.0835262946784496e-03" rms="2.8993010520935059e-01" purity="5.5198746919631958e-01" nType="0">
            <Node pos="l" depth="3" NCoef="0" IVar="-1" Cut="0.0000000000000000e+00" cType="1" res="8.9946649968624115e-03" rms="2.9995197057723999e-01" purity="4.0234977006912231e-01" nType="-99"/>
            <Node pos="r" depth="3" NCoef="0" IVar="-1" Cut="0.0000000000000000e+00" cType="1" res="-4.3867304921150208e-03" rms="2.8714209794998169e-01" purity="5.9195882081985474e-01" nType="-99"/>
          </Node>
          <Node pos="r" depth="2" NCoef="0" IVar="8" Cut="-4.0051513910293579e-01" cType="1" res="8.1068966537714005e-03" rms="2.9578125476837158e-01" purity="5.4218560457229614e-01" nType="0">
            <Node pos="l" depth="3" NCoef="0" IVar="-1" Cut="0.0000000000000000e+00" cType="1" res="-3.0662908684462309e-03" rms="3.0355817079544067e-01" purity="4.7464525699615479e-01" nType="-99"/>
            <Node pos="r" depth="3" NCoef="0" IVar="-1" Cut="0.0000000000000000e+00" cType="1" res="1.3564785942435265e-02" rms="2.9257810115814209e-01" purity="5.6858366727828979e-01" nType="-99"/>
          </Node>
        </Node>
        <Node pos="r" depth="1" NCoef="0" IVar="9" Cut="-6.6698014736175537e-01" cType="1" res="-6.2128272838890553e-03" rms="2.6818412542343140e-01" purity="3.1409081816673279e-01" nType="0">
          <Node pos="l" depth="2" NCoef="0" IVar="7" Cut="1.1831356287002563e+00" cType="1" res="3.5475527402013540e-03" rms="2.4237699806690216e-01" purity="2.2311544418334961e-01" nType="0">
            <Node pos="l" depth="3" NCoef="0" IVar="-1" Cut="0.0000000000000000e+00" cType="1" res="2.4632327258586884e-02" rms="3.0026215314865112e-01" purity="3.5569137334823608e-01" nType="-99"/>
            <Node pos="r" depth="3" NCoef="0" IVar="-1" Cut="0.0000000000000000e+00" cType="1" res="-3.9046570658683777e-02" rms="1.6159065067768097e-01" purity="8.8580280542373657e-02" nType="-99"/>
          </Node>
          <Node pos="r" depth="2" NCoef="0" IVar="7" Cut="1.1836748123168945e+00" cType="1" res="-9.6657667309045792e-03" rms="2.7665579319000244e-01" purity="3.4627526998519897e-01" nType="0">
            <Node pos="l" depth="3" NCoef="0" IVar="-1" Cut="0.0000000000000000e+00" cType="1" res="-1.7895190045237541e-02" rms="3.0707684159278870e-01" purity="4.8446336388587952e-01" nType="-99"/>
            <Node pos="r" depth="3" NCoef="0" IVar="-1" Cut="0.0000000000000000e+00" cType="1" res="-8.1025087274610996e-04" rms="2.3348931968212128e-01" purity="1.7609691619873047e-01" nType="-99"/>
          </Node>
        </Node>
      </Node>
    </BinaryTree>
    <BinaryTree type="DecisionTree" boostWeight="1.0000000000000000e+00" itree="500">
      <Node pos="s" depth="0" NCoef="0" IVar="10" Cut="2.2664697170257568e+00" cType="1" res="-1.4048621524125338e-03" rms="2.8422883152961731e-01" purity="4.9734404683113098e-01" nType="0">
        <Node pos="l" depth="1" NCoef="0" IVar="1" Cut="2.1220216527581215e-02" cType="1" res="-1.9290689378976822e-03" rms="2.8430786728858948e-01" purity="5.0468176603317261e-01" nType="0">
          <Node pos="l" depth="2" NCoef="0" IVar="7" Cut="-1.4537342786788940e+00" cType="1" res="4.6312846243381500e-03" rms="2.3031648993492126e-01" purity="1.2917199730873108e-01" nType="0">
            <Node pos="l" depth="3" NCoef="0" IVar="-1" Cut="0.0000000000000000e+00" cType="1" res="-4.5259218662977219e-02" rms="1.1830966174602509e-01" purity="2.8982982039451599e-02" nType="-99"/>
            <Node pos="r" depth="3" NCoef="0" IVar="-1" Cut="0.0000000000000000e+00" cType="1" res="1.3643395155668259e-02" rms="2.4932609498500824e-01" purity="1.5276449918746948e-01" nType="-99"/>
          </Node>
          <Node pos="r" depth="2" NCoef="0" IVar="1" Cut="8.1796988844871521e-02" cType="1" res="-4.0072207339107990e-03" rms="2.9935711622238159e-01" purity="6.2363362312316895e-01" nType="0">
            <Node pos="l" depth="3" NCoef="0" IVar="-1" Cut="0.0000000000000000e+00" cType="1" res="-8.4761027246713638e-03" rms="3.1884673237800598e-01" purity="4.4143834710121155e-01" nType="-99"/>
            <Node pos="r" depth="3" NCoef="0" IVar="-1" Cut="0.0000000000000000e+00" cType="1" res="1.3671237975358963e-03" rms="2.7796137332916260e-01" purity="8.0964654684066772e-01" nType="-99"/>
          </Node>
        </Node>
        <Node pos="r" depth="1" NCoef="0" IVar="-1" Cut="0.0000000000000000e+00" cType="1" res="2.2711683064699173e-02" rms="2.8069141507148743e-01" purity="2.3157584667205811e-01" nType="-99"/>
      </Node>
    </BinaryTree>
    <BinaryTree type="DecisionTree" boostWeight="1.0000000000000000e+00" itree="501">
      <Node pos="s" depth="0" NCoef="0" IVar="10" Cut="1.4664882421493530e+00" cType="1" res="-8.2417431985959411e-04" rms="2.8669780492782593e-01" purity="4.9443262815475464e-01" nType="0">
        <Node pos="l" depth="1" NCoef="0" IVar="7" Cut="4.1495251655578613e-01" cType="1" res="7.4155640322715044e-04" rms="2.8703850507736206e-01" purity="5.1770883798599243e-01" nType="0">
          <Node pos="l" depth="2" NCoef="0" IVar="0" Cut="1.0975252685546875e+03" cType="1" res="-1.7805397510528564e-03" rms="2.8991523385047913e-01" purity="5.5291938781738281e-01" nType="0">
            <Node pos="l" depth="3" NCoef="0" IVar="-1" Cut="0.0000000000000000e+00" cType="1" res="-2.8425918892025948e-02" rms="2.0104503631591797e-01" purity="4.9043901264667511e-02" nType="-99"/>
            <Node pos="r" depth="3" NCoef="0" IVar="-1" Cut="0.0000000000000000e+00" cType="1" res="3.9074686355888844e-04" rms="3.0244332551956177e-01" purity="6.3898134231567383e-01" nType="-99"/>
          </Node>
          <Node pos="r" depth="2" NCoef="0" IVar="9" Cut="1.1985092163085938e+00" cType="1" res="6.3484362326562405e-03" rms="2.8045630455017090e-01" purity="4.3943217396736145e-01" nType="0">
            <Node pos="l" depth="3" NCoef="0" IVar="-1" Cut="0.0000000000000000e+00" cType="1" res="1.1552348732948303e-02" rms="2.8479388356208801e-01" purity="4.6685940027236938e-01" nType="-99"/>
            <Node pos="r" depth="3" NCoef="0" IVar="-1" Cut="0.0000000000000000e+00" cType="1" res="-1.4748074114322662e-02" rms="2.5367546081542969e-01" purity="2.8374165296554565e-01" nType="-99"/>
          </Node>
        </Node>
        <Node pos="r" depth="1" NCoef="0" IVar="11" Cut="-2.4476747512817383e+00" cType="1" res="-1.2834549881517887e-02" rms="2.8378364443778992e-01" purity="3.1588566303253174e-01" nType="0">
          <Node pos="l" depth="2" NCoef="0" IVar="9" Cut="-1.3387230038642883e-01" cType="1" res="-1.7319131875410676e-03" rms="2.5762659311294556e-01" purity="1.4251364767551422e-01" nType="0">
            <Node pos="l" depth="3" NCoef="0" IVar="-1" Cut="0.0000000000000000e+00" cType="1" res="2.0970588549971581e-02" rms="2.6625454425811768e-01" purity="1.5853743255138397e-01" nType="-99"/>
            <Node pos="r" depth="3" NCoef="0" IVar="-1" Cut="0.0000000000000000e+00" cType="1" res="-1.8624868243932724e-02" rms="2.5070765614509583e-01" purity="1.3107539713382721e-01" nType="-99"/>
          </Node>
          <Node pos="r" depth="2" NCoef="0" IVar="-1" Cut="0.0000000000000000e+00" cType="1" res="-2.6332363486289978e-02" rms="3.1636148691177368e-01" purity="5.6036972999572754e-01" nType="-99"/>
        </Node>
      </Node>
    </BinaryTree>
    <BinaryTree type="DecisionTree" boostWeight="1.0000000000000000e+00" itree="502">
      <Node pos="s" depth="0" NCoef="0" IVar="8" Cut="4.0000310540199280e-01" cType="1" res="-2.8662767726927996e-03" rms="2.8399908542633057e-01" purity="4.9522057175636292e-01" nType="0">
        <Node pos="l" depth="1" NCoef="0" IVar="4" Cut="9.5941200256347656e+01" cType="1" res="-5.8083282783627510e-03" rms="2.8296136856079102e-01" purity="5.2997779846191406e-01" nType="0">
          <Node pos="l" depth="2" NCoef="0" IVar="10" Cut="-6.6648054122924805e-01" cType="1" res="6.6480552777647972e-03" rms="2.2711023688316345e-01" purity="8.1802271306514740e-02" nType="0">
            <Node pos="l" depth="3" NCoef="0" IVar="-1" Cut="0.0000000000000000e+00" cType="1" res="-1.8059561029076576e-02" rms="1.8082369863986969e-01" purity="5.0168834626674652e-02" nType="-99"/>
            <Node pos="r" depth="3" NCoef="0" IVar="-1" Cut="0.0000000000000000e+00" cType="1" res="2.8542425483465195e-02" rms="2.4978840351104736e-01" purity="1.0021077841520309e-01" nType="-99"/>
          </Node>
          <Node pos="r" depth="2" NCoef="0" IVar="1" Cut="1.3684065639972687e-01" cType="1" res="-7.8327860683202744e-03" rms="2.9097732901573181e-01" purity="6.0281699895858765e-01" nType="0">
            <Node pos="l" depth="3" NCoef="0" IVar="-1" Cut="0.0000000000000000e+00" cType="1" res="-1.1250057257711887e-02" rms="3.0327793955802917e-01" purity="5.1411336660385132e-01" nType="-99"/>
            <Node pos="r" depth="3" NCoef="0" IVar="-1" Cut="0.0000000000000000e+00" cType="1" res="4.7839586623013020e-03" rms="2.4450641870498657e-01" purity="9.0302163362503052e-01" nType="-99"/>
          </Node>
        </Node>
        <Node pos="r" depth="1" NCoef="0" IVar="1" Cut="4.0940031409263611e-02" cType="1" res="2.8978758491575718e-03" rms="2.8593361377716064e-01" purity="4.2712318897247314e-01" nType="0">
          <Node pos="l" depth="2" NCoef="0" IVar="11" Cut="-1.3430360555648804e+00" cType="1" res="-4.8948484472930431e-03" rms="2.4741789698600769e-01" purity="1.6321477293968201e-01" nType="0">
            <Node pos="l" depth="3" NCoef="0" IVar="-1" Cut="0.0000000000000000e+00" cType="1" res="2.5310914497822523e-03" rms="2.2554650902748108e-01" purity="1.0084251314401627e-01" nType="-99"/>
            <Node pos="r" depth="3" NCoef="0" IVar="-1" Cut="0.0000000000000000e+00" cType="1" res="-2.1924631670117378e-02" rms="3.0239531397819519e-01" purity="3.4820324182510376e-01" nType="-99"/>
          </Node>
          <Node pos="r" depth="2" NCoef="0" IVar="1" Cut="9.6472725272178650e-02" cType="1" res="9.9451960995793343e-03" rms="3.1659266352653503e-01" purity="6.6578775644302368e-01" nType="0">
            <Node pos="l" depth="3" NCoef="0" IVar="-1" Cut="0.0000000000000000e+00" cType="1" res="1.6285665333271027e-02" rms="3.3706846833229065e-01" purity="5.4760777950286865e-01" nType="-99"/>
            <Node pos="r" depth="3" NCoef="0" IVar="-1" Cut="0.0000000000000000e+00" cType="1" res="-1.3284892702358775e-05" rms="2.9064592719078064e-01" purity="8.0328106880187988e-01" nType="-99"/>
          </Node>
        </Node>
      </Node>
    </BinaryTree>
    <BinaryTree type="DecisionTree" boostWeight="1.0000000000000000e+00" itree="503">
      <Node pos="s" depth="0" NCoef="0" IVar="9" Cut="-1.4666748046875000e+00" cType="1" res="-6.2356016132980585e-04" rms="2.8684186935424805e-01" purity="4.9626314640045166e-01" nType="0">
        <Node pos="l" depth="1" NCoef="0" IVar="1" Cut="3.6597177386283875e-02" cType="1" res="-1.5558983199298382e-02" rms="2.6343443989753723e-01" purity="1.9371722638607025e-01" nType="0">
          <Node pos="l" depth="2" NCoef="0" IVar="7" Cut="-7.8658521175384521e-02" cType="1" res="3.5969747113995254e-04" rms="2.1056909859180450e-01" purity="8.9589275419712067e-02" nType="0">
            <Node pos="l" depth="3" NCoef="0" IVar="-1" Cut="0.0000000000000000e+00" cType="1" res="1.5743911266326904e-02" rms="2.2538970410823822e-01" purity="9.6877895295619965e-02" nType="-99"/>
            <Node pos="r" depth="3" NCoef="0" IVar="-1" Cut="0.0000000000000000e+00" cType="1" res="-1.5404059551656246e-02" rms="1.9357563555240631e-01" purity="8.1966176629066467e-02" nType="-99"/>
          </Node>
          <Node pos="r" depth="2" NCoef="0" IVar="-1" Cut="0.0000000000000000e+00" cType="1" res="-3.2736506313085556e-02" rms="3.2404425740242004e-01" purity="3.4544929862022400e-01" nType="-99"/>
        </Node>
        <Node pos="r" depth="1" NCoef="0" IVar="7" Cut="-3.7999176979064941e-01" cType="1" res="8.4499741205945611e-04" rms="2.8899943828582764e-01" purity="5.2601164579391479e-01" nType="0">
          <Node pos="l" depth="2" NCoef="0" IVar="6" Cut="6.0199687957763672e+01" cType="1" res="-4.4024004600942135e-03" rms="2.8401660919189453e-01" purity="4.3846458196640015e-01" nType="0">
            <Node pos="l" depth="3" NCoef="0" IVar="-1" Cut="0.0000000000000000e+00" cType="1" res="-3.5489173023961484e-04" rms="2.9056385159492493e-01" purity="2.3930694162845612e-01" nType="-99"/>
            <Node pos="r" depth="3" NCoef="0" IVar="-1" Cut="0.0000000000000000e+00" cType="1" res="-1.5307938680052757e-02" rms="2.7232164144515991e-01" purity="7.7879112958908081e-01" nType="-99"/>
          </Node>
          <Node pos="r" depth="2" NCoef="0" IVar="10" Cut="-1.3335125148296356e-01" cType="1" res="3.3183523919433355e-03" rms="2.9128575325012207e-01" purity="5.6727683544158936e-01" nType="0">
            <Node pos="l" depth="3" NCoef="0" IVar="-1" Cut="0.0000000000000000e+00" cType="1" res="1.0782320983707905e-02" rms="2.9230350255966187e-01" purity="5.7534402608871460e-01" nType="-99"/>
            <Node pos="r" depth="3" NCoef="0" IVar="-1" Cut="0.0000000000000000e+00" cType="1" res="-1.3259258121252060e-03" rms="2.9041999578475952e-01" purity="5.6106096506118774e-01" nType="-99"/>
          </Node>
        </Node>
      </Node>
    </BinaryTree>
    <BinaryTree type="DecisionTree" boostWeight="1.0000000000000000e+00" itree="504">
      <Node pos="s" depth="0" NCoef="0" IVar="1" Cut="4.3801289051771164e-02" cType="1" res="3.2505893614143133e-03" rms="2.8778916597366333e-01" purity="4.9931108951568604e-01" nType="0">
        <Node pos="l" depth="1" NCoef="0" IVar="8" Cut="1.2000445127487183e+00" cType="1" res="9.8254755139350891e-03" rms="2.7320986986160278e-01" purity="2.2228406369686127e-01" nType="0">
          <Node pos="l" depth="2" NCoef="0" IVar="1" Cut="3.7545096129179001e-02" cType="1" res="1.3133263215422630e-02" rms="2.8473299741744995e-01" purity="2.5141093134880066e-01" nType="0">
            <Node pos="l" depth="3" NCoef="0" IVar="-1" Cut="0.0000000000000000e+00" cType="1" res="1.3890059664845467e-02" rms="2.7672332525253296e-01" purity="2.1796736121177673e-01" nType="-99"/>
            <Node pos="r" depth="3" NCoef="0" IVar="-1" Cut="0.0000000000000000e+00" cType="1" res="3.0018147081136703e-02" rms="3.3862283825874329e-01" purity="5.0449925661087036e-01" nType="-99"/>
          </Node>
          <Node pos="r" depth="2" NCoef="0" IVar="10" Cut="6.6674339771270752e-01" cType="1" res="-5.1321261562407017e-03" rms="2.1283267438411713e-01" purity="9.0574309229850769e-02" nType="0">
            <Node pos="l" depth="3" NCoef="0" IVar="-1" Cut="0.0000000000000000e+00" cType="1" res="-2.2752022370696068e-02" rms="2.0122376084327698e-01" purity="8.3305701613426208e-02" nType="-99"/>
            <Node pos="r" depth="3" NCoef="0" IVar="-1" Cut="0.0000000000000000e+00" cType="1" res="1.0504068806767464e-02" rms="2.2978366911411285e-01" purity="1.0218985378742218e-01" nType="-99"/>
          </Node>
        </Node>
        <Node pos="r" depth="1" NCoef="0" IVar="8" Cut="-1.1899088621139526e+00" cType="1" res="-1.6971165314316750e-03" rms="2.9819524288177490e-01" purity="7.0777827501296997e-01" nType="0">
          <Node pos="l" depth="2" NCoef="0" IVar="-1" Cut="0.0000000000000000e+00" cType="1" res="1.9442250952124596e-02" rms="3.3798360824584961e-01" purity="5.0621730089187622e-01" nType="-99"/>
          <Node pos="r" depth="2" NCoef="0" IVar="8" Cut="1.0375838279724121e+00" cType="1" res="-3.0861559789627790e-03" rms="2.9546988010406494e-01" purity="7.2040110826492310e-01" nType="0">
            <Node pos="l" depth="3" NCoef="0" IVar="-1" Cut="0.0000000000000000e+00" cType="1" res="-6.1355512589216232e-03" rms="2.9073330760002136e-01" purity="7.4036031961441040e-01" nType="-99"/>
            <Node pos="r" depth="3" NCoef="0" IVar="-1" Cut="0.0000000000000000e+00" cType="1" res="1.5404535457491875e-02" rms="3.3489584922790527e-01" purity="5.3866928815841675e-01" nType="-99"/>
          </Node>
        </Node>
      </Node>
    </BinaryTree>
    <BinaryTree type="DecisionTree" boostWeight="1.0000000000000000e+00" itree="505">
      <Node pos="s" depth="0" NCoef="0" IVar="10" Cut="1.7331390380859375e+00" cType="1" res="-8.6723925778642297e-04" rms="2.8367668390274048e-01" purity="5.0109326839447021e-01" nType="0">
        <Node pos="l" depth="1" NCoef="0" IVar="10" Cut="6.5388101339340210e-01" cType="1" res="1.1215978884138167e-04" rms="2.8378280997276306e-01" purity="5.1947319507598877e-01" nType="0">
          <Node pos="l" depth="2" NCoef="0" IVar="11" Cut="1.4187746047973633e+00" cType="1" res="-2.2950249258428812e-03" rms="2.7983084321022034e-01" purity="5.1844084262847900e-01" nType="0">
            <Node pos="l" depth="3" NCoef="0" IVar="-1" Cut="0.0000000000000000e+00" cType="1" res="-4.1830167174339294e-03" rms="2.7827942371368408e-01" purity="5.0868403911590576e-01" nType="-99"/>
            <Node pos="r" depth="3" NCoef="0" IVar="-1" Cut="0.0000000000000000e+00" cType="1" res="1.6772946342825890e-02" rms="3.0391955375671387e-01" purity="6.8110102415084839e-01" nType="-99"/>
          </Node>
          <Node pos="r" depth="2" NCoef="0" IVar="9" Cut="-9.3234497308731079e-01" cType="1" res="7.7145732939243317e-03" rms="2.9578903317451477e-01" purity="5.2273350954055786e-01" nType="0">
            <Node pos="l" depth="3" NCoef="0" IVar="-1" Cut="0.0000000000000000e+00" cType="1" res="-1.8143000081181526e-02" rms="2.9686319828033447e-01" purity="3.5233792662620544e-01" nType="-99"/>
            <Node pos="r" depth="3" NCoef="0" IVar="-1" Cut="0.0000000000000000e+00" cType="1" res="1.3850810937583447e-02" rms="2.9538261890411377e-01" purity="5.5433440208435059e-01" nType="-99"/>
          </Node>
        </Node>
        <Node pos="r" depth="1" NCoef="0" IVar="4" Cut="1.2373486328125000e+02" cType="1" res="-1.2743952684104443e-02" rms="2.8211605548858643e-01" purity="2.7820879220962524e-01" nType="0">
          <Node pos="l" depth="2" NCoef="0" IVar="-1" Cut="0.0000000000000000e+00" cType="1" res="-5.0028990954160690e-02" rms="2.1228410303592682e-01" purity="7.9779312014579773e-02" nType="-99"/>
          <Node pos="r" depth="2" NCoef="0" IVar="-1" Cut="0.0000000000000000e+00" cType="1" res="-5.4469722090288997e-04" rms="3.2381856441497803e-01" purity="4.2544329166412354e-01" nType="-99"/>
        </Node>
      </Node>
    </BinaryTree>
    <BinaryTree type="DecisionTree" boostWeight="1.0000000000000000e+00" itree="506">
      <Node pos="s" depth="0" NCoef="0" IVar="2" Cut="7.4322851562500000e+02" cType="1" res="1.8878111150115728e-03" rms="2.8316310048103333e-01" purity="5.0207614898681641e-01" nType="0">
        <Node pos="l" depth="1" NCoef="0" IVar="7" Cut="6.8017297983169556e-01" cType="1" res="2.5210096500813961e-03" rms="2.8196650743484497e-01" purity="5.0024497509002686e-01" nType="0">
          <Node pos="l" depth="2" NCoef="0" IVar="8" Cut="-1.7329835891723633e+00" cType="1" res="4.4110598973929882e-03" rms="2.8582292795181274e-01" purity="5.5025422573089600e-01" nType="0">
            <Node pos="l" depth="3" NCoef="0" IVar="-1" Cut="0.0000000000000000e+00" cType="1" res="-3.5267397761344910e-02" rms="2.0003709197044373e-01" purity="1.0145889967679977e-01" nType="-99"/>
            <Node pos="r" depth="3" NCoef="0" IVar="-1" Cut="0.0000000000000000e+00" cType="1" res="6.2845898792147636e-03" rms="2.8915157914161682e-01" purity="5.7110297679901123e-01" nType="-99"/>
          </Node>
          <Node pos="r" depth="2" NCoef="0" IVar="9" Cut="-6.6698014736175537e-01" cType="1" res="-4.1127675212919712e-03" rms="2.6788663864135742e-01" purity="3.2472029328346252e-01" nType="0">
            <Node pos="l" depth="3" NCoef="0" IVar="-1" Cut="0.0000000000000000e+00" cType="1" res="-2.8607651591300964e-02" rms="2.4878159165382385e-01" purity="1.7918607592582703e-01" nType="-99"/>
            <Node pos="r" depth="3" NCoef="0" IVar="-1" Cut="0.0000000000000000e+00" cType="1" res="7.2600494604557753e-04" rms="2.7371552586555481e-01" purity="3.7257769703865051e-01" nType="-99"/>
          </Node>
        </Node>
        <Node pos="r" depth="1" NCoef="0" IVar="-1" Cut="0.0000000000000000e+00" cType="1" res="-1.7481952905654907e-02" rms="3.2071241736412048e-01" purity="5.6479030847549438e-01" nType="-99"/>
      </Node>
    </BinaryTree>
    <BinaryTree type="DecisionTree" boostWeight="1.0000000000000000e+00" itree="507">
      <Node pos="s" depth="0" NCoef="0" IVar="6" Cut="5.3411075592041016e+01" cType="1" res="7.6906610047444701e-04" rms="2.8905245661735535e-01" purity="4.9985799193382263e-01" nType="0">
        <Node pos="l" depth="1" NCoef="0" IVar="9" Cut="1.3359634578227997e-01" cType="1" res="5.4050725884735584e-03" rms="2.9989942908287048e-01" purity="2.5238597393035889e-01" nType="0">
          <Node pos="l" depth="2" NCoef="0" IVar="5" Cut="1.0398292541503906e+02" cType="1" res="1.2281139381229877e-02" rms="3.0407902598381042e-01" purity="2.6844528317451477e-01" nType="0">
            <Node pos="l" depth="3" NCoef="0" IVar="-1" Cut="0.0000000000000000e+00" cType="1" res="1.0696175508201122e-02" rms="2.9833373427391052e-01" purity="2.2524745762348175e-01" nType="-99"/>
            <Node pos="r" depth="3" NCoef="0" IVar="-1" Cut="0.0000000000000000e+00" cType="1" res="3.4970760345458984e-02" rms="3.5309183597564697e-01" purity="6.8120443820953369e-01" nType="-99"/>
          </Node>
          <Node pos="r" depth="2" NCoef="0" IVar="8" Cut="9.3327063322067261e-01" cType="1" res="-2.8367859777063131e-03" rms="2.9460015892982483e-01" purity="2.3313680291175842e-01" nType="0">
            <Node pos="l" depth="3" NCoef="0" IVar="-1" Cut="0.0000000000000000e+00" cType="1" res="-6.2145530246198177e-03" rms="3.0520647764205933e-01" purity="2.6576763391494751e-01" nType="-99"/>
            <Node pos="r" depth="3" NCoef="0" IVar="-1" Cut="0.0000000000000000e+00" cType="1" res="1.0000423528254032e-02" rms="2.5877177715301514e-01" purity="1.3202904164791107e-01" nType="-99"/>
          </Node>
        </Node>
        <Node pos="r" depth="1" NCoef="0" IVar="0" Cut="1.6414532470703125e+03" cType="1" res="-4.3516466394066811e-03" rms="2.7648708224296570e-01" purity="7.7320379018783569e-01" nType="0">
          <Node pos="l" depth="2" NCoef="0" IVar="8" Cut="1.3270786404609680e-01" cType="1" res="-1.3848697766661644e-02" rms="3.3746302127838135e-01" purity="5.8586055040359497e-01" nType="0">
            <Node pos="l" depth="3" NCoef="0" IVar="-1" Cut="0.0000000000000000e+00" cType="1" res="-2.0422952249646187e-02" rms="3.4079468250274658e-01" purity="5.8813786506652832e-01" nType="-99"/>
            <Node pos="r" depth="3" NCoef="0" IVar="-1" Cut="0.0000000000000000e+00" cType="1" res="-1.3872386189177632e-03" rms="3.3291131258010864e-01" purity="5.8305758237838745e-01" nType="-99"/>
          </Node>
          <Node pos="r" depth="2" NCoef="0" IVar="9" Cut="9.3301826715469360e-01" cType="1" res="2.6336677838116884e-03" rms="2.2089529037475586e-01" purity="9.1099935770034790e-01" nType="0">
            <Node pos="l" depth="3" NCoef="0" IVar="-1" Cut="0.0000000000000000e+00" cType="1" res="1.5716627240180969e-03" rms="2.1265408396720886e-01" purity="9.1932886838912964e-01" nType="-99"/>
            <Node pos="r" depth="3" NCoef="0" IVar="-1" Cut="0.0000000000000000e+00" cType="1" res="1.9878882914781570e-02" rms="2.7002963423728943e-01" purity="8.5431694984436035e-01" nType="-99"/>
          </Node>
        </Node>
      </Node>
    </BinaryTree>
    <BinaryTree type="DecisionTree" boostWeight="1.0000000000000000e+00" itree="508">
      <Node pos="s" depth="0" NCoef="0" IVar="9" Cut="6.6563928127288818e-01" cType="1" res="1.6018592286854982e-03" rms="2.8665167093276978e-01" purity="5.0530165433883667e-01" nType="0">
        <Node pos="l" depth="1" NCoef="0" IVar="10" Cut="9.3326783180236816e-01" cType="1" res="-2.0092974882572889e-03" rms="2.8483599424362183e-01" purity="5.3514444828033447e-01" nType="0">
          <Node pos="l" depth="2" NCoef="0" IVar="2" Cut="6.7411810302734375e+02" cType="1" res="3.8718362338840961e-04" rms="2.8401646018028259e-01" purity="5.5513036251068115e-01" nType="0">
            <Node pos="l" depth="3" NCoef="0" IVar="-1" Cut="0.0000000000000000e+00" cType="1" res="-1.1562613071873784e-03" rms="2.8254735469818115e-01" purity="5.4937791824340820e-01" nType="-99"/>
            <Node pos="r" depth="3" NCoef="0" IVar="-1" Cut="0.0000000000000000e+00" cType="1" res="2.2089190781116486e-02" rms="3.0717238783836365e-01" purity="6.5344470739364624e-01" nType="-99"/>
          </Node>
          <Node pos="r" depth="2" NCoef="0" IVar="11" Cut="-5.1467674970626831e-01" cType="1" res="-1.1364758946001530e-02" rms="2.8782212734222412e-01" purity="4.5712277293205261e-01" nType="0">
            <Node pos="l" depth="3" NCoef="0" IVar="-1" Cut="0.0000000000000000e+00" cType="1" res="-2.0267788320779800e-02" rms="2.8709930181503296e-01" purity="3.0476513504981995e-01" nType="-99"/>
            <Node pos="r" depth="3" NCoef="0" IVar="-1" Cut="0.0000000000000000e+00" cType="1" res="-7.6679303310811520e-04" rms="2.8877723217010498e-01" purity="7.2493648529052734e-01" nType="-99"/>
          </Node>
        </Node>
        <Node pos="r" depth="1" NCoef="0" IVar="3" Cut="2.8365109252929688e+02" cType="1" res="1.1633435264229774e-02" rms="2.9140147566795349e-01" purity="4.2240020632743835e-01" nType="0">
          <Node pos="l" depth="2" NCoef="0" IVar="10" Cut="1.3321231305599213e-01" cType="1" res="5.2896933630108833e-03" rms="2.8645446896553040e-01" purity="3.5037118196487427e-01" nType="0">
            <Node pos="l" depth="3" NCoef="0" IVar="-1" Cut="0.0000000000000000e+00" cType="1" res="1.9277084618806839e-02" rms="2.8866013884544373e-01" purity="3.6136597394943237e-01" nType="-99"/>
            <Node pos="r" depth="3" NCoef="0" IVar="-1" Cut="0.0000000000000000e+00" cType="1" res="-6.0415733605623245e-03" rms="2.8396636247634888e-01" purity="3.3994081616401672e-01" nType="-99"/>
          </Node>
          <Node pos="r" depth="2" NCoef="0" IVar="4" Cut="2.1336231994628906e+02" cType="1" res="3.2647084444761276e-02" rms="3.0628290772438049e-01" purity="6.6099649667739868e-01" nType="0">
            <Node pos="l" depth="3" NCoef="0" IVar="-1" Cut="0.0000000000000000e+00" cType="1" res="5.5291254073381424e-02" rms="3.3865451812744141e-01" purity="5.3479826450347900e-01" nType="-99"/>
            <Node pos="r" depth="3" NCoef="0" IVar="-1" Cut="0.0000000000000000e+00" cType="1" res="1.1974840424954891e-02" rms="2.7129450440406799e-01" purity="7.7667480707168579e-01" nType="-99"/>
          </Node>
        </Node>
      </Node>
    </BinaryTree>
    <BinaryTree type="DecisionTree" boostWeight="1.0000000000000000e+00" itree="509">
      <Node pos="s" depth="0" NCoef="0" IVar="9" Cut="1.4666383266448975e+00" cType="1" res="-1.8203875515609980e-03" rms="2.8277757763862610e-01" purity="4.9879187345504761e-01" nType="0">
        <Node pos="l" depth="1" NCoef="0" IVar="10" Cut="-1.7329944372177124e+00" cType="1" res="-3.1711403280496597e-03" rms="2.8371798992156982e-01" purity="5.2402681112289429e-01" nType="0">
          <Node pos="l" depth="2" NCoef="0" IVar="7" Cut="1.6573105752468109e-01" cType="1" res="1.1668964289128780e-02" rms="2.9016160964965820e-01" purity="3.0563631653785706e-01" nType="0">
            <Node pos="l" depth="3" NCoef="0" IVar="-1" Cut="0.0000000000000000e+00" cType="1" res="-5.8331768959760666e-03" rms="2.8235575556755066e-01" purity="3.0307269096374512e-01" nType="-99"/>
            <Node pos="r" depth="3" NCoef="0" IVar="-1" Cut="0.0000000000000000e+00" cType="1" res="4.5036301016807556e-02" rms="3.0018472671508789e-01" purity="3.0966144800186157e-01" nType="-99"/>
          </Node>
          <Node pos="r" depth="2" NCoef="0" IVar="11" Cut="-1.3429595232009888e+00" cType="1" res="-4.4863228686153889e-03" rms="2.8310233354568481e-01" purity="5.4338127374649048e-01" nType="0">
            <Node pos="l" depth="3" NCoef="0" IVar="-1" Cut="0.0000000000000000e+00" cType="1" res="-9.5996083691716194e-03" rms="2.9771673679351807e-01" purity="3.0911627411842346e-01" nType="-99"/>
            <Node pos="r" depth="3" NCoef="0" IVar="-1" Cut="0.0000000000000000e+00" cType="1" res="1.4555918460246176e-04" rms="2.6681518554687500e-01" purity="7.8943037986755371e-01" nType="-99"/>
          </Node>
        </Node>
        <Node pos="r" depth="1" NCoef="0" IVar="8" Cut="4.0049672126770020e-01" cType="1" res="1.2101785279810429e-02" rms="2.7250632643699646e-01" purity="2.3869639635086060e-01" nType="0">
          <Node pos="l" depth="2" NCoef="0" IVar="8" Cut="-5.1310080289840698e-01" cType="1" res="2.4062501266598701e-02" rms="2.8728219866752625e-01" purity="2.7852073311805725e-01" nType="0">
            <Node pos="l" depth="3" NCoef="0" IVar="-1" Cut="0.0000000000000000e+00" cType="1" res="9.7039248794317245e-03" rms="2.3506687581539154e-01" purity="1.5750719606876373e-01" nType="-99"/>
            <Node pos="r" depth="3" NCoef="0" IVar="-1" Cut="0.0000000000000000e+00" cType="1" res="4.1887696832418442e-02" rms="3.2928445935249329e-01" purity="3.9640155434608459e-01" nType="-99"/>
          </Node>
          <Node pos="r" depth="2" NCoef="0" IVar="-1" Cut="0.0000000000000000e+00" cType="1" res="-5.3926859982311726e-03" rms="2.5047954916954041e-01" purity="1.8538849055767059e-01" nType="-99"/>
        </Node>
      </Node>
    </BinaryTree>
    <BinaryTree type="DecisionTree" boostWeight="1.0000000000000000e+00" itree="510">
      <Node pos="s" depth="0" NCoef="0" IVar="10" Cut="-1.9999306201934814e+00" cType="1" res="-7.3467468610033393e-04" rms="2.8567895293235779e-01" purity="5.0218689441680908e-01" nType="0">
        <Node pos="l" depth="1" NCoef="0" IVar="-1" Cut="0.0000000000000000e+00" cType="1" res="2.2559691220521927e-02" rms="2.8131848573684692e-01" purity="2.5331160426139832e-01" nType="-99"/>
        <Node pos="r" depth="1" NCoef="0" IVar="5" Cut="7.0670654296875000e+01" cType="1" res="-1.6865800134837627e-03" rms="2.8586581349372864e-01" purity="5.1482504606246948e-01" nType="0">
          <Node pos="l" depth="2" NCoef="0" IVar="7" Cut="-8.8726019859313965e-01" cType="1" res="-7.2254757396876812e-03" rms="2.8329673409461975e-01" purity="1.9024355709552765e-01" nType="0">
            <Node pos="l" depth="3" NCoef="0" IVar="-1" Cut="0.0000000000000000e+00" cType="1" res="2.2417260333895683e-02" rms="2.2802107036113739e-01" purity="8.9536726474761963e-02" nType="-99"/>
            <Node pos="r" depth="3" NCoef="0" IVar="-1" Cut="0.0000000000000000e+00" cType="1" res="-1.2812382541596889e-02" rms="2.9543757438659668e-01" purity="2.1563455462455750e-01" nType="-99"/>
          </Node>
          <Node pos="r" depth="2" NCoef="0" IVar="9" Cut="6.6617751121520996e-01" cType="1" res="1.8783156992867589e-03" rms="2.8745070099830627e-01" purity="7.2372931241989136e-01" nType="0">
            <Node pos="l" depth="3" NCoef="0" IVar="-1" Cut="0.0000000000000000e+00" cType="1" res="6.1846342869102955e-03" rms="2.8152349591255188e-01" purity="7.5250834226608276e-01" nType="-99"/>
            <Node pos="r" depth="3" NCoef="0" IVar="-1" Cut="0.0000000000000000e+00" cType="1" res="-9.4225825741887093e-03" rms="3.0613240599632263e-01" purity="6.2784171104431152e-01" nType="-99"/>
          </Node>
        </Node>
      </Node>
    </BinaryTree>
    <BinaryTree type="DecisionTree" boostWeight="1.0000000000000000e+00" itree="511">
      <Node pos="s" depth="0" NCoef="0" IVar="2" Cut="6.1930303955078125e+02" cType="1" res="9.0193736832588911e-04" rms="2.8422477841377258e-01" purity="5.0231850147247314e-01" nType="0">
        <Node pos="l" depth="1" NCoef="0" IVar="8" Cut="1.3357669115066528e-01" cType="1" res="2.3638408165425062e-03" rms="2.8220590949058533e-01" purity="4.9786314368247986e-01" nType="0">
          <Node pos="l" depth="2" NCoef="0" IVar="9" Cut="-6.6644859313964844e-01" cType="1" res="-1.7109563341364264e-03" rms="2.7905350923538208e-01" purity="5.0925856828689575e-01" nType="0">
            <Node pos="l" depth="3" NCoef="0" IVar="-1" Cut="0.0000000000000000e+00" cType="1" res="-1.3637667521834373e-02" rms="2.7380722761154175e-01" purity="4.0283074975013733e-01" nType="-99"/>
            <Node pos="r" depth="3" NCoef="0" IVar="-1" Cut="0.0000000000000000e+00" cType="1" res="2.6832136791199446e-03" rms="2.8112232685089111e-01" purity="5.5363255739212036e-01" nType="-99"/>
          </Node>
          <Node pos="r" depth="2" NCoef="0" IVar="7" Cut="1.4750276803970337e+00" cType="1" res="7.4014398269355297e-03" rms="2.8597486019134521e-01" purity="4.8377522826194763e-01" nType="0">
            <Node pos="l" depth="3" NCoef="0" IVar="-1" Cut="0.0000000000000000e+00" cType="1" res="1.0440045967698097e-02" rms="2.9287227988243103e-01" purity="5.1237493753433228e-01" nType="-99"/>
            <Node pos="r" depth="3" NCoef="0" IVar="-1" Cut="0.0000000000000000e+00" cType="1" res="-4.3164405971765518e-02" rms="1.6083475947380066e-01" purity="8.7577342987060547e-02" nType="-99"/>
          </Node>
        </Node>
        <Node pos="r" depth="1" NCoef="0" IVar="6" Cut="6.6376380920410156e+01" cType="1" res="-1.7476169392466545e-02" rms="3.0788803100585938e-01" purity="5.5832791328430176e-01" nType="0">
          <Node pos="l" depth="2" NCoef="0" IVar="-1" Cut="0.0000000000000000e+00" cType="1" res="-2.3361951112747192e-02" rms="3.3575817942619324e-01" purity="3.7197625637054443e-01" nType="-99"/>
          <Node pos="r" depth="2" NCoef="0" IVar="-1" Cut="0.0000000000000000e+00" cType="1" res="-3.1448819208890200e-03" rms="2.5355643033981323e-01" purity="8.7135022878646851e-01" nType="-99"/>
        </Node>
      </Node>
    </BinaryTree>
    <BinaryTree type="DecisionTree" boostWeight="1.0000000000000000e+00" itree="512">
      <Node pos="s" depth="0" NCoef="0" IVar="9" Cut="-1.1998472213745117e+00" cType="1" res="-1.6133328899741173e-03" rms="2.8514176607131958e-01" purity="5.0110560655593872e-01" nType="0">
        <Node pos="l" depth="1" NCoef="0" IVar="8" Cut="-4.0035817027091980e-01" cType="1" res="1.0225360281765461e-02" rms="2.8842478990554810e-01" purity="2.8579476475715637e-01" nType="0">
          <Node pos="l" depth="2" NCoef="0" IVar="10" Cut="-4.0185251832008362e-01" cType="1" res="2.2636242210865021e-02" rms="2.8621676564216614e-01" purity="2.8606152534484863e-01" nType="0">
            <Node pos="l" depth="3" NCoef="0" IVar="-1" Cut="0.0000000000000000e+00" cType="1" res="8.5869496688246727e-03" rms="2.6520904898643494e-01" purity="2.2796301543712616e-01" nType="-99"/>
            <Node pos="r" depth="3" NCoef="0" IVar="-1" Cut="0.0000000000000000e+00" cType="1" res="4.6442791819572449e-02" rms="3.0412852764129639e-01" purity="3.4154835343360901e-01" nType="-99"/>
          </Node>
          <Node pos="r" depth="2" NCoef="0" IVar="7" Cut="-4.9405608326196671e-02" cType="1" res="7.7391567174345255e-04" rms="2.8973865509033203e-01" purity="2.8559160232543945e-01" nType="0">
            <Node pos="l" depth="3" NCoef="0" IVar="-1" Cut="0.0000000000000000e+00" cType="1" res="2.4059643968939781e-02" rms="2.9796570539474487e-01" purity="3.0820879340171814e-01" nType="-99"/>
            <Node pos="r" depth="3" NCoef="0" IVar="-1" Cut="0.0000000000000000e+00" cType="1" res="-2.2570207715034485e-02" rms="2.7949842810630798e-01" purity="2.6209715008735657e-01" nType="-99"/>
          </Node>
        </Node>
        <Node pos="r" depth="1" NCoef="0" IVar="2" Cut="3.1621319580078125e+02" cType="1" res="-3.4332184586673975e-03" rms="2.8459006547927856e-01" purity="5.3420394659042358e-01" nType="0">
          <Node pos="l" depth="2" NCoef="0" IVar="11" Cut="-5.1467674970626831e-01" cType="1" res="-7.7984104864299297e-03" rms="2.8807047009468079e-01" purity="4.4318076968193054e-01" nType="0">
            <Node pos="l" depth="3" NCoef="0" IVar="-1" Cut="0.0000000000000000e+00" cType="1" res="-1.6393672674894333e-02" rms="2.8708201646804810e-01" purity="2.8925219178199768e-01" nType="-99"/>
            <Node pos="r" depth="3" NCoef="0" IVar="-1" Cut="0.0000000000000000e+00" cType="1" res="3.6357576027512550e-03" rms="2.8964814543724060e-01" purity="7.4003398418426514e-01" nType="-99"/>
          </Node>
          <Node pos="r" depth="2" NCoef="0" IVar="8" Cut="6.6676700115203857e-01" cType="1" res="-7.3175667785108089e-04" rms="2.8238087892532349e-01" purity="5.9053492546081543e-01" nType="0">
            <Node pos="l" depth="3" NCoef="0" IVar="-1" Cut="0.0000000000000000e+00" cType="1" res="4.2554833926260471e-03" rms="2.8405413031578064e-01" purity="6.3708388805389404e-01" nType="-99"/>
            <Node pos="r" depth="3" NCoef="0" IVar="-1" Cut="0.0000000000000000e+00" cType="1" res="-1.8348217010498047e-02" rms="2.7616816759109497e-01" purity="4.3319240212440491e-01" nType="-99"/>
          </Node>
        </Node>
      </Node>
    </BinaryTree>
    <BinaryTree type="DecisionTree" boostWeight="1.0000000000000000e+00" itree="513">
      <Node pos="s" depth="0" NCoef="0" IVar="11" Cut="3.8066864013671875e-02" cType="1" res="1.3915563467890024e-03" rms="2.8956231474876404e-01" purity="5.0203114748001099e-01" nType="0">
        <Node pos="l" depth="1" NCoef="0" IVar="10" Cut="-6.6673243045806885e-01" cType="1" res="3.6549153737723827e-03" rms="2.9224002361297607e-01" purity="4.1832286119461060e-01" nType="0">
          <Node pos="l" depth="2" NCoef="0" IVar="7" Cut="-1.1580348014831543e-01" cType="1" res="-5.4812822490930557e-03" rms="2.8187912702560425e-01" purity="3.6197379231452942e-01" nType="0">
            <Node pos="l" depth="3" NCoef="0" IVar="-1" Cut="0.0000000000000000e+00" cType="1" res="1.9630689639598131e-03" rms="2.8272151947021484e-01" purity="3.5640370845794678e-01" nType="-99"/>
            <Node pos="r" depth="3" NCoef="0" IVar="-1" Cut="0.0000000000000000e+00" cType="1" res="-1.6083890572190285e-02" rms="2.8071224689483643e-01" purity="3.6826616525650024e-01" nType="-99"/>
          </Node>
          <Node pos="r" depth="2" NCoef="0" IVar="5" Cut="1.0026606750488281e+02" cType="1" res="7.7787707559764385e-03" rms="2.9670608043670654e-01" purity="4.4375738501548767e-01" nType="0">
            <Node pos="l" depth="3" NCoef="0" IVar="-1" Cut="0.0000000000000000e+00" cType="1" res="1.1473521590232849e-02" rms="3.0968183279037476e-01" purity="3.0175817012786865e-01" nType="-99"/>
            <Node pos="r" depth="3" NCoef="0" IVar="-1" Cut="0.0000000000000000e+00" cType="1" res="-9.1226678341627121e-04" rms="2.5635400414466858e-01" purity="8.4479117393493652e-01" nType="-99"/>
          </Node>
        </Node>
        <Node pos="r" depth="1" NCoef="0" IVar="10" Cut="1.4659066200256348e+00" cType="1" res="-5.2052820101380348e-03" rms="2.8150877356529236e-01" purity="7.4600911140441895e-01" nType="0">
          <Node pos="l" depth="2" NCoef="0" IVar="2" Cut="4.1525119018554688e+02" cType="1" res="-2.5056141894310713e-03" rms="2.7615135908126831e-01" purity="7.6680696010589600e-01" nType="0">
            <Node pos="l" depth="3" NCoef="0" IVar="-1" Cut="0.0000000000000000e+00" cType="1" res="3.1951069831848145e-03" rms="2.8410935401916504e-01" purity="7.4900180101394653e-01" nType="-99"/>
            <Node pos="r" depth="3" NCoef="0" IVar="-1" Cut="0.0000000000000000e+00" cType="1" res="-1.5937514603137970e-02" rms="2.6166519522666931e-01" purity="7.9742199182510376e-01" nType="-99"/>
          </Node>
          <Node pos="r" depth="2" NCoef="0" IVar="-1" Cut="0.0000000000000000e+00" cType="1" res="-2.9018076136708260e-02" rms="3.2566586136817932e-01" purity="5.5460441112518311e-01" nType="-99"/>
        </Node>
      </Node>
    </BinaryTree>
    <BinaryTree type="DecisionTree" boostWeight="1.0000000000000000e+00" itree="514">
      <Node pos="s" depth="0" NCoef="0" IVar="11" Cut="3.1425476074218750e-01" cType="1" res="1.5910045476630330e-03" rms="2.8607904911041260e-01" purity="5.0507360696792603e-01" nType="0">
        <Node pos="l" depth="1" NCoef="0" IVar="10" Cut="-1.9999767541885376e+00" cType="1" res="-1.2668462004512548e-03" rms="2.8501760959625244e-01" purity="4.4086304306983948e-01" nType="0">
          <Node pos="l" depth="2" NCoef="0" IVar="-1" Cut="0.0000000000000000e+00" cType="1" res="2.2553618997335434e-02" rms="2.6946538686752319e-01" purity="2.1273635327816010e-01" nType="-99"/>
          <Node pos="r" depth="2" NCoef="0" IVar="3" Cut="3.8553573608398438e+02" cType="1" res="-2.3126318119466305e-03" rms="2.8588497638702393e-01" purity="4.5447656512260437e-01" nType="0">
            <Node pos="l" depth="3" NCoef="0" IVar="-1" Cut="0.0000000000000000e+00" cType="1" res="-1.3420187169685960e-03" rms="2.8494486212730408e-01" purity="4.3049877882003784e-01" nType="-99"/>
            <Node pos="r" depth="3" NCoef="0" IVar="-1" Cut="0.0000000000000000e+00" cType="1" res="-1.8658652901649475e-02" rms="2.9562094807624817e-01" purity="7.1573853492736816e-01" nType="-99"/>
          </Node>
        </Node>
        <Node pos="r" depth="1" NCoef="0" IVar="4" Cut="1.2009868621826172e+02" cType="1" res="1.2369226664304733e-02" rms="2.8979375958442688e-01" purity="7.4724012613296509e-01" nType="0">
          <Node pos="l" depth="2" NCoef="0" IVar="-1" Cut="0.0000000000000000e+00" cType="1" res="3.9071410894393921e-02" rms="3.4671434760093689e-01" purity="3.8327077031135559e-01" nType="-99"/>
          <Node pos="r" depth="2" NCoef="0" IVar="1" Cut="4.2541228234767914e-02" cType="1" res="6.1855465173721313e-03" rms="2.7764451503753662e-01" purity="8.1401872634887695e-01" nType="0">
            <Node pos="l" depth="3" NCoef="0" IVar="-1" Cut="0.0000000000000000e+00" cType="1" res="1.9240889698266983e-02" rms="3.3479821681976318e-01" purity="5.2856665849685669e-01" nType="-99"/>
            <Node pos="r" depth="3" NCoef="0" IVar="-1" Cut="0.0000000000000000e+00" cType="1" res="2.1982141770422459e-03" rms="2.5926342606544495e-01" purity="8.9366859197616577e-01" nType="-99"/>
          </Node>
        </Node>
      </Node>
    </BinaryTree>
    <BinaryTree type="DecisionTree" boostWeight="1.0000000000000000e+00" itree="515">
      <Node pos="s" depth="0" NCoef="0" IVar="4" Cut="1.4357591247558594e+02" cType="1" res="-1.1657594004645944e-03" rms="2.8505754470825195e-01" purity="4.9172616004943848e-01" nType="0">
        <Node pos="l" depth="1" NCoef="0" IVar="9" Cut="3.9993509650230408e-01" cType="1" res="2.5951317511498928e-03" rms="2.8306883573532104e-01" purity="2.2183191776275635e-01" nType="0">
          <Node pos="l" depth="2" NCoef="0" IVar="9" Cut="-8.1900030374526978e-01" cType="1" res="-5.3577725775539875e-03" rms="2.8187254071235657e-01" purity="2.2189022600650787e-01" nType="0">
            <Node pos="l" depth="3" NCoef="0" IVar="-1" Cut="0.0000000000000000e+00" cType="1" res="3.6194515414535999e-03" rms="2.7293634414672852e-01" purity="1.8993985652923584e-01" nType="-99"/>
            <Node pos="r" depth="3" NCoef="0" IVar="-1" Cut="0.0000000000000000e+00" cType="1" res="-1.3186652213335037e-02" rms="2.8855568170547485e-01" purity="2.4704505503177643e-01" nType="-99"/>
          </Node>
          <Node pos="r" depth="2" NCoef="0" IVar="5" Cut="6.2879001617431641e+01" cType="1" res="1.5410125255584717e-02" rms="2.8451856970787048e-01" purity="2.2173792123794556e-01" nType="0">
            <Node pos="l" depth="3" NCoef="0" IVar="-1" Cut="0.0000000000000000e+00" cType="1" res="3.2460889779031277e-03" rms="2.2741621732711792e-01" purity="7.6969467103481293e-02" nType="-99"/>
            <Node pos="r" depth="3" NCoef="0" IVar="-1" Cut="0.0000000000000000e+00" cType="1" res="2.8000647202134132e-02" rms="3.3218470215797424e-01" purity="3.6925587058067322e-01" nType="-99"/>
          </Node>
        </Node>
        <Node pos="r" depth="1" NCoef="0" IVar="6" Cut="6.3181526184082031e+01" cType="1" res="-4.1145477443933487e-03" rms="2.8657266497612000e-01" purity="7.0334118604660034e-01" nType="0">
          <Node pos="l" depth="2" NCoef="0" IVar="9" Cut="1.1995638608932495e+00" cType="1" res="-1.0524114593863487e-02" rms="3.3980166912078857e-01" purity="4.8235329985618591e-01" nType="0">
            <Node pos="l" depth="3" NCoef="0" IVar="-1" Cut="0.0000000000000000e+00" cType="1" res="-6.3065234571695328e-03" rms="3.4300202131271362e-01" purity="5.1202791929244995e-01" nType="-99"/>
            <Node pos="r" depth="3" NCoef="0" IVar="-1" Cut="0.0000000000000000e+00" cType="1" res="-3.2441355288028717e-02" rms="3.1088778376579285e-01" purity="2.3522971570491791e-01" nType="-99"/>
          </Node>
          <Node pos="r" depth="2" NCoef="0" IVar="3" Cut="2.0979290771484375e+02" cType="1" res="1.5120992902666330e-03" rms="2.2975528240203857e-01" purity="8.9733564853668213e-01" nType="0">
            <Node pos="l" depth="3" NCoef="0" IVar="-1" Cut="0.0000000000000000e+00" cType="1" res="2.3442288860678673e-02" rms="2.6299917697906494e-01" purity="8.5910910367965698e-01" nType="-99"/>
            <Node pos="r" depth="3" NCoef="0" IVar="-1" Cut="0.0000000000000000e+00" cType="1" res="-4.5434162020683289e-03" rms="2.2123493254184723e-01" purity="9.0612024068832397e-01" nType="-99"/>
          </Node>
        </Node>
      </Node>
    </BinaryTree>
    <BinaryTree type="DecisionTree" boostWeight="1.0000000000000000e+00" itree="516">
      <Node pos="s" depth="0" NCoef="0" IVar="11" Cut="5.9035396575927734e-01" cType="1" res="4.3900897726416588e-03" rms="2.8707697987556458e-01" purity="5.0510448217391968e-01" nType="0">
        <Node pos="l" depth="1" NCoef="0" IVar="1" Cut="2.1144732832908630e-02" cType="1" res="6.3781682401895523e-03" rms="2.8683638572692871e-01" purity="4.6299439668655396e-01" nType="0">
          <Node pos="l" depth="2" NCoef="0" IVar="7" Cut="4.0496683120727539e-01" cType="1" res="-4.6217115595936775e-04" rms="2.2059734165668488e-01" purity="1.0661309212446213e-01" nType="0">
            <Node pos="l" depth="3" NCoef="0" IVar="-1" Cut="0.0000000000000000e+00" cType="1" res="9.8158102482557297e-03" rms="2.4431116878986359e-01" purity="1.3489425182342529e-01" nType="-99"/>
            <Node pos="r" depth="3" NCoef="0" IVar="-1" Cut="0.0000000000000000e+00" cType="1" res="-2.2669695317745209e-02" rms="1.8229234218597412e-01" purity="6.7333362996578217e-02" nType="-99"/>
          </Node>
          <Node pos="r" depth="2" NCoef="0" IVar="6" Cut="8.2970474243164062e+01" cType="1" res="8.7812878191471100e-03" rms="3.0669414997100830e-01" purity="5.8819681406021118e-01" nType="0">
            <Node pos="l" depth="3" NCoef="0" IVar="-1" Cut="0.0000000000000000e+00" cType="1" res="1.0765912942588329e-02" rms="3.3282753825187683e-01" purity="4.8036029934883118e-01" nType="-99"/>
            <Node pos="r" depth="3" NCoef="0" IVar="-1" Cut="0.0000000000000000e+00" cType="1" res="-4.4459761120378971e-03" rms="1.9857828319072723e-01" purity="9.3972909450531006e-01" nType="-99"/>
          </Node>
        </Node>
        <Node pos="r" depth="1" NCoef="0" IVar="7" Cut="7.2831481695175171e-01" cType="1" res="-6.0005751438438892e-03" rms="2.8810802102088928e-01" purity="7.2519236803054810e-01" nType="0">
          <Node pos="l" depth="2" NCoef="0" IVar="1" Cut="4.3928965926170349e-02" cType="1" res="8.8580086594447494e-04" rms="2.8113171458244324e-01" purity="7.7467584609985352e-01" nType="0">
            <Node pos="l" depth="3" NCoef="0" IVar="-1" Cut="0.0000000000000000e+00" cType="1" res="1.7053583636879921e-02" rms="3.2314404845237732e-01" purity="4.8725783824920654e-01" nType="-99"/>
            <Node pos="r" depth="3" NCoef="0" IVar="-1" Cut="0.0000000000000000e+00" cType="1" res="-6.1939344741404057e-03" rms="2.6776471734046936e-01" purity="8.5623306035995483e-01" nType="-99"/>
          </Node>
          <Node pos="r" depth="2" NCoef="0" IVar="-1" Cut="0.0000000000000000e+00" cType="1" res="-3.3444441854953766e-02" rms="3.1261309981346130e-01" purity="5.3026551008224487e-01" nType="-99"/>
        </Node>
      </Node>
    </BinaryTree>
    <BinaryTree type="DecisionTree" boostWeight="1.0000000000000000e+00" itree="517">
      <Node pos="s" depth="0" NCoef="0" IVar="9" Cut="1.3321645557880402e-01" cType="1" res="5.7000564993359149e-05" rms="2.8504139184951782e-01" purity="5.0199663639068604e-01" nType="0">
        <Node pos="l" depth="1" NCoef="0" IVar="4" Cut="1.4568955993652344e+02" cType="1" res="-2.8560420032590628e-03" rms="2.8338798880577087e-01" purity="5.0805801153182983e-01" nType="0">
          <Node pos="l" depth="2" NCoef="0" IVar="8" Cut="-6.6656696796417236e-01" cType="1" res="-8.7933866307139397e-03" rms="2.8165456652641296e-01" purity="2.1868872642517090e-01" nType="0">
            <Node pos="l" depth="3" NCoef="0" IVar="-1" Cut="0.0000000000000000e+00" cType="1" res="8.4336157888174057e-03" rms="2.6758018136024475e-01" purity="1.5030132234096527e-01" nType="-99"/>
            <Node pos="r" depth="3" NCoef="0" IVar="-1" Cut="0.0000000000000000e+00" cType="1" res="-1.8154729157686234e-02" rms="2.8826725482940674e-01" purity="2.5345140695571899e-01" nType="-99"/>
          </Node>
          <Node pos="r" depth="2" NCoef="0" IVar="3" Cut="3.7784219360351562e+02" cType="1" res="1.7007902497425675e-03" rms="2.8462719917297363e-01" purity="7.3014503717422485e-01" nType="0">
            <Node pos="l" depth="3" NCoef="0" IVar="-1" Cut="0.0000000000000000e+00" cType="1" res="4.8576253466308117e-03" rms="2.8813788294792175e-01" purity="7.1635699272155762e-01" nType="-99"/>
            <Node pos="r" depth="3" NCoef="0" IVar="-1" Cut="0.0000000000000000e+00" cType="1" res="-1.7425794154405594e-02" rms="2.6294055581092834e-01" purity="8.0996131896972656e-01" nType="-99"/>
          </Node>
        </Node>
        <Node pos="r" depth="1" NCoef="0" IVar="2" Cut="3.3582705688476562e+02" cType="1" res="3.7312901113182306e-03" rms="2.8707113862037659e-01" purity="4.9435135722160339e-01" nType="0">
          <Node pos="l" depth="2" NCoef="0" IVar="8" Cut="9.3348103761672974e-01" cType="1" res="9.5776822417974472e-03" rms="2.8715687990188599e-01" purity="4.2858162522315979e-01" nType="0">
            <Node pos="l" depth="3" NCoef="0" IVar="-1" Cut="0.0000000000000000e+00" cType="1" res="1.8276296555995941e-02" rms="2.9131171107292175e-01" purity="4.8662048578262329e-01" nType="-99"/>
            <Node pos="r" depth="3" NCoef="0" IVar="-1" Cut="0.0000000000000000e+00" cType="1" res="-1.5231787227094173e-02" rms="2.7111309766769409e-01" purity="2.2579281032085419e-01" nType="-99"/>
          </Node>
          <Node pos="r" depth="2" NCoef="0" IVar="0" Cut="1.7561722412109375e+03" cType="1" res="-1.2098556617274880e-03" rms="2.8690576553344727e-01" purity="5.4993742704391479e-01" nType="0">
            <Node pos="l" depth="3" NCoef="0" IVar="-1" Cut="0.0000000000000000e+00" cType="1" res="-8.1311119720339775e-03" rms="3.0765119194984436e-01" purity="2.8524816036224365e-01" nType="-99"/>
            <Node pos="r" depth="3" NCoef="0" IVar="-1" Cut="0.0000000000000000e+00" cType="1" res="8.4976879879832268e-03" rms="2.6276594400405884e-01" purity="8.3240705728530884e-01" nType="-99"/>
          </Node>
        </Node>
      </Node>
    </BinaryTree>
    <BinaryTree type="DecisionTree" boostWeight="1.0000000000000000e+00" itree="518">
      <Node pos="s" depth="0" NCoef="0" IVar="7" Cut="1.4059107005596161e-01" cType="1" res="1.4234860427677631e-03" rms="2.8913876414299011e-01" purity="5.0139325857162476e-01" nType="0">
        <Node pos="l" depth="1" NCoef="0" IVar="11" Cut="1.4190063476562500e+00" cType="1" res="5.1028016023337841e-03" rms="2.8804501891136169e-01" purity="5.2790385484695435e-01" nType="0">
          <Node pos="l" depth="2" NCoef="0" IVar="10" Cut="1.3325864076614380e-01" cType="1" res="3.8885001558810472e-03" rms="2.8691628575325012e-01" purity="5.1711332798004150e-01" nType="0">
            <Node pos="l" depth="3" NCoef="0" IVar="-1" Cut="0.0000000000000000e+00" cType="1" res="9.9566178396344185e-03" rms="2.8465497493743896e-01" purity="5.1970189809799194e-01" nType="-99"/>
            <Node pos="r" depth="3" NCoef="0" IVar="-1" Cut="0.0000000000000000e+00" cType="1" res="-2.6263131294399500e-03" rms="2.9002571105957031e-01" purity="5.1339548826217651e-01" nType="-99"/>
          </Node>
          <Node pos="r" depth="2" NCoef="0" IVar="-1" Cut="0.0000000000000000e+00" cType="1" res="2.4543227627873421e-02" rms="3.0473786592483521e-01" purity="6.9897782802581787e-01" nType="-99"/>
        </Node>
        <Node pos="r" depth="1" NCoef="0" IVar="11" Cut="-7.9069888591766357e-01" cType="1" res="-3.3229007385671139e-03" rms="2.9047477245330811e-01" purity="4.6719402074813843e-01" nType="0">
          <Node pos="l" depth="2" NCoef="0" IVar="0" Cut="1.5987031250000000e+03" cType="1" res="3.5048567224293947e-03" rms="2.9199841618537903e-01" purity="2.9688116908073425e-01" nType="0">
            <Node pos="l" depth="3" NCoef="0" IVar="-1" Cut="0.0000000000000000e+00" cType="1" res="-1.3257109094411135e-03" rms="2.8143280744552612e-01" purity="1.6826204955577850e-01" nType="-99"/>
            <Node pos="r" depth="3" NCoef="0" IVar="-1" Cut="0.0000000000000000e+00" cType="1" res="1.6050158068537712e-02" rms="3.2057881355285645e-01" purity="6.7356699705123901e-01" nType="-99"/>
          </Node>
          <Node pos="r" depth="2" NCoef="0" IVar="0" Cut="1.9074991455078125e+03" cType="1" res="-1.3560487888753414e-02" rms="2.8787186741828918e-01" purity="7.2256231307983398e-01" nType="0">
            <Node pos="l" depth="3" NCoef="0" IVar="-1" Cut="0.0000000000000000e+00" cType="1" res="-2.0067727193236351e-02" rms="3.1981974840164185e-01" purity="6.1738783121109009e-01" nType="-99"/>
            <Node pos="r" depth="3" NCoef="0" IVar="-1" Cut="0.0000000000000000e+00" cType="1" res="1.2170274276286364e-03" rms="2.0879071950912476e-01" purity="9.3372440338134766e-01" nType="-99"/>
          </Node>
        </Node>
      </Node>
    </BinaryTree>
    <BinaryTree type="DecisionTree" boostWeight="1.0000000000000000e+00" itree="519">
      <Node pos="s" depth="0" NCoef="0" IVar="7" Cut="-1.1570141464471817e-01" cType="1" res="-8.5120566654950380e-04" rms="2.8744101524353027e-01" purity="4.9691489338874817e-01" nType="0">
        <Node pos="l" depth="1" NCoef="0" IVar="10" Cut="1.1999788284301758e+00" cType="1" res="-6.1116274446249008e-03" rms="2.8608083724975586e-01" purity="4.7602424025535583e-01" nType="0">
          <Node pos="l" depth="2" NCoef="0" IVar="8" Cut="3.9944416284561157e-01" cType="1" res="-3.7552639842033386e-03" rms="2.8972932696342468e-01" purity="5.0235939025878906e-01" nType="0">
            <Node pos="l" depth="3" NCoef="0" IVar="-1" Cut="0.0000000000000000e+00" cType="1" res="-8.8111115619540215e-03" rms="2.8715428709983826e-01" purity="5.3447353839874268e-01" nType="-99"/>
            <Node pos="r" depth="3" NCoef="0" IVar="-1" Cut="0.0000000000000000e+00" cType="1" res="5.6919823400676250e-03" rms="2.9553091526031494e-01" purity="4.2669925093650818e-01" nType="-99"/>
          </Node>
          <Node pos="r" depth="2" NCoef="0" IVar="1" Cut="4.0155902504920959e-02" cType="1" res="-2.0108362659811974e-02" rms="2.6293429732322693e-01" purity="3.1959363818168640e-01" nType="0">
            <Node pos="l" depth="3" NCoef="0" IVar="-1" Cut="0.0000000000000000e+00" cType="1" res="-1.6895249485969543e-02" rms="1.9633519649505615e-01" purity="1.1127673089504242e-01" nType="-99"/>
            <Node pos="r" depth="3" NCoef="0" IVar="-1" Cut="0.0000000000000000e+00" cType="1" res="-2.7842577546834946e-02" rms="3.0734384059906006e-01" purity="4.9340710043907166e-01" nType="-99"/>
          </Node>
        </Node>
        <Node pos="r" depth="1" NCoef="0" IVar="1" Cut="4.3804407119750977e-02" cType="1" res="3.4420427400618792e-03" rms="2.8847530484199524e-01" purity="5.1396465301513672e-01" nType="0">
          <Node pos="l" depth="2" NCoef="0" IVar="9" Cut="-9.3353968858718872e-01" cType="1" res="-4.3724454008042812e-03" rms="2.7106526494026184e-01" purity="2.1383772790431976e-01" nType="0">
            <Node pos="l" depth="3" NCoef="0" IVar="-1" Cut="0.0000000000000000e+00" cType="1" res="2.2400423884391785e-02" rms="2.5366273522377014e-01" purity="1.4744538068771362e-01" nType="-99"/>
            <Node pos="r" depth="3" NCoef="0" IVar="-1" Cut="0.0000000000000000e+00" cType="1" res="-1.1818812228739262e-02" rms="2.7587634325027466e-01" purity="2.3379173874855042e-01" nType="-99"/>
          </Node>
          <Node pos="r" depth="2" NCoef="0" IVar="10" Cut="1.4666481018066406e+00" cType="1" res="8.8592078536748886e-03" rms="2.9983231425285339e-01" purity="7.2201889753341675e-01" nType="0">
            <Node pos="l" depth="3" NCoef="0" IVar="-1" Cut="0.0000000000000000e+00" cType="1" res="5.7312371209263802e-03" rms="2.9327642917633057e-01" purity="7.3699778318405151e-01" nType="-99"/>
            <Node pos="r" depth="3" NCoef="0" IVar="-1" Cut="0.0000000000000000e+00" cType="1" res="3.6065433174371719e-02" rms="3.4749409556388855e-01" purity="5.9866142272949219e-01" nType="-99"/>
          </Node>
        </Node>
      </Node>
    </BinaryTree>
    <BinaryTree type="DecisionTree" boostWeight="1.0000000000000000e+00" itree="520">
      <Node pos="s" depth="0" NCoef="0" IVar="2" Cut="7.4323602294921875e+02" cType="1" res="-2.3742564953863621e-03" rms="2.8604620695114136e-01" purity="4.9816131591796875e-01" nType="0">
        <Node pos="l" depth="1" NCoef="0" IVar="11" Cut="1.6947503089904785e+00" cType="1" res="-3.3602726180106401e-03" rms="2.8384527564048767e-01" purity="4.9530795216560364e-01" nType="0">
          <Node pos="l" depth="2" NCoef="0" IVar="7" Cut="-6.4497321844100952e-01" cType="1" res="-4.3344530276954174e-03" rms="2.8204303979873657e-01" purity="4.8995819687843323e-01" nType="0">
            <Node pos="l" depth="3" NCoef="0" IVar="-1" Cut="0.0000000000000000e+00" cType="1" res="-1.3866905122995377e-02" rms="2.6139527559280396e-01" purity="3.2538264989852905e-01" nType="-99"/>
            <Node pos="r" depth="3" NCoef="0" IVar="-1" Cut="0.0000000000000000e+00" cType="1" res="-3.0397213995456696e-03" rms="2.8800562024116516e-01" purity="5.4001206159591675e-01" nType="-99"/>
          </Node>
          <Node pos="r" depth="2" NCoef="0" IVar="-1" Cut="0.0000000000000000e+00" cType="1" res="1.9393311813473701e-02" rms="3.2333928346633911e-01" purity="6.2410348653793335e-01" nType="-99"/>
        </Node>
        <Node pos="r" depth="1" NCoef="0" IVar="-1" Cut="0.0000000000000000e+00" cType="1" res="2.3680217564105988e-02" rms="3.4770292043685913e-01" purity="5.8938401937484741e-01" nType="-99"/>
      </Node>
    </BinaryTree>
    <BinaryTree type="DecisionTree" boostWeight="1.0000000000000000e+00" itree="521">
      <Node pos="s" depth="0" NCoef="0" IVar="11" Cut="8.6663055419921875e-01" cType="1" res="-2.3164446465671062e-03" rms="2.8402945399284363e-01" purity="4.9516996741294861e-01" nType="0">
        <Node pos="l" depth="1" NCoef="0" IVar="1" Cut="4.1755877435207367e-02" cType="1" res="-5.1447394071146846e-04" rms="2.8238895535469055e-01" purity="4.6713590621948242e-01" nType="0">
          <Node pos="l" depth="2" NCoef="0" IVar="1" Cut="1.7911404371261597e-02" cType="1" res="4.4415313750505447e-03" rms="2.6012474298477173e-01" purity="1.9983442127704620e-01" nType="0">
            <Node pos="l" depth="3" NCoef="0" IVar="-1" Cut="0.0000000000000000e+00" cType="1" res="-6.3069085590541363e-03" rms="2.0717214047908783e-01" purity="9.4660609960556030e-02" nType="-99"/>
            <Node pos="r" depth="3" NCoef="0" IVar="-1" Cut="0.0000000000000000e+00" cType="1" res="1.3163346797227859e-02" rms="3.0642944574356079e-01" purity="3.1184241175651550e-01" nType="-99"/>
          </Node>
          <Node pos="r" depth="2" NCoef="0" IVar="8" Cut="3.5302335023880005e-01" cType="1" res="-4.3225111439824104e-03" rms="2.9831355810165405e-01" purity="6.7252188920974731e-01" nType="0">
            <Node pos="l" depth="3" NCoef="0" IVar="-1" Cut="0.0000000000000000e+00" cType="1" res="1.1826305417343974e-03" rms="2.9354637861251831e-01" purity="7.0427519083023071e-01" nType="-99"/>
            <Node pos="r" depth="3" NCoef="0" IVar="-1" Cut="0.0000000000000000e+00" cType="1" res="-1.6531318426132202e-02" rms="3.0822104215621948e-01" purity="6.0258919000625610e-01" nType="-99"/>
          </Node>
        </Node>
        <Node pos="r" depth="1" NCoef="0" IVar="10" Cut="-1.3350278139114380e-01" cType="1" res="-1.5262191183865070e-02" rms="2.9522445797920227e-01" purity="6.9657278060913086e-01" nType="0">
          <Node pos="l" depth="2" NCoef="0" IVar="-1" Cut="0.0000000000000000e+00" cType="1" res="-3.1681977212429047e-02" rms="2.9509058594703674e-01" purity="6.8014878034591675e-01" nType="-99"/>
          <Node pos="r" depth="2" NCoef="0" IVar="0" Cut="1.6441652832031250e+03" cType="1" res="-6.4892782829701900e-03" rms="2.9500603675842285e-01" purity="7.0825803279876709e-01" nType="0">
            <Node pos="l" depth="3" NCoef="0" IVar="-1" Cut="0.0000000000000000e+00" cType="1" res="8.6597778135910630e-04" rms="3.3094158768653870e-01" purity="5.5353748798370361e-01" nType="-99"/>
            <Node pos="r" depth="3" NCoef="0" IVar="-1" Cut="0.0000000000000000e+00" cType="1" res="-2.3764891549944878e-02" rms="2.5334206223487854e-01" purity="8.6460691690444946e-01" nType="-99"/>
          </Node>
        </Node>
      </Node>
    </BinaryTree>
    <BinaryTree type="DecisionTree" boostWeight="1.0000000000000000e+00" itree="522">
      <Node pos="s" depth="0" NCoef="0" IVar="11" Cut="-2.7238247394561768e+00" cType="1" res="7.4164645047858357e-04" rms="2.8497463464736938e-01" purity="4.9297195672988892e-01" nType="0">
        <Node pos="l" depth="1" NCoef="0" IVar="1" Cut="1.2519881129264832e-01" cType="1" res="-4.2429128661751747e-03" rms="2.9038533568382263e-01" purity="2.1712505817413330e-01" nType="0">
          <Node pos="l" depth="2" NCoef="0" IVar="2" Cut="4.5167282104492188e+02" cType="1" res="-1.2460733996704221e-03" rms="2.8074261546134949e-01" purity="1.8290138244628906e-01" nType="0">
            <Node pos="l" depth="3" NCoef="0" IVar="-1" Cut="0.0000000000000000e+00" cType="1" res="2.8621051460504532e-03" rms="2.6899293065071106e-01" purity="1.4888620376586914e-01" nType="-99"/>
            <Node pos="r" depth="3" NCoef="0" IVar="-1" Cut="0.0000000000000000e+00" cType="1" res="-1.1028762906789780e-02" rms="3.1304034590721130e-01" purity="2.8457719087600708e-01" nType="-99"/>
          </Node>
          <Node pos="r" depth="2" NCoef="0" IVar="-1" Cut="0.0000000000000000e+00" cType="1" res="-2.3686382919549942e-02" rms="3.7250605225563049e-01" purity="5.6163263320922852e-01" nType="-99"/>
        </Node>
        <Node pos="r" depth="1" NCoef="0" IVar="7" Cut="-9.1041761636734009e-01" cType="1" res="5.3844843059778214e-03" rms="2.7976089715957642e-01" purity="7.4990797042846680e-01" nType="0">
          <Node pos="l" depth="2" NCoef="0" IVar="10" Cut="1.3393165171146393e-01" cType="1" res="2.6217598468065262e-02" rms="3.1284758448600769e-01" purity="5.1084423065185547e-01" nType="0">
            <Node pos="l" depth="3" NCoef="0" IVar="-1" Cut="0.0000000000000000e+00" cType="1" res="1.3749605044722557e-02" rms="3.0596989393234253e-01" purity="5.0789380073547363e-01" nType="-99"/>
            <Node pos="r" depth="3" NCoef="0" IVar="-1" Cut="0.0000000000000000e+00" cType="1" res="4.1724391281604767e-02" rms="3.2120588421821594e-01" purity="5.1489037275314331e-01" nType="-99"/>
          </Node>
          <Node pos="r" depth="2" NCoef="0" IVar="8" Cut="-3.9946120977401733e-01" cType="1" res="2.6058249641209841e-03" rms="2.7492794394493103e-01" purity="7.8179353475570679e-01" nType="0">
            <Node pos="l" depth="3" NCoef="0" IVar="-1" Cut="0.0000000000000000e+00" cType="1" res="-5.6858942843973637e-03" rms="2.9044559597969055e-01" purity="7.1649742126464844e-01" nType="-99"/>
            <Node pos="r" depth="3" NCoef="0" IVar="-1" Cut="0.0000000000000000e+00" cType="1" res="7.7245081774890423e-03" rms="2.6773038506507874e-01" purity="8.1059694290161133e-01" nType="-99"/>
          </Node>
        </Node>
      </Node>
    </BinaryTree>
    <BinaryTree type="DecisionTree" boostWeight="1.0000000000000000e+00" itree="523">
      <Node pos="s" depth="0" NCoef="0" IVar="7" Cut="-6.5614867210388184e-01" cType="1" res="1.2624595547094941e-03" rms="2.8561353683471680e-01" purity="5.0052440166473389e-01" nType="0">
        <Node pos="l" depth="1" NCoef="0" IVar="8" Cut="3.9870738983154297e-01" cType="1" res="-6.1423704028129578e-03" rms="2.7207753062248230e-01" purity="3.2460132241249084e-01" nType="0">
          <Node pos="l" depth="2" NCoef="0" IVar="9" Cut="-1.3315665721893311e-01" cType="1" res="3.5891094012185931e-04" rms="2.8236672282218933e-01" purity="3.7565314769744873e-01" nType="0">
            <Node pos="l" depth="3" NCoef="0" IVar="-1" Cut="0.0000000000000000e+00" cType="1" res="1.1328250169754028e-02" rms="2.8679385781288147e-01" purity="3.8324525952339172e-01" nType="-99"/>
            <Node pos="r" depth="3" NCoef="0" IVar="-1" Cut="0.0000000000000000e+00" cType="1" res="-1.3710519298911095e-02" rms="2.7655065059661865e-01" purity="3.6650338768959045e-01" nType="-99"/>
          </Node>
          <Node pos="r" depth="2" NCoef="0" IVar="11" Cut="-1.8952757120132446e+00" cType="1" res="-2.0515181124210358e-02" rms="2.4721291661262512e-01" purity="2.1173770725727081e-01" nType="0">
            <Node pos="l" depth="3" NCoef="0" IVar="-1" Cut="0.0000000000000000e+00" cType="1" res="-3.4648876171559095e-03" rms="2.1345117688179016e-01" purity="9.6931256353855133e-02" nType="-99"/>
            <Node pos="r" depth="3" NCoef="0" IVar="-1" Cut="0.0000000000000000e+00" cType="1" res="-5.5360276252031326e-02" rms="2.9302150011062622e-01" purity="4.0626186132431030e-01" nType="-99"/>
          </Node>
        </Node>
        <Node pos="r" depth="1" NCoef="0" IVar="10" Cut="6.6650569438934326e-01" cType="1" res="3.4524241928011179e-03" rms="2.8945925831794739e-01" purity="5.5255335569381714e-01" nType="0">
          <Node pos="l" depth="2" NCoef="0" IVar="1" Cut="4.3818969279527664e-02" cType="1" res="6.5256813541054726e-03" rms="2.8604736924171448e-01" purity="5.8071911334991455e-01" nType="0">
            <Node pos="l" depth="3" NCoef="0" IVar="-1" Cut="0.0000000000000000e+00" cType="1" res="2.9144002473913133e-04" rms="2.8018054366111755e-01" purity="2.6976129412651062e-01" nType="-99"/>
            <Node pos="r" depth="3" NCoef="0" IVar="-1" Cut="0.0000000000000000e+00" cType="1" res="1.1879514902830124e-02" rms="2.8922805190086365e-01" purity="7.5523567199707031e-01" nType="-99"/>
          </Node>
          <Node pos="r" depth="2" NCoef="0" IVar="9" Cut="6.6653919219970703e-01" cType="1" res="-3.6404905840754509e-03" rms="2.9706290364265442e-01" purity="4.8754844069480896e-01" nType="0">
            <Node pos="l" depth="3" NCoef="0" IVar="-1" Cut="0.0000000000000000e+00" cType="1" res="3.8934668991714716e-03" rms="2.9663667082786560e-01" purity="5.3032082319259644e-01" nType="-99"/>
            <Node pos="r" depth="3" NCoef="0" IVar="-1" Cut="0.0000000000000000e+00" cType="1" res="-2.1347347646951675e-02" rms="2.9739516973495483e-01" purity="3.8928189873695374e-01" nType="-99"/>
          </Node>
        </Node>
      </Node>
    </BinaryTree>
    <BinaryTree type="DecisionTree" boostWeight="1.0000000000000000e+00" itree="524">
      <Node pos="s" depth="0" NCoef="0" IVar="10" Cut="2.2663841247558594e+00" cType="1" res="3.1003293115645647e-03" rms="2.8752052783966064e-01" purity="5.0802540779113770e-01" nType="0">
        <Node pos="l" depth="1" NCoef="0" IVar="8" Cut="1.1999979019165039e+00" cType="1" res="3.8285462651401758e-03" rms="2.8868719935417175e-01" purity="5.1689898967742920e-01" nType="0">
          <Node pos="l" depth="2" NCoef="0" IVar="0" Cut="1.3897952880859375e+03" cType="1" res="2.5725443847477436e-03" rms="2.9106914997100830e-01" purity="5.5418235063552856e-01" nType="0">
            <Node pos="l" depth="3" NCoef="0" IVar="-1" Cut="0.0000000000000000e+00" cType="1" res="7.4995630420744419e-03" rms="3.0047288537025452e-01" purity="2.2417323291301727e-01" nType="-99"/>
            <Node pos="r" depth="3" NCoef="0" IVar="-1" Cut="0.0000000000000000e+00" cType="1" res="-3.3091232762672007e-04" rms="2.8463789820671082e-01" purity="7.7263414859771729e-01" nType="-99"/>
          </Node>
          <Node pos="r" depth="2" NCoef="0" IVar="8" Cut="1.6570987701416016e+00" cType="1" res="1.3696148060262203e-02" rms="2.6903766393661499e-01" purity="2.2398737072944641e-01" nType="0">
            <Node pos="l" depth="3" NCoef="0" IVar="-1" Cut="0.0000000000000000e+00" cType="1" res="3.2756105065345764e-02" rms="3.1796482205390930e-01" purity="3.3022478222846985e-01" nType="-99"/>
            <Node pos="r" depth="3" NCoef="0" IVar="-1" Cut="0.0000000000000000e+00" cType="1" res="-1.0343195870518684e-02" rms="1.9738285243511200e-01" purity="1.0271374136209488e-01" nType="-99"/>
          </Node>
        </Node>
        <Node pos="r" depth="1" NCoef="0" IVar="-1" Cut="0.0000000000000000e+00" cType="1" res="-3.1997475773096085e-02" rms="2.3970362544059753e-01" purity="1.8479533493518829e-01" nType="-99"/>
      </Node>
    </BinaryTree>
    <BinaryTree type="DecisionTree" boostWeight="1.0000000000000000e+00" itree="525">
      <Node pos="s" depth="0" NCoef="0" IVar="10" Cut="1.4665765762329102e+00" cType="1" res="5.8747362345457077e-04" rms="2.8774589300155640e-01" purity="5.0108146667480469e-01" nType="0">
        <Node pos="l" depth="1" NCoef="0" IVar="11" Cut="1.6951942443847656e+00" cType="1" res="-1.2176499003544450e-03" rms="2.8687426447868347e-01" purity="5.2156370878219604e-01" nType="0">
          <Node pos="l" depth="2" NCoef="0" IVar="9" Cut="1.4666194915771484e+00" cType="1" res="-1.7335265874862671e-04" rms="2.8534501791000366e-01" purity="5.1768922805786133e-01" nType="0">
            <Node pos="l" depth="3" NCoef="0" IVar="-1" Cut="0.0000000000000000e+00" cType="1" res="1.1804780224338174e-03" rms="2.8755727410316467e-01" purity="5.4266858100891113e-01" nType="-99"/>
            <Node pos="r" depth="3" NCoef="0" IVar="-1" Cut="0.0000000000000000e+00" cType="1" res="-1.8409928306937218e-02" rms="2.5849169492721558e-01" purity="2.3360888659954071e-01" nType="-99"/>
          </Node>
          <Node pos="r" depth="2" NCoef="0" IVar="-1" Cut="0.0000000000000000e+00" cType="1" res="-2.8764041140675545e-02" rms="3.2374086976051331e-01" purity="6.2479269504547119e-01" nType="-99"/>
        </Node>
        <Node pos="r" depth="1" NCoef="0" IVar="2" Cut="3.3981585693359375e+02" cType="1" res="1.4356465078890324e-02" rms="2.9394495487213135e-01" purity="3.4484848380088806e-01" nType="0">
          <Node pos="l" depth="2" NCoef="0" IVar="-1" Cut="0.0000000000000000e+00" cType="1" res="4.6985535882413387e-03" rms="2.8258162736892700e-01" purity="2.5545144081115723e-01" nType="-99"/>
          <Node pos="r" depth="2" NCoef="0" IVar="1" Cut="3.7207394838333130e-02" cType="1" res="2.4198453873395920e-02" rms="3.0361461639404297e-01" purity="4.2646619677543640e-01" nType="0">
            <Node pos="l" depth="3" NCoef="0" IVar="-1" Cut="0.0000000000000000e+00" cType="1" res="4.1171666234731674e-03" rms="2.4281324446201324e-01" purity="1.3215585052967072e-01" nType="-99"/>
            <Node pos="r" depth="3" NCoef="0" IVar="-1" Cut="0.0000000000000000e+00" cType="1" res="3.4822158515453339e-02" rms="3.4386032819747925e-01" purity="6.6338574886322021e-01" nType="-99"/>
          </Node>
        </Node>
      </Node>
    </BinaryTree>
    <BinaryTree type="DecisionTree" boostWeight="1.0000000000000000e+00" itree="526">
      <Node pos="s" depth="0" NCoef="0" IVar="3" Cut="3.0714752197265625e+02" cType="1" res="6.4610998379066586e-04" rms="2.8681975603103638e-01" purity="4.9981039762496948e-01" nType="0">
        <Node pos="l" depth="1" NCoef="0" IVar="7" Cut="-6.5614867210388184e-01" cType="1" res="-1.2004544259980321e-03" rms="2.8775775432586670e-01" purity="4.3615114688873291e-01" nType="0">
          <Node pos="l" depth="2" NCoef="0" IVar="2" Cut="2.9977334594726562e+02" cType="1" res="-7.7649555169045925e-03" rms="2.5709155201911926e-01" purity="2.8427556157112122e-01" nType="0">
            <Node pos="l" depth="3" NCoef="0" IVar="-1" Cut="0.0000000000000000e+00" cType="1" res="1.4005159027874470e-03" rms="2.5961592793464661e-01" purity="2.7556011080741882e-01" nType="-99"/>
            <Node pos="r" depth="3" NCoef="0" IVar="-1" Cut="0.0000000000000000e+00" cType="1" res="-2.0824991166591644e-02" rms="2.5472414493560791e-01" purity="2.9158112406730652e-01" nType="-99"/>
          </Node>
          <Node pos="r" depth="2" NCoef="0" IVar="5" Cut="7.0671424865722656e+01" cType="1" res="8.0594094470143318e-04" rms="2.9646947979927063e-01" purity="4.8257082700729370e-01" nType="0">
            <Node pos="l" depth="3" NCoef="0" IVar="-1" Cut="0.0000000000000000e+00" cType="1" res="7.0711756125092506e-03" rms="2.9474151134490967e-01" purity="1.9589707255363464e-01" nType="-99"/>
            <Node pos="r" depth="3" NCoef="0" IVar="-1" Cut="0.0000000000000000e+00" cType="1" res="-3.5605495795607567e-03" rms="2.9771915078163147e-01" purity="7.0129072666168213e-01" nType="-99"/>
          </Node>
        </Node>
        <Node pos="r" depth="1" NCoef="0" IVar="0" Cut="1.9827666015625000e+03" cType="1" res="7.5576053932309151e-03" rms="2.8317451477050781e-01" purity="7.3808062076568604e-01" nType="0">
          <Node pos="l" depth="2" NCoef="0" IVar="2" Cut="4.8743377685546875e+02" cType="1" res="1.9531421363353729e-02" rms="3.3728370070457458e-01" purity="5.2678841352462769e-01" nType="0">
            <Node pos="l" depth="3" NCoef="0" IVar="-1" Cut="0.0000000000000000e+00" cType="1" res="1.7891203751787543e-03" rms="3.1874465942382812e-01" purity="5.9095120429992676e-01" nType="-99"/>
            <Node pos="r" depth="3" NCoef="0" IVar="-1" Cut="0.0000000000000000e+00" cType="1" res="4.6238727867603302e-02" rms="3.7001651525497437e-01" purity="3.9445301890373230e-01" nType="-99"/>
          </Node>
          <Node pos="r" depth="2" NCoef="0" IVar="2" Cut="6.3219226074218750e+02" cType="1" res="-8.1903889076784253e-04" rms="2.3776185512542725e-01" purity="8.8589632511138916e-01" nType="0">
            <Node pos="l" depth="3" NCoef="0" IVar="-1" Cut="0.0000000000000000e+00" cType="1" res="-1.6555167734622955e-02" rms="1.9761903584003448e-01" purity="9.3811523914337158e-01" nType="-99"/>
            <Node pos="r" depth="3" NCoef="0" IVar="-1" Cut="0.0000000000000000e+00" cType="1" res="1.2865955010056496e-02" rms="3.1491932272911072e-01" purity="7.5768560171127319e-01" nType="-99"/>
          </Node>
        </Node>
      </Node>
    </BinaryTree>
    <BinaryTree type="DecisionTree" boostWeight="1.0000000000000000e+00" itree="527">
      <Node pos="s" depth="0" NCoef="0" IVar="11" Cut="1.1426275968551636e+00" cType="1" res="1.6747327754274011e-03" rms="2.8529855608940125e-01" purity="5.0309991836547852e-01" nType="0">
        <Node pos="l" depth="1" NCoef="0" IVar="10" Cut="3.9986136555671692e-01" cType="1" res="4.8298682668246329e-04" rms="2.8298065066337585e-01" purity="4.8373582959175110e-01" nType="0">
          <Node pos="l" depth="2" NCoef="0" IVar="3" Cut="2.2182781982421875e+02" cType="1" res="-2.3064413107931614e-03" rms="2.8288063406944275e-01" purity="4.9620088934898376e-01" nType="0">
            <Node pos="l" depth="3" NCoef="0" IVar="-1" Cut="0.0000000000000000e+00" cType="1" res="5.7770954445004463e-03" rms="2.8365647792816162e-01" purity="3.3108374476432800e-01" nType="-99"/>
            <Node pos="r" depth="3" NCoef="0" IVar="-1" Cut="0.0000000000000000e+00" cType="1" res="-1.1685369536280632e-02" rms="2.8191205859184265e-01" purity="6.6418087482452393e-01" nType="-99"/>
          </Node>
          <Node pos="r" depth="2" NCoef="0" IVar="0" Cut="1.3259454345703125e+03" cType="1" res="5.1950998604297638e-03" rms="2.8308707475662231e-01" purity="4.6267887949943542e-01" nType="0">
            <Node pos="l" depth="3" NCoef="0" IVar="-1" Cut="0.0000000000000000e+00" cType="1" res="-5.4561910219490528e-03" rms="2.6288107037544250e-01" purity="1.2566430866718292e-01" nType="-99"/>
            <Node pos="r" depth="3" NCoef="0" IVar="-1" Cut="0.0000000000000000e+00" cType="1" res="1.2291710823774338e-02" rms="2.9578942060470581e-01" purity="6.9013726711273193e-01" nType="-99"/>
          </Node>
        </Node>
        <Node pos="r" depth="1" NCoef="0" IVar="1" Cut="4.4019892811775208e-02" cType="1" res="1.3643414713442326e-02" rms="3.0735427141189575e-01" purity="6.9757354259490967e-01" nType="0">
          <Node pos="l" depth="2" NCoef="0" IVar="-1" Cut="0.0000000000000000e+00" cType="1" res="2.5195140391588211e-02" rms="3.4039640426635742e-01" purity="3.7853831052780151e-01" nType="-99"/>
          <Node pos="r" depth="2" NCoef="0" IVar="-1" Cut="0.0000000000000000e+00" cType="1" res="8.1178527325391769e-03" rms="2.9250973463058472e-01" purity="8.2826179265975952e-01" nType="-99"/>
        </Node>
      </Node>
    </BinaryTree>
    <BinaryTree type="DecisionTree" boostWeight="1.0000000000000000e+00" itree="528">
      <Node pos="s" depth="0" NCoef="0" IVar="9" Cut="-4.0029135346412659e-01" cType="1" res="-1.0060431668534875e-03" rms="2.8466045856475830e-01" purity="5.0140148401260376e-01" nType="0">
        <Node pos="l" depth="1" NCoef="0" IVar="11" Cut="8.6663055419921875e-01" cType="1" res="-7.7700889669358730e-03" rms="2.8614065051078796e-01" purity="4.4707202911376953e-01" nType="0">
          <Node pos="l" depth="2" NCoef="0" IVar="4" Cut="2.5643939208984375e+02" cType="1" res="-1.0022368282079697e-02" rms="2.8431588411331177e-01" purity="4.1866502165794373e-01" nType="0">
            <Node pos="l" depth="3" NCoef="0" IVar="-1" Cut="0.0000000000000000e+00" cType="1" res="-8.5492730140686035e-03" rms="2.8481903672218323e-01" purity="3.8341626524925232e-01" nType="-99"/>
            <Node pos="r" depth="3" NCoef="0" IVar="-1" Cut="0.0000000000000000e+00" cType="1" res="-5.4663043469190598e-02" rms="2.7734714746475220e-01" purity="7.8574424982070923e-01" nType="-99"/>
          </Node>
          <Node pos="r" depth="2" NCoef="0" IVar="-1" Cut="0.0000000000000000e+00" cType="1" res="1.2468391098082066e-02" rms="3.0094799399375916e-01" purity="6.9616758823394775e-01" nType="-99"/>
        </Node>
        <Node pos="r" depth="1" NCoef="0" IVar="8" Cut="1.7333177328109741e+00" cType="1" res="2.7010529302060604e-03" rms="2.8377756476402283e-01" purity="5.3117716312408447e-01" nType="0">
          <Node pos="l" depth="2" NCoef="0" IVar="8" Cut="1.0856939554214478e+00" cType="1" res="1.1932568158954382e-03" rms="2.8569880127906799e-01" purity="5.5321216583251953e-01" nType="0">
            <Node pos="l" depth="3" NCoef="0" IVar="-1" Cut="0.0000000000000000e+00" cType="1" res="3.8302077446132898e-03" rms="2.8455331921577454e-01" purity="5.7824450731277466e-01" nType="-99"/>
            <Node pos="r" depth="3" NCoef="0" IVar="-1" Cut="0.0000000000000000e+00" cType="1" res="-1.8987830728292465e-02" rms="2.9569527506828308e-01" purity="3.1498205661773682e-01" nType="-99"/>
          </Node>
          <Node pos="r" depth="2" NCoef="0" IVar="-1" Cut="0.0000000000000000e+00" cType="1" res="6.4082749187946320e-02" rms="2.4491535127162933e-01" purity="1.3314814865589142e-01" nType="-99"/>
        </Node>
      </Node>
    </BinaryTree>
    <BinaryTree type="DecisionTree" boostWeight="1.0000000000000000e+00" itree="529">
      <Node pos="s" depth="0" NCoef="0" IVar="3" Cut="1.3888475036621094e+02" cType="1" res="-5.0873047439381480e-04" rms="2.8825065493583679e-01" purity="5.0041526556015015e-01" nType="0">
        <Node pos="l" depth="1" NCoef="0" IVar="0" Cut="1.0201834106445312e+03" cType="1" res="8.6327949538826942e-03" rms="2.2905386984348297e-01" purity="1.0606896132230759e-01" nType="0">
          <Node pos="l" depth="2" NCoef="0" IVar="-1" Cut="0.0000000000000000e+00" cType="1" res="-8.7877586483955383e-03" rms="1.5373344719409943e-01" purity="2.5422526523470879e-02" nType="-99"/>
          <Node pos="r" depth="2" NCoef="0" IVar="1" Cut="3.1011609360575676e-02" cType="1" res="1.6765855252742767e-02" rms="2.7203357219696045e-01" purity="1.6674084961414337e-01" nType="0">
            <Node pos="l" depth="3" NCoef="0" IVar="-1" Cut="0.0000000000000000e+00" cType="1" res="8.6238316725939512e-04" rms="1.7629712820053101e-01" purity="4.6074885874986649e-02" nType="-99"/>
            <Node pos="r" depth="3" NCoef="0" IVar="-1" Cut="0.0000000000000000e+00" cType="1" res="3.0889566987752914e-02" rms="3.5742729902267456e-01" purity="3.2005915045738220e-01" nType="-99"/>
          </Node>
        </Node>
        <Node pos="r" depth="1" NCoef="0" IVar="1" Cut="2.1899584680795670e-02" cType="1" res="-2.0019416697323322e-03" rms="2.9677367210388184e-01" purity="5.6482928991317749e-01" nType="0">
          <Node pos="l" depth="2" NCoef="0" IVar="1" Cut="8.3443708717823029e-03" cType="1" res="5.5721779353916645e-03" rms="2.6004502177238464e-01" purity="1.6432823240756989e-01" nType="0">
            <Node pos="l" depth="3" NCoef="0" IVar="-1" Cut="0.0000000000000000e+00" cType="1" res="4.2132057249546051e-02" rms="2.2598338127136230e-01" purity="9.5702007412910461e-02" nType="-99"/>
            <Node pos="r" depth="3" NCoef="0" IVar="-1" Cut="0.0000000000000000e+00" cType="1" res="-3.0694685410708189e-03" rms="2.7905055880546570e-01" purity="2.0749820768833160e-01" nType="-99"/>
          </Node>
          <Node pos="r" depth="2" NCoef="0" IVar="7" Cut="1.9392789900302887e-01" cType="1" res="-4.0626381523907185e-03" rms="3.0597209930419922e-01" purity="6.7379385232925415e-01" nType="0">
            <Node pos="l" depth="3" NCoef="0" IVar="-1" Cut="0.0000000000000000e+00" cType="1" res="1.3567694986704737e-04" rms="3.0058687925338745e-01" purity="6.9283449649810791e-01" nType="-99"/>
            <Node pos="r" depth="3" NCoef="0" IVar="-1" Cut="0.0000000000000000e+00" cType="1" res="-1.0655508376657963e-02" rms="3.1410080194473267e-01" purity="6.4400207996368408e-01" nType="-99"/>
          </Node>
        </Node>
      </Node>
    </BinaryTree>
    <BinaryTree type="DecisionTree" boostWeight="1.0000000000000000e+00" itree="530">
      <Node pos="s" depth="0" NCoef="0" IVar="7" Cut="4.0729570388793945e-01" cType="1" res="-7.1928297984413803e-05" rms="2.8652569651603699e-01" purity="4.9863609671592712e-01" nType="0">
        <Node pos="l" depth="1" NCoef="0" IVar="8" Cut="-9.3312758207321167e-01" cType="1" res="-3.7969823461025953e-03" rms="2.8803104162216187e-01" purity="5.3521674871444702e-01" nType="0">
          <Node pos="l" depth="2" NCoef="0" IVar="10" Cut="-9.3297666311264038e-01" cType="1" res="-1.3311118818819523e-02" rms="2.7217075228691101e-01" purity="3.1136080622673035e-01" nType="0">
            <Node pos="l" depth="3" NCoef="0" IVar="-1" Cut="0.0000000000000000e+00" cType="1" res="5.8832915965467691e-04" rms="2.8395679593086243e-01" purity="2.4754023551940918e-01" nType="-99"/>
            <Node pos="r" depth="3" NCoef="0" IVar="-1" Cut="0.0000000000000000e+00" cType="1" res="-2.3713830858469009e-02" rms="2.6630303263664246e-01" purity="3.4087929129600525e-01" nType="-99"/>
          </Node>
          <Node pos="r" depth="2" NCoef="0" IVar="8" Cut="8.4450256824493408e-01" cType="1" res="-1.8417150713503361e-03" rms="2.9114502668380737e-01" purity="5.8122175931930542e-01" nType="0">
            <Node pos="l" depth="3" NCoef="0" IVar="-1" Cut="0.0000000000000000e+00" cType="1" res="5.2646588301286101e-04" rms="2.9468718171119690e-01" purity="6.5414392948150635e-01" nType="-99"/>
            <Node pos="r" depth="3" NCoef="0" IVar="-1" Cut="0.0000000000000000e+00" cType="1" res="-1.3462707400321960e-02" rms="2.7729403972625732e-01" purity="3.0786311626434326e-01" nType="-99"/>
          </Node>
        </Node>
        <Node pos="r" depth="1" NCoef="0" IVar="1" Cut="9.1191984713077545e-02" cType="1" res="7.8001110814511776e-03" rms="2.8315699100494385e-01" purity="4.2133134603500366e-01" nType="0">
          <Node pos="l" depth="2" NCoef="0" IVar="11" Cut="-1.0668753385543823e+00" cType="1" res="3.6253840662539005e-03" rms="2.7828520536422729e-01" purity="2.9634934663772583e-01" nType="0">
            <Node pos="l" depth="3" NCoef="0" IVar="-1" Cut="0.0000000000000000e+00" cType="1" res="-4.6381363645195961e-03" rms="2.5207871198654175e-01" purity="1.5387207269668579e-01" nType="-99"/>
            <Node pos="r" depth="3" NCoef="0" IVar="-1" Cut="0.0000000000000000e+00" cType="1" res="1.5465762466192245e-02" rms="3.2335269451141357e-01" purity="5.7697778940200806e-01" nType="-99"/>
          </Node>
          <Node pos="r" depth="2" NCoef="0" IVar="-1" Cut="0.0000000000000000e+00" cType="1" res="2.4469802156090736e-02" rms="2.9772570729255676e-01" purity="8.1860065460205078e-01" nType="-99"/>
        </Node>
      </Node>
    </BinaryTree>
    <BinaryTree type="DecisionTree" boostWeight="1.0000000000000000e+00" itree="531">
      <Node pos="s" depth="0" NCoef="0" IVar="10" Cut="2.2666277885437012e+00" cType="1" res="-4.8397836508229375e-04" rms="2.8638598322868347e-01" purity="5.0194078683853149e-01" nType="0">
        <Node pos="l" depth="1" NCoef="0" IVar="2" Cut="3.3581054687500000e+02" cType="1" res="3.9188991650007665e-04" rms="2.8764611482620239e-01" purity="5.1144075393676758e-01" nType="0">
          <Node pos="l" depth="2" NCoef="0" IVar="4" Cut="1.5696090698242188e+02" cType="1" res="-3.7434913683682680e-03" rms="2.8920671343803406e-01" purity="4.3437844514846802e-01" nType="0">
            <Node pos="l" depth="3" NCoef="0" IVar="-1" Cut="0.0000000000000000e+00" cType="1" res="-9.9578881636261940e-03" rms="2.8806120157241821e-01" purity="2.6499393582344055e-01" nType="-99"/>
            <Node pos="r" depth="3" NCoef="0" IVar="-1" Cut="0.0000000000000000e+00" cType="1" res="4.8135425895452499e-03" rms="2.9094994068145752e-01" purity="7.1902424097061157e-01" nType="-99"/>
          </Node>
          <Node pos="r" depth="2" NCoef="0" IVar="7" Cut="2.0389515161514282e-01" cType="1" res="3.7895545829087496e-03" rms="2.8631287813186646e-01" purity="5.7475572824478149e-01" nType="0">
            <Node pos="l" depth="3" NCoef="0" IVar="-1" Cut="0.0000000000000000e+00" cType="1" res="-1.1497507803142071e-03" rms="2.8542581200599670e-01" purity="6.0273432731628418e-01" nType="-99"/>
            <Node pos="r" depth="3" NCoef="0" IVar="-1" Cut="0.0000000000000000e+00" cType="1" res="1.2860649265348911e-02" rms="2.8749608993530273e-01" purity="5.3262948989868164e-01" nType="-99"/>
          </Node>
        </Node>
        <Node pos="r" depth="1" NCoef="0" IVar="-1" Cut="0.0000000000000000e+00" cType="1" res="-4.8024583607912064e-02" rms="2.3259042203426361e-01" purity="1.4952582120895386e-01" nType="-99"/>
      </Node>
    </BinaryTree>
    <BinaryTree type="DecisionTree" boostWeight="1.0000000000000000e+00" itree="532">
      <Node pos="s" depth="0" NCoef="0" IVar="9" Cut="4.0005022287368774e-01" cType="1" res="1.6660271212458611e-03" rms="2.8706353902816772e-01" purity="5.0186759233474731e-01" nType="0">
        <Node pos="l" depth="1" NCoef="0" IVar="4" Cut="1.4018800354003906e+02" cType="1" res="4.7989836893975735e-03" rms="2.8760236501693726e-01" purity="5.2975887060165405e-01" nType="0">
          <Node pos="l" depth="2" NCoef="0" IVar="3" Cut="2.2246272277832031e+02" cType="1" res="1.0619920678436756e-02" rms="2.9001960158348083e-01" purity="2.2865958511829376e-01" nType="0">
            <Node pos="l" depth="3" NCoef="0" IVar="-1" Cut="0.0000000000000000e+00" cType="1" res="7.7730375342071056e-03" rms="2.7161732316017151e-01" purity="1.9895449280738831e-01" nType="-99"/>
            <Node pos="r" depth="3" NCoef="0" IVar="-1" Cut="0.0000000000000000e+00" cType="1" res="2.7762038633227348e-02" rms="3.5395392775535583e-01" purity="3.4831410646438599e-01" nType="-99"/>
          </Node>
          <Node pos="r" depth="2" NCoef="0" IVar="0" Cut="1.4603671875000000e+03" cType="1" res="1.0008111130446196e-03" rms="2.8595024347305298e-01" purity="7.2622662782669067e-01" nType="0">
            <Node pos="l" depth="3" NCoef="0" IVar="-1" Cut="0.0000000000000000e+00" cType="1" res="-8.5525261238217354e-03" rms="3.5445031523704529e-01" purity="3.8909378647804260e-01" nType="-99"/>
            <Node pos="r" depth="3" NCoef="0" IVar="-1" Cut="0.0000000000000000e+00" cType="1" res="6.5061724744737148e-03" rms="2.6058411598205566e-01" purity="8.3232712745666504e-01" nType="-99"/>
          </Node>
        </Node>
        <Node pos="r" depth="1" NCoef="0" IVar="7" Cut="6.7209678888320923e-01" cType="1" res="-4.2543704621493816e-03" rms="2.8594887256622314e-01" purity="4.4916096329689026e-01" nType="0">
          <Node pos="l" depth="2" NCoef="0" IVar="8" Cut="-9.3256330490112305e-01" cType="1" res="1.1045338396797888e-05" rms="2.9464766383171082e-01" purity="5.0645434856414795e-01" nType="0">
            <Node pos="l" depth="3" NCoef="0" IVar="-1" Cut="0.0000000000000000e+00" cType="1" res="2.5434950366616249e-02" rms="2.7751263976097107e-01" purity="3.0824178457260132e-01" nType="-99"/>
            <Node pos="r" depth="3" NCoef="0" IVar="-1" Cut="0.0000000000000000e+00" cType="1" res="-3.7480993196368217e-03" rms="2.9747775197029114e-01" purity="5.4174351692199707e-01" nType="-99"/>
          </Node>
          <Node pos="r" depth="2" NCoef="0" IVar="11" Cut="-1.0668615102767944e+00" cType="1" res="-1.6402913257479668e-02" rms="2.5919643044471741e-01" purity="2.8598082065582275e-01" nType="0">
            <Node pos="l" depth="3" NCoef="0" IVar="-1" Cut="0.0000000000000000e+00" cType="1" res="-1.0410771705210209e-02" rms="2.4133636057376862e-01" purity="1.4494568109512329e-01" nType="-99"/>
            <Node pos="r" depth="3" NCoef="0" IVar="-1" Cut="0.0000000000000000e+00" cType="1" res="-3.4122295677661896e-02" rms="2.8790441155433655e-01" purity="5.4174238443374634e-01" nType="-99"/>
          </Node>
        </Node>
      </Node>
    </BinaryTree>
    <BinaryTree type="DecisionTree" boostWeight="1.0000000000000000e+00" itree="533">
      <Node pos="s" depth="0" NCoef="0" IVar="9" Cut="4.0005758404731750e-01" cType="1" res="-2.1800869144499302e-03" rms="2.8124320507049561e-01" purity="5.0482577085494995e-01" nType="0">
        <Node pos="l" depth="1" NCoef="0" IVar="11" Cut="-1.3428726196289062e+00" cType="1" res="-5.3487163968384266e-03" rms="2.8035080432891846e-01" purity="5.2721208333969116e-01" nType="0">
          <Node pos="l" depth="2" NCoef="0" IVar="11" Cut="-2.2109072208404541e+00" cType="1" res="-9.3233827501535416e-03" rms="2.9280069470405579e-01" purity="2.9773938655853271e-01" nType="0">
            <Node pos="l" depth="3" NCoef="0" IVar="-1" Cut="0.0000000000000000e+00" cType="1" res="-8.0866878852248192e-03" rms="2.9345384240150452e-01" purity="2.5085762143135071e-01" nType="-99"/>
            <Node pos="r" depth="3" NCoef="0" IVar="-1" Cut="0.0000000000000000e+00" cType="1" res="-3.0941938981413841e-02" rms="2.8690546751022339e-01" purity="6.7472034692764282e-01" nType="-99"/>
          </Node>
          <Node pos="r" depth="2" NCoef="0" IVar="11" Cut="-1.5912029147148132e-01" cType="1" res="-8.7586132576689124e-04" rms="2.6557248830795288e-01" purity="7.8544706106185913e-01" nType="0">
            <Node pos="l" depth="3" NCoef="0" IVar="-1" Cut="0.0000000000000000e+00" cType="1" res="8.5735665634274483e-03" rms="2.5590056180953979e-01" purity="8.0419737100601196e-01" nType="-99"/>
            <Node pos="r" depth="3" NCoef="0" IVar="-1" Cut="0.0000000000000000e+00" cType="1" res="-6.9159837439656258e-03" rms="2.7135300636291504e-01" purity="7.7371942996978760e-01" nType="-99"/>
          </Node>
        </Node>
        <Node pos="r" depth="1" NCoef="0" IVar="1" Cut="3.9110504090785980e-02" cType="1" res="3.6391091998666525e-03" rms="2.8278225660324097e-01" purity="4.6371310949325562e-01" nType="0">
          <Node pos="l" depth="2" NCoef="0" IVar="11" Cut="-1.8954094648361206e+00" cType="1" res="-4.3927151709794998e-03" rms="2.5192952156066895e-01" purity="1.6548357903957367e-01" nType="0">
            <Node pos="l" depth="3" NCoef="0" IVar="-1" Cut="0.0000000000000000e+00" cType="1" res="4.5497352257370949e-03" rms="2.2585284709930420e-01" purity="9.7847573459148407e-02" nType="-99"/>
            <Node pos="r" depth="3" NCoef="0" IVar="-1" Cut="0.0000000000000000e+00" cType="1" res="-2.1117327734827995e-02" rms="3.1146189570426941e-01" purity="3.5007202625274658e-01" nType="-99"/>
          </Node>
          <Node pos="r" depth="2" NCoef="0" IVar="8" Cut="3.3827614784240723e-01" cType="1" res="9.5799881964921951e-03" rms="3.0345565080642700e-01" purity="6.8430382013320923e-01" nType="0">
            <Node pos="l" depth="3" NCoef="0" IVar="-1" Cut="0.0000000000000000e+00" cType="1" res="1.7797309905290604e-02" rms="2.9752159118652344e-01" purity="7.1870297193527222e-01" nType="-99"/>
            <Node pos="r" depth="3" NCoef="0" IVar="-1" Cut="0.0000000000000000e+00" cType="1" res="-1.4805594692006707e-03" rms="3.1301584839820862e-01" purity="6.2557148933410645e-01" nType="-99"/>
          </Node>
        </Node>
      </Node>
    </BinaryTree>
    <BinaryTree type="DecisionTree" boostWeight="1.0000000000000000e+00" itree="534">
      <Node pos="s" depth="0" NCoef="0" IVar="1" Cut="1.0948824137449265e-01" cType="1" res="1.3017285382375121e-03" rms="2.8661525249481201e-01" purity="4.9983274936676025e-01" nType="0">
        <Node pos="l" depth="1" NCoef="0" IVar="5" Cut="6.8742645263671875e+01" cType="1" res="4.1486388072371483e-03" rms="2.9421788454055786e-01" purity="3.8377448916435242e-01" nType="0">
          <Node pos="l" depth="2" NCoef="0" IVar="5" Cut="6.4280181884765625e+01" cType="1" res="-2.3796188179403543e-03" rms="2.6577368378639221e-01" purity="1.3730330765247345e-01" nType="0">
            <Node pos="l" depth="3" NCoef="0" IVar="-1" Cut="0.0000000000000000e+00" cType="1" res="1.7475672066211700e-03" rms="2.5747963786125183e-01" purity="1.2487026304006577e-01" nType="-99"/>
            <Node pos="r" depth="3" NCoef="0" IVar="-1" Cut="0.0000000000000000e+00" cType="1" res="-2.0541714504361153e-02" rms="3.0234304070472717e-01" purity="1.9782544672489166e-01" nType="-99"/>
          </Node>
          <Node pos="r" depth="2" NCoef="0" IVar="3" Cut="1.5538417053222656e+02" cType="1" res="9.5593398436903954e-03" rms="3.1575515866279602e-01" purity="5.8805280923843384e-01" nType="0">
            <Node pos="l" depth="3" NCoef="0" IVar="-1" Cut="0.0000000000000000e+00" cType="1" res="-1.6308581456542015e-02" rms="2.8087183833122253e-01" purity="2.1840140223503113e-01" nType="-99"/>
            <Node pos="r" depth="3" NCoef="0" IVar="-1" Cut="0.0000000000000000e+00" cType="1" res="1.2274428270757198e-02" rms="3.2001817226409912e-01" purity="6.3782769441604614e-01" nType="-99"/>
          </Node>
        </Node>
        <Node pos="r" depth="1" NCoef="0" IVar="5" Cut="9.1342330932617188e+01" cType="1" res="-7.0501305162906647e-03" rms="2.6286903023719788e-01" purity="8.4030789136886597e-01" nType="0">
          <Node pos="l" depth="2" NCoef="0" IVar="3" Cut="2.2672593688964844e+02" cType="1" res="-1.9444392994046211e-02" rms="3.5810887813568115e-01" purity="6.4296114444732666e-01" nType="0">
            <Node pos="l" depth="3" NCoef="0" IVar="-1" Cut="0.0000000000000000e+00" cType="1" res="-5.0283647142350674e-03" rms="3.7574636936187744e-01" purity="5.5583131313323975e-01" nType="-99"/>
            <Node pos="r" depth="3" NCoef="0" IVar="-1" Cut="0.0000000000000000e+00" cType="1" res="-3.1109606847167015e-02" rms="3.3453714847564697e-01" purity="7.5008767843246460e-01" nType="-99"/>
          </Node>
          <Node pos="r" depth="2" NCoef="0" IVar="-1" Cut="0.0000000000000000e+00" cType="1" res="-1.0552615858614445e-03" rms="1.9313275814056396e-01" purity="9.4599729776382446e-01" nType="-99"/>
        </Node>
      </Node>
    </BinaryTree>
    <BinaryTree type="DecisionTree" boostWeight="1.0000000000000000e+00" itree="535">
      <Node pos="s" depth="0" NCoef="0" IVar="8" Cut="-3.9983603358268738e-01" cType="1" res="1.7744083888828754e-03" rms="2.8662151098251343e-01" purity="5.0760638713836670e-01" nType="0">
        <Node pos="l" depth="1" NCoef="0" IVar="8" Cut="-6.2840622663497925e-01" cType="1" res="-3.7978528998792171e-03" rms="2.7977529168128967e-01" purity="4.3055602908134460e-01" nType="0">
          <Node pos="l" depth="2" NCoef="0" IVar="8" Cut="-7.3180001974105835e-01" cType="1" res="-1.0456347808940336e-04" rms="2.8054457902908325e-01" purity="3.7999239563941956e-01" nType="0">
            <Node pos="l" depth="3" NCoef="0" IVar="-1" Cut="0.0000000000000000e+00" cType="1" res="-5.4686185903847218e-03" rms="2.7495956420898438e-01" purity="3.4877339005470276e-01" nType="-99"/>
            <Node pos="r" depth="3" NCoef="0" IVar="-1" Cut="0.0000000000000000e+00" cType="1" res="2.8432969003915787e-02" rms="3.1343129277229309e-01" purity="5.8524417877197266e-01" nType="-99"/>
          </Node>
          <Node pos="r" depth="2" NCoef="0" IVar="4" Cut="1.7256349182128906e+02" cType="1" res="-1.5443665906786919e-02" rms="2.7701330184936523e-01" purity="5.8999514579772949e-01" nType="0">
            <Node pos="l" depth="3" NCoef="0" IVar="-1" Cut="0.0000000000000000e+00" cType="1" res="-3.6825951188802719e-02" rms="2.8913268446922302e-01" purity="3.6515262722969055e-01" nType="-99"/>
            <Node pos="r" depth="3" NCoef="0" IVar="-1" Cut="0.0000000000000000e+00" cType="1" res="1.0949551127851009e-02" rms="2.6069968938827515e-01" purity="8.4533745050430298e-01" nType="-99"/>
          </Node>
        </Node>
        <Node pos="r" depth="1" NCoef="0" IVar="8" Cut="1.5809507369995117e+00" cType="1" res="4.6700700186192989e-03" rms="2.9007312655448914e-01" purity="5.4764616489410400e-01" nType="0">
          <Node pos="l" depth="2" NCoef="0" IVar="5" Cut="7.0670593261718750e+01" cType="1" res="6.6158720292150974e-03" rms="2.9799550771713257e-01" purity="5.9170717000961304e-01" nType="0">
            <Node pos="l" depth="3" NCoef="0" IVar="-1" Cut="0.0000000000000000e+00" cType="1" res="1.5861874446272850e-02" rms="3.1988748908042908e-01" purity="2.7214136719703674e-01" nType="-99"/>
            <Node pos="r" depth="3" NCoef="0" IVar="-1" Cut="0.0000000000000000e+00" cType="1" res="1.6543272649869323e-03" rms="2.8469890356063843e-01" purity="7.7294868230819702e-01" nType="-99"/>
          </Node>
          <Node pos="r" depth="2" NCoef="0" IVar="3" Cut="1.8267797851562500e+02" cType="1" res="-1.5184016898274422e-02" rms="1.9019003212451935e-01" purity="9.8067030310630798e-02" nType="0">
            <Node pos="l" depth="3" NCoef="0" IVar="-1" Cut="0.0000000000000000e+00" cType="1" res="-2.2732647135853767e-02" rms="1.6968953609466553e-01" purity="5.4215889424085617e-02" nType="-99"/>
            <Node pos="r" depth="3" NCoef="0" IVar="-1" Cut="0.0000000000000000e+00" cType="1" res="-3.9670858532190323e-02" rms="2.0979028940200806e-01" purity="1.4536935091018677e-01" nType="-99"/>
          </Node>
        </Node>
      </Node>
    </BinaryTree>
    <BinaryTree type="DecisionTree" boostWeight="1.0000000000000000e+00" itree="536">
      <Node pos="s" depth="0" NCoef="0" IVar="9" Cut="-3.9997938275337219e-01" cType="1" res="-4.0082260966300964e-03" rms="2.8462314605712891e-01" purity="4.9476370215415955e-01" nType="0">
        <Node pos="l" depth="1" NCoef="0" IVar="6" Cut="5.6584327697753906e+01" cType="1" res="2.1785893477499485e-03" rms="2.8998330235481262e-01" purity="4.5367199182510376e-01" nType="0">
          <Node pos="l" depth="2" NCoef="0" IVar="11" Cut="-2.4477272033691406e+00" cType="1" res="8.3894059062004089e-03" rms="2.9712212085723877e-01" purity="2.3588548600673676e-01" nType="0">
            <Node pos="l" depth="3" NCoef="0" IVar="-1" Cut="0.0000000000000000e+00" cType="1" res="2.5151055306196213e-03" rms="2.8578096628189087e-01" purity="1.9383193552494049e-01" nType="-99"/>
            <Node pos="r" depth="3" NCoef="0" IVar="-1" Cut="0.0000000000000000e+00" cType="1" res="3.7748079746961594e-02" rms="3.5376012325286865e-01" purity="4.8074290156364441e-01" nType="-99"/>
          </Node>
          <Node pos="r" depth="2" NCoef="0" IVar="6" Cut="6.8036064147949219e+01" cType="1" res="-6.5754316747188568e-03" rms="2.7937763929367065e-01" purity="7.6063764095306396e-01" nType="0">
            <Node pos="l" depth="3" NCoef="0" IVar="-1" Cut="0.0000000000000000e+00" cType="1" res="-1.9460139796137810e-02" rms="3.3468648791313171e-01" purity="5.2942681312561035e-01" nType="-99"/>
            <Node pos="r" depth="3" NCoef="0" IVar="-1" Cut="0.0000000000000000e+00" cType="1" res="-1.0541059309616685e-03" rms="2.5617054104804993e-01" purity="8.4436744451522827e-01" nType="-99"/>
          </Node>
        </Node>
        <Node pos="r" depth="1" NCoef="0" IVar="10" Cut="-1.9993834495544434e+00" cType="1" res="-7.4921892955899239e-03" rms="2.8149992227554321e-01" purity="5.1790356636047363e-01" nType="0">
          <Node pos="l" depth="2" NCoef="0" IVar="-1" Cut="0.0000000000000000e+00" cType="1" res="-3.9352249354124069e-02" rms="2.5704106688499451e-01" purity="2.4953785538673401e-01" nType="-99"/>
          <Node pos="r" depth="2" NCoef="0" IVar="11" Cut="5.9035396575927734e-01" cType="1" res="-6.4845797605812550e-03" rms="2.8251251578330994e-01" purity="5.3001815080642700e-01" nType="0">
            <Node pos="l" depth="3" NCoef="0" IVar="-1" Cut="0.0000000000000000e+00" cType="1" res="-4.9536065198481083e-03" rms="2.8135827183723450e-01" purity="4.8808792233467102e-01" nType="-99"/>
            <Node pos="r" depth="3" NCoef="0" IVar="-1" Cut="0.0000000000000000e+00" cType="1" res="-2.0973149687051773e-02" rms="2.8748336434364319e-01" purity="7.2224497795104980e-01" nType="-99"/>
          </Node>
        </Node>
      </Node>
    </BinaryTree>
    <BinaryTree type="DecisionTree" boostWeight="1.0000000000000000e+00" itree="537">
      <Node pos="s" depth="0" NCoef="0" IVar="11" Cut="3.1425476074218750e-01" cType="1" res="-1.5982117038220167e-03" rms="2.8643116354942322e-01" purity="4.9882534146308899e-01" nType="0">
        <Node pos="l" depth="1" NCoef="0" IVar="10" Cut="9.3331581354141235e-01" cType="1" res="1.7757804016582668e-04" rms="2.8690123558044434e-01" purity="4.3975433707237244e-01" nType="0">
          <Node pos="l" depth="2" NCoef="0" IVar="9" Cut="3.9986491203308105e-01" cType="1" res="2.1332593169063330e-03" rms="2.8674221038818359e-01" purity="4.6669617295265198e-01" nType="0">
            <Node pos="l" depth="3" NCoef="0" IVar="-1" Cut="0.0000000000000000e+00" cType="1" res="6.1723543331027031e-03" rms="2.8943118453025818e-01" purity="4.9330082535743713e-01" nType="-99"/>
            <Node pos="r" depth="3" NCoef="0" IVar="-1" Cut="0.0000000000000000e+00" cType="1" res="-4.9638352356851101e-03" rms="2.8103163838386536e-01" purity="4.1199719905853271e-01" nType="-99"/>
          </Node>
          <Node pos="r" depth="2" NCoef="0" IVar="1" Cut="7.7759042382240295e-02" cType="1" res="-6.6006430424749851e-03" rms="2.8734868764877319e-01" purity="3.4637624025344849e-01" nType="0">
            <Node pos="l" depth="3" NCoef="0" IVar="-1" Cut="0.0000000000000000e+00" cType="1" res="2.1840303670614958e-03" rms="2.7322974801063538e-01" purity="2.0423871278762817e-01" nType="-99"/>
            <Node pos="r" depth="3" NCoef="0" IVar="-1" Cut="0.0000000000000000e+00" cType="1" res="-2.3063998669385910e-02" rms="3.1434127688407898e-01" purity="6.4592260122299194e-01" nType="-99"/>
          </Node>
        </Node>
        <Node pos="r" depth="1" NCoef="0" IVar="7" Cut="-4.7251362353563309e-02" cType="1" res="-8.4685301408171654e-03" rms="2.8450086712837219e-01" purity="7.2736424207687378e-01" nType="0">
          <Node pos="l" depth="2" NCoef="0" IVar="11" Cut="1.1429704427719116e+00" cType="1" res="2.5024055503308773e-03" rms="2.8165444731712341e-01" purity="7.2999155521392822e-01" nType="0">
            <Node pos="l" depth="3" NCoef="0" IVar="-1" Cut="0.0000000000000000e+00" cType="1" res="-7.9755280166864395e-03" rms="2.5438004732131958e-01" purity="7.8181874752044678e-01" nType="-99"/>
            <Node pos="r" depth="3" NCoef="0" IVar="-1" Cut="0.0000000000000000e+00" cType="1" res="1.3941148295998573e-02" rms="3.1634387373924255e-01" purity="6.5563243627548218e-01" nType="-99"/>
          </Node>
          <Node pos="r" depth="2" NCoef="0" IVar="5" Cut="8.3716842651367188e+01" cType="1" res="-1.6975177451968193e-02" rms="2.8639933466911316e-01" purity="7.2532701492309570e-01" nType="0">
            <Node pos="l" depth="3" NCoef="0" IVar="-1" Cut="0.0000000000000000e+00" cType="1" res="-3.3747084438800812e-02" rms="3.3780881762504578e-01" purity="4.4693297147750854e-01" nType="-99"/>
            <Node pos="r" depth="3" NCoef="0" IVar="-1" Cut="0.0000000000000000e+00" cType="1" res="-9.7954180091619492e-03" rms="2.5987777113914490e-01" purity="8.4806162118911743e-01" nType="-99"/>
          </Node>
        </Node>
      </Node>
    </BinaryTree>
    <BinaryTree type="DecisionTree" boostWeight="1.0000000000000000e+00" itree="538">
      <Node pos="s" depth="0" NCoef="0" IVar="10" Cut="1.7331548929214478e+00" cType="1" res="-8.7607564637437463e-04" rms="2.8591904044151306e-01" purity="4.9636435508728027e-01" nType="0">
        <Node pos="l" depth="1" NCoef="0" IVar="10" Cut="-8.5720515251159668e-01" cType="1" res="-1.7485353164374828e-03" rms="2.8555676341056824e-01" purity="5.1331150531768799e-01" nType="0">
          <Node pos="l" depth="2" NCoef="0" IVar="10" Cut="-1.3197835683822632e+00" cType="1" res="5.0692614167928696e-03" rms="2.8482744097709656e-01" purity="4.3501317501068115e-01" nType="0">
            <Node pos="l" depth="3" NCoef="0" IVar="-1" Cut="0.0000000000000000e+00" cType="1" res="-2.3486062418669462e-03" rms="2.8233161568641663e-01" purity="3.6169871687889099e-01" nType="-99"/>
            <Node pos="r" depth="3" NCoef="0" IVar="-1" Cut="0.0000000000000000e+00" cType="1" res="1.7758600413799286e-02" rms="2.8796449303627014e-01" purity="5.3643852472305298e-01" nType="-99"/>
          </Node>
          <Node pos="r" depth="2" NCoef="0" IVar="4" Cut="2.3944830322265625e+02" cType="1" res="-4.3135606683790684e-03" rms="2.8578856587409973e-01" purity="5.4276931285858154e-01" nType="0">
            <Node pos="l" depth="3" NCoef="0" IVar="-1" Cut="0.0000000000000000e+00" cType="1" res="-7.1138124912977219e-03" rms="2.9366239905357361e-01" purity="4.7670400142669678e-01" nType="-99"/>
            <Node pos="r" depth="3" NCoef="0" IVar="-1" Cut="0.0000000000000000e+00" cType="1" res="9.2357164248824120e-03" rms="2.4185818433761597e-01" purity="8.7664264440536499e-01" nType="-99"/>
          </Node>
        </Node>
        <Node pos="r" depth="1" NCoef="0" IVar="11" Cut="-1.8953495025634766e+00" cType="1" res="9.5393368974328041e-03" rms="2.9000657796859741e-01" purity="2.9404890537261963e-01" nType="0">
          <Node pos="l" depth="2" NCoef="0" IVar="-1" Cut="0.0000000000000000e+00" cType="1" res="-7.5967935845255852e-04" rms="2.4973306059837341e-01" purity="1.2430794537067413e-01" nType="-99"/>
          <Node pos="r" depth="2" NCoef="0" IVar="-1" Cut="0.0000000000000000e+00" cType="1" res="2.1848727017641068e-02" rms="3.4411007165908813e-01" purity="5.6519305706024170e-01" nType="-99"/>
        </Node>
      </Node>
    </BinaryTree>
    <BinaryTree type="DecisionTree" boostWeight="1.0000000000000000e+00" itree="539">
      <Node pos="s" depth="0" NCoef="0" IVar="10" Cut="3.9981764554977417e-01" cType="1" res="-3.6053368821740150e-03" rms="2.8453293442726135e-01" purity="4.9665859341621399e-01" nType="0">
        <Node pos="l" depth="1" NCoef="0" IVar="6" Cut="9.9022575378417969e+01" cType="1" res="-7.4518988840281963e-03" rms="2.8229743242263794e-01" purity="5.0351119041442871e-01" nType="0">
          <Node pos="l" depth="2" NCoef="0" IVar="9" Cut="6.6625678539276123e-01" cType="1" res="-9.2847263440489769e-03" rms="2.9744109511375427e-01" purity="4.2820104956626892e-01" nType="0">
            <Node pos="l" depth="3" NCoef="0" IVar="-1" Cut="0.0000000000000000e+00" cType="1" res="-1.3696727342903614e-02" rms="2.9624515771865845e-01" purity="4.5360684394836426e-01" nType="-99"/>
            <Node pos="r" depth="3" NCoef="0" IVar="-1" Cut="0.0000000000000000e+00" cType="1" res="-5.9841433539986610e-05" rms="3.0079713463783264e-01" purity="3.5229319334030151e-01" nType="-99"/>
          </Node>
          <Node pos="r" depth="2" NCoef="0" IVar="-1" Cut="0.0000000000000000e+00" cType="1" res="1.1444002389907837e-02" rms="1.6320466995239258e-01" purity="9.5741057395935059e-01" nType="-99"/>
        </Node>
        <Node pos="r" depth="1" NCoef="0" IVar="10" Cut="1.8854626417160034e+00" cType="1" res="2.7041928842663765e-03" rms="2.8805103898048401e-01" purity="4.8541828989982605e-01" nType="0">
          <Node pos="l" depth="2" NCoef="0" IVar="11" Cut="3.1417289376258850e-01" cType="1" res="1.7125872545875609e-04" rms="2.8715568780899048e-01" purity="5.2233868837356567e-01" nType="0">
            <Node pos="l" depth="3" NCoef="0" IVar="-1" Cut="0.0000000000000000e+00" cType="1" res="-4.4162417761981487e-03" rms="2.8610402345657349e-01" purity="4.5319914817810059e-01" nType="-99"/>
            <Node pos="r" depth="3" NCoef="0" IVar="-1" Cut="0.0000000000000000e+00" cType="1" res="1.5011145733296871e-02" rms="2.9024457931518555e-01" purity="7.5226587057113647e-01" nType="-99"/>
          </Node>
          <Node pos="r" depth="2" NCoef="0" IVar="1" Cut="3.7216223776340485e-02" cType="1" res="1.6222089529037476e-02" rms="2.9241234064102173e-01" purity="2.8837934136390686e-01" nType="0">
            <Node pos="l" depth="3" NCoef="0" IVar="-1" Cut="0.0000000000000000e+00" cType="1" res="1.0307623073458672e-02" rms="2.2178044915199280e-01" purity="8.9535087347030640e-02" nType="-99"/>
            <Node pos="r" depth="3" NCoef="0" IVar="-1" Cut="0.0000000000000000e+00" cType="1" res="2.3483695462346077e-02" rms="3.4810137748718262e-01" purity="4.8509868979454041e-01" nType="-99"/>
          </Node>
        </Node>
      </Node>
    </BinaryTree>
    <BinaryTree type="DecisionTree" boostWeight="1.0000000000000000e+00" itree="540">
      <Node pos="s" depth="0" NCoef="0" IVar="10" Cut="1.9998213052749634e+00" cType="1" res="-1.6472584684379399e-04" rms="2.8453651070594788e-01" purity="5.0094628334045410e-01" nType="0">
        <Node pos="l" depth="1" NCoef="0" IVar="3" Cut="2.9227285766601562e+02" cType="1" res="-1.0708241024985909e-03" rms="2.8396731615066528e-01" purity="5.1299130916595459e-01" nType="0">
          <Node pos="l" depth="2" NCoef="0" IVar="4" Cut="1.2001011657714844e+02" cType="1" res="1.1661971220746636e-03" rms="2.8613892197608948e-01" purity="4.3893912434577942e-01" nType="0">
            <Node pos="l" depth="3" NCoef="0" IVar="-1" Cut="0.0000000000000000e+00" cType="1" res="-6.2774457037448883e-03" rms="2.5022497773170471e-01" purity="1.3060609996318817e-01" nType="-99"/>
            <Node pos="r" depth="3" NCoef="0" IVar="-1" Cut="0.0000000000000000e+00" cType="1" res="4.3633989989757538e-03" rms="3.0434745550155640e-01" purity="6.1142230033874512e-01" nType="-99"/>
          </Node>
          <Node pos="r" depth="2" NCoef="0" IVar="4" Cut="1.4593727111816406e+02" cType="1" res="-7.7631417661905289e-03" rms="2.7726137638092041e-01" purity="7.3452740907669067e-01" nType="0">
            <Node pos="l" depth="3" NCoef="0" IVar="-1" Cut="0.0000000000000000e+00" cType="1" res="-3.5053826868534088e-02" rms="3.1832090020179749e-01" purity="2.9348006844520569e-01" nType="-99"/>
            <Node pos="r" depth="3" NCoef="0" IVar="-1" Cut="0.0000000000000000e+00" cType="1" res="-4.3488582596182823e-03" rms="2.7028316259384155e-01" purity="8.0058950185775757e-01" nType="-99"/>
          </Node>
        </Node>
        <Node pos="r" depth="1" NCoef="0" IVar="-1" Cut="0.0000000000000000e+00" cType="1" res="2.1700162440538406e-02" rms="2.9486188292503357e-01" purity="2.6604038476943970e-01" nType="-99"/>
      </Node>
    </BinaryTree>
    <BinaryTree type="DecisionTree" boostWeight="1.0000000000000000e+00" itree="541">
      <Node pos="s" depth="0" NCoef="0" IVar="11" Cut="1.6951942443847656e+00" cType="1" res="1.9608493894338608e-03" rms="2.8256124258041382e-01" purity="5.0317269563674927e-01" nType="0">
        <Node pos="l" depth="1" NCoef="0" IVar="7" Cut="6.8017297983169556e-01" cType="1" res="2.5781823787838221e-03" rms="2.8139573335647583e-01" purity="4.9902218580245972e-01" nType="0">
          <Node pos="l" depth="2" NCoef="0" IVar="3" Cut="2.1622364807128906e+02" cType="1" res="4.2144460603594780e-03" rms="2.8777968883514404e-01" purity="5.4770117998123169e-01" nType="0">
            <Node pos="l" depth="3" NCoef="0" IVar="-1" Cut="0.0000000000000000e+00" cType="1" res="1.0306946001946926e-02" rms="2.9471340775489807e-01" purity="3.5863059759140015e-01" nType="-99"/>
            <Node pos="r" depth="3" NCoef="0" IVar="-1" Cut="0.0000000000000000e+00" cType="1" res="2.8780943830497563e-04" rms="2.8160127997398376e-01" purity="7.1078813076019287e-01" nType="-99"/>
          </Node>
          <Node pos="r" depth="2" NCoef="0" IVar="9" Cut="1.4653868675231934e+00" cType="1" res="-3.3753989264369011e-03" rms="2.5674387812614441e-01" purity="3.2190254330635071e-01" nType="0">
            <Node pos="l" depth="3" NCoef="0" IVar="-1" Cut="0.0000000000000000e+00" cType="1" res="-9.2833125963807106e-03" rms="2.5750088691711426e-01" purity="3.4117180109024048e-01" nType="-99"/>
            <Node pos="r" depth="3" NCoef="0" IVar="-1" Cut="0.0000000000000000e+00" cType="1" res="3.1334880739450455e-02" rms="2.4987071752548218e-01" purity="1.8187676370143890e-01" nType="-99"/>
          </Node>
        </Node>
        <Node pos="r" depth="1" NCoef="0" IVar="-1" Cut="0.0000000000000000e+00" cType="1" res="-1.3631166890263557e-02" rms="3.1032857298851013e-01" purity="6.0874587297439575e-01" nType="-99"/>
      </Node>
    </BinaryTree>
    <BinaryTree type="DecisionTree" boostWeight="1.0000000000000000e+00" itree="542">
      <Node pos="s" depth="0" NCoef="0" IVar="8" Cut="-6.6648024320602417e-01" cType="1" res="-2.0673824474215508e-04" rms="2.8469336032867432e-01" purity="4.9927973747253418e-01" nType="0">
        <Node pos="l" depth="1" NCoef="0" IVar="8" Cut="-8.6964279413223267e-01" cType="1" res="-8.9969951659440994e-03" rms="2.7249574661254883e-01" purity="3.4996309876441956e-01" nType="0">
          <Node pos="l" depth="2" NCoef="0" IVar="8" Cut="-1.0534670352935791e+00" cType="1" res="-5.4142405278980732e-03" rms="2.6433533430099487e-01" purity="2.9817879199981689e-01" nType="0">
            <Node pos="l" depth="3" NCoef="0" IVar="-1" Cut="0.0000000000000000e+00" cType="1" res="-1.4483789913356304e-02" rms="2.5228857994079590e-01" purity="2.3446916043758392e-01" nType="-99"/>
            <Node pos="r" depth="3" NCoef="0" IVar="-1" Cut="0.0000000000000000e+00" cType="1" res="8.4325801581144333e-03" rms="2.9725804924964905e-01" purity="4.8987483978271484e-01" nType="-99"/>
          </Node>
          <Node pos="r" depth="2" NCoef="0" IVar="8" Cut="-7.6320672035217285e-01" cType="1" res="-2.1307986229658127e-02" rms="2.9851523041725159e-01" purity="5.2790337800979614e-01" nType="0">
            <Node pos="l" depth="3" NCoef="0" IVar="-1" Cut="0.0000000000000000e+00" cType="1" res="-4.1877336800098419e-02" rms="3.0416136980056763e-01" purity="5.1051086187362671e-01" nType="-99"/>
            <Node pos="r" depth="3" NCoef="0" IVar="-1" Cut="0.0000000000000000e+00" cType="1" res="-4.4676889665424824e-03" rms="2.9215273261070251e-01" purity="5.4399234056472778e-01" nType="-99"/>
          </Node>
        </Node>
        <Node pos="r" depth="1" NCoef="0" IVar="3" Cut="2.3391796875000000e+02" cType="1" res="2.6470154989510775e-03" rms="2.8848490118980408e-01" purity="5.4775530099868774e-01" nType="0">
          <Node pos="l" depth="2" NCoef="0" IVar="2" Cut="4.5166296386718750e+02" cType="1" res="-8.8135874830186367e-04" rms="2.9165866971015930e-01" purity="3.8722351193428040e-01" nType="0">
            <Node pos="l" depth="3" NCoef="0" IVar="-1" Cut="0.0000000000000000e+00" cType="1" res="1.9646766595542431e-03" rms="2.9190924763679504e-01" purity="3.9043042063713074e-01" nType="-99"/>
            <Node pos="r" depth="3" NCoef="0" IVar="-1" Cut="0.0000000000000000e+00" cType="1" res="-1.7763949930667877e-02" rms="2.8965359926223755e-01" purity="3.6789023876190186e-01" nType="-99"/>
          </Node>
          <Node pos="r" depth="2" NCoef="0" IVar="6" Cut="6.6376380920410156e+01" cType="1" res="6.7045059986412525e-03" rms="2.8473740816116333e-01" purity="7.3236054182052612e-01" nType="0">
            <Node pos="l" depth="3" NCoef="0" IVar="-1" Cut="0.0000000000000000e+00" cType="1" res="1.1364080011844635e-02" rms="3.3749368786811829e-01" purity="5.5600696802139282e-01" nType="-99"/>
            <Node pos="r" depth="3" NCoef="0" IVar="-1" Cut="0.0000000000000000e+00" cType="1" res="5.0733244279399514e-05" rms="2.1561706066131592e-01" purity="9.1769123077392578e-01" nType="-99"/>
          </Node>
        </Node>
      </Node>
    </BinaryTree>
    <BinaryTree type="DecisionTree" boostWeight="1.0000000000000000e+00" itree="543">
      <Node pos="s" depth="0" NCoef="0" IVar="9" Cut="-1.4665281772613525e+00" cType="1" res="4.0085520595312119e-04" rms="2.8607848286628723e-01" purity="4.9841317534446716e-01" nType="0">
        <Node pos="l" depth="1" NCoef="0" IVar="5" Cut="8.2327850341796875e+01" cType="1" res="1.7047192901372910e-02" rms="2.8257238864898682e-01" purity="2.4757260084152222e-01" nType="0">
          <Node pos="l" depth="2" NCoef="0" IVar="8" Cut="-1.3440692424774170e-01" cType="1" res="5.2097667939960957e-03" rms="2.5372600555419922e-01" purity="1.1130818724632263e-01" nType="0">
            <Node pos="l" depth="3" NCoef="0" IVar="-1" Cut="0.0000000000000000e+00" cType="1" res="2.8329072520136833e-02" rms="2.6655137538909912e-01" purity="1.2415558844804764e-01" nType="-99"/>
            <Node pos="r" depth="3" NCoef="0" IVar="-1" Cut="0.0000000000000000e+00" cType="1" res="-1.3536163605749607e-02" rms="2.3834171891212463e-01" purity="9.7453147172927856e-02" nType="-99"/>
          </Node>
          <Node pos="r" depth="2" NCoef="0" IVar="-1" Cut="0.0000000000000000e+00" cType="1" res="3.6502007395029068e-02" rms="3.3601343631744385e-01" purity="5.4744476079940796e-01" nType="-99"/>
        </Node>
        <Node pos="r" depth="1" NCoef="0" IVar="11" Cut="1.4186022281646729e+00" cType="1" res="-1.2871499639004469e-03" rms="2.8637760877609253e-01" purity="5.2384942770004272e-01" nType="0">
          <Node pos="l" depth="2" NCoef="0" IVar="8" Cut="-4.0006104111671448e-01" cType="1" res="-2.1435373928397894e-03" rms="2.8534880280494690e-01" purity="5.1278787851333618e-01" nType="0">
            <Node pos="l" depth="3" NCoef="0" IVar="-1" Cut="0.0000000000000000e+00" cType="1" res="2.9009033460170031e-03" rms="2.8645932674407959e-01" purity="4.5477652549743652e-01" nType="-99"/>
            <Node pos="r" depth="3" NCoef="0" IVar="-1" Cut="0.0000000000000000e+00" cType="1" res="-5.3249900229275227e-03" rms="2.8475847840309143e-01" purity="5.4211008548736572e-01" nType="-99"/>
          </Node>
          <Node pos="r" depth="2" NCoef="0" IVar="-1" Cut="0.0000000000000000e+00" cType="1" res="1.1358709074556828e-02" rms="3.0057719349861145e-01" purity="6.8366736173629761e-01" nType="-99"/>
        </Node>
      </Node>
    </BinaryTree>
    <BinaryTree type="DecisionTree" boostWeight="1.0000000000000000e+00" itree="544">
      <Node pos="s" depth="0" NCoef="0" IVar="10" Cut="-1.4666508436203003e+00" cType="1" res="3.7903001066297293e-03" rms="2.8727602958679199e-01" purity="4.9903246760368347e-01" nType="0">
        <Node pos="l" depth="1" NCoef="0" IVar="11" Cut="-1.0668674707412720e+00" cType="1" res="-7.3570297099649906e-03" rms="2.7348536252975464e-01" purity="3.3319723606109619e-01" nType="0">
          <Node pos="l" depth="2" NCoef="0" IVar="7" Cut="-3.5221403837203979e-01" cType="1" res="-1.2994057498872280e-02" rms="2.6042008399963379e-01" purity="1.8131683766841888e-01" nType="0">
            <Node pos="l" depth="3" NCoef="0" IVar="-1" Cut="0.0000000000000000e+00" cType="1" res="-1.0868337703868747e-03" rms="2.4794717133045197e-01" purity="1.4455796778202057e-01" nType="-99"/>
            <Node pos="r" depth="3" NCoef="0" IVar="-1" Cut="0.0000000000000000e+00" cType="1" res="-2.8872421011328697e-02" rms="2.6942631602287292e-01" purity="2.1021598577499390e-01" nType="-99"/>
          </Node>
          <Node pos="r" depth="2" NCoef="0" IVar="-1" Cut="0.0000000000000000e+00" cType="1" res="4.1076894849538803e-03" rms="2.9770669341087341e-01" purity="6.3861751556396484e-01" nType="-99"/>
        </Node>
        <Node pos="r" depth="1" NCoef="0" IVar="11" Cut="-7.9071474075317383e-01" cType="1" res="5.2523859776556492e-03" rms="2.8900411725044250e-01" purity="5.2078348398208618e-01" nType="0">
          <Node pos="l" depth="2" NCoef="0" IVar="7" Cut="-1.6472041606903076e+00" cType="1" res="9.4326538965106010e-03" rms="2.9767096042633057e-01" purity="3.5873663425445557e-01" nType="0">
            <Node pos="l" depth="3" NCoef="0" IVar="-1" Cut="0.0000000000000000e+00" cType="1" res="-5.1656641066074371e-02" rms="1.3706219196319580e-01" purity="4.0565915405750275e-02" nType="-99"/>
            <Node pos="r" depth="3" NCoef="0" IVar="-1" Cut="0.0000000000000000e+00" cType="1" res="1.1812523938715458e-02" rms="3.0397933721542358e-01" purity="3.7616705894470215e-01" nType="-99"/>
          </Node>
          <Node pos="r" depth="2" NCoef="0" IVar="2" Cut="3.2174456787109375e+02" cType="1" res="-1.1121848365291953e-03" rms="2.7516326308250427e-01" purity="7.6750409603118896e-01" nType="0">
            <Node pos="l" depth="3" NCoef="0" IVar="-1" Cut="0.0000000000000000e+00" cType="1" res="-1.2698573991656303e-02" rms="2.8384605050086975e-01" purity="7.0023727416992188e-01" nType="-99"/>
            <Node pos="r" depth="3" NCoef="0" IVar="-1" Cut="0.0000000000000000e+00" cType="1" res="6.5348995849490166e-03" rms="2.6961535215377808e-01" purity="8.0813771486282349e-01" nType="-99"/>
          </Node>
        </Node>
      </Node>
    </BinaryTree>
    <BinaryTree type="DecisionTree" boostWeight="1.0000000000000000e+00" itree="545">
      <Node pos="s" depth="0" NCoef="0" IVar="4" Cut="2.3987567138671875e+02" cType="1" res="1.8841695273295045e-03" rms="2.8638973832130432e-01" purity="5.0509673357009888e-01" nType="0">
        <Node pos="l" depth="1" NCoef="0" IVar="11" Cut="3.1417289376258850e-01" cType="1" res="4.1124727576971054e-03" rms="2.9174333810806274e-01" purity="4.4647327065467834e-01" nType="0">
          <Node pos="l" depth="2" NCoef="0" IVar="8" Cut="4.0006819367408752e-01" cType="1" res="2.2959492634981871e-03" rms="2.9011267423629761e-01" purity="3.8270285725593567e-01" nType="0">
            <Node pos="l" depth="3" NCoef="0" IVar="-1" Cut="0.0000000000000000e+00" cType="1" res="6.1443625018000603e-03" rms="2.9408860206604004e-01" purity="4.2192968726158142e-01" nType="-99"/>
            <Node pos="r" depth="3" NCoef="0" IVar="-1" Cut="0.0000000000000000e+00" cType="1" res="-4.5689428225159645e-03" rms="2.8215888142585754e-01" purity="3.0674397945404053e-01" nType="-99"/>
          </Node>
          <Node pos="r" depth="2" NCoef="0" IVar="1" Cut="3.8670063018798828e-02" cType="1" res="1.1467739939689636e-02" rms="2.9814177751541138e-01" purity="7.0468533039093018e-01" nType="0">
            <Node pos="l" depth="3" NCoef="0" IVar="-1" Cut="0.0000000000000000e+00" cType="1" res="2.8880978003144264e-02" rms="3.2017368078231812e-01" purity="3.6322188377380371e-01" nType="-99"/>
            <Node pos="r" depth="3" NCoef="0" IVar="-1" Cut="0.0000000000000000e+00" cType="1" res="5.1672575064003468e-03" rms="2.8972950577735901e-01" purity="8.2396584749221802e-01" nType="-99"/>
          </Node>
        </Node>
        <Node pos="r" depth="1" NCoef="0" IVar="1" Cut="9.6397325396537781e-02" cType="1" res="-1.1063976213335991e-02" rms="2.5266125798225403e-01" purity="8.4574377536773682e-01" nType="0">
          <Node pos="l" depth="2" NCoef="0" IVar="0" Cut="2.2573911132812500e+03" cType="1" res="-2.4863263592123985e-02" rms="3.0150106549263000e-01" purity="7.4509853124618530e-01" nType="0">
            <Node pos="l" depth="3" NCoef="0" IVar="-1" Cut="0.0000000000000000e+00" cType="1" res="-4.2771387845277786e-02" rms="3.2700061798095703e-01" purity="6.4283597469329834e-01" nType="-99"/>
            <Node pos="r" depth="3" NCoef="0" IVar="-1" Cut="0.0000000000000000e+00" cType="1" res="7.1993382880464196e-04" rms="2.6134234666824341e-01" purity="8.8215607404708862e-01" nType="-99"/>
          </Node>
          <Node pos="r" depth="2" NCoef="0" IVar="-1" Cut="0.0000000000000000e+00" cType="1" res="8.1746047362685204e-03" rms="1.8811976909637451e-01" purity="9.5003950595855713e-01" nType="-99"/>
        </Node>
      </Node>
    </BinaryTree>
    <BinaryTree type="DecisionTree" boostWeight="1.0000000000000000e+00" itree="546">
      <Node pos="s" depth="0" NCoef="0" IVar="7" Cut="-9.7405754029750824e-02" cType="1" res="3.6416170187294483e-03" rms="2.8709334135055542e-01" purity="5.0741952657699585e-01" nType="0">
        <Node pos="l" depth="1" NCoef="0" IVar="4" Cut="2.1685321044921875e+02" cType="1" res="-1.8017506226897240e-03" rms="2.8185918927192688e-01" purity="4.8700320720672607e-01" nType="0">
          <Node pos="l" depth="2" NCoef="0" IVar="10" Cut="-1.3325726985931396e-01" cType="1" res="-5.4477779194712639e-03" rms="2.8912416100502014e-01" purity="3.8912051916122437e-01" nType="0">
            <Node pos="l" depth="3" NCoef="0" IVar="-1" Cut="0.0000000000000000e+00" cType="1" res="-1.4137391932308674e-02" rms="2.8381967544555664e-01" purity="3.6662837862968445e-01" nType="-99"/>
            <Node pos="r" depth="3" NCoef="0" IVar="-1" Cut="0.0000000000000000e+00" cType="1" res="1.6512009315192699e-03" rms="2.9442584514617920e-01" purity="4.1270112991333008e-01" nType="-99"/>
          </Node>
          <Node pos="r" depth="2" NCoef="0" IVar="5" Cut="9.8373306274414062e+01" cType="1" res="1.1399926617741585e-02" rms="2.5338169932365417e-01" purity="8.4142065048217773e-01" nType="0">
            <Node pos="l" depth="3" NCoef="0" IVar="-1" Cut="0.0000000000000000e+00" cType="1" res="2.4525687098503113e-02" rms="3.2859420776367188e-01" purity="6.9467562437057495e-01" nType="-99"/>
            <Node pos="r" depth="3" NCoef="0" IVar="-1" Cut="0.0000000000000000e+00" cType="1" res="5.4636374115943909e-03" rms="2.0109197497367859e-01" purity="9.2034059762954712e-01" nType="-99"/>
          </Node>
        </Node>
        <Node pos="r" depth="1" NCoef="0" IVar="5" Cut="1.3268338012695312e+02" cType="1" res="8.2925176247954369e-03" rms="2.9141047596931458e-01" purity="5.2486348152160645e-01" nType="0">
          <Node pos="l" depth="2" NCoef="0" IVar="7" Cut="8.6784112453460693e-01" cType="1" res="1.0515644215047359e-02" rms="3.0610221624374390e-01" purity="4.5259433984756470e-01" nType="0">
            <Node pos="l" depth="3" NCoef="0" IVar="-1" Cut="0.0000000000000000e+00" cType="1" res="5.7653207331895828e-03" rms="3.2127964496612549e-01" purity="5.6257587671279907e-01" nType="-99"/>
            <Node pos="r" depth="3" NCoef="0" IVar="-1" Cut="0.0000000000000000e+00" cType="1" res="2.8618529438972473e-02" rms="2.7227178215980530e-01" purity="2.2804765403270721e-01" nType="-99"/>
          </Node>
          <Node pos="r" depth="2" NCoef="0" IVar="-1" Cut="0.0000000000000000e+00" cType="1" res="-1.1187886819243431e-02" rms="1.8719016015529633e-01" purity="9.3396633863449097e-01" nType="-99"/>
        </Node>
      </Node>
    </BinaryTree>
    <BinaryTree type="DecisionTree" boostWeight="1.0000000000000000e+00" itree="547">
      <Node pos="s" depth="0" NCoef="0" IVar="7" Cut="-1.0357416421175003e-01" cType="1" res="-1.5848779585212469e-03" rms="2.8568646311759949e-01" purity="5.0186866521835327e-01" nType="0">
        <Node pos="l" depth="1" NCoef="0" IVar="7" Cut="-3.5496494174003601e-01" cType="1" res="2.7904200833290815e-03" rms="2.8507471084594727e-01" purity="4.8352062702178955e-01" nType="0">
          <Node pos="l" depth="2" NCoef="0" IVar="10" Cut="9.3273043632507324e-01" cType="1" res="2.1397228920250200e-05" rms="2.7911853790283203e-01" purity="4.2290404438972473e-01" nType="0">
            <Node pos="l" depth="3" NCoef="0" IVar="-1" Cut="0.0000000000000000e+00" cType="1" res="2.6738005690276623e-03" rms="2.7941504120826721e-01" purity="4.5074868202209473e-01" nType="-99"/>
            <Node pos="r" depth="3" NCoef="0" IVar="-1" Cut="0.0000000000000000e+00" cType="1" res="-1.0589580982923508e-02" rms="2.7777326107025146e-01" purity="3.1162926554679871e-01" nType="-99"/>
          </Node>
          <Node pos="r" depth="2" NCoef="0" IVar="11" Cut="-2.4482493400573730e+00" cType="1" res="1.1392354965209961e-02" rms="3.0266973376274109e-01" purity="6.7182517051696777e-01" nType="0">
            <Node pos="l" depth="3" NCoef="0" IVar="-1" Cut="0.0000000000000000e+00" cType="1" res="2.2104050964117050e-02" rms="3.4769055247306824e-01" purity="4.0168264508247375e-01" nType="-99"/>
            <Node pos="r" depth="3" NCoef="0" IVar="-1" Cut="0.0000000000000000e+00" cType="1" res="1.1627533967839554e-04" rms="2.6559805870056152e-01" purity="8.6334639787673950e-01" nType="-99"/>
          </Node>
        </Node>
        <Node pos="r" depth="1" NCoef="0" IVar="0" Cut="1.8793435058593750e+03" cType="1" res="-5.1499996334314346e-03" rms="2.8613448143005371e-01" purity="5.1681917905807495e-01" nType="0">
          <Node pos="l" depth="2" NCoef="0" IVar="0" Cut="1.3140112304687500e+03" cType="1" res="-8.8832452893257141e-03" rms="3.0264547467231750e-01" purity="3.8686972856521606e-01" nType="0">
            <Node pos="l" depth="3" NCoef="0" IVar="-1" Cut="0.0000000000000000e+00" cType="1" res="-1.7258619191125035e-03" rms="2.7812969684600830e-01" purity="1.4987337589263916e-01" nType="-99"/>
            <Node pos="r" depth="3" NCoef="0" IVar="-1" Cut="0.0000000000000000e+00" cType="1" res="-1.4637148007750511e-02" rms="3.2256627082824707e-01" purity="5.9574103355407715e-01" nType="-99"/>
          </Node>
          <Node pos="r" depth="2" NCoef="0" IVar="9" Cut="6.6685342788696289e-01" cType="1" res="5.7019479572772980e-03" rms="2.3120614886283875e-01" purity="8.9456129074096680e-01" nType="0">
            <Node pos="l" depth="3" NCoef="0" IVar="-1" Cut="0.0000000000000000e+00" cType="1" res="1.9750855863094330e-03" rms="2.2474259138107300e-01" purity="9.0122729539871216e-01" nType="-99"/>
            <Node pos="r" depth="3" NCoef="0" IVar="-1" Cut="0.0000000000000000e+00" cType="1" res="3.1286884099245071e-02" rms="2.5098526477813721e-01" purity="8.7226665019989014e-01" nType="-99"/>
          </Node>
        </Node>
      </Node>
    </BinaryTree>
    <BinaryTree type="DecisionTree" boostWeight="1.0000000000000000e+00" itree="548">
      <Node pos="s" depth="0" NCoef="0" IVar="11" Cut="-2.1714797019958496e+00" cType="1" res="-1.0402355110272765e-03" rms="2.8819966316223145e-01" purity="5.0217807292938232e-01" nType="0">
        <Node pos="l" depth="1" NCoef="0" IVar="1" Cut="6.2602736055850983e-02" cType="1" res="-6.3767088577151299e-03" rms="2.9549661278724670e-01" purity="2.2685047984123230e-01" nType="0">
          <Node pos="l" depth="2" NCoef="0" IVar="4" Cut="1.8985357666015625e+02" cType="1" res="-1.1282541090622544e-03" rms="2.6207906007766724e-01" purity="1.3654440641403198e-01" nType="0">
            <Node pos="l" depth="3" NCoef="0" IVar="-1" Cut="0.0000000000000000e+00" cType="1" res="4.7558452934026718e-03" rms="2.4664236605167389e-01" purity="9.9539928138256073e-02" nType="-99"/>
            <Node pos="r" depth="3" NCoef="0" IVar="-1" Cut="0.0000000000000000e+00" cType="1" res="-2.1754795685410500e-02" rms="3.4368172287940979e-01" purity="3.7281593680381775e-01" nType="-99"/>
          </Node>
          <Node pos="r" depth="2" NCoef="0" IVar="4" Cut="1.8562648010253906e+02" cType="1" res="-1.9749730825424194e-02" rms="3.6680442094802856e-01" purity="4.5694968104362488e-01" nType="0">
            <Node pos="l" depth="3" NCoef="0" IVar="-1" Cut="0.0000000000000000e+00" cType="1" res="-2.4198366329073906e-02" rms="3.7361693382263184e-01" purity="3.1210646033287048e-01" nType="-99"/>
            <Node pos="r" depth="3" NCoef="0" IVar="-1" Cut="0.0000000000000000e+00" cType="1" res="7.0074186660349369e-03" rms="3.5077309608459473e-01" purity="7.5212097167968750e-01" nType="-99"/>
          </Node>
        </Node>
        <Node pos="r" depth="1" NCoef="0" IVar="1" Cut="1.0949882119894028e-01" cType="1" res="3.9225760847330093e-03" rms="2.8115293383598328e-01" purity="7.5822710990905762e-01" nType="0">
          <Node pos="l" depth="2" NCoef="0" IVar="10" Cut="-1.2008655071258545e+00" cType="1" res="9.0429987758398056e-03" rms="3.1362885236740112e-01" purity="6.5514856576919556e-01" nType="0">
            <Node pos="l" depth="3" NCoef="0" IVar="-1" Cut="0.0000000000000000e+00" cType="1" res="2.5159662589430809e-02" rms="3.3710253238677979e-01" purity="5.4160946607589722e-01" nType="-99"/>
            <Node pos="r" depth="3" NCoef="0" IVar="-1" Cut="0.0000000000000000e+00" cType="1" res="5.4610152728855610e-03" rms="3.0901083350181580e-01" purity="6.7589539289474487e-01" nType="-99"/>
          </Node>
          <Node pos="r" depth="2" NCoef="0" IVar="6" Cut="7.8801261901855469e+01" cType="1" res="-4.3461839668452740e-03" rms="2.1850293874740601e-01" purity="9.2468446493148804e-01" nType="0">
            <Node pos="l" depth="3" NCoef="0" IVar="-1" Cut="0.0000000000000000e+00" cType="1" res="-1.5494384802877903e-02" rms="2.9542034864425659e-01" purity="8.5078889131546021e-01" nType="-99"/>
            <Node pos="r" depth="3" NCoef="0" IVar="-1" Cut="0.0000000000000000e+00" cType="1" res="4.6952958218753338e-03" rms="1.5124176442623138e-01" purity="9.7102528810501099e-01" nType="-99"/>
          </Node>
        </Node>
      </Node>
    </BinaryTree>
    <BinaryTree type="DecisionTree" boostWeight="1.0000000000000000e+00" itree="549">
      <Node pos="s" depth="0" NCoef="0" IVar="8" Cut="4.0019673109054565e-01" cType="1" res="1.1930553591810167e-04" rms="2.8485402464866638e-01" purity="4.9884301424026489e-01" nType="0">
        <Node pos="l" depth="1" NCoef="0" IVar="1" Cut="8.7588682770729065e-02" cType="1" res="-4.0788045153021812e-03" rms="2.8211417794227600e-01" purity="5.3157889842987061e-01" nType="0">
          <Node pos="l" depth="2" NCoef="0" IVar="1" Cut="7.5074970722198486e-02" cType="1" res="-9.3395663425326347e-03" rms="2.8866511583328247e-01" purity="3.5856127738952637e-01" nType="0">
            <Node pos="l" depth="3" NCoef="0" IVar="-1" Cut="0.0000000000000000e+00" cType="1" res="-9.0103931725025177e-03" rms="2.8607115149497986e-01" purity="3.3027380704879761e-01" nType="-99"/>
            <Node pos="r" depth="3" NCoef="0" IVar="-1" Cut="0.0000000000000000e+00" cType="1" res="-2.7110707014799118e-02" rms="3.1479755043983459e-01" purity="6.6404426097869873e-01" nType="-99"/>
          </Node>
          <Node pos="r" depth="2" NCoef="0" IVar="10" Cut="1.3218085467815399e-01" cType="1" res="4.8404042609035969e-03" rms="2.7041175961494446e-01" purity="8.2491677999496460e-01" nType="0">
            <Node pos="l" depth="3" NCoef="0" IVar="-1" Cut="0.0000000000000000e+00" cType="1" res="-4.0051201358437538e-03" rms="2.6152390241622925e-01" purity="8.1479781866073608e-01" nType="-99"/>
            <Node pos="r" depth="3" NCoef="0" IVar="-1" Cut="0.0000000000000000e+00" cType="1" res="2.0107099786400795e-02" rms="2.8166121244430542e-01" purity="8.3862137794494629e-01" nType="-99"/>
          </Node>
        </Node>
        <Node pos="r" depth="1" NCoef="0" IVar="1" Cut="4.1091732680797577e-02" cType="1" res="8.1579135730862617e-03" rms="2.8985849022865295e-01" purity="4.3615972995758057e-01" nType="0">
          <Node pos="l" depth="2" NCoef="0" IVar="9" Cut="1.1987308263778687e+00" cType="1" res="8.5723085794597864e-04" rms="2.5551044940948486e-01" purity="1.7115303874015808e-01" nType="0">
            <Node pos="l" depth="3" NCoef="0" IVar="-1" Cut="0.0000000000000000e+00" cType="1" res="6.4692650921642780e-03" rms="2.6725065708160400e-01" purity="1.9246356189250946e-01" nType="-99"/>
            <Node pos="r" depth="3" NCoef="0" IVar="-1" Cut="0.0000000000000000e+00" cType="1" res="-2.5638034567236900e-02" rms="2.0523543655872345e-01" purity="9.1546028852462769e-02" nType="-99"/>
          </Node>
          <Node pos="r" depth="2" NCoef="0" IVar="10" Cut="-1.3282530009746552e-01" cType="1" res="1.4187046326696873e-02" rms="3.1528928875923157e-01" purity="6.5501064062118530e-01" nType="0">
            <Node pos="l" depth="3" NCoef="0" IVar="-1" Cut="0.0000000000000000e+00" cType="1" res="4.6136326272971928e-04" rms="3.1779822707176208e-01" purity="6.4039605855941772e-01" nType="-99"/>
            <Node pos="r" depth="3" NCoef="0" IVar="-1" Cut="0.0000000000000000e+00" cType="1" res="2.2311091423034668e-02" rms="3.1337124109268188e-01" purity="6.6430228948593140e-01" nType="-99"/>
          </Node>
        </Node>
      </Node>
    </BinaryTree>
    <BinaryTree type="DecisionTree" boostWeight="1.0000000000000000e+00" itree="550">
      <Node pos="s" depth="0" NCoef="0" IVar="10" Cut="1.7331548929214478e+00" cType="1" res="7.7828613575547934e-04" rms="2.8399232029914856e-01" purity="4.9736425280570984e-01" nType="0">
        <Node pos="l" depth="1" NCoef="0" IVar="8" Cut="-3.9990821480751038e-01" cType="1" res="1.9440007163211703e-03" rms="2.8463840484619141e-01" purity="5.1583129167556763e-01" nType="0">
          <Node pos="l" depth="2" NCoef="0" IVar="0" Cut="1.5724824218750000e+03" cType="1" res="7.7455905266106129e-03" rms="2.8195342421531677e-01" purity="4.4586703181266785e-01" nType="0">
            <Node pos="l" depth="3" NCoef="0" IVar="-1" Cut="0.0000000000000000e+00" cType="1" res="1.5894381329417229e-02" rms="2.8887003660202026e-01" purity="2.3464520275592804e-01" nType="-99"/>
            <Node pos="r" depth="3" NCoef="0" IVar="-1" Cut="0.0000000000000000e+00" cType="1" res="-1.2280085356906056e-03" rms="2.7049154043197632e-01" purity="7.7805101871490479e-01" nType="-99"/>
          </Node>
          <Node pos="r" depth="2" NCoef="0" IVar="10" Cut="-1.0730674266815186e+00" cType="1" res="-1.1883465340360999e-03" rms="2.8602868318557739e-01" purity="5.5360591411590576e-01" nType="0">
            <Node pos="l" depth="3" NCoef="0" IVar="-1" Cut="0.0000000000000000e+00" cType="1" res="-1.7775095999240875e-02" rms="2.8135219216346741e-01" purity="4.1376471519470215e-01" nType="-99"/>
            <Node pos="r" depth="3" NCoef="0" IVar="-1" Cut="0.0000000000000000e+00" cType="1" res="2.3961039260029793e-03" rms="2.8700548410415649e-01" purity="5.8595025539398193e-01" nType="-99"/>
          </Node>
        </Node>
        <Node pos="r" depth="1" NCoef="0" IVar="3" Cut="2.1082472229003906e+02" cType="1" res="-1.3652159832417965e-02" rms="2.7546101808547974e-01" purity="2.6875936985015869e-01" nType="0">
          <Node pos="l" depth="2" NCoef="0" IVar="-1" Cut="0.0000000000000000e+00" cType="1" res="-6.7932587116956711e-03" rms="2.4369871616363525e-01" purity="1.6640143096446991e-01" nType="-99"/>
          <Node pos="r" depth="2" NCoef="0" IVar="-1" Cut="0.0000000000000000e+00" cType="1" res="-2.7581578120589256e-02" rms="3.1389155983924866e-01" purity="4.1108486056327820e-01" nType="-99"/>
        </Node>
      </Node>
    </BinaryTree>
    <BinaryTree type="DecisionTree" boostWeight="1.0000000000000000e+00" itree="551">
      <Node pos="s" depth="0" NCoef="0" IVar="1" Cut="1.7517414689064026e-01" cType="1" res="-1.7267758958041668e-03" rms="2.8764957189559937e-01" purity="4.9510362744331360e-01" nType="0">
        <Node pos="l" depth="1" NCoef="0" IVar="1" Cut="5.8387994766235352e-02" cType="1" res="-2.9415281023830175e-03" rms="2.9369774460792542e-01" purity="4.4809666275978088e-01" nType="0">
          <Node pos="l" depth="2" NCoef="0" IVar="6" Cut="7.1635917663574219e+01" cType="1" res="1.0433851275593042e-03" rms="2.8323438763618469e-01" purity="2.6278138160705566e-01" nType="0">
            <Node pos="l" depth="3" NCoef="0" IVar="-1" Cut="0.0000000000000000e+00" cType="1" res="5.1795244216918945e-03" rms="2.7857893705368042e-01" purity="1.9519861042499542e-01" nType="-99"/>
            <Node pos="r" depth="3" NCoef="0" IVar="-1" Cut="0.0000000000000000e+00" cType="1" res="-1.7073146998882294e-02" rms="3.1031605601310730e-01" purity="6.8845897912979126e-01" nType="-99"/>
          </Node>
          <Node pos="r" depth="2" NCoef="0" IVar="1" Cut="8.6190499365329742e-02" cType="1" res="-8.5233254358172417e-03" rms="3.0766981840133667e-01" purity="7.0767372846603394e-01" nType="0">
            <Node pos="l" depth="3" NCoef="0" IVar="-1" Cut="0.0000000000000000e+00" cType="1" res="-1.6510058194398880e-02" rms="3.3044198155403137e-01" purity="5.9307819604873657e-01" nType="-99"/>
            <Node pos="r" depth="3" NCoef="0" IVar="-1" Cut="0.0000000000000000e+00" cType="1" res="-3.9394842460751534e-03" rms="2.9412570595741272e-01" purity="7.7139377593994141e-01" nType="-99"/>
          </Node>
        </Node>
        <Node pos="r" depth="1" NCoef="0" IVar="-1" Cut="0.0000000000000000e+00" cType="1" res="1.6766484826803207e-02" rms="2.2646664083003998e-01" purity="9.1388714313507080e-01" nType="-99"/>
      </Node>
    </BinaryTree>
    <BinaryTree type="DecisionTree" boostWeight="1.0000000000000000e+00" itree="552">
      <Node pos="s" depth="0" NCoef="0" IVar="1" Cut="4.3795950710773468e-02" cType="1" res="1.4775103190913796e-03" rms="2.8130078315734863e-01" purity="5.0836223363876343e-01" nType="0">
        <Node pos="l" depth="1" NCoef="0" IVar="9" Cut="-1.7331821918487549e+00" cType="1" res="-5.7597896084189415e-03" rms="2.6051151752471924e-01" purity="2.0911128818988800e-01" nType="0">
          <Node pos="l" depth="2" NCoef="0" IVar="-1" Cut="0.0000000000000000e+00" cType="1" res="-5.1209378987550735e-02" rms="1.5665027499198914e-01" purity="5.6991543620824814e-02" nType="-99"/>
          <Node pos="r" depth="2" NCoef="0" IVar="6" Cut="7.0730407714843750e+01" cType="1" res="-3.9332513697445393e-03" rms="2.6958504319190979e-01" purity="2.2611501812934875e-01" nType="0">
            <Node pos="l" depth="3" NCoef="0" IVar="-1" Cut="0.0000000000000000e+00" cType="1" res="-8.7083466351032257e-03" rms="2.6046329736709595e-01" purity="1.6286423802375793e-01" nType="-99"/>
            <Node pos="r" depth="3" NCoef="0" IVar="-1" Cut="0.0000000000000000e+00" cType="1" res="1.0982153937220573e-02" rms="3.2631784677505493e-01" purity="6.7231416702270508e-01" nType="-99"/>
          </Node>
        </Node>
        <Node pos="r" depth="1" NCoef="0" IVar="9" Cut="-1.1979379653930664e+00" cType="1" res="6.6771102137863636e-03" rms="2.9522523283958435e-01" purity="7.2335743904113770e-01" nType="0">
          <Node pos="l" depth="2" NCoef="0" IVar="-1" Cut="0.0000000000000000e+00" cType="1" res="1.9258810207247734e-02" rms="3.4308046102523804e-01" purity="5.5894428491592407e-01" nType="-99"/>
          <Node pos="r" depth="2" NCoef="0" IVar="8" Cut="5.9579390287399292e-01" cType="1" res="4.8499824479222298e-03" rms="2.8929847478866577e-01" purity="7.4182599782943726e-01" nType="0">
            <Node pos="l" depth="3" NCoef="0" IVar="-1" Cut="0.0000000000000000e+00" cType="1" res="2.3374739103019238e-03" rms="2.8131923079490662e-01" purity="7.6418936252593994e-01" nType="-99"/>
            <Node pos="r" depth="3" NCoef="0" IVar="-1" Cut="0.0000000000000000e+00" cType="1" res="1.4512673951685429e-02" rms="3.1530308723449707e-01" purity="6.6396123170852661e-01" nType="-99"/>
          </Node>
        </Node>
      </Node>
    </BinaryTree>
    <BinaryTree type="DecisionTree" boostWeight="1.0000000000000000e+00" itree="553">
      <Node pos="s" depth="0" NCoef="0" IVar="7" Cut="-6.4497321844100952e-01" cType="1" res="-9.3910575378686190e-04" rms="2.8234696388244629e-01" purity="4.9502420425415039e-01" nType="0">
        <Node pos="l" depth="1" NCoef="0" IVar="7" Cut="-1.2506551742553711e+00" cType="1" res="6.0862451791763306e-03" rms="2.6704165339469910e-01" purity="3.4222897887229919e-01" nType="0">
          <Node pos="l" depth="2" NCoef="0" IVar="8" Cut="1.3416108489036560e-01" cType="1" res="-4.8571079969406128e-03" rms="2.0928668975830078e-01" purity="1.2798722088336945e-01" nType="0">
            <Node pos="l" depth="3" NCoef="0" IVar="-1" Cut="0.0000000000000000e+00" cType="1" res="-2.4490576237440109e-02" rms="2.0014840364456177e-01" purity="1.4693333208560944e-01" nType="-99"/>
            <Node pos="r" depth="3" NCoef="0" IVar="-1" Cut="0.0000000000000000e+00" cType="1" res="1.3981145806610584e-02" rms="2.2032977640628815e-01" purity="1.0286744683980942e-01" nType="-99"/>
          </Node>
          <Node pos="r" depth="2" NCoef="0" IVar="0" Cut="1.3452564697265625e+03" cType="1" res="1.3128813356161118e-02" rms="2.9814222455024719e-01" purity="4.8010373115539551e-01" nType="0">
            <Node pos="l" depth="3" NCoef="0" IVar="-1" Cut="0.0000000000000000e+00" cType="1" res="-1.7278066370636225e-03" rms="2.7328512072563171e-01" purity="1.5386874973773956e-01" nType="-99"/>
            <Node pos="r" depth="3" NCoef="0" IVar="-1" Cut="0.0000000000000000e+00" cType="1" res="2.2594844922423363e-02" rms="3.1263205409049988e-01" purity="6.8844133615493774e-01" nType="-99"/>
          </Node>
        </Node>
        <Node pos="r" depth="1" NCoef="0" IVar="10" Cut="-2.0000030994415283e+00" cType="1" res="-3.0763770919293165e-03" rms="2.8680709004402161e-01" purity="5.4150795936584473e-01" nType="0">
          <Node pos="l" depth="2" NCoef="0" IVar="-1" Cut="0.0000000000000000e+00" cType="1" res="-2.4400966241955757e-02" rms="2.7871820330619812e-01" purity="2.6212936639785767e-01" nType="-99"/>
          <Node pos="r" depth="2" NCoef="0" IVar="3" Cut="4.6681045532226562e+02" cType="1" res="-2.2416182328015566e-03" rms="2.8716039657592773e-01" purity="5.5482894182205200e-01" nType="0">
            <Node pos="l" depth="3" NCoef="0" IVar="-1" Cut="0.0000000000000000e+00" cType="1" res="-3.5445950925350189e-03" rms="2.8697410225868225e-01" purity="5.4424142837524414e-01" nType="-99"/>
            <Node pos="r" depth="3" NCoef="0" IVar="-1" Cut="0.0000000000000000e+00" cType="1" res="1.8911436200141907e-02" rms="2.9098525643348694e-01" purity="8.0925613641738892e-01" nType="-99"/>
          </Node>
        </Node>
      </Node>
    </BinaryTree>
    <BinaryTree type="DecisionTree" boostWeight="1.0000000000000000e+00" itree="554">
      <Node pos="s" depth="0" NCoef="0" IVar="9" Cut="6.6699367761611938e-01" cType="1" res="-2.2470513358712196e-03" rms="2.8509548306465149e-01" purity="4.9808570742607117e-01" nType="0">
        <Node pos="l" depth="1" NCoef="0" IVar="3" Cut="2.2351419067382812e+02" cType="1" res="7.6325878035277128e-04" rms="2.8542312979698181e-01" purity="5.3804343938827515e-01" nType="0">
          <Node pos="l" depth="2" NCoef="0" IVar="0" Cut="1.0200611572265625e+03" cType="1" res="6.2843216583132744e-03" rms="2.9110738635063171e-01" purity="3.6300611495971680e-01" nType="0">
            <Node pos="l" depth="3" NCoef="0" IVar="-1" Cut="0.0000000000000000e+00" cType="1" res="-3.3562328666448593e-02" rms="1.4432522654533386e-01" purity="2.1675452589988708e-02" nType="-99"/>
            <Node pos="r" depth="3" NCoef="0" IVar="-1" Cut="0.0000000000000000e+00" cType="1" res="9.7288442775607109e-03" rms="3.1323969364166260e-01" purity="4.3478018045425415e-01" nType="-99"/>
          </Node>
          <Node pos="r" depth="2" NCoef="0" IVar="10" Cut="1.4664475917816162e+00" cType="1" res="-4.6895705163478851e-03" rms="2.7958878874778748e-01" purity="7.1091759204864502e-01" nType="0">
            <Node pos="l" depth="3" NCoef="0" IVar="-1" Cut="0.0000000000000000e+00" cType="1" res="-3.4516572486609221e-03" rms="2.7655699849128723e-01" purity="7.2707462310791016e-01" nType="-99"/>
            <Node pos="r" depth="3" NCoef="0" IVar="-1" Cut="0.0000000000000000e+00" cType="1" res="-2.8975225985050201e-02" rms="3.1099873781204224e-01" purity="5.2795904874801636e-01" nType="-99"/>
          </Node>
        </Node>
        <Node pos="r" depth="1" NCoef="0" IVar="7" Cut="-3.9020085334777832e-01" cType="1" res="-1.0757276788353920e-02" rms="2.8399452567100525e-01" purity="3.8512411713600159e-01" nType="0">
          <Node pos="l" depth="2" NCoef="0" IVar="7" Cut="-9.5987254381179810e-01" cType="1" res="4.2574279941618443e-03" rms="2.7078986167907715e-01" purity="3.0903217196464539e-01" nType="0">
            <Node pos="l" depth="3" NCoef="0" IVar="-1" Cut="0.0000000000000000e+00" cType="1" res="-2.8709294274449348e-02" rms="2.1003274619579315e-01" purity="1.2958824634552002e-01" nType="-99"/>
            <Node pos="r" depth="3" NCoef="0" IVar="-1" Cut="0.0000000000000000e+00" cType="1" res="2.1099649369716644e-02" rms="3.1157654523849487e-01" purity="4.5821604132652283e-01" nType="-99"/>
          </Node>
          <Node pos="r" depth="2" NCoef="0" IVar="11" Cut="5.9027719497680664e-01" cType="1" res="-1.7172034829854965e-02" rms="2.8921481966972351e-01" purity="4.1763305664062500e-01" nType="0">
            <Node pos="l" depth="3" NCoef="0" IVar="-1" Cut="0.0000000000000000e+00" cType="1" res="-1.3599299825727940e-02" rms="2.8307607769966125e-01" purity="3.6811691522598267e-01" nType="-99"/>
            <Node pos="r" depth="3" NCoef="0" IVar="-1" Cut="0.0000000000000000e+00" cType="1" res="-4.5415882021188736e-02" rms="3.1349763274192810e-01" purity="6.3510775566101074e-01" nType="-99"/>
          </Node>
        </Node>
      </Node>
    </BinaryTree>
    <BinaryTree type="DecisionTree" boostWeight="1.0000000000000000e+00" itree="555">
      <Node pos="s" depth="0" NCoef="0" IVar="8" Cut="4.0004572272300720e-01" cType="1" res="4.3984539806842804e-03" rms="2.8702217340469360e-01" purity="5.0249475240707397e-01" nType="0">
        <Node pos="l" depth="1" NCoef="0" IVar="4" Cut="1.9266189575195312e+02" cType="1" res="6.9832117296755314e-03" rms="2.8754690289497375e-01" purity="5.4345697164535522e-01" nType="0">
          <Node pos="l" depth="2" NCoef="0" IVar="3" Cut="2.7356179809570312e+02" cType="1" res="1.0340430773794651e-02" rms="2.9987171292304993e-01" purity="4.1118872165679932e-01" nType="0">
            <Node pos="l" depth="3" NCoef="0" IVar="-1" Cut="0.0000000000000000e+00" cType="1" res="8.6965793743729591e-03" rms="2.9293549060821533e-01" purity="3.8392356038093567e-01" nType="-99"/>
            <Node pos="r" depth="3" NCoef="0" IVar="-1" Cut="0.0000000000000000e+00" cType="1" res="2.4350162595510483e-02" rms="3.3514553308486938e-01" purity="5.6154525279998779e-01" nType="-99"/>
          </Node>
          <Node pos="r" depth="2" NCoef="0" IVar="0" Cut="1.6349123535156250e+03" cType="1" res="-1.2733363837469369e-04" rms="2.5937411189079285e-01" purity="8.2359939813613892e-01" nType="0">
            <Node pos="l" depth="3" NCoef="0" IVar="-1" Cut="0.0000000000000000e+00" cType="1" res="-1.1963262222707272e-02" rms="3.5080453753471375e-01" purity="5.2851605415344238e-01" nType="-99"/>
            <Node pos="r" depth="3" NCoef="0" IVar="-1" Cut="0.0000000000000000e+00" cType="1" res="6.5587484277784824e-03" rms="2.3221309483051300e-01" purity="8.9382207393646240e-01" nType="-99"/>
          </Node>
        </Node>
        <Node pos="r" depth="1" NCoef="0" IVar="10" Cut="-3.9960345625877380e-01" cType="1" res="-7.5658876448869705e-04" rms="2.8590300679206848e-01" purity="4.2079970240592957e-01" nType="0">
          <Node pos="l" depth="2" NCoef="0" IVar="1" Cut="5.1683407276868820e-02" cType="1" res="-1.1400065384805202e-02" rms="2.8284981846809387e-01" purity="3.7725615501403809e-01" nType="0">
            <Node pos="l" depth="3" NCoef="0" IVar="-1" Cut="0.0000000000000000e+00" cType="1" res="1.1462685652077198e-03" rms="2.5762715935707092e-01" purity="1.8379735946655273e-01" nType="-99"/>
            <Node pos="r" depth="3" NCoef="0" IVar="-1" Cut="0.0000000000000000e+00" cType="1" res="-2.7291469275951385e-02" rms="3.1276878714561462e-01" purity="6.3674211502075195e-01" nType="-99"/>
          </Node>
          <Node pos="r" depth="2" NCoef="0" IVar="1" Cut="5.7855177670717239e-02" cType="1" res="4.3196557089686394e-03" rms="2.8720888495445251e-01" purity="4.4156715273857117e-01" nType="0">
            <Node pos="l" depth="3" NCoef="0" IVar="-1" Cut="0.0000000000000000e+00" cType="1" res="-8.0921780318021774e-03" rms="2.6944133639335632e-01" purity="2.1868851780891418e-01" nType="-99"/>
            <Node pos="r" depth="3" NCoef="0" IVar="-1" Cut="0.0000000000000000e+00" cType="1" res="1.9428737461566925e-02" rms="3.0909869074821472e-01" purity="7.4340307712554932e-01" nType="-99"/>
          </Node>
        </Node>
      </Node>
    </BinaryTree>
    <BinaryTree type="DecisionTree" boostWeight="1.0000000000000000e+00" itree="556">
      <Node pos="s" depth="0" NCoef="0" IVar="10" Cut="-1.4666730165481567e+00" cType="1" res="1.7117542447522283e-03" rms="2.8676772117614746e-01" purity="5.0268781185150146e-01" nType="0">
        <Node pos="l" depth="1" NCoef="0" IVar="10" Cut="-2.1015951633453369e+00" cType="1" res="1.3626145198941231e-02" rms="2.9365873336791992e-01" purity="3.3708882331848145e-01" nType="0">
          <Node pos="l" depth="2" NCoef="0" IVar="-1" Cut="0.0000000000000000e+00" cType="1" res="-1.5271638520061970e-02" rms="2.5180375576019287e-01" purity="2.0603564381599426e-01" nType="-99"/>
          <Node pos="r" depth="2" NCoef="0" IVar="7" Cut="-6.1063356697559357e-02" cType="1" res="2.6296509429812431e-02" rms="3.1237193942070007e-01" purity="4.0489122271537781e-01" nType="0">
            <Node pos="l" depth="3" NCoef="0" IVar="-1" Cut="0.0000000000000000e+00" cType="1" res="4.1385319083929062e-02" rms="3.1456801295280457e-01" purity="4.1355144977569580e-01" nType="-99"/>
            <Node pos="r" depth="3" NCoef="0" IVar="-1" Cut="0.0000000000000000e+00" cType="1" res="1.6469502821564674e-02" rms="3.0956354737281799e-01" purity="3.9558494091033936e-01" nType="-99"/>
          </Node>
        </Node>
        <Node pos="r" depth="1" NCoef="0" IVar="9" Cut="-6.6662752628326416e-01" cType="1" res="1.5116129361558706e-04" rms="2.8581604361534119e-01" purity="5.2437865734100342e-01" nType="0">
          <Node pos="l" depth="2" NCoef="0" IVar="6" Cut="5.6584327697753906e+01" cType="1" res="-5.8232955634593964e-03" rms="2.8769993782043457e-01" purity="4.2379349470138550e-01" nType="0">
            <Node pos="l" depth="3" NCoef="0" IVar="-1" Cut="0.0000000000000000e+00" cType="1" res="-1.4086448587477207e-02" rms="2.8425717353820801e-01" purity="2.0474556088447571e-01" nType="-99"/>
            <Node pos="r" depth="3" NCoef="0" IVar="-1" Cut="0.0000000000000000e+00" cType="1" res="4.0399306453764439e-03" rms="2.9261052608489990e-01" purity="7.5678747892379761e-01" nType="-99"/>
          </Node>
          <Node pos="r" depth="2" NCoef="0" IVar="7" Cut="4.1504803299903870e-01" cType="1" res="2.2161216475069523e-03" rms="2.8513288497924805e-01" purity="5.5914407968521118e-01" nType="0">
            <Node pos="l" depth="3" NCoef="0" IVar="-1" Cut="0.0000000000000000e+00" cType="1" res="7.4814953841269016e-03" rms="2.8468680381774902e-01" purity="6.0971277952194214e-01" nType="-99"/>
            <Node pos="r" depth="3" NCoef="0" IVar="-1" Cut="0.0000000000000000e+00" cType="1" res="-6.9851544685661793e-03" rms="2.8587055206298828e-01" purity="4.5648398995399475e-01" nType="-99"/>
          </Node>
        </Node>
      </Node>
    </BinaryTree>
    <BinaryTree type="DecisionTree" boostWeight="1.0000000000000000e+00" itree="557">
      <Node pos="s" depth="0" NCoef="0" IVar="10" Cut="1.4664882421493530e+00" cType="1" res="1.1972856009379029e-03" rms="2.8680831193923950e-01" purity="5.0629538297653198e-01" nType="0">
        <Node pos="l" depth="1" NCoef="0" IVar="1" Cut="8.4516048431396484e-02" cType="1" res="2.7679251506924629e-03" rms="2.8776267170906067e-01" purity="5.2956897020339966e-01" nType="0">
          <Node pos="l" depth="2" NCoef="0" IVar="3" Cut="2.2479293823242188e+02" cType="1" res="6.1501804739236832e-03" rms="2.9638791084289551e-01" purity="3.6366385221481323e-01" nType="0">
            <Node pos="l" depth="3" NCoef="0" IVar="-1" Cut="0.0000000000000000e+00" cType="1" res="3.7201188388280571e-04" rms="2.7502068877220154e-01" purity="2.1735297143459320e-01" nType="-99"/>
            <Node pos="r" depth="3" NCoef="0" IVar="-1" Cut="0.0000000000000000e+00" cType="1" res="1.3403649441897869e-02" rms="3.2227206230163574e-01" purity="5.5682194232940674e-01" nType="-99"/>
          </Node>
          <Node pos="r" depth="2" NCoef="0" IVar="4" Cut="1.6353863525390625e+02" cType="1" res="-3.1644317787140608e-03" rms="2.7187284827232361e-01" purity="8.2056081295013428e-01" nType="0">
            <Node pos="l" depth="3" NCoef="0" IVar="-1" Cut="0.0000000000000000e+00" cType="1" res="-1.0718344710767269e-02" rms="3.4311005473136902e-01" purity="6.3504594564437866e-01" nType="-99"/>
            <Node pos="r" depth="3" NCoef="0" IVar="-1" Cut="0.0000000000000000e+00" cType="1" res="3.4530926495790482e-03" rms="2.2504928708076477e-01" purity="9.1878485679626465e-01" nType="-99"/>
          </Node>
        </Node>
        <Node pos="r" depth="1" NCoef="0" IVar="11" Cut="-1.8954118490219116e+00" cType="1" res="-1.1499130167067051e-02" rms="2.7864888310432434e-01" purity="3.1816107034683228e-01" nType="0">
          <Node pos="l" depth="2" NCoef="0" IVar="10" Cut="1.9109426736831665e+00" cType="1" res="-4.3031526729464531e-03" rms="2.5803503394126892e-01" purity="1.5013359487056732e-01" nType="0">
            <Node pos="l" depth="3" NCoef="0" IVar="-1" Cut="0.0000000000000000e+00" cType="1" res="4.6147569082677364e-03" rms="2.7698433399200439e-01" purity="2.0221604406833649e-01" nType="-99"/>
            <Node pos="r" depth="3" NCoef="0" IVar="-1" Cut="0.0000000000000000e+00" cType="1" res="-1.8642714247107506e-02" rms="2.3870304226875305e-01" purity="1.0137475281953812e-01" nType="-99"/>
          </Node>
          <Node pos="r" depth="2" NCoef="0" IVar="-1" Cut="0.0000000000000000e+00" cType="1" res="-2.2201314568519592e-02" rms="3.0785244703292847e-01" purity="5.8146482706069946e-01" nType="-99"/>
        </Node>
      </Node>
    </BinaryTree>
    <BinaryTree type="DecisionTree" boostWeight="1.0000000000000000e+00" itree="558">
      <Node pos="s" depth="0" NCoef="0" IVar="7" Cut="1.4997108280658722e-01" cType="1" res="-6.8010808899998665e-04" rms="2.8360044956207275e-01" purity="4.9795877933502197e-01" nType="0">
        <Node pos="l" depth="1" NCoef="0" IVar="7" Cut="-9.6042948961257935e-01" cType="1" res="-5.5545666255056858e-03" rms="2.8447926044464111e-01" purity="5.1791769266128540e-01" nType="0">
          <Node pos="l" depth="2" NCoef="0" IVar="7" Cut="-1.2182043790817261e+00" cType="1" res="2.9759590979665518e-03" rms="2.4866117537021637e-01" purity="2.3733700811862946e-01" nType="0">
            <Node pos="l" depth="3" NCoef="0" IVar="-1" Cut="0.0000000000000000e+00" cType="1" res="1.4103229157626629e-02" rms="2.2333551943302155e-01" purity="1.5636047720909119e-01" nType="-99"/>
            <Node pos="r" depth="3" NCoef="0" IVar="-1" Cut="0.0000000000000000e+00" cType="1" res="-6.2374384142458439e-03" rms="2.9265975952148438e-01" purity="3.9945363998413086e-01" nType="-99"/>
          </Node>
          <Node pos="r" depth="2" NCoef="0" IVar="1" Cut="6.1615843325853348e-02" cType="1" res="-8.4554459899663925e-03" rms="2.9561644792556763e-01" purity="6.1333155632019043e-01" nType="0">
            <Node pos="l" depth="3" NCoef="0" IVar="-1" Cut="0.0000000000000000e+00" cType="1" res="-1.6746250912547112e-02" rms="3.1529656052589417e-01" purity="3.6532390117645264e-01" nType="-99"/>
            <Node pos="r" depth="3" NCoef="0" IVar="-1" Cut="0.0000000000000000e+00" cType="1" res="-3.4966052044183016e-03" rms="2.8122431039810181e-01" purity="7.8292775154113770e-01" nType="-99"/>
          </Node>
        </Node>
        <Node pos="r" depth="1" NCoef="0" IVar="1" Cut="6.3626922667026520e-02" cType="1" res="5.7859430089592934e-03" rms="2.8230059146881104e-01" purity="4.7148305177688599e-01" nType="0">
          <Node pos="l" depth="2" NCoef="0" IVar="11" Cut="-1.3430241346359253e+00" cType="1" res="1.3193836435675621e-02" rms="2.8182134032249451e-01" purity="2.6391220092773438e-01" nType="0">
            <Node pos="l" depth="3" NCoef="0" IVar="-1" Cut="0.0000000000000000e+00" cType="1" res="7.2765853255987167e-03" rms="2.5452560186386108e-01" purity="1.3995821774005890e-01" nType="-99"/>
            <Node pos="r" depth="3" NCoef="0" IVar="-1" Cut="0.0000000000000000e+00" cType="1" res="2.9310030862689018e-02" rms="3.3383572101593018e-01" purity="5.3949278593063354e-01" nType="-99"/>
          </Node>
          <Node pos="r" depth="2" NCoef="0" IVar="0" Cut="1.3324686279296875e+03" cType="1" res="-4.5719328336417675e-03" rms="2.8264400362968445e-01" purity="7.6171302795410156e-01" nType="0">
            <Node pos="l" depth="3" NCoef="0" IVar="-1" Cut="0.0000000000000000e+00" cType="1" res="-1.7805796116590500e-02" rms="3.7120306491851807e-01" purity="3.3169171214103699e-01" nType="-99"/>
            <Node pos="r" depth="3" NCoef="0" IVar="-1" Cut="0.0000000000000000e+00" cType="1" res="2.7952261734753847e-03" rms="2.4966683983802795e-01" purity="8.9073443412780762e-01" nType="-99"/>
          </Node>
        </Node>
      </Node>
    </BinaryTree>
    <BinaryTree type="DecisionTree" boostWeight="1.0000000000000000e+00" itree="559">
      <Node pos="s" depth="0" NCoef="0" IVar="9" Cut="1.9999746084213257e+00" cType="1" res="-9.5511233666911721e-04" rms="2.8244248032569885e-01" purity="4.9533036351203918e-01" nType="0">
        <Node pos="l" depth="1" NCoef="0" IVar="8" Cut="-1.3350312411785126e-01" cType="1" res="-1.7231024103239179e-03" rms="2.8328931331634521e-01" purity="5.0701510906219482e-01" nType="0">
          <Node pos="l" depth="2" NCoef="0" IVar="7" Cut="-8.8695573806762695e-01" cType="1" res="-6.1179194599390030e-03" rms="2.8093829751014709e-01" purity="4.7990801930427551e-01" nType="0">
            <Node pos="l" depth="3" NCoef="0" IVar="-1" Cut="0.0000000000000000e+00" cType="1" res="1.4160627499222755e-02" rms="2.7191406488418579e-01" purity="2.7096015214920044e-01" nType="-99"/>
            <Node pos="r" depth="3" NCoef="0" IVar="-1" Cut="0.0000000000000000e+00" cType="1" res="-1.1543584056198597e-02" rms="2.8270068764686584e-01" purity="5.2444696426391602e-01" nType="-99"/>
          </Node>
          <Node pos="r" depth="2" NCoef="0" IVar="10" Cut="-1.2000677585601807e+00" cType="1" res="1.8370418110862374e-03" rms="2.8512993454933167e-01" purity="5.2897399663925171e-01" nType="0">
            <Node pos="l" depth="3" NCoef="0" IVar="-1" Cut="0.0000000000000000e+00" cType="1" res="1.6439424827694893e-02" rms="2.8645494580268860e-01" purity="4.0570446848869324e-01" nType="-99"/>
            <Node pos="r" depth="3" NCoef="0" IVar="-1" Cut="0.0000000000000000e+00" cType="1" res="-3.2353901769965887e-04" rms="2.8484493494033813e-01" purity="5.5055111646652222e-01" nType="-99"/>
          </Node>
        </Node>
        <Node pos="r" depth="1" NCoef="0" IVar="-1" Cut="0.0000000000000000e+00" cType="1" res="3.3971626311540604e-02" rms="2.5710716843605042e-01" purity="1.7325524985790253e-01" nType="-99"/>
      </Node>
    </BinaryTree>
    <BinaryTree type="DecisionTree" boostWeight="1.0000000000000000e+00" itree="560">
      <Node pos="s" depth="0" NCoef="0" IVar="8" Cut="6.6672694683074951e-01" cType="1" res="7.8872416634112597e-04" rms="2.8809624910354614e-01" purity="4.9747148156166077e-01" nType="0">
        <Node pos="l" depth="1" NCoef="0" IVar="10" Cut="1.9997652769088745e+00" cType="1" res="-2.3607318289577961e-03" rms="2.8738316893577576e-01" purity="5.3938055038452148e-01" nType="0">
          <Node pos="l" depth="2" NCoef="0" IVar="10" Cut="6.2834864854812622e-01" cType="1" res="-3.4083744976669550e-03" rms="2.8670945763587952e-01" purity="5.4964035749435425e-01" nType="0">
            <Node pos="l" depth="3" NCoef="0" IVar="-1" Cut="0.0000000000000000e+00" cType="1" res="-1.2221345677971840e-03" rms="2.8293567895889282e-01" purity="5.5279332399368286e-01" nType="-99"/>
            <Node pos="r" depth="3" NCoef="0" IVar="-1" Cut="0.0000000000000000e+00" cType="1" res="-1.2198650278151035e-02" rms="2.9773950576782227e-01" purity="5.4008245468139648e-01" nType="-99"/>
          </Node>
          <Node pos="r" depth="2" NCoef="0" IVar="-1" Cut="0.0000000000000000e+00" cType="1" res="2.4882510304450989e-02" rms="3.0102029442787170e-01" purity="3.1151226162910461e-01" nType="-99"/>
        </Node>
        <Node pos="r" depth="1" NCoef="0" IVar="1" Cut="8.2147359848022461e-02" cType="1" res="1.0380405001342297e-02" rms="2.9004654288291931e-01" purity="3.6983734369277954e-01" nType="0">
          <Node pos="l" depth="2" NCoef="0" IVar="8" Cut="1.5810037851333618e+00" cType="1" res="1.4402646571397781e-02" rms="2.8342017531394958e-01" purity="2.5507208704948425e-01" nType="0">
            <Node pos="l" depth="3" NCoef="0" IVar="-1" Cut="0.0000000000000000e+00" cType="1" res="2.4485753849148750e-02" rms="3.1840014457702637e-01" purity="3.3609023690223694e-01" nType="-99"/>
            <Node pos="r" depth="3" NCoef="0" IVar="-1" Cut="0.0000000000000000e+00" cType="1" res="-3.6236746236681938e-03" rms="1.9551597535610199e-01" purity="9.4518221914768219e-02" nType="-99"/>
          </Node>
          <Node pos="r" depth="2" NCoef="0" IVar="-1" Cut="0.0000000000000000e+00" cType="1" res="-2.5368249043822289e-03" rms="3.0984753370285034e-01" purity="7.3508799076080322e-01" nType="-99"/>
        </Node>
      </Node>
    </BinaryTree>
    <BinaryTree type="DecisionTree" boostWeight="1.0000000000000000e+00" itree="561">
      <Node pos="s" depth="0" NCoef="0" IVar="2" Cut="3.3581430053710938e+02" cType="1" res="-3.0534258112311363e-03" rms="2.8386026620864868e-01" purity="4.9846014380455017e-01" nType="0">
        <Node pos="l" depth="1" NCoef="0" IVar="11" Cut="-2.4477214813232422e+00" cType="1" res="1.1077835224568844e-03" rms="2.8865694999694824e-01" purity="4.2397335171699524e-01" nType="0">
          <Node pos="l" depth="2" NCoef="0" IVar="10" Cut="-9.3280982971191406e-01" cType="1" res="6.1321207322180271e-03" rms="2.8604897856712341e-01" purity="1.7450739443302155e-01" nType="0">
            <Node pos="l" depth="3" NCoef="0" IVar="-1" Cut="0.0000000000000000e+00" cType="1" res="3.4250449389219284e-02" rms="2.9659220576286316e-01" purity="1.5338648855686188e-01" nType="-99"/>
            <Node pos="r" depth="3" NCoef="0" IVar="-1" Cut="0.0000000000000000e+00" cType="1" res="-3.8119402597658336e-04" rms="2.8188103437423706e-01" purity="1.8210765719413757e-01" nType="-99"/>
          </Node>
          <Node pos="r" depth="2" NCoef="0" IVar="4" Cut="1.1867042541503906e+02" cType="1" res="-4.3388186022639275e-03" rms="2.9135990142822266e-01" purity="6.9440537691116333e-01" nType="0">
            <Node pos="l" depth="3" NCoef="0" IVar="-1" Cut="0.0000000000000000e+00" cType="1" res="-2.8929306194186211e-02" rms="3.2303166389465332e-01" purity="2.9393061995506287e-01" nType="-99"/>
            <Node pos="r" depth="3" NCoef="0" IVar="-1" Cut="0.0000000000000000e+00" cType="1" res="2.8789476491510868e-03" rms="2.8339436650276184e-01" purity="7.8352797031402588e-01" nType="-99"/>
          </Node>
        </Node>
        <Node pos="r" depth="1" NCoef="0" IVar="4" Cut="1.9236239624023438e+02" cType="1" res="-6.5351147204637527e-03" rms="2.7973610162734985e-01" purity="5.6078338623046875e-01" nType="0">
          <Node pos="l" depth="2" NCoef="0" IVar="11" Cut="-1.0666847229003906e+00" cType="1" res="-1.3583454303443432e-02" rms="2.9350337386131287e-01" purity="3.5812681913375854e-01" nType="0">
            <Node pos="l" depth="3" NCoef="0" IVar="-1" Cut="0.0000000000000000e+00" cType="1" res="-8.3837639540433884e-03" rms="2.8627270460128784e-01" purity="2.2210340201854706e-01" nType="-99"/>
            <Node pos="r" depth="3" NCoef="0" IVar="-1" Cut="0.0000000000000000e+00" cType="1" res="-2.7478957548737526e-02" rms="3.0700153112411499e-01" purity="6.2921082973480225e-01" nType="-99"/>
          </Node>
          <Node pos="r" depth="2" NCoef="0" IVar="5" Cut="9.1343826293945312e+01" cType="1" res="2.3691300302743912e-03" rms="2.6103690266609192e-01" purity="8.1680166721343994e-01" nType="0">
            <Node pos="l" depth="3" NCoef="0" IVar="-1" Cut="0.0000000000000000e+00" cType="1" res="9.4133876264095306e-03" rms="3.3522468805313110e-01" purity="6.2902945280075073e-01" nType="-99"/>
            <Node pos="r" depth="3" NCoef="0" IVar="-1" Cut="0.0000000000000000e+00" cType="1" res="-3.3890961203724146e-03" rms="2.1753016114234924e-01" purity="9.0496438741683960e-01" nType="-99"/>
          </Node>
        </Node>
      </Node>
    </BinaryTree>
    <BinaryTree type="DecisionTree" boostWeight="1.0000000000000000e+00" itree="562">
      <Node pos="s" depth="0" NCoef="0" IVar="7" Cut="-1.1557210236787796e-01" cType="1" res="1.1792423902079463e-03" rms="2.8680363297462463e-01" purity="4.9710133671760559e-01" nType="0">
        <Node pos="l" depth="1" NCoef="0" IVar="7" Cut="-3.6788442730903625e-01" cType="1" res="-2.7988583315163851e-03" rms="2.8456243872642517e-01" purity="4.7341927886009216e-01" nType="0">
          <Node pos="l" depth="2" NCoef="0" IVar="11" Cut="-1.8952484130859375e+00" cType="1" res="7.3107931530103087e-04" rms="2.7823305130004883e-01" purity="4.1941466927528381e-01" nType="0">
            <Node pos="l" depth="3" NCoef="0" IVar="-1" Cut="0.0000000000000000e+00" cType="1" res="-1.0324602946639061e-02" rms="2.6506870985031128e-01" purity="1.8034210801124573e-01" nType="-99"/>
            <Node pos="r" depth="3" NCoef="0" IVar="-1" Cut="0.0000000000000000e+00" cType="1" res="1.1752250604331493e-02" rms="2.9292294383049011e-01" purity="7.0560204982757568e-01" nType="-99"/>
          </Node>
          <Node pos="r" depth="2" NCoef="0" IVar="5" Cut="6.5181831359863281e+01" cType="1" res="-1.3068551197648048e-02" rms="3.0198925733566284e-01" purity="6.3053572177886963e-01" nType="0">
            <Node pos="l" depth="3" NCoef="0" IVar="-1" Cut="0.0000000000000000e+00" cType="1" res="1.1860869824886322e-02" rms="3.3913609385490417e-01" purity="2.7600356936454773e-01" nType="-99"/>
            <Node pos="r" depth="3" NCoef="0" IVar="-1" Cut="0.0000000000000000e+00" cType="1" res="-2.8011832386255264e-02" rms="2.8700429201126099e-01" purity="7.5705701112747192e-01" nType="-99"/>
          </Node>
        </Node>
        <Node pos="r" depth="1" NCoef="0" IVar="10" Cut="-9.3310266733169556e-01" cType="1" res="4.4604190625250340e-03" rms="2.8859785199165344e-01" purity="5.1663458347320557e-01" nType="0">
          <Node pos="l" depth="2" NCoef="0" IVar="9" Cut="1.3407257199287415e-01" cType="1" res="-6.8486696109175682e-03" rms="2.8705891966819763e-01" purity="4.1835969686508179e-01" nType="0">
            <Node pos="l" depth="3" NCoef="0" IVar="-1" Cut="0.0000000000000000e+00" cType="1" res="-2.3237437009811401e-02" rms="2.8697875142097473e-01" purity="3.8810744881629944e-01" nType="-99"/>
            <Node pos="r" depth="3" NCoef="0" IVar="-1" Cut="0.0000000000000000e+00" cType="1" res="9.1434754431247711e-03" rms="2.8644728660583496e-01" purity="4.5468270778656006e-01" nType="-99"/>
          </Node>
          <Node pos="r" depth="2" NCoef="0" IVar="0" Cut="1.3396345214843750e+03" cType="1" res="7.2869900614023209e-03" rms="2.8891205787658691e-01" purity="5.4119724035263062e-01" nType="0">
            <Node pos="l" depth="3" NCoef="0" IVar="-1" Cut="0.0000000000000000e+00" cType="1" res="1.8505286425352097e-02" rms="2.9197168350219727e-01" purity="1.9549044966697693e-01" nType="-99"/>
            <Node pos="r" depth="3" NCoef="0" IVar="-1" Cut="0.0000000000000000e+00" cType="1" res="2.7205564547330141e-03" rms="2.8699949383735657e-01" purity="7.4215465784072876e-01" nType="-99"/>
          </Node>
        </Node>
      </Node>
    </BinaryTree>
    <BinaryTree type="DecisionTree" boostWeight="1.0000000000000000e+00" itree="563">
      <Node pos="s" depth="0" NCoef="0" IVar="10" Cut="1.3323004543781281e-01" cType="1" res="8.4134755888953805e-04" rms="2.8526476025581360e-01" purity="4.9984228610992432e-01" nType="0">
        <Node pos="l" depth="1" NCoef="0" IVar="10" Cut="-9.8421442508697510e-01" cType="1" res="4.5297862961888313e-03" rms="2.8411701321601868e-01" purity="5.0769048929214478e-01" nType="0">
          <Node pos="l" depth="2" NCoef="0" IVar="1" Cut="7.4817016720771790e-02" cType="1" res="-4.0225689299404621e-03" rms="2.7836349606513977e-01" purity="4.0192192792892456e-01" nType="0">
            <Node pos="l" depth="3" NCoef="0" IVar="-1" Cut="0.0000000000000000e+00" cType="1" res="-1.4391901902854443e-02" rms="2.6542541384696960e-01" purity="2.1307420730590820e-01" nType="-99"/>
            <Node pos="r" depth="3" NCoef="0" IVar="-1" Cut="0.0000000000000000e+00" cType="1" res="8.2890763878822327e-03" rms="2.9931849241256714e-01" purity="7.3274719715118408e-01" nType="-99"/>
          </Node>
          <Node pos="r" depth="2" NCoef="0" IVar="1" Cut="2.1205713972449303e-02" cType="1" res="1.0240615345537663e-02" rms="2.8775340318679810e-01" purity="5.7831734418869019e-01" nType="0">
            <Node pos="l" depth="3" NCoef="0" IVar="-1" Cut="0.0000000000000000e+00" cType="1" res="3.3757884055376053e-02" rms="2.7389410138130188e-01" purity="1.8696407973766327e-01" nType="-99"/>
            <Node pos="r" depth="3" NCoef="0" IVar="-1" Cut="0.0000000000000000e+00" cType="1" res="7.9453159123659134e-03" rms="2.9133859276771545e-01" purity="6.8522727489471436e-01" nType="-99"/>
          </Node>
        </Node>
        <Node pos="r" depth="1" NCoef="0" IVar="2" Cut="5.3857763671875000e+02" cType="1" res="-3.7489740643650293e-03" rms="2.8662043809890747e-01" purity="4.9007514119148254e-01" nType="0">
          <Node pos="l" depth="2" NCoef="0" IVar="2" Cut="4.9018472290039062e+02" cType="1" res="-1.2617098400369287e-03" rms="2.8478184342384338e-01" purity="4.7809264063835144e-01" nType="0">
            <Node pos="l" depth="3" NCoef="0" IVar="-1" Cut="0.0000000000000000e+00" cType="1" res="2.5383915635757148e-04" rms="2.8450310230255127e-01" purity="4.7240355610847473e-01" nType="-99"/>
            <Node pos="r" depth="3" NCoef="0" IVar="-1" Cut="0.0000000000000000e+00" cType="1" res="-2.9135374352335930e-02" rms="2.8787821531295776e-01" purity="5.5807507038116455e-01" nType="-99"/>
          </Node>
          <Node pos="r" depth="2" NCoef="0" IVar="3" Cut="2.9390429687500000e+02" cType="1" res="-1.8709745258092880e-02" rms="2.9700070619583130e-01" purity="5.6214940547943115e-01" nType="0">
            <Node pos="l" depth="3" NCoef="0" IVar="-1" Cut="0.0000000000000000e+00" cType="1" res="-4.8677101731300354e-02" rms="2.7735626697540283e-01" purity="3.9376810193061829e-01" nType="-99"/>
            <Node pos="r" depth="3" NCoef="0" IVar="-1" Cut="0.0000000000000000e+00" cType="1" res="1.5572899719700217e-03" rms="3.0889961123466492e-01" purity="6.8418508768081665e-01" nType="-99"/>
          </Node>
        </Node>
      </Node>
    </BinaryTree>
    <BinaryTree type="DecisionTree" boostWeight="1.0000000000000000e+00" itree="564">
      <Node pos="s" depth="0" NCoef="0" IVar="7" Cut="1.6584332287311554e-01" cType="1" res="-6.5189931774511933e-05" rms="2.8459271788597107e-01" purity="5.0011378526687622e-01" nType="0">
        <Node pos="l" depth="1" NCoef="0" IVar="4" Cut="1.4527648925781250e+02" cType="1" res="4.1807424277067184e-03" rms="2.8659328818321228e-01" purity="5.2405375242233276e-01" nType="0">
          <Node pos="l" depth="2" NCoef="0" IVar="1" Cut="5.8098319917917252e-02" cType="1" res="1.2532962486147881e-02" rms="2.9717251658439636e-01" purity="2.5024250149726868e-01" nType="0">
            <Node pos="l" depth="3" NCoef="0" IVar="-1" Cut="0.0000000000000000e+00" cType="1" res="2.1442775614559650e-03" rms="2.5443476438522339e-01" purity="1.2126217782497406e-01" nType="-99"/>
            <Node pos="r" depth="3" NCoef="0" IVar="-1" Cut="0.0000000000000000e+00" cType="1" res="2.6707328855991364e-02" rms="3.6322456598281860e-01" purity="4.9261459708213806e-01" nType="-99"/>
          </Node>
          <Node pos="r" depth="2" NCoef="0" IVar="5" Cut="6.7382362365722656e+01" cType="1" res="-2.3460888769477606e-03" rms="2.7787142992019653e-01" purity="7.3802322149276733e-01" nType="0">
            <Node pos="l" depth="3" NCoef="0" IVar="-1" Cut="0.0000000000000000e+00" cType="1" res="-1.1250570416450500e-02" rms="3.4263366460800171e-01" purity="3.7509796023368835e-01" nType="-99"/>
            <Node pos="r" depth="3" NCoef="0" IVar="-1" Cut="0.0000000000000000e+00" cType="1" res="2.7190102628082968e-05" rms="2.6264280080795288e-01" purity="8.1206417083740234e-01" nType="-99"/>
          </Node>
        </Node>
        <Node pos="r" depth="1" NCoef="0" IVar="2" Cut="4.1338519287109375e+02" cType="1" res="-6.0349567793309689e-03" rms="2.8164768218994141e-01" purity="4.6645438671112061e-01" nType="0">
          <Node pos="l" depth="2" NCoef="0" IVar="3" Cut="1.9090855407714844e+02" cType="1" res="-1.1058878153562546e-02" rms="2.8141328692436218e-01" purity="4.2141878604888916e-01" nType="0">
            <Node pos="l" depth="3" NCoef="0" IVar="-1" Cut="0.0000000000000000e+00" cType="1" res="-3.8868074771016836e-03" rms="2.6609557867050171e-01" purity="2.4578270316123962e-01" nType="-99"/>
            <Node pos="r" depth="3" NCoef="0" IVar="-1" Cut="0.0000000000000000e+00" cType="1" res="-2.0450228825211525e-02" rms="2.9348227381706238e-01" purity="5.6890851259231567e-01" nType="-99"/>
          </Node>
          <Node pos="r" depth="2" NCoef="0" IVar="4" Cut="1.4627754211425781e+02" cType="1" res="3.7761263083666563e-03" rms="2.8184676170349121e-01" purity="5.5440312623977661e-01" nType="0">
            <Node pos="l" depth="3" NCoef="0" IVar="-1" Cut="0.0000000000000000e+00" cType="1" res="-1.0476300492882729e-02" rms="2.8677675127983093e-01" purity="2.1105755865573883e-01" nType="-99"/>
            <Node pos="r" depth="3" NCoef="0" IVar="-1" Cut="0.0000000000000000e+00" cType="1" res="1.2190742418169975e-02" rms="2.7901110053062439e-01" purity="7.3382931947708130e-01" nType="-99"/>
          </Node>
        </Node>
      </Node>
    </BinaryTree>
    <BinaryTree type="DecisionTree" boostWeight="1.0000000000000000e+00" itree="565">
      <Node pos="s" depth="0" NCoef="0" IVar="9" Cut="1.2000254392623901e+00" cType="1" res="-3.6786140408366919e-03" rms="2.8584963083267212e-01" purity="4.9532580375671387e-01" nType="0">
        <Node pos="l" depth="1" NCoef="0" IVar="2" Cut="3.2583377075195312e+02" cType="1" res="-2.2804436739534140e-03" rms="2.8918620944023132e-01" purity="5.2686339616775513e-01" nType="0">
          <Node pos="l" depth="2" NCoef="0" IVar="3" Cut="1.9708767700195312e+02" cType="1" res="1.6977752093225718e-03" rms="2.8926643729209900e-01" purity="4.5333254337310791e-01" nType="0">
            <Node pos="l" depth="3" NCoef="0" IVar="-1" Cut="0.0000000000000000e+00" cType="1" res="-5.6721512228250504e-03" rms="2.8086122870445251e-01" purity="2.8997474908828735e-01" nType="-99"/>
            <Node pos="r" depth="3" NCoef="0" IVar="-1" Cut="0.0000000000000000e+00" cType="1" res="1.0464637540280819e-02" rms="2.9921069741249084e-01" purity="6.5657716989517212e-01" nType="-99"/>
          </Node>
          <Node pos="r" depth="2" NCoef="0" IVar="5" Cut="7.0670654296875000e+01" cType="1" res="-5.1251961849629879e-03" rms="2.8909525275230408e-01" purity="5.7944399118423462e-01" nType="0">
            <Node pos="l" depth="3" NCoef="0" IVar="-1" Cut="0.0000000000000000e+00" cType="1" res="7.2123402787838131e-05" rms="3.0432191491127014e-01" purity="2.4200823903083801e-01" nType="-99"/>
            <Node pos="r" depth="3" NCoef="0" IVar="-1" Cut="0.0000000000000000e+00" cType="1" res="-1.0032099671661854e-02" rms="2.8085458278656006e-01" purity="7.5405240058898926e-01" nType="-99"/>
          </Node>
        </Node>
        <Node pos="r" depth="1" NCoef="0" IVar="0" Cut="1.3460250244140625e+03" cType="1" res="-1.3232113793492317e-02" rms="2.6171645522117615e-01" purity="2.7983403205871582e-01" nType="0">
          <Node pos="l" depth="2" NCoef="0" IVar="2" Cut="2.8428512573242188e+02" cType="1" res="-2.0756028592586517e-02" rms="2.1980856359004974e-01" purity="7.9571180045604706e-02" nType="0">
            <Node pos="l" depth="3" NCoef="0" IVar="-1" Cut="0.0000000000000000e+00" cType="1" res="-4.4446378946304321e-02" rms="2.3573818802833557e-01" purity="9.5119923353195190e-02" nType="-99"/>
            <Node pos="r" depth="3" NCoef="0" IVar="-1" Cut="0.0000000000000000e+00" cType="1" res="-2.1746849641203880e-02" rms="2.0089906454086304e-01" purity="6.2946744263172150e-02" nType="-99"/>
          </Node>
          <Node pos="r" depth="2" NCoef="0" IVar="0" Cut="1.5931790771484375e+03" cType="1" res="-4.5722867362201214e-03" rms="3.0262461304664612e-01" purity="5.1033127307891846e-01" nType="0">
            <Node pos="l" depth="3" NCoef="0" IVar="-1" Cut="0.0000000000000000e+00" cType="1" res="1.2653595767915249e-02" rms="3.1577542424201965e-01" purity="3.6084055900573730e-01" nType="-99"/>
            <Node pos="r" depth="3" NCoef="0" IVar="-1" Cut="0.0000000000000000e+00" cType="1" res="-2.0686827600002289e-02" rms="2.9094979166984558e-01" purity="6.2870615720748901e-01" nType="-99"/>
          </Node>
        </Node>
      </Node>
    </BinaryTree>
    <BinaryTree type="DecisionTree" boostWeight="1.0000000000000000e+00" itree="566">
      <Node pos="s" depth="0" NCoef="0" IVar="7" Cut="-3.9020085334777832e-01" cType="1" res="-3.6370824091136456e-04" rms="2.8350135684013367e-01" purity="5.0115567445755005e-01" nType="0">
        <Node pos="l" depth="1" NCoef="0" IVar="10" Cut="1.4666630029678345e+00" cType="1" res="-7.9484730958938599e-03" rms="2.7168592810630798e-01" purity="4.0717586874961853e-01" nType="0">
          <Node pos="l" depth="2" NCoef="0" IVar="8" Cut="9.3347805738449097e-01" cType="1" res="-1.0769771412014961e-02" rms="2.7027997374534607e-01" purity="4.2521801590919495e-01" nType="0">
            <Node pos="l" depth="3" NCoef="0" IVar="-1" Cut="0.0000000000000000e+00" cType="1" res="-9.3775531277060509e-03" rms="2.7883213758468628e-01" purity="4.7421222925186157e-01" nType="-99"/>
            <Node pos="r" depth="3" NCoef="0" IVar="-1" Cut="0.0000000000000000e+00" cType="1" res="-4.3943736702203751e-02" rms="2.2040353715419769e-01" purity="1.7318995296955109e-01" nType="-99"/>
          </Node>
          <Node pos="r" depth="2" NCoef="0" IVar="-1" Cut="0.0000000000000000e+00" cType="1" res="2.1155120804905891e-02" rms="2.8215044736862183e-01" purity="2.5493595004081726e-01" nType="-99"/>
        </Node>
        <Node pos="r" depth="1" NCoef="0" IVar="11" Cut="1.4187746047973633e+00" cType="1" res="3.2195176463574171e-03" rms="2.8884598612785339e-01" purity="5.4555404186248779e-01" nType="0">
          <Node pos="l" depth="2" NCoef="0" IVar="9" Cut="3.9986491203308105e-01" cType="1" res="1.9808716606348753e-03" rms="2.8787612915039062e-01" purity="5.3350293636322021e-01" nType="0">
            <Node pos="l" depth="3" NCoef="0" IVar="-1" Cut="0.0000000000000000e+00" cType="1" res="6.8629253655672073e-03" rms="2.8823444247245789e-01" purity="5.6504696607589722e-01" nType="-99"/>
            <Node pos="r" depth="3" NCoef="0" IVar="-1" Cut="0.0000000000000000e+00" cType="1" res="-5.2928631193935871e-03" rms="2.8713598847389221e-01" purity="4.7865700721740723e-01" nType="-99"/>
          </Node>
          <Node pos="r" depth="2" NCoef="0" IVar="-1" Cut="0.0000000000000000e+00" cType="1" res="2.0932376384735107e-02" rms="3.0170091986656189e-01" purity="7.1621358394622803e-01" nType="-99"/>
        </Node>
      </Node>
    </BinaryTree>
    <BinaryTree type="DecisionTree" boostWeight="1.0000000000000000e+00" itree="567">
      <Node pos="s" depth="0" NCoef="0" IVar="9" Cut="2.0000352859497070e+00" cType="1" res="-1.0076733306050301e-03" rms="2.8506195545196533e-01" purity="4.9954038858413696e-01" nType="0">
        <Node pos="l" depth="1" NCoef="0" IVar="10" Cut="-2.2666573524475098e+00" cType="1" res="-1.6576204507146031e-04" rms="2.8736835718154907e-01" purity="5.1404732465744019e-01" nType="0">
          <Node pos="l" depth="2" NCoef="0" IVar="-1" Cut="0.0000000000000000e+00" cType="1" res="3.2060399651527405e-02" rms="2.7374520897865295e-01" purity="2.2000111639499664e-01" nType="-99"/>
          <Node pos="r" depth="2" NCoef="0" IVar="2" Cut="3.3977136230468750e+02" cType="1" res="-8.0709846224635839e-04" rms="2.8774067759513855e-01" purity="5.2283012866973877e-01" nType="0">
            <Node pos="l" depth="3" NCoef="0" IVar="-1" Cut="0.0000000000000000e+00" cType="1" res="-6.5707899630069733e-03" rms="2.8890913724899292e-01" purity="4.4525039196014404e-01" nType="-99"/>
            <Node pos="r" depth="3" NCoef="0" IVar="-1" Cut="0.0000000000000000e+00" cType="1" res="3.9033207576721907e-03" rms="2.8669130802154541e-01" purity="5.8813029527664185e-01" nType="-99"/>
          </Node>
        </Node>
        <Node pos="r" depth="1" NCoef="0" IVar="-1" Cut="0.0000000000000000e+00" cType="1" res="-4.7629069536924362e-02" rms="2.0925757288932800e-01" purity="9.4101630151271820e-02" nType="-99"/>
      </Node>
    </BinaryTree>
    <BinaryTree type="DecisionTree" boostWeight="1.0000000000000000e+00" itree="568">
      <Node pos="s" depth="0" NCoef="0" IVar="4" Cut="1.4592961120605469e+02" cType="1" res="1.6991440206766129e-03" rms="2.8684270381927490e-01" purity="4.9937146902084351e-01" nType="0">
        <Node pos="l" depth="1" NCoef="0" IVar="5" Cut="7.1985656738281250e+01" cType="1" res="5.3728371858596802e-03" rms="2.8772234916687012e-01" purity="2.3131723701953888e-01" nType="0">
          <Node pos="l" depth="2" NCoef="0" IVar="11" Cut="-5.1559263467788696e-01" cType="1" res="-5.7612347882241011e-04" rms="2.5200152397155762e-01" purity="1.1305531114339828e-01" nType="0">
            <Node pos="l" depth="3" NCoef="0" IVar="-1" Cut="0.0000000000000000e+00" cType="1" res="6.1496235430240631e-03" rms="2.4168412387371063e-01" purity="9.4144470989704132e-02" nType="-99"/>
            <Node pos="r" depth="3" NCoef="0" IVar="-1" Cut="0.0000000000000000e+00" cType="1" res="-2.6495629921555519e-02" rms="3.1839442253112793e-01" purity="2.5761133432388306e-01" nType="-99"/>
          </Node>
          <Node pos="r" depth="2" NCoef="0" IVar="8" Cut="-6.6381859779357910e-01" cType="1" res="1.7426323145627975e-02" rms="3.4875503182411194e-01" purity="4.7093361616134644e-01" nType="0">
            <Node pos="l" depth="3" NCoef="0" IVar="-1" Cut="0.0000000000000000e+00" cType="1" res="3.7618182599544525e-02" rms="3.5257041454315186e-01" purity="3.9511209726333618e-01" nType="-99"/>
            <Node pos="r" depth="3" NCoef="0" IVar="-1" Cut="0.0000000000000000e+00" cType="1" res="7.5540491379797459e-03" rms="3.4699445962905884e-01" purity="4.9781131744384766e-01" nType="-99"/>
          </Node>
        </Node>
        <Node pos="r" depth="1" NCoef="0" IVar="11" Cut="-1.8952484130859375e+00" cType="1" res="-1.2702136300504208e-03" rms="2.8609526157379150e-01" purity="7.1603327989578247e-01" nType="0">
          <Node pos="l" depth="2" NCoef="0" IVar="3" Cut="3.0319561767578125e+02" cType="1" res="-8.9698098599910736e-03" rms="3.4443455934524536e-01" purity="4.4120222330093384e-01" nType="0">
            <Node pos="l" depth="3" NCoef="0" IVar="-1" Cut="0.0000000000000000e+00" cType="1" res="-1.7633207142353058e-02" rms="3.4086689352989197e-01" purity="3.6299893260002136e-01" nType="-99"/>
            <Node pos="r" depth="3" NCoef="0" IVar="-1" Cut="0.0000000000000000e+00" cType="1" res="1.2377280741930008e-02" rms="3.5024487972259521e-01" purity="5.9803342819213867e-01" nType="-99"/>
          </Node>
          <Node pos="r" depth="2" NCoef="0" IVar="2" Cut="3.1049755859375000e+02" cType="1" res="2.7643530629575253e-03" rms="2.5005617737770081e-01" purity="8.6004406213760376e-01" nType="0">
            <Node pos="l" depth="3" NCoef="0" IVar="-1" Cut="0.0000000000000000e+00" cType="1" res="1.7004629597067833e-02" rms="2.6332923769950867e-01" purity="8.4407877922058105e-01" nType="-99"/>
            <Node pos="r" depth="3" NCoef="0" IVar="-1" Cut="0.0000000000000000e+00" cType="1" res="-1.6274627996608615e-03" rms="2.4472789466381073e-01" purity="8.6609941720962524e-01" nType="-99"/>
          </Node>
        </Node>
      </Node>
    </BinaryTree>
    <BinaryTree type="DecisionTree" boostWeight="1.0000000000000000e+00" itree="569">
      <Node pos="s" depth="0" NCoef="0" IVar="2" Cut="3.2071621704101562e+02" cType="1" res="7.9872913192957640e-04" rms="2.8692054748535156e-01" purity="4.9934354424476624e-01" nType="0">
        <Node pos="l" depth="1" NCoef="0" IVar="0" Cut="1.2760462646484375e+03" cType="1" res="-2.9149793554097414e-03" rms="2.8730338811874390e-01" purity="4.1742551326751709e-01" nType="0">
          <Node pos="l" depth="2" NCoef="0" IVar="0" Cut="1.2079782714843750e+03" cType="1" res="2.2141481749713421e-03" rms="2.8583204746246338e-01" purity="1.5575616061687469e-01" nType="0">
            <Node pos="l" depth="3" NCoef="0" IVar="-1" Cut="0.0000000000000000e+00" cType="1" res="-2.6127761229872704e-03" rms="2.6313361525535583e-01" purity="1.1195970326662064e-01" nType="-99"/>
            <Node pos="r" depth="3" NCoef="0" IVar="-1" Cut="0.0000000000000000e+00" cType="1" res="1.8023630604147911e-02" rms="3.9233347773551941e-01" purity="4.1198825836181641e-01" nType="-99"/>
          </Node>
          <Node pos="r" depth="2" NCoef="0" IVar="5" Cut="1.0435710906982422e+02" cType="1" res="-1.0124727152287960e-02" rms="2.8920516371726990e-01" purity="7.8524059057235718e-01" nType="0">
            <Node pos="l" depth="3" NCoef="0" IVar="-1" Cut="0.0000000000000000e+00" cType="1" res="-2.2793427109718323e-02" rms="3.3980458974838257e-01" purity="6.7312663793563843e-01" nType="-99"/>
            <Node pos="r" depth="3" NCoef="0" IVar="-1" Cut="0.0000000000000000e+00" cType="1" res="1.1279189959168434e-02" rms="2.2419948875904083e-01" purity="9.0092909336090088e-01" nType="-99"/>
          </Node>
        </Node>
        <Node pos="r" depth="1" NCoef="0" IVar="8" Cut="-1.3314287364482880e-01" cType="1" res="3.3056989777833223e-03" rms="2.8663462400436401e-01" purity="5.5464303493499756e-01" nType="0">
          <Node pos="l" depth="2" NCoef="0" IVar="9" Cut="9.3331903219223022e-01" cType="1" res="8.3322320133447647e-03" rms="2.8755724430084229e-01" purity="5.3734230995178223e-01" nType="0">
            <Node pos="l" depth="3" NCoef="0" IVar="-1" Cut="0.0000000000000000e+00" cType="1" res="1.4112428762018681e-02" rms="2.8810101747512817e-01" purity="5.6951582431793213e-01" nType="-99"/>
            <Node pos="r" depth="3" NCoef="0" IVar="-1" Cut="0.0000000000000000e+00" cType="1" res="-1.2218510732054710e-02" rms="2.8373095393180847e-01" purity="3.5436940193176270e-01" nType="-99"/>
          </Node>
          <Node pos="r" depth="2" NCoef="0" IVar="9" Cut="-6.6587537527084351e-01" cType="1" res="-7.2551477933302522e-04" rms="2.8582864999771118e-01" purity="5.6851798295974731e-01" nType="0">
            <Node pos="l" depth="3" NCoef="0" IVar="-1" Cut="0.0000000000000000e+00" cType="1" res="1.2141975574195385e-02" rms="2.9061695933341980e-01" purity="4.6394026279449463e-01" nType="-99"/>
            <Node pos="r" depth="3" NCoef="0" IVar="-1" Cut="0.0000000000000000e+00" cType="1" res="-4.9569695256650448e-03" rms="2.8430968523025513e-01" purity="5.9953635931015015e-01" nType="-99"/>
          </Node>
        </Node>
      </Node>
    </BinaryTree>
    <BinaryTree type="DecisionTree" boostWeight="1.0000000000000000e+00" itree="570">
      <Node pos="s" depth="0" NCoef="0" IVar="9" Cut="-1.4666180610656738e+00" cType="1" res="-8.3216780330985785e-04" rms="2.8276145458221436e-01" purity="4.9417647719383240e-01" nType="0">
        <Node pos="l" depth="1" NCoef="0" IVar="11" Cut="-1.0666847229003906e+00" cType="1" res="-1.4735468663275242e-02" rms="2.5545111298561096e-01" purity="2.0345439016819000e-01" nType="0">
          <Node pos="l" depth="2" NCoef="0" IVar="8" Cut="1.3199412822723389e-01" cType="1" res="-5.9154671616852283e-03" rms="2.2915427386760712e-01" purity="1.1174070835113525e-01" nType="0">
            <Node pos="l" depth="3" NCoef="0" IVar="-1" Cut="0.0000000000000000e+00" cType="1" res="-2.2687112912535667e-02" rms="2.2833772003650665e-01" purity="1.1404962092638016e-01" nType="-99"/>
            <Node pos="r" depth="3" NCoef="0" IVar="-1" Cut="0.0000000000000000e+00" cType="1" res="1.0116860270500183e-02" rms="2.2986510396003723e-01" purity="1.0837684571743011e-01" nType="-99"/>
          </Node>
          <Node pos="r" depth="2" NCoef="0" IVar="-1" Cut="0.0000000000000000e+00" cType="1" res="-3.4560378640890121e-02" rms="3.0933469533920288e-01" purity="4.2717087268829346e-01" nType="-99"/>
        </Node>
        <Node pos="r" depth="1" NCoef="0" IVar="1" Cut="8.7588682770729065e-02" cType="1" res="5.3050555288791656e-04" rms="2.8526106476783752e-01" purity="5.2267032861709595e-01" nType="0">
          <Node pos="l" depth="2" NCoef="0" IVar="4" Cut="1.4552420043945312e+02" cType="1" res="3.1020243186503649e-03" rms="2.9142230749130249e-01" purity="3.6105540394783020e-01" nType="0">
            <Node pos="l" depth="3" NCoef="0" IVar="-1" Cut="0.0000000000000000e+00" cType="1" res="-2.5257291272282600e-03" rms="2.6175472140312195e-01" purity="1.5615400671958923e-01" nType="-99"/>
            <Node pos="r" depth="3" NCoef="0" IVar="-1" Cut="0.0000000000000000e+00" cType="1" res="8.1928167492151260e-03" rms="3.2166692614555359e-01" purity="5.9329152107238770e-01" nType="-99"/>
          </Node>
          <Node pos="r" depth="2" NCoef="0" IVar="1" Cut="1.4076825976371765e-01" cType="1" res="-4.1897315531969070e-03" rms="2.7352783083915710e-01" purity="8.1932806968688965e-01" nType="0">
            <Node pos="l" depth="3" NCoef="0" IVar="-1" Cut="0.0000000000000000e+00" cType="1" res="-1.0585631243884563e-02" rms="2.9745027422904968e-01" purity="7.5353997945785522e-01" nType="-99"/>
            <Node pos="r" depth="3" NCoef="0" IVar="-1" Cut="0.0000000000000000e+00" cType="1" res="2.0360713824629784e-03" rms="2.4699088931083679e-01" purity="8.8557583093643188e-01" nType="-99"/>
          </Node>
        </Node>
      </Node>
    </BinaryTree>
    <BinaryTree type="DecisionTree" boostWeight="1.0000000000000000e+00" itree="571">
      <Node pos="s" depth="0" NCoef="0" IVar="7" Cut="-1.1552587151527405e-01" cType="1" res="8.3486991934478283e-04" rms="2.8424778580665588e-01" purity="4.9894869327545166e-01" nType="0">
        <Node pos="l" depth="1" NCoef="0" IVar="7" Cut="-8.7231880426406860e-01" cType="1" res="5.3036096505820751e-03" rms="2.8711295127868652e-01" purity="4.8061984777450562e-01" nType="0">
          <Node pos="l" depth="2" NCoef="0" IVar="3" Cut="2.2537442016601562e+02" cType="1" res="-5.5283335968852043e-03" rms="2.5614777207374573e-01" purity="2.4031026661396027e-01" nType="0">
            <Node pos="l" depth="3" NCoef="0" IVar="-1" Cut="0.0000000000000000e+00" cType="1" res="5.1341101061552763e-04" rms="2.3247537016868591e-01" purity="1.5983088314533234e-01" nType="-99"/>
            <Node pos="r" depth="3" NCoef="0" IVar="-1" Cut="0.0000000000000000e+00" cType="1" res="-1.8978290259838104e-02" rms="2.9438135027885437e-01" purity="3.8798481225967407e-01" nType="-99"/>
          </Node>
          <Node pos="r" depth="2" NCoef="0" IVar="5" Cut="7.0200958251953125e+01" cType="1" res="1.1388175189495087e-02" rms="3.0295267701148987e-01" purity="6.1560755968093872e-01" nType="0">
            <Node pos="l" depth="3" NCoef="0" IVar="-1" Cut="0.0000000000000000e+00" cType="1" res="2.4000735953450203e-02" rms="3.2839518785476685e-01" purity="2.8146335482597351e-01" nType="-99"/>
            <Node pos="r" depth="3" NCoef="0" IVar="-1" Cut="0.0000000000000000e+00" cType="1" res="5.4276292212307453e-03" rms="2.8831216692924500e-01" purity="7.9283946752548218e-01" nType="-99"/>
          </Node>
        </Node>
        <Node pos="r" depth="1" NCoef="0" IVar="3" Cut="3.8143908691406250e+02" cType="1" res="-2.8036066796630621e-03" rms="2.8184109926223755e-01" purity="5.1387214660644531e-01" nType="0">
          <Node pos="l" depth="2" NCoef="0" IVar="8" Cut="-3.9993587136268616e-01" cType="1" res="-9.3389069661498070e-04" rms="2.8294318914413452e-01" purity="4.8752596974372864e-01" nType="0">
            <Node pos="l" depth="3" NCoef="0" IVar="-1" Cut="0.0000000000000000e+00" cType="1" res="1.0047676973044872e-02" rms="2.8126037120819092e-01" purity="4.1433036327362061e-01" nType="-99"/>
            <Node pos="r" depth="3" NCoef="0" IVar="-1" Cut="0.0000000000000000e+00" cType="1" res="-6.0258009470999241e-03" rms="2.8363180160522461e-01" purity="5.2192717790603638e-01" nType="-99"/>
          </Node>
          <Node pos="r" depth="2" NCoef="0" IVar="10" Cut="1.3176909089088440e-01" cType="1" res="-2.0634843036532402e-02" rms="2.7045702934265137e-01" purity="7.6513171195983887e-01" nType="0">
            <Node pos="l" depth="3" NCoef="0" IVar="-1" Cut="0.0000000000000000e+00" cType="1" res="-3.5533141344785690e-02" rms="2.6096451282501221e-01" purity="7.7605563402175903e-01" nType="-99"/>
            <Node pos="r" depth="3" NCoef="0" IVar="-1" Cut="0.0000000000000000e+00" cType="1" res="-2.3965863510966301e-02" rms="2.8010305762290955e-01" purity="7.5360226631164551e-01" nType="-99"/>
          </Node>
        </Node>
      </Node>
    </BinaryTree>
    <BinaryTree type="DecisionTree" boostWeight="1.0000000000000000e+00" itree="572">
      <Node pos="s" depth="0" NCoef="0" IVar="3" Cut="4.6833432006835938e+02" cType="1" res="-1.7563749570399523e-03" rms="2.8334677219390869e-01" purity="4.9653878808021545e-01" nType="0">
        <Node pos="l" depth="1" NCoef="0" IVar="8" Cut="-1.4664789438247681e+00" cType="1" res="-9.9128857254981995e-04" rms="2.8303951025009155e-01" purity="4.8894569277763367e-01" nType="0">
          <Node pos="l" depth="2" NCoef="0" IVar="5" Cut="6.0952724456787109e+01" cType="1" res="1.3988994993269444e-02" rms="2.3724481463432312e-01" purity="1.4970688521862030e-01" nType="0">
            <Node pos="l" depth="3" NCoef="0" IVar="-1" Cut="0.0000000000000000e+00" cType="1" res="-4.7931063920259476e-02" rms="1.1713566631078720e-01" purity="1.3567887246608734e-02" nType="-99"/>
            <Node pos="r" depth="3" NCoef="0" IVar="-1" Cut="0.0000000000000000e+00" cType="1" res="3.6732319742441177e-02" rms="2.8593024611473083e-01" purity="2.3286984860897064e-01" nType="-99"/>
          </Node>
          <Node pos="r" depth="2" NCoef="0" IVar="9" Cut="9.3316024541854858e-01" cType="1" res="-2.2689497563987970e-03" rms="2.8657060861587524e-01" purity="5.1787918806076050e-01" nType="0">
            <Node pos="l" depth="3" NCoef="0" IVar="-1" Cut="0.0000000000000000e+00" cType="1" res="-4.9457489512860775e-03" rms="2.8653523325920105e-01" purity="5.5227637290954590e-01" nType="-99"/>
            <Node pos="r" depth="3" NCoef="0" IVar="-1" Cut="0.0000000000000000e+00" cType="1" res="7.1384767070412636e-03" rms="2.8657573461532593e-01" purity="3.6893573403358459e-01" nType="-99"/>
          </Node>
        </Node>
        <Node pos="r" depth="1" NCoef="0" IVar="-1" Cut="0.0000000000000000e+00" cType="1" res="-3.0672656372189522e-02" rms="2.9182237386703491e-01" purity="7.3526757955551147e-01" nType="-99"/>
      </Node>
    </BinaryTree>
    <BinaryTree type="DecisionTree" boostWeight="1.0000000000000000e+00" itree="573">
      <Node pos="s" depth="0" NCoef="0" IVar="10" Cut="-6.6666191816329956e-01" cType="1" res="2.7746357955038548e-03" rms="2.8679981827735901e-01" purity="5.0315338373184204e-01" nType="0">
        <Node pos="l" depth="1" NCoef="0" IVar="8" Cut="-3.9978483319282532e-01" cType="1" res="9.1910064220428467e-03" rms="2.8561276197433472e-01" purity="4.6239537000656128e-01" nType="0">
          <Node pos="l" depth="2" NCoef="0" IVar="3" Cut="2.1434460449218750e+02" cType="1" res="-2.1543093025684357e-03" rms="2.7424505352973938e-01" purity="3.8610213994979858e-01" nType="0">
            <Node pos="l" depth="3" NCoef="0" IVar="-1" Cut="0.0000000000000000e+00" cType="1" res="9.3901706859469414e-03" rms="2.7171063423156738e-01" purity="2.4386167526245117e-01" nType="-99"/>
            <Node pos="r" depth="3" NCoef="0" IVar="-1" Cut="0.0000000000000000e+00" cType="1" res="-1.2602822855114937e-02" rms="2.7671566605567932e-01" purity="5.4404842853546143e-01" nType="-99"/>
          </Node>
          <Node pos="r" depth="2" NCoef="0" IVar="8" Cut="8.1918805837631226e-01" cType="1" res="1.6536783427000046e-02" rms="2.9250308871269226e-01" purity="5.1179313659667969e-01" nType="0">
            <Node pos="l" depth="3" NCoef="0" IVar="-1" Cut="0.0000000000000000e+00" cType="1" res="2.4447195231914520e-02" rms="3.0308911204338074e-01" purity="6.0742825269699097e-01" nType="-99"/>
            <Node pos="r" depth="3" NCoef="0" IVar="-1" Cut="0.0000000000000000e+00" cType="1" res="2.2772487718611956e-03" rms="2.6368474960327148e-01" purity="2.7340579032897949e-01" nType="-99"/>
          </Node>
        </Node>
        <Node pos="r" depth="1" NCoef="0" IVar="6" Cut="6.3181526184082031e+01" cType="1" res="5.1407227147137746e-05" rms="2.8725883364677429e-01" purity="5.2045190334320068e-01" nType="0">
          <Node pos="l" depth="2" NCoef="0" IVar="6" Cut="5.7163784027099609e+01" cType="1" res="3.4486074000597000e-03" rms="3.0967229604721069e-01" purity="3.1110394001007080e-01" nType="0">
            <Node pos="l" depth="3" NCoef="0" IVar="-1" Cut="0.0000000000000000e+00" cType="1" res="9.1957155382260680e-04" rms="3.0440583825111389e-01" purity="2.7743121981620789e-01" nType="-99"/>
            <Node pos="r" depth="3" NCoef="0" IVar="-1" Cut="0.0000000000000000e+00" cType="1" res="2.0771672949194908e-02" rms="3.5064288973808289e-01" purity="5.9853374958038330e-01" nType="-99"/>
          </Node>
          <Node pos="r" depth="2" NCoef="0" IVar="1" Cut="8.4922231733798981e-02" cType="1" res="-5.3235674276947975e-03" rms="2.4759255349636078e-01" purity="8.5167747735977173e-01" nType="0">
            <Node pos="l" depth="3" NCoef="0" IVar="-1" Cut="0.0000000000000000e+00" cType="1" res="-1.7178779467940331e-02" rms="3.0270770192146301e-01" purity="7.2011893987655640e-01" nType="-99"/>
            <Node pos="r" depth="3" NCoef="0" IVar="-1" Cut="0.0000000000000000e+00" cType="1" res="6.7146481014788151e-03" rms="1.9767117500305176e-01" purity="9.4742065668106079e-01" nType="-99"/>
          </Node>
        </Node>
      </Node>
    </BinaryTree>
    <BinaryTree type="DecisionTree" boostWeight="1.0000000000000000e+00" itree="574">
      <Node pos="s" depth="0" NCoef="0" IVar="11" Cut="1.4187746047973633e+00" cType="1" res="-9.7815366461873055e-04" rms="2.8597781062126160e-01" purity="4.9766916036605835e-01" nType="0">
        <Node pos="l" depth="1" NCoef="0" IVar="4" Cut="9.8110519409179688e+01" cType="1" res="-9.9250370112713426e-05" rms="2.8494369983673096e-01" purity="4.8996365070343018e-01" nType="0">
          <Node pos="l" depth="2" NCoef="0" IVar="1" Cut="5.5607073009014130e-02" cType="1" res="7.0374300703406334e-03" rms="2.1785637736320496e-01" purity="7.4286475777626038e-02" nType="0">
            <Node pos="l" depth="3" NCoef="0" IVar="-1" Cut="0.0000000000000000e+00" cType="1" res="6.2551260925829411e-03" rms="1.8384520709514618e-01" purity="4.7656938433647156e-02" nType="-99"/>
            <Node pos="r" depth="3" NCoef="0" IVar="-1" Cut="0.0000000000000000e+00" cType="1" res="3.0262330546975136e-02" rms="3.1792944669723511e-01" purity="1.7972841858863831e-01" nType="-99"/>
          </Node>
          <Node pos="r" depth="2" NCoef="0" IVar="9" Cut="-9.3391251564025879e-01" cType="1" res="-1.5438252594321966e-03" rms="2.9666194319725037e-01" purity="5.7410311698913574e-01" nType="0">
            <Node pos="l" depth="3" NCoef="0" IVar="-1" Cut="0.0000000000000000e+00" cType="1" res="-1.2354452162981033e-02" rms="2.9272094368934631e-01" purity="4.1815644502639771e-01" nType="-99"/>
            <Node pos="r" depth="3" NCoef="0" IVar="-1" Cut="0.0000000000000000e+00" cType="1" res="7.7940104529261589e-04" rms="2.9750910401344299e-01" purity="6.0970258712768555e-01" nType="-99"/>
          </Node>
        </Node>
        <Node pos="r" depth="1" NCoef="0" IVar="3" Cut="2.4471968078613281e+02" cType="1" res="-1.5134297311306000e-02" rms="3.0179411172866821e-01" purity="6.2177962064743042e-01" nType="0">
          <Node pos="l" depth="2" NCoef="0" IVar="-1" Cut="0.0000000000000000e+00" cType="1" res="-2.1861767396330833e-02" rms="3.1447547674179077e-01" purity="5.1182377338409424e-01" nType="-99"/>
          <Node pos="r" depth="2" NCoef="0" IVar="-1" Cut="0.0000000000000000e+00" cType="1" res="-4.5132413506507874e-03" rms="2.8409758210182190e-01" purity="7.6455521583557129e-01" nType="-99"/>
        </Node>
      </Node>
    </BinaryTree>
    <BinaryTree type="DecisionTree" boostWeight="1.0000000000000000e+00" itree="575">
      <Node pos="s" depth="0" NCoef="0" IVar="11" Cut="8.6663055419921875e-01" cType="1" res="6.3111580675467849e-04" rms="2.8709590435028076e-01" purity="4.9707424640655518e-01" nType="0">
        <Node pos="l" depth="1" NCoef="0" IVar="8" Cut="1.4666507244110107e+00" cType="1" res="-1.2717256322503090e-03" rms="2.8597930073738098e-01" purity="4.6517077088356018e-01" nType="0">
          <Node pos="l" depth="2" NCoef="0" IVar="10" Cut="-6.6669303178787231e-01" cType="1" res="-2.4228938855230808e-03" rms="2.9057508707046509e-01" purity="4.9333205819129944e-01" nType="0">
            <Node pos="l" depth="3" NCoef="0" IVar="-1" Cut="0.0000000000000000e+00" cType="1" res="3.5828251857310534e-03" rms="2.8625053167343140e-01" purity="4.5087832212448120e-01" nType="-99"/>
            <Node pos="r" depth="3" NCoef="0" IVar="-1" Cut="0.0000000000000000e+00" cType="1" res="-5.6295581161975861e-03" rms="2.9245418310165405e-01" purity="5.1230156421661377e-01" nType="-99"/>
          </Node>
          <Node pos="r" depth="2" NCoef="0" IVar="5" Cut="7.2041328430175781e+01" cType="1" res="1.2102418579161167e-02" rms="2.2540120780467987e-01" purity="1.3799585402011871e-01" nType="0">
            <Node pos="l" depth="3" NCoef="0" IVar="-1" Cut="0.0000000000000000e+00" cType="1" res="-1.5557099133729935e-02" rms="1.4976722002029419e-01" purity="3.5887185484170914e-02" nType="-99"/>
            <Node pos="r" depth="3" NCoef="0" IVar="-1" Cut="0.0000000000000000e+00" cType="1" res="4.4231172651052475e-02" rms="3.1225836277008057e-01" purity="3.1056988239288330e-01" nType="-99"/>
          </Node>
        </Node>
        <Node pos="r" depth="1" NCoef="0" IVar="9" Cut="-1.3289563357830048e-01" cType="1" res="1.3981880620121956e-02" rms="2.9446581006050110e-01" purity="7.2091609239578247e-01" nType="0">
          <Node pos="l" depth="2" NCoef="0" IVar="-1" Cut="0.0000000000000000e+00" cType="1" res="2.9431663453578949e-02" rms="3.0502393841743469e-01" purity="7.1637225151062012e-01" nType="-99"/>
          <Node pos="r" depth="2" NCoef="0" IVar="4" Cut="1.6240736389160156e+02" cType="1" res="4.4748499058187008e-03" rms="2.8662371635437012e-01" purity="7.2402787208557129e-01" nType="0">
            <Node pos="l" depth="3" NCoef="0" IVar="-1" Cut="0.0000000000000000e+00" cType="1" res="-1.1334890499711037e-02" rms="3.2214748859405518e-01" purity="5.2237492799758911e-01" nType="-99"/>
            <Node pos="r" depth="3" NCoef="0" IVar="-1" Cut="0.0000000000000000e+00" cType="1" res="2.1136939525604248e-02" rms="2.5954660773277283e-01" purity="8.5901224613189697e-01" nType="-99"/>
          </Node>
        </Node>
      </Node>
    </BinaryTree>
    <BinaryTree type="DecisionTree" boostWeight="1.0000000000000000e+00" itree="576">
      <Node pos="s" depth="0" NCoef="0" IVar="7" Cut="-1.1501034349203110e-01" cType="1" res="3.3725242246873677e-04" rms="2.8209733963012695e-01" purity="5.0201809406280518e-01" nType="0">
        <Node pos="l" depth="1" NCoef="0" IVar="5" Cut="6.5181831359863281e+01" cType="1" res="-2.7645556256175041e-03" rms="2.8136089444160461e-01" purity="4.7989413142204285e-01" nType="0">
          <Node pos="l" depth="2" NCoef="0" IVar="0" Cut="1.5323720703125000e+03" cType="1" res="8.4423786029219627e-03" rms="2.7382057905197144e-01" purity="1.6763216257095337e-01" nType="0">
            <Node pos="l" depth="3" NCoef="0" IVar="-1" Cut="0.0000000000000000e+00" cType="1" res="4.1830269619822502e-03" rms="2.5299847126007080e-01" purity="1.0210384428501129e-01" nType="-99"/>
            <Node pos="r" depth="3" NCoef="0" IVar="-1" Cut="0.0000000000000000e+00" cType="1" res="2.8340741991996765e-02" rms="3.5588711500167847e-01" purity="4.8217964172363281e-01" nType="-99"/>
          </Node>
          <Node pos="r" depth="2" NCoef="0" IVar="0" Cut="2.1704851074218750e+03" cType="1" res="-8.3792665973305702e-03" rms="2.8489792346954346e-01" purity="6.3633847236633301e-01" nType="0">
            <Node pos="l" depth="3" NCoef="0" IVar="-1" Cut="0.0000000000000000e+00" cType="1" res="-1.1962596327066422e-02" rms="3.0064073204994202e-01" purity="5.7363551855087280e-01" nType="-99"/>
            <Node pos="r" depth="3" NCoef="0" IVar="-1" Cut="0.0000000000000000e+00" cType="1" res="1.2173010967671871e-02" rms="1.9302521646022797e-01" purity="9.3344432115554810e-01" nType="-99"/>
          </Node>
        </Node>
        <Node pos="r" depth="1" NCoef="0" IVar="8" Cut="-9.3309020996093750e-01" cType="1" res="2.8983985539525747e-03" rms="2.8267833590507507e-01" purity="5.2028566598892212e-01" nType="0">
          <Node pos="l" depth="2" NCoef="0" IVar="11" Cut="-1.3440439701080322e+00" cType="1" res="-1.0166769847273827e-02" rms="2.5456035137176514e-01" purity="2.4534173309803009e-01" nType="0">
            <Node pos="l" depth="3" NCoef="0" IVar="-1" Cut="0.0000000000000000e+00" cType="1" res="-3.6978502757847309e-03" rms="2.2979442775249481e-01" purity="1.2812630832195282e-01" nType="-99"/>
            <Node pos="r" depth="3" NCoef="0" IVar="-1" Cut="0.0000000000000000e+00" cType="1" res="-2.8043426573276520e-02" rms="2.9834899306297302e-01" purity="4.8589932918548584e-01" nType="-99"/>
          </Node>
          <Node pos="r" depth="2" NCoef="0" IVar="11" Cut="3.7907510995864868e-02" cType="1" res="5.2854847162961960e-03" rms="2.8745457530021667e-01" purity="5.7051956653594971e-01" nType="0">
            <Node pos="l" depth="3" NCoef="0" IVar="-1" Cut="0.0000000000000000e+00" cType="1" res="2.2740245331078768e-03" rms="2.9804733395576477e-01" purity="4.7231367230415344e-01" nType="-99"/>
            <Node pos="r" depth="3" NCoef="0" IVar="-1" Cut="0.0000000000000000e+00" cType="1" res="1.6840059310197830e-02" rms="2.6138246059417725e-01" purity="7.9586577415466309e-01" nType="-99"/>
          </Node>
        </Node>
      </Node>
    </BinaryTree>
    <BinaryTree type="DecisionTree" boostWeight="1.0000000000000000e+00" itree="577">
      <Node pos="s" depth="0" NCoef="0" IVar="10" Cut="-1.3333600759506226e-01" cType="1" res="-3.6983689642511308e-04" rms="2.8617891669273376e-01" purity="4.9756315350532532e-01" nType="0">
        <Node pos="l" depth="1" NCoef="0" IVar="1" Cut="7.8013315796852112e-02" cType="1" res="-5.0476640462875366e-03" rms="2.8418263792991638e-01" purity="4.8063370585441589e-01" nType="0">
          <Node pos="l" depth="2" NCoef="0" IVar="5" Cut="1.0622701263427734e+02" cType="1" res="-7.3926994809880853e-04" rms="2.8534671664237976e-01" purity="3.0541118979454041e-01" nType="0">
            <Node pos="l" depth="3" NCoef="0" IVar="-1" Cut="0.0000000000000000e+00" cType="1" res="2.8586501721292734e-03" rms="2.8386047482490540e-01" purity="2.2118160128593445e-01" nType="-99"/>
            <Node pos="r" depth="3" NCoef="0" IVar="-1" Cut="0.0000000000000000e+00" cType="1" res="-1.9463136792182922e-02" rms="2.9237353801727295e-01" purity="7.3901152610778809e-01" nType="-99"/>
          </Node>
          <Node pos="r" depth="2" NCoef="0" IVar="0" Cut="1.6916571044921875e+03" cType="1" res="-1.2325356714427471e-02" rms="2.8205594420433044e-01" purity="7.7661758661270142e-01" nType="0">
            <Node pos="l" depth="3" NCoef="0" IVar="-1" Cut="0.0000000000000000e+00" cType="1" res="-1.9909627735614777e-02" rms="3.5398021340370178e-01" purity="5.9564989805221558e-01" nType="-99"/>
            <Node pos="r" depth="3" NCoef="0" IVar="-1" Cut="0.0000000000000000e+00" cType="1" res="1.7969356849789619e-03" rms="1.8407735228538513e-01" purity="9.5595729351043701e-01" nType="-99"/>
          </Node>
        </Node>
        <Node pos="r" depth="1" NCoef="0" IVar="5" Cut="1.3690553283691406e+02" cType="1" res="3.6218634340912104e-03" rms="2.8781136870384216e-01" purity="5.1200950145721436e-01" nType="0">
          <Node pos="l" depth="2" NCoef="0" IVar="0" Cut="1.9481791992187500e+03" cType="1" res="5.6569185107946396e-03" rms="2.9846888780593872e-01" purity="4.4831475615501404e-01" nType="0">
            <Node pos="l" depth="3" NCoef="0" IVar="-1" Cut="0.0000000000000000e+00" cType="1" res="8.4294946864247322e-03" rms="3.0240541696548462e-01" purity="3.8742384314537048e-01" nType="-99"/>
            <Node pos="r" depth="3" NCoef="0" IVar="-1" Cut="0.0000000000000000e+00" cType="1" res="-1.1788990348577499e-02" rms="2.7199944853782654e-01" purity="8.3112341165542603e-01" nType="-99"/>
          </Node>
          <Node pos="r" depth="2" NCoef="0" IVar="-1" Cut="0.0000000000000000e+00" cType="1" res="-2.5701958686113358e-02" rms="2.0426000654697418e-01" purity="9.2902922630310059e-01" nType="-99"/>
        </Node>
      </Node>
    </BinaryTree>
    <BinaryTree type="DecisionTree" boostWeight="1.0000000000000000e+00" itree="578">
      <Node pos="s" depth="0" NCoef="0" IVar="6" Cut="1.6594095230102539e+01" cType="1" res="2.8028294909745455e-03" rms="2.8749555349349976e-01" purity="5.0321614742279053e-01" nType="0">
        <Node pos="l" depth="1" NCoef="0" IVar="5" Cut="1.1072705078125000e+02" cType="1" res="5.9384619817137718e-03" rms="2.9628595709800720e-01" purity="2.3233185708522797e-01" nType="0">
          <Node pos="l" depth="2" NCoef="0" IVar="5" Cut="9.0483947753906250e+01" cType="1" res="7.6958062127232552e-03" rms="2.9376223683357239e-01" purity="2.0623824000358582e-01" nType="0">
            <Node pos="l" depth="3" NCoef="0" IVar="-1" Cut="0.0000000000000000e+00" cType="1" res="6.2612709589302540e-03" rms="2.8666639328002930e-01" purity="1.7991800606250763e-01" nType="-99"/>
            <Node pos="r" depth="3" NCoef="0" IVar="-1" Cut="0.0000000000000000e+00" cType="1" res="3.0159205198287964e-02" rms="3.6475351452827454e-01" purity="5.1193034648895264e-01" nType="-99"/>
          </Node>
          <Node pos="r" depth="2" NCoef="0" IVar="-1" Cut="0.0000000000000000e+00" cType="1" res="-1.7498686909675598e-02" rms="3.3129921555519104e-01" purity="6.3082206249237061e-01" nType="-99"/>
        </Node>
        <Node pos="r" depth="1" NCoef="0" IVar="3" Cut="1.9822088623046875e+02" cType="1" res="1.5107345461728983e-05" rms="2.7941882610321045e-01" purity="7.4404484033584595e-01" nType="0">
          <Node pos="l" depth="2" NCoef="0" IVar="0" Cut="1.4091420898437500e+03" cType="1" res="-1.1531725525856018e-02" rms="3.1353387236595154e-01" purity="5.3899085521697998e-01" nType="0">
            <Node pos="l" depth="3" NCoef="0" IVar="-1" Cut="0.0000000000000000e+00" cType="1" res="-2.2721292451024055e-02" rms="3.3206239342689514e-01" purity="3.5523241758346558e-01" nType="-99"/>
            <Node pos="r" depth="3" NCoef="0" IVar="-1" Cut="0.0000000000000000e+00" cType="1" res="1.6739144921302795e-02" rms="2.8140345215797424e-01" purity="8.1650954484939575e-01" nType="-99"/>
          </Node>
          <Node pos="r" depth="2" NCoef="0" IVar="4" Cut="1.4855824279785156e+02" cType="1" res="4.4180466793477535e-03" rms="2.6512494683265686e-01" purity="8.2223433256149292e-01" nType="0">
            <Node pos="l" depth="3" NCoef="0" IVar="-1" Cut="0.0000000000000000e+00" cType="1" res="1.5774998813867569e-02" rms="3.4769782423973083e-01" purity="5.8694887161254883e-01" nType="-99"/>
            <Node pos="r" depth="3" NCoef="0" IVar="-1" Cut="0.0000000000000000e+00" cType="1" res="2.8013705741614103e-03" rms="2.4698293209075928e-01" purity="8.6522096395492554e-01" nType="-99"/>
          </Node>
        </Node>
      </Node>
    </BinaryTree>
    <BinaryTree type="DecisionTree" boostWeight="1.0000000000000000e+00" itree="579">
      <Node pos="s" depth="0" NCoef="0" IVar="11" Cut="-2.7238247394561768e+00" cType="1" res="2.3753001005388796e-04" rms="2.8374463319778442e-01" purity="5.0090956687927246e-01" nType="0">
        <Node pos="l" depth="1" NCoef="0" IVar="2" Cut="5.4900537109375000e+02" cType="1" res="-2.9539822135120630e-03" rms="2.8744792938232422e-01" purity="2.2427336871623993e-01" nType="0">
          <Node pos="l" depth="2" NCoef="0" IVar="1" Cut="6.2621966004371643e-02" cType="1" res="-3.8493002648465335e-04" rms="2.8271433711051941e-01" purity="2.0863714814186096e-01" nType="0">
            <Node pos="l" depth="3" NCoef="0" IVar="-1" Cut="0.0000000000000000e+00" cType="1" res="-7.2023402899503708e-03" rms="2.4292874336242676e-01" purity="1.1455669999122620e-01" nType="-99"/>
            <Node pos="r" depth="3" NCoef="0" IVar="-1" Cut="0.0000000000000000e+00" cType="1" res="7.0264013484120369e-03" rms="3.6374196410179138e-01" purity="4.4491055607795715e-01" nType="-99"/>
          </Node>
          <Node pos="r" depth="2" NCoef="0" IVar="5" Cut="7.0670890808105469e+01" cType="1" res="-2.1238295361399651e-02" rms="3.1851780414581299e-01" purity="3.3555844426155090e-01" nType="0">
            <Node pos="l" depth="3" NCoef="0" IVar="-1" Cut="0.0000000000000000e+00" cType="1" res="-3.2985534518957138e-02" rms="3.0941107869148254e-01" purity="1.8191151320934296e-01" nType="-99"/>
            <Node pos="r" depth="3" NCoef="0" IVar="-1" Cut="0.0000000000000000e+00" cType="1" res="-8.0684563145041466e-03" rms="3.2853877544403076e-01" purity="5.1642686128616333e-01" nType="-99"/>
          </Node>
        </Node>
        <Node pos="r" depth="1" NCoef="0" IVar="11" Cut="-1.1456630229949951e+00" cType="1" res="3.1484037172049284e-03" rms="2.8029265999794006e-01" purity="7.5322031974792480e-01" nType="0">
          <Node pos="l" depth="2" NCoef="0" IVar="9" Cut="-4.0314617753028870e-01" cType="1" res="1.4470173977315426e-02" rms="3.0520734190940857e-01" purity="6.9254910945892334e-01" nType="0">
            <Node pos="l" depth="3" NCoef="0" IVar="-1" Cut="0.0000000000000000e+00" cType="1" res="3.6296997219324112e-02" rms="3.1473538279533386e-01" purity="6.6692632436752319e-01" nType="-99"/>
            <Node pos="r" depth="3" NCoef="0" IVar="-1" Cut="0.0000000000000000e+00" cType="1" res="3.2649745116941631e-04" rms="2.9804340004920959e-01" purity="7.0907056331634521e-01" nType="-99"/>
          </Node>
          <Node pos="r" depth="2" NCoef="0" IVar="9" Cut="1.4662246704101562e+00" cType="1" res="8.2297524204477668e-04" rms="2.7483820915222168e-01" purity="7.6568192243576050e-01" nType="0">
            <Node pos="l" depth="3" NCoef="0" IVar="-1" Cut="0.0000000000000000e+00" cType="1" res="-1.1122740106657147e-03" rms="2.7068838477134705e-01" purity="7.8342413902282715e-01" nType="-99"/>
            <Node pos="r" depth="3" NCoef="0" IVar="-1" Cut="0.0000000000000000e+00" cType="1" res="2.3934038355946541e-02" rms="3.3090367913246155e-01" purity="4.9400380253791809e-01" nType="-99"/>
          </Node>
        </Node>
      </Node>
    </BinaryTree>
    <BinaryTree type="DecisionTree" boostWeight="1.0000000000000000e+00" itree="580">
      <Node pos="s" depth="0" NCoef="0" IVar="8" Cut="9.3348425626754761e-01" cType="1" res="-5.4532941430807114e-04" rms="2.8558811545372009e-01" purity="5.0474470853805542e-01" nType="0">
        <Node pos="l" depth="1" NCoef="0" IVar="4" Cut="9.1763305664062500e+01" cType="1" res="1.0687805479392409e-03" rms="2.8987288475036621e-01" purity="5.5227327346801758e-01" nType="0">
          <Node pos="l" depth="2" NCoef="0" IVar="4" Cut="8.2062477111816406e+01" cType="1" res="-9.8541919142007828e-03" rms="2.1512126922607422e-01" purity="6.3954494893550873e-02" nType="0">
            <Node pos="l" depth="3" NCoef="0" IVar="-1" Cut="0.0000000000000000e+00" cType="1" res="9.0659633278846741e-03" rms="2.0456014573574066e-01" purity="5.5266350507736206e-02" nType="-99"/>
            <Node pos="r" depth="3" NCoef="0" IVar="-1" Cut="0.0000000000000000e+00" cType="1" res="-4.8154234886169434e-02" rms="2.2939762473106384e-01" purity="7.7850580215454102e-02" nType="-99"/>
          </Node>
          <Node pos="r" depth="2" NCoef="0" IVar="10" Cut="1.9997792243957520e+00" cType="1" res="2.5061795022338629e-03" rms="2.9828861355781555e-01" purity="6.1653321981430054e-01" nType="0">
            <Node pos="l" depth="3" NCoef="0" IVar="-1" Cut="0.0000000000000000e+00" cType="1" res="1.7454472836107016e-03" rms="2.9681977629661560e-01" purity="6.2653410434722900e-01" nType="-99"/>
            <Node pos="r" depth="3" NCoef="0" IVar="-1" Cut="0.0000000000000000e+00" cType="1" res="2.5114230811595917e-02" rms="3.3130809664726257e-01" purity="3.7218332290649414e-01" nType="-99"/>
          </Node>
        </Node>
        <Node pos="r" depth="1" NCoef="0" IVar="4" Cut="1.1823319244384766e+02" cType="1" res="-8.5061043500900269e-03" rms="2.6329350471496582e-01" purity="2.7033439278602600e-01" nType="0">
          <Node pos="l" depth="2" NCoef="0" IVar="5" Cut="5.9507820129394531e+01" cType="1" res="1.7558418912813067e-03" rms="2.0358619093894958e-01" purity="6.6822767257690430e-02" nType="0">
            <Node pos="l" depth="3" NCoef="0" IVar="-1" Cut="0.0000000000000000e+00" cType="1" res="-2.9819360002875328e-02" rms="1.2882047891616821e-01" purity="2.2535864263772964e-02" nType="-99"/>
            <Node pos="r" depth="3" NCoef="0" IVar="-1" Cut="0.0000000000000000e+00" cType="1" res="1.7617369070649147e-02" rms="2.5961735844612122e-01" purity="1.1334633827209473e-01" nType="-99"/>
          </Node>
          <Node pos="r" depth="2" NCoef="0" IVar="6" Cut="5.6584327697753906e+01" cType="1" res="-1.4891217462718487e-02" rms="2.9421433806419373e-01" purity="3.9696192741394043e-01" nType="0">
            <Node pos="l" depth="3" NCoef="0" IVar="-1" Cut="0.0000000000000000e+00" cType="1" res="-2.8061922639608383e-02" rms="2.8616541624069214e-01" purity="1.7498892545700073e-01" nType="-99"/>
            <Node pos="r" depth="3" NCoef="0" IVar="-1" Cut="0.0000000000000000e+00" cType="1" res="-7.9431856283918023e-04" rms="3.0392849445343018e-01" purity="6.8957388401031494e-01" nType="-99"/>
          </Node>
        </Node>
      </Node>
    </BinaryTree>
    <BinaryTree type="DecisionTree" boostWeight="1.0000000000000000e+00" itree="581">
      <Node pos="s" depth="0" NCoef="0" IVar="5" Cut="9.0401359558105469e+01" cType="1" res="4.5968992635607719e-03" rms="2.8889489173889160e-01" purity="5.0272566080093384e-01" nType="0">
        <Node pos="l" depth="1" NCoef="0" IVar="10" Cut="1.9997136592864990e+00" cType="1" res="8.5772154852747917e-03" rms="3.0720275640487671e-01" purity="2.9947403073310852e-01" nType="0">
          <Node pos="l" depth="2" NCoef="0" IVar="4" Cut="9.7378334045410156e+01" cType="1" res="9.8957521840929985e-03" rms="3.0927985906600952e-01" purity="3.0935570597648621e-01" nType="0">
            <Node pos="l" depth="3" NCoef="0" IVar="-1" Cut="0.0000000000000000e+00" cType="1" res="-9.9214306101202965e-04" rms="2.1385757625102997e-01" purity="7.5329743325710297e-02" nType="-99"/>
            <Node pos="r" depth="3" NCoef="0" IVar="-1" Cut="0.0000000000000000e+00" cType="1" res="1.2321719899773598e-02" rms="3.3572557568550110e-01" purity="3.8955557346343994e-01" nType="-99"/>
          </Node>
          <Node pos="r" depth="2" NCoef="0" IVar="-1" Cut="0.0000000000000000e+00" cType="1" res="-1.6578229144215584e-02" rms="2.7224761247634888e-01" purity="1.4658585190773010e-01" nType="-99"/>
        </Node>
        <Node pos="r" depth="1" NCoef="0" IVar="6" Cut="7.9946846008300781e+01" cType="1" res="-1.6871736152097583e-03" rms="2.5722754001617432e-01" purity="8.2361686229705811e-01" nType="0">
          <Node pos="l" depth="2" NCoef="0" IVar="8" Cut="-6.6479742527008057e-01" cType="1" res="-6.7114080302417278e-03" rms="3.0721911787986755e-01" purity="6.8653142452239990e-01" nType="0">
            <Node pos="l" depth="3" NCoef="0" IVar="-1" Cut="0.0000000000000000e+00" cType="1" res="-3.2692633569240570e-02" rms="3.3287635445594788e-01" purity="5.0929582118988037e-01" nType="-99"/>
            <Node pos="r" depth="3" NCoef="0" IVar="-1" Cut="0.0000000000000000e+00" cType="1" res="1.3466395903378725e-03" rms="2.9973545670509338e-01" purity="7.3213577270507812e-01" nType="-99"/>
          </Node>
          <Node pos="r" depth="2" NCoef="0" IVar="1" Cut="3.9234969764947891e-02" cType="1" res="1.9310869975015521e-03" rms="2.1404093503952026e-01" purity="9.2234051227569580e-01" nType="0">
            <Node pos="l" depth="3" NCoef="0" IVar="-1" Cut="0.0000000000000000e+00" cType="1" res="2.5189109146595001e-02" rms="3.2898411154747009e-01" purity="7.2671079635620117e-01" nType="-99"/>
            <Node pos="r" depth="3" NCoef="0" IVar="-1" Cut="0.0000000000000000e+00" cType="1" res="-4.3504694476723671e-03" rms="1.9377036392688751e-01" purity="9.4790261983871460e-01" nType="-99"/>
          </Node>
        </Node>
      </Node>
    </BinaryTree>
    <BinaryTree type="DecisionTree" boostWeight="1.0000000000000000e+00" itree="582">
      <Node pos="s" depth="0" NCoef="0" IVar="5" Cut="8.7484733581542969e+01" cType="1" res="2.0861564553342760e-04" rms="2.8245502710342407e-01" purity="5.0098234415054321e-01" nType="0">
        <Node pos="l" depth="1" NCoef="0" IVar="1" Cut="1.0267951339483261e-01" cType="1" res="-4.4350698590278625e-03" rms="2.9581958055496216e-01" purity="2.7133324742317200e-01" nType="0">
          <Node pos="l" depth="2" NCoef="0" IVar="4" Cut="1.9236239624023438e+02" cType="1" res="-1.8018056871369481e-03" rms="2.8198090195655823e-01" purity="2.0434214174747467e-01" nType="0">
            <Node pos="l" depth="3" NCoef="0" IVar="-1" Cut="0.0000000000000000e+00" cType="1" res="-4.8892050981521606e-03" rms="2.7021753787994385e-01" purity="1.5864075720310211e-01" nType="-99"/>
            <Node pos="r" depth="3" NCoef="0" IVar="-1" Cut="0.0000000000000000e+00" cType="1" res="8.2840239629149437e-03" rms="3.4762132167816162e-01" purity="4.9634218215942383e-01" nType="-99"/>
          </Node>
          <Node pos="r" depth="2" NCoef="0" IVar="7" Cut="7.5264275074005127e-02" cType="1" res="-1.7728962004184723e-02" rms="3.5730218887329102e-01" purity="6.0953420400619507e-01" nType="0">
            <Node pos="l" depth="3" NCoef="0" IVar="-1" Cut="0.0000000000000000e+00" cType="1" res="-2.7834720909595490e-02" rms="3.4465479850769043e-01" purity="6.0132914781570435e-01" nType="-99"/>
            <Node pos="r" depth="3" NCoef="0" IVar="-1" Cut="0.0000000000000000e+00" cType="1" res="2.5944428052753210e-03" rms="3.7059712409973145e-01" purity="6.1924326419830322e-01" nType="-99"/>
          </Node>
        </Node>
        <Node pos="r" depth="1" NCoef="0" IVar="8" Cut="6.6679847240447998e-01" cType="1" res="6.5915086306631565e-03" rms="2.6284509897232056e-01" purity="8.1664234399795532e-01" nType="0">
          <Node pos="l" depth="2" NCoef="0" IVar="4" Cut="1.7981562805175781e+02" cType="1" res="9.7501752898097038e-03" rms="2.5543776154518127e-01" purity="8.4348028898239136e-01" nType="0">
            <Node pos="l" depth="3" NCoef="0" IVar="-1" Cut="0.0000000000000000e+00" cType="1" res="2.1333117038011551e-02" rms="3.0046033859252930e-01" purity="7.5360715389251709e-01" nType="-99"/>
            <Node pos="r" depth="3" NCoef="0" IVar="-1" Cut="0.0000000000000000e+00" cType="1" res="6.2445630319416523e-03" rms="2.2333264350891113e-01" purity="8.9828437566757202e-01" nType="-99"/>
          </Node>
          <Node pos="r" depth="2" NCoef="0" IVar="11" Cut="-1.0672062635421753e+00" cType="1" res="-6.2245079316198826e-03" rms="2.9061934351921082e-01" purity="7.0774942636489868e-01" nType="0">
            <Node pos="l" depth="3" NCoef="0" IVar="-1" Cut="0.0000000000000000e+00" cType="1" res="-3.3237449824810028e-02" rms="3.2743570208549500e-01" purity="4.6103087067604065e-01" nType="-99"/>
            <Node pos="r" depth="3" NCoef="0" IVar="-1" Cut="0.0000000000000000e+00" cType="1" res="8.5156075656414032e-03" rms="2.7181783318519592e-01" purity="8.1611251831054688e-01" nType="-99"/>
          </Node>
        </Node>
      </Node>
    </BinaryTree>
    <BinaryTree type="DecisionTree" boostWeight="1.0000000000000000e+00" itree="583">
      <Node pos="s" depth="0" NCoef="0" IVar="10" Cut="1.9997310638427734e+00" cType="1" res="-1.2203634250909090e-03" rms="2.8386464715003967e-01" purity="4.9962285161018372e-01" nType="0">
        <Node pos="l" depth="1" NCoef="0" IVar="9" Cut="-1.1999415159225464e+00" cType="1" res="-2.1382668055593967e-03" rms="2.8427380323410034e-01" purity="5.1184487342834473e-01" nType="0">
          <Node pos="l" depth="2" NCoef="0" IVar="0" Cut="1.5250819091796875e+03" cType="1" res="-1.0038320906460285e-02" rms="2.7214592695236206e-01" purity="2.8990712761878967e-01" nType="0">
            <Node pos="l" depth="3" NCoef="0" IVar="-1" Cut="0.0000000000000000e+00" cType="1" res="-2.4043492972850800e-02" rms="2.4919697642326355e-01" purity="1.3999480009078979e-01" nType="-99"/>
            <Node pos="r" depth="3" NCoef="0" IVar="-1" Cut="0.0000000000000000e+00" cType="1" res="7.2759659960865974e-03" rms="3.1666946411132812e-01" purity="6.2390029430389404e-01" nType="-99"/>
          </Node>
          <Node pos="r" depth="2" NCoef="0" IVar="0" Cut="1.3897952880859375e+03" cType="1" res="-9.0245157480239868e-04" rms="2.8610476851463318e-01" purity="5.4656291007995605e-01" nType="0">
            <Node pos="l" depth="3" NCoef="0" IVar="-1" Cut="0.0000000000000000e+00" cType="1" res="3.2880487851798534e-03" rms="2.9866740107536316e-01" purity="2.0646241307258606e-01" nType="-99"/>
            <Node pos="r" depth="3" NCoef="0" IVar="-1" Cut="0.0000000000000000e+00" cType="1" res="-4.3937852606177330e-03" rms="2.7753433585166931e-01" purity="7.6947069168090820e-01" nType="-99"/>
          </Node>
        </Node>
        <Node pos="r" depth="1" NCoef="0" IVar="-1" Cut="0.0000000000000000e+00" cType="1" res="1.8843419849872589e-02" rms="2.7556335926055908e-01" purity="2.7168747782707214e-01" nType="-99"/>
      </Node>
    </BinaryTree>
    <BinaryTree type="DecisionTree" boostWeight="1.0000000000000000e+00" itree="584">
      <Node pos="s" depth="0" NCoef="0" IVar="5" Cut="9.1341239929199219e+01" cType="1" res="1.3749457139056176e-04" rms="2.8421786427497864e-01" purity="5.0403970479965210e-01" nType="0">
        <Node pos="l" depth="1" NCoef="0" IVar="0" Cut="1.6623392333984375e+03" cType="1" res="3.9162952452898026e-03" rms="3.0235409736633301e-01" purity="2.9864940047264099e-01" nType="0">
          <Node pos="l" depth="2" NCoef="0" IVar="5" Cut="5.7874946594238281e+01" cType="1" res="7.0015410892665386e-03" rms="2.9461643099784851e-01" purity="2.2953207790851593e-01" nType="0">
            <Node pos="l" depth="3" NCoef="0" IVar="-1" Cut="0.0000000000000000e+00" cType="1" res="-6.5327077172696590e-03" rms="2.3225000500679016e-01" purity="8.9979588985443115e-02" nType="-99"/>
            <Node pos="r" depth="3" NCoef="0" IVar="-1" Cut="0.0000000000000000e+00" cType="1" res="1.1994381435215473e-02" rms="3.2090589404106140e-01" purity="2.9861691594123840e-01" nType="-99"/>
          </Node>
          <Node pos="r" depth="2" NCoef="0" IVar="5" Cut="8.1497703552246094e+01" cType="1" res="-1.1136732064187527e-02" rms="3.3716762065887451e-01" purity="6.3587534427642822e-01" nType="0">
            <Node pos="l" depth="3" NCoef="0" IVar="-1" Cut="0.0000000000000000e+00" cType="1" res="-1.6982341185212135e-02" rms="3.4917172789573669e-01" purity="5.7911509275436401e-01" nType="-99"/>
            <Node pos="r" depth="3" NCoef="0" IVar="-1" Cut="0.0000000000000000e+00" cType="1" res="1.4691973105072975e-02" rms="3.0049711465835571e-01" purity="7.9141777753829956e-01" nType="-99"/>
          </Node>
        </Node>
        <Node pos="r" depth="1" NCoef="0" IVar="0" Cut="1.4574963378906250e+03" cType="1" res="-5.8424929156899452e-03" rms="2.5275751948356628e-01" purity="8.2907176017761230e-01" nType="0">
          <Node pos="l" depth="2" NCoef="0" IVar="-1" Cut="0.0000000000000000e+00" cType="1" res="-2.3684980347752571e-02" rms="3.4983298182487488e-01" purity="5.0754982233047485e-01" nType="-99"/>
          <Node pos="r" depth="2" NCoef="0" IVar="5" Cut="1.1004525756835938e+02" cType="1" res="-1.0764067992568016e-03" rms="2.2981552779674530e-01" purity="8.8913023471832275e-01" nType="0">
            <Node pos="l" depth="3" NCoef="0" IVar="-1" Cut="0.0000000000000000e+00" cType="1" res="-1.5157749876379967e-02" rms="2.8268367052078247e-01" purity="7.9842078685760498e-01" nType="-99"/>
            <Node pos="r" depth="3" NCoef="0" IVar="-1" Cut="0.0000000000000000e+00" cType="1" res="6.5367096103727818e-03" rms="2.0766001939773560e-01" purity="9.2137068510055542e-01" nType="-99"/>
          </Node>
        </Node>
      </Node>
    </BinaryTree>
    <BinaryTree type="DecisionTree" boostWeight="1.0000000000000000e+00" itree="585">
      <Node pos="s" depth="0" NCoef="0" IVar="10" Cut="-9.3332487344741821e-01" cType="1" res="-3.6707505933009088e-04" rms="2.8704300522804260e-01" purity="5.0267297029495239e-01" nType="0">
        <Node pos="l" depth="1" NCoef="0" IVar="10" Cut="-2.1777586936950684e+00" cType="1" res="-8.5757412016391754e-03" rms="2.8485673666000366e-01" purity="4.0821194648742676e-01" nType="0">
          <Node pos="l" depth="2" NCoef="0" IVar="-1" Cut="0.0000000000000000e+00" cType="1" res="1.5200733207166195e-02" rms="2.8228598833084106e-01" purity="2.2541739046573639e-01" nType="-99"/>
          <Node pos="r" depth="2" NCoef="0" IVar="7" Cut="-8.8153815269470215e-01" cType="1" res="-1.2009139172732830e-02" rms="2.8516894578933716e-01" purity="4.4039496779441833e-01" nType="0">
            <Node pos="l" depth="3" NCoef="0" IVar="-1" Cut="0.0000000000000000e+00" cType="1" res="2.3515708744525909e-03" rms="2.6545122265815735e-01" purity="2.2268521785736084e-01" nType="-99"/>
            <Node pos="r" depth="3" NCoef="0" IVar="-1" Cut="0.0000000000000000e+00" cType="1" res="-1.7270913347601891e-02" rms="2.9015696048736572e-01" purity="4.9919399619102478e-01" nType="-99"/>
          </Node>
        </Node>
        <Node pos="r" depth="1" NCoef="0" IVar="2" Cut="6.8690637207031250e+02" cType="1" res="2.0455480553209782e-03" rms="2.8763785958290100e-01" purity="5.3043615818023682e-01" nType="0">
          <Node pos="l" depth="2" NCoef="0" IVar="6" Cut="6.3181526184082031e+01" cType="1" res="1.0345146292820573e-03" rms="2.8597775101661682e-01" purity="5.2562683820724487e-01" nType="0">
            <Node pos="l" depth="3" NCoef="0" IVar="-1" Cut="0.0000000000000000e+00" cType="1" res="4.5227319933474064e-03" rms="3.0843326449394226e-01" purity="3.1149920821189880e-01" nType="-99"/>
            <Node pos="r" depth="3" NCoef="0" IVar="-1" Cut="0.0000000000000000e+00" cType="1" res="-6.4642322249710560e-03" rms="2.4679443240165710e-01" purity="8.5984379053115845e-01" nType="-99"/>
          </Node>
          <Node pos="r" depth="2" NCoef="0" IVar="-1" Cut="0.0000000000000000e+00" cType="1" res="2.0891137421131134e-02" rms="3.1859934329986572e-01" purity="6.2743568420410156e-01" nType="-99"/>
        </Node>
      </Node>
    </BinaryTree>
    <BinaryTree type="DecisionTree" boostWeight="1.0000000000000000e+00" itree="586">
      <Node pos="s" depth="0" NCoef="0" IVar="7" Cut="6.7312788963317871e-01" cType="1" res="1.9076551543548703e-03" rms="2.8541561961174011e-01" purity="5.0116944313049316e-01" nType="0">
        <Node pos="l" depth="1" NCoef="0" IVar="1" Cut="6.3634991645812988e-02" cType="1" res="4.7360803000628948e-03" rms="2.9088985919952393e-01" purity="5.5318552255630493e-01" nType="0">
          <Node pos="l" depth="2" NCoef="0" IVar="7" Cut="1.4873241074383259e-02" cType="1" res="9.1635463759303093e-03" rms="2.9673838615417480e-01" purity="3.2896620035171509e-01" nType="0">
            <Node pos="l" depth="3" NCoef="0" IVar="-1" Cut="0.0000000000000000e+00" cType="1" res="4.9171578139066696e-03" rms="2.8655058145523071e-01" purity="2.8376039862632751e-01" nType="-99"/>
            <Node pos="r" depth="3" NCoef="0" IVar="-1" Cut="0.0000000000000000e+00" cType="1" res="2.0955998450517654e-02" rms="3.2012298703193665e-01" purity="4.4043824076652527e-01" nType="-99"/>
          </Node>
          <Node pos="r" depth="2" NCoef="0" IVar="7" Cut="-7.9993838071823120e-01" cType="1" res="3.5190203925594687e-04" rms="2.8491246700286865e-01" purity="7.7521264553070068e-01" nType="0">
            <Node pos="l" depth="3" NCoef="0" IVar="-1" Cut="0.0000000000000000e+00" cType="1" res="1.9884115085005760e-02" rms="3.0165636539459229e-01" purity="7.1363306045532227e-01" nType="-99"/>
            <Node pos="r" depth="3" NCoef="0" IVar="-1" Cut="0.0000000000000000e+00" cType="1" res="-2.3030028678476810e-03" rms="2.8279420733451843e-01" purity="7.8246200084686279e-01" nType="-99"/>
          </Node>
        </Node>
        <Node pos="r" depth="1" NCoef="0" IVar="10" Cut="3.9997702836990356e-01" cType="1" res="-8.3310427144169807e-03" rms="2.6440122723579407e-01" purity="3.1287473440170288e-01" nType="0">
          <Node pos="l" depth="2" NCoef="0" IVar="6" Cut="6.3804893493652344e+01" cType="1" res="-5.9276155661791563e-04" rms="2.6220262050628662e-01" purity="3.4232118725776672e-01" nType="0">
            <Node pos="l" depth="3" NCoef="0" IVar="-1" Cut="0.0000000000000000e+00" cType="1" res="-9.9366009235382080e-03" rms="2.4932323396205902e-01" purity="1.5387944877147675e-01" nType="-99"/>
            <Node pos="r" depth="3" NCoef="0" IVar="-1" Cut="0.0000000000000000e+00" cType="1" res="1.5221922658383846e-02" rms="2.8845551609992981e-01" purity="7.6395225524902344e-01" nType="-99"/>
          </Node>
          <Node pos="r" depth="2" NCoef="0" IVar="7" Cut="1.0782676935195923e+00" cType="1" res="-1.8106581643223763e-02" rms="2.6683217287063599e-01" purity="2.7567592263221741e-01" nType="0">
            <Node pos="l" depth="3" NCoef="0" IVar="-1" Cut="0.0000000000000000e+00" cType="1" res="-3.5161785781383514e-02" rms="3.0724114179611206e-01" purity="4.2480969429016113e-01" nType="-99"/>
            <Node pos="r" depth="3" NCoef="0" IVar="-1" Cut="0.0000000000000000e+00" cType="1" res="-1.0660321451723576e-02" rms="2.3152954876422882e-01" purity="1.6460594534873962e-01" nType="-99"/>
          </Node>
        </Node>
      </Node>
    </BinaryTree>
    <BinaryTree type="DecisionTree" boostWeight="1.0000000000000000e+00" itree="587">
      <Node pos="s" depth="0" NCoef="0" IVar="9" Cut="9.3331116437911987e-01" cType="1" res="-1.8510017544031143e-03" rms="2.8334003686904907e-01" purity="4.9717330932617188e-01" nType="0">
        <Node pos="l" depth="1" NCoef="0" IVar="1" Cut="6.5720155835151672e-02" cType="1" res="-4.4190860353410244e-03" rms="2.8263074159622192e-01" purity="5.3513228893280029e-01" nType="0">
          <Node pos="l" depth="2" NCoef="0" IVar="4" Cut="1.8585063171386719e+02" cType="1" res="-8.6015695706009865e-03" rms="2.8214162588119507e-01" purity="3.0243402719497681e-01" nType="0">
            <Node pos="l" depth="3" NCoef="0" IVar="-1" Cut="0.0000000000000000e+00" cType="1" res="-5.1692789420485497e-03" rms="2.7265971899032593e-01" purity="2.0373813807964325e-01" nType="-99"/>
            <Node pos="r" depth="3" NCoef="0" IVar="-1" Cut="0.0000000000000000e+00" cType="1" res="-2.2445911541581154e-02" rms="3.0945488810539246e-01" purity="6.1063629388809204e-01" nType="-99"/>
          </Node>
          <Node pos="r" depth="2" NCoef="0" IVar="10" Cut="-6.6672712564468384e-01" cType="1" res="2.1570317039731890e-04" rms="2.8309959173202515e-01" purity="7.9299509525299072e-01" nType="0">
            <Node pos="l" depth="3" NCoef="0" IVar="-1" Cut="0.0000000000000000e+00" cType="1" res="2.0258944481611252e-02" rms="2.9458850622177124e-01" purity="7.6505124568939209e-01" nType="-99"/>
            <Node pos="r" depth="3" NCoef="0" IVar="-1" Cut="0.0000000000000000e+00" cType="1" res="-9.6453381702303886e-03" rms="2.7778339385986328e-01" purity="8.0473554134368896e-01" nType="-99"/>
          </Node>
        </Node>
        <Node pos="r" depth="1" NCoef="0" IVar="7" Cut="1.2430914640426636e+00" cType="1" res="8.6312098428606987e-03" rms="2.8597784042358398e-01" purity="3.4223535656929016e-01" nType="0">
          <Node pos="l" depth="2" NCoef="0" IVar="10" Cut="9.3130677938461304e-01" cType="1" res="1.1193082667887211e-02" rms="2.9924693703651428e-01" purity="3.8259053230285645e-01" nType="0">
            <Node pos="l" depth="3" NCoef="0" IVar="-1" Cut="0.0000000000000000e+00" cType="1" res="7.7979378402233124e-03" rms="2.9679951071739197e-01" purity="3.9709931612014771e-01" nType="-99"/>
            <Node pos="r" depth="3" NCoef="0" IVar="-1" Cut="0.0000000000000000e+00" cType="1" res="2.4308789521455765e-02" rms="3.0529010295867920e-01" purity="3.4438097476959229e-01" nType="-99"/>
          </Node>
          <Node pos="r" depth="2" NCoef="0" IVar="-1" Cut="0.0000000000000000e+00" cType="1" res="-2.0323593169450760e-02" rms="1.7739574611186981e-01" purity="8.2397453486919403e-02" nType="-99"/>
        </Node>
      </Node>
    </BinaryTree>
    <BinaryTree type="DecisionTree" boostWeight="1.0000000000000000e+00" itree="588">
      <Node pos="s" depth="0" NCoef="0" IVar="8" Cut="1.3355220854282379e-01" cType="1" res="-2.4526691413484514e-04" rms="2.8419715166091919e-01" purity="4.9875554442405701e-01" nType="0">
        <Node pos="l" depth="1" NCoef="0" IVar="5" Cut="8.4275093078613281e+01" cType="1" res="-4.7235935926437378e-03" rms="2.8095263242721558e-01" purity="5.0930094718933105e-01" nType="0">
          <Node pos="l" depth="2" NCoef="0" IVar="9" Cut="-9.3284863233566284e-01" cType="1" res="-1.0707870125770569e-02" rms="2.9448160529136658e-01" purity="2.5342780351638794e-01" nType="0">
            <Node pos="l" depth="3" NCoef="0" IVar="-1" Cut="0.0000000000000000e+00" cType="1" res="5.4434770718216896e-03" rms="2.8241524100303650e-01" purity="1.8334275484085083e-01" nType="-99"/>
            <Node pos="r" depth="3" NCoef="0" IVar="-1" Cut="0.0000000000000000e+00" cType="1" res="-1.6987632960081100e-02" rms="2.9851263761520386e-01" purity="2.7861523628234863e-01" nType="-99"/>
          </Node>
          <Node pos="r" depth="2" NCoef="0" IVar="10" Cut="6.6779345273971558e-01" cType="1" res="2.3120632395148277e-03" rms="2.6398864388465881e-01" purity="8.1012856960296631e-01" nType="0">
            <Node pos="l" depth="3" NCoef="0" IVar="-1" Cut="0.0000000000000000e+00" cType="1" res="9.3674883246421814e-03" rms="2.5802323222160339e-01" purity="8.2403385639190674e-01" nType="-99"/>
            <Node pos="r" depth="3" NCoef="0" IVar="-1" Cut="0.0000000000000000e+00" cType="1" res="-1.5085198916494846e-02" rms="2.8224495053291321e-01" purity="7.6442915201187134e-01" nType="-99"/>
          </Node>
        </Node>
        <Node pos="r" depth="1" NCoef="0" IVar="9" Cut="-9.3326896429061890e-01" cType="1" res="5.3970860317349434e-03" rms="2.8813391923904419e-01" purity="4.8546913266181946e-01" nType="0">
          <Node pos="l" depth="2" NCoef="0" IVar="10" Cut="3.9902278780937195e-01" cType="1" res="-1.4212997630238533e-02" rms="2.6604920625686646e-01" purity="3.0132335424423218e-01" nType="0">
            <Node pos="l" depth="3" NCoef="0" IVar="-1" Cut="0.0000000000000000e+00" cType="1" res="-3.0222097411751747e-02" rms="2.6124569773674011e-01" purity="3.0497539043426514e-01" nType="-99"/>
            <Node pos="r" depth="3" NCoef="0" IVar="-1" Cut="0.0000000000000000e+00" cType="1" res="2.6193456724286079e-03" rms="2.7356171607971191e-01" purity="2.9487541317939758e-01" nType="-99"/>
          </Node>
          <Node pos="r" depth="2" NCoef="0" IVar="0" Cut="1.3008218994140625e+03" cType="1" res="9.5148831605911255e-03" rms="2.9239261150360107e-01" purity="5.2413666248321533e-01" nType="0">
            <Node pos="l" depth="3" NCoef="0" IVar="-1" Cut="0.0000000000000000e+00" cType="1" res="2.4136673659086227e-02" rms="2.8751263022422791e-01" purity="1.7380793392658234e-01" nType="-99"/>
            <Node pos="r" depth="3" NCoef="0" IVar="-1" Cut="0.0000000000000000e+00" cType="1" res="4.9594622105360031e-03" rms="2.9483556747436523e-01" purity="7.1097373962402344e-01" nType="-99"/>
          </Node>
        </Node>
      </Node>
    </BinaryTree>
    <BinaryTree type="DecisionTree" boostWeight="1.0000000000000000e+00" itree="589">
      <Node pos="s" depth="0" NCoef="0" IVar="9" Cut="-1.1999088525772095e+00" cType="1" res="8.7248143972828984e-04" rms="2.8513112664222717e-01" purity="5.0490397214889526e-01" nType="0">
        <Node pos="l" depth="1" NCoef="0" IVar="3" Cut="2.5139031982421875e+02" cType="1" res="1.0801361873745918e-02" rms="2.7918151021003723e-01" purity="3.0438843369483948e-01" nType="0">
          <Node pos="l" depth="2" NCoef="0" IVar="1" Cut="4.0985308587551117e-02" cType="1" res="1.8029980361461639e-02" rms="2.6992475986480713e-01" purity="2.4669538438320160e-01" nType="0">
            <Node pos="l" depth="3" NCoef="0" IVar="-1" Cut="0.0000000000000000e+00" cType="1" res="1.4375245198607445e-02" rms="2.1591641008853912e-01" purity="9.1435737907886505e-02" nType="-99"/>
            <Node pos="r" depth="3" NCoef="0" IVar="-1" Cut="0.0000000000000000e+00" cType="1" res="2.9257176443934441e-02" rms="3.3301556110382080e-01" purity="4.7453954815864563e-01" nType="-99"/>
          </Node>
          <Node pos="r" depth="2" NCoef="0" IVar="-1" Cut="0.0000000000000000e+00" cType="1" res="-1.0024352930486202e-02" rms="3.0358383059501648e-01" purity="4.7256848216056824e-01" nType="-99"/>
        </Node>
        <Node pos="r" depth="1" NCoef="0" IVar="2" Cut="7.4323242187500000e+02" cType="1" res="-6.9987023016437888e-04" rms="2.8603038191795349e-01" purity="5.3665786981582642e-01" nType="0">
          <Node pos="l" depth="2" NCoef="0" IVar="2" Cut="6.1389331054687500e+02" cType="1" res="7.2724549681879580e-05" rms="2.8425860404968262e-01" purity="5.3547108173370361e-01" nType="0">
            <Node pos="l" depth="3" NCoef="0" IVar="-1" Cut="0.0000000000000000e+00" cType="1" res="-1.4761429047212005e-03" rms="2.8302094340324402e-01" purity="5.2925688028335571e-01" nType="-99"/>
            <Node pos="r" depth="3" NCoef="0" IVar="-1" Cut="0.0000000000000000e+00" cType="1" res="2.4573184549808502e-02" rms="3.0402630567550659e-01" purity="6.4297544956207275e-01" nType="-99"/>
          </Node>
          <Node pos="r" depth="2" NCoef="0" IVar="-1" Cut="0.0000000000000000e+00" cType="1" res="-2.3812787607312202e-02" rms="3.3783352375030518e-01" purity="5.7538568973541260e-01" nType="-99"/>
        </Node>
      </Node>
    </BinaryTree>
    <BinaryTree type="DecisionTree" boostWeight="1.0000000000000000e+00" itree="590">
      <Node pos="s" depth="0" NCoef="0" IVar="6" Cut="1.3324474334716797e+01" cType="1" res="3.4124901867471635e-04" rms="2.8839766979217529e-01" purity="4.9937111139297485e-01" nType="0">
        <Node pos="l" depth="1" NCoef="0" IVar="2" Cut="3.3582705688476562e+02" cType="1" res="4.5433980412781239e-03" rms="2.9659157991409302e-01" purity="2.2763365507125854e-01" nType="0">
          <Node pos="l" depth="2" NCoef="0" IVar="0" Cut="1.2745478515625000e+03" cType="1" res="-2.8845998458564281e-03" rms="2.8096836805343628e-01" purity="1.5671062469482422e-01" nType="0">
            <Node pos="l" depth="3" NCoef="0" IVar="-1" Cut="0.0000000000000000e+00" cType="1" res="3.8254340179264545e-03" rms="2.6170349121093750e-01" purity="9.7227148711681366e-02" nType="-99"/>
            <Node pos="r" depth="3" NCoef="0" IVar="-1" Cut="0.0000000000000000e+00" cType="1" res="-2.0493222400546074e-02" rms="3.6182910203933716e-01" purity="4.5735368132591248e-01" nType="-99"/>
          </Node>
          <Node pos="r" depth="2" NCoef="0" IVar="0" Cut="2.0365767822265625e+03" cType="1" res="1.1593802832067013e-02" rms="3.1053039431571960e-01" purity="2.9495140910148621e-01" nType="0">
            <Node pos="l" depth="3" NCoef="0" IVar="-1" Cut="0.0000000000000000e+00" cType="1" res="1.5776563435792923e-02" rms="3.0495256185531616e-01" purity="2.4609857797622681e-01" nType="-99"/>
            <Node pos="r" depth="3" NCoef="0" IVar="-1" Cut="0.0000000000000000e+00" cType="1" res="-8.4944199770689011e-03" rms="3.4929561614990234e-01" purity="6.6654509305953979e-01" nType="-99"/>
          </Node>
        </Node>
        <Node pos="r" depth="1" NCoef="0" IVar="11" Cut="9.3330520391464233e-01" cType="1" res="-3.4369539935141802e-03" rms="2.8077271580696106e-01" purity="7.4369353055953979e-01" nType="0">
          <Node pos="l" depth="2" NCoef="0" IVar="6" Cut="6.0527080535888672e+01" cType="1" res="-6.8843136541545391e-03" rms="2.7559190988540649e-01" purity="7.5652718544006348e-01" nType="0">
            <Node pos="l" depth="3" NCoef="0" IVar="-1" Cut="0.0000000000000000e+00" cType="1" res="-1.7886346206068993e-02" rms="3.3242604136466980e-01" purity="4.9166834354400635e-01" nType="-99"/>
            <Node pos="r" depth="3" NCoef="0" IVar="-1" Cut="0.0000000000000000e+00" cType="1" res="-3.9921659044921398e-03" rms="2.5478723645210266e-01" purity="8.4053736925125122e-01" nType="-99"/>
          </Node>
          <Node pos="r" depth="2" NCoef="0" IVar="9" Cut="6.6703462600708008e-01" cType="1" res="8.7429573759436607e-03" rms="2.9803842306137085e-01" purity="6.9835102558135986e-01" nType="0">
            <Node pos="l" depth="3" NCoef="0" IVar="-1" Cut="0.0000000000000000e+00" cType="1" res="1.3075579772703350e-04" rms="2.9424330592155457e-01" purity="7.2548586130142212e-01" nType="-99"/>
            <Node pos="r" depth="3" NCoef="0" IVar="-1" Cut="0.0000000000000000e+00" cType="1" res="2.9176158830523491e-02" rms="3.0628335475921631e-01" purity="6.3030493259429932e-01" nType="-99"/>
          </Node>
        </Node>
      </Node>
    </BinaryTree>
    <BinaryTree type="DecisionTree" boostWeight="1.0000000000000000e+00" itree="591">
      <Node pos="s" depth="0" NCoef="0" IVar="7" Cut="-1.1876974105834961e+00" cType="1" res="2.4461725843138993e-04" rms="2.8430858254432678e-01" purity="4.9665859341621399e-01" nType="0">
        <Node pos="l" depth="1" NCoef="0" IVar="7" Cut="-1.4915549755096436e+00" cType="1" res="-1.3312865048646927e-02" rms="2.0633748173713684e-01" purity="1.2817914783954620e-01" nType="0">
          <Node pos="l" depth="2" NCoef="0" IVar="10" Cut="-3.9783623814582825e-01" cType="1" res="-1.0709015186876059e-03" rms="1.8866978585720062e-01" purity="8.9788518846035004e-02" nType="0">
            <Node pos="l" depth="3" NCoef="0" IVar="-1" Cut="0.0000000000000000e+00" cType="1" res="1.8491150811314583e-02" rms="1.9933639466762543e-01" purity="8.2636587321758270e-02" nType="-99"/>
            <Node pos="r" depth="3" NCoef="0" IVar="-1" Cut="0.0000000000000000e+00" cType="1" res="-1.9573749974370003e-02" rms="1.7806968092918396e-01" purity="9.6333421766757965e-02" nType="-99"/>
          </Node>
          <Node pos="r" depth="2" NCoef="0" IVar="-1" Cut="0.0000000000000000e+00" cType="1" res="-4.5813854783773422e-02" rms="2.2823548316955566e-01" purity="1.8342126905918121e-01" nType="-99"/>
        </Node>
        <Node pos="r" depth="1" NCoef="0" IVar="7" Cut="-4.2817360162734985e-01" cType="1" res="1.7419345676898956e-03" rms="2.9160577058792114e-01" purity="5.3735423088073730e-01" nType="0">
          <Node pos="l" depth="2" NCoef="0" IVar="7" Cut="-1.0430235862731934e+00" cType="1" res="1.0153394192457199e-02" rms="3.0518934130668640e-01" purity="5.3311538696289062e-01" nType="0">
            <Node pos="l" depth="3" NCoef="0" IVar="-1" Cut="0.0000000000000000e+00" cType="1" res="-1.6605693846940994e-02" rms="2.8171092271804810e-01" purity="3.7524271011352539e-01" nType="-99"/>
            <Node pos="r" depth="3" NCoef="0" IVar="-1" Cut="0.0000000000000000e+00" cType="1" res="1.4784635044634342e-02" rms="3.0831030011177063e-01" purity="5.5625486373901367e-01" nType="-99"/>
          </Node>
          <Node pos="r" depth="2" NCoef="0" IVar="9" Cut="-1.4668384790420532e+00" cType="1" res="-8.5403601406142116e-04" rms="2.8723418712615967e-01" purity="5.3866243362426758e-01" nType="0">
            <Node pos="l" depth="3" NCoef="0" IVar="-1" Cut="0.0000000000000000e+00" cType="1" res="-3.2537080347537994e-02" rms="2.5297406315803528e-01" purity="2.0010492205619812e-01" nType="-99"/>
            <Node pos="r" depth="3" NCoef="0" IVar="-1" Cut="0.0000000000000000e+00" cType="1" res="1.3822638429701328e-03" rms="2.8993785381317139e-01" purity="5.6815963983535767e-01" nType="-99"/>
          </Node>
        </Node>
      </Node>
    </BinaryTree>
    <BinaryTree type="DecisionTree" boostWeight="1.0000000000000000e+00" itree="592">
      <Node pos="s" depth="0" NCoef="0" IVar="7" Cut="1.4748781919479370e+00" cType="1" res="-1.5430958010256290e-03" rms="2.8597715497016907e-01" purity="4.9894782900810242e-01" nType="0">
        <Node pos="l" depth="1" NCoef="0" IVar="9" Cut="-6.6665583848953247e-01" cType="1" res="-2.5713264476507902e-03" rms="2.9091787338256836e-01" purity="5.2533203363418579e-01" nType="0">
          <Node pos="l" depth="2" NCoef="0" IVar="3" Cut="1.3888475036621094e+02" cType="1" res="3.4927274100482464e-03" rms="2.9167085886001587e-01" purity="4.4371101260185242e-01" nType="0">
            <Node pos="l" depth="3" NCoef="0" IVar="-1" Cut="0.0000000000000000e+00" cType="1" res="-2.6047658175230026e-02" rms="2.1158708631992340e-01" purity="8.2570567727088928e-02" nType="-99"/>
            <Node pos="r" depth="3" NCoef="0" IVar="-1" Cut="0.0000000000000000e+00" cType="1" res="6.9478265941143036e-03" rms="3.0494368076324463e-01" purity="5.1525819301605225e-01" nType="-99"/>
          </Node>
          <Node pos="r" depth="2" NCoef="0" IVar="8" Cut="1.7333285808563232e+00" cType="1" res="-4.8720398917794228e-03" rms="2.9059854149818420e-01" purity="5.5629926919937134e-01" nType="0">
            <Node pos="l" depth="3" NCoef="0" IVar="-1" Cut="0.0000000000000000e+00" cType="1" res="-6.9049778394401073e-03" rms="2.9318678379058838e-01" purity="5.7645016908645630e-01" nType="-99"/>
            <Node pos="r" depth="3" NCoef="0" IVar="-1" Cut="0.0000000000000000e+00" cType="1" res="3.5863671451807022e-02" rms="2.2983436286449432e-01" purity="1.4257207512855530e-01" nType="-99"/>
          </Node>
        </Node>
        <Node pos="r" depth="1" NCoef="0" IVar="1" Cut="1.3962120749056339e-02" cType="1" res="1.3558136299252510e-02" rms="1.9919452071189880e-01" purity="1.1145262420177460e-01" nType="0">
          <Node pos="l" depth="2" NCoef="0" IVar="-1" Cut="0.0000000000000000e+00" cType="1" res="2.1919542923569679e-02" rms="1.3594841957092285e-01" purity="2.1282264962792397e-02" nType="-99"/>
          <Node pos="r" depth="2" NCoef="0" IVar="-1" Cut="0.0000000000000000e+00" cType="1" res="3.9594732224941254e-02" rms="2.6341253519058228e-01" purity="2.3943145573139191e-01" nType="-99"/>
        </Node>
      </Node>
    </BinaryTree>
    <BinaryTree type="DecisionTree" boostWeight="1.0000000000000000e+00" itree="593">
      <Node pos="s" depth="0" NCoef="0" IVar="11" Cut="3.1395164132118225e-01" cType="1" res="2.0187336485832930e-03" rms="2.8608390688896179e-01" purity="5.0263959169387817e-01" nType="0">
        <Node pos="l" depth="1" NCoef="0" IVar="8" Cut="6.6669559478759766e-01" cType="1" res="3.8880868814885616e-03" rms="2.8704419732093811e-01" purity="4.4173541665077209e-01" nType="0">
          <Node pos="l" depth="2" NCoef="0" IVar="3" Cut="2.2351419067382812e+02" cType="1" res="8.8975601829588413e-04" rms="2.8615751862525940e-01" purity="4.8640722036361694e-01" nType="0">
            <Node pos="l" depth="3" NCoef="0" IVar="-1" Cut="0.0000000000000000e+00" cType="1" res="-6.6313417628407478e-03" rms="2.8029385209083557e-01" purity="3.0219852924346924e-01" nType="-99"/>
            <Node pos="r" depth="3" NCoef="0" IVar="-1" Cut="0.0000000000000000e+00" cType="1" res="8.4059769287705421e-03" rms="2.9196003079414368e-01" purity="6.7719787359237671e-01" nType="-99"/>
          </Node>
          <Node pos="r" depth="2" NCoef="0" IVar="9" Cut="1.3431455194950104e-01" cType="1" res="1.3096985407173634e-02" rms="2.8955647349357605e-01" purity="3.0453303456306458e-01" nType="0">
            <Node pos="l" depth="3" NCoef="0" IVar="-1" Cut="0.0000000000000000e+00" cType="1" res="2.8673170600086451e-03" rms="2.7491840720176697e-01" purity="3.1754276156425476e-01" nType="-99"/>
            <Node pos="r" depth="3" NCoef="0" IVar="-1" Cut="0.0000000000000000e+00" cType="1" res="3.0774341896176338e-02" rms="3.0341783165931702e-01" purity="2.9120168089866638e-01" nType="-99"/>
          </Node>
        </Node>
        <Node pos="r" depth="1" NCoef="0" IVar="8" Cut="-6.6431897878646851e-01" cType="1" res="-5.1642977632582188e-03" rms="2.8224834799766541e-01" purity="7.3666512966156006e-01" nType="0">
          <Node pos="l" depth="2" NCoef="0" IVar="-1" Cut="0.0000000000000000e+00" cType="1" res="1.7977938055992126e-02" rms="3.1797844171524048e-01" purity="6.3177996873855591e-01" nType="-99"/>
          <Node pos="r" depth="2" NCoef="0" IVar="0" Cut="2.0008486328125000e+03" cType="1" res="-1.0276246815919876e-02" rms="2.7333840727806091e-01" purity="7.6017701625823975e-01" nType="0">
            <Node pos="l" depth="3" NCoef="0" IVar="-1" Cut="0.0000000000000000e+00" cType="1" res="-1.7945768311619759e-02" rms="3.0372640490531921e-01" purity="6.7691522836685181e-01" nType="-99"/>
            <Node pos="r" depth="3" NCoef="0" IVar="-1" Cut="0.0000000000000000e+00" cType="1" res="1.6663093119859695e-02" rms="1.8604350090026855e-01" purity="9.4863671064376831e-01" nType="-99"/>
          </Node>
        </Node>
      </Node>
    </BinaryTree>
    <BinaryTree type="DecisionTree" boostWeight="1.0000000000000000e+00" itree="594">
      <Node pos="s" depth="0" NCoef="0" IVar="3" Cut="2.3399588012695312e+02" cType="1" res="-1.3029390247538686e-03" rms="2.8439867496490479e-01" purity="4.9608886241912842e-01" nType="0">
        <Node pos="l" depth="1" NCoef="0" IVar="5" Cut="6.5581069946289062e+01" cType="1" res="3.1263385899364948e-03" rms="2.8364071249961853e-01" purity="3.5236018896102905e-01" nType="0">
          <Node pos="l" depth="2" NCoef="0" IVar="3" Cut="1.3133084106445312e+02" cType="1" res="-3.4196290653198957e-03" rms="2.4468471109867096e-01" purity="1.0338683426380157e-01" nType="0">
            <Node pos="l" depth="3" NCoef="0" IVar="-1" Cut="0.0000000000000000e+00" cType="1" res="3.7520386278629303e-02" rms="1.8893712759017944e-01" purity="4.9274820834398270e-02" nType="-99"/>
            <Node pos="r" depth="3" NCoef="0" IVar="-1" Cut="0.0000000000000000e+00" cType="1" res="-1.4413817785680294e-02" rms="2.6982471346855164e-01" purity="1.3272820413112640e-01" nType="-99"/>
          </Node>
          <Node pos="r" depth="2" NCoef="0" IVar="3" Cut="1.3291184997558594e+02" cType="1" res="8.1407576799392700e-03" rms="3.1009697914123535e-01" purity="5.4308164119720459e-01" nType="0">
            <Node pos="l" depth="3" NCoef="0" IVar="-1" Cut="0.0000000000000000e+00" cType="1" res="-1.9798502326011658e-02" rms="2.6596263051033020e-01" purity="1.6422456502914429e-01" nType="-99"/>
            <Node pos="r" depth="3" NCoef="0" IVar="-1" Cut="0.0000000000000000e+00" cType="1" res="1.1019170284271240e-02" rms="3.1507787108421326e-01" purity="5.9069448709487915e-01" nType="-99"/>
          </Node>
        </Node>
        <Node pos="r" depth="1" NCoef="0" IVar="0" Cut="2.0986091308593750e+03" cType="1" res="-7.0536355488002300e-03" rms="2.8527718782424927e-01" purity="6.8269711732864380e-01" nType="0">
          <Node pos="l" depth="2" NCoef="0" IVar="5" Cut="8.3798446655273438e+01" cType="1" res="-1.1708048172295094e-02" rms="3.1196051836013794e-01" purity="5.7758027315139771e-01" nType="0">
            <Node pos="l" depth="3" NCoef="0" IVar="-1" Cut="0.0000000000000000e+00" cType="1" res="-1.7758335918188095e-02" rms="3.3211725950241089e-01" purity="3.5398113727569580e-01" nType="-99"/>
            <Node pos="r" depth="3" NCoef="0" IVar="-1" Cut="0.0000000000000000e+00" cType="1" res="-4.9354997463524342e-03" rms="2.9310441017150879e-01" purity="7.7200430631637573e-01" nType="-99"/>
          </Node>
          <Node pos="r" depth="2" NCoef="0" IVar="6" Cut="6.6376380920410156e+01" cType="1" res="2.9209635686129332e-03" rms="2.1699078381061554e-01" purity="9.0796673297882080e-01" nType="0">
            <Node pos="l" depth="3" NCoef="0" IVar="-1" Cut="0.0000000000000000e+00" cType="1" res="-3.7247056607156992e-03" rms="3.1526306271553040e-01" purity="7.6555526256561279e-01" nType="-99"/>
            <Node pos="r" depth="3" NCoef="0" IVar="-1" Cut="0.0000000000000000e+00" cType="1" res="1.9704252481460571e-02" rms="1.5935215353965759e-01" purity="9.6695715188980103e-01" nType="-99"/>
          </Node>
        </Node>
      </Node>
    </BinaryTree>
    <BinaryTree type="DecisionTree" boostWeight="1.0000000000000000e+00" itree="595">
      <Node pos="s" depth="0" NCoef="0" IVar="7" Cut="-9.0995460748672485e-01" cType="1" res="6.3906132709234953e-04" rms="2.8546085953712463e-01" purity="4.9818956851959229e-01" nType="0">
        <Node pos="l" depth="1" NCoef="0" IVar="10" Cut="-1.4659148454666138e+00" cType="1" res="8.9631816372275352e-03" rms="2.5593999028205872e-01" purity="2.5986653566360474e-01" nType="0">
          <Node pos="l" depth="2" NCoef="0" IVar="-1" Cut="0.0000000000000000e+00" cType="1" res="-2.3096939548850060e-02" rms="2.0490147173404694e-01" purity="1.2615135312080383e-01" nType="-99"/>
          <Node pos="r" depth="2" NCoef="0" IVar="0" Cut="1.6417430419921875e+03" cType="1" res="1.3187743723392487e-02" rms="2.6509040594100952e-01" purity="2.8756195306777954e-01" nType="0">
            <Node pos="l" depth="3" NCoef="0" IVar="-1" Cut="0.0000000000000000e+00" cType="1" res="1.3726923614740372e-02" rms="2.5248640775680542e-01" purity="1.5219941735267639e-01" nType="-99"/>
            <Node pos="r" depth="3" NCoef="0" IVar="-1" Cut="0.0000000000000000e+00" cType="1" res="3.0981574207544327e-02" rms="2.9878881573677063e-01" purity="6.8727284669876099e-01" nType="-99"/>
          </Node>
        </Node>
        <Node pos="r" depth="1" NCoef="0" IVar="8" Cut="-3.9995223283767700e-01" cType="1" res="-8.9669326553121209e-04" rms="2.9055371880531311e-01" purity="5.4215884208679199e-01" nType="0">
          <Node pos="l" depth="2" NCoef="0" IVar="11" Cut="5.8916419744491577e-01" cType="1" res="3.9968211203813553e-03" rms="2.9058629274368286e-01" purity="4.7227153182029724e-01" nType="0">
            <Node pos="l" depth="3" NCoef="0" IVar="-1" Cut="0.0000000000000000e+00" cType="1" res="8.2982284948229790e-03" rms="2.8724062442779541e-01" purity="4.4292581081390381e-01" nType="-99"/>
            <Node pos="r" depth="3" NCoef="0" IVar="-1" Cut="0.0000000000000000e+00" cType="1" res="-1.3695004396140575e-02" rms="3.0943632125854492e-01" purity="6.4911299943923950e-01" nType="-99"/>
          </Node>
          <Node pos="r" depth="2" NCoef="0" IVar="8" Cut="-2.4754641950130463e-01" cType="1" res="-3.3100836444646120e-03" rms="2.9050731658935547e-01" purity="5.7662594318389893e-01" nType="0">
            <Node pos="l" depth="3" NCoef="0" IVar="-1" Cut="0.0000000000000000e+00" cType="1" res="-2.5597715750336647e-02" rms="3.0267161130905151e-01" purity="6.4050596952438354e-01" nType="-99"/>
            <Node pos="r" depth="3" NCoef="0" IVar="-1" Cut="0.0000000000000000e+00" cType="1" res="-1.5947854844853282e-03" rms="2.8919172286987305e-01" purity="5.7023167610168457e-01" nType="-99"/>
          </Node>
        </Node>
      </Node>
    </BinaryTree>
    <BinaryTree type="DecisionTree" boostWeight="1.0000000000000000e+00" itree="596">
      <Node pos="s" depth="0" NCoef="0" IVar="3" Cut="4.6091940307617188e+02" cType="1" res="1.2461994774639606e-03" rms="2.8639507293701172e-01" purity="4.9681046605110168e-01" nType="0">
        <Node pos="l" depth="1" NCoef="0" IVar="1" Cut="6.5692320466041565e-02" cType="1" res="2.2121393703855574e-04" rms="2.8619396686553955e-01" purity="4.8575922846794128e-01" nType="0">
          <Node pos="l" depth="2" NCoef="0" IVar="1" Cut="5.6306503713130951e-02" cType="1" res="-4.2807101272046566e-03" rms="2.8105357289314270e-01" purity="2.6154246926307678e-01" nType="0">
            <Node pos="l" depth="3" NCoef="0" IVar="-1" Cut="0.0000000000000000e+00" cType="1" res="-1.8124304478988051e-03" rms="2.7710536122322083e-01" purity="2.3518688976764679e-01" nType="-99"/>
            <Node pos="r" depth="3" NCoef="0" IVar="-1" Cut="0.0000000000000000e+00" cType="1" res="-3.0663602054119110e-02" rms="3.1589150428771973e-01" purity="5.2076011896133423e-01" nType="-99"/>
          </Node>
          <Node pos="r" depth="2" NCoef="0" IVar="7" Cut="7.1086645126342773e-01" cType="1" res="5.9215766377747059e-03" rms="2.9247379302978516e-01" purity="7.6966381072998047e-01" nType="0">
            <Node pos="l" depth="3" NCoef="0" IVar="-1" Cut="0.0000000000000000e+00" cType="1" res="3.0754450708627701e-03" rms="2.8906807303428650e-01" purity="7.7695804834365845e-01" nType="-99"/>
            <Node pos="r" depth="3" NCoef="0" IVar="-1" Cut="0.0000000000000000e+00" cType="1" res="2.8132079169154167e-02" rms="3.1476312875747681e-01" purity="7.1746116876602173e-01" nType="-99"/>
          </Node>
        </Node>
        <Node pos="r" depth="1" NCoef="0" IVar="-1" Cut="0.0000000000000000e+00" cType="1" res="3.0293487012386322e-02" rms="2.9022005200386047e-01" purity="7.7483081817626953e-01" nType="-99"/>
      </Node>
    </BinaryTree>
    <BinaryTree type="DecisionTree" boostWeight="1.0000000000000000e+00" itree="597">
      <Node pos="s" depth="0" NCoef="0" IVar="0" Cut="1.3945023193359375e+03" cType="1" res="-1.1906994041055441e-03" rms="2.8202703595161438e-01" purity="5.0031888484954834e-01" nType="0">
        <Node pos="l" depth="1" NCoef="0" IVar="1" Cut="6.5705366432666779e-02" cType="1" res="-5.7585416361689568e-03" rms="2.7921310067176819e-01" purity="1.7993272840976715e-01" nType="0">
          <Node pos="l" depth="2" NCoef="0" IVar="3" Cut="1.9541128540039062e+02" cType="1" res="-1.5084921615198255e-03" rms="2.3233827948570251e-01" purity="8.7278142571449280e-02" nType="0">
            <Node pos="l" depth="3" NCoef="0" IVar="-1" Cut="0.0000000000000000e+00" cType="1" res="-1.3247588649392128e-02" rms="2.0590020716190338e-01" purity="6.6188737750053406e-02" nType="-99"/>
            <Node pos="r" depth="3" NCoef="0" IVar="-1" Cut="0.0000000000000000e+00" cType="1" res="1.3622157275676727e-02" rms="2.8737759590148926e-01" purity="1.3972847163677216e-01" nType="-99"/>
          </Node>
          <Node pos="r" depth="2" NCoef="0" IVar="7" Cut="-8.4987446665763855e-02" cType="1" res="-1.6386538743972778e-02" rms="3.7116739153862000e-01" purity="4.1163182258605957e-01" nType="0">
            <Node pos="l" depth="3" NCoef="0" IVar="-1" Cut="0.0000000000000000e+00" cType="1" res="-2.1353853866457939e-02" rms="3.6838024854660034e-01" purity="3.8557064533233643e-01" nType="-99"/>
            <Node pos="r" depth="3" NCoef="0" IVar="-1" Cut="0.0000000000000000e+00" cType="1" res="-3.1875572167336941e-03" rms="3.7296229600906372e-01" purity="4.3234074115753174e-01" nType="-99"/>
          </Node>
        </Node>
        <Node pos="r" depth="1" NCoef="0" IVar="11" Cut="1.1427160501480103e+00" cType="1" res="2.3001590743660927e-03" rms="2.8410923480987549e-01" purity="7.4516588449478149e-01" nType="0">
          <Node pos="l" depth="2" NCoef="0" IVar="9" Cut="-1.4662597179412842e+00" cType="1" res="3.2790689147077501e-04" rms="2.8645062446594238e-01" purity="7.3347920179367065e-01" nType="0">
            <Node pos="l" depth="3" NCoef="0" IVar="-1" Cut="0.0000000000000000e+00" cType="1" res="2.0556766539812088e-02" rms="3.1943145394325256e-01" purity="4.6007913351058960e-01" nType="-99"/>
            <Node pos="r" depth="3" NCoef="0" IVar="-1" Cut="0.0000000000000000e+00" cType="1" res="-1.3529882999137044e-03" rms="2.8404214978218079e-01" purity="7.5183576345443726e-01" nType="-99"/>
          </Node>
          <Node pos="r" depth="2" NCoef="0" IVar="10" Cut="1.3347052037715912e-01" cType="1" res="1.6712371259927750e-02" rms="2.6593211293220520e-01" purity="8.3056628704071045e-01" nType="0">
            <Node pos="l" depth="3" NCoef="0" IVar="-1" Cut="0.0000000000000000e+00" cType="1" res="1.3381393626332283e-02" rms="2.6449769735336304e-01" purity="8.3983200788497925e-01" nType="-99"/>
            <Node pos="r" depth="3" NCoef="0" IVar="-1" Cut="0.0000000000000000e+00" cType="1" res="2.7245551347732544e-02" rms="2.6723396778106689e-01" purity="8.2112514972686768e-01" nType="-99"/>
          </Node>
        </Node>
      </Node>
    </BinaryTree>
    <BinaryTree type="DecisionTree" boostWeight="1.0000000000000000e+00" itree="598">
      <Node pos="s" depth="0" NCoef="0" IVar="7" Cut="-6.5636044740676880e-01" cType="1" res="-1.0057013423647732e-04" rms="2.8456193208694458e-01" purity="4.9961575865745544e-01" nType="0">
        <Node pos="l" depth="1" NCoef="0" IVar="0" Cut="1.0726770019531250e+03" cType="1" res="-8.4363017231225967e-03" rms="2.6767382025718689e-01" purity="3.2549664378166199e-01" nType="0">
          <Node pos="l" depth="2" NCoef="0" IVar="-1" Cut="0.0000000000000000e+00" cType="1" res="3.5922672599554062e-02" rms="1.7183896899223328e-01" purity="3.3690825104713440e-02" nType="-99"/>
          <Node pos="r" depth="2" NCoef="0" IVar="10" Cut="6.6672027111053467e-01" cType="1" res="-1.2574585154652596e-02" rms="2.8641906380653381e-01" purity="3.9804935455322266e-01" nType="0">
            <Node pos="l" depth="3" NCoef="0" IVar="-1" Cut="0.0000000000000000e+00" cType="1" res="-1.8788268789649010e-02" rms="2.8515496850013733e-01" purity="4.1285660862922668e-01" nType="-99"/>
            <Node pos="r" depth="3" NCoef="0" IVar="-1" Cut="0.0000000000000000e+00" cType="1" res="-1.9500731723383069e-03" rms="2.8964939713478088e-01" purity="3.5660967230796814e-01" nType="-99"/>
          </Node>
        </Node>
        <Node pos="r" depth="1" NCoef="0" IVar="6" Cut="1.5795381546020508e+01" cType="1" res="2.2529589477926493e-03" rms="2.8910815715789795e-01" purity="5.4877692461013794e-01" nType="0">
          <Node pos="l" depth="2" NCoef="0" IVar="9" Cut="-1.3343198597431183e-01" cType="1" res="6.6832923330366611e-03" rms="3.1162980198860168e-01" purity="2.6528611779212952e-01" nType="0">
            <Node pos="l" depth="3" NCoef="0" IVar="-1" Cut="0.0000000000000000e+00" cType="1" res="1.5707483515143394e-02" rms="3.1184339523315430e-01" purity="2.5987261533737183e-01" nType="-99"/>
            <Node pos="r" depth="3" NCoef="0" IVar="-1" Cut="0.0000000000000000e+00" cType="1" res="3.8977016811259091e-04" rms="3.1131583452224731e-01" purity="2.6958552002906799e-01" nType="-99"/>
          </Node>
          <Node pos="r" depth="2" NCoef="0" IVar="9" Cut="-1.4660984277725220e+00" cType="1" res="-1.3918757904320955e-03" rms="2.6911574602127075e-01" purity="7.8200483322143555e-01" nType="0">
            <Node pos="l" depth="3" NCoef="0" IVar="-1" Cut="0.0000000000000000e+00" cType="1" res="1.8980834633111954e-02" rms="3.2351991534233093e-01" purity="5.0889331102371216e-01" nType="-99"/>
            <Node pos="r" depth="3" NCoef="0" IVar="-1" Cut="0.0000000000000000e+00" cType="1" res="-3.8188903126865625e-03" rms="2.6526650786399841e-01" purity="7.9913991689682007e-01" nType="-99"/>
          </Node>
        </Node>
      </Node>
    </BinaryTree>
    <BinaryTree type="DecisionTree" boostWeight="1.0000000000000000e+00" itree="599">
      <Node pos="s" depth="0" NCoef="0" IVar="7" Cut="6.7312788963317871e-01" cType="1" res="-2.4941598530858755e-04" rms="2.8592774271965027e-01" purity="4.9872267246246338e-01" nType="0">
        <Node pos="l" depth="1" NCoef="0" IVar="0" Cut="1.0974445800781250e+03" cType="1" res="-2.3383679799735546e-03" rms="2.9138147830963135e-01" purity="5.4647928476333618e-01" nType="0">
          <Node pos="l" depth="2" NCoef="0" IVar="7" Cut="-1.3123849034309387e-01" cType="1" res="7.1171675808727741e-03" rms="2.3034007847309113e-01" purity="7.1147836744785309e-02" nType="0">
            <Node pos="l" depth="3" NCoef="0" IVar="-1" Cut="0.0000000000000000e+00" cType="1" res="-4.4430894777178764e-03" rms="1.9642551243305206e-01" purity="4.9294415861368179e-02" nType="-99"/>
            <Node pos="r" depth="3" NCoef="0" IVar="-1" Cut="0.0000000000000000e+00" cType="1" res="3.6819625645875931e-02" rms="2.8715816140174866e-01" purity="1.1631172150373459e-01" nType="-99"/>
          </Node>
          <Node pos="r" depth="2" NCoef="0" IVar="1" Cut="4.3804407119750977e-02" cType="1" res="-3.9923419244587421e-03" rms="3.0075812339782715e-01" purity="6.2962484359741211e-01" nType="0">
            <Node pos="l" depth="3" NCoef="0" IVar="-1" Cut="0.0000000000000000e+00" cType="1" res="2.1557286381721497e-03" rms="3.1587913632392883e-01" purity="3.2118952274322510e-01" nType="-99"/>
            <Node pos="r" depth="3" NCoef="0" IVar="-1" Cut="0.0000000000000000e+00" cType="1" res="-8.1370109692215919e-03" rms="2.9267659783363342e-01" purity="7.8730571269989014e-01" nType="-99"/>
          </Node>
        </Node>
        <Node pos="r" depth="1" NCoef="0" IVar="4" Cut="1.2378018951416016e+02" cType="1" res="7.2053903713822365e-03" rms="2.6541948318481445e-01" purity="3.2829451560974121e-01" nType="0">
          <Node pos="l" depth="2" NCoef="0" IVar="4" Cut="1.0645612335205078e+02" cType="1" res="-2.7612524572759867e-03" rms="1.9910976290702820e-01" purity="7.5162090361118317e-02" nType="0">
            <Node pos="l" depth="3" NCoef="0" IVar="-1" Cut="0.0000000000000000e+00" cType="1" res="1.9295139238238335e-02" rms="1.8643255531787872e-01" purity="6.1529614031314850e-02" nType="-99"/>
            <Node pos="r" depth="3" NCoef="0" IVar="-1" Cut="0.0000000000000000e+00" cType="1" res="-3.6360356956720352e-02" rms="2.2337876260280609e-01" purity="1.0554977506399155e-01" nType="-99"/>
          </Node>
          <Node pos="r" depth="2" NCoef="0" IVar="7" Cut="1.4827451705932617e+00" cType="1" res="1.3687827624380589e-02" rms="3.0062508583068848e-01" purity="4.9293521046638489e-01" nType="0">
            <Node pos="l" depth="3" NCoef="0" IVar="-1" Cut="0.0000000000000000e+00" cType="1" res="1.7686966806650162e-02" rms="3.1665489077568054e-01" purity="5.9060710668563843e-01" nType="-99"/>
            <Node pos="r" depth="3" NCoef="0" IVar="-1" Cut="0.0000000000000000e+00" cType="1" res="-3.0123039614409208e-03" rms="2.3691220581531525e-01" purity="1.5793626010417938e-01" nType="-99"/>
          </Node>
        </Node>
      </Node>
    </BinaryTree>
    <BinaryTree type="DecisionTree" boostWeight="1.0000000000000000e+00" itree="600">
      <Node pos="s" depth="0" NCoef="0" IVar="9" Cut="1.9996308088302612e+00" cType="1" res="-1.4779689954593778e-03" rms="2.8265485167503357e-01" purity="4.9769815802574158e-01" nType="0">
        <Node pos="l" depth="1" NCoef="0" IVar="10" Cut="-6.6638404130935669e-01" cType="1" res="-9.3526294222101569e-04" rms="2.8506788611412048e-01" purity="5.1145809888839722e-01" nType="0">
          <Node pos="l" depth="2" NCoef="0" IVar="11" Cut="-1.0668774843215942e+00" cType="1" res="-5.5895410478115082e-03" rms="2.7606803178787231e-01" purity="4.4909811019897461e-01" nType="0">
            <Node pos="l" depth="3" NCoef="0" IVar="-1" Cut="0.0000000000000000e+00" cType="1" res="-1.4684784226119518e-02" rms="2.7343338727951050e-01" purity="2.6585954427719116e-01" nType="-99"/>
            <Node pos="r" depth="3" NCoef="0" IVar="-1" Cut="0.0000000000000000e+00" cType="1" res="5.8587794192135334e-03" rms="2.7994963526725769e-01" purity="7.4459302425384521e-01" nType="-99"/>
          </Node>
          <Node pos="r" depth="2" NCoef="0" IVar="3" Cut="2.1892453002929688e+02" cType="1" res="1.0344402398914099e-03" rms="2.8876963257789612e-01" purity="5.3784906864166260e-01" nType="0">
            <Node pos="l" depth="3" NCoef="0" IVar="-1" Cut="0.0000000000000000e+00" cType="1" res="-3.2304509077221155e-03" rms="2.8797960281372070e-01" purity="3.5311713814735413e-01" nType="-99"/>
            <Node pos="r" depth="3" NCoef="0" IVar="-1" Cut="0.0000000000000000e+00" cType="1" res="5.3053051233291626e-03" rms="2.8943565487861633e-01" purity="7.0404028892517090e-01" nType="-99"/>
          </Node>
        </Node>
        <Node pos="r" depth="1" NCoef="0" IVar="-1" Cut="0.0000000000000000e+00" cType="1" res="-2.9823005199432373e-02" rms="2.0336465537548065e-01" purity="1.1302481591701508e-01" nType="-99"/>
      </Node>
    </BinaryTree>
    <BinaryTree type="DecisionTree" boostWeight="1.0000000000000000e+00" itree="601">
      <Node pos="s" depth="0" NCoef="0" IVar="8" Cut="1.3380992412567139e-01" cType="1" res="6.5097992774099112e-04" rms="2.8636044263839722e-01" purity="5.0223660469055176e-01" nType="0">
        <Node pos="l" depth="1" NCoef="0" IVar="5" Cut="8.7485107421875000e+01" cType="1" res="4.4396151788532734e-03" rms="2.8698801994323730e-01" purity="5.1905488967895508e-01" nType="0">
          <Node pos="l" depth="2" NCoef="0" IVar="9" Cut="-1.1991069316864014e+00" cType="1" res="1.0175130330026150e-02" rms="3.0601137876510620e-01" purity="2.9294574260711670e-01" nType="0">
            <Node pos="l" depth="3" NCoef="0" IVar="-1" Cut="0.0000000000000000e+00" cType="1" res="3.3161710947751999e-02" rms="2.8777655959129333e-01" purity="2.0315191149711609e-01" nType="-99"/>
            <Node pos="r" depth="3" NCoef="0" IVar="-1" Cut="0.0000000000000000e+00" cType="1" res="6.8687116727232933e-03" rms="3.1001782417297363e-01" purity="3.1400412321090698e-01" nType="-99"/>
          </Node>
          <Node pos="r" depth="2" NCoef="0" IVar="1" Cut="6.3416890799999237e-02" cType="1" res="-3.1100092455744743e-03" rms="2.5964000821113586e-01" purity="8.1668096780776978e-01" nType="0">
            <Node pos="l" depth="3" NCoef="0" IVar="-1" Cut="0.0000000000000000e+00" cType="1" res="-1.9727852195501328e-02" rms="3.2638385891914368e-01" purity="5.7571011781692505e-01" nType="-99"/>
            <Node pos="r" depth="3" NCoef="0" IVar="-1" Cut="0.0000000000000000e+00" cType="1" res="8.4791556000709534e-03" rms="2.2475145757198334e-01" purity="9.1956979036331177e-01" nType="-99"/>
          </Node>
        </Node>
        <Node pos="r" depth="1" NCoef="0" IVar="10" Cut="1.4666417837142944e+00" cType="1" res="-4.2893094941973686e-03" rms="2.8546449542045593e-01" purity="4.8030596971511841e-01" nType="0">
          <Node pos="l" depth="2" NCoef="0" IVar="8" Cut="3.8773253560066223e-01" cType="1" res="-1.9698587711900473e-03" rms="2.8650870919227600e-01" purity="5.0945031642913818e-01" nType="0">
            <Node pos="l" depth="3" NCoef="0" IVar="-1" Cut="0.0000000000000000e+00" cType="1" res="-1.4372739009559155e-02" rms="2.8200888633728027e-01" purity="6.4852803945541382e-01" nType="-99"/>
            <Node pos="r" depth="3" NCoef="0" IVar="-1" Cut="0.0000000000000000e+00" cType="1" res="1.3516801409423351e-03" rms="2.8780624270439148e-01" purity="4.6672934293746948e-01" nType="-99"/>
          </Node>
          <Node pos="r" depth="2" NCoef="0" IVar="1" Cut="3.4598175436258316e-02" cType="1" res="-1.9626198336482048e-02" rms="2.7797469496726990e-01" purity="2.8759506344795227e-01" nType="0">
            <Node pos="l" depth="3" NCoef="0" IVar="-1" Cut="0.0000000000000000e+00" cType="1" res="-1.1561050079762936e-02" rms="2.0292821526527405e-01" purity="7.9365968704223633e-02" nType="-99"/>
            <Node pos="r" depth="3" NCoef="0" IVar="-1" Cut="0.0000000000000000e+00" cType="1" res="-2.7922863140702248e-02" rms="3.2853910326957703e-01" purity="4.6636590361595154e-01" nType="-99"/>
          </Node>
        </Node>
      </Node>
    </BinaryTree>
    <BinaryTree type="DecisionTree" boostWeight="1.0000000000000000e+00" itree="602">
      <Node pos="s" depth="0" NCoef="0" IVar="8" Cut="1.4669330120086670e+00" cType="1" res="3.0632708221673965e-03" rms="2.8355887532234192e-01" purity="5.0090920925140381e-01" nType="0">
        <Node pos="l" depth="1" NCoef="0" IVar="8" Cut="8.5751855373382568e-01" cType="1" res="4.1108885779976845e-03" rms="2.8886374831199646e-01" purity="5.3081673383712769e-01" nType="0">
          <Node pos="l" depth="2" NCoef="0" IVar="0" Cut="1.0951228027343750e+03" cType="1" res="2.7354776393622160e-03" rms="2.8613272309303284e-01" purity="5.4546451568603516e-01" nType="0">
            <Node pos="l" depth="3" NCoef="0" IVar="-1" Cut="0.0000000000000000e+00" cType="1" res="-1.2071726843714714e-02" rms="2.0115937292575836e-01" purity="5.0594814121723175e-02" nType="-99"/>
            <Node pos="r" depth="3" NCoef="0" IVar="-1" Cut="0.0000000000000000e+00" cType="1" res="4.4919443316757679e-03" rms="2.9815319180488586e-01" purity="6.2956339120864868e-01" nType="-99"/>
          </Node>
          <Node pos="r" depth="2" NCoef="0" IVar="10" Cut="9.3376225233078003e-01" cType="1" res="1.3781416229903698e-02" rms="3.0720740556716919e-01" purity="4.2782810330390930e-01" nType="0">
            <Node pos="l" depth="3" NCoef="0" IVar="-1" Cut="0.0000000000000000e+00" cType="1" res="5.9096352197229862e-03" rms="3.0326133966445923e-01" purity="4.5019307732582092e-01" nType="-99"/>
            <Node pos="r" depth="3" NCoef="0" IVar="-1" Cut="0.0000000000000000e+00" cType="1" res="3.6708511412143707e-02" rms="3.1627702713012695e-01" purity="3.6926433444023132e-01" nType="-99"/>
          </Node>
        </Node>
        <Node pos="r" depth="1" NCoef="0" IVar="10" Cut="6.6628921031951904e-01" cType="1" res="-9.8432442173361778e-03" rms="2.0691701769828796e-01" purity="1.3245266675949097e-01" nType="0">
          <Node pos="l" depth="2" NCoef="0" IVar="-1" Cut="0.0000000000000000e+00" cType="1" res="-6.9631994701921940e-03" rms="2.0962464809417725e-01" purity="1.6154089570045471e-01" nType="-99"/>
          <Node pos="r" depth="2" NCoef="0" IVar="-1" Cut="0.0000000000000000e+00" cType="1" res="-4.0845450013875961e-02" rms="2.0182710886001587e-01" purity="8.2877635955810547e-02" nType="-99"/>
        </Node>
      </Node>
    </BinaryTree>
    <BinaryTree type="DecisionTree" boostWeight="1.0000000000000000e+00" itree="603">
      <Node pos="s" depth="0" NCoef="0" IVar="9" Cut="1.1998440027236938e+00" cType="1" res="5.9432932175695896e-04" rms="2.8444179892539978e-01" purity="5.0020194053649902e-01" nType="0">
        <Node pos="l" depth="1" NCoef="0" IVar="9" Cut="8.1888025999069214e-01" cType="1" res="2.5086246896535158e-03" rms="2.8702795505523682e-01" purity="5.3422582149505615e-01" nType="0">
          <Node pos="l" depth="2" NCoef="0" IVar="0" Cut="1.3740961914062500e+03" cType="1" res="6.5390253439545631e-04" rms="2.8523218631744385e-01" purity="5.3489434719085693e-01" nType="0">
            <Node pos="l" depth="3" NCoef="0" IVar="-1" Cut="0.0000000000000000e+00" cType="1" res="7.3967184871435165e-03" rms="2.9073753952980042e-01" purity="1.9557261466979980e-01" nType="-99"/>
            <Node pos="r" depth="3" NCoef="0" IVar="-1" Cut="0.0000000000000000e+00" cType="1" res="-3.8358592428267002e-03" rms="2.8153756260871887e-01" purity="7.5517731904983521e-01" nType="-99"/>
          </Node>
          <Node pos="r" depth="2" NCoef="0" IVar="9" Cut="1.0365470647811890e+00" cType="1" res="1.7934467643499374e-02" rms="3.0110707879066467e-01" purity="5.2866512537002563e-01" nType="0">
            <Node pos="l" depth="3" NCoef="0" IVar="-1" Cut="0.0000000000000000e+00" cType="1" res="2.8623105958104134e-02" rms="3.1109252572059631e-01" purity="5.4824775457382202e-01" nType="-99"/>
            <Node pos="r" depth="3" NCoef="0" IVar="-1" Cut="0.0000000000000000e+00" cType="1" res="6.1610853299498558e-03" rms="2.8565099835395813e-01" purity="5.0041508674621582e-01" nType="-99"/>
          </Node>
        </Node>
        <Node pos="r" depth="1" NCoef="0" IVar="0" Cut="1.3462216796875000e+03" cType="1" res="-1.2562996707856655e-02" rms="2.6561400294303894e-01" purity="2.6634955406188965e-01" nType="0">
          <Node pos="l" depth="2" NCoef="0" IVar="0" Cut="1.1641877441406250e+03" cType="1" res="-1.8466474721208215e-03" rms="2.3277162015438080e-01" purity="8.9035145938396454e-02" nType="0">
            <Node pos="l" depth="3" NCoef="0" IVar="-1" Cut="0.0000000000000000e+00" cType="1" res="-2.6458945125341415e-02" rms="1.7241297662258148e-01" purity="3.7966333329677582e-02" nType="-99"/>
            <Node pos="r" depth="3" NCoef="0" IVar="-1" Cut="0.0000000000000000e+00" cType="1" res="1.2019500136375427e-02" rms="2.9986572265625000e-01" purity="1.6415014863014221e-01" nType="-99"/>
          </Node>
          <Node pos="r" depth="2" NCoef="0" IVar="1" Cut="5.2313651889562607e-02" cType="1" res="-2.6397958397865295e-02" rms="3.0222952365875244e-01" purity="4.9526500701904297e-01" nType="0">
            <Node pos="l" depth="3" NCoef="0" IVar="-1" Cut="0.0000000000000000e+00" cType="1" res="-3.6762192845344543e-02" rms="2.9441410303115845e-01" purity="2.4980559945106506e-01" nType="-99"/>
            <Node pos="r" depth="3" NCoef="0" IVar="-1" Cut="0.0000000000000000e+00" cType="1" res="-1.4564463868737221e-02" rms="3.1018933653831482e-01" purity="7.6541423797607422e-01" nType="-99"/>
          </Node>
        </Node>
      </Node>
    </BinaryTree>
    <BinaryTree type="DecisionTree" boostWeight="1.0000000000000000e+00" itree="604">
      <Node pos="s" depth="0" NCoef="0" IVar="5" Cut="1.1060195159912109e+02" cType="1" res="-5.9373467229306698e-04" rms="2.8463202714920044e-01" purity="4.9971967935562134e-01" nType="0">
        <Node pos="l" depth="1" NCoef="0" IVar="4" Cut="2.6110781860351562e+02" cType="1" res="-2.3618745617568493e-03" rms="3.0335873365402222e-01" purity="3.6072671413421631e-01" nType="0">
          <Node pos="l" depth="2" NCoef="0" IVar="4" Cut="1.7106988525390625e+02" cType="1" res="-9.8170945420861244e-04" rms="3.0319768190383911e-01" purity="3.4057945013046265e-01" nType="0">
            <Node pos="l" depth="3" NCoef="0" IVar="-1" Cut="0.0000000000000000e+00" cType="1" res="-3.6021880805492401e-03" rms="2.9346832633018494e-01" purity="2.5850969552993774e-01" nType="-99"/>
            <Node pos="r" depth="3" NCoef="0" IVar="-1" Cut="0.0000000000000000e+00" cType="1" res="5.2840909920632839e-03" rms="3.3218309283256531e-01" purity="6.0182654857635498e-01" nType="-99"/>
          </Node>
          <Node pos="r" depth="2" NCoef="0" IVar="-1" Cut="0.0000000000000000e+00" cType="1" res="-2.7640225365757942e-02" rms="3.0516231060028076e-01" purity="7.1660119295120239e-01" nType="-99"/>
        </Node>
        <Node pos="r" depth="1" NCoef="0" IVar="6" Cut="6.6376380920410156e+01" cType="1" res="4.4912509620189667e-03" rms="2.2206687927246094e-01" purity="8.9944905042648315e-01" nType="0">
          <Node pos="l" depth="2" NCoef="0" IVar="7" Cut="-6.5525427460670471e-02" cType="1" res="1.9000470638275146e-02" rms="3.0002939701080322e-01" purity="7.5555527210235596e-01" nType="0">
            <Node pos="l" depth="3" NCoef="0" IVar="-1" Cut="0.0000000000000000e+00" cType="1" res="2.3068144917488098e-02" rms="2.9046243429183960e-01" purity="7.5933188199996948e-01" nType="-99"/>
            <Node pos="r" depth="3" NCoef="0" IVar="-1" Cut="0.0000000000000000e+00" cType="1" res="1.4891762286424637e-02" rms="3.0901834368705750e-01" purity="7.5187742710113525e-01" nType="-99"/>
          </Node>
          <Node pos="r" depth="2" NCoef="0" IVar="1" Cut="4.3154992163181305e-02" cType="1" res="4.1675040847621858e-04" rms="1.9444134831428528e-01" purity="9.3985754251480103e-01" nType="0">
            <Node pos="l" depth="3" NCoef="0" IVar="-1" Cut="0.0000000000000000e+00" cType="1" res="1.8425036221742630e-02" rms="2.9206442832946777e-01" purity="7.9407429695129395e-01" nType="-99"/>
            <Node pos="r" depth="3" NCoef="0" IVar="-1" Cut="0.0000000000000000e+00" cType="1" res="-6.9575430825352669e-03" rms="1.7575024068355560e-01" purity="9.6094357967376709e-01" nType="-99"/>
          </Node>
        </Node>
      </Node>
    </BinaryTree>
    <BinaryTree type="DecisionTree" boostWeight="1.0000000000000000e+00" itree="605">
      <Node pos="s" depth="0" NCoef="0" IVar="10" Cut="-1.9999513626098633e+00" cType="1" res="-8.7882787920534611e-04" rms="2.8474164009094238e-01" purity="4.9919816851615906e-01" nType="0">
        <Node pos="l" depth="1" NCoef="0" IVar="1" Cut="3.5095840692520142e-02" cType="1" res="1.2182513251900673e-02" rms="2.7601039409637451e-01" purity="2.4066336452960968e-01" nType="0">
          <Node pos="l" depth="2" NCoef="0" IVar="-1" Cut="0.0000000000000000e+00" cType="1" res="-2.5847563520073891e-03" rms="1.8335258960723877e-01" purity="5.7646062225103378e-02" nType="-99"/>
          <Node pos="r" depth="2" NCoef="0" IVar="-1" Cut="0.0000000000000000e+00" cType="1" res="2.1841090172529221e-02" rms="3.4399974346160889e-01" purity="4.2339232563972473e-01" nType="-99"/>
        </Node>
        <Node pos="r" depth="1" NCoef="0" IVar="10" Cut="1.8855521678924561e+00" cType="1" res="-1.5861826250329614e-03" rms="2.8518980741500854e-01" purity="5.1319950819015503e-01" nType="0">
          <Node pos="l" depth="2" NCoef="0" IVar="9" Cut="1.9988397359848022e+00" cType="1" res="-2.7133920229971409e-03" rms="2.8512597084045410e-01" purity="5.2777236700057983e-01" nType="0">
            <Node pos="l" depth="3" NCoef="0" IVar="-1" Cut="0.0000000000000000e+00" cType="1" res="-4.1933925822377205e-03" rms="2.8588050603866577e-01" purity="5.3925734758377075e-01" nType="-99"/>
            <Node pos="r" depth="3" NCoef="0" IVar="-1" Cut="0.0000000000000000e+00" cType="1" res="3.8380466401576996e-02" rms="2.5869253277778625e-01" purity="1.6308259963989258e-01" nType="-99"/>
          </Node>
          <Node pos="r" depth="2" NCoef="0" IVar="4" Cut="1.2373486328125000e+02" cType="1" res="1.4653570018708706e-02" rms="2.8561466932296753e-01" purity="3.0324754118919373e-01" nType="0">
            <Node pos="l" depth="3" NCoef="0" IVar="-1" Cut="0.0000000000000000e+00" cType="1" res="-6.8980278447270393e-03" rms="2.1719349920749664e-01" purity="9.8491616547107697e-02" nType="-99"/>
            <Node pos="r" depth="3" NCoef="0" IVar="-1" Cut="0.0000000000000000e+00" cType="1" res="2.5958413258194923e-02" rms="3.2645660638809204e-01" purity="4.5457819104194641e-01" nType="-99"/>
          </Node>
        </Node>
      </Node>
    </BinaryTree>
    <BinaryTree type="DecisionTree" boostWeight="1.0000000000000000e+00" itree="606">
      <Node pos="s" depth="0" NCoef="0" IVar="11" Cut="1.4190063476562500e+00" cType="1" res="-1.0381583706475794e-04" rms="2.8623062372207642e-01" purity="4.9918571114540100e-01" nType="0">
        <Node pos="l" depth="1" NCoef="0" IVar="4" Cut="9.7147232055664062e+01" cType="1" res="-1.3087082188576460e-03" rms="2.8402656316757202e-01" purity="4.8801198601722717e-01" nType="0">
          <Node pos="l" depth="2" NCoef="0" IVar="5" Cut="5.4384513854980469e+01" cType="1" res="9.1896317899227142e-03" rms="2.2035691142082214e-01" purity="7.8741043806076050e-02" nType="0">
            <Node pos="l" depth="3" NCoef="0" IVar="-1" Cut="0.0000000000000000e+00" cType="1" res="-2.5918787345290184e-02" rms="1.4570099115371704e-01" purity="2.4629458785057068e-02" nType="-99"/>
            <Node pos="r" depth="3" NCoef="0" IVar="-1" Cut="0.0000000000000000e+00" cType="1" res="3.1836822628974915e-02" rms="2.4927370250225067e-01" purity="1.0600899159908295e-01" nType="-99"/>
          </Node>
          <Node pos="r" depth="2" NCoef="0" IVar="0" Cut="1.1378979492187500e+03" cType="1" res="-3.3822639379650354e-03" rms="2.9493713378906250e-01" purity="5.6884819269180298e-01" nType="0">
            <Node pos="l" depth="3" NCoef="0" IVar="-1" Cut="0.0000000000000000e+00" cType="1" res="-2.5271039456129074e-02" rms="2.4673575162887573e-01" purity="8.2133099436759949e-02" nType="-99"/>
            <Node pos="r" depth="3" NCoef="0" IVar="-1" Cut="0.0000000000000000e+00" cType="1" res="-1.3299875427037477e-03" rms="3.0117949843406677e-01" purity="6.3890516757965088e-01" nType="-99"/>
          </Node>
        </Node>
        <Node pos="r" depth="1" NCoef="0" IVar="4" Cut="1.6200166320800781e+02" cType="1" res="1.8627662211656570e-02" rms="3.1795340776443481e-01" purity="6.7289382219314575e-01" nType="0">
          <Node pos="l" depth="2" NCoef="0" IVar="-1" Cut="0.0000000000000000e+00" cType="1" res="3.1701393425464630e-02" rms="3.4985536336898804e-01" purity="5.1253914833068848e-01" nType="-99"/>
          <Node pos="r" depth="2" NCoef="0" IVar="-1" Cut="0.0000000000000000e+00" cType="1" res="1.2840942945331335e-03" rms="2.8695696592330933e-01" purity="8.0895245075225830e-01" nType="-99"/>
        </Node>
      </Node>
    </BinaryTree>
    <BinaryTree type="DecisionTree" boostWeight="1.0000000000000000e+00" itree="607">
      <Node pos="s" depth="0" NCoef="0" IVar="7" Cut="1.4904244244098663e-01" cType="1" res="-1.0677924146875739e-03" rms="2.8358808159828186e-01" purity="4.9795761704444885e-01" nType="0">
        <Node pos="l" depth="1" NCoef="0" IVar="6" Cut="5.3219669342041016e+01" cType="1" res="1.6822369070723653e-03" rms="2.8551417589187622e-01" purity="5.2105212211608887e-01" nType="0">
          <Node pos="l" depth="2" NCoef="0" IVar="4" Cut="9.6978157043457031e+01" cType="1" res="5.9017054736614227e-03" rms="3.0050972104072571e-01" purity="2.6358664035797119e-01" nType="0">
            <Node pos="l" depth="3" NCoef="0" IVar="-1" Cut="0.0000000000000000e+00" cType="1" res="-2.2931590676307678e-02" rms="1.7916244268417358e-01" purity="4.1035741567611694e-02" nType="-99"/>
            <Node pos="r" depth="3" NCoef="0" IVar="-1" Cut="0.0000000000000000e+00" cType="1" res="1.0198988951742649e-02" rms="3.3327680826187134e-01" purity="3.4339627623558044e-01" nType="-99"/>
          </Node>
          <Node pos="r" depth="2" NCoef="0" IVar="10" Cut="6.6619646549224854e-01" cType="1" res="-2.8088944964110851e-03" rms="2.6856228709220886e-01" purity="7.9509407281875610e-01" nType="0">
            <Node pos="l" depth="3" NCoef="0" IVar="-1" Cut="0.0000000000000000e+00" cType="1" res="-1.0297304950654507e-02" rms="2.6339340209960938e-01" purity="8.0132639408111572e-01" nType="-99"/>
            <Node pos="r" depth="3" NCoef="0" IVar="-1" Cut="0.0000000000000000e+00" cType="1" res="1.2743635103106499e-02" rms="2.8275066614151001e-01" purity="7.7679562568664551e-01" nType="-99"/>
          </Node>
        </Node>
        <Node pos="r" depth="1" NCoef="0" IVar="11" Cut="-2.3860797286033630e-01" cType="1" res="-4.6759252436459064e-03" rms="2.8100016713142395e-01" purity="4.6765682101249695e-01" nType="0">
          <Node pos="l" depth="2" NCoef="0" IVar="1" Cut="7.6618708670139313e-02" cType="1" res="-1.0019226931035519e-02" rms="2.8238138556480408e-01" purity="3.3539554476737976e-01" nType="0">
            <Node pos="l" depth="3" NCoef="0" IVar="-1" Cut="0.0000000000000000e+00" cType="1" res="-7.3904199525713921e-03" rms="2.6991182565689087e-01" purity="2.0480932295322418e-01" nType="-99"/>
            <Node pos="r" depth="3" NCoef="0" IVar="-1" Cut="0.0000000000000000e+00" cType="1" res="-2.0737351849675179e-02" rms="3.1162244081497192e-01" purity="6.6815060377120972e-01" nType="-99"/>
          </Node>
          <Node pos="r" depth="2" NCoef="0" IVar="10" Cut="9.3128299713134766e-01" cType="1" res="6.5165776759386063e-03" rms="2.7775174379348755e-01" purity="7.4470180273056030e-01" nType="0">
            <Node pos="l" depth="3" NCoef="0" IVar="-1" Cut="0.0000000000000000e+00" cType="1" res="1.4424148947000504e-02" rms="2.6799261569976807e-01" purity="7.7173960208892822e-01" nType="-99"/>
            <Node pos="r" depth="3" NCoef="0" IVar="-1" Cut="0.0000000000000000e+00" cType="1" res="-9.3439053744077682e-03" rms="3.0733314156532288e-01" purity="6.5525883436203003e-01" nType="-99"/>
          </Node>
        </Node>
      </Node>
    </BinaryTree>
    <BinaryTree type="DecisionTree" boostWeight="1.0000000000000000e+00" itree="608">
      <Node pos="s" depth="0" NCoef="0" IVar="10" Cut="-1.2000539302825928e+00" cType="1" res="-1.0973759926855564e-03" rms="2.8327214717864990e-01" purity="4.9795788526535034e-01" nType="0">
        <Node pos="l" depth="1" NCoef="0" IVar="8" Cut="9.3364971876144409e-01" cType="1" res="9.5882257446646690e-03" rms="2.8663936257362366e-01" purity="3.8117936253547668e-01" nType="0">
          <Node pos="l" depth="2" NCoef="0" IVar="3" Cut="2.7898007202148438e+02" cType="1" res="1.2981237843632698e-02" rms="2.9470306634902954e-01" purity="4.1806465387344360e-01" nType="0">
            <Node pos="l" depth="3" NCoef="0" IVar="-1" Cut="0.0000000000000000e+00" cType="1" res="2.3822300136089325e-02" rms="2.9502847790718079e-01" purity="3.4148120880126953e-01" nType="-99"/>
            <Node pos="r" depth="3" NCoef="0" IVar="-1" Cut="0.0000000000000000e+00" cType="1" res="-7.1471491828560829e-03" rms="2.9286712408065796e-01" purity="6.4576637744903564e-01" nType="-99"/>
          </Node>
          <Node pos="r" depth="2" NCoef="0" IVar="-1" Cut="0.0000000000000000e+00" cType="1" res="-1.3384113088250160e-02" rms="2.3924842476844788e-01" purity="1.8803828954696655e-01" nType="-99"/>
        </Node>
        <Node pos="r" depth="1" NCoef="0" IVar="5" Cut="9.0401306152343750e+01" cType="1" res="-3.2633210066705942e-03" rms="2.8253549337387085e-01" purity="5.2162855863571167e-01" nType="0">
          <Node pos="l" depth="2" NCoef="0" IVar="9" Cut="1.2001340389251709e+00" cType="1" res="-7.6109981164336205e-03" rms="3.0183929204940796e-01" purity="2.8626078367233276e-01" nType="0">
            <Node pos="l" depth="3" NCoef="0" IVar="-1" Cut="0.0000000000000000e+00" cType="1" res="-1.0221523232758045e-02" rms="3.0677872896194458e-01" purity="3.1179323792457581e-01" nType="-99"/>
            <Node pos="r" depth="3" NCoef="0" IVar="-1" Cut="0.0000000000000000e+00" cType="1" res="6.7936698906123638e-03" rms="2.7523410320281982e-01" purity="1.5745288133621216e-01" nType="-99"/>
          </Node>
          <Node pos="r" depth="2" NCoef="0" IVar="10" Cut="1.2750887870788574e+00" cType="1" res="2.7400304097682238e-03" rms="2.5335276126861572e-01" purity="8.4662878513336182e-01" nType="0">
            <Node pos="l" depth="3" NCoef="0" IVar="-1" Cut="0.0000000000000000e+00" cType="1" res="4.3166874093003571e-04" rms="2.4610559642314911e-01" purity="8.6261188983917236e-01" nType="-99"/>
            <Node pos="r" depth="3" NCoef="0" IVar="-1" Cut="0.0000000000000000e+00" cType="1" res="2.2463381290435791e-02" rms="3.0341541767120361e-01" purity="7.2169333696365356e-01" nType="-99"/>
          </Node>
        </Node>
      </Node>
    </BinaryTree>
    <BinaryTree type="DecisionTree" boostWeight="1.0000000000000000e+00" itree="609">
      <Node pos="s" depth="0" NCoef="0" IVar="11" Cut="-1.0666847229003906e+00" cType="1" res="1.4940568944439292e-03" rms="2.8576233983039856e-01" purity="4.9729859828948975e-01" nType="0">
        <Node pos="l" depth="1" NCoef="0" IVar="10" Cut="1.9997279644012451e+00" cType="1" res="6.1209793202579021e-03" rms="2.9383671283721924e-01" purity="3.0921411514282227e-01" nType="0">
          <Node pos="l" depth="2" NCoef="0" IVar="1" Cut="1.0433050990104675e-01" cType="1" res="7.5367735698819160e-03" rms="2.9711627960205078e-01" purity="3.2108920812606812e-01" nType="0">
            <Node pos="l" depth="3" NCoef="0" IVar="-1" Cut="0.0000000000000000e+00" cType="1" res="5.7281558401882648e-03" rms="2.8778925538063049e-01" purity="2.3367489874362946e-01" nType="-99"/>
            <Node pos="r" depth="3" NCoef="0" IVar="-1" Cut="0.0000000000000000e+00" cType="1" res="1.7757948487997055e-02" rms="3.3544561266899109e-01" purity="7.1276813745498657e-01" nType="-99"/>
          </Node>
          <Node pos="r" depth="2" NCoef="0" IVar="-1" Cut="0.0000000000000000e+00" cType="1" res="-2.7814531698822975e-02" rms="2.3218975961208344e-01" purity="1.1403749138116837e-01" nType="-99"/>
        </Node>
        <Node pos="r" depth="1" NCoef="0" IVar="5" Cut="6.8883872985839844e+01" cType="1" res="-4.8205796629190445e-03" rms="2.7423363924026489e-01" purity="7.5398868322372437e-01" nType="0">
          <Node pos="l" depth="2" NCoef="0" IVar="5" Cut="6.2638305664062500e+01" cType="1" res="-2.1161260083317757e-02" rms="3.2706218957901001e-01" purity="3.5401707887649536e-01" nType="0">
            <Node pos="l" depth="3" NCoef="0" IVar="-1" Cut="0.0000000000000000e+00" cType="1" res="-3.1336315441876650e-03" rms="3.2472297549247742e-01" purity="2.8926584124565125e-01" nType="-99"/>
            <Node pos="r" depth="3" NCoef="0" IVar="-1" Cut="0.0000000000000000e+00" cType="1" res="-3.2656103372573853e-02" rms="3.2850542664527893e-01" purity="4.2504212260246277e-01" nType="-99"/>
          </Node>
          <Node pos="r" depth="2" NCoef="0" IVar="11" Cut="1.1428964138031006e+00" cType="1" res="-2.3992687929421663e-03" rms="2.6542747020721436e-01" purity="8.1325531005859375e-01" nType="0">
            <Node pos="l" depth="3" NCoef="0" IVar="-1" Cut="0.0000000000000000e+00" cType="1" res="8.1997388042509556e-04" rms="2.5820976495742798e-01" purity="8.3324098587036133e-01" nType="-99"/>
            <Node pos="r" depth="3" NCoef="0" IVar="-1" Cut="0.0000000000000000e+00" cType="1" res="-1.6422236338257790e-02" rms="2.9220849275588989e-01" purity="7.3335015773773193e-01" nType="-99"/>
          </Node>
        </Node>
      </Node>
    </BinaryTree>
    <BinaryTree type="DecisionTree" boostWeight="1.0000000000000000e+00" itree="610">
      <Node pos="s" depth="0" NCoef="0" IVar="10" Cut="-6.6666191816329956e-01" cType="1" res="3.9089619531296194e-04" rms="2.8501108288764954e-01" purity="4.9965375661849976e-01" nType="0">
        <Node pos="l" depth="1" NCoef="0" IVar="3" Cut="2.7937393188476562e+02" cType="1" res="-7.2307041846215725e-03" rms="2.7649626135826111e-01" purity="4.4519725441932678e-01" nType="0">
          <Node pos="l" depth="2" NCoef="0" IVar="4" Cut="9.4604515075683594e+01" cType="1" res="-1.1043271049857140e-02" rms="2.7240443229675293e-01" purity="3.6022862792015076e-01" nType="0">
            <Node pos="l" depth="3" NCoef="0" IVar="-1" Cut="0.0000000000000000e+00" cType="1" res="2.9751381371170282e-03" rms="1.8926966190338135e-01" purity="5.7813379913568497e-02" nType="-99"/>
            <Node pos="r" depth="3" NCoef="0" IVar="-1" Cut="0.0000000000000000e+00" cType="1" res="-1.5493064187467098e-02" rms="2.9033368825912476e-01" purity="4.4011697173118591e-01" nType="-99"/>
          </Node>
          <Node pos="r" depth="2" NCoef="0" IVar="0" Cut="1.8908575439453125e+03" cType="1" res="3.3219493925571442e-03" rms="2.8725457191467285e-01" purity="6.8037849664688110e-01" nType="0">
            <Node pos="l" depth="3" NCoef="0" IVar="-1" Cut="0.0000000000000000e+00" cType="1" res="1.6015281900763512e-02" rms="3.3120271563529968e-01" purity="4.5329180359840393e-01" nType="-99"/>
            <Node pos="r" depth="3" NCoef="0" IVar="-1" Cut="0.0000000000000000e+00" cType="1" res="-1.1224064975976944e-02" rms="2.4946013092994690e-01" purity="8.4764707088470459e-01" nType="-99"/>
          </Node>
        </Node>
        <Node pos="r" depth="1" NCoef="0" IVar="7" Cut="-3.9033094048500061e-01" cType="1" res="3.6563938483595848e-03" rms="2.8852081298828125e-01" purity="5.2298587560653687e-01" nType="0">
          <Node pos="l" depth="2" NCoef="0" IVar="3" Cut="1.9445184326171875e+02" cType="1" res="1.1782021261751652e-02" rms="2.8459259867668152e-01" purity="4.4472596049308777e-01" nType="0">
            <Node pos="l" depth="3" NCoef="0" IVar="-1" Cut="0.0000000000000000e+00" cType="1" res="1.3354836264625192e-03" rms="2.5342956185340881e-01" purity="2.0387600362300873e-01" nType="-99"/>
            <Node pos="r" depth="3" NCoef="0" IVar="-1" Cut="0.0000000000000000e+00" cType="1" res="2.1098468452692032e-02" rms="3.0306544899940491e-01" purity="6.0252231359481812e-01" nType="-99"/>
          </Node>
          <Node pos="r" depth="2" NCoef="0" IVar="6" Cut="1.5795381546020508e+01" cType="1" res="2.1917646517977118e-04" rms="2.9009798169136047e-01" purity="5.5609053373336792e-01" nType="0">
            <Node pos="l" depth="3" NCoef="0" IVar="-1" Cut="0.0000000000000000e+00" cType="1" res="6.0484949499368668e-03" rms="3.1167319416999817e-01" purity="2.7546232938766479e-01" nType="-99"/>
            <Node pos="r" depth="3" NCoef="0" IVar="-1" Cut="0.0000000000000000e+00" cType="1" res="-5.8942856267094612e-03" rms="2.7107197046279907e-01" purity="7.8583174943923950e-01" nType="-99"/>
          </Node>
        </Node>
      </Node>
    </BinaryTree>
    <BinaryTree type="DecisionTree" boostWeight="1.0000000000000000e+00" itree="611">
      <Node pos="s" depth="0" NCoef="0" IVar="2" Cut="7.4323168945312500e+02" cType="1" res="5.1318935584276915e-04" rms="2.8562194108963013e-01" purity="5.0101757049560547e-01" nType="0">
        <Node pos="l" depth="1" NCoef="0" IVar="8" Cut="1.7332822084426880e+00" cType="1" res="1.0756296105682850e-03" rms="2.8375607728958130e-01" purity="4.9948015809059143e-01" nType="0">
          <Node pos="l" depth="2" NCoef="0" IVar="4" Cut="8.0381881713867188e+01" cType="1" res="4.0937858284451067e-04" rms="2.8721931576728821e-01" purity="5.1944804191589355e-01" nType="0">
            <Node pos="l" depth="3" NCoef="0" IVar="-1" Cut="0.0000000000000000e+00" cType="1" res="3.5306114703416824e-02" rms="2.0897132158279419e-01" purity="5.4919753223657608e-02" nType="-99"/>
            <Node pos="r" depth="3" NCoef="0" IVar="-1" Cut="0.0000000000000000e+00" cType="1" res="-5.2595115266740322e-04" rms="2.9223066568374634e-01" purity="5.5432081222534180e-01" nType="-99"/>
          </Node>
          <Node pos="r" depth="2" NCoef="0" IVar="-1" Cut="0.0000000000000000e+00" cType="1" res="3.2396283000707626e-02" rms="2.0439423620700836e-01" purity="1.1007422208786011e-01" nType="-99"/>
        </Node>
        <Node pos="r" depth="1" NCoef="0" IVar="-1" Cut="0.0000000000000000e+00" cType="1" res="-1.6549905762076378e-02" rms="3.4304419159889221e-01" purity="5.5381381511688232e-01" nType="-99"/>
      </Node>
    </BinaryTree>
    <BinaryTree type="DecisionTree" boostWeight="1.0000000000000000e+00" itree="612">
      <Node pos="s" depth="0" NCoef="0" IVar="4" Cut="9.6978157043457031e+01" cType="1" res="-1.1102199787274003e-03" rms="2.8267332911491394e-01" purity="5.0019747018814087e-01" nType="0">
        <Node pos="l" depth="1" NCoef="0" IVar="1" Cut="3.7081208080053329e-02" cType="1" res="-1.1589527130126953e-02" rms="1.9622488319873810e-01" purity="5.9817191213369370e-02" nType="0">
          <Node pos="l" depth="2" NCoef="0" IVar="10" Cut="-3.9991906285285950e-01" cType="1" res="-3.4456588327884674e-03" rms="1.5808643400669098e-01" purity="3.2640617340803146e-02" nType="0">
            <Node pos="l" depth="3" NCoef="0" IVar="-1" Cut="0.0000000000000000e+00" cType="1" res="2.2414391860365868e-02" rms="1.7312881350517273e-01" purity="4.1668262332677841e-02" nType="-99"/>
            <Node pos="r" depth="3" NCoef="0" IVar="-1" Cut="0.0000000000000000e+00" cType="1" res="-3.7147775292396545e-02" rms="1.4546185731887817e-01" purity="2.5906523689627647e-02" nType="-99"/>
          </Node>
          <Node pos="r" depth="2" NCoef="0" IVar="-1" Cut="0.0000000000000000e+00" cType="1" res="-3.3678676933050156e-02" rms="2.5251907110214233e-01" purity="1.1135510355234146e-01" nType="-99"/>
        </Node>
        <Node pos="r" depth="1" NCoef="0" IVar="1" Cut="1.2722487747669220e-01" cType="1" res="7.9284724779427052e-04" rms="2.9563316702842712e-01" purity="5.8017158508300781e-01" nType="0">
          <Node pos="l" depth="2" NCoef="0" IVar="9" Cut="1.3296131789684296e-01" cType="1" res="2.9836823232471943e-03" rms="3.0753302574157715e-01" purity="4.8954761028289795e-01" nType="0">
            <Node pos="l" depth="3" NCoef="0" IVar="-1" Cut="0.0000000000000000e+00" cType="1" res="-1.8272753804922104e-03" rms="3.0520746111869812e-01" purity="4.9450528621673584e-01" nType="-99"/>
            <Node pos="r" depth="3" NCoef="0" IVar="-1" Cut="0.0000000000000000e+00" cType="1" res="9.0889940038323402e-03" rms="3.1028696894645691e-01" purity="4.8340767621994019e-01" nType="-99"/>
          </Node>
          <Node pos="r" depth="2" NCoef="0" IVar="0" Cut="1.5448125000000000e+03" cType="1" res="-6.4430227503180504e-03" rms="2.5223943591117859e-01" purity="8.7948346138000488e-01" nType="0">
            <Node pos="l" depth="3" NCoef="0" IVar="-1" Cut="0.0000000000000000e+00" cType="1" res="-1.5680398792028427e-02" rms="3.6887627840042114e-01" purity="7.0377206802368164e-01" nType="-99"/>
            <Node pos="r" depth="3" NCoef="0" IVar="-1" Cut="0.0000000000000000e+00" cType="1" res="1.1487748706713319e-03" rms="1.7002943158149719e-01" purity="9.6333664655685425e-01" nType="-99"/>
          </Node>
        </Node>
      </Node>
    </BinaryTree>
    <BinaryTree type="DecisionTree" boostWeight="1.0000000000000000e+00" itree="613">
      <Node pos="s" depth="0" NCoef="0" IVar="8" Cut="-1.3315293192863464e-01" cType="1" res="-1.6656190855428576e-03" rms="2.8552913665771484e-01" purity="4.9766278266906738e-01" nType="0">
        <Node pos="l" depth="1" NCoef="0" IVar="0" Cut="1.0875465087890625e+03" cType="1" res="-7.9869572073221207e-03" rms="2.8209093213081360e-01" purity="4.6559792757034302e-01" nType="0">
          <Node pos="l" depth="2" NCoef="0" IVar="-1" Cut="0.0000000000000000e+00" cType="1" res="1.5389829874038696e-02" rms="1.9757969677448273e-01" purity="4.6824876219034195e-02" nType="-99"/>
          <Node pos="r" depth="2" NCoef="0" IVar="11" Cut="1.1426275968551636e+00" cType="1" res="-1.0492277331650257e-02" rms="2.9514262080192566e-01" purity="5.4383844137191772e-01" nType="0">
            <Node pos="l" depth="3" NCoef="0" IVar="-1" Cut="0.0000000000000000e+00" cType="1" res="-8.9039215818047523e-03" rms="2.9436531662940979e-01" purity="5.3537201881408691e-01" nType="-99"/>
            <Node pos="r" depth="3" NCoef="0" IVar="-1" Cut="0.0000000000000000e+00" cType="1" res="-3.8036562502384186e-02" rms="3.0216139554977417e-01" purity="6.3744962215423584e-01" nType="-99"/>
          </Node>
        </Node>
        <Node pos="r" depth="1" NCoef="0" IVar="9" Cut="3.9944377541542053e-01" cType="1" res="3.4581415820866823e-03" rms="2.8818413615226746e-01" purity="5.2365297079086304e-01" nType="0">
          <Node pos="l" depth="2" NCoef="0" IVar="5" Cut="9.9786918640136719e+01" cType="1" res="9.1211311519145966e-03" rms="2.8658956289291382e-01" purity="5.5884432792663574e-01" nType="0">
            <Node pos="l" depth="3" NCoef="0" IVar="-1" Cut="0.0000000000000000e+00" cType="1" res="1.3842298649251461e-02" rms="3.1324258446693420e-01" purity="3.8550695776939392e-01" nType="-99"/>
            <Node pos="r" depth="3" NCoef="0" IVar="-1" Cut="0.0000000000000000e+00" cType="1" res="1.1198784923180938e-03" rms="2.2774021327495575e-01" purity="8.8581424951553345e-01" nType="-99"/>
          </Node>
          <Node pos="r" depth="2" NCoef="0" IVar="8" Cut="2.8592836856842041e-01" cType="1" res="-5.8392174541950226e-03" rms="2.9054385423660278e-01" purity="4.6587660908699036e-01" nType="0">
            <Node pos="l" depth="3" NCoef="0" IVar="-1" Cut="0.0000000000000000e+00" cType="1" res="1.0783319361507893e-02" rms="3.0505093932151794e-01" purity="6.2330752611160278e-01" nType="-99"/>
            <Node pos="r" depth="3" NCoef="0" IVar="-1" Cut="0.0000000000000000e+00" cType="1" res="-1.4170642942190170e-02" rms="2.8437581658363342e-01" purity="4.0363228321075439e-01" nType="-99"/>
          </Node>
        </Node>
      </Node>
    </BinaryTree>
    <BinaryTree type="DecisionTree" boostWeight="1.0000000000000000e+00" itree="614">
      <Node pos="s" depth="0" NCoef="0" IVar="8" Cut="9.3338578939437866e-01" cType="1" res="8.1110466271638870e-04" rms="2.8638154268264771e-01" purity="4.9715176224708557e-01" nType="0">
        <Node pos="l" depth="1" NCoef="0" IVar="2" Cut="6.8690637207031250e+02" cType="1" res="-1.0078491177409887e-03" rms="2.8782013058662415e-01" purity="5.3826665878295898e-01" nType="0">
          <Node pos="l" depth="2" NCoef="0" IVar="7" Cut="1.4981210231781006e-01" cType="1" res="-1.9141660304740071e-03" rms="2.8528082370758057e-01" purity="5.3420561552047729e-01" nType="0">
            <Node pos="l" depth="3" NCoef="0" IVar="-1" Cut="0.0000000000000000e+00" cType="1" res="-6.3569447956979275e-03" rms="2.8291612863540649e-01" purity="5.5015009641647339e-01" nType="-99"/>
            <Node pos="r" depth="3" NCoef="0" IVar="-1" Cut="0.0000000000000000e+00" cType="1" res="3.4116229508072138e-03" rms="2.8849038481712341e-01" purity="5.1188188791275024e-01" nType="-99"/>
          </Node>
          <Node pos="r" depth="2" NCoef="0" IVar="-1" Cut="0.0000000000000000e+00" cType="1" res="1.5433544293045998e-02" rms="3.3498883247375488e-01" purity="6.2124985456466675e-01" nType="-99"/>
        </Node>
        <Node pos="r" depth="1" NCoef="0" IVar="1" Cut="3.3976182341575623e-02" cType="1" res="9.8273586481809616e-03" rms="2.7896624803543091e-01" purity="2.9335209727287292e-01" nType="0">
          <Node pos="l" depth="2" NCoef="0" IVar="10" Cut="-3.9955687522888184e-01" cType="1" res="-3.5180619452148676e-03" rms="2.1882037818431854e-01" purity="9.8821707069873810e-02" nType="0">
            <Node pos="l" depth="3" NCoef="0" IVar="-1" Cut="0.0000000000000000e+00" cType="1" res="-5.2994254976511002e-02" rms="1.7382065951824188e-01" purity="6.7573145031929016e-02" nType="-99"/>
            <Node pos="r" depth="3" NCoef="0" IVar="-1" Cut="0.0000000000000000e+00" cType="1" res="1.1337688192725182e-02" rms="2.3759250342845917e-01" purity="1.1445358395576477e-01" nType="-99"/>
          </Node>
          <Node pos="r" depth="2" NCoef="0" IVar="0" Cut="1.5125832519531250e+03" cType="1" res="2.5063019245862961e-02" rms="3.3401674032211304e-01" purity="5.1543563604354858e-01" nType="0">
            <Node pos="l" depth="3" NCoef="0" IVar="-1" Cut="0.0000000000000000e+00" cType="1" res="2.9476763680577278e-02" rms="3.5700470209121704e-01" purity="3.0922693014144897e-01" nType="-99"/>
            <Node pos="r" depth="3" NCoef="0" IVar="-1" Cut="0.0000000000000000e+00" cType="1" res="1.0734815150499344e-02" rms="2.9795148968696594e-01" purity="8.0660176277160645e-01" nType="-99"/>
          </Node>
        </Node>
      </Node>
    </BinaryTree>
    <BinaryTree type="DecisionTree" boostWeight="1.0000000000000000e+00" itree="615">
      <Node pos="s" depth="0" NCoef="0" IVar="9" Cut="-4.0008044242858887e-01" cType="1" res="-8.7300175800919533e-04" rms="2.8532657027244568e-01" purity="4.9980321526527405e-01" nType="0">
        <Node pos="l" depth="1" NCoef="0" IVar="1" Cut="2.0487677305936813e-02" cType="1" res="4.4276202097535133e-03" rms="2.9037964344024658e-01" purity="4.5266148447990417e-01" nType="0">
          <Node pos="l" depth="2" NCoef="0" IVar="1" Cut="1.1719476431608200e-02" cType="1" res="-7.3016793467104435e-03" rms="2.0897288620471954e-01" purity="8.7701894342899323e-02" nType="0">
            <Node pos="l" depth="3" NCoef="0" IVar="-1" Cut="0.0000000000000000e+00" cType="1" res="7.8685274347662926e-03" rms="2.0183716714382172e-01" purity="7.0044316351413727e-02" nType="-99"/>
            <Node pos="r" depth="3" NCoef="0" IVar="-1" Cut="0.0000000000000000e+00" cType="1" res="-3.6601178348064423e-02" rms="2.1796709299087524e-01" purity="1.1308125406503677e-01" nType="-99"/>
          </Node>
          <Node pos="r" depth="2" NCoef="0" IVar="4" Cut="1.4162942504882812e+02" cType="1" res="8.4546292200684547e-03" rms="3.1339025497436523e-01" purity="5.7796275615692139e-01" nType="0">
            <Node pos="l" depth="3" NCoef="0" IVar="-1" Cut="0.0000000000000000e+00" cType="1" res="2.0983265712857246e-02" rms="3.3191213011741638e-01" purity="3.1531599164009094e-01" nType="-99"/>
            <Node pos="r" depth="3" NCoef="0" IVar="-1" Cut="0.0000000000000000e+00" cType="1" res="-2.3005493858363479e-04" rms="3.0045479536056519e-01" purity="7.4825471639633179e-01" nType="-99"/>
          </Node>
        </Node>
        <Node pos="r" depth="1" NCoef="0" IVar="11" Cut="-1.8952757120132446e+00" cType="1" res="-3.8108373992145061e-03" rms="2.8244417905807495e-01" purity="5.2593117952346802e-01" nType="0">
          <Node pos="l" depth="2" NCoef="0" IVar="7" Cut="-1.1750227212905884e+00" cType="1" res="-9.6907904371619225e-03" rms="2.9211255908012390e-01" purity="2.5544586777687073e-01" nType="0">
            <Node pos="l" depth="3" NCoef="0" IVar="-1" Cut="0.0000000000000000e+00" cType="1" res="5.8935970067977905e-02" rms="2.1137335896492004e-01" purity="7.5150415301322937e-02" nType="-99"/>
            <Node pos="r" depth="3" NCoef="0" IVar="-1" Cut="0.0000000000000000e+00" cType="1" res="-1.4263059012591839e-02" rms="3.0074933171272278e-01" purity="2.7871495485305786e-01" nType="-99"/>
          </Node>
          <Node pos="r" depth="2" NCoef="0" IVar="5" Cut="7.0262008666992188e+01" cType="1" res="1.6676257364451885e-03" rms="2.7301421761512756e-01" purity="7.7794742584228516e-01" nType="0">
            <Node pos="l" depth="3" NCoef="0" IVar="-1" Cut="0.0000000000000000e+00" cType="1" res="2.0254502072930336e-02" rms="3.5498717427253723e-01" purity="4.1655224561691284e-01" nType="-99"/>
            <Node pos="r" depth="3" NCoef="0" IVar="-1" Cut="0.0000000000000000e+00" cType="1" res="-3.2997678499668837e-03" rms="2.5628879666328430e-01" purity="8.3935672044754028e-01" nType="-99"/>
          </Node>
        </Node>
      </Node>
    </BinaryTree>
    <BinaryTree type="DecisionTree" boostWeight="1.0000000000000000e+00" itree="616">
      <Node pos="s" depth="0" NCoef="0" IVar="7" Cut="9.4434237480163574e-01" cType="1" res="6.0370750725269318e-03" rms="2.8439399600028992e-01" purity="5.0835794210433960e-01" nType="0">
        <Node pos="l" depth="1" NCoef="0" IVar="2" Cut="6.7411932373046875e+02" cType="1" res="7.8165037557482719e-03" rms="2.9118406772613525e-01" purity="5.5881583690643311e-01" nType="0">
          <Node pos="l" depth="2" NCoef="0" IVar="7" Cut="-1.5284541845321655e+00" cType="1" res="8.7686507031321526e-03" rms="2.8934174776077271e-01" purity="5.5631208419799805e-01" nType="0">
            <Node pos="l" depth="3" NCoef="0" IVar="-1" Cut="0.0000000000000000e+00" cType="1" res="-1.8650444224476814e-02" rms="1.7469374835491180e-01" purity="8.0757535994052887e-02" nType="-99"/>
            <Node pos="r" depth="3" NCoef="0" IVar="-1" Cut="0.0000000000000000e+00" cType="1" res="1.1118155904114246e-02" rms="2.9586929082870483e-01" purity="5.9063440561294556e-01" nType="-99"/>
          </Node>
          <Node pos="r" depth="2" NCoef="0" IVar="-1" Cut="0.0000000000000000e+00" cType="1" res="-9.5616271719336510e-03" rms="3.2312923669815063e-01" purity="6.0553550720214844e-01" nType="-99"/>
        </Node>
        <Node pos="r" depth="1" NCoef="0" IVar="1" Cut="5.0230670720338821e-02" cType="1" res="-4.1830553673207760e-03" rms="2.4147571623325348e-01" purity="2.1855400502681732e-01" nType="0">
          <Node pos="l" depth="2" NCoef="0" IVar="11" Cut="-1.3430241346359253e+00" cType="1" res="-4.1305864579044282e-04" rms="2.1126806735992432e-01" purity="1.1298543214797974e-01" nType="0">
            <Node pos="l" depth="3" NCoef="0" IVar="-1" Cut="0.0000000000000000e+00" cType="1" res="-1.9726695492863655e-02" rms="1.6760502755641937e-01" purity="4.4338054955005646e-02" nType="-99"/>
            <Node pos="r" depth="3" NCoef="0" IVar="-1" Cut="0.0000000000000000e+00" cType="1" res="1.6565160825848579e-02" rms="2.9905599355697632e-01" purity="3.0049827694892883e-01" nType="-99"/>
          </Node>
          <Node pos="r" depth="2" NCoef="0" IVar="-1" Cut="0.0000000000000000e+00" cType="1" res="-1.6276149079203606e-02" rms="3.2546502351760864e-01" purity="5.8783924579620361e-01" nType="-99"/>
        </Node>
      </Node>
    </BinaryTree>
    <BinaryTree type="DecisionTree" boostWeight="1.0000000000000000e+00" itree="617">
      <Node pos="s" depth="0" NCoef="0" IVar="8" Cut="-6.6620290279388428e-01" cType="1" res="8.1223819870501757e-04" rms="2.8451088070869446e-01" purity="5.0235438346862793e-01" nType="0">
        <Node pos="l" depth="1" NCoef="0" IVar="8" Cut="-7.6777887344360352e-01" cType="1" res="6.8952096626162529e-03" rms="2.7853947877883911e-01" purity="3.6686733365058899e-01" nType="0">
          <Node pos="l" depth="2" NCoef="0" IVar="4" Cut="1.2378018951416016e+02" cType="1" res="3.2083261758089066e-03" rms="2.7185603976249695e-01" purity="3.3660420775413513e-01" nType="0">
            <Node pos="l" depth="3" NCoef="0" IVar="-1" Cut="0.0000000000000000e+00" cType="1" res="-1.5057002194225788e-02" rms="2.1466049551963806e-01" purity="8.1858478486537933e-02" nType="-99"/>
            <Node pos="r" depth="3" NCoef="0" IVar="-1" Cut="0.0000000000000000e+00" cType="1" res="1.0791924782097340e-02" rms="3.0461731553077698e-01" purity="5.1071727275848389e-01" nType="-99"/>
          </Node>
          <Node pos="r" depth="2" NCoef="0" IVar="-1" Cut="0.0000000000000000e+00" cType="1" res="3.1575929373502731e-02" rms="3.1935796141624451e-01" purity="5.7363355159759521e-01" nType="-99"/>
        </Node>
        <Node pos="r" depth="1" NCoef="0" IVar="3" Cut="2.9044610595703125e+02" cType="1" res="-1.1908109299838543e-03" rms="2.8642168641090393e-01" purity="5.4696863889694214e-01" nType="0">
          <Node pos="l" depth="2" NCoef="0" IVar="10" Cut="-1.9998604059219360e+00" cType="1" res="1.8593408167362213e-03" rms="2.9185083508491516e-01" purity="4.7296360135078430e-01" nType="0">
            <Node pos="l" depth="3" NCoef="0" IVar="-1" Cut="0.0000000000000000e+00" cType="1" res="-4.1555780917406082e-02" rms="2.4996027350425720e-01" purity="1.8159089982509613e-01" nType="-99"/>
            <Node pos="r" depth="3" NCoef="0" IVar="-1" Cut="0.0000000000000000e+00" cType="1" res="4.0355441160500050e-03" rms="2.9375696182250977e-01" purity="4.8799285292625427e-01" nType="-99"/>
          </Node>
          <Node pos="r" depth="2" NCoef="0" IVar="0" Cut="1.6611760253906250e+03" cType="1" res="-9.6003757789731026e-03" rms="2.7071201801300049e-01" purity="7.5100767612457275e-01" nType="0">
            <Node pos="l" depth="3" NCoef="0" IVar="-1" Cut="0.0000000000000000e+00" cType="1" res="-2.5095304474234581e-02" rms="3.2754561305046082e-01" purity="2.9848942160606384e-01" nType="-99"/>
            <Node pos="r" depth="3" NCoef="0" IVar="-1" Cut="0.0000000000000000e+00" cType="1" res="-7.9071111977100372e-03" rms="2.5758177042007446e-01" purity="8.4191220998764038e-01" nType="-99"/>
          </Node>
        </Node>
      </Node>
    </BinaryTree>
    <BinaryTree type="DecisionTree" boostWeight="1.0000000000000000e+00" itree="618">
      <Node pos="s" depth="0" NCoef="0" IVar="10" Cut="-6.6667926311492920e-01" cType="1" res="-1.4937048545107245e-03" rms="2.8364276885986328e-01" purity="4.9731633067131042e-01" nType="0">
        <Node pos="l" depth="1" NCoef="0" IVar="8" Cut="-9.3306827545166016e-01" cType="1" res="6.3393432646989822e-03" rms="2.8245893120765686e-01" purity="4.5299282670021057e-01" nType="0">
          <Node pos="l" depth="2" NCoef="0" IVar="9" Cut="-1.3232485949993134e-01" cType="1" res="-7.4804564937949181e-03" rms="2.4929314851760864e-01" purity="2.2778348624706268e-01" nType="0">
            <Node pos="l" depth="3" NCoef="0" IVar="-1" Cut="0.0000000000000000e+00" cType="1" res="-2.2882137447595596e-02" rms="2.3909576237201691e-01" purity="2.0067888498306274e-01" nType="-99"/>
            <Node pos="r" depth="3" NCoef="0" IVar="-1" Cut="0.0000000000000000e+00" cType="1" res="3.5534754861146212e-03" rms="2.6153427362442017e-01" purity="2.6276293396949768e-01" nType="-99"/>
          </Node>
          <Node pos="r" depth="2" NCoef="0" IVar="8" Cut="4.8904684185981750e-01" cType="1" res="1.0200226679444313e-02" rms="2.9093265533447266e-01" purity="5.1591032743453979e-01" nType="0">
            <Node pos="l" depth="3" NCoef="0" IVar="-1" Cut="0.0000000000000000e+00" cType="1" res="1.8814809620380402e-02" rms="2.9332563281059265e-01" purity="5.9343409538269043e-01" nType="-99"/>
            <Node pos="r" depth="3" NCoef="0" IVar="-1" Cut="0.0000000000000000e+00" cType="1" res="-4.0913992561399937e-03" rms="2.8516569733619690e-01" purity="3.4626877307891846e-01" nType="-99"/>
          </Node>
        </Node>
        <Node pos="r" depth="1" NCoef="0" IVar="0" Cut="1.6847073974609375e+03" cType="1" res="-4.9035460688173771e-03" rms="2.8408911824226379e-01" purity="5.1661103963851929e-01" nType="0">
          <Node pos="l" depth="2" NCoef="0" IVar="2" Cut="5.0638430786132812e+02" cType="1" res="-9.6036214381456375e-03" rms="3.0236417055130005e-01" purity="3.2546609640121460e-01" nType="0">
            <Node pos="l" depth="3" NCoef="0" IVar="-1" Cut="0.0000000000000000e+00" cType="1" res="-8.2761356607079506e-03" rms="3.0529218912124634e-01" purity="3.3980974555015564e-01" nType="-99"/>
            <Node pos="r" depth="3" NCoef="0" IVar="-1" Cut="0.0000000000000000e+00" cType="1" res="-3.8041960448026657e-02" rms="2.5481188297271729e-01" purity="1.1664305627346039e-01" nType="-99"/>
          </Node>
          <Node pos="r" depth="2" NCoef="0" IVar="4" Cut="1.4568955993652344e+02" cType="1" res="3.4329537302255630e-03" rms="2.4817016720771790e-01" purity="8.5564374923706055e-01" nType="0">
            <Node pos="l" depth="3" NCoef="0" IVar="-1" Cut="0.0000000000000000e+00" cType="1" res="2.1708069369196892e-02" rms="3.4698444604873657e-01" purity="5.9989875555038452e-01" nType="-99"/>
            <Node pos="r" depth="3" NCoef="0" IVar="-1" Cut="0.0000000000000000e+00" cType="1" res="1.9591310992836952e-03" rms="2.3378399014472961e-01" purity="8.8557261228561401e-01" nType="-99"/>
          </Node>
        </Node>
      </Node>
    </BinaryTree>
    <BinaryTree type="DecisionTree" boostWeight="1.0000000000000000e+00" itree="619">
      <Node pos="s" depth="0" NCoef="0" IVar="10" Cut="-1.3302242755889893e-01" cType="1" res="-1.0284343734383583e-03" rms="2.8471270203590393e-01" purity="4.9515199661254883e-01" nType="0">
        <Node pos="l" depth="1" NCoef="0" IVar="10" Cut="-2.0375552177429199e+00" cType="1" res="-5.4748584516346455e-03" rms="2.8227937221527100e-01" purity="4.7424080967903137e-01" nType="0">
          <Node pos="l" depth="2" NCoef="0" IVar="-1" Cut="0.0000000000000000e+00" cType="1" res="1.2055444531142712e-02" rms="2.9436698555946350e-01" purity="2.2580012679100037e-01" nType="-99"/>
          <Node pos="r" depth="2" NCoef="0" IVar="10" Cut="-1.5840750932693481e+00" cType="1" res="-7.1578361093997955e-03" rms="2.8082820773124695e-01" purity="5.0237447023391724e-01" nType="0">
            <Node pos="l" depth="3" NCoef="0" IVar="-1" Cut="0.0000000000000000e+00" cType="1" res="-3.3506158739328384e-02" rms="2.6542699337005615e-01" purity="3.3876013755798340e-01" nType="-99"/>
            <Node pos="r" depth="3" NCoef="0" IVar="-1" Cut="0.0000000000000000e+00" cType="1" res="-5.2232383750379086e-03" rms="2.8278207778930664e-01" purity="5.2505081892013550e-01" nType="-99"/>
          </Node>
        </Node>
        <Node pos="r" depth="1" NCoef="0" IVar="7" Cut="-5.8595138788223267e-01" cType="1" res="2.7611649129539728e-03" rms="2.8671586513519287e-01" purity="5.1297414302825928e-01" nType="0">
          <Node pos="l" depth="2" NCoef="0" IVar="7" Cut="-1.3793669939041138e+00" cType="1" res="-8.5692843422293663e-03" rms="2.6935181021690369e-01" purity="3.5651630163192749e-01" nType="0">
            <Node pos="l" depth="3" NCoef="0" IVar="-1" Cut="0.0000000000000000e+00" cType="1" res="2.0728562027215958e-02" rms="2.1526052057743073e-01" purity="1.4393988251686096e-01" nType="-99"/>
            <Node pos="r" depth="3" NCoef="0" IVar="-1" Cut="0.0000000000000000e+00" cType="1" res="-1.7786256968975067e-02" rms="2.8673535585403442e-01" purity="4.3629306554794312e-01" nType="-99"/>
          </Node>
          <Node pos="r" depth="2" NCoef="0" IVar="0" Cut="1.6625192871093750e+03" cType="1" res="5.9799281880259514e-03" rms="2.9137969017028809e-01" purity="5.5742079019546509e-01" nType="0">
            <Node pos="l" depth="3" NCoef="0" IVar="-1" Cut="0.0000000000000000e+00" cType="1" res="1.1234764941036701e-02" rms="3.1779006123542786e-01" purity="3.6256572604179382e-01" nType="-99"/>
            <Node pos="r" depth="3" NCoef="0" IVar="-1" Cut="0.0000000000000000e+00" cType="1" res="-4.0351185016334057e-03" rms="2.4458077549934387e-01" purity="8.5977846384048462e-01" nType="-99"/>
          </Node>
        </Node>
      </Node>
    </BinaryTree>
    <BinaryTree type="DecisionTree" boostWeight="1.0000000000000000e+00" itree="620">
      <Node pos="s" depth="0" NCoef="0" IVar="2" Cut="3.1450170898437500e+02" cType="1" res="1.2758926022797823e-03" rms="2.8571316599845886e-01" purity="5.0496447086334229e-01" nType="0">
        <Node pos="l" depth="1" NCoef="0" IVar="7" Cut="1.2228853702545166e+00" cType="1" res="5.7398462668061256e-03" rms="2.8857964277267456e-01" purity="4.2599415779113770e-01" nType="0">
          <Node pos="l" depth="2" NCoef="0" IVar="10" Cut="-1.3299815356731415e-01" cType="1" res="3.8337279111146927e-03" rms="2.9424688220024109e-01" purity="4.5783650875091553e-01" nType="0">
            <Node pos="l" depth="3" NCoef="0" IVar="-1" Cut="0.0000000000000000e+00" cType="1" res="-4.7952728345990181e-03" rms="2.9348322749137878e-01" purity="4.2703485488891602e-01" nType="-99"/>
            <Node pos="r" depth="3" NCoef="0" IVar="-1" Cut="0.0000000000000000e+00" cType="1" res="1.2159757316112518e-02" rms="2.9472237825393677e-01" purity="4.8408010601997375e-01" nType="-99"/>
          </Node>
          <Node pos="r" depth="2" NCoef="0" IVar="-1" Cut="0.0000000000000000e+00" cType="1" res="3.7461183965206146e-02" rms="2.4159689247608185e-01" purity="1.8807800114154816e-01" nType="-99"/>
        </Node>
        <Node pos="r" depth="1" NCoef="0" IVar="8" Cut="9.3320280313491821e-01" cType="1" res="-1.6194942872971296e-03" rms="2.8380087018013000e-01" purity="5.5618578195571899e-01" nType="0">
          <Node pos="l" depth="2" NCoef="0" IVar="10" Cut="1.7329019308090210e+00" cType="1" res="3.1157158082351089e-04" rms="2.8683161735534668e-01" purity="6.0154145956039429e-01" nType="0">
            <Node pos="l" depth="3" NCoef="0" IVar="-1" Cut="0.0000000000000000e+00" cType="1" res="1.9370942609384656e-03" rms="2.8596761822700500e-01" purity="6.1830776929855347e-01" nType="-99"/>
            <Node pos="r" depth="3" NCoef="0" IVar="-1" Cut="0.0000000000000000e+00" cType="1" res="-2.0742321386933327e-02" rms="2.9879948496818542e-01" purity="3.5033938288688660e-01" nType="-99"/>
          </Node>
          <Node pos="r" depth="2" NCoef="0" IVar="8" Cut="1.3776431083679199e+00" cType="1" res="-1.2125778011977673e-02" rms="2.6646381616592407e-01" purity="3.0942073464393616e-01" nType="0">
            <Node pos="l" depth="3" NCoef="0" IVar="-1" Cut="0.0000000000000000e+00" cType="1" res="-2.6416143402457237e-02" rms="2.8606757521629333e-01" purity="4.2512351274490356e-01" nType="-99"/>
            <Node pos="r" depth="3" NCoef="0" IVar="-1" Cut="0.0000000000000000e+00" cType="1" res="1.4670217642560601e-03" rms="2.4323238432407379e-01" purity="1.8643926084041595e-01" nType="-99"/>
          </Node>
        </Node>
      </Node>
    </BinaryTree>
    <BinaryTree type="DecisionTree" boostWeight="1.0000000000000000e+00" itree="621">
      <Node pos="s" depth="0" NCoef="0" IVar="8" Cut="-9.3320673704147339e-01" cType="1" res="9.8553986754268408e-04" rms="2.8486049175262451e-01" purity="4.9871155619621277e-01" nType="0">
        <Node pos="l" depth="1" NCoef="0" IVar="9" Cut="-9.3464368581771851e-01" cType="1" res="9.1594867408275604e-03" rms="2.6817530393600464e-01" purity="2.8786832094192505e-01" nType="0">
          <Node pos="l" depth="2" NCoef="0" IVar="-1" Cut="0.0000000000000000e+00" cType="1" res="-7.1416730061173439e-03" rms="2.4897164106369019e-01" purity="1.8922546505928040e-01" nType="-99"/>
          <Node pos="r" depth="2" NCoef="0" IVar="10" Cut="-1.3407163321971893e-01" cType="1" res="1.4417130500078201e-02" rms="2.7493330836296082e-01" purity="3.2532232999801636e-01" nType="0">
            <Node pos="l" depth="3" NCoef="0" IVar="-1" Cut="0.0000000000000000e+00" cType="1" res="3.3239662647247314e-02" rms="2.8215920925140381e-01" purity="3.3462759852409363e-01" nType="-99"/>
            <Node pos="r" depth="3" NCoef="0" IVar="-1" Cut="0.0000000000000000e+00" cType="1" res="3.1343619339168072e-03" rms="2.6593497395515442e-01" purity="3.1470292806625366e-01" nType="-99"/>
          </Node>
        </Node>
        <Node pos="r" depth="1" NCoef="0" IVar="4" Cut="1.4568482971191406e+02" cType="1" res="-7.3842419078573585e-04" rms="2.8822666406631470e-01" purity="5.4318040609359741e-01" nType="0">
          <Node pos="l" depth="2" NCoef="0" IVar="4" Cut="1.2320758819580078e+02" cType="1" res="-4.8736967146396637e-03" rms="2.9380178451538086e-01" purity="2.4871823191642761e-01" nType="0">
            <Node pos="l" depth="3" NCoef="0" IVar="-1" Cut="0.0000000000000000e+00" cType="1" res="3.1580636277794838e-03" rms="2.7922797203063965e-01" purity="1.6913554072380066e-01" nType="-99"/>
            <Node pos="r" depth="3" NCoef="0" IVar="-1" Cut="0.0000000000000000e+00" cType="1" res="-1.8909735605120659e-02" rms="3.2389751076698303e-01" purity="4.2965945601463318e-01" nType="-99"/>
          </Node>
          <Node pos="r" depth="2" NCoef="0" IVar="4" Cut="1.8839175415039062e+02" cType="1" res="2.1832752972841263e-03" rms="2.8418546915054321e-01" purity="7.5122714042663574e-01" nType="0">
            <Node pos="l" depth="3" NCoef="0" IVar="-1" Cut="0.0000000000000000e+00" cType="1" res="7.5776604935526848e-03" rms="3.1182557344436646e-01" purity="6.4486962556838989e-01" nType="-99"/>
            <Node pos="r" depth="3" NCoef="0" IVar="-1" Cut="0.0000000000000000e+00" cType="1" res="-2.1664618980139494e-03" rms="2.6378527283668518e-01" purity="8.2317668199539185e-01" nType="-99"/>
          </Node>
        </Node>
      </Node>
    </BinaryTree>
    <BinaryTree type="DecisionTree" boostWeight="1.0000000000000000e+00" itree="622">
      <Node pos="s" depth="0" NCoef="0" IVar="10" Cut="2.2664566040039062e+00" cType="1" res="-4.3608804116956890e-04" rms="2.8577512502670288e-01" purity="5.0373947620391846e-01" nType="0">
        <Node pos="l" depth="1" NCoef="0" IVar="10" Cut="1.5426589250564575e+00" cType="1" res="-1.3498767511919141e-03" rms="2.8578692674636841e-01" purity="5.1042896509170532e-01" nType="0">
          <Node pos="l" depth="2" NCoef="0" IVar="11" Cut="3.1410202383995056e-01" cType="1" res="4.8714305739849806e-04" rms="2.8556829690933228e-01" purity="5.2437239885330200e-01" nType="0">
            <Node pos="l" depth="3" NCoef="0" IVar="-1" Cut="0.0000000000000000e+00" cType="1" res="2.7983484324067831e-03" rms="2.8787732124328613e-01" purity="4.6416589617729187e-01" nType="-99"/>
            <Node pos="r" depth="3" NCoef="0" IVar="-1" Cut="0.0000000000000000e+00" cType="1" res="-7.8505650162696838e-03" rms="2.7677464485168457e-01" purity="7.4650150537490845e-01" nType="-99"/>
          </Node>
          <Node pos="r" depth="2" NCoef="0" IVar="4" Cut="1.2312058258056641e+02" cType="1" res="-2.4143008515238762e-02" rms="2.8751099109649658e-01" purity="3.3742323517799377e-01" nType="0">
            <Node pos="l" depth="3" NCoef="0" IVar="-1" Cut="0.0000000000000000e+00" cType="1" res="2.5011904072016478e-03" rms="2.4632620811462402e-01" purity="1.1469612270593643e-01" nType="-99"/>
            <Node pos="r" depth="3" NCoef="0" IVar="-1" Cut="0.0000000000000000e+00" cType="1" res="-3.8840990513563156e-02" rms="3.0986052751541138e-01" purity="4.7964268922805786e-01" nType="-99"/>
          </Node>
        </Node>
        <Node pos="r" depth="1" NCoef="0" IVar="-1" Cut="0.0000000000000000e+00" cType="1" res="3.8323212414979935e-02" rms="2.8348243236541748e-01" purity="2.6786866784095764e-01" nType="-99"/>
      </Node>
    </BinaryTree>
    <BinaryTree type="DecisionTree" boostWeight="1.0000000000000000e+00" itree="623">
      <Node pos="s" depth="0" NCoef="0" IVar="8" Cut="-1.4665434360504150e+00" cType="1" res="2.7420965489000082e-04" rms="2.8415650129318237e-01" purity="5.0351142883300781e-01" nType="0">
        <Node pos="l" depth="1" NCoef="0" IVar="3" Cut="1.9204208374023438e+02" cType="1" res="-1.0006365366280079e-02" rms="2.1757300198078156e-01" purity="1.2327174097299576e-01" nType="0">
          <Node pos="l" depth="2" NCoef="0" IVar="-1" Cut="0.0000000000000000e+00" cType="1" res="3.1405847985297441e-03" rms="1.9243548810482025e-01" purity="7.6476566493511200e-02" nType="-99"/>
          <Node pos="r" depth="2" NCoef="0" IVar="-1" Cut="0.0000000000000000e+00" cType="1" res="-3.3389929682016373e-02" rms="2.4426893889904022e-01" purity="1.8077804148197174e-01" nType="-99"/>
        </Node>
        <Node pos="r" depth="1" NCoef="0" IVar="8" Cut="-1.0600981712341309e+00" cType="1" res="1.1197096901014447e-03" rms="2.8893420100212097e-01" purity="5.3478330373764038e-01" nType="0">
          <Node pos="l" depth="2" NCoef="0" IVar="0" Cut="1.5114508056640625e+03" cType="1" res="1.7188206315040588e-02" rms="3.0250158905982971e-01" purity="3.9239263534545898e-01" nType="0">
            <Node pos="l" depth="3" NCoef="0" IVar="-1" Cut="0.0000000000000000e+00" cType="1" res="3.6554343998432159e-02" rms="3.1026035547256470e-01" purity="2.1068282425403595e-01" nType="-99"/>
            <Node pos="r" depth="3" NCoef="0" IVar="-1" Cut="0.0000000000000000e+00" cType="1" res="-2.9114745557308197e-03" rms="2.8885614871978760e-01" purity="6.7560362815856934e-01" nType="-99"/>
          </Node>
          <Node pos="r" depth="2" NCoef="0" IVar="11" Cut="-2.7238121032714844e+00" cType="1" res="-8.9521337940823287e-05" rms="2.8785103559494019e-01" purity="5.4549884796142578e-01" nType="0">
            <Node pos="l" depth="3" NCoef="0" IVar="-1" Cut="0.0000000000000000e+00" cType="1" res="-4.3120575137436390e-03" rms="3.0568963289260864e-01" purity="2.5340774655342102e-01" nType="-99"/>
            <Node pos="r" depth="3" NCoef="0" IVar="-1" Cut="0.0000000000000000e+00" cType="1" res="4.0433309040963650e-03" rms="2.7234044671058655e-01" purity="7.8454935550689697e-01" nType="-99"/>
          </Node>
        </Node>
      </Node>
    </BinaryTree>
    <BinaryTree type="DecisionTree" boostWeight="1.0000000000000000e+00" itree="624">
      <Node pos="s" depth="0" NCoef="0" IVar="10" Cut="3.9997744560241699e-01" cType="1" res="-4.7255639219656587e-04" rms="2.8496113419532776e-01" purity="4.9213129281997681e-01" nType="0">
        <Node pos="l" depth="1" NCoef="0" IVar="7" Cut="1.2031041383743286e+00" cType="1" res="3.1445999629795551e-03" rms="2.8257712721824646e-01" purity="5.1012659072875977e-01" nType="0">
          <Node pos="l" depth="2" NCoef="0" IVar="8" Cut="1.2001302242279053e+00" cType="1" res="4.2302198708057404e-03" rms="2.8874504566192627e-01" purity="5.4206925630569458e-01" nType="0">
            <Node pos="l" depth="3" NCoef="0" IVar="-1" Cut="0.0000000000000000e+00" cType="1" res="6.4779231324791908e-03" rms="2.9287630319595337e-01" purity="5.7737916707992554e-01" nType="-99"/>
            <Node pos="r" depth="3" NCoef="0" IVar="-1" Cut="0.0000000000000000e+00" cType="1" res="-1.2756893411278725e-02" rms="2.4746957421302795e-01" purity="2.1954785287380219e-01" nType="-99"/>
          </Node>
          <Node pos="r" depth="2" NCoef="0" IVar="5" Cut="6.5714111328125000e+01" cType="1" res="-8.9043192565441132e-03" rms="2.0144799351692200e-01" purity="1.5560649335384369e-01" nType="0">
            <Node pos="l" depth="3" NCoef="0" IVar="-1" Cut="0.0000000000000000e+00" cType="1" res="-6.7272678017616272e-02" rms="8.4729388356208801e-02" purity="1.1579290032386780e-02" nType="-99"/>
            <Node pos="r" depth="3" NCoef="0" IVar="-1" Cut="0.0000000000000000e+00" cType="1" res="-6.3597303815186024e-03" rms="2.6984757184982300e-01" purity="2.9473036527633667e-01" nType="-99"/>
          </Node>
        </Node>
        <Node pos="r" depth="1" NCoef="0" IVar="10" Cut="1.0857027769088745e+00" cType="1" res="-6.5671973861753941e-03" rms="2.8883108496665955e-01" purity="4.6181041002273560e-01" nType="0">
          <Node pos="l" depth="2" NCoef="0" IVar="11" Cut="-1.3431141376495361e+00" cType="1" res="-1.4577048830688000e-02" rms="2.8052219748497009e-01" purity="5.4607504606246948e-01" nType="0">
            <Node pos="l" depth="3" NCoef="0" IVar="-1" Cut="0.0000000000000000e+00" cType="1" res="-2.9018504545092583e-02" rms="2.9619839787483215e-01" purity="2.8333705663681030e-01" nType="-99"/>
            <Node pos="r" depth="3" NCoef="0" IVar="-1" Cut="0.0000000000000000e+00" cType="1" res="-4.4815549626946449e-03" rms="2.6398542523384094e-01" purity="8.0015093088150024e-01" nType="-99"/>
          </Node>
          <Node pos="r" depth="2" NCoef="0" IVar="2" Cut="4.1728475952148438e+02" cType="1" res="1.3203683774918318e-03" rms="2.9657453298568726e-01" purity="3.7883231043815613e-01" nType="0">
            <Node pos="l" depth="3" NCoef="0" IVar="-1" Cut="0.0000000000000000e+00" cType="1" res="-6.7032198421657085e-03" rms="2.9189768433570862e-01" purity="3.3176669478416443e-01" nType="-99"/>
            <Node pos="r" depth="3" NCoef="0" IVar="-1" Cut="0.0000000000000000e+00" cType="1" res="1.6033146530389786e-02" rms="3.0555847287178040e-01" purity="4.7645103931427002e-01" nType="-99"/>
          </Node>
        </Node>
      </Node>
    </BinaryTree>
    <BinaryTree type="DecisionTree" boostWeight="1.0000000000000000e+00" itree="625">
      <Node pos="s" depth="0" NCoef="0" IVar="10" Cut="-2.2664995193481445e+00" cType="1" res="-1.5759160742163658e-03" rms="2.8526124358177185e-01" purity="5.0449144840240479e-01" nType="0">
        <Node pos="l" depth="1" NCoef="0" IVar="-1" Cut="0.0000000000000000e+00" cType="1" res="-3.3833876252174377e-02" rms="2.7407056093215942e-01" purity="2.0691673457622528e-01" nType="-99"/>
        <Node pos="r" depth="1" NCoef="0" IVar="10" Cut="-1.5426880121231079e+00" cType="1" res="-8.8217650773003697e-04" rms="2.8556945919990540e-01" purity="5.1362383365631104e-01" nType="0">
          <Node pos="l" depth="2" NCoef="0" IVar="11" Cut="-2.4476764202117920e+00" cType="1" res="1.5118966810405254e-02" rms="2.9160222411155701e-01" purity="3.8828751444816589e-01" nType="0">
            <Node pos="l" depth="3" NCoef="0" IVar="-1" Cut="0.0000000000000000e+00" cType="1" res="6.2569289002567530e-04" rms="2.7881094813346863e-01" purity="1.4952075481414795e-01" nType="-99"/>
            <Node pos="r" depth="3" NCoef="0" IVar="-1" Cut="0.0000000000000000e+00" cType="1" res="3.2663043588399887e-02" rms="3.0589318275451660e-01" purity="6.8759232759475708e-01" nType="-99"/>
          </Node>
          <Node pos="r" depth="2" NCoef="0" IVar="3" Cut="2.2479293823242188e+02" cType="1" res="-2.3118890821933746e-03" rms="2.8498047590255737e-01" purity="5.2482277154922485e-01" nType="0">
            <Node pos="l" depth="3" NCoef="0" IVar="-1" Cut="0.0000000000000000e+00" cType="1" res="-8.0164475366473198e-03" rms="2.8642243146896362e-01" purity="3.5043805837631226e-01" nType="-99"/>
            <Node pos="r" depth="3" NCoef="0" IVar="-1" Cut="0.0000000000000000e+00" cType="1" res="2.6278293225914240e-03" rms="2.8344309329986572e-01" purity="7.0120894908905029e-01" nType="-99"/>
          </Node>
        </Node>
      </Node>
    </BinaryTree>
    <BinaryTree type="DecisionTree" boostWeight="1.0000000000000000e+00" itree="626">
      <Node pos="s" depth="0" NCoef="0" IVar="10" Cut="1.4666832685470581e+00" cType="1" res="1.9473003922030330e-03" rms="2.8489777445793152e-01" purity="5.0373798608779907e-01" nType="0">
        <Node pos="l" depth="1" NCoef="0" IVar="9" Cut="-6.6662842035293579e-01" cType="1" res="2.8086524253012612e-05" rms="2.8413626551628113e-01" purity="5.2325016260147095e-01" nType="0">
          <Node pos="l" depth="2" NCoef="0" IVar="9" Cut="-1.4792523384094238e+00" cType="1" res="-7.2956290096044540e-03" rms="2.8478229045867920e-01" purity="4.0673354268074036e-01" nType="0">
            <Node pos="l" depth="3" NCoef="0" IVar="-1" Cut="0.0000000000000000e+00" cType="1" res="9.4994017854332924e-03" rms="2.7546316385269165e-01" purity="2.3629270493984222e-01" nType="-99"/>
            <Node pos="r" depth="3" NCoef="0" IVar="-1" Cut="0.0000000000000000e+00" cType="1" res="-1.6895523294806480e-02" rms="2.8896859288215637e-01" purity="4.9025636911392212e-01" nType="-99"/>
          </Node>
          <Node pos="r" depth="2" NCoef="0" IVar="4" Cut="9.8604507446289062e+01" cType="1" res="2.7111042290925980e-03" rms="2.8385192155838013e-01" purity="5.6593567132949829e-01" nType="0">
            <Node pos="l" depth="3" NCoef="0" IVar="-1" Cut="0.0000000000000000e+00" cType="1" res="-2.2582951933145523e-02" rms="2.0505383610725403e-01" purity="7.2430975735187531e-02" nType="-99"/>
            <Node pos="r" depth="3" NCoef="0" IVar="-1" Cut="0.0000000000000000e+00" cType="1" res="5.7088602334260941e-03" rms="2.9519495368003845e-01" purity="6.5054553747177124e-01" nType="-99"/>
          </Node>
        </Node>
        <Node pos="r" depth="1" NCoef="0" IVar="10" Cut="2.0381259918212891e+00" cType="1" res="1.7138672992587090e-02" rms="2.9040804505348206e-01" purity="3.4929075837135315e-01" nType="0">
          <Node pos="l" depth="2" NCoef="0" IVar="1" Cut="3.6939933896064758e-02" cType="1" res="2.9611231759190559e-02" rms="3.0025616288185120e-01" purity="4.2871943116188049e-01" nType="0">
            <Node pos="l" depth="3" NCoef="0" IVar="-1" Cut="0.0000000000000000e+00" cType="1" res="7.3053226806223392e-03" rms="2.2967857122421265e-01" purity="1.0507760196924210e-01" nType="-99"/>
            <Node pos="r" depth="3" NCoef="0" IVar="-1" Cut="0.0000000000000000e+00" cType="1" res="4.1197828948497772e-02" rms="3.3832532167434692e-01" purity="6.4558166265487671e-01" nType="-99"/>
          </Node>
          <Node pos="r" depth="2" NCoef="0" IVar="-1" Cut="0.0000000000000000e+00" cType="1" res="-2.8299267869442701e-03" rms="2.7336603403091431e-01" purity="2.2646263241767883e-01" nType="-99"/>
        </Node>
      </Node>
    </BinaryTree>
    <BinaryTree type="DecisionTree" boostWeight="1.0000000000000000e+00" itree="627">
      <Node pos="s" depth="0" NCoef="0" IVar="8" Cut="1.3344968855381012e-01" cType="1" res="1.1601581936702132e-03" rms="2.8662765026092529e-01" purity="5.0060755014419556e-01" nType="0">
        <Node pos="l" depth="1" NCoef="0" IVar="10" Cut="-1.7333211898803711e+00" cType="1" res="-1.8685411196202040e-03" rms="2.8158262372016907e-01" purity="5.1233601570129395e-01" nType="0">
          <Node pos="l" depth="2" NCoef="0" IVar="-1" Cut="0.0000000000000000e+00" cType="1" res="-1.8185967579483986e-02" rms="2.5798922777175903e-01" purity="3.0295234918594360e-01" nType="-99"/>
          <Node pos="r" depth="2" NCoef="0" IVar="3" Cut="1.3777792358398438e+02" cType="1" res="-7.0343003608286381e-04" rms="2.8371292352676392e-01" purity="5.3239840269088745e-01" nType="0">
            <Node pos="l" depth="3" NCoef="0" IVar="-1" Cut="0.0000000000000000e+00" cType="1" res="1.8554918467998505e-02" rms="2.2557163238525391e-01" purity="1.0634616017341614e-01" nType="-99"/>
            <Node pos="r" depth="3" NCoef="0" IVar="-1" Cut="0.0000000000000000e+00" cType="1" res="-2.3343188222497702e-03" rms="2.9075488448143005e-01" purity="5.9081953763961792e-01" nType="-99"/>
          </Node>
        </Node>
        <Node pos="r" depth="1" NCoef="0" IVar="7" Cut="-6.1774623394012451e-01" cType="1" res="4.9407160840928555e-03" rms="2.9275915026664734e-01" purity="4.8596751689910889e-01" nType="0">
          <Node pos="l" depth="2" NCoef="0" IVar="6" Cut="5.2873748779296875e+01" cType="1" res="1.8220726400613785e-02" rms="2.8053018450737000e-01" purity="3.2145062088966370e-01" nType="0">
            <Node pos="l" depth="3" NCoef="0" IVar="-1" Cut="0.0000000000000000e+00" cType="1" res="5.0835110247135162e-02" rms="2.6841786503791809e-01" purity="1.5780930221080780e-01" nType="-99"/>
            <Node pos="r" depth="3" NCoef="0" IVar="-1" Cut="0.0000000000000000e+00" cType="1" res="-1.8502655439078808e-03" rms="2.9792878031730652e-01" purity="5.8517181873321533e-01" nType="-99"/>
          </Node>
          <Node pos="r" depth="2" NCoef="0" IVar="9" Cut="-9.3319129943847656e-01" cType="1" res="1.1220548767596483e-03" rms="2.9607185721397400e-01" purity="5.3327429294586182e-01" nType="0">
            <Node pos="l" depth="3" NCoef="0" IVar="-1" Cut="0.0000000000000000e+00" cType="1" res="-1.6824081540107727e-02" rms="2.7774891257286072e-01" purity="3.5294705629348755e-01" nType="-99"/>
            <Node pos="r" depth="3" NCoef="0" IVar="-1" Cut="0.0000000000000000e+00" cType="1" res="4.4309329241514206e-03" rms="2.9909014701843262e-01" purity="5.6500041484832764e-01" nType="-99"/>
          </Node>
        </Node>
      </Node>
    </BinaryTree>
    <BinaryTree type="DecisionTree" boostWeight="1.0000000000000000e+00" itree="628">
      <Node pos="s" depth="0" NCoef="0" IVar="10" Cut="-1.3333600759506226e-01" cType="1" res="-2.0447815768420696e-03" rms="2.8625378012657166e-01" purity="4.9838331341743469e-01" nType="0">
        <Node pos="l" depth="1" NCoef="0" IVar="1" Cut="1.0948824137449265e-01" cType="1" res="1.3878493336960673e-03" rms="2.8643888235092163e-01" purity="4.9203419685363770e-01" nType="0">
          <Node pos="l" depth="2" NCoef="0" IVar="1" Cut="5.7352717965841293e-02" cType="1" res="-2.1511251106858253e-03" rms="2.9335647821426392e-01" purity="3.6827120184898376e-01" nType="0">
            <Node pos="l" depth="3" NCoef="0" IVar="-1" Cut="0.0000000000000000e+00" cType="1" res="2.7747659478336573e-03" rms="2.8098335862159729e-01" purity="2.5824856758117676e-01" nType="-99"/>
            <Node pos="r" depth="3" NCoef="0" IVar="-1" Cut="0.0000000000000000e+00" cType="1" res="-1.1598424986004829e-02" rms="3.1972646713256836e-01" purity="6.2080484628677368e-01" nType="-99"/>
          </Node>
          <Node pos="r" depth="2" NCoef="0" IVar="-1" Cut="0.0000000000000000e+00" cType="1" res="1.5714081004261971e-02" rms="2.6534289121627808e-01" purity="8.4694153070449829e-01" nType="-99"/>
        </Node>
        <Node pos="r" depth="1" NCoef="0" IVar="8" Cut="-1.3320507109165192e-01" cType="1" res="-5.0171571783721447e-03" rms="2.8606009483337402e-01" purity="5.0388115644454956e-01" nType="0">
          <Node pos="l" depth="2" NCoef="0" IVar="11" Cut="-2.4477047920227051e+00" cType="1" res="-1.0513469576835632e-02" rms="2.8360784053802490e-01" purity="4.8291927576065063e-01" nType="0">
            <Node pos="l" depth="3" NCoef="0" IVar="-1" Cut="0.0000000000000000e+00" cType="1" res="-2.0525934174656868e-02" rms="2.8511649370193481e-01" purity="1.9869478046894073e-01" nType="-99"/>
            <Node pos="r" depth="3" NCoef="0" IVar="-1" Cut="0.0000000000000000e+00" cType="1" res="-5.7420632801949978e-03" rms="2.8207877278327942e-01" purity="7.4643349647521973e-01" nType="-99"/>
          </Node>
          <Node pos="r" depth="2" NCoef="0" IVar="0" Cut="1.3260728759765625e+03" cType="1" res="-1.2832499342039227e-03" rms="2.8765422105789185e-01" purity="5.1812148094177246e-01" nType="0">
            <Node pos="l" depth="3" NCoef="0" IVar="-1" Cut="0.0000000000000000e+00" cType="1" res="8.0696651712059975e-03" rms="2.8890404105186462e-01" purity="1.7156134545803070e-01" nType="-99"/>
            <Node pos="r" depth="3" NCoef="0" IVar="-1" Cut="0.0000000000000000e+00" cType="1" res="-6.8211136385798454e-03" rms="2.8684857487678528e-01" purity="7.1404057741165161e-01" nType="-99"/>
          </Node>
        </Node>
      </Node>
    </BinaryTree>
    <BinaryTree type="DecisionTree" boostWeight="1.0000000000000000e+00" itree="629">
      <Node pos="s" depth="0" NCoef="0" IVar="8" Cut="9.3331724405288696e-01" cType="1" res="1.2532317778095603e-03" rms="2.8435856103897095e-01" purity="5.0224125385284424e-01" nType="0">
        <Node pos="l" depth="1" NCoef="0" IVar="8" Cut="7.5554633140563965e-01" cType="1" res="-4.0119167533703148e-04" rms="2.8487202525138855e-01" purity="5.4672032594680786e-01" nType="0">
          <Node pos="l" depth="2" NCoef="0" IVar="2" Cut="3.3976638793945312e+02" cType="1" res="9.2684541596099734e-04" rms="2.8303751349449158e-01" purity="5.4815775156021118e-01" nType="0">
            <Node pos="l" depth="3" NCoef="0" IVar="-1" Cut="0.0000000000000000e+00" cType="1" res="6.6297836601734161e-03" rms="2.8825893998146057e-01" purity="4.8100277781486511e-01" nType="-99"/>
            <Node pos="r" depth="3" NCoef="0" IVar="-1" Cut="0.0000000000000000e+00" cType="1" res="-3.6192373372614384e-03" rms="2.7855163812637329e-01" purity="6.0412836074829102e-01" nType="-99"/>
          </Node>
          <Node pos="r" depth="2" NCoef="0" IVar="-1" Cut="0.0000000000000000e+00" cType="1" res="-2.4889986962080002e-02" rms="3.1415459513664246e-01" purity="5.2174115180969238e-01" nType="-99"/>
        </Node>
        <Node pos="r" depth="1" NCoef="0" IVar="9" Cut="9.3221884965896606e-01" cType="1" res="9.3054370954632759e-03" rms="2.8170755505561829e-01" purity="2.8575855493545532e-01" nType="0">
          <Node pos="l" depth="2" NCoef="0" IVar="1" Cut="4.1097600013017654e-02" cType="1" res="1.7156817018985748e-02" rms="2.9577901959419250e-01" purity="3.3245033025741577e-01" nType="0">
            <Node pos="l" depth="3" NCoef="0" IVar="-1" Cut="0.0000000000000000e+00" cType="1" res="1.6062237322330475e-02" rms="2.4834407866001129e-01" purity="1.3627770543098450e-01" nType="-99"/>
            <Node pos="r" depth="3" NCoef="0" IVar="-1" Cut="0.0000000000000000e+00" cType="1" res="2.4194275960326195e-02" rms="3.4733575582504272e-01" purity="5.8577328920364380e-01" nType="-99"/>
          </Node>
          <Node pos="r" depth="2" NCoef="0" IVar="-1" Cut="0.0000000000000000e+00" cType="1" res="-1.8607029691338539e-02" rms="2.3888541758060455e-01" purity="1.6113401949405670e-01" nType="-99"/>
        </Node>
      </Node>
    </BinaryTree>
    <BinaryTree type="DecisionTree" boostWeight="1.0000000000000000e+00" itree="630">
      <Node pos="s" depth="0" NCoef="0" IVar="8" Cut="6.6668987274169922e-01" cType="1" res="-9.6213788492605090e-04" rms="2.8373774886131287e-01" purity="4.9947792291641235e-01" nType="0">
        <Node pos="l" depth="1" NCoef="0" IVar="1" Cut="4.3795950710773468e-02" cType="1" res="1.2384552974253893e-03" rms="2.8598368167877197e-01" purity="5.4242116212844849e-01" nType="0">
          <Node pos="l" depth="2" NCoef="0" IVar="0" Cut="1.9497131347656250e+03" cType="1" res="-3.9441850967705250e-03" rms="2.7439641952514648e-01" purity="2.3237761855125427e-01" nType="0">
            <Node pos="l" depth="3" NCoef="0" IVar="-1" Cut="0.0000000000000000e+00" cType="1" res="-3.4028803929686546e-04" rms="2.6668885350227356e-01" purity="1.7143915593624115e-01" nType="-99"/>
            <Node pos="r" depth="3" NCoef="0" IVar="-1" Cut="0.0000000000000000e+00" cType="1" res="-3.0730385333299637e-02" rms="3.2465362548828125e-01" purity="6.8475681543350220e-01" nType="-99"/>
          </Node>
          <Node pos="r" depth="2" NCoef="0" IVar="11" Cut="-1.8954582214355469e+00" cType="1" res="4.5284111984074116e-03" rms="2.9305416345596313e-01" purity="7.3923778533935547e-01" nType="0">
            <Node pos="l" depth="3" NCoef="0" IVar="-1" Cut="0.0000000000000000e+00" cType="1" res="1.3983693905174732e-02" rms="3.5869967937469482e-01" purity="4.7622340917587280e-01" nType="-99"/>
            <Node pos="r" depth="3" NCoef="0" IVar="-1" Cut="0.0000000000000000e+00" cType="1" res="-4.0090065449476242e-03" rms="2.5131821632385254e-01" purity="8.7799423933029175e-01" nType="-99"/>
          </Node>
        </Node>
        <Node pos="r" depth="1" NCoef="0" IVar="9" Cut="-1.1994547843933105e+00" cType="1" res="-7.8758848831057549e-03" rms="2.7644896507263184e-01" purity="3.6456015706062317e-01" nType="0">
          <Node pos="l" depth="2" NCoef="0" IVar="-1" Cut="0.0000000000000000e+00" cType="1" res="1.2560430914163589e-02" rms="2.4987667798995972e-01" purity="1.9167900085449219e-01" nType="-99"/>
          <Node pos="r" depth="2" NCoef="0" IVar="2" Cut="4.2573339843750000e+02" cType="1" res="-1.0359290987253189e-02" rms="2.8015670180320740e-01" purity="3.9065194129943848e-01" nType="0">
            <Node pos="l" depth="3" NCoef="0" IVar="-1" Cut="0.0000000000000000e+00" cType="1" res="-7.0268781855702400e-03" rms="2.8076902031898499e-01" purity="3.7702316045761108e-01" nType="-99"/>
            <Node pos="r" depth="3" NCoef="0" IVar="-1" Cut="0.0000000000000000e+00" cType="1" res="-2.6661070063710213e-02" rms="2.7829447388648987e-01" purity="4.2453563213348389e-01" nType="-99"/>
          </Node>
        </Node>
      </Node>
    </BinaryTree>
    <BinaryTree type="DecisionTree" boostWeight="1.0000000000000000e+00" itree="631">
      <Node pos="s" depth="0" NCoef="0" IVar="0" Cut="1.9889913330078125e+03" cType="1" res="-1.0650319745764136e-03" rms="2.8267505764961243e-01" purity="4.9962094426155090e-01" nType="0">
        <Node pos="l" depth="1" NCoef="0" IVar="4" Cut="1.4218664550781250e+02" cType="1" res="-3.2323005143553019e-03" rms="2.9489207267761230e-01" purity="4.0588805079460144e-01" nType="0">
          <Node pos="l" depth="2" NCoef="0" IVar="10" Cut="9.3329864740371704e-01" cType="1" res="5.6716293329373002e-04" rms="2.7872854471206665e-01" purity="2.1274289488792419e-01" nType="0">
            <Node pos="l" depth="3" NCoef="0" IVar="-1" Cut="0.0000000000000000e+00" cType="1" res="-3.8277052808552980e-03" rms="2.7853152155876160e-01" purity="2.1689878404140472e-01" nType="-99"/>
            <Node pos="r" depth="3" NCoef="0" IVar="-1" Cut="0.0000000000000000e+00" cType="1" res="1.5375105664134026e-02" rms="2.7902370691299438e-01" purity="2.0045335590839386e-01" nType="-99"/>
          </Node>
          <Node pos="r" depth="2" NCoef="0" IVar="7" Cut="-5.9424221515655518e-01" cType="1" res="-7.2716260328888893e-03" rms="3.1110569834709167e-01" purity="6.1122655868530273e-01" nType="0">
            <Node pos="l" depth="3" NCoef="0" IVar="-1" Cut="0.0000000000000000e+00" cType="1" res="-2.2339178249239922e-02" rms="3.0468100309371948e-01" purity="4.5973494648933411e-01" nType="-99"/>
            <Node pos="r" depth="3" NCoef="0" IVar="-1" Cut="0.0000000000000000e+00" cType="1" res="-2.5424836203455925e-03" rms="3.1292209029197693e-01" purity="6.5814590454101562e-01" nType="-99"/>
          </Node>
        </Node>
        <Node pos="r" depth="1" NCoef="0" IVar="7" Cut="4.7465822100639343e-01" cType="1" res="8.1922160461544991e-03" rms="2.2284482419490814e-01" purity="8.9999073743820190e-01" nType="0">
          <Node pos="l" depth="2" NCoef="0" IVar="3" Cut="4.1716366577148438e+02" cType="1" res="4.3549812398850918e-03" rms="2.1481969952583313e-01" purity="9.0996140241622925e-01" nType="0">
            <Node pos="l" depth="3" NCoef="0" IVar="-1" Cut="0.0000000000000000e+00" cType="1" res="1.8675567116588354e-03" rms="2.0004263520240784e-01" purity="9.2247074842453003e-01" nType="-99"/>
            <Node pos="r" depth="3" NCoef="0" IVar="-1" Cut="0.0000000000000000e+00" cType="1" res="1.9125584512948990e-02" rms="2.4778863787651062e-01" purity="8.7860679626464844e-01" nType="-99"/>
          </Node>
          <Node pos="r" depth="2" NCoef="0" IVar="-1" Cut="0.0000000000000000e+00" cType="1" res="3.2762702554464340e-02" rms="2.4744386970996857e-01" purity="8.6653929948806763e-01" nType="-99"/>
        </Node>
      </Node>
    </BinaryTree>
    <BinaryTree type="DecisionTree" boostWeight="1.0000000000000000e+00" itree="632">
      <Node pos="s" depth="0" NCoef="0" IVar="8" Cut="-1.4665434360504150e+00" cType="1" res="-1.5046836342662573e-03" rms="2.8193822503089905e-01" purity="4.9895361065864563e-01" nType="0">
        <Node pos="l" depth="1" NCoef="0" IVar="10" Cut="-6.6642087697982788e-01" cType="1" res="1.5690779313445091e-02" rms="2.4182733893394470e-01" purity="1.4841692149639130e-01" nType="0">
          <Node pos="l" depth="2" NCoef="0" IVar="-1" Cut="0.0000000000000000e+00" cType="1" res="-6.5425276989117265e-04" rms="2.2250886261463165e-01" purity="1.0231527686119080e-01" nType="-99"/>
          <Node pos="r" depth="2" NCoef="0" IVar="-1" Cut="0.0000000000000000e+00" cType="1" res="4.2804606258869171e-02" rms="2.5237676501274109e-01" purity="1.7650182545185089e-01" nType="-99"/>
        </Node>
        <Node pos="r" depth="1" NCoef="0" IVar="5" Cut="1.3690539550781250e+02" cType="1" res="-2.9625333845615387e-03" rms="2.8503176569938660e-01" purity="5.2867251634597778e-01" nType="0">
          <Node pos="l" depth="2" NCoef="0" IVar="5" Cut="7.8965377807617188e+01" cType="1" res="-5.1348698325455189e-03" rms="2.9779732227325439e-01" purity="4.6083265542984009e-01" nType="0">
            <Node pos="l" depth="3" NCoef="0" IVar="-1" Cut="0.0000000000000000e+00" cType="1" res="-1.0093556717038155e-02" rms="2.9748705029487610e-01" purity="2.4036329984664917e-01" nType="-99"/>
            <Node pos="r" depth="3" NCoef="0" IVar="-1" Cut="0.0000000000000000e+00" cType="1" res="-1.2637230975087732e-04" rms="2.9810008406639099e-01" purity="7.3076772689819336e-01" nType="-99"/>
          </Node>
          <Node pos="r" depth="2" NCoef="0" IVar="-1" Cut="0.0000000000000000e+00" cType="1" res="2.6960579678416252e-02" rms="1.8714347481727600e-01" purity="9.4820356369018555e-01" nType="-99"/>
        </Node>
      </Node>
    </BinaryTree>
    <BinaryTree type="DecisionTree" boostWeight="1.0000000000000000e+00" itree="633">
      <Node pos="s" depth="0" NCoef="0" IVar="1" Cut="6.3614293932914734e-02" cType="1" res="6.5430084941908717e-04" rms="2.8696081042289734e-01" purity="4.9733218550682068e-01" nType="0">
        <Node pos="l" depth="1" NCoef="0" IVar="4" Cut="1.4592961120605469e+02" cType="1" res="6.7446045577526093e-03" rms="2.8547447919845581e-01" purity="2.8566059470176697e-01" nType="0">
          <Node pos="l" depth="2" NCoef="0" IVar="2" Cut="4.3242309570312500e+02" cType="1" res="1.3528662966564298e-03" rms="2.4932385981082916e-01" purity="1.2684683501720428e-01" nType="0">
            <Node pos="l" depth="3" NCoef="0" IVar="-1" Cut="0.0000000000000000e+00" cType="1" res="-8.2067074254155159e-03" rms="2.3007515072822571e-01" purity="1.0416737198829651e-01" nType="-99"/>
            <Node pos="r" depth="3" NCoef="0" IVar="-1" Cut="0.0000000000000000e+00" cType="1" res="2.2603970021009445e-02" rms="2.9756999015808105e-01" purity="1.9266989827156067e-01" nType="-99"/>
          </Node>
          <Node pos="r" depth="2" NCoef="0" IVar="6" Cut="7.9829505920410156e+01" cType="1" res="1.4143032021820545e-02" rms="3.2852664589881897e-01" purity="5.0358134508132935e-01" nType="0">
            <Node pos="l" depth="3" NCoef="0" IVar="-1" Cut="0.0000000000000000e+00" cType="1" res="1.7732556909322739e-02" rms="3.3882433176040649e-01" purity="4.2428636550903320e-01" nType="-99"/>
            <Node pos="r" depth="3" NCoef="0" IVar="-1" Cut="0.0000000000000000e+00" cType="1" res="-1.1013666167855263e-02" rms="2.8453442454338074e-01" purity="8.0679059028625488e-01" nType="-99"/>
          </Node>
        </Node>
        <Node pos="r" depth="1" NCoef="0" IVar="8" Cut="-8.6778354644775391e-01" cType="1" res="-6.8002534098923206e-03" rms="2.8859481215476990e-01" purity="7.5641900300979614e-01" nType="0">
          <Node pos="l" depth="2" NCoef="0" IVar="-1" Cut="0.0000000000000000e+00" cType="1" res="-2.9591480270028114e-02" rms="3.1322780251502991e-01" purity="6.3068604469299316e-01" nType="-99"/>
          <Node pos="r" depth="2" NCoef="0" IVar="9" Cut="-1.1942096948623657e+00" cType="1" res="-3.4410487860441208e-03" rms="2.8481113910675049e-01" purity="7.7404123544692993e-01" nType="0">
            <Node pos="l" depth="3" NCoef="0" IVar="-1" Cut="0.0000000000000000e+00" cType="1" res="-1.7573567107319832e-02" rms="3.2403385639190674e-01" purity="6.0664254426956177e-01" nType="-99"/>
            <Node pos="r" depth="3" NCoef="0" IVar="-1" Cut="0.0000000000000000e+00" cType="1" res="-2.2857063449919224e-03" rms="2.8071644902229309e-01" purity="7.9006946086883545e-01" nType="-99"/>
          </Node>
        </Node>
      </Node>
    </BinaryTree>
    <BinaryTree type="DecisionTree" boostWeight="1.0000000000000000e+00" itree="634">
      <Node pos="s" depth="0" NCoef="0" IVar="5" Cut="9.0401908874511719e+01" cType="1" res="-1.9182887626811862e-03" rms="2.8280487656593323e-01" purity="4.9298807978630066e-01" nType="0">
        <Node pos="l" depth="1" NCoef="0" IVar="2" Cut="5.6517742919921875e+02" cType="1" res="1.6223207348957658e-03" rms="2.9825037717819214e-01" purity="2.8534862399101257e-01" nType="0">
          <Node pos="l" depth="2" NCoef="0" IVar="11" Cut="-2.7238190174102783e+00" cType="1" res="3.8303839974105358e-03" rms="2.9450264573097229e-01" purity="2.7920925617218018e-01" nType="0">
            <Node pos="l" depth="3" NCoef="0" IVar="-1" Cut="0.0000000000000000e+00" cType="1" res="-1.2325904099270701e-03" rms="2.6849925518035889e-01" purity="1.6213461756706238e-01" nType="-99"/>
            <Node pos="r" depth="3" NCoef="0" IVar="-1" Cut="0.0000000000000000e+00" cType="1" res="1.1704256758093834e-02" rms="3.4312188625335693e-01" purity="5.2832138538360596e-01" nType="-99"/>
          </Node>
          <Node pos="r" depth="2" NCoef="0" IVar="2" Cut="6.6951391601562500e+02" cType="1" res="-1.8443597480654716e-02" rms="3.2968789339065552e-01" purity="3.4114027023315430e-01" nType="0">
            <Node pos="l" depth="3" NCoef="0" IVar="-1" Cut="0.0000000000000000e+00" cType="1" res="-3.2157372683286667e-02" rms="3.1604593992233276e-01" purity="3.1767556071281433e-01" nType="-99"/>
            <Node pos="r" depth="3" NCoef="0" IVar="-1" Cut="0.0000000000000000e+00" cType="1" res="-2.2919289767742157e-04" rms="3.4450870752334595e-01" purity="3.6936736106872559e-01" nType="-99"/>
          </Node>
        </Node>
        <Node pos="r" depth="1" NCoef="0" IVar="0" Cut="1.4380997314453125e+03" cType="1" res="-7.4818604625761509e-03" rms="2.5656479597091675e-01" purity="8.1926441192626953e-01" nType="0">
          <Node pos="l" depth="2" NCoef="0" IVar="-1" Cut="0.0000000000000000e+00" cType="1" res="-2.2743560373783112e-02" rms="3.5605046153068542e-01" purity="4.8036116361618042e-01" nType="-99"/>
          <Node pos="r" depth="2" NCoef="0" IVar="0" Cut="1.6775299072265625e+03" cType="1" res="-3.4480164758861065e-03" rms="2.3451906442642212e-01" purity="8.7886089086532593e-01" nType="0">
            <Node pos="l" depth="3" NCoef="0" IVar="-1" Cut="0.0000000000000000e+00" cType="1" res="-1.3098062016069889e-02" rms="3.0102610588073730e-01" purity="7.5467199087142944e-01" nType="-99"/>
            <Node pos="r" depth="3" NCoef="0" IVar="-1" Cut="0.0000000000000000e+00" cType="1" res="-1.1603405000641942e-03" rms="2.0857001841068268e-01" purity="9.1882771253585815e-01" nType="-99"/>
          </Node>
        </Node>
      </Node>
    </BinaryTree>
    <BinaryTree type="DecisionTree" boostWeight="1.0000000000000000e+00" itree="635">
      <Node pos="s" depth="0" NCoef="0" IVar="10" Cut="-9.3334108591079712e-01" cType="1" res="-3.5921784001402557e-04" rms="2.8259268403053284e-01" purity="4.9596112966537476e-01" nType="0">
        <Node pos="l" depth="1" NCoef="0" IVar="7" Cut="1.7456558346748352e-01" cType="1" res="9.3458723276853561e-03" rms="2.8160545229911804e-01" purity="4.2648339271545410e-01" nType="0">
          <Node pos="l" depth="2" NCoef="0" IVar="4" Cut="1.3066177368164062e+02" cType="1" res="3.9214692078530788e-03" rms="2.8491926193237305e-01" purity="4.3440598249435425e-01" nType="0">
            <Node pos="l" depth="3" NCoef="0" IVar="-1" Cut="0.0000000000000000e+00" cType="1" res="-8.7411757558584213e-03" rms="2.5656104087829590e-01" purity="1.4289279282093048e-01" nType="-99"/>
            <Node pos="r" depth="3" NCoef="0" IVar="-1" Cut="0.0000000000000000e+00" cType="1" res="1.1233202181756496e-02" rms="3.0208456516265869e-01" purity="6.2780648469924927e-01" nType="-99"/>
          </Node>
          <Node pos="r" depth="2" NCoef="0" IVar="7" Cut="7.9895639419555664e-01" cType="1" res="1.8271118402481079e-02" rms="2.7583432197570801e-01" purity="4.1344767808914185e-01" nType="0">
            <Node pos="l" depth="3" NCoef="0" IVar="-1" Cut="0.0000000000000000e+00" cType="1" res="3.2092180103063583e-02" rms="3.1562128663063049e-01" purity="5.7957941293716431e-01" nType="-99"/>
            <Node pos="r" depth="3" NCoef="0" IVar="-1" Cut="0.0000000000000000e+00" cType="1" res="3.8620445411652327e-03" rms="2.2059872746467590e-01" purity="2.2328571975231171e-01" nType="-99"/>
          </Node>
        </Node>
        <Node pos="r" depth="1" NCoef="0" IVar="7" Cut="-1.2436866760253906e-01" cType="1" res="-3.3164930064231157e-03" rms="2.8282663226127625e-01" purity="5.1713198423385620e-01" nType="0">
          <Node pos="l" depth="2" NCoef="0" IVar="3" Cut="3.9525335693359375e+02" cType="1" res="-7.6220524497330189e-03" rms="2.8041219711303711e-01" purity="4.8714479804039001e-01" nType="0">
            <Node pos="l" depth="3" NCoef="0" IVar="-1" Cut="0.0000000000000000e+00" cType="1" res="-5.9565776027739048e-03" rms="2.8129544854164124e-01" purity="4.6622741222381592e-01" nType="-99"/>
            <Node pos="r" depth="3" NCoef="0" IVar="-1" Cut="0.0000000000000000e+00" cType="1" res="-5.1422979682683945e-02" rms="2.6812121272087097e-01" purity="7.2709047794342041e-01" nType="-99"/>
          </Node>
          <Node pos="r" depth="2" NCoef="0" IVar="3" Cut="3.0295004272460938e+02" cType="1" res="-1.4895660569891334e-04" rms="2.8454825282096863e-01" purity="5.3919303417205811e-01" nType="0">
            <Node pos="l" depth="3" NCoef="0" IVar="-1" Cut="0.0000000000000000e+00" cType="1" res="-5.3608878515660763e-03" rms="2.8777197003364563e-01" purity="4.6872174739837646e-01" nType="-99"/>
            <Node pos="r" depth="3" NCoef="0" IVar="-1" Cut="0.0000000000000000e+00" cType="1" res="1.8500918522477150e-02" rms="2.7326017618179321e-01" purity="7.6924061775207520e-01" nType="-99"/>
          </Node>
        </Node>
      </Node>
    </BinaryTree>
    <BinaryTree type="DecisionTree" boostWeight="1.0000000000000000e+00" itree="636">
      <Node pos="s" depth="0" NCoef="0" IVar="4" Cut="1.4277555847167969e+02" cType="1" res="3.4843804314732552e-03" rms="2.8871625661849976e-01" purity="5.0431692600250244e-01" nType="0">
        <Node pos="l" depth="1" NCoef="0" IVar="3" Cut="1.2984809875488281e+02" cType="1" res="8.8822655379772186e-03" rms="2.8990089893341064e-01" purity="2.2881606221199036e-01" nType="0">
          <Node pos="l" depth="2" NCoef="0" IVar="7" Cut="4.1522145271301270e-01" cType="1" res="-2.2729414049535990e-03" rms="2.0091491937637329e-01" purity="7.8566156327724457e-02" nType="0">
            <Node pos="l" depth="3" NCoef="0" IVar="-1" Cut="0.0000000000000000e+00" cType="1" res="7.8192176297307014e-03" rms="2.2655910253524780e-01" purity="9.9182017147541046e-02" nType="-99"/>
            <Node pos="r" depth="3" NCoef="0" IVar="-1" Cut="0.0000000000000000e+00" cType="1" res="-3.7274245172739029e-02" rms="1.4741888642311096e-01" purity="4.3863281607627869e-02" nType="-99"/>
          </Node>
          <Node pos="r" depth="2" NCoef="0" IVar="9" Cut="-1.3319483399391174e-01" cType="1" res="1.2779281474649906e-02" rms="3.1502661108970642e-01" purity="2.8130510449409485e-01" nType="0">
            <Node pos="l" depth="3" NCoef="0" IVar="-1" Cut="0.0000000000000000e+00" cType="1" res="6.2904739752411842e-03" rms="3.0610552430152893e-01" purity="2.6335448026657104e-01" nType="-99"/>
            <Node pos="r" depth="3" NCoef="0" IVar="-1" Cut="0.0000000000000000e+00" cType="1" res="1.9471583887934685e-02" rms="3.2218673825263977e-01" purity="2.9632231593132019e-01" nType="-99"/>
          </Node>
        </Node>
        <Node pos="r" depth="1" NCoef="0" IVar="7" Cut="-1.1154738664627075e+00" cType="1" res="-5.2101421169936657e-04" rms="2.8776866197586060e-01" purity="7.0874691009521484e-01" nType="0">
          <Node pos="l" depth="2" NCoef="0" IVar="-1" Cut="0.0000000000000000e+00" cType="1" res="-2.2384224459528923e-02" rms="2.8421238064765930e-01" purity="3.0822825431823730e-01" nType="-99"/>
          <Node pos="r" depth="2" NCoef="0" IVar="5" Cut="7.0670692443847656e+01" cType="1" res="1.0545817203819752e-03" rms="2.8800126910209656e-01" purity="7.4157178401947021e-01" nType="0">
            <Node pos="l" depth="3" NCoef="0" IVar="-1" Cut="0.0000000000000000e+00" cType="1" res="7.8149084001779556e-03" rms="3.5945647954940796e-01" purity="4.2419707775115967e-01" nType="-99"/>
            <Node pos="r" depth="3" NCoef="0" IVar="-1" Cut="0.0000000000000000e+00" cType="1" res="-1.7040653619915247e-03" rms="2.6665785908699036e-01" purity="8.2260304689407349e-01" nType="-99"/>
          </Node>
        </Node>
      </Node>
    </BinaryTree>
    <BinaryTree type="DecisionTree" boostWeight="1.0000000000000000e+00" itree="637">
      <Node pos="s" depth="0" NCoef="0" IVar="7" Cut="-9.2215174436569214e-01" cType="1" res="9.6397125162184238e-04" rms="2.8778374195098877e-01" purity="5.0135731697082520e-01" nType="0">
        <Node pos="l" depth="1" NCoef="0" IVar="5" Cut="1.0680229187011719e+02" cType="1" res="1.0496855713427067e-02" rms="2.5663444399833679e-01" purity="2.6009997725486755e-01" nType="0">
          <Node pos="l" depth="2" NCoef="0" IVar="8" Cut="6.6635113954544067e-01" cType="1" res="6.4394343644380569e-03" rms="2.4748207628726959e-01" purity="1.5364772081375122e-01" nType="0">
            <Node pos="l" depth="3" NCoef="0" IVar="-1" Cut="0.0000000000000000e+00" cType="1" res="1.9168002530932426e-02" rms="2.6908156275749207e-01" purity="1.8924999237060547e-01" nType="-99"/>
            <Node pos="r" depth="3" NCoef="0" IVar="-1" Cut="0.0000000000000000e+00" cType="1" res="-3.3736910670995712e-02" rms="1.7261980473995209e-01" purity="5.4905131459236145e-02" nType="-99"/>
          </Node>
          <Node pos="r" depth="2" NCoef="0" IVar="-1" Cut="0.0000000000000000e+00" cType="1" res="3.0679091811180115e-02" rms="2.9478830099105835e-01" purity="7.5550985336303711e-01" nType="-99"/>
        </Node>
        <Node pos="r" depth="1" NCoef="0" IVar="5" Cut="7.0670654296875000e+01" cType="1" res="-8.2487519830465317e-04" rms="2.9322591423988342e-01" purity="5.4662925004959106e-01" nType="0">
          <Node pos="l" depth="2" NCoef="0" IVar="9" Cut="-1.1999088525772095e+00" cType="1" res="5.3738323040306568e-03" rms="3.0364385247230530e-01" purity="2.2902646660804749e-01" nType="0">
            <Node pos="l" depth="3" NCoef="0" IVar="-1" Cut="0.0000000000000000e+00" cType="1" res="-1.6480537131428719e-02" rms="2.4548770487308502e-01" purity="1.0986791551113129e-01" nType="-99"/>
            <Node pos="r" depth="3" NCoef="0" IVar="-1" Cut="0.0000000000000000e+00" cType="1" res="8.9284405112266541e-03" rms="3.1328070163726807e-01" purity="2.5144389271736145e-01" nType="-99"/>
          </Node>
          <Node pos="r" depth="2" NCoef="0" IVar="9" Cut="1.3295045495033264e-01" cType="1" res="-4.6396278776228428e-03" rms="2.8655979037284851e-01" purity="7.4208545684814453e-01" nType="0">
            <Node pos="l" depth="3" NCoef="0" IVar="-1" Cut="0.0000000000000000e+00" cType="1" res="1.7213404644280672e-03" rms="2.8324517607688904e-01" purity="7.5253087282180786e-01" nType="-99"/>
            <Node pos="r" depth="3" NCoef="0" IVar="-1" Cut="0.0000000000000000e+00" cType="1" res="-1.4386421069502831e-02" rms="2.9051578044891357e-01" purity="7.2887599468231201e-01" nType="-99"/>
          </Node>
        </Node>
      </Node>
    </BinaryTree>
    <BinaryTree type="DecisionTree" boostWeight="1.0000000000000000e+00" itree="638">
      <Node pos="s" depth="0" NCoef="0" IVar="10" Cut="-1.3346137106418610e-01" cType="1" res="-2.3651893716305494e-03" rms="2.8318798542022705e-01" purity="4.9786889553070068e-01" nType="0">
        <Node pos="l" depth="1" NCoef="0" IVar="10" Cut="-2.6044437289237976e-01" cType="1" res="-6.9075366482138634e-03" rms="2.8062099218368530e-01" purity="4.8047128319740295e-01" nType="0">
          <Node pos="l" depth="2" NCoef="0" IVar="10" Cut="-1.8325524330139160e+00" cType="1" res="-4.3517337180674076e-03" rms="2.7877351641654968e-01" purity="4.7309494018554688e-01" nType="0">
            <Node pos="l" depth="3" NCoef="0" IVar="-1" Cut="0.0000000000000000e+00" cType="1" res="-2.4301560595631599e-02" rms="2.6860666275024414e-01" purity="2.4774950742721558e-01" nType="-99"/>
            <Node pos="r" depth="3" NCoef="0" IVar="-1" Cut="0.0000000000000000e+00" cType="1" res="-2.0531355403363705e-03" rms="2.8057038784027100e-01" purity="5.1561802625656128e-01" nType="-99"/>
          </Node>
          <Node pos="r" depth="2" NCoef="0" IVar="-1" Cut="0.0000000000000000e+00" cType="1" res="-3.8429584354162216e-02" rms="2.9694607853889465e-01" purity="5.5269551277160645e-01" nType="-99"/>
        </Node>
        <Node pos="r" depth="1" NCoef="0" IVar="7" Cut="-1.1876974105834961e+00" cType="1" res="1.5179330948740244e-03" rms="2.8530681133270264e-01" purity="5.1274168491363525e-01" nType="0">
          <Node pos="l" depth="2" NCoef="0" IVar="-1" Cut="0.0000000000000000e+00" cType="1" res="3.1447857618331909e-02" rms="2.4396362900733948e-01" purity="1.9263555109500885e-01" nType="-99"/>
          <Node pos="r" depth="2" NCoef="0" IVar="4" Cut="1.8628372192382812e+02" cType="1" res="1.2156622688053176e-04" rms="2.8866592049598694e-01" purity="5.4129511117935181e-01" nType="0">
            <Node pos="l" depth="3" NCoef="0" IVar="-1" Cut="0.0000000000000000e+00" cType="1" res="-3.5591875202953815e-03" rms="3.0402952432632446e-01" purity="3.8261583447456360e-01" nType="-99"/>
            <Node pos="r" depth="3" NCoef="0" IVar="-1" Cut="0.0000000000000000e+00" cType="1" res="8.7359417229890823e-03" rms="2.5863158702850342e-01" purity="8.2665520906448364e-01" nType="-99"/>
          </Node>
        </Node>
      </Node>
    </BinaryTree>
    <BinaryTree type="DecisionTree" boostWeight="1.0000000000000000e+00" itree="639">
      <Node pos="s" depth="0" NCoef="0" IVar="3" Cut="2.2021211242675781e+02" cType="1" res="1.9719861447811127e-03" rms="2.8814253211021423e-01" purity="4.9702271819114685e-01" nType="0">
        <Node pos="l" depth="1" NCoef="0" IVar="2" Cut="4.1289157104492188e+02" cType="1" res="-1.7458435613662004e-03" rms="2.8240150213241577e-01" purity="3.1583231687545776e-01" nType="0">
          <Node pos="l" depth="2" NCoef="0" IVar="3" Cut="1.8111659240722656e+02" cType="1" res="9.9466880783438683e-04" rms="2.8167462348937988e-01" purity="3.2186067104339600e-01" nType="0">
            <Node pos="l" depth="3" NCoef="0" IVar="-1" Cut="0.0000000000000000e+00" cType="1" res="7.7158208005130291e-03" rms="2.6398602128028870e-01" purity="2.2140000760555267e-01" nType="-99"/>
            <Node pos="r" depth="3" NCoef="0" IVar="-1" Cut="0.0000000000000000e+00" cType="1" res="-7.1886675432324409e-03" rms="3.1029093265533447e-01" purity="4.9921819567680359e-01" nType="-99"/>
          </Node>
          <Node pos="r" depth="2" NCoef="0" IVar="10" Cut="-6.6616666316986084e-01" cType="1" res="-1.4113554731011391e-02" rms="2.8533154726028442e-01" purity="2.8862693905830383e-01" nType="0">
            <Node pos="l" depth="3" NCoef="0" IVar="-1" Cut="0.0000000000000000e+00" cType="1" res="-3.7154242396354675e-02" rms="2.6175105571746826e-01" purity="2.4891729652881622e-01" nType="-99"/>
            <Node pos="r" depth="3" NCoef="0" IVar="-1" Cut="0.0000000000000000e+00" cType="1" res="-6.7239496856927872e-03" rms="2.9526200890541077e-01" purity="3.0702200531959534e-01" nType="-99"/>
          </Node>
        </Node>
        <Node pos="r" depth="1" NCoef="0" IVar="1" Cut="8.7588682770729065e-02" cType="1" res="5.6569157168269157e-03" rms="2.9367560148239136e-01" purity="6.7660969495773315e-01" nType="0">
          <Node pos="l" depth="2" NCoef="0" IVar="8" Cut="1.2000687122344971e+00" cType="1" res="9.7257504239678383e-03" rms="3.2215207815170288e-01" purity="5.2518171072006226e-01" nType="0">
            <Node pos="l" depth="3" NCoef="0" IVar="-1" Cut="0.0000000000000000e+00" cType="1" res="1.1277053505182266e-02" rms="3.2711538672447205e-01" purity="5.6260544061660767e-01" nType="-99"/>
            <Node pos="r" depth="3" NCoef="0" IVar="-1" Cut="0.0000000000000000e+00" cType="1" res="-8.7830061092972755e-03" rms="2.8272104263305664e-01" purity="2.5212168693542480e-01" nType="-99"/>
          </Node>
          <Node pos="r" depth="2" NCoef="0" IVar="8" Cut="-2.4912595748901367e-02" cType="1" res="3.6163648474030197e-05" rms="2.4892881512641907e-01" purity="8.8579463958740234e-01" nType="0">
            <Node pos="l" depth="3" NCoef="0" IVar="-1" Cut="0.0000000000000000e+00" cType="1" res="7.9069323837757111e-03" rms="2.4477925896644592e-01" purity="8.9414632320404053e-01" nType="-99"/>
            <Node pos="r" depth="3" NCoef="0" IVar="-1" Cut="0.0000000000000000e+00" cType="1" res="-7.8339111059904099e-03" rms="2.5298681855201721e-01" purity="8.7728255987167358e-01" nType="-99"/>
          </Node>
        </Node>
      </Node>
    </BinaryTree>
    <BinaryTree type="DecisionTree" boostWeight="1.0000000000000000e+00" itree="640">
      <Node pos="s" depth="0" NCoef="0" IVar="7" Cut="1.4084558188915253e-01" cType="1" res="-4.4263750896789134e-04" rms="2.8590855002403259e-01" purity="4.9839588999748230e-01" nType="0">
        <Node pos="l" depth="1" NCoef="0" IVar="9" Cut="1.3363312184810638e-01" cType="1" res="-3.1051072292029858e-03" rms="2.8525698184967041e-01" purity="5.1011860370635986e-01" nType="0">
          <Node pos="l" depth="2" NCoef="0" IVar="3" Cut="2.2548135375976562e+02" cType="1" res="5.6018168106675148e-04" rms="2.8481006622314453e-01" purity="5.2276992797851562e-01" nType="0">
            <Node pos="l" depth="3" NCoef="0" IVar="-1" Cut="0.0000000000000000e+00" cType="1" res="9.2412829399108887e-03" rms="2.8898239135742188e-01" purity="3.5949075222015381e-01" nType="-99"/>
            <Node pos="r" depth="3" NCoef="0" IVar="-1" Cut="0.0000000000000000e+00" cType="1" res="-9.4315716996788979e-03" rms="2.7986004948616028e-01" purity="7.0441383123397827e-01" nType="-99"/>
          </Node>
          <Node pos="r" depth="2" NCoef="0" IVar="10" Cut="-6.6575145721435547e-01" cType="1" res="-8.1850467249751091e-03" rms="2.8579756617546082e-01" purity="4.9258431792259216e-01" nType="0">
            <Node pos="l" depth="3" NCoef="0" IVar="-1" Cut="0.0000000000000000e+00" cType="1" res="-2.7026746422052383e-02" rms="2.6361420750617981e-01" purity="4.4328573346138000e-01" nType="-99"/>
            <Node pos="r" depth="3" NCoef="0" IVar="-1" Cut="0.0000000000000000e+00" cType="1" res="-3.7114440929144621e-03" rms="2.9393240809440613e-01" purity="5.1202201843261719e-01" nType="-99"/>
          </Node>
        </Node>
        <Node pos="r" depth="1" NCoef="0" IVar="10" Cut="9.3318748474121094e-01" cType="1" res="2.9431500006467104e-03" rms="2.8669926524162292e-01" purity="4.8348850011825562e-01" nType="0">
          <Node pos="l" depth="2" NCoef="0" IVar="9" Cut="-9.3326812982559204e-01" cType="1" res="6.7478963173925877e-03" rms="2.8373217582702637e-01" purity="5.1422685384750366e-01" nType="0">
            <Node pos="l" depth="3" NCoef="0" IVar="-1" Cut="0.0000000000000000e+00" cType="1" res="2.7518482878804207e-02" rms="2.9166150093078613e-01" purity="3.3478951454162598e-01" nType="-99"/>
            <Node pos="r" depth="3" NCoef="0" IVar="-1" Cut="0.0000000000000000e+00" cType="1" res="4.2008571326732635e-03" rms="2.8183981776237488e-01" purity="5.5401647090911865e-01" nType="-99"/>
          </Node>
          <Node pos="r" depth="2" NCoef="0" IVar="5" Cut="6.6473159790039062e+01" cType="1" res="-8.5630165413022041e-03" rms="2.9519274830818176e-01" purity="3.9053058624267578e-01" nType="0">
            <Node pos="l" depth="3" NCoef="0" IVar="-1" Cut="0.0000000000000000e+00" cType="1" res="8.2138022407889366e-03" rms="2.6611867547035217e-01" purity="1.5438126027584076e-01" nType="-99"/>
            <Node pos="r" depth="3" NCoef="0" IVar="-1" Cut="0.0000000000000000e+00" cType="1" res="-1.8276996910572052e-02" rms="3.1288206577301025e-01" purity="5.4953354597091675e-01" nType="-99"/>
          </Node>
        </Node>
      </Node>
    </BinaryTree>
    <BinaryTree type="DecisionTree" boostWeight="1.0000000000000000e+00" itree="641">
      <Node pos="s" depth="0" NCoef="0" IVar="9" Cut="1.3321521878242493e-01" cType="1" res="2.4014855735003948e-03" rms="2.8450945019721985e-01" purity="5.0813668966293335e-01" nType="0">
        <Node pos="l" depth="1" NCoef="0" IVar="11" Cut="8.6663055419921875e-01" cType="1" res="-1.1033712653443217e-03" rms="2.8033381700515747e-01" purity="5.1853871345520020e-01" nType="0">
          <Node pos="l" depth="2" NCoef="0" IVar="11" Cut="-5.4024469107389450e-02" cType="1" res="6.9730740506201982e-04" rms="2.7963966131210327e-01" purity="4.9424687027931213e-01" nType="0">
            <Node pos="l" depth="3" NCoef="0" IVar="-1" Cut="0.0000000000000000e+00" cType="1" res="-1.7652472015470266e-03" rms="2.8490656614303589e-01" purity="4.2629355192184448e-01" nType="-99"/>
            <Node pos="r" depth="3" NCoef="0" IVar="-1" Cut="0.0000000000000000e+00" cType="1" res="1.5663824975490570e-02" rms="2.5351279973983765e-01" purity="8.0973148345947266e-01" nType="-99"/>
          </Node>
          <Node pos="r" depth="2" NCoef="0" IVar="-1" Cut="0.0000000000000000e+00" cType="1" res="-1.7849970608949661e-02" rms="2.8530868887901306e-01" purity="7.0835524797439575e-01" nType="-99"/>
        </Node>
        <Node pos="r" depth="1" NCoef="0" IVar="11" Cut="-7.9059863090515137e-01" cType="1" res="6.7065521143376827e-03" rms="2.8949803113937378e-01" purity="4.9535968899726868e-01" nType="0">
          <Node pos="l" depth="2" NCoef="0" IVar="10" Cut="1.1995141506195068e+00" cType="1" res="1.1551318690180779e-02" rms="2.9853311181068420e-01" purity="3.2819086313247681e-01" nType="0">
            <Node pos="l" depth="3" NCoef="0" IVar="-1" Cut="0.0000000000000000e+00" cType="1" res="8.7209176272153854e-03" rms="3.0172955989837646e-01" purity="3.5014218091964722e-01" nType="-99"/>
            <Node pos="r" depth="3" NCoef="0" IVar="-1" Cut="0.0000000000000000e+00" cType="1" res="3.2479126006364822e-02" rms="2.8591999411582947e-01" purity="2.4682159721851349e-01" nType="-99"/>
          </Node>
          <Node pos="r" depth="2" NCoef="0" IVar="1" Cut="8.4927223622798920e-02" cType="1" res="-6.9451140007004142e-04" rms="2.7495864033699036e-01" purity="7.5073367357254028e-01" nType="0">
            <Node pos="l" depth="3" NCoef="0" IVar="-1" Cut="0.0000000000000000e+00" cType="1" res="-9.7643956542015076e-03" rms="3.2016035914421082e-01" purity="5.8731353282928467e-01" nType="-99"/>
            <Node pos="r" depth="3" NCoef="0" IVar="-1" Cut="0.0000000000000000e+00" cType="1" res="1.5747077763080597e-02" rms="2.1996930241584778e-01" purity="9.1494035720825195e-01" nType="-99"/>
          </Node>
        </Node>
      </Node>
    </BinaryTree>
    <BinaryTree type="DecisionTree" boostWeight="1.0000000000000000e+00" itree="642">
      <Node pos="s" depth="0" NCoef="0" IVar="2" Cut="3.2172921752929688e+02" cType="1" res="-9.6728198695927858e-04" rms="2.8504893183708191e-01" purity="5.0103515386581421e-01" nType="0">
        <Node pos="l" depth="1" NCoef="0" IVar="2" Cut="2.2319015502929688e+02" cType="1" res="-5.8388565666973591e-03" rms="2.8123533725738525e-01" purity="4.1755276918411255e-01" nType="0">
          <Node pos="l" depth="2" NCoef="0" IVar="-1" Cut="0.0000000000000000e+00" cType="1" res="-2.6149371638894081e-02" rms="2.7177429199218750e-01" purity="3.1225305795669556e-01" nType="-99"/>
          <Node pos="r" depth="2" NCoef="0" IVar="6" Cut="6.1442485809326172e+01" cType="1" res="-2.4294231552630663e-03" rms="2.8307247161865234e-01" purity="4.3976068496704102e-01" nType="0">
            <Node pos="l" depth="3" NCoef="0" IVar="-1" Cut="0.0000000000000000e+00" cType="1" res="-8.9718988165259361e-03" rms="2.9230257868766785e-01" purity="2.2133830189704895e-01" nType="-99"/>
            <Node pos="r" depth="3" NCoef="0" IVar="-1" Cut="0.0000000000000000e+00" cType="1" res="9.4604091718792915e-03" rms="2.6607987284660339e-01" purity="8.1754100322723389e-01" nType="-99"/>
          </Node>
        </Node>
        <Node pos="r" depth="1" NCoef="0" IVar="8" Cut="-3.9919370412826538e-01" cType="1" res="2.4340802337974310e-03" rms="2.8763270378112793e-01" purity="5.5932301282882690e-01" nType="0">
          <Node pos="l" depth="2" NCoef="0" IVar="1" Cut="3.7052314728498459e-02" cType="1" res="-5.0414288416504860e-03" rms="2.8336849808692932e-01" purity="4.8061084747314453e-01" nType="0">
            <Node pos="l" depth="3" NCoef="0" IVar="-1" Cut="0.0000000000000000e+00" cType="1" res="3.4725826699286699e-03" rms="2.7049249410629272e-01" purity="2.1207500994205475e-01" nType="-99"/>
            <Node pos="r" depth="3" NCoef="0" IVar="-1" Cut="0.0000000000000000e+00" cType="1" res="-1.2807957828044891e-02" rms="2.9361534118652344e-01" purity="7.0661759376525879e-01" nType="-99"/>
          </Node>
          <Node pos="r" depth="2" NCoef="0" IVar="10" Cut="-1.2003469467163086e+00" cType="1" res="6.0434099286794662e-03" rms="2.8960001468658447e-01" purity="5.9732693433761597e-01" nType="0">
            <Node pos="l" depth="3" NCoef="0" IVar="-1" Cut="0.0000000000000000e+00" cType="1" res="2.5347096845507622e-02" rms="3.0729353427886963e-01" purity="4.9902844429016113e-01" nType="-99"/>
            <Node pos="r" depth="3" NCoef="0" IVar="-1" Cut="0.0000000000000000e+00" cType="1" res="3.9391769096255302e-03" rms="2.8648671507835388e-01" purity="6.1350947618484497e-01" nType="-99"/>
          </Node>
        </Node>
      </Node>
    </BinaryTree>
    <BinaryTree type="DecisionTree" boostWeight="1.0000000000000000e+00" itree="643">
      <Node pos="s" depth="0" NCoef="0" IVar="2" Cut="7.0332525634765625e+02" cType="1" res="1.4061758993193507e-03" rms="2.8510588407516479e-01" purity="5.0346457958221436e-01" nType="0">
        <Node pos="l" depth="1" NCoef="0" IVar="2" Cut="2.2397660827636719e+02" cType="1" res="3.7051297840662301e-04" rms="2.8275570273399353e-01" purity="4.9852997064590454e-01" nType="0">
          <Node pos="l" depth="2" NCoef="0" IVar="-1" Cut="0.0000000000000000e+00" cType="1" res="1.6410905867815018e-02" rms="2.9100340604782104e-01" purity="3.4925425052642822e-01" nType="-99"/>
          <Node pos="r" depth="2" NCoef="0" IVar="7" Cut="-1.1880344152450562e+00" cType="1" res="-7.6585111673921347e-04" rms="2.8202763199806213e-01" purity="5.1097190380096436e-01" nType="0">
            <Node pos="l" depth="3" NCoef="0" IVar="-1" Cut="0.0000000000000000e+00" cType="1" res="2.0748399198055267e-02" rms="2.4003382027149200e-01" purity="1.6696059703826904e-01" nType="-99"/>
            <Node pos="r" depth="3" NCoef="0" IVar="-1" Cut="0.0000000000000000e+00" cType="1" res="-2.4905174504965544e-03" rms="2.8627222776412964e-01" purity="5.4910963773727417e-01" nType="-99"/>
          </Node>
        </Node>
        <Node pos="r" depth="1" NCoef="0" IVar="-1" Cut="0.0000000000000000e+00" cType="1" res="2.2899078205227852e-02" rms="3.3239239454269409e-01" purity="6.1348879337310791e-01" nType="-99"/>
      </Node>
    </BinaryTree>
    <BinaryTree type="DecisionTree" boostWeight="1.0000000000000000e+00" itree="644">
      <Node pos="s" depth="0" NCoef="0" IVar="2" Cut="6.7412200927734375e+02" cType="1" res="1.2035937979817390e-03" rms="2.8581205010414124e-01" purity="5.0077784061431885e-01" nType="0">
        <Node pos="l" depth="1" NCoef="0" IVar="2" Cut="2.2258610534667969e+02" cType="1" res="2.1969440858811140e-03" rms="2.8396078944206238e-01" purity="4.9783983826637268e-01" nType="0">
          <Node pos="l" depth="2" NCoef="0" IVar="-1" Cut="0.0000000000000000e+00" cType="1" res="1.7636328935623169e-02" rms="2.8571864962577820e-01" purity="3.4826463460922241e-01" nType="-99"/>
          <Node pos="r" depth="2" NCoef="0" IVar="9" Cut="-6.6656601428985596e-01" cType="1" res="1.1896898504346609e-03" rms="2.8379726409912109e-01" purity="5.0963509082794189e-01" nType="0">
            <Node pos="l" depth="3" NCoef="0" IVar="-1" Cut="0.0000000000000000e+00" cType="1" res="8.1104645505547523e-03" rms="2.8777399659156799e-01" purity="4.2148593068122864e-01" nType="-99"/>
            <Node pos="r" depth="3" NCoef="0" IVar="-1" Cut="0.0000000000000000e+00" cType="1" res="-1.1706138029694557e-03" rms="2.8227075934410095e-01" purity="5.4248005151748657e-01" nType="-99"/>
          </Node>
        </Node>
        <Node pos="r" depth="1" NCoef="0" IVar="-1" Cut="0.0000000000000000e+00" cType="1" res="-1.7627982422709465e-02" rms="3.1885755062103271e-01" purity="5.5751150846481323e-01" nType="-99"/>
      </Node>
    </BinaryTree>
    <BinaryTree type="DecisionTree" boostWeight="1.0000000000000000e+00" itree="645">
      <Node pos="s" depth="0" NCoef="0" IVar="1" Cut="6.3384257256984711e-02" cType="1" res="-4.9779709661379457e-04" rms="2.8376495838165283e-01" purity="5.0176352262496948e-01" nType="0">
        <Node pos="l" depth="1" NCoef="0" IVar="10" Cut="-9.3327283859252930e-01" cType="1" res="-3.7662584800273180e-03" rms="2.8028827905654907e-01" purity="2.7847969532012939e-01" nType="0">
          <Node pos="l" depth="2" NCoef="0" IVar="7" Cut="-6.2438517808914185e-01" cType="1" res="5.7810512371361256e-03" rms="2.6943969726562500e-01" purity="2.1463496983051300e-01" nType="0">
            <Node pos="l" depth="3" NCoef="0" IVar="-1" Cut="0.0000000000000000e+00" cType="1" res="-1.5617974102497101e-02" rms="2.3346212506294250e-01" purity="1.2888337671756744e-01" nType="-99"/>
            <Node pos="r" depth="3" NCoef="0" IVar="-1" Cut="0.0000000000000000e+00" cType="1" res="1.9047701731324196e-02" rms="2.8929084539413452e-01" purity="2.6823896169662476e-01" nType="-99"/>
          </Node>
          <Node pos="r" depth="2" NCoef="0" IVar="3" Cut="2.1779515075683594e+02" cType="1" res="-6.8708756007254124e-03" rms="2.8365746140480042e-01" purity="2.9924088716506958e-01" nType="0">
            <Node pos="l" depth="3" NCoef="0" IVar="-1" Cut="0.0000000000000000e+00" cType="1" res="-1.7585144378244877e-03" rms="2.6222935318946838e-01" purity="1.6685855388641357e-01" nType="-99"/>
            <Node pos="r" depth="3" NCoef="0" IVar="-1" Cut="0.0000000000000000e+00" cType="1" res="-1.3441119343042374e-02" rms="3.0815833806991577e-01" purity="4.6434491872787476e-01" nType="-99"/>
          </Node>
        </Node>
        <Node pos="r" depth="1" NCoef="0" IVar="7" Cut="-7.4533957242965698e-01" cType="1" res="3.4359283745288849e-03" rms="2.8784438967704773e-01" purity="7.7049469947814941e-01" nType="0">
          <Node pos="l" depth="2" NCoef="0" IVar="-1" Cut="0.0000000000000000e+00" cType="1" res="-1.8441438674926758e-02" rms="3.0090752243995667e-01" purity="6.9003355503082275e-01" nType="-99"/>
          <Node pos="r" depth="2" NCoef="0" IVar="11" Cut="-1.8954582214355469e+00" cType="1" res="5.8994777500629425e-03" rms="2.8612819314002991e-01" purity="7.8021085262298584e-01" nType="0">
            <Node pos="l" depth="3" NCoef="0" IVar="-1" Cut="0.0000000000000000e+00" cType="1" res="1.0644091293215752e-02" rms="3.6042872071266174e-01" purity="5.2421504259109497e-01" nType="-99"/>
            <Node pos="r" depth="3" NCoef="0" IVar="-1" Cut="0.0000000000000000e+00" cType="1" res="3.2881475053727627e-03" rms="2.4440887570381165e-01" purity="8.9790600538253784e-01" nType="-99"/>
          </Node>
        </Node>
      </Node>
    </BinaryTree>
    <BinaryTree type="DecisionTree" boostWeight="1.0000000000000000e+00" itree="646">
      <Node pos="s" depth="0" NCoef="0" IVar="9" Cut="-6.6665583848953247e-01" cType="1" res="-6.0556235257536173e-04" rms="2.8488183021545410e-01" purity="5.0047308206558228e-01" nType="0">
        <Node pos="l" depth="1" NCoef="0" IVar="1" Cut="2.0886050537228584e-02" cType="1" res="-7.2422521188855171e-03" rms="2.8700920939445496e-01" purity="4.0103903412818909e-01" nType="0">
          <Node pos="l" depth="2" NCoef="0" IVar="1" Cut="1.1943629011511803e-02" cType="1" res="2.6948964223265648e-03" rms="2.0734046399593353e-01" purity="9.5115438103675842e-02" nType="0">
            <Node pos="l" depth="3" NCoef="0" IVar="-1" Cut="0.0000000000000000e+00" cType="1" res="2.3706568405032158e-02" rms="1.9517235457897186e-01" purity="7.0049457252025604e-02" nType="-99"/>
            <Node pos="r" depth="3" NCoef="0" IVar="-1" Cut="0.0000000000000000e+00" cType="1" res="-9.4469450414180756e-03" rms="2.2402460873126984e-01" purity="1.3254529237747192e-01" nType="-99"/>
          </Node>
          <Node pos="r" depth="2" NCoef="0" IVar="10" Cut="6.6652017831802368e-01" cType="1" res="-1.1145408265292645e-02" rms="3.1271356344223022e-01" purity="5.2120095491409302e-01" nType="0">
            <Node pos="l" depth="3" NCoef="0" IVar="-1" Cut="0.0000000000000000e+00" cType="1" res="-6.7622540518641472e-03" rms="3.1005656719207764e-01" purity="5.4349863529205322e-01" nType="-99"/>
            <Node pos="r" depth="3" NCoef="0" IVar="-1" Cut="0.0000000000000000e+00" cType="1" res="-2.1738795563578606e-02" rms="3.1977790594100952e-01" purity="4.5818161964416504e-01" nType="-99"/>
          </Node>
        </Node>
        <Node pos="r" depth="1" NCoef="0" IVar="9" Cut="4.8879757523536682e-01" cType="1" res="1.7571668140590191e-03" rms="2.8408318758010864e-01" purity="5.3587263822555542e-01" nType="0">
          <Node pos="l" depth="2" NCoef="0" IVar="1" Cut="1.3655148446559906e-01" cType="1" res="6.3466238789260387e-03" rms="2.8187617659568787e-01" purity="6.1674481630325317e-01" nType="0">
            <Node pos="l" depth="3" NCoef="0" IVar="-1" Cut="0.0000000000000000e+00" cType="1" res="1.0459361597895622e-02" rms="2.9553380608558655e-01" purity="5.3471392393112183e-01" nType="-99"/>
            <Node pos="r" depth="3" NCoef="0" IVar="-1" Cut="0.0000000000000000e+00" cType="1" res="-9.8288245499134064e-03" rms="2.2560796141624451e-01" purity="9.1210699081420898e-01" nType="-99"/>
          </Node>
          <Node pos="r" depth="2" NCoef="0" IVar="4" Cut="9.7378334045410156e+01" cType="1" res="-4.2333207093179226e-03" rms="2.8682795166969299e-01" purity="4.3031242489814758e-01" nType="0">
            <Node pos="l" depth="3" NCoef="0" IVar="-1" Cut="0.0000000000000000e+00" cType="1" res="3.0060214921832085e-02" rms="2.1663913130760193e-01" purity="8.5067346692085266e-02" nType="-99"/>
            <Node pos="r" depth="3" NCoef="0" IVar="-1" Cut="0.0000000000000000e+00" cType="1" res="-9.0610645711421967e-03" rms="3.0089604854583740e-01" purity="5.1197683811187744e-01" nType="-99"/>
          </Node>
        </Node>
      </Node>
    </BinaryTree>
    <BinaryTree type="DecisionTree" boostWeight="1.0000000000000000e+00" itree="647">
      <Node pos="s" depth="0" NCoef="0" IVar="10" Cut="-1.9999732971191406e+00" cType="1" res="-1.7060574609786272e-03" rms="2.8514018654823303e-01" purity="4.9985051155090332e-01" nType="0">
        <Node pos="l" depth="1" NCoef="0" IVar="-1" Cut="0.0000000000000000e+00" cType="1" res="2.6929998770356178e-02" rms="3.0135080218315125e-01" purity="2.6788514852523804e-01" nType="-99"/>
        <Node pos="r" depth="1" NCoef="0" IVar="5" Cut="9.0401306152343750e+01" cType="1" res="-2.8658376540988684e-03" rms="2.8422617912292480e-01" purity="5.1188206672668457e-01" nType="0">
          <Node pos="l" depth="2" NCoef="0" IVar="8" Cut="-1.3330276310443878e-01" cType="1" res="-7.0882299914956093e-03" rms="3.0086511373519897e-01" purity="2.8845646977424622e-01" nType="0">
            <Node pos="l" depth="3" NCoef="0" IVar="-1" Cut="0.0000000000000000e+00" cType="1" res="4.8926409363048151e-05" rms="2.9612731933593750e-01" purity="2.7920860052108765e-01" nType="-99"/>
            <Node pos="r" depth="3" NCoef="0" IVar="-1" Cut="0.0000000000000000e+00" cType="1" res="-1.3505838811397552e-02" rms="3.0468189716339111e-01" purity="2.9627272486686707e-01" nType="-99"/>
          </Node>
          <Node pos="r" depth="2" NCoef="0" IVar="0" Cut="1.7121667480468750e+03" cType="1" res="3.2131189946085215e-03" rms="2.5827515125274658e-01" purity="8.3354669809341431e-01" nType="0">
            <Node pos="l" depth="3" NCoef="0" IVar="-1" Cut="0.0000000000000000e+00" cType="1" res="1.0425217449665070e-02" rms="3.2453286647796631e-01" purity="6.8783688545227051e-01" nType="-99"/>
            <Node pos="r" depth="3" NCoef="0" IVar="-1" Cut="0.0000000000000000e+00" cType="1" res="-4.8380945809185505e-03" rms="2.0547072589397430e-01" purity="9.2567527294158936e-01" nType="-99"/>
          </Node>
        </Node>
      </Node>
    </BinaryTree>
    <BinaryTree type="DecisionTree" boostWeight="1.0000000000000000e+00" itree="648">
      <Node pos="s" depth="0" NCoef="0" IVar="3" Cut="2.3286648559570312e+02" cType="1" res="-4.9303018022328615e-04" rms="2.8725460171699524e-01" purity="4.9845576286315918e-01" nType="0">
        <Node pos="l" depth="1" NCoef="0" IVar="8" Cut="4.0009662508964539e-01" cType="1" res="2.7416506782174110e-03" rms="2.8793215751647949e-01" purity="3.5147726535797119e-01" nType="0">
          <Node pos="l" depth="2" NCoef="0" IVar="9" Cut="-6.6663908958435059e-01" cType="1" res="-3.5619252594187856e-04" rms="2.8734928369522095e-01" purity="3.7363845109939575e-01" nType="0">
            <Node pos="l" depth="3" NCoef="0" IVar="-1" Cut="0.0000000000000000e+00" cType="1" res="-1.3410573825240135e-02" rms="2.7781710028648376e-01" purity="2.9171547293663025e-01" nType="-99"/>
            <Node pos="r" depth="3" NCoef="0" IVar="-1" Cut="0.0000000000000000e+00" cType="1" res="5.0955805927515030e-03" rms="2.9138365387916565e-01" purity="4.1027408838272095e-01" nType="-99"/>
          </Node>
          <Node pos="r" depth="2" NCoef="0" IVar="10" Cut="1.1996786594390869e+00" cType="1" res="8.2405572757124901e-03" rms="2.8888210654258728e-01" purity="3.1213951110839844e-01" nType="0">
            <Node pos="l" depth="3" NCoef="0" IVar="-1" Cut="0.0000000000000000e+00" cType="1" res="1.6220010817050934e-02" rms="2.9342043399810791e-01" purity="3.4434413909912109e-01" nType="-99"/>
            <Node pos="r" depth="3" NCoef="0" IVar="-1" Cut="0.0000000000000000e+00" cType="1" res="-1.3089309446513653e-02" rms="2.7188676595687866e-01" purity="2.0129621028900146e-01" nType="-99"/>
          </Node>
        </Node>
        <Node pos="r" depth="1" NCoef="0" IVar="11" Cut="-2.3812103271484375e-01" cType="1" res="-4.5352377928793430e-03" rms="2.8635430335998535e-01" purity="6.8212705850601196e-01" nType="0">
          <Node pos="l" depth="2" NCoef="0" IVar="1" Cut="2.1192498505115509e-02" cType="1" res="-9.8200067877769470e-03" rms="3.0702456831932068e-01" purity="5.7739078998565674e-01" nType="0">
            <Node pos="l" depth="3" NCoef="0" IVar="-1" Cut="0.0000000000000000e+00" cType="1" res="7.3529733344912529e-03" rms="2.8660050034523010e-01" purity="2.0058134198188782e-01" nType="-99"/>
            <Node pos="r" depth="3" NCoef="0" IVar="-1" Cut="0.0000000000000000e+00" cType="1" res="-1.4689338393509388e-02" rms="3.1289002299308777e-01" purity="6.9340723752975464e-01" nType="-99"/>
          </Node>
          <Node pos="r" depth="2" NCoef="0" IVar="0" Cut="1.6408625488281250e+03" cType="1" res="3.7843720056116581e-03" rms="2.5015363097190857e-01" purity="8.4700936079025269e-01" nType="0">
            <Node pos="l" depth="3" NCoef="0" IVar="-1" Cut="0.0000000000000000e+00" cType="1" res="1.7178127542138100e-02" rms="3.3570083975791931e-01" purity="6.2880772352218628e-01" nType="-99"/>
            <Node pos="r" depth="3" NCoef="0" IVar="-1" Cut="0.0000000000000000e+00" cType="1" res="-1.7842840170487761e-03" rms="2.2254911065101624e-01" purity="9.0335434675216675e-01" nType="-99"/>
          </Node>
        </Node>
      </Node>
    </BinaryTree>
    <BinaryTree type="DecisionTree" boostWeight="1.0000000000000000e+00" itree="649">
      <Node pos="s" depth="0" NCoef="0" IVar="9" Cut="-6.6672980785369873e-01" cType="1" res="1.0138862999156117e-03" rms="2.8601557016372681e-01" purity="4.9917942285537720e-01" nType="0">
        <Node pos="l" depth="1" NCoef="0" IVar="3" Cut="2.1948919677734375e+02" cType="1" res="7.8531615436077118e-03" rms="2.8735294938087463e-01" purity="4.1102603077888489e-01" nType="0">
          <Node pos="l" depth="2" NCoef="0" IVar="3" Cut="1.7297166442871094e+02" cType="1" res="-1.2133107520639896e-03" rms="2.7820104360580444e-01" purity="2.6035133004188538e-01" nType="0">
            <Node pos="l" depth="3" NCoef="0" IVar="-1" Cut="0.0000000000000000e+00" cType="1" res="1.0476573370397091e-02" rms="2.5911891460418701e-01" purity="1.7171892523765564e-01" nType="-99"/>
            <Node pos="r" depth="3" NCoef="0" IVar="-1" Cut="0.0000000000000000e+00" cType="1" res="-1.3384596444666386e-02" rms="3.0281284451484680e-01" purity="3.8593339920043945e-01" nType="-99"/>
          </Node>
          <Node pos="r" depth="2" NCoef="0" IVar="0" Cut="1.4608187255859375e+03" cType="1" res="1.8708499148488045e-02" rms="2.9757785797119141e-01" purity="5.9142976999282837e-01" nType="0">
            <Node pos="l" depth="3" NCoef="0" IVar="-1" Cut="0.0000000000000000e+00" cType="1" res="4.8513520509004593e-02" rms="3.1399589776992798e-01" purity="2.7590420842170715e-01" nType="-99"/>
            <Node pos="r" depth="3" NCoef="0" IVar="-1" Cut="0.0000000000000000e+00" cType="1" res="9.1024944558739662e-03" rms="2.9098126292228699e-01" purity="7.0078682899475098e-01" nType="-99"/>
          </Node>
        </Node>
        <Node pos="r" depth="1" NCoef="0" IVar="2" Cut="3.2172802734375000e+02" cType="1" res="-1.5468710334971547e-03" rms="2.8547108173370361e-01" purity="5.3218573331832886e-01" nType="0">
          <Node pos="l" depth="2" NCoef="0" IVar="9" Cut="3.2340785861015320e-01" cType="1" res="-8.3826016634702682e-03" rms="2.8702431917190552e-01" purity="4.4781249761581421e-01" nType="0">
            <Node pos="l" depth="3" NCoef="0" IVar="-1" Cut="0.0000000000000000e+00" cType="1" res="-1.9025249406695366e-02" rms="2.8559014201164246e-01" purity="5.2070075273513794e-01" nType="-99"/>
            <Node pos="r" depth="3" NCoef="0" IVar="-1" Cut="0.0000000000000000e+00" cType="1" res="-1.8116855062544346e-03" rms="2.8805997967720032e-01" purity="3.8585427403450012e-01" nType="-99"/>
          </Node>
          <Node pos="r" depth="2" NCoef="0" IVar="8" Cut="6.6586309671401978e-01" cType="1" res="2.8642418328672647e-03" rms="2.8437703847885132e-01" purity="5.8663207292556763e-01" nType="0">
            <Node pos="l" depth="3" NCoef="0" IVar="-1" Cut="0.0000000000000000e+00" cType="1" res="-2.3971872869879007e-03" rms="2.8167662024497986e-01" purity="6.2822365760803223e-01" nType="-99"/>
            <Node pos="r" depth="3" NCoef="0" IVar="-1" Cut="0.0000000000000000e+00" cType="1" res="2.1928349509835243e-02" rms="2.9232212901115417e-01" purity="4.5337763428688049e-01" nType="-99"/>
          </Node>
        </Node>
      </Node>
    </BinaryTree>
    <BinaryTree type="DecisionTree" boostWeight="1.0000000000000000e+00" itree="650">
      <Node pos="s" depth="0" NCoef="0" IVar="9" Cut="1.3341796398162842e-01" cType="1" res="-3.2875996112124994e-06" rms="2.8438687324523926e-01" purity="5.0084006786346436e-01" nType="0">
        <Node pos="l" depth="1" NCoef="0" IVar="1" Cut="6.5692320466041565e-02" cType="1" res="-4.0592798031866550e-03" rms="2.8129750490188599e-01" purity="5.0898033380508423e-01" nType="0">
          <Node pos="l" depth="2" NCoef="0" IVar="9" Cut="-1.9617079496383667e+00" cType="1" res="-4.1165135917253792e-04" rms="2.8349617123603821e-01" purity="2.8467831015586853e-01" nType="0">
            <Node pos="l" depth="3" NCoef="0" IVar="-1" Cut="0.0000000000000000e+00" cType="1" res="-4.8000469803810120e-02" rms="1.6294457018375397e-01" purity="6.7552439868450165e-02" nType="-99"/>
            <Node pos="r" depth="3" NCoef="0" IVar="-1" Cut="0.0000000000000000e+00" cType="1" res="2.3700566962361336e-03" rms="2.9449614882469177e-01" purity="3.1055539846420288e-01" nType="-99"/>
          </Node>
          <Node pos="r" depth="2" NCoef="0" IVar="0" Cut="1.3105281982421875e+03" cType="1" res="-8.3955824375152588e-03" rms="2.7859899401664734e-01" purity="7.7563077211380005e-01" nType="0">
            <Node pos="l" depth="3" NCoef="0" IVar="-1" Cut="0.0000000000000000e+00" cType="1" res="-2.6285288855433464e-02" rms="3.7505775690078735e-01" purity="3.1852442026138306e-01" nType="-99"/>
            <Node pos="r" depth="3" NCoef="0" IVar="-1" Cut="0.0000000000000000e+00" cType="1" res="-4.3148529948666692e-04" rms="2.4682530760765076e-01" purity="8.9434391260147095e-01" nType="-99"/>
          </Node>
        </Node>
        <Node pos="r" depth="1" NCoef="0" IVar="10" Cut="-1.2000974416732788e+00" cType="1" res="5.0148353911936283e-03" rms="2.8808426856994629e-01" purity="4.9076890945434570e-01" nType="0">
          <Node pos="l" depth="2" NCoef="0" IVar="7" Cut="2.0345409214496613e-01" cType="1" res="-7.6572964899241924e-03" rms="2.8297063708305359e-01" purity="3.6340945959091187e-01" nType="0">
            <Node pos="l" depth="3" NCoef="0" IVar="-1" Cut="0.0000000000000000e+00" cType="1" res="-2.1056791767477989e-02" rms="2.7924302220344543e-01" purity="3.7079155445098877e-01" nType="-99"/>
            <Node pos="r" depth="3" NCoef="0" IVar="-1" Cut="0.0000000000000000e+00" cType="1" res="8.1538502126932144e-03" rms="2.8797188401222229e-01" purity="3.5209748148918152e-01" nType="-99"/>
          </Node>
          <Node pos="r" depth="2" NCoef="0" IVar="0" Cut="1.9796640625000000e+03" cType="1" res="7.1676317602396011e-03" rms="2.8888875246047974e-01" purity="5.1240527629852295e-01" nType="0">
            <Node pos="l" depth="3" NCoef="0" IVar="-1" Cut="0.0000000000000000e+00" cType="1" res="1.0671144351363182e-02" rms="3.0003458261489868e-01" purity="4.2272931337356567e-01" nType="-99"/>
            <Node pos="r" depth="3" NCoef="0" IVar="-1" Cut="0.0000000000000000e+00" cType="1" res="-8.1860236823558807e-03" rms="2.3637908697128296e-01" purity="8.8700371980667114e-01" nType="-99"/>
          </Node>
        </Node>
      </Node>
    </BinaryTree>
    <BinaryTree type="DecisionTree" boostWeight="1.0000000000000000e+00" itree="651">
      <Node pos="s" depth="0" NCoef="0" IVar="4" Cut="1.9273492431640625e+02" cType="1" res="1.6075510066002607e-03" rms="2.8644964098930359e-01" purity="5.0410020351409912e-01" nType="0">
        <Node pos="l" depth="1" NCoef="0" IVar="5" Cut="1.0974616241455078e+02" cType="1" res="-1.9016051664948463e-03" rms="2.9635593295097351e-01" purity="3.5923549532890320e-01" nType="0">
          <Node pos="l" depth="2" NCoef="0" IVar="6" Cut="5.7298095703125000e+01" cType="1" res="6.0702359769493341e-04" rms="3.0224874615669250e-01" purity="2.9061090946197510e-01" nType="0">
            <Node pos="l" depth="3" NCoef="0" IVar="-1" Cut="0.0000000000000000e+00" cType="1" res="4.2228214442729950e-03" rms="2.8932487964630127e-01" purity="1.7931121587753296e-01" nType="-99"/>
            <Node pos="r" depth="3" NCoef="0" IVar="-1" Cut="0.0000000000000000e+00" cType="1" res="-6.7822760902345181e-03" rms="3.3754855394363403e-01" purity="6.2080490589141846e-01" nType="-99"/>
          </Node>
          <Node pos="r" depth="2" NCoef="0" IVar="11" Cut="-7.9243713617324829e-01" cType="1" res="-1.8435772508382797e-02" rms="2.5350105762481689e-01" purity="8.1153458356857300e-01" nType="0">
            <Node pos="l" depth="3" NCoef="0" IVar="-1" Cut="0.0000000000000000e+00" cType="1" res="-4.3264891952276230e-02" rms="2.8872534632682800e-01" purity="6.7910575866699219e-01" nType="-99"/>
            <Node pos="r" depth="3" NCoef="0" IVar="-1" Cut="0.0000000000000000e+00" cType="1" res="-1.2453306466341019e-02" rms="2.3033519089221954e-01" purity="8.8681054115295410e-01" nType="-99"/>
          </Node>
        </Node>
        <Node pos="r" depth="1" NCoef="0" IVar="6" Cut="7.1635917663574219e+01" cType="1" res="9.0739037841558456e-03" rms="2.6398375630378723e-01" purity="8.1232553720474243e-01" nType="0">
          <Node pos="l" depth="2" NCoef="0" IVar="10" Cut="6.6577678918838501e-01" cType="1" res="1.7718227580189705e-02" rms="3.2179287075996399e-01" purity="6.7628777027130127e-01" nType="0">
            <Node pos="l" depth="3" NCoef="0" IVar="-1" Cut="0.0000000000000000e+00" cType="1" res="5.9975902549922466e-03" rms="3.1640893220901489e-01" purity="6.8050724267959595e-01" nType="-99"/>
            <Node pos="r" depth="3" NCoef="0" IVar="-1" Cut="0.0000000000000000e+00" cType="1" res="3.6724537611007690e-02" rms="3.3245798945426941e-01" purity="6.6655009984970093e-01" nType="-99"/>
          </Node>
          <Node pos="r" depth="2" NCoef="0" IVar="7" Cut="2.1292062103748322e-01" cType="1" res="1.1590571375563741e-03" rms="1.9634355604648590e-01" purity="9.3688333034515381e-01" nType="0">
            <Node pos="l" depth="3" NCoef="0" IVar="-1" Cut="0.0000000000000000e+00" cType="1" res="1.9325224682688713e-02" rms="1.8570742011070251e-01" purity="9.4825834035873413e-01" nType="-99"/>
            <Node pos="r" depth="3" NCoef="0" IVar="-1" Cut="0.0000000000000000e+00" cType="1" res="-2.0605836063623428e-02" rms="2.1183148026466370e-01" purity="9.1871017217636108e-01" nType="-99"/>
          </Node>
        </Node>
      </Node>
    </BinaryTree>
    <BinaryTree type="DecisionTree" boostWeight="1.0000000000000000e+00" itree="652">
      <Node pos="s" depth="0" NCoef="0" IVar="1" Cut="6.2605693936347961e-02" cType="1" res="-2.3976576048880816e-03" rms="2.8285601735115051e-01" purity="4.9504658579826355e-01" nType="0">
        <Node pos="l" depth="1" NCoef="0" IVar="1" Cut="5.3663525730371475e-02" cType="1" res="-7.0096254348754883e-03" rms="2.7652475237846375e-01" purity="2.6775258779525757e-01" nType="0">
          <Node pos="l" depth="2" NCoef="0" IVar="1" Cut="4.5999012887477875e-02" cType="1" res="-9.0240845456719398e-03" rms="2.6865723729133606e-01" purity="2.3800714313983917e-01" nType="0">
            <Node pos="l" depth="3" NCoef="0" IVar="-1" Cut="0.0000000000000000e+00" cType="1" res="-7.9731624573469162e-03" rms="2.6284089684486389e-01" purity="2.1703682839870453e-01" nType="-99"/>
            <Node pos="r" depth="3" NCoef="0" IVar="-1" Cut="0.0000000000000000e+00" cType="1" res="-3.4190602600574493e-02" rms="3.1693741679191589e-01" purity="4.3604224920272827e-01" nType="-99"/>
          </Node>
          <Node pos="r" depth="2" NCoef="0" IVar="-1" Cut="0.0000000000000000e+00" cType="1" res="1.0714660398662090e-02" rms="3.4120097756385803e-01" purity="5.4757255315780640e-01" nType="-99"/>
        </Node>
        <Node pos="r" depth="1" NCoef="0" IVar="7" Cut="7.1536785364151001e-01" cType="1" res="3.0407684389501810e-03" rms="2.9005017876625061e-01" purity="7.6307135820388794e-01" nType="0">
          <Node pos="l" depth="2" NCoef="0" IVar="3" Cut="2.0941662597656250e+02" cType="1" res="5.8615515008568764e-03" rms="2.8804540634155273e-01" purity="7.7308386564254761e-01" nType="0">
            <Node pos="l" depth="3" NCoef="0" IVar="-1" Cut="0.0000000000000000e+00" cType="1" res="1.3776110485196114e-02" rms="3.3527061343193054e-01" purity="5.9498381614685059e-01" nType="-99"/>
            <Node pos="r" depth="3" NCoef="0" IVar="-1" Cut="0.0000000000000000e+00" cType="1" res="1.0434503201395273e-03" rms="2.5979682803153992e-01" purity="8.6625403165817261e-01" nType="-99"/>
          </Node>
          <Node pos="r" depth="2" NCoef="0" IVar="-1" Cut="0.0000000000000000e+00" cType="1" res="-1.8811350688338280e-02" rms="3.0387488007545471e-01" purity="6.8772655725479126e-01" nType="-99"/>
        </Node>
      </Node>
    </BinaryTree>
    <BinaryTree type="DecisionTree" boostWeight="1.0000000000000000e+00" itree="653">
      <Node pos="s" depth="0" NCoef="0" IVar="1" Cut="4.3795950710773468e-02" cType="1" res="1.3417644659057260e-03" rms="2.8387951850891113e-01" purity="5.0447171926498413e-01" nType="0">
        <Node pos="l" depth="1" NCoef="0" IVar="9" Cut="4.0019369125366211e-01" cType="1" res="-3.1903553754091263e-03" rms="2.6649028062820435e-01" purity="2.1376042068004608e-01" nType="0">
          <Node pos="l" depth="2" NCoef="0" IVar="9" Cut="9.5431648194789886e-02" cType="1" res="-8.8560264557600021e-03" rms="2.6720690727233887e-01" purity="2.2191123664379120e-01" nType="0">
            <Node pos="l" depth="3" NCoef="0" IVar="-1" Cut="0.0000000000000000e+00" cType="1" res="-7.1141137741506100e-03" rms="2.6541501283645630e-01" purity="2.1341456472873688e-01" nType="-99"/>
            <Node pos="r" depth="3" NCoef="0" IVar="-1" Cut="0.0000000000000000e+00" cType="1" res="-3.3357545733451843e-02" rms="2.7649682760238647e-01" purity="2.7165529131889343e-01" nType="-99"/>
          </Node>
          <Node pos="r" depth="2" NCoef="0" IVar="5" Cut="9.0303520202636719e+01" cType="1" res="6.0713104903697968e-03" rms="2.6505398750305176e-01" purity="2.0043623447418213e-01" nType="0">
            <Node pos="l" depth="3" NCoef="0" IVar="-1" Cut="0.0000000000000000e+00" cType="1" res="-4.8095583915710449e-03" rms="2.4125452339649200e-01" purity="1.1439023166894913e-01" nType="-99"/>
            <Node pos="r" depth="3" NCoef="0" IVar="-1" Cut="0.0000000000000000e+00" cType="1" res="3.6124084144830704e-02" rms="3.4448999166488647e-01" purity="5.5873817205429077e-01" nType="-99"/>
          </Node>
        </Node>
        <Node pos="r" depth="1" NCoef="0" IVar="4" Cut="1.3554463195800781e+02" cType="1" res="4.6646408736705780e-03" rms="2.9593649506568909e-01" purity="7.1761649847030640e-01" nType="0">
          <Node pos="l" depth="2" NCoef="0" IVar="9" Cut="1.3330475986003876e-01" cType="1" res="1.7139896750450134e-02" rms="3.4741792082786560e-01" purity="3.9049062132835388e-01" nType="0">
            <Node pos="l" depth="3" NCoef="0" IVar="-1" Cut="0.0000000000000000e+00" cType="1" res="2.4563867598772049e-02" rms="3.5911458730697632e-01" purity="4.2020854353904724e-01" nType="-99"/>
            <Node pos="r" depth="3" NCoef="0" IVar="-1" Cut="0.0000000000000000e+00" cType="1" res="8.6543725046794862e-05" rms="3.3217760920524597e-01" purity="3.5516813397407532e-01" nType="-99"/>
          </Node>
          <Node pos="r" depth="2" NCoef="0" IVar="10" Cut="-6.6614842414855957e-01" cType="1" res="4.1303088073618710e-04" rms="2.7607899904251099e-01" purity="8.2910209894180298e-01" nType="0">
            <Node pos="l" depth="3" NCoef="0" IVar="-1" Cut="0.0000000000000000e+00" cType="1" res="1.0667713358998299e-02" rms="2.7607336640357971e-01" purity="8.1580770015716553e-01" nType="-99"/>
            <Node pos="r" depth="3" NCoef="0" IVar="-1" Cut="0.0000000000000000e+00" cType="1" res="-3.7465733475983143e-03" rms="2.7600830793380737e-01" purity="8.3424746990203857e-01" nType="-99"/>
          </Node>
        </Node>
      </Node>
    </BinaryTree>
    <BinaryTree type="DecisionTree" boostWeight="1.0000000000000000e+00" itree="654">
      <Node pos="s" depth="0" NCoef="0" IVar="5" Cut="9.0401306152343750e+01" cType="1" res="3.1921318732202053e-03" rms="2.8365299105644226e-01" purity="5.0562286376953125e-01" nType="0">
        <Node pos="l" depth="1" NCoef="0" IVar="10" Cut="1.1997984647750854e+00" cType="1" res="-8.7782467016950250e-04" rms="3.0027320981025696e-01" purity="2.8975886106491089e-01" nType="0">
          <Node pos="l" depth="2" NCoef="0" IVar="5" Cut="5.9619171142578125e+01" cType="1" res="1.7066180007532239e-03" rms="3.0516088008880615e-01" purity="3.0552816390991211e-01" nType="0">
            <Node pos="l" depth="3" NCoef="0" IVar="-1" Cut="0.0000000000000000e+00" cType="1" res="-8.3114868029952049e-03" rms="2.5760418176651001e-01" purity="1.3433638215065002e-01" nType="-99"/>
            <Node pos="r" depth="3" NCoef="0" IVar="-1" Cut="0.0000000000000000e+00" cType="1" res="5.3549162112176418e-03" rms="3.2889419794082642e-01" purity="4.0208864212036133e-01" nType="-99"/>
          </Node>
          <Node pos="r" depth="2" NCoef="0" IVar="2" Cut="3.0865542602539062e+02" cType="1" res="-1.1793931014835835e-02" rms="2.7842015027999878e-01" purity="2.2315278649330139e-01" nType="0">
            <Node pos="l" depth="3" NCoef="0" IVar="-1" Cut="0.0000000000000000e+00" cType="1" res="-3.0572956427931786e-02" rms="2.5404822826385498e-01" purity="1.5909686684608459e-01" nType="-99"/>
            <Node pos="r" depth="3" NCoef="0" IVar="-1" Cut="0.0000000000000000e+00" cType="1" res="-3.6871384363621473e-03" rms="2.9590880870819092e-01" purity="2.7354732155799866e-01" nType="-99"/>
          </Node>
        </Node>
        <Node pos="r" depth="1" NCoef="0" IVar="8" Cut="-9.3276095390319824e-01" cType="1" res="9.4440402463078499e-03" rms="2.5590345263481140e-01" purity="8.3721411228179932e-01" nType="0">
          <Node pos="l" depth="2" NCoef="0" IVar="-1" Cut="0.0000000000000000e+00" cType="1" res="2.7292173355817795e-02" rms="2.9280978441238403e-01" purity="6.8772816658020020e-01" nType="-99"/>
          <Node pos="r" depth="2" NCoef="0" IVar="4" Cut="1.7622006225585938e+02" cType="1" res="6.8905116058886051e-03" rms="2.5004535913467407e-01" purity="8.5870969295501709e-01" nType="0">
            <Node pos="l" depth="3" NCoef="0" IVar="-1" Cut="0.0000000000000000e+00" cType="1" res="1.6956999897956848e-02" rms="3.0129793286323547e-01" purity="7.6160287857055664e-01" nType="-99"/>
            <Node pos="r" depth="3" NCoef="0" IVar="-1" Cut="0.0000000000000000e+00" cType="1" res="4.4695856049656868e-03" rms="2.2034275531768799e-01" purity="9.0650314092636108e-01" nType="-99"/>
          </Node>
        </Node>
      </Node>
    </BinaryTree>
    <BinaryTree type="DecisionTree" boostWeight="1.0000000000000000e+00" itree="655">
      <Node pos="s" depth="0" NCoef="0" IVar="7" Cut="6.7294001579284668e-01" cType="1" res="-3.9550098590552807e-03" rms="2.8420680761337280e-01" purity="4.9724227190017700e-01" nType="0">
        <Node pos="l" depth="1" NCoef="0" IVar="7" Cut="3.4381869435310364e-01" cType="1" res="-5.7114302180707455e-03" rms="2.8655618429183960e-01" purity="5.4363352060317993e-01" nType="0">
          <Node pos="l" depth="2" NCoef="0" IVar="11" Cut="-7.9049682617187500e-01" cType="1" res="-2.8910678811371326e-03" rms="2.8472083806991577e-01" purity="5.3311985731124878e-01" nType="0">
            <Node pos="l" depth="3" NCoef="0" IVar="-1" Cut="0.0000000000000000e+00" cType="1" res="-7.0778816007077694e-03" rms="2.9414466023445129e-01" purity="3.6411973834037781e-01" nType="-99"/>
            <Node pos="r" depth="3" NCoef="0" IVar="-1" Cut="0.0000000000000000e+00" cType="1" res="3.3415514044463634e-03" rms="2.6924279332160950e-01" purity="7.9725408554077148e-01" nType="-99"/>
          </Node>
          <Node pos="r" depth="2" NCoef="0" IVar="6" Cut="5.9495964050292969e+01" cType="1" res="-2.1068224683403969e-02" rms="2.9587897658348083e-01" purity="6.0088020563125610e-01" nType="0">
            <Node pos="l" depth="3" NCoef="0" IVar="-1" Cut="0.0000000000000000e+00" cType="1" res="-3.3699743449687958e-02" rms="3.3498820662498474e-01" purity="3.2831478118896484e-01" nType="-99"/>
            <Node pos="r" depth="3" NCoef="0" IVar="-1" Cut="0.0000000000000000e+00" cType="1" res="-2.1790130995213985e-03" rms="2.4623049795627594e-01" purity="8.8989543914794922e-01" nType="-99"/>
          </Node>
        </Node>
        <Node pos="r" depth="1" NCoef="0" IVar="5" Cut="1.1201216125488281e+02" cType="1" res="2.2403055336326361e-03" rms="2.7567079663276672e-01" purity="3.3360907435417175e-01" nType="0">
          <Node pos="l" depth="2" NCoef="0" IVar="9" Cut="6.6555309295654297e-01" cType="1" res="7.0502050220966339e-03" rms="2.7754053473472595e-01" purity="2.3053894937038422e-01" nType="0">
            <Node pos="l" depth="3" NCoef="0" IVar="-1" Cut="0.0000000000000000e+00" cType="1" res="1.6935253515839577e-02" rms="2.9012736678123474e-01" purity="2.5467234849929810e-01" nType="-99"/>
            <Node pos="r" depth="3" NCoef="0" IVar="-1" Cut="0.0000000000000000e+00" cType="1" res="-8.1667322665452957e-03" rms="2.4872677028179169e-01" purity="1.8012869358062744e-01" nType="-99"/>
          </Node>
          <Node pos="r" depth="2" NCoef="0" IVar="-1" Cut="0.0000000000000000e+00" cType="1" res="-2.7265377342700958e-02" rms="2.6600807905197144e-01" purity="7.9798626899719238e-01" nType="-99"/>
        </Node>
      </Node>
    </BinaryTree>
    <BinaryTree type="DecisionTree" boostWeight="1.0000000000000000e+00" itree="656">
      <Node pos="s" depth="0" NCoef="0" IVar="3" Cut="2.3286648559570312e+02" cType="1" res="2.7320450171828270e-03" rms="2.8418090939521790e-01" purity="5.0200021266937256e-01" nType="0">
        <Node pos="l" depth="1" NCoef="0" IVar="3" Cut="2.1574389648437500e+02" cType="1" res="5.8666286058723927e-03" rms="2.8539708256721497e-01" purity="3.5389918088912964e-01" nType="0">
          <Node pos="l" depth="2" NCoef="0" IVar="4" Cut="1.0581248474121094e+02" cType="1" res="2.8722302522510290e-03" rms="2.7842554450035095e-01" purity="3.1443107128143311e-01" nType="0">
            <Node pos="l" depth="3" NCoef="0" IVar="-1" Cut="0.0000000000000000e+00" cType="1" res="-1.0797271504998207e-02" rms="2.0445089042186737e-01" purity="7.4633941054344177e-02" nType="-99"/>
            <Node pos="r" depth="3" NCoef="0" IVar="-1" Cut="0.0000000000000000e+00" cType="1" res="7.6609654352068901e-03" rms="3.1400138139724731e-01" purity="4.5632934570312500e-01" nType="-99"/>
          </Node>
          <Node pos="r" depth="2" NCoef="0" IVar="0" Cut="1.5658283691406250e+03" cType="1" res="2.4746460840106010e-02" rms="3.2530283927917480e-01" purity="6.0274761915206909e-01" nType="0">
            <Node pos="l" depth="3" NCoef="0" IVar="-1" Cut="0.0000000000000000e+00" cType="1" res="3.3246327191591263e-02" rms="3.6232790350914001e-01" purity="4.2772766947746277e-01" nType="-99"/>
            <Node pos="r" depth="3" NCoef="0" IVar="-1" Cut="0.0000000000000000e+00" cType="1" res="4.2110597714781761e-03" rms="2.6285549998283386e-01" purity="8.4955596923828125e-01" nType="-99"/>
          </Node>
        </Node>
        <Node pos="r" depth="1" NCoef="0" IVar="8" Cut="-1.1975785493850708e+00" cType="1" res="-1.1635971022769809e-03" rms="2.8261369466781616e-01" purity="6.8605941534042358e-01" nType="0">
          <Node pos="l" depth="2" NCoef="0" IVar="-1" Cut="0.0000000000000000e+00" cType="1" res="-2.4691021069884300e-02" rms="2.6615312695503235e-01" purity="2.9836460947990417e-01" nType="-99"/>
          <Node pos="r" depth="2" NCoef="0" IVar="7" Cut="-1.1772660017013550e+00" cType="1" res="5.1183014875277877e-04" rms="2.8393772244453430e-01" purity="7.1976119279861450e-01" nType="0">
            <Node pos="l" depth="3" NCoef="0" IVar="-1" Cut="0.0000000000000000e+00" cType="1" res="3.0629804357886314e-02" rms="2.8050568699836731e-01" purity="3.6344555020332336e-01" nType="-99"/>
            <Node pos="r" depth="3" NCoef="0" IVar="-1" Cut="0.0000000000000000e+00" cType="1" res="-1.5950417146086693e-03" rms="2.8409817814826965e-01" purity="7.4578744173049927e-01" nType="-99"/>
          </Node>
        </Node>
      </Node>
    </BinaryTree>
    <BinaryTree type="DecisionTree" boostWeight="1.0000000000000000e+00" itree="657">
      <Node pos="s" depth="0" NCoef="0" IVar="7" Cut="-9.2215174436569214e-01" cType="1" res="6.6145381424576044e-05" rms="2.8405570983886719e-01" purity="5.0163948535919189e-01" nType="0">
        <Node pos="l" depth="1" NCoef="0" IVar="8" Cut="-3.9923551678657532e-01" cType="1" res="8.9408447965979576e-03" rms="2.5834172964096069e-01" purity="2.6127374172210693e-01" nType="0">
          <Node pos="l" depth="2" NCoef="0" IVar="9" Cut="-1.3167546689510345e-01" cType="1" res="1.8438970670104027e-02" rms="2.6544582843780518e-01" purity="2.5509417057037354e-01" nType="0">
            <Node pos="l" depth="3" NCoef="0" IVar="-1" Cut="0.0000000000000000e+00" cType="1" res="4.3141975998878479e-02" rms="2.8382959961891174e-01" purity="2.4918538331985474e-01" nType="-99"/>
            <Node pos="r" depth="3" NCoef="0" IVar="-1" Cut="0.0000000000000000e+00" cType="1" res="8.0176927149295807e-03" rms="2.3906867206096649e-01" purity="2.6268360018730164e-01" nType="-99"/>
          </Node>
          <Node pos="r" depth="2" NCoef="0" IVar="5" Cut="7.8400917053222656e+01" cType="1" res="2.3348936811089516e-03" rms="2.5307330489158630e-01" purity="2.6557165384292603e-01" nType="0">
            <Node pos="l" depth="3" NCoef="0" IVar="-1" Cut="0.0000000000000000e+00" cType="1" res="-6.0752723366022110e-03" rms="2.1501305699348450e-01" purity="9.1630309820175171e-02" nType="-99"/>
            <Node pos="r" depth="3" NCoef="0" IVar="-1" Cut="0.0000000000000000e+00" cType="1" res="1.1227952316403389e-02" rms="3.0530986189842224e-01" purity="5.5161404609680176e-01" nType="-99"/>
          </Node>
        </Node>
        <Node pos="r" depth="1" NCoef="0" IVar="10" Cut="-1.2000865936279297e+00" cType="1" res="-1.5195658197626472e-03" rms="2.8838014602661133e-01" purity="5.4458749294281006e-01" nType="0">
          <Node pos="l" depth="2" NCoef="0" IVar="11" Cut="-5.1455682516098022e-01" cType="1" res="-1.3963284902274609e-02" rms="2.8552988171577454e-01" purity="4.2097187042236328e-01" nType="0">
            <Node pos="l" depth="3" NCoef="0" IVar="-1" Cut="0.0000000000000000e+00" cType="1" res="-7.0219510234892368e-03" rms="2.7922928333282471e-01" purity="3.1412473320960999e-01" nType="-99"/>
            <Node pos="r" depth="3" NCoef="0" IVar="-1" Cut="0.0000000000000000e+00" cType="1" res="-3.7234295159578323e-02" rms="2.9959332942962646e-01" purity="6.8417954444885254e-01" nType="-99"/>
          </Node>
          <Node pos="r" depth="2" NCoef="0" IVar="8" Cut="-6.6657048463821411e-01" cType="1" res="7.6130940578877926e-04" rms="2.8884139657020569e-01" purity="5.6724566221237183e-01" nType="0">
            <Node pos="l" depth="3" NCoef="0" IVar="-1" Cut="0.0000000000000000e+00" cType="1" res="-8.1911291927099228e-03" rms="2.9080566763877869e-01" purity="4.0759077668190002e-01" nType="-99"/>
            <Node pos="r" depth="3" NCoef="0" IVar="-1" Cut="0.0000000000000000e+00" cType="1" res="3.3872523345053196e-03" rms="2.8824886679649353e-01" purity="6.1226868629455566e-01" nType="-99"/>
          </Node>
        </Node>
      </Node>
    </BinaryTree>
    <BinaryTree type="DecisionTree" boostWeight="1.0000000000000000e+00" itree="658">
      <Node pos="s" depth="0" NCoef="0" IVar="10" Cut="-1.4665988683700562e+00" cType="1" res="1.0150262824026868e-04" rms="2.8360149264335632e-01" purity="5.0255501270294189e-01" nType="0">
        <Node pos="l" depth="1" NCoef="0" IVar="8" Cut="6.5905052423477173e-01" cType="1" res="-1.1311743408441544e-02" rms="2.7729764580726624e-01" purity="3.2770928740501404e-01" nType="0">
          <Node pos="l" depth="2" NCoef="0" IVar="8" Cut="-4.9367108941078186e-01" cType="1" res="-1.9255215302109718e-02" rms="2.8041440248489380e-01" purity="3.5044005513191223e-01" nType="0">
            <Node pos="l" depth="3" NCoef="0" IVar="-1" Cut="0.0000000000000000e+00" cType="1" res="-1.3168737292289734e-02" rms="2.6060274243354797e-01" purity="2.6824429631233215e-01" nType="-99"/>
            <Node pos="r" depth="3" NCoef="0" IVar="-1" Cut="0.0000000000000000e+00" cType="1" res="-3.0564991757273674e-02" rms="2.9950830340385437e-01" purity="4.3680047988891602e-01" nType="-99"/>
          </Node>
          <Node pos="r" depth="2" NCoef="0" IVar="-1" Cut="0.0000000000000000e+00" cType="1" res="1.9518094137310982e-02" rms="2.6566454768180847e-01" purity="2.5594249367713928e-01" nType="-99"/>
        </Node>
        <Node pos="r" depth="1" NCoef="0" IVar="9" Cut="-9.3306350708007812e-01" cType="1" res="1.6268808394670486e-03" rms="2.8439870476722717e-01" purity="5.2592313289642334e-01" nType="0">
          <Node pos="l" depth="2" NCoef="0" IVar="2" Cut="4.0865396118164062e+02" cType="1" res="-6.2215309590101242e-03" rms="2.8302079439163208e-01" purity="3.6562183499336243e-01" nType="0">
            <Node pos="l" depth="3" NCoef="0" IVar="-1" Cut="0.0000000000000000e+00" cType="1" res="-1.4647155767306685e-03" rms="2.8105667233467102e-01" purity="3.3781751990318298e-01" nType="-99"/>
            <Node pos="r" depth="3" NCoef="0" IVar="-1" Cut="0.0000000000000000e+00" cType="1" res="-1.9027715548872948e-02" rms="2.8695768117904663e-01" purity="4.2631617188453674e-01" nType="-99"/>
          </Node>
          <Node pos="r" depth="2" NCoef="0" IVar="9" Cut="1.0221287012100220e+00" cType="1" res="3.3250220585614443e-03" rms="2.8466749191284180e-01" purity="5.6060707569122314e-01" nType="0">
            <Node pos="l" depth="3" NCoef="0" IVar="-1" Cut="0.0000000000000000e+00" cType="1" res="6.3720066100358963e-03" rms="2.8527948260307312e-01" purity="6.1584538221359253e-01" nType="-99"/>
            <Node pos="r" depth="3" NCoef="0" IVar="-1" Cut="0.0000000000000000e+00" cType="1" res="-5.4384595714509487e-03" rms="2.8213387727737427e-01" purity="3.4527277946472168e-01" nType="-99"/>
          </Node>
        </Node>
      </Node>
    </BinaryTree>
    <BinaryTree type="DecisionTree" boostWeight="1.0000000000000000e+00" itree="659">
      <Node pos="s" depth="0" NCoef="0" IVar="10" Cut="-9.3334430456161499e-01" cType="1" res="-1.3989674625918269e-03" rms="2.8444916009902954e-01" purity="5.0244033336639404e-01" nType="0">
        <Node pos="l" depth="1" NCoef="0" IVar="10" Cut="-1.1111208200454712e+00" cType="1" res="-8.3710746839642525e-03" rms="2.7908003330230713e-01" purity="4.0731292963027954e-01" nType="0">
          <Node pos="l" depth="2" NCoef="0" IVar="9" Cut="-4.0028920769691467e-01" cType="1" res="-4.7122063115239143e-03" rms="2.7756419777870178e-01" purity="3.8965672254562378e-01" nType="0">
            <Node pos="l" depth="3" NCoef="0" IVar="-1" Cut="0.0000000000000000e+00" cType="1" res="7.4239792302250862e-03" rms="2.8575453162193298e-01" purity="3.4464022517204285e-01" nType="-99"/>
            <Node pos="r" depth="3" NCoef="0" IVar="-1" Cut="0.0000000000000000e+00" cType="1" res="-1.5464993193745613e-02" rms="2.7123734354972839e-01" purity="4.2210739850997925e-01" nType="-99"/>
          </Node>
          <Node pos="r" depth="2" NCoef="0" IVar="-1" Cut="0.0000000000000000e+00" cType="1" res="-2.9464360326528549e-02" rms="2.8530433773994446e-01" purity="4.8794090747833252e-01" nType="-99"/>
        </Node>
        <Node pos="r" depth="1" NCoef="0" IVar="3" Cut="2.8335803222656250e+02" cType="1" res="6.4801838016137481e-04" rms="2.8597411513328552e-01" purity="5.3036946058273315e-01" nType="0">
          <Node pos="l" depth="2" NCoef="0" IVar="3" Cut="1.5177603149414062e+02" cType="1" res="-1.6789367655292153e-03" rms="2.8853565454483032e-01" purity="4.4792094826698303e-01" nType="0">
            <Node pos="l" depth="3" NCoef="0" IVar="-1" Cut="0.0000000000000000e+00" cType="1" res="1.2255190871655941e-02" rms="2.5076276063919067e-01" purity="1.5101434290409088e-01" nType="-99"/>
            <Node pos="r" depth="3" NCoef="0" IVar="-1" Cut="0.0000000000000000e+00" cType="1" res="-5.0646429881453514e-03" rms="2.9946354031562805e-01" purity="5.4211133718490601e-01" nType="-99"/>
          </Node>
          <Node pos="r" depth="2" NCoef="0" IVar="6" Cut="6.2487606048583984e+01" cType="1" res="6.7050568759441376e-03" rms="2.7910524606704712e-01" purity="7.4498200416564941e-01" nType="0">
            <Node pos="l" depth="3" NCoef="0" IVar="-1" Cut="0.0000000000000000e+00" cType="1" res="1.4696805737912655e-02" rms="3.3464580774307251e-01" purity="5.6146842241287231e-01" nType="-99"/>
            <Node pos="r" depth="3" NCoef="0" IVar="-1" Cut="0.0000000000000000e+00" cType="1" res="-4.6321041882038116e-03" rms="2.1669001877307892e-01" purity="9.1066193580627441e-01" nType="-99"/>
          </Node>
        </Node>
      </Node>
    </BinaryTree>
    <BinaryTree type="DecisionTree" boostWeight="1.0000000000000000e+00" itree="660">
      <Node pos="s" depth="0" NCoef="0" IVar="1" Cut="1.4842070639133453e-01" cType="1" res="1.3566659763455391e-03" rms="2.8442880511283875e-01" purity="4.9728652834892273e-01" nType="0">
        <Node pos="l" depth="1" NCoef="0" IVar="7" Cut="1.2100760936737061e+00" cType="1" res="-1.7008470604196191e-04" rms="2.8994607925415039e-01" purity="4.2732551693916321e-01" nType="0">
          <Node pos="l" depth="2" NCoef="0" IVar="4" Cut="1.4577374267578125e+02" cType="1" res="-1.5298115322366357e-03" rms="2.9724714159965515e-01" purity="4.6179759502410889e-01" nType="0">
            <Node pos="l" depth="3" NCoef="0" IVar="-1" Cut="0.0000000000000000e+00" cType="1" res="-6.8806027993559837e-03" rms="2.8783294558525085e-01" purity="2.0827399194240570e-01" nType="-99"/>
            <Node pos="r" depth="3" NCoef="0" IVar="-1" Cut="0.0000000000000000e+00" cType="1" res="2.3310212418437004e-03" rms="3.0525764822959900e-01" purity="6.8536645174026489e-01" nType="-99"/>
          </Node>
          <Node pos="r" depth="2" NCoef="0" IVar="1" Cut="2.8208028525114059e-02" cType="1" res="1.0360877029597759e-02" rms="2.2525526583194733e-01" purity="1.6034242510795593e-01" nType="0">
            <Node pos="l" depth="3" NCoef="0" IVar="-1" Cut="0.0000000000000000e+00" cType="1" res="6.4604915678501129e-03" rms="1.6125208139419556e-01" purity="5.6819230318069458e-02" nType="-99"/>
            <Node pos="r" depth="3" NCoef="0" IVar="-1" Cut="0.0000000000000000e+00" cType="1" res="2.9233137145638466e-02" rms="3.3503204584121704e-01" purity="4.2039373517036438e-01" nType="-99"/>
          </Node>
        </Node>
        <Node pos="r" depth="1" NCoef="0" IVar="-1" Cut="0.0000000000000000e+00" cType="1" res="1.5281497500836849e-02" rms="2.5116172432899475e-01" purity="8.8874208927154541e-01" nType="-99"/>
      </Node>
    </BinaryTree>
    <BinaryTree type="DecisionTree" boostWeight="1.0000000000000000e+00" itree="661">
      <Node pos="s" depth="0" NCoef="0" IVar="7" Cut="9.3896007537841797e-01" cType="1" res="4.6690719318576157e-04" rms="2.8326699137687683e-01" purity="5.0147324800491333e-01" nType="0">
        <Node pos="l" depth="1" NCoef="0" IVar="8" Cut="9.3338578939437866e-01" cType="1" res="2.2882283665239811e-03" rms="2.8940725326538086e-01" purity="5.4956305027008057e-01" nType="0">
          <Node pos="l" depth="2" NCoef="0" IVar="8" Cut="4.4515687972307205e-02" cType="1" res="4.5244325883686543e-04" rms="2.9051375389099121e-01" purity="5.9147590398788452e-01" nType="0">
            <Node pos="l" depth="3" NCoef="0" IVar="-1" Cut="0.0000000000000000e+00" cType="1" res="4.9332054331898689e-03" rms="2.9076963663101196e-01" purity="5.5757939815521240e-01" nType="-99"/>
            <Node pos="r" depth="3" NCoef="0" IVar="-1" Cut="0.0000000000000000e+00" cType="1" res="-6.8618333898484707e-03" rms="2.8996035456657410e-01" purity="6.4941287040710449e-01" nType="-99"/>
          </Node>
          <Node pos="r" depth="2" NCoef="0" IVar="8" Cut="1.6445547342300415e+00" cType="1" res="1.2007953599095345e-02" rms="2.8327879309654236e-01" purity="3.2765191793441772e-01" nType="0">
            <Node pos="l" depth="3" NCoef="0" IVar="-1" Cut="0.0000000000000000e+00" cType="1" res="2.0368162542581558e-02" rms="3.1504037976264954e-01" purity="4.2950585484504700e-01" nType="-99"/>
            <Node pos="r" depth="3" NCoef="0" IVar="-1" Cut="0.0000000000000000e+00" cType="1" res="-8.1500979140400887e-03" rms="2.0069840550422668e-01" purity="1.1549764126539230e-01" nType="-99"/>
          </Node>
        </Node>
        <Node pos="r" depth="1" NCoef="0" IVar="8" Cut="-9.3320363759994507e-01" cType="1" res="-1.0240694507956505e-02" rms="2.4378927052021027e-01" purity="2.1875190734863281e-01" nType="0">
          <Node pos="l" depth="2" NCoef="0" IVar="-1" Cut="0.0000000000000000e+00" cType="1" res="1.8363259732723236e-02" rms="1.9644150137901306e-01" purity="9.2497050762176514e-02" nType="-99"/>
          <Node pos="r" depth="2" NCoef="0" IVar="6" Cut="6.3804893493652344e+01" cType="1" res="-1.4882280491292477e-02" rms="2.5510513782501221e-01" purity="2.5355106592178345e-01" nType="0">
            <Node pos="l" depth="3" NCoef="0" IVar="-1" Cut="0.0000000000000000e+00" cType="1" res="-1.4291265048086643e-02" rms="2.3410306870937347e-01" purity="1.0591427236795425e-01" nType="-99"/>
            <Node pos="r" depth="3" NCoef="0" IVar="-1" Cut="0.0000000000000000e+00" cType="1" res="-3.2952446490526199e-02" rms="3.0619537830352783e-01" purity="6.7234998941421509e-01" nType="-99"/>
          </Node>
        </Node>
      </Node>
    </BinaryTree>
    <BinaryTree type="DecisionTree" boostWeight="1.0000000000000000e+00" itree="662">
      <Node pos="s" depth="0" NCoef="0" IVar="9" Cut="1.9997535943984985e+00" cType="1" res="1.9911776762455702e-03" rms="2.8675326704978943e-01" purity="5.0157320499420166e-01" nType="0">
        <Node pos="l" depth="1" NCoef="0" IVar="10" Cut="1.9997943639755249e+00" cType="1" res="1.0795209091156721e-03" rms="2.8754347562789917e-01" purity="5.1353049278259277e-01" nType="0">
          <Node pos="l" depth="2" NCoef="0" IVar="10" Cut="-2.1141371726989746e+00" cType="1" res="3.3911151695065200e-04" rms="2.8736576437950134e-01" purity="5.2625387907028198e-01" nType="0">
            <Node pos="l" depth="3" NCoef="0" IVar="-1" Cut="0.0000000000000000e+00" cType="1" res="2.3203646764159203e-02" rms="2.8524875640869141e-01" purity="2.4419482052326202e-01" nType="-99"/>
            <Node pos="r" depth="3" NCoef="0" IVar="-1" Cut="0.0000000000000000e+00" cType="1" res="-5.1810819422826171e-04" rms="2.8744032979011536e-01" purity="5.3938364982604980e-01" nType="-99"/>
          </Node>
          <Node pos="r" depth="2" NCoef="0" IVar="-1" Cut="0.0000000000000000e+00" cType="1" res="1.9347582012414932e-02" rms="2.9059228301048279e-01" purity="2.6710119843482971e-01" nType="-99"/>
        </Node>
        <Node pos="r" depth="1" NCoef="0" IVar="-1" Cut="0.0000000000000000e+00" cType="1" res="4.5707408338785172e-02" rms="2.6225894689559937e-01" purity="1.6520129144191742e-01" nType="-99"/>
      </Node>
    </BinaryTree>
    <BinaryTree type="DecisionTree" boostWeight="1.0000000000000000e+00" itree="663">
      <Node pos="s" depth="0" NCoef="0" IVar="7" Cut="-1.1596783399581909e+00" cType="1" res="5.4548430489376187e-04" rms="2.8433117270469666e-01" purity="5.0619852542877197e-01" nType="0">
        <Node pos="l" depth="1" NCoef="0" IVar="2" Cut="4.0537557983398438e+02" cType="1" res="-9.0896179899573326e-03" rms="2.1989014744758606e-01" purity="1.5864133834838867e-01" nType="0">
          <Node pos="l" depth="2" NCoef="0" IVar="6" Cut="9.9396209716796875e+00" cType="1" res="-4.2706844396889210e-03" rms="2.2102592885494232e-01" purity="1.5408608317375183e-01" nType="0">
            <Node pos="l" depth="3" NCoef="0" IVar="-1" Cut="0.0000000000000000e+00" cType="1" res="8.8315196335315704e-03" rms="1.7416380345821381e-01" purity="4.4295776635408401e-02" nType="-99"/>
            <Node pos="r" depth="3" NCoef="0" IVar="-1" Cut="0.0000000000000000e+00" cType="1" res="-1.6590002924203873e-02" rms="2.8517034649848938e-01" purity="3.4790205955505371e-01" nType="-99"/>
          </Node>
          <Node pos="r" depth="2" NCoef="0" IVar="-1" Cut="0.0000000000000000e+00" cType="1" res="-3.8283322006464005e-02" rms="2.1605940163135529e-01" purity="1.7154039442539215e-01" nType="-99"/>
        </Node>
        <Node pos="r" depth="1" NCoef="0" IVar="1" Cut="4.3809726834297180e-02" cType="1" res="1.5973285771906376e-03" rms="2.9048258066177368e-01" purity="5.4414057731628418e-01" nType="0">
          <Node pos="l" depth="2" NCoef="0" IVar="11" Cut="-1.6191329956054688e+00" cType="1" res="6.3379378989338875e-03" rms="2.8402629494667053e-01" purity="2.5377762317657471e-01" nType="0">
            <Node pos="l" depth="3" NCoef="0" IVar="-1" Cut="0.0000000000000000e+00" cType="1" res="3.7957928143441677e-03" rms="2.6249775290489197e-01" purity="1.4290118217468262e-01" nType="-99"/>
            <Node pos="r" depth="3" NCoef="0" IVar="-1" Cut="0.0000000000000000e+00" cType="1" res="1.3509592972695827e-02" rms="3.2866591215133667e-01" purity="5.1256287097930908e-01" nType="-99"/>
          </Node>
          <Node pos="r" depth="2" NCoef="0" IVar="3" Cut="1.3354743957519531e+02" cType="1" res="-1.2695287587121129e-03" rms="2.9428121447563171e-01" purity="7.1973603963851929e-01" nType="0">
            <Node pos="l" depth="3" NCoef="0" IVar="-1" Cut="0.0000000000000000e+00" cType="1" res="-2.7036322280764580e-02" rms="2.8133523464202881e-01" purity="1.5708407759666443e-01" nType="-99"/>
            <Node pos="r" depth="3" NCoef="0" IVar="-1" Cut="0.0000000000000000e+00" cType="1" res="3.6150566302239895e-04" rms="2.9506242275238037e-01" purity="7.5754791498184204e-01" nType="-99"/>
          </Node>
        </Node>
      </Node>
    </BinaryTree>
    <BinaryTree type="DecisionTree" boostWeight="1.0000000000000000e+00" itree="664">
      <Node pos="s" depth="0" NCoef="0" IVar="4" Cut="1.4024726867675781e+02" cType="1" res="-5.2785349544137716e-04" rms="2.8245836496353149e-01" purity="5.0217163562774658e-01" nType="0">
        <Node pos="l" depth="1" NCoef="0" IVar="3" Cut="2.2534088134765625e+02" cType="1" res="-5.0575346685945988e-03" rms="2.7358654141426086e-01" purity="2.0493553578853607e-01" nType="0">
          <Node pos="l" depth="2" NCoef="0" IVar="9" Cut="4.0030577778816223e-01" cType="1" res="-1.3752088416367769e-03" rms="2.6451933383941650e-01" purity="1.8525470793247223e-01" nType="0">
            <Node pos="l" depth="3" NCoef="0" IVar="-1" Cut="0.0000000000000000e+00" cType="1" res="6.7930067889392376e-03" rms="2.7076098322868347e-01" purity="2.0118421316146851e-01" nType="-99"/>
            <Node pos="r" depth="3" NCoef="0" IVar="-1" Cut="0.0000000000000000e+00" cType="1" res="-1.8077323213219643e-02" rms="2.5314888358116150e-01" purity="1.5814056992530823e-01" nType="-99"/>
          </Node>
          <Node pos="r" depth="2" NCoef="0" IVar="4" Cut="1.0222909545898438e+02" cType="1" res="-2.0947949960827827e-02" rms="3.0918195843696594e-01" purity="2.8986465930938721e-01" nType="0">
            <Node pos="l" depth="3" NCoef="0" IVar="-1" Cut="0.0000000000000000e+00" cType="1" res="4.1693635284900665e-03" rms="2.8603053092956543e-01" purity="1.6733491420745850e-01" nType="-99"/>
            <Node pos="r" depth="3" NCoef="0" IVar="-1" Cut="0.0000000000000000e+00" cType="1" res="-2.9107149690389633e-02" rms="3.1916117668151855e-01" purity="3.4939917922019958e-01" nType="-99"/>
          </Node>
        </Node>
        <Node pos="r" depth="1" NCoef="0" IVar="11" Cut="-1.6191241741180420e+00" cType="1" res="2.6455784682184458e-03" rms="2.8846898674964905e-01" purity="7.1041119098663330e-01" nType="0">
          <Node pos="l" depth="2" NCoef="0" IVar="4" Cut="2.6076388549804688e+02" cType="1" res="8.5875485092401505e-03" rms="3.3819174766540527e-01" purity="4.7640720009803772e-01" nType="0">
            <Node pos="l" depth="3" NCoef="0" IVar="-1" Cut="0.0000000000000000e+00" cType="1" res="1.0675623081624508e-02" rms="3.3886274695396423e-01" purity="4.4129475951194763e-01" nType="-99"/>
            <Node pos="r" depth="3" NCoef="0" IVar="-1" Cut="0.0000000000000000e+00" cType="1" res="-1.5205007046461105e-02" rms="3.3292871713638306e-01" purity="6.9255495071411133e-01" nType="-99"/>
          </Node>
          <Node pos="r" depth="2" NCoef="0" IVar="1" Cut="3.9189528673887253e-02" cType="1" res="-9.1625575441867113e-04" rms="2.5397339463233948e-01" purity="8.5068172216415405e-01" nType="0">
            <Node pos="l" depth="3" NCoef="0" IVar="-1" Cut="0.0000000000000000e+00" cType="1" res="-1.3108552433550358e-02" rms="3.2234111428260803e-01" purity="5.4650199413299561e-01" nType="-99"/>
            <Node pos="r" depth="3" NCoef="0" IVar="-1" Cut="0.0000000000000000e+00" cType="1" res="3.4373754169791937e-03" rms="2.3731610178947449e-01" purity="9.1347450017929077e-01" nType="-99"/>
          </Node>
        </Node>
      </Node>
    </BinaryTree>
    <BinaryTree type="DecisionTree" boostWeight="1.0000000000000000e+00" itree="665">
      <Node pos="s" depth="0" NCoef="0" IVar="10" Cut="1.1999704837799072e+00" cType="1" res="-1.8901419825851917e-03" rms="2.8543972969055176e-01" purity="4.9255731701850891e-01" nType="0">
        <Node pos="l" depth="1" NCoef="0" IVar="10" Cut="-1.3335268199443817e-01" cType="1" res="4.2801382369361818e-04" rms="2.8472787141799927e-01" purity="5.2080094814300537e-01" nType="0">
          <Node pos="l" depth="2" NCoef="0" IVar="11" Cut="3.7907510995864868e-02" cType="1" res="3.5664066672325134e-03" rms="2.8389075398445129e-01" purity="4.9217334389686584e-01" nType="0">
            <Node pos="l" depth="3" NCoef="0" IVar="-1" Cut="0.0000000000000000e+00" cType="1" res="3.9831883623264730e-04" rms="2.8795534372329712e-01" purity="4.0476721525192261e-01" nType="-99"/>
            <Node pos="r" depth="3" NCoef="0" IVar="-1" Cut="0.0000000000000000e+00" cType="1" res="1.6846524551510811e-02" rms="2.7063074707984924e-01" purity="7.6364785432815552e-01" nType="-99"/>
          </Node>
          <Node pos="r" depth="2" NCoef="0" IVar="9" Cut="-1.4664505720138550e+00" cType="1" res="-3.5528026055544615e-03" rms="2.8573659062385559e-01" purity="5.5711281299591064e-01" nType="0">
            <Node pos="l" depth="3" NCoef="0" IVar="-1" Cut="0.0000000000000000e+00" cType="1" res="1.9664166495203972e-02" rms="2.8592565655708313e-01" purity="2.9035505652427673e-01" nType="-99"/>
            <Node pos="r" depth="3" NCoef="0" IVar="-1" Cut="0.0000000000000000e+00" cType="1" res="-6.2582176178693771e-03" rms="2.8565818071365356e-01" purity="5.7966965436935425e-01" nType="-99"/>
          </Node>
        </Node>
        <Node pos="r" depth="1" NCoef="0" IVar="3" Cut="2.7614874267578125e+02" cType="1" res="-1.3828426599502563e-02" rms="2.8878343105316162e-01" purity="3.4710541367530823e-01" nType="0">
          <Node pos="l" depth="2" NCoef="0" IVar="4" Cut="1.3627032470703125e+02" cType="1" res="-2.0654339343309402e-02" rms="2.7968749403953552e-01" purity="2.5891974568367004e-01" nType="0">
            <Node pos="l" depth="3" NCoef="0" IVar="-1" Cut="0.0000000000000000e+00" cType="1" res="-1.1760950088500977e-02" rms="2.4541512131690979e-01" purity="1.2679243087768555e-01" nType="-99"/>
            <Node pos="r" depth="3" NCoef="0" IVar="-1" Cut="0.0000000000000000e+00" cType="1" res="-3.7969019263982773e-02" rms="3.2149016857147217e-01" purity="4.4804888963699341e-01" nType="-99"/>
          </Node>
          <Node pos="r" depth="2" NCoef="0" IVar="-1" Cut="0.0000000000000000e+00" cType="1" res="7.0023867301642895e-03" rms="3.1370300054550171e-01" purity="6.1276340484619141e-01" nType="-99"/>
        </Node>
      </Node>
    </BinaryTree>
    <BinaryTree type="DecisionTree" boostWeight="1.0000000000000000e+00" itree="666">
      <Node pos="s" depth="0" NCoef="0" IVar="7" Cut="-1.4397202730178833e+00" cType="1" res="1.8267704872414470e-03" rms="2.8536018729209900e-01" purity="5.0257295370101929e-01" nType="0">
        <Node pos="l" depth="1" NCoef="0" IVar="3" Cut="1.8897863769531250e+02" cType="1" res="-1.2678396888077259e-02" rms="1.7800794541835785e-01" purity="8.9796632528305054e-02" nType="0">
          <Node pos="l" depth="2" NCoef="0" IVar="-1" Cut="0.0000000000000000e+00" cType="1" res="-1.0202270001173019e-02" rms="1.3257883489131927e-01" purity="3.0559875071048737e-02" nType="-99"/>
          <Node pos="r" depth="2" NCoef="0" IVar="-1" Cut="0.0000000000000000e+00" cType="1" res="-3.6023378372192383e-02" rms="2.1474206447601318e-01" purity="1.5136237442493439e-01" nType="-99"/>
        </Node>
        <Node pos="r" depth="1" NCoef="0" IVar="7" Cut="-4.3059349060058594e-01" cType="1" res="2.7953267563134432e-03" rms="2.9109618067741394e-01" purity="5.3013539314270020e-01" nType="0">
          <Node pos="l" depth="2" NCoef="0" IVar="9" Cut="1.3387958705425262e-01" cType="1" res="7.9651139676570892e-03" rms="2.9228955507278442e-01" purity="4.9360534548759460e-01" nType="0">
            <Node pos="l" depth="3" NCoef="0" IVar="-1" Cut="0.0000000000000000e+00" cType="1" res="2.6345939841121435e-03" rms="2.8654620051383972e-01" purity="5.1070672273635864e-01" nType="-99"/>
            <Node pos="r" depth="3" NCoef="0" IVar="-1" Cut="0.0000000000000000e+00" cType="1" res="1.9725991412997246e-02" rms="3.0085593461990356e-01" purity="4.6679684519767761e-01" nType="-99"/>
          </Node>
          <Node pos="r" depth="2" NCoef="0" IVar="10" Cut="-4.0014714002609253e-01" cType="1" res="9.4055954832583666e-04" rms="2.9064440727233887e-01" purity="5.4324126243591309e-01" nType="0">
            <Node pos="l" depth="3" NCoef="0" IVar="-1" Cut="0.0000000000000000e+00" cType="1" res="6.8938438780605793e-03" rms="2.9503747820854187e-01" purity="5.2334523200988770e-01" nType="-99"/>
            <Node pos="r" depth="3" NCoef="0" IVar="-1" Cut="0.0000000000000000e+00" cType="1" res="-2.0515085197985172e-03" rms="2.8825876116752625e-01" purity="5.5376034975051880e-01" nType="-99"/>
          </Node>
        </Node>
      </Node>
    </BinaryTree>
    <BinaryTree type="DecisionTree" boostWeight="1.0000000000000000e+00" itree="667">
      <Node pos="s" depth="0" NCoef="0" IVar="10" Cut="-4.0008142590522766e-01" cType="1" res="2.7155994903296232e-03" rms="2.8382676839828491e-01" purity="5.0338029861450195e-01" nType="0">
        <Node pos="l" depth="1" NCoef="0" IVar="10" Cut="-1.4286087751388550e+00" cType="1" res="-3.1655638013035059e-03" rms="2.7997902035713196e-01" purity="4.7512179613113403e-01" nType="0">
          <Node pos="l" depth="2" NCoef="0" IVar="10" Cut="-2.2122576236724854e+00" cType="1" res="5.8854753151535988e-03" rms="2.8159305453300476e-01" purity="3.5934644937515259e-01" nType="0">
            <Node pos="l" depth="3" NCoef="0" IVar="-1" Cut="0.0000000000000000e+00" cType="1" res="-2.0452974364161491e-02" rms="2.5768309831619263e-01" purity="1.8795242905616760e-01" nType="-99"/>
            <Node pos="r" depth="3" NCoef="0" IVar="-1" Cut="0.0000000000000000e+00" cType="1" res="1.4704675413668156e-02" rms="2.8906318545341492e-01" purity="4.1852474212646484e-01" nType="-99"/>
          </Node>
          <Node pos="r" depth="2" NCoef="0" IVar="4" Cut="1.7504959106445312e+02" cType="1" res="-7.4655497446656227e-03" rms="2.7910611033439636e-01" purity="5.3012460470199585e-01" nType="0">
            <Node pos="l" depth="3" NCoef="0" IVar="-1" Cut="0.0000000000000000e+00" cType="1" res="-1.4424642547965050e-02" rms="2.9235568642616272e-01" purity="3.3700916171073914e-01" nType="-99"/>
            <Node pos="r" depth="3" NCoef="0" IVar="-1" Cut="0.0000000000000000e+00" cType="1" res="2.5279921828769147e-04" rms="2.5897490978240967e-01" purity="8.0385977029800415e-01" nType="-99"/>
          </Node>
        </Node>
        <Node pos="r" depth="1" NCoef="0" IVar="9" Cut="-1.7328826189041138e+00" cType="1" res="6.3275615684688091e-03" rms="2.8610435128211975e-01" purity="5.2073550224304199e-01" nType="0">
          <Node pos="l" depth="2" NCoef="0" IVar="-1" Cut="0.0000000000000000e+00" cType="1" res="4.4148031622171402e-02" rms="2.6786324381828308e-01" purity="2.0389164984226227e-01" nType="-99"/>
          <Node pos="r" depth="2" NCoef="0" IVar="10" Cut="1.5807857513427734e+00" cType="1" res="5.1301484927535057e-03" rms="2.8698715567588806e-01" purity="5.3749418258666992e-01" nType="0">
            <Node pos="l" depth="3" NCoef="0" IVar="-1" Cut="0.0000000000000000e+00" cType="1" res="3.3809684682637453e-03" rms="2.8620645403862000e-01" purity="5.7080370187759399e-01" nType="-99"/>
            <Node pos="r" depth="3" NCoef="0" IVar="-1" Cut="0.0000000000000000e+00" cType="1" res="2.0899360999464989e-02" rms="2.9091206192970276e-01" purity="3.5483378171920776e-01" nType="-99"/>
          </Node>
        </Node>
      </Node>
    </BinaryTree>
    <BinaryTree type="DecisionTree" boostWeight="1.0000000000000000e+00" itree="668">
      <Node pos="s" depth="0" NCoef="0" IVar="10" Cut="9.3330615758895874e-01" cType="1" res="1.0953268501907587e-03" rms="2.8457656502723694e-01" purity="5.0155460834503174e-01" nType="0">
        <Node pos="l" depth="1" NCoef="0" IVar="11" Cut="-1.0668674707412720e+00" cType="1" res="3.5207511391490698e-03" rms="2.8342235088348389e-01" purity="5.3097683191299438e-01" nType="0">
          <Node pos="l" depth="2" NCoef="0" IVar="1" Cut="4.1755877435207367e-02" cType="1" res="8.6515350267291069e-03" rms="2.9559910297393799e-01" purity="3.3901089429855347e-01" nType="0">
            <Node pos="l" depth="3" NCoef="0" IVar="-1" Cut="0.0000000000000000e+00" cType="1" res="2.9424796812236309e-03" rms="2.4869166314601898e-01" purity="1.4589206874370575e-01" nType="-99"/>
            <Node pos="r" depth="3" NCoef="0" IVar="-1" Cut="0.0000000000000000e+00" cType="1" res="1.4185357838869095e-02" rms="3.3961448073387146e-01" purity="5.5129915475845337e-01" nType="-99"/>
          </Node>
          <Node pos="r" depth="2" NCoef="0" IVar="10" Cut="-1.5555754899978638e+00" cType="1" res="-3.1757992692291737e-03" rms="2.6654601097106934e-01" purity="7.8152531385421753e-01" nType="0">
            <Node pos="l" depth="3" NCoef="0" IVar="-1" Cut="0.0000000000000000e+00" cType="1" res="-2.6773873716592789e-02" rms="2.9670092463493347e-01" purity="5.9674340486526489e-01" nType="-99"/>
            <Node pos="r" depth="3" NCoef="0" IVar="-1" Cut="0.0000000000000000e+00" cType="1" res="-1.1579884449020028e-03" rms="2.6302447915077209e-01" purity="8.0119842290878296e-01" nType="-99"/>
          </Node>
        </Node>
        <Node pos="r" depth="1" NCoef="0" IVar="9" Cut="1.3259108364582062e-01" cType="1" res="-7.3142796754837036e-03" rms="2.8838482499122620e-01" purity="3.9953985810279846e-01" nType="0">
          <Node pos="l" depth="2" NCoef="0" IVar="0" Cut="1.2948372802734375e+03" cType="1" res="3.5511446185410023e-03" rms="2.9084739089012146e-01" purity="4.2309740185737610e-01" nType="0">
            <Node pos="l" depth="3" NCoef="0" IVar="-1" Cut="0.0000000000000000e+00" cType="1" res="-1.5627078711986542e-02" rms="2.5649911165237427e-01" purity="1.0754033923149109e-01" nType="-99"/>
            <Node pos="r" depth="3" NCoef="0" IVar="-1" Cut="0.0000000000000000e+00" cType="1" res="1.3402061536908150e-02" rms="3.1127741932868958e-01" purity="6.3337355852127075e-01" nType="-99"/>
          </Node>
          <Node pos="r" depth="2" NCoef="0" IVar="1" Cut="2.0550096407532692e-02" cType="1" res="-1.8407948315143585e-02" rms="2.8542220592498779e-01" purity="3.7548747658729553e-01" nType="0">
            <Node pos="l" depth="3" NCoef="0" IVar="-1" Cut="0.0000000000000000e+00" cType="1" res="-2.0408853888511658e-03" rms="2.0505943894386292e-01" purity="8.4856458008289337e-02" nType="-99"/>
            <Node pos="r" depth="3" NCoef="0" IVar="-1" Cut="0.0000000000000000e+00" cType="1" res="-2.4289831519126892e-02" rms="3.1146124005317688e-01" purity="4.9134185910224915e-01" nType="-99"/>
          </Node>
        </Node>
      </Node>
    </BinaryTree>
    <BinaryTree type="DecisionTree" boostWeight="1.0000000000000000e+00" itree="669">
      <Node pos="s" depth="0" NCoef="0" IVar="8" Cut="-1.3326570391654968e-01" cType="1" res="-1.3868595706298947e-03" rms="2.8210210800170898e-01" purity="4.9805232882499695e-01" nType="0">
        <Node pos="l" depth="1" NCoef="0" IVar="11" Cut="-1.6192648410797119e+00" cType="1" res="4.5926021412014961e-03" rms="2.8064209222793579e-01" purity="4.7777083516120911e-01" nType="0">
          <Node pos="l" depth="2" NCoef="0" IVar="7" Cut="-3.4917706251144409e-01" cType="1" res="-9.8189921118319035e-04" rms="2.8100776672363281e-01" purity="2.4531403183937073e-01" nType="0">
            <Node pos="l" depth="3" NCoef="0" IVar="-1" Cut="0.0000000000000000e+00" cType="1" res="-1.5317689627408981e-02" rms="2.5710320472717285e-01" purity="2.0099753141403198e-01" nType="-99"/>
            <Node pos="r" depth="3" NCoef="0" IVar="-1" Cut="0.0000000000000000e+00" cType="1" res="7.1375169791281223e-03" rms="2.9575985670089722e-01" purity="2.7505767345428467e-01" nType="-99"/>
          </Node>
          <Node pos="r" depth="2" NCoef="0" IVar="0" Cut="1.3811601562500000e+03" cType="1" res="1.1148036457598209e-02" rms="2.8006955981254578e-01" purity="7.5113248825073242e-01" nType="0">
            <Node pos="l" depth="3" NCoef="0" IVar="-1" Cut="0.0000000000000000e+00" cType="1" res="2.9364962130784988e-02" rms="3.5696515440940857e-01" purity="4.1150614619255066e-01" nType="-99"/>
            <Node pos="r" depth="3" NCoef="0" IVar="-1" Cut="0.0000000000000000e+00" cType="1" res="4.8021925613284111e-03" rms="2.5348418951034546e-01" purity="8.4751886129379272e-01" nType="-99"/>
          </Node>
        </Node>
        <Node pos="r" depth="1" NCoef="0" IVar="11" Cut="-1.0666847229003906e+00" cType="1" res="-6.2133325263857841e-03" rms="2.8318303823471069e-01" purity="5.1442295312881470e-01" nType="0">
          <Node pos="l" depth="2" NCoef="0" IVar="1" Cut="3.8577973842620850e-02" cType="1" res="-1.0617152787744999e-02" rms="2.9412883520126343e-01" purity="3.0165943503379822e-01" nType="0">
            <Node pos="l" depth="3" NCoef="0" IVar="-1" Cut="0.0000000000000000e+00" cType="1" res="-3.8014396559447050e-03" rms="2.4208307266235352e-01" purity="1.2855838239192963e-01" nType="-99"/>
            <Node pos="r" depth="3" NCoef="0" IVar="-1" Cut="0.0000000000000000e+00" cType="1" res="-1.6569409519433975e-02" rms="3.3910059928894043e-01" purity="4.7918844223022461e-01" nType="-99"/>
          </Node>
          <Node pos="r" depth="2" NCoef="0" IVar="5" Cut="8.2409210205078125e+01" cType="1" res="-7.7194673940539360e-04" rms="2.6894441246986389e-01" purity="7.7731490135192871e-01" nType="0">
            <Node pos="l" depth="3" NCoef="0" IVar="-1" Cut="0.0000000000000000e+00" cType="1" res="-9.4155594706535339e-03" rms="3.4115472435951233e-01" purity="4.9407169222831726e-01" nType="-99"/>
            <Node pos="r" depth="3" NCoef="0" IVar="-1" Cut="0.0000000000000000e+00" cType="1" res="4.9278573133051395e-03" rms="2.3816654086112976e-01" purity="8.7731385231018066e-01" nType="-99"/>
          </Node>
        </Node>
      </Node>
    </BinaryTree>
    <BinaryTree type="DecisionTree" boostWeight="1.0000000000000000e+00" itree="670">
      <Node pos="s" depth="0" NCoef="0" IVar="9" Cut="-1.4664933681488037e+00" cType="1" res="-3.2901030499488115e-04" rms="2.8692683577537537e-01" purity="4.9739748239517212e-01" nType="0">
        <Node pos="l" depth="1" NCoef="0" IVar="7" Cut="4.4410485029220581e-01" cType="1" res="-1.1019968427717686e-02" rms="2.5762164592742920e-01" purity="2.0396220684051514e-01" nType="0">
          <Node pos="l" depth="2" NCoef="0" IVar="8" Cut="-3.9784660935401917e-01" cType="1" res="-1.9141597673296928e-02" rms="2.6469635963439941e-01" purity="2.3896570503711700e-01" nType="0">
            <Node pos="l" depth="3" NCoef="0" IVar="-1" Cut="0.0000000000000000e+00" cType="1" res="-3.8712672889232635e-02" rms="2.5224244594573975e-01" purity="2.0111615955829620e-01" nType="-99"/>
            <Node pos="r" depth="3" NCoef="0" IVar="-1" Cut="0.0000000000000000e+00" cType="1" res="-1.1204533278942108e-02" rms="2.7361139655113220e-01" purity="2.6844975352287292e-01" nType="-99"/>
          </Node>
          <Node pos="r" depth="2" NCoef="0" IVar="-1" Cut="0.0000000000000000e+00" cType="1" res="1.4980143867433071e-02" rms="2.3925644159317017e-01" purity="1.2237353622913361e-01" nType="-99"/>
        </Node>
        <Node pos="r" depth="1" NCoef="0" IVar="9" Cut="-6.5383863449096680e-01" cType="1" res="7.3920586146414280e-04" rms="2.8967040777206421e-01" purity="5.2671694755554199e-01" nType="0">
          <Node pos="l" depth="2" NCoef="0" IVar="11" Cut="-1.3434979915618896e+00" cType="1" res="8.8047096505761147e-03" rms="2.9654055833816528e-01" purity="5.1359778642654419e-01" nType="0">
            <Node pos="l" depth="3" NCoef="0" IVar="-1" Cut="0.0000000000000000e+00" cType="1" res="-3.6214783322066069e-03" rms="3.0200248956680298e-01" purity="2.7138912677764893e-01" nType="-99"/>
            <Node pos="r" depth="3" NCoef="0" IVar="-1" Cut="0.0000000000000000e+00" cType="1" res="2.5911755859851837e-02" rms="2.8948917984962463e-01" purity="7.9255306720733643e-01" nType="-99"/>
          </Node>
          <Node pos="r" depth="2" NCoef="0" IVar="1" Cut="6.5707810223102570e-02" cType="1" res="-1.3107490958645940e-03" rms="2.8786215186119080e-01" purity="5.3005129098892212e-01" nType="0">
            <Node pos="l" depth="3" NCoef="0" IVar="-1" Cut="0.0000000000000000e+00" cType="1" res="3.6752128507941961e-03" rms="2.9445481300354004e-01" purity="3.1476205587387085e-01" nType="-99"/>
            <Node pos="r" depth="3" NCoef="0" IVar="-1" Cut="0.0000000000000000e+00" cType="1" res="-8.3412984386086464e-03" rms="2.7985900640487671e-01" purity="7.8196269273757935e-01" nType="-99"/>
          </Node>
        </Node>
      </Node>
    </BinaryTree>
    <BinaryTree type="DecisionTree" boostWeight="1.0000000000000000e+00" itree="671">
      <Node pos="s" depth="0" NCoef="0" IVar="1" Cut="7.7999942004680634e-02" cType="1" res="-5.5319303646683693e-04" rms="2.8286558389663696e-01" purity="5.0162601470947266e-01" nType="0">
        <Node pos="l" depth="1" NCoef="0" IVar="1" Cut="6.6856294870376587e-02" cType="1" res="-3.2251498196274042e-03" rms="2.8603076934814453e-01" purity="3.1663322448730469e-01" nType="0">
          <Node pos="l" depth="2" NCoef="0" IVar="1" Cut="5.7305481284856796e-02" cType="1" res="-5.0004157237708569e-03" rms="2.8273409605026245e-01" purity="2.8319898247718811e-01" nType="0">
            <Node pos="l" depth="3" NCoef="0" IVar="-1" Cut="0.0000000000000000e+00" cType="1" res="-4.7009587287902832e-03" rms="2.7877843379974365e-01" purity="2.5695365667343140e-01" nType="-99"/>
            <Node pos="r" depth="3" NCoef="0" IVar="-1" Cut="0.0000000000000000e+00" cType="1" res="-1.6084874048829079e-02" rms="3.1829449534416199e-01" purity="5.3763335943222046e-01" nType="-99"/>
          </Node>
          <Node pos="r" depth="2" NCoef="0" IVar="-1" Cut="0.0000000000000000e+00" cType="1" res="1.3013681396842003e-02" rms="3.1618982553482056e-01" purity="6.4651715755462646e-01" nType="-99"/>
        </Node>
        <Node pos="r" depth="1" NCoef="0" IVar="8" Cut="-7.4667614698410034e-01" cType="1" res="3.7609699647873640e-03" rms="2.7762460708618164e-01" purity="8.0031692981719971e-01" nType="0">
          <Node pos="l" depth="2" NCoef="0" IVar="-1" Cut="0.0000000000000000e+00" cType="1" res="-1.4082816429436207e-02" rms="2.9878249764442444e-01" purity="7.1202552318572998e-01" nType="-99"/>
          <Node pos="r" depth="2" NCoef="0" IVar="5" Cut="7.0671615600585938e+01" cType="1" res="6.7826146259903908e-03" rms="2.7373293042182922e-01" purity="8.1539797782897949e-01" nType="0">
            <Node pos="l" depth="3" NCoef="0" IVar="-1" Cut="0.0000000000000000e+00" cType="1" res="1.5608661808073521e-02" rms="3.7253937125205994e-01" purity="4.9762600660324097e-01" nType="-99"/>
            <Node pos="r" depth="3" NCoef="0" IVar="-1" Cut="0.0000000000000000e+00" cType="1" res="4.6494929119944572e-03" rms="2.4173347651958466e-01" purity="8.9710390567779541e-01" nType="-99"/>
          </Node>
        </Node>
      </Node>
    </BinaryTree>
    <BinaryTree type="DecisionTree" boostWeight="1.0000000000000000e+00" itree="672">
      <Node pos="s" depth="0" NCoef="0" IVar="5" Cut="6.7765991210937500e+01" cType="1" res="-3.9121196605265141e-03" rms="2.8136160969734192e-01" purity="4.9840706586837769e-01" nType="0">
        <Node pos="l" depth="1" NCoef="0" IVar="5" Cut="6.1843769073486328e+01" cType="1" res="1.3697911344934255e-04" rms="2.7482593059539795e-01" purity="1.7434285581111908e-01" nType="0">
          <Node pos="l" depth="2" NCoef="0" IVar="5" Cut="5.3383937835693359e+01" cType="1" res="-4.7694910317659378e-03" rms="2.5658306479454041e-01" purity="1.3870590925216675e-01" nType="0">
            <Node pos="l" depth="3" NCoef="0" IVar="-1" Cut="0.0000000000000000e+00" cType="1" res="1.4883929863572121e-02" rms="2.4477910995483398e-01" purity="1.2007086724042892e-01" nType="-99"/>
            <Node pos="r" depth="3" NCoef="0" IVar="-1" Cut="0.0000000000000000e+00" cType="1" res="-1.6146639361977577e-02" rms="2.6226589083671570e-01" purity="1.4843466877937317e-01" nType="-99"/>
          </Node>
          <Node pos="r" depth="2" NCoef="0" IVar="1" Cut="3.8346629589796066e-02" cType="1" res="1.4203994534909725e-02" rms="3.2102429866790771e-01" purity="2.7651518583297729e-01" nType="0">
            <Node pos="l" depth="3" NCoef="0" IVar="-1" Cut="0.0000000000000000e+00" cType="1" res="-1.2985716573894024e-02" rms="2.4202659726142883e-01" purity="1.1218237131834030e-01" nType="-99"/>
            <Node pos="r" depth="3" NCoef="0" IVar="-1" Cut="0.0000000000000000e+00" cType="1" res="2.7129247784614563e-02" rms="3.8823106884956360e-01" purity="4.5691272616386414e-01" nType="-99"/>
          </Node>
        </Node>
        <Node pos="r" depth="1" NCoef="0" IVar="11" Cut="-2.4476242065429688e+00" cType="1" res="-6.1945170164108276e-03" rms="2.8495422005653381e-01" purity="6.8107569217681885e-01" nType="0">
          <Node pos="l" depth="2" NCoef="0" IVar="1" Cut="4.1071757674217224e-02" cType="1" res="-1.6357177868485451e-02" rms="3.3034622669219971e-01" purity="3.5950133204460144e-01" nType="0">
            <Node pos="l" depth="3" NCoef="0" IVar="-1" Cut="0.0000000000000000e+00" cType="1" res="-6.7732688039541245e-03" rms="2.7761298418045044e-01" purity="1.9224189221858978e-01" nType="-99"/>
            <Node pos="r" depth="3" NCoef="0" IVar="-1" Cut="0.0000000000000000e+00" cType="1" res="-1.9251851364970207e-02" rms="3.7335047125816345e-01" purity="5.1851683855056763e-01" nType="-99"/>
          </Node>
          <Node pos="r" depth="2" NCoef="0" IVar="0" Cut="1.4807591552734375e+03" cType="1" res="-2.1882883738726377e-03" rms="2.6482439041137695e-01" purity="8.0784374475479126e-01" nType="0">
            <Node pos="l" depth="3" NCoef="0" IVar="-1" Cut="0.0000000000000000e+00" cType="1" res="-9.0551534667611122e-03" rms="3.4840708971023560e-01" purity="5.4437953233718872e-01" nType="-99"/>
            <Node pos="r" depth="3" NCoef="0" IVar="-1" Cut="0.0000000000000000e+00" cType="1" res="1.4085280708968639e-03" rms="2.3282794654369354e-01" purity="8.8949811458587646e-01" nType="-99"/>
          </Node>
        </Node>
      </Node>
    </BinaryTree>
    <BinaryTree type="DecisionTree" boostWeight="1.0000000000000000e+00" itree="673">
      <Node pos="s" depth="0" NCoef="0" IVar="5" Cut="9.1341278076171875e+01" cType="1" res="9.5704582054167986e-04" rms="2.8405129909515381e-01" purity="5.0198471546173096e-01" nType="0">
        <Node pos="l" depth="1" NCoef="0" IVar="5" Cut="6.7717720031738281e+01" cType="1" res="4.4683129526674747e-03" rms="3.0024522542953491e-01" purity="2.9709848761558533e-01" nType="0">
          <Node pos="l" depth="2" NCoef="0" IVar="2" Cut="5.6517742919921875e+02" cType="1" res="-1.4742065686732531e-03" rms="2.7429255843162537e-01" purity="1.7546002566814423e-01" nType="0">
            <Node pos="l" depth="3" NCoef="0" IVar="-1" Cut="0.0000000000000000e+00" cType="1" res="-5.8742258697748184e-03" rms="2.6886579394340515e-01" purity="1.6284207999706268e-01" nType="-99"/>
            <Node pos="r" depth="3" NCoef="0" IVar="-1" Cut="0.0000000000000000e+00" cType="1" res="2.2216226905584335e-02" rms="3.1658452749252319e-01" purity="2.8538626432418823e-01" nType="-99"/>
          </Node>
          <Node pos="r" depth="2" NCoef="0" IVar="5" Cut="8.5716560363769531e+01" cType="1" res="1.2801082804799080e-02" rms="3.3307141065597534e-01" purity="4.6766334772109985e-01" nType="0">
            <Node pos="l" depth="3" NCoef="0" IVar="-1" Cut="0.0000000000000000e+00" cType="1" res="1.6447449102997780e-02" rms="3.3490177989006042e-01" purity="4.3682309985160828e-01" nType="-99"/>
            <Node pos="r" depth="3" NCoef="0" IVar="-1" Cut="0.0000000000000000e+00" cType="1" res="-1.0678241960704327e-02" rms="3.2392528653144836e-01" purity="6.0044974088668823e-01" nType="-99"/>
          </Node>
        </Node>
        <Node pos="r" depth="1" NCoef="0" IVar="8" Cut="9.3323105573654175e-01" cType="1" res="-4.6695466153323650e-03" rms="2.5587373971939087e-01" purity="8.3030253648757935e-01" nType="0">
          <Node pos="l" depth="2" NCoef="0" IVar="0" Cut="2.3869050292968750e+03" cType="1" res="-2.3982648272067308e-03" rms="2.4880972504615784e-01" purity="8.5128694772720337e-01" nType="0">
            <Node pos="l" depth="3" NCoef="0" IVar="-1" Cut="0.0000000000000000e+00" cType="1" res="-6.2875305302441120e-03" rms="2.6104393601417542e-01" purity="8.3104985952377319e-01" nType="-99"/>
            <Node pos="r" depth="3" NCoef="0" IVar="-1" Cut="0.0000000000000000e+00" cType="1" res="2.6380386203527451e-02" rms="1.6410087049007416e-01" purity="9.6429413557052612e-01" nType="-99"/>
          </Node>
          <Node pos="r" depth="2" NCoef="0" IVar="-1" Cut="0.0000000000000000e+00" cType="1" res="-2.4907866492867470e-02" rms="3.0812266469001770e-01" purity="6.5446317195892334e-01" nType="-99"/>
        </Node>
      </Node>
    </BinaryTree>
    <BinaryTree type="DecisionTree" boostWeight="1.0000000000000000e+00" itree="674">
      <Node pos="s" depth="0" NCoef="0" IVar="1" Cut="8.7592072784900665e-02" cType="1" res="1.4343821676447988e-03" rms="2.8543499112129211e-01" purity="5.0513970851898193e-01" nType="0">
        <Node pos="l" depth="1" NCoef="0" IVar="1" Cut="6.6738545894622803e-02" cType="1" res="4.3320534750819206e-03" rms="2.9244583845138550e-01" purity="3.4408178925514221e-01" nType="0">
          <Node pos="l" depth="2" NCoef="0" IVar="1" Cut="5.7205364108085632e-02" cType="1" res="2.5855735875666142e-03" rms="2.8650668263435364e-01" purity="2.8998485207557678e-01" nType="0">
            <Node pos="l" depth="3" NCoef="0" IVar="-1" Cut="0.0000000000000000e+00" cType="1" res="4.9669113941490650e-03" rms="2.8349769115447998e-01" purity="2.6619651913642883e-01" nType="-99"/>
            <Node pos="r" depth="3" NCoef="0" IVar="-1" Cut="0.0000000000000000e+00" cType="1" res="-1.0625899769365788e-02" rms="3.1510749459266663e-01" purity="5.3164744377136230e-01" nType="-99"/>
          </Node>
          <Node pos="r" depth="2" NCoef="0" IVar="8" Cut="3.2652494311332703e-01" cType="1" res="1.4041587710380554e-02" rms="3.2331043481826782e-01" purity="6.4483314752578735e-01" nType="0">
            <Node pos="l" depth="3" NCoef="0" IVar="-1" Cut="0.0000000000000000e+00" cType="1" res="4.3103802017867565e-03" rms="3.1535556912422180e-01" purity="6.5138047933578491e-01" nType="-99"/>
            <Node pos="r" depth="3" NCoef="0" IVar="-1" Cut="0.0000000000000000e+00" cType="1" res="2.8136821463704109e-02" rms="3.3721011877059937e-01" purity="6.3237464427947998e-01" nType="-99"/>
          </Node>
        </Node>
        <Node pos="r" depth="1" NCoef="0" IVar="4" Cut="1.3435615539550781e+02" cType="1" res="-4.1758227162063122e-03" rms="2.7125886082649231e-01" purity="8.1696528196334839e-01" nType="0">
          <Node pos="l" depth="2" NCoef="0" IVar="-1" Cut="0.0000000000000000e+00" cType="1" res="-1.4855229295790195e-02" rms="3.6206629872322083e-01" purity="4.7519913315773010e-01" nType="-99"/>
          <Node pos="r" depth="2" NCoef="0" IVar="5" Cut="8.4275970458984375e+01" cType="1" res="-5.9400906320661306e-04" rms="2.4616768956184387e-01" purity="8.9370197057723999e-01" nType="0">
            <Node pos="l" depth="3" NCoef="0" IVar="-1" Cut="0.0000000000000000e+00" cType="1" res="-7.1860980242490768e-03" rms="3.5344401001930237e-01" purity="7.2205442190170288e-01" nType="-99"/>
            <Node pos="r" depth="3" NCoef="0" IVar="-1" Cut="0.0000000000000000e+00" cType="1" res="4.7487369738519192e-03" rms="2.0436334609985352e-01" purity="9.4388085603713989e-01" nType="-99"/>
          </Node>
        </Node>
      </Node>
    </BinaryTree>
    <BinaryTree type="DecisionTree" boostWeight="1.0000000000000000e+00" itree="675">
      <Node pos="s" depth="0" NCoef="0" IVar="1" Cut="4.2411997914314270e-02" cType="1" res="-2.2814284602645785e-04" rms="2.8574666380882263e-01" purity="5.0257790088653564e-01" nType="0">
        <Node pos="l" depth="1" NCoef="0" IVar="8" Cut="-9.3316936492919922e-01" cType="1" res="-4.3335910886526108e-03" rms="2.6648157835006714e-01" purity="2.0724932849407196e-01" nType="0">
          <Node pos="l" depth="2" NCoef="0" IVar="1" Cut="1.6163466498255730e-02" cType="1" res="6.6913026385009289e-03" rms="2.4427995085716248e-01" purity="1.1729896813631058e-01" nType="0">
            <Node pos="l" depth="3" NCoef="0" IVar="-1" Cut="0.0000000000000000e+00" cType="1" res="-1.2455089017748833e-02" rms="1.7470733821392059e-01" purity="4.4262468814849854e-02" nType="-99"/>
            <Node pos="r" depth="3" NCoef="0" IVar="-1" Cut="0.0000000000000000e+00" cType="1" res="2.3334585130214691e-02" rms="2.9856011271476746e-01" purity="1.9173662364482880e-01" nType="-99"/>
          </Node>
          <Node pos="r" depth="2" NCoef="0" IVar="1" Cut="1.0103622451424599e-02" cType="1" res="-7.9980315640568733e-03" rms="2.7336364984512329e-01" purity="2.3714692890644073e-01" nType="0">
            <Node pos="l" depth="3" NCoef="0" IVar="-1" Cut="0.0000000000000000e+00" cType="1" res="8.9116347953677177e-03" rms="2.1207156777381897e-01" purity="9.3718446791172028e-02" nType="-99"/>
            <Node pos="r" depth="3" NCoef="0" IVar="-1" Cut="0.0000000000000000e+00" cType="1" res="-1.3545967638492584e-02" rms="2.9167935252189636e-01" purity="2.8735807538032532e-01" nType="-99"/>
          </Node>
        </Node>
        <Node pos="r" depth="1" NCoef="0" IVar="0" Cut="1.3102512207031250e+03" cType="1" res="2.6584283914417028e-03" rms="2.9851490259170532e-01" purity="7.1022552251815796e-01" nType="0">
          <Node pos="l" depth="2" NCoef="0" IVar="7" Cut="-3.4904146194458008e-01" cType="1" res="1.3535125181078911e-02" rms="3.6052751541137695e-01" purity="2.9860335588455200e-01" nType="0">
            <Node pos="l" depth="3" NCoef="0" IVar="-1" Cut="0.0000000000000000e+00" cType="1" res="-8.6337458342313766e-03" rms="3.3816483616828918e-01" purity="2.3317161202430725e-01" nType="-99"/>
            <Node pos="r" depth="3" NCoef="0" IVar="-1" Cut="0.0000000000000000e+00" cType="1" res="1.8090197816491127e-02" rms="3.6957040429115295e-01" purity="3.2783776521682739e-01" nType="-99"/>
          </Node>
          <Node pos="r" depth="2" NCoef="0" IVar="2" Cut="6.0299261474609375e+02" cType="1" res="-1.0607601143419743e-03" rms="2.7401113510131836e-01" purity="8.5097599029541016e-01" nType="0">
            <Node pos="l" depth="3" NCoef="0" IVar="-1" Cut="0.0000000000000000e+00" cType="1" res="-3.7018449511379004e-03" rms="2.7272766828536987e-01" purity="8.5131162405014038e-01" nType="-99"/>
            <Node pos="r" depth="3" NCoef="0" IVar="-1" Cut="0.0000000000000000e+00" cType="1" res="1.7253188416361809e-02" rms="2.8482639789581299e-01" purity="8.4795266389846802e-01" nType="-99"/>
          </Node>
        </Node>
      </Node>
    </BinaryTree>
    <BinaryTree type="DecisionTree" boostWeight="1.0000000000000000e+00" itree="676">
      <Node pos="s" depth="0" NCoef="0" IVar="2" Cut="6.0742382812500000e+02" cType="1" res="8.1141619011759758e-04" rms="2.8362509608268738e-01" purity="4.9682900309562683e-01" nType="0">
        <Node pos="l" depth="1" NCoef="0" IVar="2" Cut="5.2981323242187500e+02" cType="1" res="2.0399854984134436e-03" rms="2.8203102946281433e-01" purity="4.9016809463500977e-01" nType="0">
          <Node pos="l" depth="2" NCoef="0" IVar="2" Cut="4.8269531250000000e+02" cType="1" res="3.0106406193226576e-03" rms="2.8190776705741882e-01" purity="4.8411872982978821e-01" nType="0">
            <Node pos="l" depth="3" NCoef="0" IVar="-1" Cut="0.0000000000000000e+00" cType="1" res="2.1449979394674301e-03" rms="2.8074339032173157e-01" purity="4.7599360346794128e-01" nType="-99"/>
            <Node pos="r" depth="3" NCoef="0" IVar="-1" Cut="0.0000000000000000e+00" cType="1" res="2.1580608561635017e-02" rms="2.9532691836357117e-01" purity="5.8338171243667603e-01" nType="-99"/>
          </Node>
          <Node pos="r" depth="2" NCoef="0" IVar="2" Cut="5.5937927246093750e+02" cType="1" res="-1.0900845751166344e-02" rms="2.8335192799568176e-01" purity="5.7081872224807739e-01" nType="0">
            <Node pos="l" depth="3" NCoef="0" IVar="-1" Cut="0.0000000000000000e+00" cType="1" res="-3.8862448185682297e-02" rms="2.5159981846809387e-01" purity="5.5983549356460571e-01" nType="-99"/>
            <Node pos="r" depth="3" NCoef="0" IVar="-1" Cut="0.0000000000000000e+00" cType="1" res="2.8190487064421177e-03" rms="3.0398634076118469e-01" purity="5.7892811298370361e-01" nType="-99"/>
          </Node>
        </Node>
        <Node pos="r" depth="1" NCoef="0" IVar="7" Cut="2.4494943022727966e-01" cType="1" res="-1.2696590274572372e-02" rms="3.0026337504386902e-01" purity="5.7006561756134033e-01" nType="0">
          <Node pos="l" depth="2" NCoef="0" IVar="6" Cut="5.3219669342041016e+01" cType="1" res="-2.5692639872431755e-02" rms="2.9348218441009521e-01" purity="5.8939617872238159e-01" nType="0">
            <Node pos="l" depth="3" NCoef="0" IVar="-1" Cut="0.0000000000000000e+00" cType="1" res="-4.4203806668519974e-02" rms="3.1847748160362244e-01" purity="3.4556460380554199e-01" nType="-99"/>
            <Node pos="r" depth="3" NCoef="0" IVar="-1" Cut="0.0000000000000000e+00" cType="1" res="-2.3701116442680359e-03" rms="2.6621848344802856e-01" purity="8.1366527080535889e-01" nType="-99"/>
          </Node>
          <Node pos="r" depth="2" NCoef="0" IVar="-1" Cut="0.0000000000000000e+00" cType="1" res="1.1181650683283806e-02" rms="3.1076169013977051e-01" purity="5.3515964746475220e-01" nType="-99"/>
        </Node>
      </Node>
    </BinaryTree>
    <BinaryTree type="DecisionTree" boostWeight="1.0000000000000000e+00" itree="677">
      <Node pos="s" depth="0" NCoef="0" IVar="4" Cut="1.4544813537597656e+02" cType="1" res="9.5315423095598817e-04" rms="2.8717663884162903e-01" purity="4.9805518984794617e-01" nType="0">
        <Node pos="l" depth="1" NCoef="0" IVar="3" Cut="2.7356179809570312e+02" cType="1" res="5.4949056357145309e-03" rms="2.8708046674728394e-01" purity="2.3092415928840637e-01" nType="0">
          <Node pos="l" depth="2" NCoef="0" IVar="7" Cut="6.9270783662796021e-01" cType="1" res="2.8307395987212658e-03" rms="2.8001123666763306e-01" purity="2.1724066138267517e-01" nType="0">
            <Node pos="l" depth="3" NCoef="0" IVar="-1" Cut="0.0000000000000000e+00" cType="1" res="7.0614884607493877e-03" rms="2.9774469137191772e-01" purity="2.5257396697998047e-01" nType="-99"/>
            <Node pos="r" depth="3" NCoef="0" IVar="-1" Cut="0.0000000000000000e+00" cType="1" res="-1.2627291493117809e-02" rms="2.2204875946044922e-01" purity="1.1730545014142990e-01" nType="-99"/>
          </Node>
          <Node pos="r" depth="2" NCoef="0" IVar="-1" Cut="0.0000000000000000e+00" cType="1" res="2.6944097131490707e-02" rms="3.4161853790283203e-01" purity="3.5000458359718323e-01" nType="-99"/>
        </Node>
        <Node pos="r" depth="1" NCoef="0" IVar="9" Cut="-1.4664065837860107e+00" cType="1" res="-2.6997297536581755e-03" rms="2.8720188140869141e-01" purity="7.1290594339370728e-01" nType="0">
          <Node pos="l" depth="2" NCoef="0" IVar="-1" Cut="0.0000000000000000e+00" cType="1" res="-2.3549906909465790e-02" rms="2.8382381796836853e-01" purity="3.6267381906509399e-01" nType="-99"/>
          <Node pos="r" depth="2" NCoef="0" IVar="8" Cut="3.9628520607948303e-01" cType="1" res="-1.4849856961518526e-03" rms="2.8737238049507141e-01" purity="7.3517417907714844e-01" nType="0">
            <Node pos="l" depth="3" NCoef="0" IVar="-1" Cut="0.0000000000000000e+00" cType="1" res="1.7942236736416817e-03" rms="2.8421759605407715e-01" purity="7.6586598157882690e-01" nType="-99"/>
            <Node pos="r" depth="3" NCoef="0" IVar="-1" Cut="0.0000000000000000e+00" cType="1" res="-8.8822208344936371e-03" rms="2.9409500956535339e-01" purity="6.6760069131851196e-01" nType="-99"/>
          </Node>
        </Node>
      </Node>
    </BinaryTree>
    <BinaryTree type="DecisionTree" boostWeight="1.0000000000000000e+00" itree="678">
      <Node pos="s" depth="0" NCoef="0" IVar="9" Cut="9.3316179513931274e-01" cType="1" res="-1.5136257279664278e-03" rms="2.8384989500045776e-01" purity="5.0279188156127930e-01" nType="0">
        <Node pos="l" depth="1" NCoef="0" IVar="11" Cut="1.4190063476562500e+00" cType="1" res="-3.7408443167805672e-03" rms="2.8564447164535522e-01" purity="5.3643596172332764e-01" nType="0">
          <Node pos="l" depth="2" NCoef="0" IVar="3" Cut="2.2113940429687500e+02" cType="1" res="-2.5005238130688667e-03" rms="2.8494828939437866e-01" purity="5.2904212474822998e-01" nType="0">
            <Node pos="l" depth="3" NCoef="0" IVar="-1" Cut="0.0000000000000000e+00" cType="1" res="2.1699026692658663e-03" rms="2.8671494126319885e-01" purity="3.5329824686050415e-01" nType="-99"/>
            <Node pos="r" depth="3" NCoef="0" IVar="-1" Cut="0.0000000000000000e+00" cType="1" res="-8.0206962302327156e-03" rms="2.8319644927978516e-01" purity="6.9623333215713501e-01" nType="-99"/>
          </Node>
          <Node pos="r" depth="2" NCoef="0" IVar="-1" Cut="0.0000000000000000e+00" cType="1" res="-2.5231035426259041e-02" rms="2.9593986272811890e-01" purity="6.5581315755844116e-01" nType="-99"/>
        </Node>
        <Node pos="r" depth="1" NCoef="0" IVar="6" Cut="6.9337394714355469e+01" cType="1" res="7.7640600502490997e-03" rms="2.7605578303337097e-01" purity="3.6264425516128540e-01" nType="0">
          <Node pos="l" depth="2" NCoef="0" IVar="4" Cut="1.6068301391601562e+02" cType="1" res="2.7025418821722269e-03" rms="2.7483859658241272e-01" purity="2.2471283376216888e-01" nType="0">
            <Node pos="l" depth="3" NCoef="0" IVar="-1" Cut="0.0000000000000000e+00" cType="1" res="1.4024615287780762e-02" rms="2.5709936022758484e-01" purity="1.5872721374034882e-01" nType="-99"/>
            <Node pos="r" depth="3" NCoef="0" IVar="-1" Cut="0.0000000000000000e+00" cType="1" res="-1.3887341134250164e-02" rms="3.1775748729705811e-01" purity="4.0593293309211731e-01" nType="-99"/>
          </Node>
          <Node pos="r" depth="2" NCoef="0" IVar="-1" Cut="0.0000000000000000e+00" cType="1" res="2.8333442285656929e-02" rms="2.7934452891349792e-01" purity="8.1125700473785400e-01" nType="-99"/>
        </Node>
      </Node>
    </BinaryTree>
    <BinaryTree type="DecisionTree" boostWeight="1.0000000000000000e+00" itree="679">
      <Node pos="s" depth="0" NCoef="0" IVar="1" Cut="1.0948505252599716e-01" cType="1" res="2.9248143619042821e-05" rms="2.8349068760871887e-01" purity="5.0194996595382690e-01" nType="0">
        <Node pos="l" depth="1" NCoef="0" IVar="5" Cut="6.7766105651855469e+01" cType="1" res="2.9739621095359325e-03" rms="2.8897333145141602e-01" purity="3.8692569732666016e-01" nType="0">
          <Node pos="l" depth="2" NCoef="0" IVar="4" Cut="1.9030970764160156e+02" cType="1" res="-3.3096233382821083e-03" rms="2.5381347537040710e-01" purity="1.3323697447776794e-01" nType="0">
            <Node pos="l" depth="3" NCoef="0" IVar="-1" Cut="0.0000000000000000e+00" cType="1" res="-6.2454567523673177e-04" rms="2.4352839589118958e-01" purity="1.0567690432071686e-01" nType="-99"/>
            <Node pos="r" depth="3" NCoef="0" IVar="-1" Cut="0.0000000000000000e+00" cType="1" res="-2.2256946191191673e-02" rms="3.2788449525833130e-01" purity="3.6916676163673401e-01" nType="-99"/>
          </Node>
          <Node pos="r" depth="2" NCoef="0" IVar="11" Cut="-2.3824830353260040e-01" cType="1" res="7.7247954905033112e-03" rms="3.1286141276359558e-01" purity="5.7873225212097168e-01" nType="0">
            <Node pos="l" depth="3" NCoef="0" IVar="-1" Cut="0.0000000000000000e+00" cType="1" res="1.1390007100999355e-02" rms="3.2480707764625549e-01" purity="4.9204182624816895e-01" nType="-99"/>
            <Node pos="r" depth="3" NCoef="0" IVar="-1" Cut="0.0000000000000000e+00" cType="1" res="4.2312676669098437e-04" rms="2.9143315553665161e-01" purity="7.2512710094451904e-01" nType="-99"/>
          </Node>
        </Node>
        <Node pos="r" depth="1" NCoef="0" IVar="0" Cut="1.5993422851562500e+03" cType="1" res="-8.5322391241788864e-03" rms="2.6672682166099548e-01" purity="8.3637273311614990e-01" nType="0">
          <Node pos="l" depth="2" NCoef="0" IVar="3" Cut="2.0503724670410156e+02" cType="1" res="-1.6035815700888634e-02" rms="3.5759410262107849e-01" purity="6.6048645973205566e-01" nType="0">
            <Node pos="l" depth="3" NCoef="0" IVar="-1" Cut="0.0000000000000000e+00" cType="1" res="-2.9752475675195456e-03" rms="3.6067548394203186e-01" purity="6.3057231903076172e-01" nType="-99"/>
            <Node pos="r" depth="3" NCoef="0" IVar="-1" Cut="0.0000000000000000e+00" cType="1" res="-2.4518545717000961e-02" rms="3.5308161377906799e-01" purity="6.9810980558395386e-01" nType="-99"/>
          </Node>
          <Node pos="r" depth="2" NCoef="0" IVar="-1" Cut="0.0000000000000000e+00" cType="1" res="-1.0849896818399429e-02" rms="1.7855913937091827e-01" purity="9.5788967609405518e-01" nType="-99"/>
        </Node>
      </Node>
    </BinaryTree>
    <BinaryTree type="DecisionTree" boostWeight="1.0000000000000000e+00" itree="680">
      <Node pos="s" depth="0" NCoef="0" IVar="4" Cut="1.4544813537597656e+02" cType="1" res="-9.4140222063288093e-04" rms="2.8112715482711792e-01" purity="4.9867159128189087e-01" nType="0">
        <Node pos="l" depth="1" NCoef="0" IVar="4" Cut="1.2746190643310547e+02" cType="1" res="-7.9322941601276398e-03" rms="2.7578443288803101e-01" purity="2.1728393435478210e-01" nType="0">
          <Node pos="l" depth="2" NCoef="0" IVar="6" Cut="5.6059669494628906e+01" cType="1" res="-1.1417349800467491e-02" rms="2.5458571314811707e-01" purity="1.4780652523040771e-01" nType="0">
            <Node pos="l" depth="3" NCoef="0" IVar="-1" Cut="0.0000000000000000e+00" cType="1" res="-1.3063666410744190e-02" rms="2.2938522696495056e-01" purity="8.9337319135665894e-02" nType="-99"/>
            <Node pos="r" depth="3" NCoef="0" IVar="-1" Cut="0.0000000000000000e+00" cType="1" res="-2.3333128541707993e-02" rms="3.4930497407913208e-01" purity="4.2408743500709534e-01" nType="-99"/>
          </Node>
          <Node pos="r" depth="2" NCoef="0" IVar="7" Cut="-5.7449078559875488e-01" cType="1" res="2.8060381300747395e-03" rms="3.3248662948608398e-01" purity="4.3136113882064819e-01" nType="0">
            <Node pos="l" depth="3" NCoef="0" IVar="-1" Cut="0.0000000000000000e+00" cType="1" res="2.5289932265877724e-02" rms="3.2772451639175415e-01" purity="3.2789564132690430e-01" nType="-99"/>
            <Node pos="r" depth="3" NCoef="0" IVar="-1" Cut="0.0000000000000000e+00" cType="1" res="-4.1464343667030334e-03" rms="3.3392640948295593e-01" purity="4.6985891461372375e-01" nType="-99"/>
          </Node>
        </Node>
        <Node pos="r" depth="1" NCoef="0" IVar="6" Cut="1.5795381546020508e+01" cType="1" res="4.6025053597986698e-03" rms="2.8517106175422668e-01" purity="7.2181719541549683e-01" nType="0">
          <Node pos="l" depth="2" NCoef="0" IVar="0" Cut="1.7769395751953125e+03" cType="1" res="1.6766261309385300e-02" rms="3.4525644779205322e-01" purity="4.5261937379837036e-01" nType="0">
            <Node pos="l" depth="3" NCoef="0" IVar="-1" Cut="0.0000000000000000e+00" cType="1" res="1.8802829086780548e-02" rms="3.4822386503219604e-01" purity="3.5717844963073730e-01" nType="-99"/>
            <Node pos="r" depth="3" NCoef="0" IVar="-1" Cut="0.0000000000000000e+00" cType="1" res="-1.4788504922762513e-03" rms="3.3672347664833069e-01" purity="7.0062220096588135e-01" nType="-99"/>
          </Node>
          <Node pos="r" depth="2" NCoef="0" IVar="0" Cut="1.5331114501953125e+03" cType="1" res="-1.1693042470142245e-03" rms="2.5148531794548035e-01" purity="8.4955400228500366e-01" nType="0">
            <Node pos="l" depth="3" NCoef="0" IVar="-1" Cut="0.0000000000000000e+00" cType="1" res="-1.1598830111324787e-02" rms="3.4451732039451599e-01" purity="6.2444478273391724e-01" nType="-99"/>
            <Node pos="r" depth="3" NCoef="0" IVar="-1" Cut="0.0000000000000000e+00" cType="1" res="4.0063429623842239e-03" rms="2.2410906851291656e-01" purity="9.0218532085418701e-01" nType="-99"/>
          </Node>
        </Node>
      </Node>
    </BinaryTree>
    <BinaryTree type="DecisionTree" boostWeight="1.0000000000000000e+00" itree="681">
      <Node pos="s" depth="0" NCoef="0" IVar="9" Cut="1.9997535943984985e+00" cType="1" res="1.3349262007977813e-04" rms="2.8322389721870422e-01" purity="4.9915093183517456e-01" nType="0">
        <Node pos="l" depth="1" NCoef="0" IVar="4" Cut="9.8577117919921875e+01" cType="1" res="1.0978470090776682e-03" rms="2.8541103005409241e-01" purity="5.1274001598358154e-01" nType="0">
          <Node pos="l" depth="2" NCoef="0" IVar="3" Cut="1.8208508300781250e+02" cType="1" res="-7.5190356001257896e-03" rms="2.0008470118045807e-01" purity="7.1828827261924744e-02" nType="0">
            <Node pos="l" depth="3" NCoef="0" IVar="-1" Cut="0.0000000000000000e+00" cType="1" res="3.7352809158619493e-05" rms="1.9004796445369720e-01" purity="6.3115857541561127e-02" nType="-99"/>
            <Node pos="r" depth="3" NCoef="0" IVar="-1" Cut="0.0000000000000000e+00" cType="1" res="-4.3631967157125473e-02" rms="2.2758877277374268e-01" purity="9.9699392914772034e-02" nType="-99"/>
          </Node>
          <Node pos="r" depth="2" NCoef="0" IVar="11" Cut="-1.6190946102142334e+00" cType="1" res="2.7521150186657906e-03" rms="2.9899054765701294e-01" purity="5.9738600254058838e-01" nType="0">
            <Node pos="l" depth="3" NCoef="0" IVar="-1" Cut="0.0000000000000000e+00" cType="1" res="8.1865573301911354e-03" rms="3.2842347025871277e-01" purity="3.5377812385559082e-01" nType="-99"/>
            <Node pos="r" depth="3" NCoef="0" IVar="-1" Cut="0.0000000000000000e+00" cType="1" res="-2.7146716602146626e-03" rms="2.7263909578323364e-01" purity="7.9540485143661499e-01" nType="-99"/>
          </Node>
        </Node>
        <Node pos="r" depth="1" NCoef="0" IVar="-1" Cut="0.0000000000000000e+00" cType="1" res="-5.0722118467092514e-02" rms="2.0882765948772430e-01" purity="1.0788393765687943e-01" nType="-99"/>
      </Node>
    </BinaryTree>
    <BinaryTree type="DecisionTree" boostWeight="1.0000000000000000e+00" itree="682">
      <Node pos="s" depth="0" NCoef="0" IVar="9" Cut="6.6646814346313477e-01" cType="1" res="1.1995465029031038e-03" rms="2.8492209315299988e-01" purity="5.0474572181701660e-01" nType="0">
        <Node pos="l" depth="1" NCoef="0" IVar="10" Cut="-1.9999576807022095e+00" cType="1" res="-1.2664726236835122e-03" rms="2.8364029526710510e-01" purity="5.3684091567993164e-01" nType="0">
          <Node pos="l" depth="2" NCoef="0" IVar="-1" Cut="0.0000000000000000e+00" cType="1" res="-2.8241679072380066e-02" rms="2.7261751890182495e-01" purity="2.4779731035232544e-01" nType="-99"/>
          <Node pos="r" depth="2" NCoef="0" IVar="6" Cut="6.6376380920410156e+01" cType="1" res="-1.3535334437619895e-04" rms="2.8416660428047180e-01" purity="5.5212897062301636e-01" nType="0">
            <Node pos="l" depth="3" NCoef="0" IVar="-1" Cut="0.0000000000000000e+00" cType="1" res="-3.6907226312905550e-03" rms="3.1077161431312561e-01" purity="3.4955498576164246e-01" nType="-99"/>
            <Node pos="r" depth="3" NCoef="0" IVar="-1" Cut="0.0000000000000000e+00" cType="1" res="9.6113244071602821e-03" rms="2.3346610367298126e-01" purity="8.8734310865402222e-01" nType="-99"/>
          </Node>
        </Node>
        <Node pos="r" depth="1" NCoef="0" IVar="9" Cut="2.0885267257690430e+00" cType="1" res="8.0746524035930634e-03" rms="2.8835427761077881e-01" purity="4.1526639461517334e-01" nType="0">
          <Node pos="l" depth="2" NCoef="0" IVar="6" Cut="6.8030204772949219e+01" cType="1" res="1.0835212655365467e-02" rms="2.9713946580886841e-01" purity="4.5389997959136963e-01" nType="0">
            <Node pos="l" depth="3" NCoef="0" IVar="-1" Cut="0.0000000000000000e+00" cType="1" res="1.8442425876855850e-02" rms="3.0849578976631165e-01" purity="3.0184590816497803e-01" nType="-99"/>
            <Node pos="r" depth="3" NCoef="0" IVar="-1" Cut="0.0000000000000000e+00" cType="1" res="-8.8021019473671913e-03" rms="2.6551580429077148e-01" purity="8.3823889493942261e-01" nType="-99"/>
          </Node>
          <Node pos="r" depth="2" NCoef="0" IVar="-1" Cut="0.0000000000000000e+00" cType="1" res="-2.7960475534200668e-02" rms="2.0188005268573761e-01" purity="1.0110932588577271e-01" nType="-99"/>
        </Node>
      </Node>
    </BinaryTree>
    <BinaryTree type="DecisionTree" boostWeight="1.0000000000000000e+00" itree="683">
      <Node pos="s" depth="0" NCoef="0" IVar="5" Cut="7.0670593261718750e+01" cType="1" res="-1.6277450777124614e-04" rms="2.8620839118957520e-01" purity="4.9469950795173645e-01" nType="0">
        <Node pos="l" depth="1" NCoef="0" IVar="10" Cut="1.7332155704498291e+00" cType="1" res="4.4414554722607136e-03" rms="2.8496187925338745e-01" purity="1.9662700593471527e-01" nType="0">
          <Node pos="l" depth="2" NCoef="0" IVar="10" Cut="8.6972647905349731e-01" cType="1" res="6.4591420814394951e-03" rms="2.8992894291877747e-01" purity="2.0683637261390686e-01" nType="0">
            <Node pos="l" depth="3" NCoef="0" IVar="-1" Cut="0.0000000000000000e+00" cType="1" res="4.3344027362763882e-03" rms="2.8898829221725464e-01" purity="2.0051199197769165e-01" nType="-99"/>
            <Node pos="r" depth="3" NCoef="0" IVar="-1" Cut="0.0000000000000000e+00" cType="1" res="2.2261681035161018e-02" rms="2.9353675246238708e-01" purity="2.3344588279724121e-01" nType="-99"/>
          </Node>
          <Node pos="r" depth="2" NCoef="0" IVar="-1" Cut="0.0000000000000000e+00" cType="1" res="-1.9735684618353844e-02" rms="2.3913681507110596e-01" purity="1.1188302934169769e-01" nType="-99"/>
        </Node>
        <Node pos="r" depth="1" NCoef="0" IVar="3" Cut="2.3698312377929688e+02" cType="1" res="-3.3827675506472588e-03" rms="2.8703302145004272e-01" purity="7.0315808057785034e-01" nType="0">
          <Node pos="l" depth="2" NCoef="0" IVar="3" Cut="1.8275155639648438e+02" cType="1" res="-7.9059805721044540e-03" rms="3.0846515297889709e-01" purity="5.8649587631225586e-01" nType="0">
            <Node pos="l" depth="3" NCoef="0" IVar="-1" Cut="0.0000000000000000e+00" cType="1" res="3.3111118245869875e-03" rms="3.1662595272064209e-01" purity="4.5680025219917297e-01" nType="-99"/>
            <Node pos="r" depth="3" NCoef="0" IVar="-1" Cut="0.0000000000000000e+00" cType="1" res="-1.7168536782264709e-02" rms="3.0225160717964172e-01" purity="6.7891091108322144e-01" nType="-99"/>
          </Node>
          <Node pos="r" depth="2" NCoef="0" IVar="10" Cut="9.3333858251571655e-01" cType="1" res="5.4406345589086413e-04" rms="2.6697331666946411e-01" purity="8.0443853139877319e-01" nType="0">
            <Node pos="l" depth="3" NCoef="0" IVar="-1" Cut="0.0000000000000000e+00" cType="1" res="-2.6663762982934713e-03" rms="2.6184207201004028e-01" purity="8.1656879186630249e-01" nType="-99"/>
            <Node pos="r" depth="3" NCoef="0" IVar="-1" Cut="0.0000000000000000e+00" cType="1" res="1.2337228283286095e-02" rms="2.8751051425933838e-01" purity="7.5294774770736694e-01" nType="-99"/>
          </Node>
        </Node>
      </Node>
    </BinaryTree>
    <BinaryTree type="DecisionTree" boostWeight="1.0000000000000000e+00" itree="684">
      <Node pos="s" depth="0" NCoef="0" IVar="2" Cut="7.0332525634765625e+02" cType="1" res="2.9827845282852650e-03" rms="2.8713265061378479e-01" purity="5.0025677680969238e-01" nType="0">
        <Node pos="l" depth="1" NCoef="0" IVar="7" Cut="1.4743727445602417e+00" cType="1" res="3.7005720660090446e-03" rms="2.8593584895133972e-01" purity="4.9768212437629700e-01" nType="0">
          <Node pos="l" depth="2" NCoef="0" IVar="1" Cut="6.3610710203647614e-02" cType="1" res="4.5217792503535748e-03" rms="2.9251885414123535e-01" purity="5.2593708038330078e-01" nType="0">
            <Node pos="l" depth="3" NCoef="0" IVar="-1" Cut="0.0000000000000000e+00" cType="1" res="9.5845628529787064e-03" rms="2.9704290628433228e-01" purity="2.9683601856231689e-01" nType="-99"/>
            <Node pos="r" depth="3" NCoef="0" IVar="-1" Cut="0.0000000000000000e+00" cType="1" res="6.9413107121363282e-04" rms="2.8767147660255432e-01" purity="7.6491957902908325e-01" nType="-99"/>
          </Node>
          <Node pos="r" depth="2" NCoef="0" IVar="3" Cut="1.7652778625488281e+02" cType="1" res="-8.4291119128465652e-03" rms="1.5923731029033661e-01" purity="8.0341406166553497e-02" nType="0">
            <Node pos="l" depth="3" NCoef="0" IVar="-1" Cut="0.0000000000000000e+00" cType="1" res="6.3284607604146004e-03" rms="1.2830604612827301e-01" purity="3.2867696136236191e-02" nType="-99"/>
            <Node pos="r" depth="3" NCoef="0" IVar="-1" Cut="0.0000000000000000e+00" cType="1" res="-3.2568518072366714e-02" rms="1.8005543947219849e-01" purity="1.1874421685934067e-01" nType="-99"/>
          </Node>
        </Node>
        <Node pos="r" depth="1" NCoef="0" IVar="-1" Cut="0.0000000000000000e+00" cType="1" res="-1.3807065784931183e-02" rms="3.1440591812133789e-01" purity="5.6304234266281128e-01" nType="-99"/>
      </Node>
    </BinaryTree>
    <BinaryTree type="DecisionTree" boostWeight="1.0000000000000000e+00" itree="685">
      <Node pos="s" depth="0" NCoef="0" IVar="10" Cut="9.3294519186019897e-01" cType="1" res="-7.6141487807035446e-04" rms="2.8588351607322693e-01" purity="4.9712911248207092e-01" nType="0">
        <Node pos="l" depth="1" NCoef="0" IVar="10" Cut="-1.9111998081207275e+00" cType="1" res="1.6791087109595537e-03" rms="2.8457796573638916e-01" purity="5.2769804000854492e-01" nType="0">
          <Node pos="l" depth="2" NCoef="0" IVar="3" Cut="1.8520254516601562e+02" cType="1" res="1.8599916249513626e-02" rms="2.8565236926078796e-01" purity="2.7813565731048584e-01" nType="0">
            <Node pos="l" depth="3" NCoef="0" IVar="-1" Cut="0.0000000000000000e+00" cType="1" res="4.6301703900098801e-02" rms="2.6329776644706726e-01" purity="1.3610765337944031e-01" nType="-99"/>
            <Node pos="r" depth="3" NCoef="0" IVar="-1" Cut="0.0000000000000000e+00" cType="1" res="1.4722132124006748e-02" rms="3.0252695083618164e-01" purity="3.9353576302528381e-01" nType="-99"/>
          </Node>
          <Node pos="r" depth="2" NCoef="0" IVar="11" Cut="8.6645239591598511e-01" cType="1" res="3.4912760020233691e-04" rms="2.8445068001747131e-01" purity="5.4731374979019165e-01" nType="0">
            <Node pos="l" depth="3" NCoef="0" IVar="-1" Cut="0.0000000000000000e+00" cType="1" res="-1.5290235169231892e-03" rms="2.8424489498138428e-01" purity="5.1728093624114990e-01" nType="-99"/>
            <Node pos="r" depth="3" NCoef="0" IVar="-1" Cut="0.0000000000000000e+00" cType="1" res="1.3332199305295944e-02" rms="2.8565230965614319e-01" purity="7.6016074419021606e-01" nType="-99"/>
          </Node>
        </Node>
        <Node pos="r" depth="1" NCoef="0" IVar="7" Cut="-5.8972394466400146e-01" cType="1" res="-9.3698911368846893e-03" rms="2.9027789831161499e-01" purity="3.8930305838584900e-01" nType="0">
          <Node pos="l" depth="2" NCoef="0" IVar="-1" Cut="0.0000000000000000e+00" cType="1" res="-4.6878457069396973e-02" rms="2.5596052408218384e-01" purity="2.0581975579261780e-01" nType="-99"/>
          <Node pos="r" depth="2" NCoef="0" IVar="9" Cut="-4.0021190047264099e-01" cType="1" res="-2.5177365168929100e-03" rms="2.9909175634384155e-01" purity="4.4220238924026489e-01" nType="0">
            <Node pos="l" depth="3" NCoef="0" IVar="-1" Cut="0.0000000000000000e+00" cType="1" res="-1.5840239822864532e-02" rms="2.8403064608573914e-01" purity="3.7883734703063965e-01" nType="-99"/>
            <Node pos="r" depth="3" NCoef="0" IVar="-1" Cut="0.0000000000000000e+00" cType="1" res="2.4222554638981819e-03" rms="3.0492025613784790e-01" purity="4.6817111968994141e-01" nType="-99"/>
          </Node>
        </Node>
      </Node>
    </BinaryTree>
    <BinaryTree type="DecisionTree" boostWeight="1.0000000000000000e+00" itree="686">
      <Node pos="s" depth="0" NCoef="0" IVar="9" Cut="9.3306469917297363e-01" cType="1" res="-1.2723148392979056e-04" rms="2.8681465983390808e-01" purity="4.9879944324493408e-01" nType="0">
        <Node pos="l" depth="1" NCoef="0" IVar="7" Cut="1.2159179449081421e+00" cType="1" res="-2.1654528100043535e-03" rms="2.8590214252471924e-01" purity="5.3296184539794922e-01" nType="0">
          <Node pos="l" depth="2" NCoef="0" IVar="9" Cut="3.9977073669433594e-01" cType="1" res="-3.5196845419704914e-03" rms="2.8901016712188721e-01" purity="5.6366986036300659e-01" nType="0">
            <Node pos="l" depth="3" NCoef="0" IVar="-1" Cut="0.0000000000000000e+00" cType="1" res="-1.4439884107559919e-03" rms="2.8836798667907715e-01" purity="5.5619031190872192e-01" nType="-99"/>
            <Node pos="r" depth="3" NCoef="0" IVar="-1" Cut="0.0000000000000000e+00" cType="1" res="-1.5140064060688019e-02" rms="2.9151853919029236e-01" purity="5.9539169073104858e-01" nType="-99"/>
          </Node>
          <Node pos="r" depth="2" NCoef="0" IVar="8" Cut="1.3543860614299774e-01" cType="1" res="1.2701208703219891e-02" rms="2.4876317381858826e-01" purity="1.9585119187831879e-01" nType="0">
            <Node pos="l" depth="3" NCoef="0" IVar="-1" Cut="0.0000000000000000e+00" cType="1" res="-3.7564586382359266e-03" rms="2.3061165213584900e-01" purity="1.6281294822692871e-01" nType="-99"/>
            <Node pos="r" depth="3" NCoef="0" IVar="-1" Cut="0.0000000000000000e+00" cType="1" res="4.7432247549295425e-02" rms="2.6756006479263306e-01" purity="2.3479218780994415e-01" nType="-99"/>
          </Node>
        </Node>
        <Node pos="r" depth="1" NCoef="0" IVar="7" Cut="1.9579775631427765e-01" cType="1" res="8.3327479660511017e-03" rms="2.9041862487792969e-01" purity="3.5700258612632751e-01" nType="0">
          <Node pos="l" depth="2" NCoef="0" IVar="9" Cut="1.7329909801483154e+00" cType="1" res="-2.2074242588132620e-03" rms="2.8943529725074768e-01" purity="3.4735983610153198e-01" nType="0">
            <Node pos="l" depth="3" NCoef="0" IVar="-1" Cut="0.0000000000000000e+00" cType="1" res="-1.1729957535862923e-02" rms="3.0236044526100159e-01" purity="4.3262463808059692e-01" nType="-99"/>
            <Node pos="r" depth="3" NCoef="0" IVar="-1" Cut="0.0000000000000000e+00" cType="1" res="2.8770959004759789e-02" rms="2.5662544369697571e-01" purity="1.5338866412639618e-01" nType="-99"/>
          </Node>
          <Node pos="r" depth="2" NCoef="0" IVar="3" Cut="2.0773435974121094e+02" cType="1" res="1.9359115511178970e-02" rms="2.9103553295135498e-01" purity="3.6709013581275940e-01" nType="0">
            <Node pos="l" depth="3" NCoef="0" IVar="-1" Cut="0.0000000000000000e+00" cType="1" res="3.8619618862867355e-02" rms="2.8448852896690369e-01" purity="2.4640764296054840e-01" nType="-99"/>
            <Node pos="r" depth="3" NCoef="0" IVar="-1" Cut="0.0000000000000000e+00" cType="1" res="8.9213401079177856e-03" rms="2.9828965663909912e-01" purity="5.1070767641067505e-01" nType="-99"/>
          </Node>
        </Node>
      </Node>
    </BinaryTree>
    <BinaryTree type="DecisionTree" boostWeight="1.0000000000000000e+00" itree="687">
      <Node pos="s" depth="0" NCoef="0" IVar="8" Cut="9.3338578939437866e-01" cType="1" res="3.5432126605883241e-04" rms="2.8340956568717957e-01" purity="5.0554966926574707e-01" nType="0">
        <Node pos="l" depth="1" NCoef="0" IVar="2" Cut="6.8690216064453125e+02" cType="1" res="2.6853878516703844e-03" rms="2.8721806406974792e-01" purity="5.5352646112442017e-01" nType="0">
          <Node pos="l" depth="2" NCoef="0" IVar="4" Cut="1.3311080932617188e+02" cType="1" res="1.7521472182124853e-03" rms="2.8548809885978699e-01" purity="5.4889625310897827e-01" nType="0">
            <Node pos="l" depth="3" NCoef="0" IVar="-1" Cut="0.0000000000000000e+00" cType="1" res="7.9569183290004730e-03" rms="2.8726297616958618e-01" purity="2.1491874754428864e-01" nType="-99"/>
            <Node pos="r" depth="3" NCoef="0" IVar="-1" Cut="0.0000000000000000e+00" cType="1" res="-1.0260068811476231e-03" rms="2.8447136282920837e-01" purity="7.3298782110214233e-01" nType="-99"/>
          </Node>
          <Node pos="r" depth="2" NCoef="0" IVar="-1" Cut="0.0000000000000000e+00" cType="1" res="1.8502859398722649e-02" rms="3.1729272007942200e-01" purity="6.3998728990554810e-01" nType="-99"/>
        </Node>
        <Node pos="r" depth="1" NCoef="0" IVar="10" Cut="4.0042799711227417e-01" cType="1" res="-1.1430741287767887e-02" rms="2.6299712061882019e-01" purity="2.6299554109573364e-01" nType="0">
          <Node pos="l" depth="2" NCoef="0" IVar="5" Cut="6.7267990112304688e+01" cType="1" res="-1.7758227884769440e-02" rms="2.5751411914825439e-01" purity="2.5832396745681763e-01" nType="0">
            <Node pos="l" depth="3" NCoef="0" IVar="-1" Cut="0.0000000000000000e+00" cType="1" res="-1.0641073808073997e-02" rms="2.1244634687900543e-01" purity="6.4298965036869049e-02" nType="-99"/>
            <Node pos="r" depth="3" NCoef="0" IVar="-1" Cut="0.0000000000000000e+00" cType="1" res="-2.9624549672007561e-02" rms="2.9094639420509338e-01" purity="4.2888167500495911e-01" nType="-99"/>
          </Node>
          <Node pos="r" depth="2" NCoef="0" IVar="9" Cut="-1.3387230038642883e-01" cType="1" res="-3.4216360654681921e-03" rms="2.6956468820571899e-01" purity="2.6890861988067627e-01" nType="0">
            <Node pos="l" depth="3" NCoef="0" IVar="-1" Cut="0.0000000000000000e+00" cType="1" res="2.7841372415423393e-02" rms="2.7587324380874634e-01" purity="2.7578973770141602e-01" nType="-99"/>
            <Node pos="r" depth="3" NCoef="0" IVar="-1" Cut="0.0000000000000000e+00" cType="1" res="-1.9842546433210373e-02" rms="2.6520949602127075e-01" purity="2.6514506340026855e-01" nType="-99"/>
          </Node>
        </Node>
      </Node>
    </BinaryTree>
    <BinaryTree type="DecisionTree" boostWeight="1.0000000000000000e+00" itree="688">
      <Node pos="s" depth="0" NCoef="0" IVar="10" Cut="1.3336782157421112e-01" cType="1" res="-6.1342038679867983e-04" rms="2.8233125805854797e-01" purity="5.0549811124801636e-01" nType="0">
        <Node pos="l" depth="1" NCoef="0" IVar="9" Cut="-1.7331452369689941e+00" cType="1" res="-5.2178394980728626e-03" rms="2.7800068259239197e-01" purity="5.0325274467468262e-01" nType="0">
          <Node pos="l" depth="2" NCoef="0" IVar="-1" Cut="0.0000000000000000e+00" cType="1" res="2.5198759511113167e-02" rms="2.7138847112655640e-01" purity="1.7144824564456940e-01" nType="-99"/>
          <Node pos="r" depth="2" NCoef="0" IVar="10" Cut="-2.1015090942382812e+00" cType="1" res="-6.6559128463268280e-03" rms="2.7837961912155151e-01" purity="5.2551382780075073e-01" nType="0">
            <Node pos="l" depth="3" NCoef="0" IVar="-1" Cut="0.0000000000000000e+00" cType="1" res="-3.3405918627977371e-02" rms="2.4278950691223145e-01" purity="2.2071361541748047e-01" nType="-99"/>
            <Node pos="r" depth="3" NCoef="0" IVar="-1" Cut="0.0000000000000000e+00" cType="1" res="-6.3420208171010017e-03" rms="2.8091484308242798e-01" purity="5.4930996894836426e-01" nType="-99"/>
          </Node>
        </Node>
        <Node pos="r" depth="1" NCoef="0" IVar="8" Cut="-9.3282198905944824e-01" cType="1" res="4.9695521593093872e-03" rms="2.8739571571350098e-01" purity="5.0822067260742188e-01" nType="0">
          <Node pos="l" depth="2" NCoef="0" IVar="10" Cut="1.0218284130096436e+00" cType="1" res="-7.5748609378933907e-03" rms="2.5535169243812561e-01" purity="2.8169706463813782e-01" nType="0">
            <Node pos="l" depth="3" NCoef="0" IVar="-1" Cut="0.0000000000000000e+00" cType="1" res="-1.0094308527186513e-03" rms="2.7325361967086792e-01" purity="3.5564735531806946e-01" nType="-99"/>
            <Node pos="r" depth="3" NCoef="0" IVar="-1" Cut="0.0000000000000000e+00" cType="1" res="-2.2657580673694611e-02" rms="2.3350656032562256e-01" purity="1.9909374415874481e-01" nType="-99"/>
          </Node>
          <Node pos="r" depth="2" NCoef="0" IVar="10" Cut="1.0222755670547485e+00" cType="1" res="7.1151359006762505e-03" rms="2.9247128963470459e-01" purity="5.4696500301361084e-01" nType="0">
            <Node pos="l" depth="3" NCoef="0" IVar="-1" Cut="0.0000000000000000e+00" cType="1" res="1.1711816769093275e-03" rms="2.8695869445800781e-01" purity="6.1471140384674072e-01" nType="-99"/>
            <Node pos="r" depth="3" NCoef="0" IVar="-1" Cut="0.0000000000000000e+00" cType="1" res="1.6427062451839447e-02" rms="2.9929363727569580e-01" purity="4.5895943045616150e-01" nType="-99"/>
          </Node>
        </Node>
      </Node>
    </BinaryTree>
    <BinaryTree type="DecisionTree" boostWeight="1.0000000000000000e+00" itree="689">
      <Node pos="s" depth="0" NCoef="0" IVar="5" Cut="9.0401397705078125e+01" cType="1" res="-2.0590557251125574e-03" rms="2.8152498602867126e-01" purity="4.9840268492698669e-01" nType="0">
        <Node pos="l" depth="1" NCoef="0" IVar="5" Cut="7.6934242248535156e+01" cType="1" res="-5.3887395188212395e-03" rms="2.9642066359519958e-01" purity="2.8279599547386169e-01" nType="0">
          <Node pos="l" depth="2" NCoef="0" IVar="0" Cut="1.9497131347656250e+03" cType="1" res="-2.1425201557576656e-03" rms="2.8688052296638489e-01" purity="2.1878895163536072e-01" nType="0">
            <Node pos="l" depth="3" NCoef="0" IVar="-1" Cut="0.0000000000000000e+00" cType="1" res="-4.4829496182501316e-03" rms="2.8180485963821411e-01" purity="1.8787576258182526e-01" nType="-99"/>
            <Node pos="r" depth="3" NCoef="0" IVar="-1" Cut="0.0000000000000000e+00" cType="1" res="1.6196060925722122e-02" rms="3.5170561075210571e-01" purity="6.6767305135726929e-01" nType="-99"/>
          </Node>
          <Node pos="r" depth="2" NCoef="0" IVar="11" Cut="-5.1455408334732056e-01" cType="1" res="-1.7284434288740158e-02" rms="3.2875072956085205e-01" purity="5.1734834909439087e-01" nType="0">
            <Node pos="l" depth="3" NCoef="0" IVar="-1" Cut="0.0000000000000000e+00" cType="1" res="-2.2059962153434753e-02" rms="3.2954382896423340e-01" purity="4.1672226786613464e-01" nType="-99"/>
            <Node pos="r" depth="3" NCoef="0" IVar="-1" Cut="0.0000000000000000e+00" cType="1" res="-3.3118808642029762e-03" rms="3.2707652449607849e-01" purity="6.7123043537139893e-01" nType="-99"/>
          </Node>
        </Node>
        <Node pos="r" depth="1" NCoef="0" IVar="4" Cut="1.3620356750488281e+02" cType="1" res="3.0528625939041376e-03" rms="2.5689747929573059e-01" purity="8.2941424846649170e-01" nType="0">
          <Node pos="l" depth="2" NCoef="0" IVar="-1" Cut="0.0000000000000000e+00" cType="1" res="-1.1167720891535282e-02" rms="3.2967683672904968e-01" purity="5.5596518516540527e-01" nType="-99"/>
          <Node pos="r" depth="2" NCoef="0" IVar="6" Cut="6.3181526184082031e+01" cType="1" res="4.7570485621690750e-03" rms="2.4812144041061401e-01" purity="8.5760432481765747e-01" nType="0">
            <Node pos="l" depth="3" NCoef="0" IVar="-1" Cut="0.0000000000000000e+00" cType="1" res="1.4671556651592255e-02" rms="3.2005023956298828e-01" purity="6.9312876462936401e-01" nType="-99"/>
            <Node pos="r" depth="3" NCoef="0" IVar="-1" Cut="0.0000000000000000e+00" cType="1" res="1.8256994662806392e-03" rms="2.1780724823474884e-01" purity="9.1421341896057129e-01" nType="-99"/>
          </Node>
        </Node>
      </Node>
    </BinaryTree>
    <BinaryTree type="DecisionTree" boostWeight="1.0000000000000000e+00" itree="690">
      <Node pos="s" depth="0" NCoef="0" IVar="1" Cut="1.3138440251350403e-01" cType="1" res="-1.5008184709586203e-04" rms="2.8498455882072449e-01" purity="5.0342601537704468e-01" nType="0">
        <Node pos="l" depth="1" NCoef="0" IVar="11" Cut="1.4188027381896973e+00" cType="1" res="-1.7866645939648151e-03" rms="2.9319357872009277e-01" purity="4.1503256559371948e-01" nType="0">
          <Node pos="l" depth="2" NCoef="0" IVar="7" Cut="-3.9033094048500061e-01" cType="1" res="-2.7052981313318014e-03" rms="2.9113125801086426e-01" purity="4.0428483486175537e-01" nType="0">
            <Node pos="l" depth="3" NCoef="0" IVar="-1" Cut="0.0000000000000000e+00" cType="1" res="3.3754941541701555e-03" rms="2.8284248709678650e-01" purity="3.4371614456176758e-01" nType="-99"/>
            <Node pos="r" depth="3" NCoef="0" IVar="-1" Cut="0.0000000000000000e+00" cType="1" res="-6.2197842635214329e-03" rms="2.9548498988151550e-01" purity="4.3710771203041077e-01" nType="-99"/>
          </Node>
          <Node pos="r" depth="2" NCoef="0" IVar="-1" Cut="0.0000000000000000e+00" cType="1" res="1.1818629689514637e-02" rms="3.2444459199905396e-01" purity="5.8928138017654419e-01" nType="-99"/>
        </Node>
        <Node pos="r" depth="1" NCoef="0" IVar="9" Cut="-3.6376377940177917e-01" cType="1" res="6.7055127583444118e-03" rms="2.4753977358341217e-01" purity="8.7370359897613525e-01" nType="0">
          <Node pos="l" depth="2" NCoef="0" IVar="-1" Cut="0.0000000000000000e+00" cType="1" res="3.0140018090605736e-02" rms="2.5501596927642822e-01" purity="8.6970913410186768e-01" nType="-99"/>
          <Node pos="r" depth="2" NCoef="0" IVar="-1" Cut="0.0000000000000000e+00" cType="1" res="-3.6369790323078632e-03" rms="2.4258376657962799e-01" purity="8.7605679035186768e-01" nType="-99"/>
        </Node>
      </Node>
    </BinaryTree>
    <BinaryTree type="DecisionTree" boostWeight="1.0000000000000000e+00" itree="691">
      <Node pos="s" depth="0" NCoef="0" IVar="9" Cut="-1.4664933681488037e+00" cType="1" res="4.3319512042216957e-04" rms="2.8385242819786072e-01" purity="5.0245428085327148e-01" nType="0">
        <Node pos="l" depth="1" NCoef="0" IVar="0" Cut="1.3751534423828125e+03" cType="1" res="-9.8006371408700943e-03" rms="2.5865265727043152e-01" purity="2.1349321305751801e-01" nType="0">
          <Node pos="l" depth="2" NCoef="0" IVar="-1" Cut="0.0000000000000000e+00" cType="1" res="-4.9685318954288960e-03" rms="2.1920724213123322e-01" purity="8.8652558624744415e-02" nType="-99"/>
          <Node pos="r" depth="2" NCoef="0" IVar="-1" Cut="0.0000000000000000e+00" cType="1" res="-2.0236609503626823e-02" rms="3.1251752376556396e-01" purity="4.1867598891258240e-01" nType="-99"/>
        </Node>
        <Node pos="r" depth="1" NCoef="0" IVar="9" Cut="1.7841218709945679e+00" cType="1" res="1.4385181711986661e-03" rms="2.8618854284286499e-01" purity="5.3084039688110352e-01" nType="0">
          <Node pos="l" depth="2" NCoef="0" IVar="9" Cut="3.9096105098724365e-01" cType="1" res="2.4178698658943176e-03" rms="2.8939977288246155e-01" purity="5.5464684963226318e-01" nType="0">
            <Node pos="l" depth="3" NCoef="0" IVar="-1" Cut="0.0000000000000000e+00" cType="1" res="-8.9532200945541263e-05" rms="2.8632053732872009e-01" purity="5.7334524393081665e-01" nType="-99"/>
            <Node pos="r" depth="3" NCoef="0" IVar="-1" Cut="0.0000000000000000e+00" cType="1" res="7.7964989468455315e-03" rms="2.9485309123992920e-01" purity="5.2070611715316772e-01" nType="-99"/>
          </Node>
          <Node pos="r" depth="2" NCoef="0" IVar="3" Cut="1.8424363708496094e+02" cType="1" res="-1.4781038276851177e-02" rms="2.2586174309253693e-01" purity="1.3656948506832123e-01" nType="0">
            <Node pos="l" depth="3" NCoef="0" IVar="-1" Cut="0.0000000000000000e+00" cType="1" res="-3.4358695847913623e-04" rms="2.0674763619899750e-01" purity="8.4872186183929443e-02" nType="-99"/>
            <Node pos="r" depth="3" NCoef="0" IVar="-1" Cut="0.0000000000000000e+00" cType="1" res="-3.9997491985559464e-02" rms="2.4254769086837769e-01" purity="1.8809737265110016e-01" nType="-99"/>
          </Node>
        </Node>
      </Node>
    </BinaryTree>
    <BinaryTree type="DecisionTree" boostWeight="1.0000000000000000e+00" itree="692">
      <Node pos="s" depth="0" NCoef="0" IVar="2" Cut="5.7749346923828125e+02" cType="1" res="-1.8341037211939692e-03" rms="2.8218132257461548e-01" purity="5.0006055831909180e-01" nType="0">
        <Node pos="l" depth="1" NCoef="0" IVar="7" Cut="-3.7963318824768066e-01" cType="1" res="-3.1621092930436134e-03" rms="2.7832639217376709e-01" purity="4.8907259106636047e-01" nType="0">
          <Node pos="l" depth="2" NCoef="0" IVar="11" Cut="3.6316711455583572e-02" cType="1" res="1.3221364933997393e-03" rms="2.7301928400993347e-01" purity="4.0709936618804932e-01" nType="0">
            <Node pos="l" depth="3" NCoef="0" IVar="-1" Cut="0.0000000000000000e+00" cType="1" res="6.3686533831059933e-03" rms="2.7050587534904480e-01" purity="3.4133386611938477e-01" nType="-99"/>
            <Node pos="r" depth="3" NCoef="0" IVar="-1" Cut="0.0000000000000000e+00" cType="1" res="-1.3658288866281509e-02" rms="2.8221601247787476e-01" purity="6.6326081752777100e-01" nType="-99"/>
          </Node>
          <Node pos="r" depth="2" NCoef="0" IVar="10" Cut="-1.4667469263076782e+00" cType="1" res="-5.3986515849828720e-03" rms="2.8090909123420715e-01" purity="5.2995717525482178e-01" nType="0">
            <Node pos="l" depth="3" NCoef="0" IVar="-1" Cut="0.0000000000000000e+00" cType="1" res="-2.5698533281683922e-02" rms="2.7903687953948975e-01" purity="3.5761272907257080e-01" nType="-99"/>
            <Node pos="r" depth="3" NCoef="0" IVar="-1" Cut="0.0000000000000000e+00" cType="1" res="-4.2745820246636868e-03" rms="2.8105881810188293e-01" purity="5.4948675632476807e-01" nType="-99"/>
          </Node>
        </Node>
        <Node pos="r" depth="1" NCoef="0" IVar="10" Cut="1.3305176794528961e-01" cType="1" res="8.9926756918430328e-03" rms="3.1162539124488831e-01" purity="5.8964163064956665e-01" nType="0">
          <Node pos="l" depth="2" NCoef="0" IVar="7" Cut="-1.1056683957576752e-02" cType="1" res="-4.0990486741065979e-04" rms="3.0909025669097900e-01" purity="5.8746200799942017e-01" nType="0">
            <Node pos="l" depth="3" NCoef="0" IVar="-1" Cut="0.0000000000000000e+00" cType="1" res="-1.6108198091387749e-02" rms="3.0896639823913574e-01" purity="5.7083386182785034e-01" nType="-99"/>
            <Node pos="r" depth="3" NCoef="0" IVar="-1" Cut="0.0000000000000000e+00" cType="1" res="1.5715863555669785e-02" rms="3.0854856967926025e-01" purity="6.0413730144500732e-01" nType="-99"/>
          </Node>
          <Node pos="r" depth="2" NCoef="0" IVar="-1" Cut="0.0000000000000000e+00" cType="1" res="2.0668953657150269e-02" rms="3.1424397230148315e-01" purity="5.9222984313964844e-01" nType="-99"/>
        </Node>
      </Node>
    </BinaryTree>
    <BinaryTree type="DecisionTree" boostWeight="1.0000000000000000e+00" itree="693">
      <Node pos="s" depth="0" NCoef="0" IVar="9" Cut="-6.6672891378402710e-01" cType="1" res="1.1889785528182983e-03" rms="2.8404515981674194e-01" purity="4.9837034940719604e-01" nType="0">
        <Node pos="l" depth="1" NCoef="0" IVar="1" Cut="7.7474638819694519e-02" cType="1" res="6.9197760894894600e-03" rms="2.8888544440269470e-01" purity="4.1021272540092468e-01" nType="0">
          <Node pos="l" depth="2" NCoef="0" IVar="1" Cut="5.5351700633764267e-02" cType="1" res="1.1547924950718880e-02" rms="2.8181469440460205e-01" purity="2.5544804334640503e-01" nType="0">
            <Node pos="l" depth="3" NCoef="0" IVar="-1" Cut="0.0000000000000000e+00" cType="1" res="7.5484495609998703e-03" rms="2.6422524452209473e-01" purity="1.9133718311786652e-01" nType="-99"/>
            <Node pos="r" depth="3" NCoef="0" IVar="-1" Cut="0.0000000000000000e+00" cType="1" res="3.6119315773248672e-02" rms="3.5349607467651367e-01" purity="5.6693410873413086e-01" nType="-99"/>
          </Node>
          <Node pos="r" depth="2" NCoef="0" IVar="-1" Cut="0.0000000000000000e+00" cType="1" res="-2.7249050326645374e-03" rms="3.0285587906837463e-01" purity="7.3254734277725220e-01" nType="-99"/>
        </Node>
        <Node pos="r" depth="1" NCoef="0" IVar="1" Cut="8.7588682770729065e-02" cType="1" res="-8.9024164481088519e-04" rms="2.8223973512649536e-01" purity="5.3035533428192139e-01" nType="0">
          <Node pos="l" depth="2" NCoef="0" IVar="8" Cut="9.3337887525558472e-01" cType="1" res="-3.8612021598964930e-03" rms="2.9115903377532959e-01" purity="3.5734656453132629e-01" nType="0">
            <Node pos="l" depth="3" NCoef="0" IVar="-1" Cut="0.0000000000000000e+00" cType="1" res="-7.7968267723917961e-03" rms="2.9618564248085022e-01" purity="3.9883923530578613e-01" nType="-99"/>
            <Node pos="r" depth="3" NCoef="0" IVar="-1" Cut="0.0000000000000000e+00" cType="1" res="1.0024909861385822e-02" rms="2.7311867475509644e-01" purity="2.1653226017951965e-01" nType="-99"/>
          </Node>
          <Node pos="r" depth="2" NCoef="0" IVar="4" Cut="1.7799520874023438e+02" cType="1" res="4.2624594643712044e-03" rms="2.6598381996154785e-01" purity="8.3041393756866455e-01" nType="0">
            <Node pos="l" depth="3" NCoef="0" IVar="-1" Cut="0.0000000000000000e+00" cType="1" res="1.3559781946241856e-02" rms="3.2108747959136963e-01" purity="7.0884567499160767e-01" nType="-99"/>
            <Node pos="r" depth="3" NCoef="0" IVar="-1" Cut="0.0000000000000000e+00" cType="1" res="-7.1701263077557087e-03" rms="2.1521671116352081e-01" purity="9.2170965671539307e-01" nType="-99"/>
          </Node>
        </Node>
      </Node>
    </BinaryTree>
    <BinaryTree type="DecisionTree" boostWeight="1.0000000000000000e+00" itree="694">
      <Node pos="s" depth="0" NCoef="0" IVar="0" Cut="1.6278200683593750e+03" cType="1" res="-2.3731512483209372e-03" rms="2.8487151861190796e-01" purity="4.9793067574501038e-01" nType="0">
        <Node pos="l" depth="1" NCoef="0" IVar="5" Cut="8.9180519104003906e+01" cType="1" res="-7.0154331624507904e-03" rms="2.9924947023391724e-01" purity="2.8604140877723694e-01" nType="0">
          <Node pos="l" depth="2" NCoef="0" IVar="7" Cut="1.4101330935955048e-01" cType="1" res="-2.6225037872791290e-03" rms="2.9030546545982361e-01" purity="2.0114348828792572e-01" nType="0">
            <Node pos="l" depth="3" NCoef="0" IVar="-1" Cut="0.0000000000000000e+00" cType="1" res="-9.1952253133058548e-03" rms="2.8757774829864502e-01" purity="2.0460782945156097e-01" nType="-99"/>
            <Node pos="r" depth="3" NCoef="0" IVar="-1" Cut="0.0000000000000000e+00" cType="1" res="4.9200202338397503e-03" rms="2.9346281290054321e-01" purity="1.9690883159637451e-01" nType="-99"/>
          </Node>
          <Node pos="r" depth="2" NCoef="0" IVar="0" Cut="1.4329381103515625e+03" cType="1" res="-2.3717865347862244e-02" rms="3.3052441477775574e-01" purity="6.0883319377899170e-01" nType="0">
            <Node pos="l" depth="3" NCoef="0" IVar="-1" Cut="0.0000000000000000e+00" cType="1" res="-2.8045995160937309e-02" rms="3.6162251234054565e-01" purity="4.5833832025527954e-01" nType="-99"/>
            <Node pos="r" depth="3" NCoef="0" IVar="-1" Cut="0.0000000000000000e+00" cType="1" res="-1.1668306775391102e-02" rms="3.0108803510665894e-01" purity="7.3662501573562622e-01" nType="-99"/>
          </Node>
        </Node>
        <Node pos="r" depth="1" NCoef="0" IVar="9" Cut="3.9974063634872437e-01" cType="1" res="4.9064052291214466e-03" rms="2.6056745648384094e-01" purity="8.3019399642944336e-01" nType="0">
          <Node pos="l" depth="2" NCoef="0" IVar="8" Cut="-9.3258833885192871e-01" cType="1" res="4.8914877697825432e-04" rms="2.5288140773773193e-01" purity="8.4228098392486572e-01" nType="0">
            <Node pos="l" depth="3" NCoef="0" IVar="-1" Cut="0.0000000000000000e+00" cType="1" res="2.0420482382178307e-02" rms="2.8386211395263672e-01" purity="7.0857399702072144e-01" nType="-99"/>
            <Node pos="r" depth="3" NCoef="0" IVar="-1" Cut="0.0000000000000000e+00" cType="1" res="-3.3152427058666945e-03" rms="2.4825620651245117e-01" purity="8.6050468683242798e-01" nType="-99"/>
          </Node>
          <Node pos="r" depth="2" NCoef="0" IVar="1" Cut="3.9008345454931259e-02" cType="1" res="1.4117446728050709e-02" rms="2.7567920088768005e-01" purity="8.0498969554901123e-01" nType="0">
            <Node pos="l" depth="3" NCoef="0" IVar="-1" Cut="0.0000000000000000e+00" cType="1" res="2.9252680018544197e-02" rms="3.5497584939002991e-01" purity="5.0290536880493164e-01" nType="-99"/>
            <Node pos="r" depth="3" NCoef="0" IVar="-1" Cut="0.0000000000000000e+00" cType="1" res="1.1153073050081730e-02" rms="2.4280419945716858e-01" purity="9.0669888257980347e-01" nType="-99"/>
          </Node>
        </Node>
      </Node>
    </BinaryTree>
    <BinaryTree type="DecisionTree" boostWeight="1.0000000000000000e+00" itree="695">
      <Node pos="s" depth="0" NCoef="0" IVar="2" Cut="7.0332031250000000e+02" cType="1" res="3.2011251896619797e-03" rms="2.8483867645263672e-01" purity="5.0322824716567993e-01" nType="0">
        <Node pos="l" depth="1" NCoef="0" IVar="0" Cut="9.6064678955078125e+02" cType="1" res="3.9789192378520966e-03" rms="2.8345221281051636e-01" purity="5.0095039606094360e-01" nType="0">
          <Node pos="l" depth="2" NCoef="0" IVar="-1" Cut="0.0000000000000000e+00" cType="1" res="-5.0376247614622116e-02" rms="1.0782186686992645e-01" purity="1.1931829154491425e-02" nType="-99"/>
          <Node pos="r" depth="2" NCoef="0" IVar="4" Cut="8.0875862121582031e+01" cType="1" res="4.7750077210366726e-03" rms="2.8999963402748108e-01" purity="5.2775573730468750e-01" nType="0">
            <Node pos="l" depth="3" NCoef="0" IVar="-1" Cut="0.0000000000000000e+00" cType="1" res="5.4159507155418396e-02" rms="2.3386946320533752e-01" purity="7.9021811485290527e-02" nType="-99"/>
            <Node pos="r" depth="3" NCoef="0" IVar="-1" Cut="0.0000000000000000e+00" cType="1" res="4.2819459922611713e-03" rms="2.9277572035789490e-01" purity="5.5272465944290161e-01" nType="-99"/>
          </Node>
        </Node>
        <Node pos="r" depth="1" NCoef="0" IVar="-1" Cut="0.0000000000000000e+00" cType="1" res="-1.5831766650080681e-02" rms="3.1707474589347839e-01" purity="5.6047207117080688e-01" nType="-99"/>
      </Node>
    </BinaryTree>
    <BinaryTree type="DecisionTree" boostWeight="1.0000000000000000e+00" itree="696">
      <Node pos="s" depth="0" NCoef="0" IVar="4" Cut="2.3459857177734375e+02" cType="1" res="4.2999344877898693e-03" rms="2.8771248459815979e-01" purity="5.0831818580627441e-01" nType="0">
        <Node pos="l" depth="1" NCoef="0" IVar="9" Cut="-1.4664933681488037e+00" cType="1" res="6.5536885522305965e-03" rms="2.9408797621726990e-01" purity="4.4456827640533447e-01" nType="0">
          <Node pos="l" depth="2" NCoef="0" IVar="9" Cut="-2.0378985404968262e+00" cType="1" res="2.2135186940431595e-02" rms="2.7492067217826843e-01" purity="2.2450350224971771e-01" nType="0">
            <Node pos="l" depth="3" NCoef="0" IVar="-1" Cut="0.0000000000000000e+00" cType="1" res="-7.3092952370643616e-03" rms="1.9807030260562897e-01" purity="1.0554445534944534e-01" nType="-99"/>
            <Node pos="r" depth="3" NCoef="0" IVar="-1" Cut="0.0000000000000000e+00" cType="1" res="4.0221024304628372e-02" rms="3.0900037288665771e-01" purity="2.9159063100814819e-01" nType="-99"/>
          </Node>
          <Node pos="r" depth="2" NCoef="0" IVar="11" Cut="1.6947648525238037e+00" cType="1" res="4.8480411060154438e-03" rms="2.9606103897094727e-01" purity="4.6865794062614441e-01" nType="0">
            <Node pos="l" depth="3" NCoef="0" IVar="-1" Cut="0.0000000000000000e+00" cType="1" res="4.5806877315044403e-03" rms="2.9385086894035339e-01" purity="4.6230682730674744e-01" nType="-99"/>
            <Node pos="r" depth="3" NCoef="0" IVar="-1" Cut="0.0000000000000000e+00" cType="1" res="2.1194221451878548e-02" rms="3.4036585688591003e-01" purity="6.0793548822402954e-01" nType="-99"/>
          </Node>
        </Node>
        <Node pos="r" depth="1" NCoef="0" IVar="0" Cut="2.0103748779296875e+03" cType="1" res="-7.4773137457668781e-03" rms="2.5145572423934937e-01" purity="8.4145045280456543e-01" nType="0">
          <Node pos="l" depth="2" NCoef="0" IVar="4" Cut="2.5510099792480469e+02" cType="1" res="-2.1701427176594734e-02" rms="3.2022246718406677e-01" purity="6.7618751525878906e-01" nType="0">
            <Node pos="l" depth="3" NCoef="0" IVar="-1" Cut="0.0000000000000000e+00" cType="1" res="-9.6703302115201950e-03" rms="3.1177967786788940e-01" purity="6.9765770435333252e-01" nType="-99"/>
            <Node pos="r" depth="3" NCoef="0" IVar="-1" Cut="0.0000000000000000e+00" cType="1" res="-3.1759727746248245e-02" rms="3.2724937796592712e-01" purity="6.5679329633712769e-01" nType="-99"/>
          </Node>
          <Node pos="r" depth="2" NCoef="0" IVar="8" Cut="4.0106162428855896e-01" cType="1" res="-7.0491259975824505e-05" rms="2.0639492571353912e-01" purity="9.2750668525695801e-01" nType="0">
            <Node pos="l" depth="3" NCoef="0" IVar="-1" Cut="0.0000000000000000e+00" cType="1" res="1.0262893512845039e-02" rms="2.0074221491813660e-01" purity="9.3745315074920654e-01" nType="-99"/>
            <Node pos="r" depth="3" NCoef="0" IVar="-1" Cut="0.0000000000000000e+00" cType="1" res="-2.5279054418206215e-02" rms="2.2105744481086731e-01" purity="8.9958727359771729e-01" nType="-99"/>
          </Node>
        </Node>
      </Node>
    </BinaryTree>
    <BinaryTree type="DecisionTree" boostWeight="1.0000000000000000e+00" itree="697">
      <Node pos="s" depth="0" NCoef="0" IVar="4" Cut="1.4285162353515625e+02" cType="1" res="-2.0672448445111513e-03" rms="2.8655773401260376e-01" purity="4.9464300274848938e-01" nType="0">
        <Node pos="l" depth="1" NCoef="0" IVar="8" Cut="9.3341726064682007e-01" cType="1" res="2.6063853874802589e-03" rms="2.8524956107139587e-01" purity="2.2441960871219635e-01" nType="0">
          <Node pos="l" depth="2" NCoef="0" IVar="3" Cut="1.2984809875488281e+02" cType="1" res="6.2609096057713032e-03" rms="2.9982611536979675e-01" purity="2.5793844461441040e-01" nType="0">
            <Node pos="l" depth="3" NCoef="0" IVar="-1" Cut="0.0000000000000000e+00" cType="1" res="-1.8555892631411552e-02" rms="1.9362169504165649e-01" purity="6.8078525364398956e-02" nType="-99"/>
            <Node pos="r" depth="3" NCoef="0" IVar="-1" Cut="0.0000000000000000e+00" cType="1" res="1.0433661751449108e-02" rms="3.2544201612472534e-01" purity="3.1626075506210327e-01" nType="-99"/>
          </Node>
          <Node pos="r" depth="2" NCoef="0" IVar="4" Cut="1.1685566711425781e+02" cType="1" res="-1.0335512459278107e-02" rms="2.2572244703769684e-01" purity="1.0571804642677307e-01" nType="0">
            <Node pos="l" depth="3" NCoef="0" IVar="-1" Cut="0.0000000000000000e+00" cType="1" res="4.1924891993403435e-03" rms="1.9783011078834534e-01" purity="7.7396005392074585e-02" nType="-99"/>
            <Node pos="r" depth="3" NCoef="0" IVar="-1" Cut="0.0000000000000000e+00" cType="1" res="-4.0496584028005600e-02" rms="2.7348116040229797e-01" purity="1.6517627239227295e-01" nType="-99"/>
          </Node>
        </Node>
        <Node pos="r" depth="1" NCoef="0" IVar="7" Cut="7.1305388212203979e-01" cType="1" res="-5.6971390731632710e-03" rms="2.8751721978187561e-01" purity="7.0451891422271729e-01" nType="0">
          <Node pos="l" depth="2" NCoef="0" IVar="10" Cut="-4.0048286318778992e-01" cType="1" res="-2.5070512201637030e-03" rms="2.8473192453384399e-01" purity="7.4593687057495117e-01" nType="0">
            <Node pos="l" depth="3" NCoef="0" IVar="-1" Cut="0.0000000000000000e+00" cType="1" res="-8.8345184922218323e-03" rms="2.8948870301246643e-01" purity="7.1854108572006226e-01" nType="-99"/>
            <Node pos="r" depth="3" NCoef="0" IVar="-1" Cut="0.0000000000000000e+00" cType="1" res="4.0889173396863043e-04" rms="2.8185606002807617e-01" purity="7.6206076145172119e-01" nType="-99"/>
          </Node>
          <Node pos="r" depth="2" NCoef="0" IVar="10" Cut="-6.6616827249526978e-01" cType="1" res="-2.1474678069353104e-02" rms="3.0041629076004028e-01" purity="4.9967393279075623e-01" nType="0">
            <Node pos="l" depth="3" NCoef="0" IVar="-1" Cut="0.0000000000000000e+00" cType="1" res="1.3393050059676170e-02" rms="2.9833158850669861e-01" purity="4.9823603034019470e-01" nType="-99"/>
            <Node pos="r" depth="3" NCoef="0" IVar="-1" Cut="0.0000000000000000e+00" cType="1" res="-3.4226067364215851e-02" rms="3.0020648241043091e-01" purity="5.0019896030426025e-01" nType="-99"/>
          </Node>
        </Node>
      </Node>
    </BinaryTree>
    <BinaryTree type="DecisionTree" boostWeight="1.0000000000000000e+00" itree="698">
      <Node pos="s" depth="0" NCoef="0" IVar="9" Cut="1.9998182058334351e+00" cType="1" res="-1.9136444898322225e-03" rms="2.8363621234893799e-01" purity="4.9568194150924683e-01" nType="0">
        <Node pos="l" depth="1" NCoef="0" IVar="9" Cut="1.0855737924575806e+00" cType="1" res="-2.7241574134677649e-03" rms="2.8468120098114014e-01" purity="5.0776809453964233e-01" nType="0">
          <Node pos="l" depth="2" NCoef="0" IVar="11" Cut="-1.0667325258255005e+00" cType="1" res="-8.1653887173160911e-04" rms="2.8515079617500305e-01" purity="5.2795058488845825e-01" nType="0">
            <Node pos="l" depth="3" NCoef="0" IVar="-1" Cut="0.0000000000000000e+00" cType="1" res="-4.9261120148003101e-03" rms="2.9894119501113892e-01" purity="3.2413285970687866e-01" nType="-99"/>
            <Node pos="r" depth="3" NCoef="0" IVar="-1" Cut="0.0000000000000000e+00" cType="1" res="5.1285275258123875e-03" rms="2.6644271612167358e-01" purity="7.8808617591857910e-01" nType="-99"/>
          </Node>
          <Node pos="r" depth="2" NCoef="0" IVar="8" Cut="-1.3319623470306396e-01" cType="1" res="-1.6298947855830193e-02" rms="2.8094294667243958e-01" purity="3.6414805054664612e-01" nType="0">
            <Node pos="l" depth="3" NCoef="0" IVar="-1" Cut="0.0000000000000000e+00" cType="1" res="-6.0546477325260639e-03" rms="2.7338334918022156e-01" purity="3.5717755556106567e-01" nType="-99"/>
            <Node pos="r" depth="3" NCoef="0" IVar="-1" Cut="0.0000000000000000e+00" cType="1" res="-2.5905728340148926e-02" rms="2.8534409403800964e-01" purity="3.6851391196250916e-01" nType="-99"/>
          </Node>
        </Node>
        <Node pos="r" depth="1" NCoef="0" IVar="-1" Cut="0.0000000000000000e+00" cType="1" res="3.5921134054660797e-02" rms="2.5123673677444458e-01" purity="1.5405777096748352e-01" nType="-99"/>
      </Node>
    </BinaryTree>
    <BinaryTree type="DecisionTree" boostWeight="1.0000000000000000e+00" itree="699">
      <Node pos="s" depth="0" NCoef="0" IVar="9" Cut="-4.0008044242858887e-01" cType="1" res="1.2645686510950327e-03" rms="2.8428977727890015e-01" purity="4.9627533555030823e-01" nType="0">
        <Node pos="l" depth="1" NCoef="0" IVar="7" Cut="-8.7380748987197876e-01" cType="1" res="-4.2439517565071583e-03" rms="2.8407573699951172e-01" purity="4.4467785954475403e-01" nType="0">
          <Node pos="l" depth="2" NCoef="0" IVar="6" Cut="1.2539459228515625e+01" cType="1" res="-1.3006939552724361e-02" rms="2.5189441442489624e-01" purity="2.1102814376354218e-01" nType="0">
            <Node pos="l" depth="3" NCoef="0" IVar="-1" Cut="0.0000000000000000e+00" cType="1" res="2.4092618841677904e-03" rms="2.2024084627628326e-01" purity="7.5728900730609894e-02" nType="-99"/>
            <Node pos="r" depth="3" NCoef="0" IVar="-1" Cut="0.0000000000000000e+00" cType="1" res="-3.5319574177265167e-02" rms="2.9625540971755981e-01" purity="4.3934315443038940e-01" nType="-99"/>
          </Node>
          <Node pos="r" depth="2" NCoef="0" IVar="11" Cut="3.7446055561304092e-02" cType="1" res="-2.1305016707628965e-03" rms="2.9126614332199097e-01" purity="5.0102937221527100e-01" nType="0">
            <Node pos="l" depth="3" NCoef="0" IVar="-1" Cut="0.0000000000000000e+00" cType="1" res="-6.0522197745740414e-03" rms="2.9016387462615967e-01" purity="4.2011451721191406e-01" nType="-99"/>
            <Node pos="r" depth="3" NCoef="0" IVar="-1" Cut="0.0000000000000000e+00" cType="1" res="9.6137085929512978e-03" rms="2.9447519779205322e-01" purity="7.5577104091644287e-01" nType="-99"/>
          </Node>
        </Node>
        <Node pos="r" depth="1" NCoef="0" IVar="10" Cut="-1.3333600759506226e-01" cType="1" res="4.3335491791367531e-03" rms="2.8436264395713806e-01" purity="5.2502202987670898e-01" nType="0">
          <Node pos="l" depth="2" NCoef="0" IVar="11" Cut="-1.0675238370895386e+00" cType="1" res="8.5948007181286812e-03" rms="2.8708192706108093e-01" purity="5.2698427438735962e-01" nType="0">
            <Node pos="l" depth="3" NCoef="0" IVar="-1" Cut="0.0000000000000000e+00" cType="1" res="1.8640385940670967e-02" rms="2.9864710569381714e-01" purity="3.4145569801330566e-01" nType="-99"/>
            <Node pos="r" depth="3" NCoef="0" IVar="-1" Cut="0.0000000000000000e+00" cType="1" res="-2.5411869864910841e-03" rms="2.7048218250274658e-01" purity="7.7519524097442627e-01" nType="-99"/>
          </Node>
          <Node pos="r" depth="2" NCoef="0" IVar="8" Cut="4.0022414922714233e-01" cType="1" res="1.0832271073013544e-03" rms="2.8222763538360596e-01" purity="5.2352523803710938e-01" nType="0">
            <Node pos="l" depth="3" NCoef="0" IVar="-1" Cut="0.0000000000000000e+00" cType="1" res="7.7729010954499245e-03" rms="2.8420600295066833e-01" purity="5.8376324176788330e-01" nType="-99"/>
            <Node pos="r" depth="3" NCoef="0" IVar="-1" Cut="0.0000000000000000e+00" cType="1" res="-8.8594015687704086e-03" rms="2.7882558107376099e-01" purity="4.2741683125495911e-01" nType="-99"/>
          </Node>
        </Node>
      </Node>
    </BinaryTree>
    <BinaryTree type="DecisionTree" boostWeight="1.0000000000000000e+00" itree="700">
      <Node pos="s" depth="0" NCoef="0" IVar="7" Cut="4.1446137428283691e-01" cType="1" res="1.8115960992872715e-03" rms="2.8378498554229736e-01" purity="5.0154972076416016e-01" nType="0">
        <Node pos="l" depth="1" NCoef="0" IVar="10" Cut="-1.3330028951168060e-01" cType="1" res="-9.7358017228543758e-04" rms="2.8416603803634644e-01" purity="5.4247707128524780e-01" nType="0">
          <Node pos="l" depth="2" NCoef="0" IVar="4" Cut="1.3375097656250000e+02" cType="1" res="2.5618695653975010e-03" rms="2.8585997223854065e-01" purity="5.2786844968795776e-01" nType="0">
            <Node pos="l" depth="3" NCoef="0" IVar="-1" Cut="0.0000000000000000e+00" cType="1" res="-5.8932723477482796e-03" rms="2.8285515308380127e-01" purity="1.9182577729225159e-01" nType="-99"/>
            <Node pos="r" depth="3" NCoef="0" IVar="-1" Cut="0.0000000000000000e+00" cType="1" res="7.8880805522203445e-03" rms="2.8745213150978088e-01" purity="7.1650564670562744e-01" nType="-99"/>
          </Node>
          <Node pos="r" depth="2" NCoef="0" IVar="11" Cut="8.6645239591598511e-01" cType="1" res="-4.3029603548347950e-03" rms="2.8252112865447998e-01" purity="5.5623412132263184e-01" nType="0">
            <Node pos="l" depth="3" NCoef="0" IVar="-1" Cut="0.0000000000000000e+00" cType="1" res="-1.6566603444516659e-03" rms="2.8202724456787109e-01" purity="5.3427958488464355e-01" nType="-99"/>
            <Node pos="r" depth="3" NCoef="0" IVar="-1" Cut="0.0000000000000000e+00" cType="1" res="-2.9977567493915558e-02" rms="2.8513216972351074e-01" purity="7.1117824316024780e-01" nType="-99"/>
          </Node>
        </Node>
        <Node pos="r" depth="1" NCoef="0" IVar="9" Cut="-6.6718733310699463e-01" cType="1" res="7.8462045639753342e-03" rms="2.8286349773406982e-01" purity="4.1287308931350708e-01" nType="0">
          <Node pos="l" depth="2" NCoef="0" IVar="8" Cut="-1.3268280029296875e-01" cType="1" res="-6.1801089905202389e-03" rms="2.7325847744941711e-01" purity="2.8805604577064514e-01" nType="0">
            <Node pos="l" depth="3" NCoef="0" IVar="-1" Cut="0.0000000000000000e+00" cType="1" res="1.0112367570400238e-02" rms="2.7286517620086670e-01" purity="2.5729575753211975e-01" nType="-99"/>
            <Node pos="r" depth="3" NCoef="0" IVar="-1" Cut="0.0000000000000000e+00" cType="1" res="-2.4358216673135757e-02" rms="2.7301934361457825e-01" purity="3.1992205977439880e-01" nType="-99"/>
          </Node>
          <Node pos="r" depth="2" NCoef="0" IVar="7" Cut="1.6635092496871948e+00" cType="1" res="1.2224522419273853e-02" rms="2.8565460443496704e-01" purity="4.5183476805686951e-01" nType="0">
            <Node pos="l" depth="3" NCoef="0" IVar="-1" Cut="0.0000000000000000e+00" cType="1" res="1.6786236315965652e-02" rms="2.9854893684387207e-01" purity="5.0433677434921265e-01" nType="-99"/>
            <Node pos="r" depth="3" NCoef="0" IVar="-1" Cut="0.0000000000000000e+00" cType="1" res="-1.8928213045001030e-02" rms="1.6947393119335175e-01" purity="8.6237043142318726e-02" nType="-99"/>
          </Node>
        </Node>
      </Node>
    </BinaryTree>
    <BinaryTree type="DecisionTree" boostWeight="1.0000000000000000e+00" itree="701">
      <Node pos="s" depth="0" NCoef="0" IVar="7" Cut="-1.1877840757369995e+00" cType="1" res="-1.2054663384333253e-03" rms="2.8354549407958984e-01" purity="5.0004506111145020e-01" nType="0">
        <Node pos="l" depth="1" NCoef="0" IVar="1" Cut="1.1933042667806149e-02" cType="1" res="1.1064080521464348e-02" rms="2.3211124539375305e-01" purity="1.7873544991016388e-01" nType="0">
          <Node pos="l" depth="2" NCoef="0" IVar="-1" Cut="0.0000000000000000e+00" cType="1" res="-8.3843301981687546e-03" rms="1.3179041445255280e-01" purity="3.0939972028136253e-02" nType="-99"/>
          <Node pos="r" depth="2" NCoef="0" IVar="9" Cut="-1.2888753414154053e-01" cType="1" res="1.9375318661332130e-02" rms="2.7798390388488770e-01" purity="2.7417895197868347e-01" nType="0">
            <Node pos="l" depth="3" NCoef="0" IVar="-1" Cut="0.0000000000000000e+00" cType="1" res="4.2057134211063385e-02" rms="2.8425702452659607e-01" purity="2.8725695610046387e-01" nType="-99"/>
            <Node pos="r" depth="3" NCoef="0" IVar="-1" Cut="0.0000000000000000e+00" cType="1" res="6.8419245071709156e-03" rms="2.7001684904098511e-01" purity="2.5938719511032104e-01" nType="-99"/>
          </Node>
        </Node>
        <Node pos="r" depth="1" NCoef="0" IVar="4" Cut="1.4558529663085938e+02" cType="1" res="-2.5366500485688448e-03" rms="2.8854373097419739e-01" purity="5.3490549325942993e-01" nType="0">
          <Node pos="l" depth="2" NCoef="0" IVar="1" Cut="3.8937788456678391e-02" cType="1" res="-7.4353585951030254e-03" rms="2.9535463452339172e-01" purity="2.4394541978836060e-01" nType="0">
            <Node pos="l" depth="3" NCoef="0" IVar="-1" Cut="0.0000000000000000e+00" cType="1" res="3.5934715997427702e-03" rms="2.4235150218009949e-01" purity="1.0190878808498383e-01" nType="-99"/>
            <Node pos="r" depth="3" NCoef="0" IVar="-1" Cut="0.0000000000000000e+00" cType="1" res="-1.4158734120428562e-02" rms="3.4117159247398376e-01" purity="3.9022761583328247e-01" nType="-99"/>
          </Node>
          <Node pos="r" depth="2" NCoef="0" IVar="1" Cut="2.1903568878769875e-02" cType="1" res="1.0608760640025139e-03" rms="2.8338378667831421e-01" purity="7.4858146905899048e-01" nType="0">
            <Node pos="l" depth="3" NCoef="0" IVar="-1" Cut="0.0000000000000000e+00" cType="1" res="-1.2265753932297230e-02" rms="2.9608455300331116e-01" purity="2.9604879021644592e-01" nType="-99"/>
            <Node pos="r" depth="3" NCoef="0" IVar="-1" Cut="0.0000000000000000e+00" cType="1" res="3.4150802530348301e-03" rms="2.8158950805664062e-01" purity="8.0927491188049316e-01" nType="-99"/>
          </Node>
        </Node>
      </Node>
    </BinaryTree>
    <BinaryTree type="DecisionTree" boostWeight="1.0000000000000000e+00" itree="702">
      <Node pos="s" depth="0" NCoef="0" IVar="3" Cut="3.0714752197265625e+02" cType="1" res="3.6488538607954979e-03" rms="2.8693637251853943e-01" purity="5.0442546606063843e-01" nType="0">
        <Node pos="l" depth="1" NCoef="0" IVar="11" Cut="5.9035396575927734e-01" cType="1" res="6.5852659754455090e-03" rms="2.8991106152534485e-01" purity="4.4555708765983582e-01" nType="0">
          <Node pos="l" depth="2" NCoef="0" IVar="11" Cut="-2.6477709412574768e-01" cType="1" res="4.5667304657399654e-03" rms="2.8713196516036987e-01" purity="3.9819845557212830e-01" nType="0">
            <Node pos="l" depth="3" NCoef="0" IVar="-1" Cut="0.0000000000000000e+00" cType="1" res="8.7540959939360619e-03" rms="2.8887230157852173e-01" purity="3.3664453029632568e-01" nType="-99"/>
            <Node pos="r" depth="3" NCoef="0" IVar="-1" Cut="0.0000000000000000e+00" cType="1" res="-1.4282867312431335e-02" rms="2.7659747004508972e-01" purity="7.4478632211685181e-01" nType="-99"/>
          </Node>
          <Node pos="r" depth="2" NCoef="0" IVar="6" Cut="7.5628089904785156e+01" cType="1" res="1.7378339543938637e-02" rms="3.0411314964294434e-01" purity="6.9878274202346802e-01" nType="0">
            <Node pos="l" depth="3" NCoef="0" IVar="-1" Cut="0.0000000000000000e+00" cType="1" res="2.6678932830691338e-02" rms="3.3879810571670532e-01" purity="5.6705057621002197e-01" nType="-99"/>
            <Node pos="r" depth="3" NCoef="0" IVar="-1" Cut="0.0000000000000000e+00" cType="1" res="-1.7729635583236814e-03" rms="2.5111064314842224e-01" purity="8.6901438236236572e-01" nType="-99"/>
          </Node>
        </Node>
        <Node pos="r" depth="1" NCoef="0" IVar="4" Cut="2.3656887817382812e+02" cType="1" res="-7.6211597770452499e-03" rms="2.7493011951446533e-01" purity="7.3036348819732666e-01" nType="0">
          <Node pos="l" depth="2" NCoef="0" IVar="5" Cut="6.6946975708007812e+01" cType="1" res="-1.8287928774952888e-02" rms="3.0698123574256897e-01" purity="5.6792014837265015e-01" nType="0">
            <Node pos="l" depth="3" NCoef="0" IVar="-1" Cut="0.0000000000000000e+00" cType="1" res="-3.0890429392457008e-02" rms="3.3670899271965027e-01" purity="2.4050134420394897e-01" nType="-99"/>
            <Node pos="r" depth="3" NCoef="0" IVar="-1" Cut="0.0000000000000000e+00" cType="1" res="-1.3516573235392570e-02" rms="2.9423475265502930e-01" purity="6.9666016101837158e-01" nType="-99"/>
          </Node>
          <Node pos="r" depth="2" NCoef="0" IVar="6" Cut="1.6594095230102539e+01" cType="1" res="1.3399262679740787e-03" rms="2.4442213773727417e-01" purity="8.6683112382888794e-01" nType="0">
            <Node pos="l" depth="3" NCoef="0" IVar="-1" Cut="0.0000000000000000e+00" cType="1" res="1.9518734887242317e-02" rms="3.3015394210815430e-01" purity="7.0087021589279175e-01" nType="-99"/>
            <Node pos="r" depth="3" NCoef="0" IVar="-1" Cut="0.0000000000000000e+00" cType="1" res="-1.3771337457001209e-02" rms="2.0725333690643311e-01" purity="9.2267823219299316e-01" nType="-99"/>
          </Node>
        </Node>
      </Node>
    </BinaryTree>
    <BinaryTree type="DecisionTree" boostWeight="1.0000000000000000e+00" itree="703">
      <Node pos="s" depth="0" NCoef="0" IVar="9" Cut="1.2000124454498291e+00" cType="1" res="1.4043223345652223e-03" rms="2.8326675295829773e-01" purity="5.0317937135696411e-01" nType="0">
        <Node pos="l" depth="1" NCoef="0" IVar="11" Cut="-1.6191241741180420e+00" cType="1" res="-1.3501048670150340e-04" rms="2.8361040353775024e-01" purity="5.3534746170043945e-01" nType="0">
          <Node pos="l" depth="2" NCoef="0" IVar="9" Cut="-1.6566207408905029e+00" cType="1" res="-4.6752574853599072e-03" rms="2.9826304316520691e-01" purity="2.8175944089889526e-01" nType="0">
            <Node pos="l" depth="3" NCoef="0" IVar="-1" Cut="0.0000000000000000e+00" cType="1" res="-4.2027372866868973e-02" rms="2.0136292278766632e-01" purity="6.2915608286857605e-02" nType="-99"/>
            <Node pos="r" depth="3" NCoef="0" IVar="-1" Cut="0.0000000000000000e+00" cType="1" res="-3.0620805919170380e-03" rms="3.0721926689147949e-01" purity="3.0640652775764465e-01" nType="-99"/>
          </Node>
          <Node pos="r" depth="2" NCoef="0" IVar="9" Cut="-1.0856182575225830e+00" cType="1" res="4.3452023528516293e-03" rms="2.6829311251640320e-01" purity="7.8558230400085449e-01" nType="0">
            <Node pos="l" depth="3" NCoef="0" IVar="-1" Cut="0.0000000000000000e+00" cType="1" res="1.7367817461490631e-02" rms="3.1114265322685242e-01" purity="6.1595684289932251e-01" nType="-99"/>
            <Node pos="r" depth="3" NCoef="0" IVar="-1" Cut="0.0000000000000000e+00" cType="1" res="2.6427032425999641e-03" rms="2.5995317101478577e-01" purity="8.1540501117706299e-01" nType="-99"/>
          </Node>
        </Node>
        <Node pos="r" depth="1" NCoef="0" IVar="6" Cut="1.1485981941223145e+01" cType="1" res="1.1427778750658035e-02" rms="2.8081247210502625e-01" purity="2.9371514916419983e-01" nType="0">
          <Node pos="l" depth="2" NCoef="0" IVar="4" Cut="1.0993592071533203e+02" cType="1" res="2.3655716329813004e-02" rms="2.6283162832260132e-01" purity="1.3217015564441681e-01" nType="0">
            <Node pos="l" depth="3" NCoef="0" IVar="-1" Cut="0.0000000000000000e+00" cType="1" res="1.4956441707909107e-02" rms="1.8658110499382019e-01" purity="4.7304820269346237e-02" nType="-99"/>
            <Node pos="r" depth="3" NCoef="0" IVar="-1" Cut="0.0000000000000000e+00" cType="1" res="4.6259813010692596e-02" rms="3.1125783920288086e-01" purity="2.0235109329223633e-01" nType="-99"/>
          </Node>
          <Node pos="r" depth="2" NCoef="0" IVar="11" Cut="1.3437297940254211e-01" cType="1" res="-6.7273825407028198e-03" rms="3.0465966463088989e-01" purity="5.3356558084487915e-01" nType="0">
            <Node pos="l" depth="3" NCoef="0" IVar="-1" Cut="0.0000000000000000e+00" cType="1" res="-2.4784512817859650e-02" rms="3.0506625771522522e-01" purity="5.2473562955856323e-01" nType="-99"/>
            <Node pos="r" depth="3" NCoef="0" IVar="-1" Cut="0.0000000000000000e+00" cType="1" res="1.0446678847074509e-02" rms="3.0324772000312805e-01" purity="5.4161244630813599e-01" nType="-99"/>
          </Node>
        </Node>
      </Node>
    </BinaryTree>
    <BinaryTree type="DecisionTree" boostWeight="1.0000000000000000e+00" itree="704">
      <Node pos="s" depth="0" NCoef="0" IVar="7" Cut="9.4434237480163574e-01" cType="1" res="-2.3060874082148075e-04" rms="2.8176975250244141e-01" purity="5.0740891695022583e-01" nType="0">
        <Node pos="l" depth="1" NCoef="0" IVar="7" Cut="2.3778940737247467e-01" cType="1" res="-2.0604091696441174e-03" rms="2.8658720850944519e-01" purity="5.5249404907226562e-01" nType="0">
          <Node pos="l" depth="2" NCoef="0" IVar="4" Cut="2.3944830322265625e+02" cType="1" res="5.7711201952770352e-04" rms="2.8171673417091370e-01" purity="5.3841817378997803e-01" nType="0">
            <Node pos="l" depth="3" NCoef="0" IVar="-1" Cut="0.0000000000000000e+00" cType="1" res="-1.8186073284596205e-03" rms="2.8869330883026123e-01" purity="4.7083270549774170e-01" nType="-99"/>
            <Node pos="r" depth="3" NCoef="0" IVar="-1" Cut="0.0000000000000000e+00" cType="1" res="1.7859028652310371e-02" rms="2.4371081590652466e-01" purity="8.7522256374359131e-01" nType="-99"/>
          </Node>
          <Node pos="r" depth="2" NCoef="0" IVar="8" Cut="-1.3408124446868896e-01" cType="1" res="-8.4701571613550186e-03" rms="2.9799473285675049e-01" purity="5.8670139312744141e-01" nType="0">
            <Node pos="l" depth="3" NCoef="0" IVar="-1" Cut="0.0000000000000000e+00" cType="1" res="-1.8810367211699486e-02" rms="2.9314464330673218e-01" purity="5.3783535957336426e-01" nType="-99"/>
            <Node pos="r" depth="3" NCoef="0" IVar="-1" Cut="0.0000000000000000e+00" cType="1" res="-2.6653376407921314e-03" rms="3.0117729306221008e-01" purity="6.2065792083740234e-01" nType="-99"/>
          </Node>
        </Node>
        <Node pos="r" depth="1" NCoef="0" IVar="7" Cut="1.2976442575454712e+00" cType="1" res="1.0187165811657906e-02" rms="2.5234478712081909e-01" purity="2.5072187185287476e-01" nType="0">
          <Node pos="l" depth="2" NCoef="0" IVar="4" Cut="1.2400048065185547e+02" cType="1" res="2.0646221935749054e-02" rms="2.9664358496665955e-01" purity="3.8772526383399963e-01" nType="0">
            <Node pos="l" depth="3" NCoef="0" IVar="-1" Cut="0.0000000000000000e+00" cType="1" res="-1.2455232208594680e-03" rms="2.2369544208049774e-01" purity="8.3624199032783508e-02" nType="-99"/>
            <Node pos="r" depth="3" NCoef="0" IVar="-1" Cut="0.0000000000000000e+00" cType="1" res="3.0128290876746178e-02" rms="3.3203509449958801e-01" purity="5.6944495439529419e-01" nType="-99"/>
          </Node>
          <Node pos="r" depth="2" NCoef="0" IVar="10" Cut="-3.9986228942871094e-01" cType="1" res="1.6848380910232663e-03" rms="2.0915773510932922e-01" purity="1.3934971392154694e-01" nType="0">
            <Node pos="l" depth="3" NCoef="0" IVar="-1" Cut="0.0000000000000000e+00" cType="1" res="-3.4158382564783096e-02" rms="1.8541090190410614e-01" purity="1.0289004445075989e-01" nType="-99"/>
            <Node pos="r" depth="3" NCoef="0" IVar="-1" Cut="0.0000000000000000e+00" cType="1" res="1.8484009429812431e-02" rms="2.1981395781040192e-01" purity="1.5787982940673828e-01" nType="-99"/>
          </Node>
        </Node>
      </Node>
    </BinaryTree>
    <BinaryTree type="DecisionTree" boostWeight="1.0000000000000000e+00" itree="705">
      <Node pos="s" depth="0" NCoef="0" IVar="10" Cut="1.9999676942825317e+00" cType="1" res="-6.9858017377555370e-04" rms="2.8500080108642578e-01" purity="5.0530552864074707e-01" nType="0">
        <Node pos="l" depth="1" NCoef="0" IVar="7" Cut="1.5026991069316864e-01" cType="1" res="3.2653601374477148e-04" rms="2.8639686107635498e-01" purity="5.1926726102828979e-01" nType="0">
          <Node pos="l" depth="2" NCoef="0" IVar="5" Cut="7.0200714111328125e+01" cType="1" res="4.0120924822986126e-03" rms="2.8608208894729614e-01" purity="5.4521995782852173e-01" nType="0">
            <Node pos="l" depth="3" NCoef="0" IVar="-1" Cut="0.0000000000000000e+00" cType="1" res="-3.1170255970209837e-03" rms="2.9368999600410461e-01" purity="2.0060175657272339e-01" nType="-99"/>
            <Node pos="r" depth="3" NCoef="0" IVar="-1" Cut="0.0000000000000000e+00" cType="1" res="9.5247942954301834e-03" rms="2.8158316016197205e-01" purity="7.4168550968170166e-01" nType="-99"/>
          </Node>
          <Node pos="r" depth="2" NCoef="0" IVar="7" Cut="1.4119484424591064e+00" cType="1" res="-4.6902201138436794e-03" rms="2.8674870729446411e-01" purity="4.8394060134887695e-01" nType="0">
            <Node pos="l" depth="3" NCoef="0" IVar="-1" Cut="0.0000000000000000e+00" cType="1" res="-7.5779263861477375e-03" rms="2.9936531186103821e-01" purity="5.4741221666336060e-01" nType="-99"/>
            <Node pos="r" depth="3" NCoef="0" IVar="-1" Cut="0.0000000000000000e+00" cType="1" res="1.7475767061114311e-02" rms="2.0299999415874481e-01" purity="1.3347385823726654e-01" nType="-99"/>
          </Node>
        </Node>
        <Node pos="r" depth="1" NCoef="0" IVar="-1" Cut="0.0000000000000000e+00" cType="1" res="-2.8792461380362511e-02" rms="2.5288656353950500e-01" purity="2.1150940656661987e-01" nType="-99"/>
      </Node>
    </BinaryTree>
    <BinaryTree type="DecisionTree" boostWeight="1.0000000000000000e+00" itree="706">
      <Node pos="s" depth="0" NCoef="0" IVar="9" Cut="1.1998615264892578e+00" cType="1" res="-3.6985566839575768e-04" rms="2.8140082955360413e-01" purity="4.9738690257072449e-01" nType="0">
        <Node pos="l" depth="1" NCoef="0" IVar="7" Cut="-9.1043835878372192e-01" cType="1" res="1.2156871380284429e-03" rms="2.8356793522834778e-01" purity="5.2991956472396851e-01" nType="0">
          <Node pos="l" depth="2" NCoef="0" IVar="5" Cut="6.3995376586914062e+01" cType="1" res="9.9562657997012138e-03" rms="2.6520404219627380e-01" purity="2.9138427972793579e-01" nType="0">
            <Node pos="l" depth="3" NCoef="0" IVar="-1" Cut="0.0000000000000000e+00" cType="1" res="4.8579901456832886e-02" rms="2.2739870846271515e-01" purity="9.7652375698089600e-02" nType="-99"/>
            <Node pos="r" depth="3" NCoef="0" IVar="-1" Cut="0.0000000000000000e+00" cType="1" res="2.1540164016187191e-03" rms="2.8767785429954529e-01" purity="4.2231681942939758e-01" nType="-99"/>
          </Node>
          <Node pos="r" depth="2" NCoef="0" IVar="10" Cut="-9.3341809511184692e-01" cType="1" res="-4.0745630394667387e-04" rms="2.8681939840316772e-01" purity="5.7421606779098511e-01" nType="0">
            <Node pos="l" depth="3" NCoef="0" IVar="-1" Cut="0.0000000000000000e+00" cType="1" res="-1.0169338434934616e-02" rms="2.8111436963081360e-01" purity="4.7981637716293335e-01" nType="-99"/>
            <Node pos="r" depth="3" NCoef="0" IVar="-1" Cut="0.0000000000000000e+00" cType="1" res="2.2700496483594179e-03" rms="2.8835806250572205e-01" purity="6.0073357820510864e-01" nType="-99"/>
          </Node>
        </Node>
        <Node pos="r" depth="1" NCoef="0" IVar="8" Cut="-3.9810743927955627e-01" cType="1" res="-1.1459376662969589e-02" rms="2.6548564434051514e-01" purity="2.6984864473342896e-01" nType="0">
          <Node pos="l" depth="2" NCoef="0" IVar="-1" Cut="0.0000000000000000e+00" cType="1" res="-4.5158199965953827e-02" rms="2.3240534961223602e-01" purity="1.9222678244113922e-01" nType="-99"/>
          <Node pos="r" depth="2" NCoef="0" IVar="11" Cut="-1.0668615102767944e+00" cType="1" res="-3.7885659839957952e-03" rms="2.7855646610260010e-01" purity="3.0426463484764099e-01" nType="0">
            <Node pos="l" depth="3" NCoef="0" IVar="-1" Cut="0.0000000000000000e+00" cType="1" res="-1.6110830008983612e-02" rms="2.5190970301628113e-01" purity="1.4106084406375885e-01" nType="-99"/>
            <Node pos="r" depth="3" NCoef="0" IVar="-1" Cut="0.0000000000000000e+00" cType="1" res="1.0112693533301353e-02" rms="3.2283860445022583e-01" purity="6.1554610729217529e-01" nType="-99"/>
          </Node>
        </Node>
      </Node>
    </BinaryTree>
    <BinaryTree type="DecisionTree" boostWeight="1.0000000000000000e+00" itree="707">
      <Node pos="s" depth="0" NCoef="0" IVar="3" Cut="3.7067123413085938e+02" cType="1" res="8.8803027756512165e-04" rms="2.8585803508758545e-01" purity="5.0037086009979248e-01" nType="0">
        <Node pos="l" depth="1" NCoef="0" IVar="2" Cut="6.0743048095703125e+02" cType="1" res="-1.5402276767417789e-04" rms="2.8686866164207458e-01" purity="4.6964862942695618e-01" nType="0">
          <Node pos="l" depth="2" NCoef="0" IVar="2" Cut="2.1941455078125000e+02" cType="1" res="8.2778488285839558e-04" rms="2.8641080856323242e-01" purity="4.6904265880584717e-01" nType="0">
            <Node pos="l" depth="3" NCoef="0" IVar="-1" Cut="0.0000000000000000e+00" cType="1" res="1.5397100709378719e-02" rms="2.9656112194061279e-01" purity="3.3080124855041504e-01" nType="-99"/>
            <Node pos="r" depth="3" NCoef="0" IVar="-1" Cut="0.0000000000000000e+00" cType="1" res="-1.4663116598967463e-04" rms="2.8557518124580383e-01" purity="4.7991999983787537e-01" nType="-99"/>
          </Node>
          <Node pos="r" depth="2" NCoef="0" IVar="-1" Cut="0.0000000000000000e+00" cType="1" res="-1.8516147509217262e-02" rms="2.9426836967468262e-01" purity="4.8030349612236023e-01" nType="-99"/>
        </Node>
        <Node pos="r" depth="1" NCoef="0" IVar="10" Cut="1.3216251134872437e-01" cType="1" res="9.7467359155416489e-03" rms="2.7695935964584351e-01" purity="7.6154673099517822e-01" nType="0">
          <Node pos="l" depth="2" NCoef="0" IVar="0" Cut="2.2788349609375000e+03" cType="1" res="1.9640842452645302e-02" rms="2.7817699313163757e-01" purity="7.8467810153961182e-01" nType="0">
            <Node pos="l" depth="3" NCoef="0" IVar="-1" Cut="0.0000000000000000e+00" cType="1" res="3.3044613897800446e-02" rms="3.2182487845420837e-01" purity="6.7314028739929199e-01" nType="-99"/>
            <Node pos="r" depth="3" NCoef="0" IVar="-1" Cut="0.0000000000000000e+00" cType="1" res="1.1221791617572308e-02" rms="2.2283805906772614e-01" purity="9.0130627155303955e-01" nType="-99"/>
          </Node>
          <Node pos="r" depth="2" NCoef="0" IVar="-1" Cut="0.0000000000000000e+00" cType="1" res="-3.9461138658225536e-03" rms="2.7481734752655029e-01" purity="7.3124086856842041e-01" nType="-99"/>
        </Node>
      </Node>
    </BinaryTree>
    <BinaryTree type="DecisionTree" boostWeight="1.0000000000000000e+00" itree="708">
      <Node pos="s" depth="0" NCoef="0" IVar="10" Cut="9.3331581354141235e-01" cType="1" res="-2.2178355138748884e-03" rms="2.8362101316452026e-01" purity="4.9735206365585327e-01" nType="0">
        <Node pos="l" depth="1" NCoef="0" IVar="0" Cut="1.6921555175781250e+03" cType="1" res="-5.0801020115613937e-03" rms="2.8041392564773560e-01" purity="5.1919722557067871e-01" nType="0">
          <Node pos="l" depth="2" NCoef="0" IVar="1" Cut="4.0946815162897110e-02" cType="1" res="-9.1403592377901077e-03" rms="2.9936131834983826e-01" purity="3.2801812887191772e-01" nType="0">
            <Node pos="l" depth="3" NCoef="0" IVar="-1" Cut="0.0000000000000000e+00" cType="1" res="-3.9588864892721176e-03" rms="2.3920854926109314e-01" purity="1.1976762115955353e-01" nType="-99"/>
            <Node pos="r" depth="3" NCoef="0" IVar="-1" Cut="0.0000000000000000e+00" cType="1" res="-1.2342833913862705e-02" rms="3.4671962261199951e-01" purity="5.2522790431976318e-01" nType="-99"/>
          </Node>
          <Node pos="r" depth="2" NCoef="0" IVar="7" Cut="-5.9404748678207397e-01" cType="1" res="2.1298597566783428e-03" rms="2.4298928678035736e-01" purity="8.5868161916732788e-01" nType="0">
            <Node pos="l" depth="3" NCoef="0" IVar="-1" Cut="0.0000000000000000e+00" cType="1" res="-1.6745803877711296e-02" rms="2.6936003565788269e-01" purity="7.7181875705718994e-01" nType="-99"/>
            <Node pos="r" depth="3" NCoef="0" IVar="-1" Cut="0.0000000000000000e+00" cType="1" res="9.8163075745105743e-03" rms="2.3595090210437775e-01" purity="8.7997776269912720e-01" nType="-99"/>
          </Node>
        </Node>
        <Node pos="r" depth="1" NCoef="0" IVar="8" Cut="-1.3390812277793884e-01" cType="1" res="7.8171640634536743e-03" rms="2.9436951875686646e-01" purity="4.2076370120048523e-01" nType="0">
          <Node pos="l" depth="2" NCoef="0" IVar="8" Cut="-1.1495119333267212e+00" cType="1" res="-4.7714677639305592e-03" rms="2.8748938441276550e-01" purity="3.8675430417060852e-01" nType="0">
            <Node pos="l" depth="3" NCoef="0" IVar="-1" Cut="0.0000000000000000e+00" cType="1" res="2.8647948056459427e-02" rms="2.5703805685043335e-01" purity="1.6897520422935486e-01" nType="-99"/>
            <Node pos="r" depth="3" NCoef="0" IVar="-1" Cut="0.0000000000000000e+00" cType="1" res="-1.5825454145669937e-02" rms="2.9988372325897217e-01" purity="4.8638156056404114e-01" nType="-99"/>
          </Node>
          <Node pos="r" depth="2" NCoef="0" IVar="7" Cut="-3.3238169550895691e-01" cType="1" res="1.6000900417566299e-02" rms="2.9847261309623718e-01" purity="4.4287291169166565e-01" nType="0">
            <Node pos="l" depth="3" NCoef="0" IVar="-1" Cut="0.0000000000000000e+00" cType="1" res="9.5773342764005065e-05" rms="2.7522650361061096e-01" purity="3.3406311273574829e-01" nType="-99"/>
            <Node pos="r" depth="3" NCoef="0" IVar="-1" Cut="0.0000000000000000e+00" cType="1" res="2.3979164659976959e-02" rms="3.0701175332069397e-01" purity="4.8620963096618652e-01" nType="-99"/>
          </Node>
        </Node>
      </Node>
    </BinaryTree>
    <BinaryTree type="DecisionTree" boostWeight="1.0000000000000000e+00" itree="709">
      <Node pos="s" depth="0" NCoef="0" IVar="10" Cut="3.9984160661697388e-01" cType="1" res="-1.5304036205634475e-03" rms="2.8357291221618652e-01" purity="4.9599137902259827e-01" nType="0">
        <Node pos="l" depth="1" NCoef="0" IVar="8" Cut="-1.1987578868865967e+00" cType="1" res="1.3540025101974607e-03" rms="2.8344872593879700e-01" purity="5.0830388069152832e-01" nType="0">
          <Node pos="l" depth="2" NCoef="0" IVar="9" Cut="-1.3689149916172028e-01" cType="1" res="-1.0672266595065594e-02" rms="2.4185679852962494e-01" purity="2.1828368306159973e-01" nType="0">
            <Node pos="l" depth="3" NCoef="0" IVar="-1" Cut="0.0000000000000000e+00" cType="1" res="-2.7334860060364008e-03" rms="2.4741958081722260e-01" purity="2.2412058711051941e-01" nType="-99"/>
            <Node pos="r" depth="3" NCoef="0" IVar="-1" Cut="0.0000000000000000e+00" cType="1" res="-3.2330613583326340e-02" rms="2.3452630639076233e-01" purity="2.1123789250850677e-01" nType="-99"/>
          </Node>
          <Node pos="r" depth="2" NCoef="0" IVar="8" Cut="-6.2746280431747437e-01" cType="1" res="3.0524043831974268e-03" rms="2.8879994153976440e-01" purity="5.4926180839538574e-01" nType="0">
            <Node pos="l" depth="3" NCoef="0" IVar="-1" Cut="0.0000000000000000e+00" cType="1" res="1.5568134374916553e-02" rms="3.0742314457893372e-01" purity="5.2164506912231445e-01" nType="-99"/>
            <Node pos="r" depth="3" NCoef="0" IVar="-1" Cut="0.0000000000000000e+00" cType="1" res="4.9099628813564777e-04" rms="2.8427222371101379e-01" purity="5.5562210083007812e-01" nType="-99"/>
          </Node>
        </Node>
        <Node pos="r" depth="1" NCoef="0" IVar="6" Cut="6.6763839721679688e+01" cType="1" res="-6.3842167146503925e-03" rms="2.8371557593345642e-01" purity="4.7527217864990234e-01" nType="0">
          <Node pos="l" depth="2" NCoef="0" IVar="5" Cut="6.6595710754394531e+01" cType="1" res="-1.0464394465088844e-02" rms="2.9746982455253601e-01" purity="2.9373082518577576e-01" nType="0">
            <Node pos="l" depth="3" NCoef="0" IVar="-1" Cut="0.0000000000000000e+00" cType="1" res="-2.7341737877577543e-03" rms="2.6748895645141602e-01" purity="1.6611723601818085e-01" nType="-99"/>
            <Node pos="r" depth="3" NCoef="0" IVar="-1" Cut="0.0000000000000000e+00" cType="1" res="-1.7320884391665459e-02" rms="3.2740494608879089e-01" purity="4.3593099713325500e-01" nType="-99"/>
          </Node>
          <Node pos="r" depth="2" NCoef="0" IVar="5" Cut="1.0025346374511719e+02" cType="1" res="1.9656554795801640e-03" rms="2.5304523110389709e-01" purity="8.4678709506988525e-01" nType="0">
            <Node pos="l" depth="3" NCoef="0" IVar="-1" Cut="0.0000000000000000e+00" cType="1" res="1.4403323642909527e-02" rms="3.1221589446067810e-01" purity="7.2153657674789429e-01" nType="-99"/>
            <Node pos="r" depth="3" NCoef="0" IVar="-1" Cut="0.0000000000000000e+00" cType="1" res="-7.7052004635334015e-03" rms="2.2153404355049133e-01" purity="9.0236133337020874e-01" nType="-99"/>
          </Node>
        </Node>
      </Node>
    </BinaryTree>
    <BinaryTree type="DecisionTree" boostWeight="1.0000000000000000e+00" itree="710">
      <Node pos="s" depth="0" NCoef="0" IVar="8" Cut="4.0015533566474915e-01" cType="1" res="-1.0416220902698115e-04" rms="2.8551858663558960e-01" purity="4.9456518888473511e-01" nType="0">
        <Node pos="l" depth="1" NCoef="0" IVar="7" Cut="-6.4530062675476074e-01" cType="1" res="-2.7360131498426199e-03" rms="2.8420978784561157e-01" purity="5.2957272529602051e-01" nType="0">
          <Node pos="l" depth="2" NCoef="0" IVar="10" Cut="6.6646581888198853e-01" cType="1" res="5.0391764380037785e-03" rms="2.7693760395050049e-01" purity="3.8939931988716125e-01" nType="0">
            <Node pos="l" depth="3" NCoef="0" IVar="-1" Cut="0.0000000000000000e+00" cType="1" res="-2.5260145775973797e-03" rms="2.6895084977149963e-01" purity="4.0205600857734680e-01" nType="-99"/>
            <Node pos="r" depth="3" NCoef="0" IVar="-1" Cut="0.0000000000000000e+00" cType="1" res="3.3828645944595337e-02" rms="2.9879552125930786e-01" purity="3.5115158557891846e-01" nType="-99"/>
          </Node>
          <Node pos="r" depth="2" NCoef="0" IVar="2" Cut="6.6219738769531250e+02" cType="1" res="-5.1574166864156723e-03" rms="2.8639373183250427e-01" purity="5.7322651147842407e-01" nType="0">
            <Node pos="l" depth="3" NCoef="0" IVar="-1" Cut="0.0000000000000000e+00" cType="1" res="-4.5885406434535980e-03" rms="2.8453066945075989e-01" purity="5.6973379850387573e-01" nType="-99"/>
            <Node pos="r" depth="3" NCoef="0" IVar="-1" Cut="0.0000000000000000e+00" cType="1" res="-2.6795724406838417e-02" rms="3.1404158473014832e-01" purity="6.2932789325714111e-01" nType="-99"/>
          </Node>
        </Node>
        <Node pos="r" depth="1" NCoef="0" IVar="2" Cut="6.0742248535156250e+02" cType="1" res="5.1368498243391514e-03" rms="2.8803557157516479e-01" purity="4.2485192418098450e-01" nType="0">
          <Node pos="l" depth="2" NCoef="0" IVar="2" Cut="2.3880459594726562e+02" cType="1" res="3.1190877780318260e-03" rms="2.8441706299781799e-01" purity="4.1731518507003784e-01" nType="0">
            <Node pos="l" depth="3" NCoef="0" IVar="-1" Cut="0.0000000000000000e+00" cType="1" res="-2.1820385009050369e-02" rms="2.7322158217430115e-01" purity="2.9886731505393982e-01" nType="-99"/>
            <Node pos="r" depth="3" NCoef="0" IVar="-1" Cut="0.0000000000000000e+00" cType="1" res="8.1862723454833031e-03" rms="2.8622576594352722e-01" purity="4.3852880597114563e-01" nType="-99"/>
          </Node>
          <Node pos="r" depth="2" NCoef="0" IVar="-1" Cut="0.0000000000000000e+00" cType="1" res="2.7288969606161118e-02" rms="3.2477226853370667e-01" purity="5.0876373052597046e-01" nType="-99"/>
        </Node>
      </Node>
    </BinaryTree>
    <BinaryTree type="DecisionTree" boostWeight="1.0000000000000000e+00" itree="711">
      <Node pos="s" depth="0" NCoef="0" IVar="10" Cut="-1.7333739995956421e+00" cType="1" res="-6.2002183403819799e-04" rms="2.8300234675407410e-01" purity="4.9526974558830261e-01" nType="0">
        <Node pos="l" depth="1" NCoef="0" IVar="9" Cut="1.3006117939949036e-01" cType="1" res="1.2820783071219921e-02" rms="2.8529196977615356e-01" purity="2.8741389513015747e-01" nType="0">
          <Node pos="l" depth="2" NCoef="0" IVar="-1" Cut="0.0000000000000000e+00" cType="1" res="5.2497400902211666e-03" rms="2.8190916776657104e-01" purity="2.6415553689002991e-01" nType="-99"/>
          <Node pos="r" depth="2" NCoef="0" IVar="-1" Cut="0.0000000000000000e+00" cType="1" res="3.2023511826992035e-02" rms="2.8994438052177429e-01" purity="3.2360240817070007e-01" nType="-99"/>
        </Node>
        <Node pos="r" depth="1" NCoef="0" IVar="10" Cut="-1.3015922307968140e+00" cType="1" res="-1.7428552964702249e-03" rms="2.8278133273124695e-01" purity="5.1263386011123657e-01" nType="0">
          <Node pos="l" depth="2" NCoef="0" IVar="7" Cut="-3.1284591555595398e-01" cType="1" res="-1.8322592601180077e-02" rms="2.7911943197250366e-01" purity="4.0580406785011292e-01" nType="0">
            <Node pos="l" depth="3" NCoef="0" IVar="-1" Cut="0.0000000000000000e+00" cType="1" res="-3.9606481790542603e-02" rms="2.6965588331222534e-01" purity="3.3997076749801636e-01" nType="-99"/>
            <Node pos="r" depth="3" NCoef="0" IVar="-1" Cut="0.0000000000000000e+00" cType="1" res="-8.8363662362098694e-03" rms="2.8579765558242798e-01" purity="4.5694449543952942e-01" nType="-99"/>
          </Node>
          <Node pos="r" depth="2" NCoef="0" IVar="7" Cut="-1.1876974105834961e+00" cType="1" res="-4.3141414062120020e-04" rms="2.8302749991416931e-01" purity="5.2108395099639893e-01" nType="0">
            <Node pos="l" depth="3" NCoef="0" IVar="-1" Cut="0.0000000000000000e+00" cType="1" res="-2.6364320889115334e-02" rms="2.1735425293445587e-01" purity="1.7141662538051605e-01" nType="-99"/>
            <Node pos="r" depth="3" NCoef="0" IVar="-1" Cut="0.0000000000000000e+00" cType="1" res="1.2204191880300641e-03" rms="2.8860703110694885e-01" purity="5.5528032779693604e-01" nType="-99"/>
          </Node>
        </Node>
      </Node>
    </BinaryTree>
    <BinaryTree type="DecisionTree" boostWeight="1.0000000000000000e+00" itree="712">
      <Node pos="s" depth="0" NCoef="0" IVar="9" Cut="-1.7332271337509155e+00" cType="1" res="4.1279965080320835e-03" rms="2.8576287627220154e-01" purity="5.0413686037063599e-01" nType="0">
        <Node pos="l" depth="1" NCoef="0" IVar="10" Cut="-1.3315497338771820e-01" cType="1" res="2.3484166711568832e-02" rms="2.6019877195358276e-01" purity="1.9157399237155914e-01" nType="0">
          <Node pos="l" depth="2" NCoef="0" IVar="-1" Cut="0.0000000000000000e+00" cType="1" res="5.4420363157987595e-02" rms="2.8061228990554810e-01" purity="2.0553027093410492e-01" nType="-99"/>
          <Node pos="r" depth="2" NCoef="0" IVar="-1" Cut="0.0000000000000000e+00" cType="1" res="8.1774108111858368e-03" rms="2.3155385255813599e-01" purity="1.7455750703811646e-01" nType="-99"/>
        </Node>
        <Node pos="r" depth="1" NCoef="0" IVar="0" Cut="2.5245568847656250e+03" cType="1" res="2.9519489035010338e-03" rms="2.8720077872276306e-01" purity="5.2312761545181274e-01" nType="0">
          <Node pos="l" depth="2" NCoef="0" IVar="4" Cut="1.2131381225585938e+02" cType="1" res="3.5794051364064217e-03" rms="2.9030412435531616e-01" purity="5.0357908010482788e-01" nType="0">
            <Node pos="l" depth="3" NCoef="0" IVar="-1" Cut="0.0000000000000000e+00" cType="1" res="1.2298199348151684e-02" rms="2.6660078763961792e-01" purity="1.5803265571594238e-01" nType="-99"/>
            <Node pos="r" depth="3" NCoef="0" IVar="-1" Cut="0.0000000000000000e+00" cType="1" res="1.4871526509523392e-03" rms="3.0005162954330444e-01" purity="6.5462023019790649e-01" nType="-99"/>
          </Node>
          <Node pos="r" depth="2" NCoef="0" IVar="-1" Cut="0.0000000000000000e+00" cType="1" res="-2.0343896001577377e-02" rms="2.1658697724342346e-01" purity="9.0939527750015259e-01" nType="-99"/>
        </Node>
      </Node>
    </BinaryTree>
    <BinaryTree type="DecisionTree" boostWeight="1.0000000000000000e+00" itree="713">
      <Node pos="s" depth="0" NCoef="0" IVar="7" Cut="-6.5693342685699463e-01" cType="1" res="-4.1245215106755495e-04" rms="2.8444558382034302e-01" purity="5.0207293033599854e-01" nType="0">
        <Node pos="l" depth="1" NCoef="0" IVar="1" Cut="3.6952033638954163e-02" cType="1" res="7.5407181866466999e-03" rms="2.7067282795906067e-01" purity="3.4142097830772400e-01" nType="0">
          <Node pos="l" depth="2" NCoef="0" IVar="8" Cut="-3.9923551678657532e-01" cType="1" res="-3.5504545667208731e-04" rms="2.3080854117870331e-01" purity="1.2539310753345490e-01" nType="0">
            <Node pos="l" depth="3" NCoef="0" IVar="-1" Cut="0.0000000000000000e+00" cType="1" res="-2.0380210131406784e-02" rms="2.2149446606636047e-01" purity="9.6400223672389984e-02" nType="-99"/>
            <Node pos="r" depth="3" NCoef="0" IVar="-1" Cut="0.0000000000000000e+00" cType="1" res="1.1762864887714386e-02" rms="2.3699626326560974e-01" purity="1.4614920318126678e-01" nType="-99"/>
          </Node>
          <Node pos="r" depth="2" NCoef="0" IVar="8" Cut="3.5221752524375916e-01" cType="1" res="1.7203770577907562e-02" rms="3.1234574317932129e-01" purity="6.0580188035964966e-01" nType="0">
            <Node pos="l" depth="3" NCoef="0" IVar="-1" Cut="0.0000000000000000e+00" cType="1" res="2.7886554598808289e-02" rms="3.1658437848091125e-01" purity="6.5144121646881104e-01" nType="-99"/>
            <Node pos="r" depth="3" NCoef="0" IVar="-1" Cut="0.0000000000000000e+00" cType="1" res="-1.0594232007861137e-02" rms="2.9856100678443909e-01" purity="4.8006188869476318e-01" nType="-99"/>
          </Node>
        </Node>
        <Node pos="r" depth="1" NCoef="0" IVar="10" Cut="3.9974692463874817e-01" cType="1" res="-2.7441109996289015e-03" rms="2.8831711411476135e-01" purity="5.4917186498641968e-01" nType="0">
          <Node pos="l" depth="2" NCoef="0" IVar="11" Cut="-2.3860797286033630e-01" cType="1" res="-5.8508636429905891e-03" rms="2.8465604782104492e-01" purity="5.6392920017242432e-01" nType="0">
            <Node pos="l" depth="3" NCoef="0" IVar="-1" Cut="0.0000000000000000e+00" cType="1" res="-1.0430659167468548e-02" rms="2.9783612489700317e-01" purity="4.4449865818023682e-01" nType="-99"/>
            <Node pos="r" depth="3" NCoef="0" IVar="-1" Cut="0.0000000000000000e+00" cType="1" res="1.9057369790971279e-03" rms="2.5603181123733521e-01" purity="8.0347502231597900e-01" nType="-99"/>
          </Node>
          <Node pos="r" depth="2" NCoef="0" IVar="10" Cut="9.7114306688308716e-01" cType="1" res="2.0376867614686489e-03" rms="2.9379880428314209e-01" purity="5.2645796537399292e-01" nType="0">
            <Node pos="l" depth="3" NCoef="0" IVar="-1" Cut="0.0000000000000000e+00" cType="1" res="1.2206149287521839e-02" rms="2.8806537389755249e-01" purity="6.2765985727310181e-01" nType="-99"/>
            <Node pos="r" depth="3" NCoef="0" IVar="-1" Cut="0.0000000000000000e+00" cType="1" res="-4.9784113653004169e-03" rms="2.9822608828544617e-01" purity="4.4405770301818848e-01" nType="-99"/>
          </Node>
        </Node>
      </Node>
    </BinaryTree>
    <BinaryTree type="DecisionTree" boostWeight="1.0000000000000000e+00" itree="714">
      <Node pos="s" depth="0" NCoef="0" IVar="5" Cut="7.0200958251953125e+01" cType="1" res="1.5364076243713498e-03" rms="2.8147807717323303e-01" purity="4.9986335635185242e-01" nType="0">
        <Node pos="l" depth="1" NCoef="0" IVar="4" Cut="1.4558529663085938e+02" cType="1" res="-3.2839039340615273e-03" rms="2.7582553029060364e-01" purity="1.8112787604331970e-01" nType="0">
          <Node pos="l" depth="2" NCoef="0" IVar="1" Cut="5.5589620023965836e-02" cType="1" res="1.8105506896972656e-03" rms="2.4813547730445862e-01" purity="1.1390621960163116e-01" nType="0">
            <Node pos="l" depth="3" NCoef="0" IVar="-1" Cut="0.0000000000000000e+00" cType="1" res="-7.9097002744674683e-03" rms="2.0131005346775055e-01" purity="6.4254187047481537e-02" nType="-99"/>
            <Node pos="r" depth="3" NCoef="0" IVar="-1" Cut="0.0000000000000000e+00" cType="1" res="1.4956313185393810e-02" rms="3.5244041681289673e-01" purity="2.6250836253166199e-01" nType="-99"/>
          </Node>
          <Node pos="r" depth="2" NCoef="0" IVar="1" Cut="1.8538437783718109e-02" cType="1" res="-1.6621889546513557e-02" rms="3.3737096190452576e-01" purity="3.5712346434593201e-01" nType="0">
            <Node pos="l" depth="3" NCoef="0" IVar="-1" Cut="0.0000000000000000e+00" cType="1" res="-5.2318890811875463e-04" rms="2.8293263912200928e-01" purity="1.4593061804771423e-01" nType="-99"/>
            <Node pos="r" depth="3" NCoef="0" IVar="-1" Cut="0.0000000000000000e+00" cType="1" res="-1.6948850825428963e-02" rms="3.5628852248191833e-01" purity="4.4009494781494141e-01" nType="-99"/>
          </Node>
        </Node>
        <Node pos="r" depth="1" NCoef="0" IVar="4" Cut="1.6123779296875000e+02" cType="1" res="4.6939221210777760e-03" rms="2.8507584333419800e-01" purity="7.0864897966384888e-01" nType="0">
          <Node pos="l" depth="2" NCoef="0" IVar="1" Cut="6.3392266631126404e-02" cType="1" res="1.1176608502864838e-02" rms="3.2502067089080811e-01" purity="5.0624448060989380e-01" nType="0">
            <Node pos="l" depth="3" NCoef="0" IVar="-1" Cut="0.0000000000000000e+00" cType="1" res="2.6041353121399879e-03" rms="3.1317195296287537e-01" purity="2.9670166969299316e-01" nType="-99"/>
            <Node pos="r" depth="3" NCoef="0" IVar="-1" Cut="0.0000000000000000e+00" cType="1" res="1.7766684293746948e-02" rms="3.3803993463516235e-01" purity="7.5051397085189819e-01" nType="-99"/>
          </Node>
          <Node pos="r" depth="2" NCoef="0" IVar="11" Cut="5.9044265747070312e-01" cType="1" res="9.8795152734965086e-04" rms="2.5941994786262512e-01" purity="8.2435792684555054e-01" nType="0">
            <Node pos="l" depth="3" NCoef="0" IVar="-1" Cut="0.0000000000000000e+00" cType="1" res="5.5344467982649803e-03" rms="2.6503086090087891e-01" purity="8.1210750341415405e-01" nType="-99"/>
            <Node pos="r" depth="3" NCoef="0" IVar="-1" Cut="0.0000000000000000e+00" cType="1" res="-1.4163394458591938e-02" rms="2.4076488614082336e-01" purity="8.6268103122711182e-01" nType="-99"/>
          </Node>
        </Node>
      </Node>
    </BinaryTree>
    <BinaryTree type="DecisionTree" boostWeight="1.0000000000000000e+00" itree="715">
      <Node pos="s" depth="0" NCoef="0" IVar="9" Cut="-9.3334722518920898e-01" cType="1" res="7.1086653042584658e-04" rms="2.8333857655525208e-01" purity="5.0330400466918945e-01" nType="0">
        <Node pos="l" depth="1" NCoef="0" IVar="2" Cut="4.1465243530273438e+02" cType="1" res="-6.4952042885124683e-03" rms="2.8053578734397888e-01" purity="3.3894482254981995e-01" nType="0">
          <Node pos="l" depth="2" NCoef="0" IVar="8" Cut="-6.6533637046813965e-01" cType="1" res="-1.4745742082595825e-02" rms="2.7014237642288208e-01" purity="3.0159080028533936e-01" nType="0">
            <Node pos="l" depth="3" NCoef="0" IVar="-1" Cut="0.0000000000000000e+00" cType="1" res="-4.3902531266212463e-02" rms="2.4161827564239502e-01" purity="2.0639483630657196e-01" nType="-99"/>
            <Node pos="r" depth="3" NCoef="0" IVar="-1" Cut="0.0000000000000000e+00" cType="1" res="-7.7957604080438614e-03" rms="2.8330361843109131e-01" purity="3.5035270452499390e-01" nType="-99"/>
          </Node>
          <Node pos="r" depth="2" NCoef="0" IVar="6" Cut="5.0851741790771484e+01" cType="1" res="1.2713884934782982e-02" rms="3.0248680710792542e-01" purity="4.2591327428817749e-01" nType="0">
            <Node pos="l" depth="3" NCoef="0" IVar="-1" Cut="0.0000000000000000e+00" cType="1" res="3.2092496752738953e-02" rms="3.0089512467384338e-01" purity="2.3749281466007233e-01" nType="-99"/>
            <Node pos="r" depth="3" NCoef="0" IVar="-1" Cut="0.0000000000000000e+00" cType="1" res="-6.6195712424814701e-03" rms="3.0338689684867859e-01" purity="6.6080057621002197e-01" nType="-99"/>
          </Node>
        </Node>
        <Node pos="r" depth="1" NCoef="0" IVar="9" Cut="2.0885322093963623e+00" cType="1" res="2.4547358043491840e-03" rms="2.8398522734642029e-01" purity="5.4307895898818970e-01" nType="0">
          <Node pos="l" depth="2" NCoef="0" IVar="5" Cut="1.1060201263427734e+02" cType="1" res="3.2583728898316622e-03" rms="2.8651204705238342e-01" purity="5.5893176794052124e-01" nType="0">
            <Node pos="l" depth="3" NCoef="0" IVar="-1" Cut="0.0000000000000000e+00" cType="1" res="6.0834856703877449e-03" rms="3.1019943952560425e-01" purity="4.2498329281806946e-01" nType="-99"/>
            <Node pos="r" depth="3" NCoef="0" IVar="-1" Cut="0.0000000000000000e+00" cType="1" res="-8.1109562888741493e-03" rms="2.1341076493263245e-01" purity="9.0459036827087402e-01" nType="-99"/>
          </Node>
          <Node pos="r" depth="2" NCoef="0" IVar="-1" Cut="0.0000000000000000e+00" cType="1" res="-4.0760960429906845e-02" rms="1.9765833020210266e-01" purity="9.1785609722137451e-02" nType="-99"/>
        </Node>
      </Node>
    </BinaryTree>
    <BinaryTree type="DecisionTree" boostWeight="1.0000000000000000e+00" itree="716">
      <Node pos="s" depth="0" NCoef="0" IVar="9" Cut="1.7331051826477051e+00" cType="1" res="1.2525030178949237e-03" rms="2.8384938836097717e-01" purity="4.9985280632972717e-01" nType="0">
        <Node pos="l" depth="1" NCoef="0" IVar="10" Cut="-2.2666616439819336e+00" cType="1" res="-8.5196734289638698e-05" rms="2.8506425023078918e-01" purity="5.1676499843597412e-01" nType="0">
          <Node pos="l" depth="2" NCoef="0" IVar="-1" Cut="0.0000000000000000e+00" cType="1" res="4.2051743716001511e-02" rms="2.9343265295028687e-01" purity="2.3541334271430969e-01" nType="-99"/>
          <Node pos="r" depth="2" NCoef="0" IVar="5" Cut="9.1341239929199219e+01" cType="1" res="-1.0254842927679420e-03" rms="2.8475525975227356e-01" purity="5.2524071931838989e-01" nType="0">
            <Node pos="l" depth="3" NCoef="0" IVar="-1" Cut="0.0000000000000000e+00" cType="1" res="-5.2391635254025459e-03" rms="3.0443856120109558e-01" purity="3.0426484346389771e-01" nType="-99"/>
            <Node pos="r" depth="3" NCoef="0" IVar="-1" Cut="0.0000000000000000e+00" cType="1" res="6.9681396707892418e-03" rms="2.5342726707458496e-01" purity="8.4543919563293457e-01" nType="-99"/>
          </Node>
        </Node>
        <Node pos="r" depth="1" NCoef="0" IVar="8" Cut="1.3515709340572357e-01" cType="1" res="2.4517592042684555e-02" rms="2.6072490215301514e-01" purity="2.0571900904178619e-01" nType="0">
          <Node pos="l" depth="2" NCoef="0" IVar="-1" Cut="0.0000000000000000e+00" cType="1" res="5.8962177485227585e-02" rms="2.7054369449615479e-01" purity="2.4362976849079132e-01" nType="-99"/>
          <Node pos="r" depth="2" NCoef="0" IVar="-1" Cut="0.0000000000000000e+00" cType="1" res="8.7747508659958839e-03" rms="2.4818685650825500e-01" purity="1.6435100138187408e-01" nType="-99"/>
        </Node>
      </Node>
    </BinaryTree>
    <BinaryTree type="DecisionTree" boostWeight="1.0000000000000000e+00" itree="717">
      <Node pos="s" depth="0" NCoef="0" IVar="11" Cut="1.6949778795242310e+00" cType="1" res="-4.8234807327389717e-03" rms="2.8171768784523010e-01" purity="4.9135705828666687e-01" nType="0">
        <Node pos="l" depth="1" NCoef="0" IVar="5" Cut="1.0329777526855469e+02" cType="1" res="-3.9871139451861382e-03" rms="2.8063687682151794e-01" purity="4.8802047967910767e-01" nType="0">
          <Node pos="l" depth="2" NCoef="0" IVar="1" Cut="4.1738197207450867e-02" cType="1" res="-6.4004757441580296e-03" rms="2.9791849851608276e-01" purity="3.2616075873374939e-01" nType="0">
            <Node pos="l" depth="3" NCoef="0" IVar="-1" Cut="0.0000000000000000e+00" cType="1" res="-1.6476557357236743e-04" rms="2.5389343500137329e-01" purity="1.4850591123104095e-01" nType="-99"/>
            <Node pos="r" depth="3" NCoef="0" IVar="-1" Cut="0.0000000000000000e+00" cType="1" res="-1.1104375123977661e-02" rms="3.4020063281059265e-01" purity="5.2415043115615845e-01" nType="-99"/>
          </Node>
          <Node pos="r" depth="2" NCoef="0" IVar="2" Cut="4.1645864868164062e+02" cType="1" res="1.8184098880738020e-03" rms="2.3378935456275940e-01" purity="8.7738627195358276e-01" nType="0">
            <Node pos="l" depth="3" NCoef="0" IVar="-1" Cut="0.0000000000000000e+00" cType="1" res="1.0108014568686485e-02" rms="2.3758926987648010e-01" purity="8.6940920352935791e-01" nType="-99"/>
            <Node pos="r" depth="3" NCoef="0" IVar="-1" Cut="0.0000000000000000e+00" cType="1" res="-7.4071767739951611e-03" rms="2.2844897210597992e-01" purity="8.8811635971069336e-01" nType="-99"/>
          </Node>
        </Node>
        <Node pos="r" depth="1" NCoef="0" IVar="-1" Cut="0.0000000000000000e+00" cType="1" res="-2.7189347892999649e-02" rms="3.0786532163619995e-01" purity="5.7871949672698975e-01" nType="-99"/>
      </Node>
    </BinaryTree>
    <BinaryTree type="DecisionTree" boostWeight="1.0000000000000000e+00" itree="718">
      <Node pos="s" depth="0" NCoef="0" IVar="10" Cut="1.1998466253280640e+00" cType="1" res="-3.8696776027791202e-04" rms="2.8361311554908752e-01" purity="5.0343650579452515e-01" nType="0">
        <Node pos="l" depth="1" NCoef="0" IVar="11" Cut="1.6950782537460327e+00" cType="1" res="-2.1935675758868456e-03" rms="2.8103646636009216e-01" purity="5.2705442905426025e-01" nType="0">
          <Node pos="l" depth="2" NCoef="0" IVar="9" Cut="1.7333204746246338e+00" cType="1" res="-1.2723443796858191e-03" rms="2.7979826927185059e-01" purity="5.2279460430145264e-01" nType="0">
            <Node pos="l" depth="3" NCoef="0" IVar="-1" Cut="0.0000000000000000e+00" cType="1" res="-7.7756348764523864e-04" rms="2.8224146366119385e-01" purity="5.4068702459335327e-01" nType="-99"/>
            <Node pos="r" depth="3" NCoef="0" IVar="-1" Cut="0.0000000000000000e+00" cType="1" res="-2.0989118143916130e-02" rms="2.2637960314750671e-01" purity="1.7256705462932587e-01" nType="-99"/>
          </Node>
          <Node pos="r" depth="2" NCoef="0" IVar="-1" Cut="0.0000000000000000e+00" cType="1" res="-2.4847649037837982e-02" rms="3.0845081806182861e-01" purity="6.2931156158447266e-01" nType="-99"/>
        </Node>
        <Node pos="r" depth="1" NCoef="0" IVar="0" Cut="1.3036608886718750e+03" cType="1" res="8.9356396347284317e-03" rms="2.9637876152992249e-01" purity="3.8156065344810486e-01" nType="0">
          <Node pos="l" depth="2" NCoef="0" IVar="5" Cut="6.0066322326660156e+01" cType="1" res="-4.6854326501488686e-03" rms="2.4352625012397766e-01" purity="9.8331399261951447e-02" nType="0">
            <Node pos="l" depth="3" NCoef="0" IVar="-1" Cut="0.0000000000000000e+00" cType="1" res="7.5004221871495247e-03" rms="2.0264723896980286e-01" purity="4.9413409084081650e-02" nType="-99"/>
            <Node pos="r" depth="3" NCoef="0" IVar="-1" Cut="0.0000000000000000e+00" cType="1" res="-1.2846658937633038e-02" rms="2.7329114079475403e-01" purity="1.3981659710407257e-01" nType="-99"/>
          </Node>
          <Node pos="r" depth="2" NCoef="0" IVar="4" Cut="1.6292323303222656e+02" cType="1" res="1.9253810867667198e-02" rms="3.3046832680702209e-01" purity="5.9611111879348755e-01" nType="0">
            <Node pos="l" depth="3" NCoef="0" IVar="-1" Cut="0.0000000000000000e+00" cType="1" res="3.6243580281734467e-02" rms="3.4320434927940369e-01" purity="4.6945020556449890e-01" nType="-99"/>
            <Node pos="r" depth="3" NCoef="0" IVar="-1" Cut="0.0000000000000000e+00" cType="1" res="2.3758776951581240e-03" rms="3.1993386149406433e-01" purity="6.8729639053344727e-01" nType="-99"/>
          </Node>
        </Node>
      </Node>
    </BinaryTree>
    <BinaryTree type="DecisionTree" boostWeight="1.0000000000000000e+00" itree="719">
      <Node pos="s" depth="0" NCoef="0" IVar="9" Cut="9.3283706903457642e-01" cType="1" res="6.6294264979660511e-04" rms="2.8520512580871582e-01" purity="4.9688360095024109e-01" nType="0">
        <Node pos="l" depth="1" NCoef="0" IVar="8" Cut="6.6674208641052246e-01" cType="1" res="2.6711071841418743e-03" rms="2.8713843226432800e-01" purity="5.3421068191528320e-01" nType="0">
          <Node pos="l" depth="2" NCoef="0" IVar="9" Cut="2.2183330357074738e-01" cType="1" res="4.6288226731121540e-03" rms="2.8710678219795227e-01" purity="5.7507473230361938e-01" nType="0">
            <Node pos="l" depth="3" NCoef="0" IVar="-1" Cut="0.0000000000000000e+00" cType="1" res="1.9229302415624261e-03" rms="2.8488770127296448e-01" purity="5.5115771293640137e-01" nType="-99"/>
            <Node pos="r" depth="3" NCoef="0" IVar="-1" Cut="0.0000000000000000e+00" cType="1" res="1.5145591460168362e-02" rms="2.9291096329689026e-01" purity="6.4027059078216553e-01" nType="-99"/>
          </Node>
          <Node pos="r" depth="2" NCoef="0" IVar="2" Cut="3.9787338256835938e+02" cType="1" res="-4.0618944913148880e-03" rms="2.8714540600776672e-01" purity="3.9367055892944336e-01" nType="0">
            <Node pos="l" depth="3" NCoef="0" IVar="-1" Cut="0.0000000000000000e+00" cType="1" res="3.6385178100317717e-03" rms="2.8854545950889587e-01" purity="3.7157356739044189e-01" nType="-99"/>
            <Node pos="r" depth="3" NCoef="0" IVar="-1" Cut="0.0000000000000000e+00" cType="1" res="-2.1193513646721840e-02" rms="2.8395810723304749e-01" purity="4.3578574061393738e-01" nType="-99"/>
          </Node>
        </Node>
        <Node pos="r" depth="1" NCoef="0" IVar="8" Cut="4.0012603998184204e-01" cType="1" res="-7.9038226976990700e-03" rms="2.7664232254028320e-01" purity="3.3764743804931641e-01" nType="0">
          <Node pos="l" depth="2" NCoef="0" IVar="7" Cut="7.4835216999053955e-01" cType="1" res="-1.6061397269368172e-02" rms="2.7851790189743042e-01" purity="3.6669281125068665e-01" nType="0">
            <Node pos="l" depth="3" NCoef="0" IVar="-1" Cut="0.0000000000000000e+00" cType="1" res="-2.8242684900760651e-02" rms="2.8459239006042480e-01" purity="4.1411444544792175e-01" nType="-99"/>
            <Node pos="r" depth="3" NCoef="0" IVar="-1" Cut="0.0000000000000000e+00" cType="1" res="1.1764653958380222e-02" rms="2.5708761811256409e-01" purity="2.1786303818225861e-01" nType="-99"/>
          </Node>
          <Node pos="r" depth="2" NCoef="0" IVar="5" Cut="7.6950485229492188e+01" cType="1" res="3.7040775641798973e-03" rms="2.7353224158287048e-01" purity="2.9631710052490234e-01" nType="0">
            <Node pos="l" depth="3" NCoef="0" IVar="-1" Cut="0.0000000000000000e+00" cType="1" res="-1.0286808945238590e-02" rms="2.3008781671524048e-01" purity="1.2800273299217224e-01" nType="-99"/>
            <Node pos="r" depth="3" NCoef="0" IVar="-1" Cut="0.0000000000000000e+00" cType="1" res="1.9979503005743027e-02" rms="3.3141270279884338e-01" purity="5.6915861368179321e-01" nType="-99"/>
          </Node>
        </Node>
      </Node>
    </BinaryTree>
    <BinaryTree type="DecisionTree" boostWeight="1.0000000000000000e+00" itree="720">
      <Node pos="s" depth="0" NCoef="0" IVar="7" Cut="-3.9033094048500061e-01" cType="1" res="-2.1195425651967525e-03" rms="2.8192096948623657e-01" purity="4.9471321702003479e-01" nType="0">
        <Node pos="l" depth="1" NCoef="0" IVar="3" Cut="2.2351419067382812e+02" cType="1" res="-6.4091705717146397e-03" rms="2.6838329434394836e-01" purity="4.0845054388046265e-01" nType="0">
          <Node pos="l" depth="2" NCoef="0" IVar="1" Cut="3.4959938377141953e-02" cType="1" res="-1.4127298258244991e-02" rms="2.4901403486728668e-01" purity="2.5167208909988403e-01" nType="0">
            <Node pos="l" depth="3" NCoef="0" IVar="-1" Cut="0.0000000000000000e+00" cType="1" res="-1.2631176970899105e-02" rms="1.9282402098178864e-01" purity="7.3254883289337158e-02" nType="-99"/>
            <Node pos="r" depth="3" NCoef="0" IVar="-1" Cut="0.0000000000000000e+00" cType="1" res="-2.3267481476068497e-02" rms="2.9841750860214233e-01" purity="4.4724068045616150e-01" nType="-99"/>
          </Node>
          <Node pos="r" depth="2" NCoef="0" IVar="7" Cut="-1.3017171621322632e+00" cType="1" res="2.9227489139884710e-03" rms="2.8980594873428345e-01" purity="5.9800994396209717e-01" nType="0">
            <Node pos="l" depth="3" NCoef="0" IVar="-1" Cut="0.0000000000000000e+00" cType="1" res="-2.0224533975124359e-02" rms="2.4139031767845154e-01" purity="2.0817366242408752e-01" nType="-99"/>
            <Node pos="r" depth="3" NCoef="0" IVar="-1" Cut="0.0000000000000000e+00" cType="1" res="7.6785865239799023e-03" rms="2.9964038729667664e-01" purity="6.8716675043106079e-01" nType="-99"/>
          </Node>
        </Node>
        <Node pos="r" depth="1" NCoef="0" IVar="2" Cut="3.2071768188476562e+02" cType="1" res="-5.4360098147299141e-05" rms="2.8818905353546143e-01" purity="5.3624325990676880e-01" nType="0">
          <Node pos="l" depth="2" NCoef="0" IVar="3" Cut="1.6926902770996094e+02" cType="1" res="7.9248528927564621e-03" rms="2.9526010155677795e-01" purity="4.6276786923408508e-01" nType="0">
            <Node pos="l" depth="3" NCoef="0" IVar="-1" Cut="0.0000000000000000e+00" cType="1" res="2.4972250685095787e-02" rms="2.8741371631622314e-01" purity="2.4079504609107971e-01" nType="-99"/>
            <Node pos="r" depth="3" NCoef="0" IVar="-1" Cut="0.0000000000000000e+00" cType="1" res="1.8510137451812625e-03" rms="2.9951915144920349e-01" purity="5.9077572822570801e-01" nType="-99"/>
          </Node>
          <Node pos="r" depth="2" NCoef="0" IVar="7" Cut="8.2346904277801514e-01" cType="1" res="-5.4188217036426067e-03" rms="2.8320959210395813e-01" purity="5.8564108610153198e-01" nType="0">
            <Node pos="l" depth="3" NCoef="0" IVar="-1" Cut="0.0000000000000000e+00" cType="1" res="-1.0437145829200745e-03" rms="2.9267677664756775e-01" purity="6.8000972270965576e-01" nType="-99"/>
            <Node pos="r" depth="3" NCoef="0" IVar="-1" Cut="0.0000000000000000e+00" cType="1" res="-2.9397839680314064e-02" rms="2.4830269813537598e-01" purity="2.6962006092071533e-01" nType="-99"/>
          </Node>
        </Node>
      </Node>
    </BinaryTree>
    <BinaryTree type="DecisionTree" boostWeight="1.0000000000000000e+00" itree="721">
      <Node pos="s" depth="0" NCoef="0" IVar="8" Cut="-1.3320350646972656e-01" cType="1" res="4.7513662138953805e-04" rms="2.8436073660850525e-01" purity="4.9862670898437500e-01" nType="0">
        <Node pos="l" depth="1" NCoef="0" IVar="10" Cut="1.3335746526718140e-01" cType="1" res="4.9286815337836742e-03" rms="2.8415828943252563e-01" purity="4.8342448472976685e-01" nType="0">
          <Node pos="l" depth="2" NCoef="0" IVar="8" Cut="-5.1397514343261719e-01" cType="1" res="8.1211689393967390e-04" rms="2.7672308683395386e-01" purity="4.7460001707077026e-01" nType="0">
            <Node pos="l" depth="3" NCoef="0" IVar="-1" Cut="0.0000000000000000e+00" cType="1" res="-6.1626792885363102e-03" rms="2.7208948135375977e-01" purity="3.9547985792160034e-01" nType="-99"/>
            <Node pos="r" depth="3" NCoef="0" IVar="-1" Cut="0.0000000000000000e+00" cType="1" res="1.5606185421347618e-02" rms="2.8622311353683472e-01" purity="6.4780396223068237e-01" nType="-99"/>
          </Node>
          <Node pos="r" depth="2" NCoef="0" IVar="3" Cut="1.8438827514648438e+02" cType="1" res="1.0896814055740833e-02" rms="2.9450249671936035e-01" purity="4.9621805548667908e-01" nType="0">
            <Node pos="l" depth="3" NCoef="0" IVar="-1" Cut="0.0000000000000000e+00" cType="1" res="3.1902845948934555e-02" rms="2.8400504589080811e-01" purity="2.4612802267074585e-01" nType="-99"/>
            <Node pos="r" depth="3" NCoef="0" IVar="-1" Cut="0.0000000000000000e+00" cType="1" res="5.4152850061655045e-03" rms="2.9922309517860413e-01" purity="6.1622351408004761e-01" nType="-99"/>
          </Node>
        </Node>
        <Node pos="r" depth="1" NCoef="0" IVar="10" Cut="6.6668558120727539e-01" cType="1" res="-3.2617081888020039e-03" rms="2.8447669744491577e-01" purity="5.1138240098953247e-01" nType="0">
          <Node pos="l" depth="2" NCoef="0" IVar="7" Cut="6.7903554439544678e-01" cType="1" res="1.0404514614492655e-03" rms="2.8236120939254761e-01" purity="5.3939694166183472e-01" nType="0">
            <Node pos="l" depth="3" NCoef="0" IVar="-1" Cut="0.0000000000000000e+00" cType="1" res="-2.6552074123173952e-03" rms="2.8343284130096436e-01" purity="5.7866203784942627e-01" nType="-99"/>
            <Node pos="r" depth="3" NCoef="0" IVar="-1" Cut="0.0000000000000000e+00" cType="1" res="1.6305215656757355e-02" rms="2.7809515595436096e-01" purity="3.9585629105567932e-01" nType="-99"/>
          </Node>
          <Node pos="r" depth="2" NCoef="0" IVar="2" Cut="4.4145324707031250e+02" cType="1" res="-1.2361338362097740e-02" rms="2.8868904709815979e-01" purity="4.5212814211845398e-01" nType="0">
            <Node pos="l" depth="3" NCoef="0" IVar="-1" Cut="0.0000000000000000e+00" cType="1" res="-8.6004193872213364e-03" rms="2.8559374809265137e-01" purity="4.2461624741554260e-01" nType="-99"/>
            <Node pos="r" depth="3" NCoef="0" IVar="-1" Cut="0.0000000000000000e+00" cType="1" res="-2.9152976348996162e-02" rms="2.9619982838630676e-01" purity="5.2392846345901489e-01" nType="-99"/>
          </Node>
        </Node>
      </Node>
    </BinaryTree>
    <BinaryTree type="DecisionTree" boostWeight="1.0000000000000000e+00" itree="722">
      <Node pos="s" depth="0" NCoef="0" IVar="0" Cut="1.3165179443359375e+03" cType="1" res="-3.6855129292234778e-04" rms="2.8223088383674622e-01" purity="5.0061696767807007e-01" nType="0">
        <Node pos="l" depth="1" NCoef="0" IVar="6" Cut="5.7302867889404297e+01" cType="1" res="-8.4226438775658607e-03" rms="2.6820787787437439e-01" purity="1.4106829464435577e-01" nType="0">
          <Node pos="l" depth="2" NCoef="0" IVar="3" Cut="2.1445378112792969e+02" cType="1" res="-3.8365027867257595e-03" rms="2.4967055022716522e-01" purity="1.0393264144659042e-01" nType="0">
            <Node pos="l" depth="3" NCoef="0" IVar="-1" Cut="0.0000000000000000e+00" cType="1" res="-1.7716650618240237e-03" rms="2.4415288865566254e-01" purity="1.0035027563571930e-01" nType="-99"/>
            <Node pos="r" depth="3" NCoef="0" IVar="-1" Cut="0.0000000000000000e+00" cType="1" res="-2.1820306777954102e-02" rms="2.7806439995765686e-01" purity="1.2400066852569580e-01" nType="-99"/>
          </Node>
          <Node pos="r" depth="2" NCoef="0" IVar="-1" Cut="0.0000000000000000e+00" cType="1" res="-2.6102421805262566e-02" rms="3.6514577269554138e-01" purity="3.8253295421600342e-01" nType="-99"/>
        </Node>
        <Node pos="r" depth="1" NCoef="0" IVar="11" Cut="5.9044265747070312e-01" cType="1" res="4.2650699615478516e-03" rms="2.8988999128341675e-01" purity="7.0746988058090210e-01" nType="0">
          <Node pos="l" depth="2" NCoef="0" IVar="7" Cut="1.2016466856002808e+00" cType="1" res="1.4391653239727020e-03" rms="2.9517984390258789e-01" purity="6.7420005798339844e-01" nType="0">
            <Node pos="l" depth="3" NCoef="0" IVar="-1" Cut="0.0000000000000000e+00" cType="1" res="3.6649319808930159e-03" rms="2.9792517423629761e-01" purity="7.0201712846755981e-01" nType="-99"/>
            <Node pos="r" depth="3" NCoef="0" IVar="-1" Cut="0.0000000000000000e+00" cType="1" res="-3.6990020424127579e-02" rms="2.4685145914554596e-01" purity="2.4230071902275085e-01" nType="-99"/>
          </Node>
          <Node pos="r" depth="2" NCoef="0" IVar="5" Cut="1.0040438079833984e+02" cType="1" res="1.4674673788249493e-02" rms="2.6925426721572876e-01" purity="8.3002370595932007e-01" nType="0">
            <Node pos="l" depth="3" NCoef="0" IVar="-1" Cut="0.0000000000000000e+00" cType="1" res="3.0243597924709320e-02" rms="3.2854971289634705e-01" purity="7.2826683521270752e-01" nType="-99"/>
            <Node pos="r" depth="3" NCoef="0" IVar="-1" Cut="0.0000000000000000e+00" cType="1" res="1.8318919464945793e-03" rms="2.1566291153430939e-01" purity="9.0334230661392212e-01" nType="-99"/>
          </Node>
        </Node>
      </Node>
    </BinaryTree>
    <BinaryTree type="DecisionTree" boostWeight="1.0000000000000000e+00" itree="723">
      <Node pos="s" depth="0" NCoef="0" IVar="10" Cut="-1.4665620326995850e+00" cType="1" res="-6.9873937172815204e-04" rms="2.8590196371078491e-01" purity="4.9550837278366089e-01" nType="0">
        <Node pos="l" depth="1" NCoef="0" IVar="11" Cut="-2.7240557670593262e+00" cType="1" res="1.0546585544943810e-02" rms="2.9029637575149536e-01" purity="3.3308598399162292e-01" nType="0">
          <Node pos="l" depth="2" NCoef="0" IVar="5" Cut="6.1951511383056641e+01" cType="1" res="1.3218059029895812e-04" rms="2.6113972067832947e-01" purity="1.3616713881492615e-01" nType="0">
            <Node pos="l" depth="3" NCoef="0" IVar="-1" Cut="0.0000000000000000e+00" cType="1" res="-2.0104741677641869e-02" rms="2.0382565259933472e-01" purity="6.7526020109653473e-02" nType="-99"/>
            <Node pos="r" depth="3" NCoef="0" IVar="-1" Cut="0.0000000000000000e+00" cType="1" res="1.2796050868928432e-02" rms="3.1413146853446960e-01" purity="2.1528764069080353e-01" nType="-99"/>
          </Node>
          <Node pos="r" depth="2" NCoef="0" IVar="-1" Cut="0.0000000000000000e+00" cType="1" res="2.4700066074728966e-02" rms="3.2687222957611084e-01" purity="6.1416125297546387e-01" nType="-99"/>
        </Node>
        <Node pos="r" depth="1" NCoef="0" IVar="11" Cut="3.1408092379570007e-01" cType="1" res="-2.1868795156478882e-03" rms="2.8528213500976562e-01" purity="5.1700240373611450e-01" nType="0">
          <Node pos="l" depth="2" NCoef="0" IVar="5" Cut="8.4274993896484375e+01" cType="1" res="7.5059406299260445e-06" rms="2.8712502121925354e-01" purity="4.5498859882354736e-01" nType="0">
            <Node pos="l" depth="3" NCoef="0" IVar="-1" Cut="0.0000000000000000e+00" cType="1" res="2.7458765543997288e-03" rms="2.9602420330047607e-01" purity="2.3655943572521210e-01" nType="-99"/>
            <Node pos="r" depth="3" NCoef="0" IVar="-1" Cut="0.0000000000000000e+00" cType="1" res="-4.5805335976183414e-03" rms="2.7326950430870056e-01" purity="7.8090929985046387e-01" nType="-99"/>
          </Node>
          <Node pos="r" depth="2" NCoef="0" IVar="0" Cut="1.7071086425781250e+03" cType="1" res="-1.0103297419846058e-02" rms="2.7838879823684692e-01" purity="7.4072211980819702e-01" nType="0">
            <Node pos="l" depth="3" NCoef="0" IVar="-1" Cut="0.0000000000000000e+00" cType="1" res="-1.6397926956415176e-02" rms="3.2791069149971008e-01" purity="5.6313461065292358e-01" nType="-99"/>
            <Node pos="r" depth="3" NCoef="0" IVar="-1" Cut="0.0000000000000000e+00" cType="1" res="-3.7427674978971481e-03" rms="2.1945154666900635e-01" purity="9.1343885660171509e-01" nType="-99"/>
          </Node>
        </Node>
      </Node>
    </BinaryTree>
    <BinaryTree type="DecisionTree" boostWeight="1.0000000000000000e+00" itree="724">
      <Node pos="s" depth="0" NCoef="0" IVar="7" Cut="-6.5603303909301758e-01" cType="1" res="5.3550219163298607e-03" rms="2.8414896130561829e-01" purity="5.0291752815246582e-01" nType="0">
        <Node pos="l" depth="1" NCoef="0" IVar="6" Cut="5.2873748779296875e+01" cType="1" res="-9.2500209575518966e-04" rms="2.7065923810005188e-01" purity="3.2229372859001160e-01" nType="0">
          <Node pos="l" depth="2" NCoef="0" IVar="7" Cut="-1.6687276363372803e+00" cType="1" res="6.2501667998731136e-03" rms="2.5404438376426697e-01" purity="1.3411225378513336e-01" nType="0">
            <Node pos="l" depth="3" NCoef="0" IVar="-1" Cut="0.0000000000000000e+00" cType="1" res="-7.0011034607887268e-02" rms="9.6379369497299194e-02" purity="9.1551691293716431e-03" nType="-99"/>
            <Node pos="r" depth="3" NCoef="0" IVar="-1" Cut="0.0000000000000000e+00" cType="1" res="1.5947852283716202e-02" rms="2.8482878208160400e-01" purity="1.7193646728992462e-01" nType="-99"/>
          </Node>
          <Node pos="r" depth="2" NCoef="0" IVar="0" Cut="1.6030383300781250e+03" cType="1" res="-1.1822096072137356e-02" rms="2.9376780986785889e-01" purity="6.0808926820755005e-01" nType="0">
            <Node pos="l" depth="3" NCoef="0" IVar="-1" Cut="0.0000000000000000e+00" cType="1" res="-2.3075973615050316e-02" rms="3.2733967900276184e-01" purity="3.6175519227981567e-01" nType="-99"/>
            <Node pos="r" depth="3" NCoef="0" IVar="-1" Cut="0.0000000000000000e+00" cType="1" res="1.0398386511951685e-03" rms="2.6031869649887085e-01" purity="8.2304859161376953e-01" nType="-99"/>
          </Node>
        </Node>
        <Node pos="r" depth="1" NCoef="0" IVar="7" Cut="4.9594393372535706e-01" cType="1" res="7.1535240858793259e-03" rms="2.8787055611610413e-01" purity="5.5464535951614380e-01" nType="0">
          <Node pos="l" depth="2" NCoef="0" IVar="5" Cut="7.0201675415039062e+01" cType="1" res="9.8860915750265121e-03" rms="2.9841756820678711e-01" purity="6.5183335542678833e-01" nType="0">
            <Node pos="l" depth="3" NCoef="0" IVar="-1" Cut="0.0000000000000000e+00" cType="1" res="2.0861160010099411e-02" rms="3.3740881085395813e-01" purity="3.2219532132148743e-01" nType="-99"/>
            <Node pos="r" depth="3" NCoef="0" IVar="-1" Cut="0.0000000000000000e+00" cType="1" res="4.0275356732308865e-03" rms="2.7669474482536316e-01" purity="8.1614339351654053e-01" nType="-99"/>
          </Node>
          <Node pos="r" depth="2" NCoef="0" IVar="0" Cut="1.3462150878906250e+03" cType="1" res="2.4518736172467470e-03" rms="2.6869133114814758e-01" purity="3.8742384314537048e-01" nType="0">
            <Node pos="l" depth="3" NCoef="0" IVar="-1" Cut="0.0000000000000000e+00" cType="1" res="-1.5611468814313412e-02" rms="2.3140965402126312e-01" purity="1.0476846992969513e-01" nType="-99"/>
            <Node pos="r" depth="3" NCoef="0" IVar="-1" Cut="0.0000000000000000e+00" cType="1" res="1.3759380206465721e-02" rms="2.9635617136955261e-01" purity="6.2792712450027466e-01" nType="-99"/>
          </Node>
        </Node>
      </Node>
    </BinaryTree>
    <BinaryTree type="DecisionTree" boostWeight="1.0000000000000000e+00" itree="725">
      <Node pos="s" depth="0" NCoef="0" IVar="8" Cut="-3.9984655380249023e-01" cType="1" res="4.8963358858600259e-04" rms="2.8613844513893127e-01" purity="4.9773827195167542e-01" nType="0">
        <Node pos="l" depth="1" NCoef="0" IVar="7" Cut="-6.2346667051315308e-01" cType="1" res="-6.4724348485469818e-03" rms="2.7789786458015442e-01" purity="4.2219471931457520e-01" nType="0">
          <Node pos="l" depth="2" NCoef="0" IVar="4" Cut="1.6549057006835938e+02" cType="1" res="3.0218462925404310e-03" rms="2.7025067806243896e-01" purity="3.2513535022735596e-01" nType="0">
            <Node pos="l" depth="3" NCoef="0" IVar="-1" Cut="0.0000000000000000e+00" cType="1" res="1.7755832523107529e-02" rms="2.6092791557312012e-01" purity="1.7806190252304077e-01" nType="-99"/>
            <Node pos="r" depth="3" NCoef="0" IVar="-1" Cut="0.0000000000000000e+00" cType="1" res="-1.7097499221563339e-02" rms="2.8741511702537537e-01" purity="6.2273985147476196e-01" nType="-99"/>
          </Node>
          <Node pos="r" depth="2" NCoef="0" IVar="10" Cut="-9.3305128812789917e-01" cType="1" res="-1.0277960449457169e-02" rms="2.8081449866294861e-01" purity="4.6109837293624878e-01" nType="0">
            <Node pos="l" depth="3" NCoef="0" IVar="-1" Cut="0.0000000000000000e+00" cType="1" res="-2.7744602411985397e-02" rms="2.6295492053031921e-01" purity="3.8157033920288086e-01" nType="-99"/>
            <Node pos="r" depth="3" NCoef="0" IVar="-1" Cut="0.0000000000000000e+00" cType="1" res="-7.3512736707925797e-03" rms="2.8652647137641907e-01" purity="4.8819440603256226e-01" nType="-99"/>
          </Node>
        </Node>
        <Node pos="r" depth="1" NCoef="0" IVar="7" Cut="-1.2505973875522614e-01" cType="1" res="4.0962933562695980e-03" rms="2.9024982452392578e-01" purity="5.3687310218811035e-01" nType="0">
          <Node pos="l" depth="2" NCoef="0" IVar="2" Cut="3.9954214477539062e+02" cType="1" res="1.0131859220564365e-02" rms="2.8915226459503174e-01" purity="5.1448947191238403e-01" nType="0">
            <Node pos="l" depth="3" NCoef="0" IVar="-1" Cut="0.0000000000000000e+00" cType="1" res="2.1729489788413048e-02" rms="2.8902938961982727e-01" purity="4.7797375917434692e-01" nType="-99"/>
            <Node pos="r" depth="3" NCoef="0" IVar="-1" Cut="0.0000000000000000e+00" cType="1" res="-2.4548454675823450e-03" rms="2.8893461823463440e-01" purity="5.7246738672256470e-01" nType="-99"/>
          </Node>
          <Node pos="r" depth="2" NCoef="0" IVar="10" Cut="1.7333592176437378e+00" cType="1" res="-2.3422048252541572e-04" rms="2.9095762968063354e-01" purity="5.5293333530426025e-01" nType="0">
            <Node pos="l" depth="3" NCoef="0" IVar="-1" Cut="0.0000000000000000e+00" cType="1" res="-3.0147996731102467e-03" rms="2.8970950841903687e-01" purity="5.7098603248596191e-01" nType="-99"/>
            <Node pos="r" depth="3" NCoef="0" IVar="-1" Cut="0.0000000000000000e+00" cType="1" res="2.6388078927993774e-02" rms="3.0259776115417480e-01" purity="3.6479401588439941e-01" nType="-99"/>
          </Node>
        </Node>
      </Node>
    </BinaryTree>
    <BinaryTree type="DecisionTree" boostWeight="1.0000000000000000e+00" itree="726">
      <Node pos="s" depth="0" NCoef="0" IVar="7" Cut="6.7149108648300171e-01" cType="1" res="1.7499797977507114e-03" rms="2.8465434908866882e-01" purity="5.0140684843063354e-01" nType="0">
        <Node pos="l" depth="1" NCoef="0" IVar="7" Cut="5.0699365139007568e-01" cType="1" res="-9.7129697678610682e-05" rms="2.8835502266883850e-01" purity="5.4973042011260986e-01" nType="0">
          <Node pos="l" depth="2" NCoef="0" IVar="5" Cut="9.0401306152343750e+01" cType="1" res="1.8166399095207453e-03" rms="2.8841799497604370e-01" purity="5.4765814542770386e-01" nType="0">
            <Node pos="l" depth="3" NCoef="0" IVar="-1" Cut="0.0000000000000000e+00" cType="1" res="5.4015303030610085e-03" rms="3.1193110346794128e-01" purity="3.3678054809570312e-01" nType="-99"/>
            <Node pos="r" depth="3" NCoef="0" IVar="-1" Cut="0.0000000000000000e+00" cType="1" res="-5.1447632722556591e-03" rms="2.5095033645629883e-01" purity="8.4889435768127441e-01" nType="-99"/>
          </Node>
          <Node pos="r" depth="2" NCoef="0" IVar="9" Cut="1.3471114635467529e-01" cType="1" res="-2.3911694064736366e-02" rms="2.8650304675102234e-01" purity="5.7551795244216919e-01" nType="0">
            <Node pos="l" depth="3" NCoef="0" IVar="-1" Cut="0.0000000000000000e+00" cType="1" res="-6.2349401414394379e-03" rms="2.7916637063026428e-01" purity="6.1662268638610840e-01" nType="-99"/>
            <Node pos="r" depth="3" NCoef="0" IVar="-1" Cut="0.0000000000000000e+00" cType="1" res="-4.6564761549234390e-02" rms="2.9322886466979980e-01" purity="5.2858471870422363e-01" nType="-99"/>
          </Node>
        </Node>
        <Node pos="r" depth="1" NCoef="0" IVar="10" Cut="6.6665077209472656e-01" cType="1" res="8.3458395674824715e-03" rms="2.7092477679252625e-01" purity="3.2884767651557922e-01" nType="0">
          <Node pos="l" depth="2" NCoef="0" IVar="11" Cut="-1.6191966533660889e+00" cType="1" res="1.4239121228456497e-02" rms="2.7348434925079346e-01" purity="3.6141374707221985e-01" nType="0">
            <Node pos="l" depth="3" NCoef="0" IVar="-1" Cut="0.0000000000000000e+00" cType="1" res="1.1158596724271774e-02" rms="2.4732194840908051e-01" purity="1.5048211812973022e-01" nType="-99"/>
            <Node pos="r" depth="3" NCoef="0" IVar="-1" Cut="0.0000000000000000e+00" cType="1" res="2.6259290054440498e-02" rms="3.0537903308868408e-01" purity="6.5012323856353760e-01" nType="-99"/>
          </Node>
          <Node pos="r" depth="2" NCoef="0" IVar="3" Cut="2.1476446533203125e+02" cType="1" res="-1.9049179973080754e-03" rms="2.6610329747200012e-01" purity="2.7220228314399719e-01" nType="0">
            <Node pos="l" depth="3" NCoef="0" IVar="-1" Cut="0.0000000000000000e+00" cType="1" res="-2.0568497478961945e-02" rms="2.3083223402500153e-01" purity="1.5082326531410217e-01" nType="-99"/>
            <Node pos="r" depth="3" NCoef="0" IVar="-1" Cut="0.0000000000000000e+00" cType="1" res="1.2570795603096485e-02" rms="3.0739399790763855e-01" purity="4.3865826725959778e-01" nType="-99"/>
          </Node>
        </Node>
      </Node>
    </BinaryTree>
    <BinaryTree type="DecisionTree" boostWeight="1.0000000000000000e+00" itree="727">
      <Node pos="s" depth="0" NCoef="0" IVar="11" Cut="1.6950782537460327e+00" cType="1" res="-1.3935839524492621e-03" rms="2.8620198369026184e-01" purity="4.9633461236953735e-01" nType="0">
        <Node pos="l" depth="1" NCoef="0" IVar="11" Cut="8.0069106817245483e-01" cType="1" res="-2.3111484479159117e-03" rms="2.8473740816116333e-01" purity="4.9174326658248901e-01" nType="0">
          <Node pos="l" depth="2" NCoef="0" IVar="4" Cut="1.9266189575195312e+02" cType="1" res="-5.4825324332341552e-04" rms="2.8534457087516785e-01" purity="4.6541827917098999e-01" nType="0">
            <Node pos="l" depth="3" NCoef="0" IVar="-1" Cut="0.0000000000000000e+00" cType="1" res="2.4211336858570576e-03" rms="2.9151389002799988e-01" purity="3.3806979656219482e-01" nType="-99"/>
            <Node pos="r" depth="3" NCoef="0" IVar="-1" Cut="0.0000000000000000e+00" cType="1" res="-9.6161803230643272e-03" rms="2.6922193169593811e-01" purity="7.8322893381118774e-01" nType="-99"/>
          </Node>
          <Node pos="r" depth="2" NCoef="0" IVar="0" Cut="1.7712252197265625e+03" cType="1" res="-1.9009741023182869e-02" rms="2.7836757898330688e-01" purity="7.4109989404678345e-01" nType="0">
            <Node pos="l" depth="3" NCoef="0" IVar="-1" Cut="0.0000000000000000e+00" cType="1" res="-2.8326172381639481e-02" rms="3.2297626137733459e-01" purity="5.9266656637191772e-01" nType="-99"/>
            <Node pos="r" depth="3" NCoef="0" IVar="-1" Cut="0.0000000000000000e+00" cType="1" res="-1.0662206448614597e-02" rms="2.1100908517837524e-01" purity="9.2137306928634644e-01" nType="-99"/>
          </Node>
        </Node>
        <Node pos="r" depth="1" NCoef="0" IVar="-1" Cut="0.0000000000000000e+00" cType="1" res="1.9025703892111778e-02" rms="3.1867516040802002e-01" purity="6.0698425769805908e-01" nType="-99"/>
      </Node>
    </BinaryTree>
    <BinaryTree type="DecisionTree" boostWeight="1.0000000000000000e+00" itree="728">
      <Node pos="s" depth="0" NCoef="0" IVar="5" Cut="9.0401367187500000e+01" cType="1" res="-1.0678423859644681e-04" rms="2.8297111392021179e-01" purity="5.0080651044845581e-01" nType="0">
        <Node pos="l" depth="1" NCoef="0" IVar="5" Cut="7.8858093261718750e+01" cType="1" res="-3.7592700682580471e-03" rms="2.9803285002708435e-01" purity="2.8415626287460327e-01" nType="0">
          <Node pos="l" depth="2" NCoef="0" IVar="0" Cut="1.6622463378906250e+03" cType="1" res="-1.2865166645497084e-03" rms="2.9043811559677124e-01" purity="2.3032401502132416e-01" nType="0">
            <Node pos="l" depth="3" NCoef="0" IVar="-1" Cut="0.0000000000000000e+00" cType="1" res="1.2989427195861936e-03" rms="2.7957341074943542e-01" purity="1.7517736554145813e-01" nType="-99"/>
            <Node pos="r" depth="3" NCoef="0" IVar="-1" Cut="0.0000000000000000e+00" cType="1" res="-1.2993645854294300e-02" rms="3.4844624996185303e-01" purity="5.6237727403640747e-01" nType="-99"/>
          </Node>
          <Node pos="r" depth="2" NCoef="0" IVar="7" Cut="-1.0628543794155121e-01" cType="1" res="-1.5112327411770821e-02" rms="3.3043339848518372e-01" purity="5.3131425380706787e-01" nType="0">
            <Node pos="l" depth="3" NCoef="0" IVar="-1" Cut="0.0000000000000000e+00" cType="1" res="-2.7545180637389421e-04" rms="3.3426833152770996e-01" purity="5.1180505752563477e-01" nType="-99"/>
            <Node pos="r" depth="3" NCoef="0" IVar="-1" Cut="0.0000000000000000e+00" cType="1" res="-2.4829890578985214e-02" rms="3.2653856277465820e-01" purity="5.4819154739379883e-01" nType="-99"/>
          </Node>
        </Node>
        <Node pos="r" depth="1" NCoef="0" IVar="9" Cut="9.3421751260757446e-01" cType="1" res="5.3803822956979275e-03" rms="2.5860375165939331e-01" purity="8.2628232240676880e-01" nType="0">
          <Node pos="l" depth="2" NCoef="0" IVar="5" Cut="1.0867927551269531e+02" cType="1" res="2.8326888568699360e-03" rms="2.5221869349479675e-01" purity="8.4174615144729614e-01" nType="0">
            <Node pos="l" depth="3" NCoef="0" IVar="-1" Cut="0.0000000000000000e+00" cType="1" res="1.1158650740981102e-02" rms="3.0547893047332764e-01" purity="7.3577171564102173e-01" nType="-99"/>
            <Node pos="r" depth="3" NCoef="0" IVar="-1" Cut="0.0000000000000000e+00" cType="1" res="-2.1110260859131813e-03" rms="2.2294135391712189e-01" purity="8.9120638370513916e-01" nType="-99"/>
          </Node>
          <Node pos="r" depth="2" NCoef="0" IVar="-1" Cut="0.0000000000000000e+00" cType="1" res="2.2270977497100830e-02" rms="2.9341080784797668e-01" purity="7.3390370607376099e-01" nType="-99"/>
        </Node>
      </Node>
    </BinaryTree>
    <BinaryTree type="DecisionTree" boostWeight="1.0000000000000000e+00" itree="729">
      <Node pos="s" depth="0" NCoef="0" IVar="10" Cut="-1.7333725690841675e+00" cType="1" res="-2.0301325712352991e-03" rms="2.8320163488388062e-01" purity="4.9863153696060181e-01" nType="0">
        <Node pos="l" depth="1" NCoef="0" IVar="5" Cut="6.7264091491699219e+01" cType="1" res="-1.3736651279032230e-02" rms="2.6782226562500000e-01" purity="2.6078087091445923e-01" nType="0">
          <Node pos="l" depth="2" NCoef="0" IVar="-1" Cut="0.0000000000000000e+00" cType="1" res="-5.1397867500782013e-03" rms="2.3010878264904022e-01" purity="1.0061462968587875e-01" nType="-99"/>
          <Node pos="r" depth="2" NCoef="0" IVar="-1" Cut="0.0000000000000000e+00" cType="1" res="-2.7444116771221161e-02" rms="3.0382183194160461e-01" purity="4.3857890367507935e-01" nType="-99"/>
        </Node>
        <Node pos="r" depth="1" NCoef="0" IVar="11" Cut="8.6663055419921875e-01" cType="1" res="-1.0260993149131536e-03" rms="2.8445953130722046e-01" purity="5.1903128623962402e-01" nType="0">
          <Node pos="l" depth="2" NCoef="0" IVar="9" Cut="6.6657578945159912e-01" cType="1" res="-2.3261564783751965e-03" rms="2.8308334946632385e-01" purity="4.8880192637443542e-01" nType="0">
            <Node pos="l" depth="3" NCoef="0" IVar="-1" Cut="0.0000000000000000e+00" cType="1" res="-5.2458088612183928e-04" rms="2.8518986701965332e-01" purity="5.2968329191207886e-01" nType="-99"/>
            <Node pos="r" depth="3" NCoef="0" IVar="-1" Cut="0.0000000000000000e+00" cType="1" res="-9.2170592397451401e-03" rms="2.7710700035095215e-01" purity="3.7573561072349548e-01" nType="-99"/>
          </Node>
          <Node pos="r" depth="2" NCoef="0" IVar="3" Cut="2.7314285278320312e+02" cType="1" res="7.8808963298797607e-03" rms="2.9355978965759277e-01" purity="7.2613966464996338e-01" nType="0">
            <Node pos="l" depth="3" NCoef="0" IVar="-1" Cut="0.0000000000000000e+00" cType="1" res="1.5832701697945595e-02" rms="3.1262940168380737e-01" purity="6.6338443756103516e-01" nType="-99"/>
            <Node pos="r" depth="3" NCoef="0" IVar="-1" Cut="0.0000000000000000e+00" cType="1" res="-1.1309359222650528e-02" rms="2.5423780083656311e-01" purity="8.4113311767578125e-01" nType="-99"/>
          </Node>
        </Node>
      </Node>
    </BinaryTree>
    <BinaryTree type="DecisionTree" boostWeight="1.0000000000000000e+00" itree="730">
      <Node pos="s" depth="0" NCoef="0" IVar="8" Cut="1.1998727321624756e+00" cType="1" res="-2.7357065118849277e-03" rms="2.8485131263732910e-01" purity="4.9553900957107544e-01" nType="0">
        <Node pos="l" depth="1" NCoef="0" IVar="7" Cut="4.1473031044006348e-01" cType="1" res="-3.9060236886143684e-03" rms="2.8838869929313660e-01" purity="5.3230875730514526e-01" nType="0">
          <Node pos="l" depth="2" NCoef="0" IVar="2" Cut="5.7749218750000000e+02" cType="1" res="-6.9306651130318642e-03" rms="2.9015251994132996e-01" purity="5.7281482219696045e-01" nType="0">
            <Node pos="l" depth="3" NCoef="0" IVar="-1" Cut="0.0000000000000000e+00" cType="1" res="-1.0812498629093170e-02" rms="2.8689369559288025e-01" purity="5.6120014190673828e-01" nType="-99"/>
            <Node pos="r" depth="3" NCoef="0" IVar="-1" Cut="0.0000000000000000e+00" cType="1" res="9.6477577462792397e-03" rms="3.1298306584358215e-01" purity="6.5972816944122314e-01" nType="-99"/>
          </Node>
          <Node pos="r" depth="2" NCoef="0" IVar="2" Cut="5.3964050292968750e+02" cType="1" res="3.0146525241434574e-03" rms="2.8419068455696106e-01" purity="4.3962678313255310e-01" nType="0">
            <Node pos="l" depth="3" NCoef="0" IVar="-1" Cut="0.0000000000000000e+00" cType="1" res="7.5661009177565575e-03" rms="2.8214651346206665e-01" purity="4.3387046456336975e-01" nType="-99"/>
            <Node pos="r" depth="3" NCoef="0" IVar="-1" Cut="0.0000000000000000e+00" cType="1" res="-2.1545356139540672e-02" rms="2.9709157347679138e-01" purity="4.7950732707977295e-01" nType="-99"/>
          </Node>
        </Node>
        <Node pos="r" depth="1" NCoef="0" IVar="9" Cut="6.6705441474914551e-01" cType="1" res="5.9568402357399464e-03" rms="2.5689142942428589e-01" purity="2.2243151068687439e-01" nType="0">
          <Node pos="l" depth="2" NCoef="0" IVar="8" Cut="1.5806959867477417e+00" cType="1" res="-3.3813687041401863e-03" rms="2.4599726498126984e-01" purity="2.4005892872810364e-01" nType="0">
            <Node pos="l" depth="3" NCoef="0" IVar="-1" Cut="0.0000000000000000e+00" cType="1" res="1.1341536417603493e-02" rms="3.0201303958892822e-01" purity="3.8193506002426147e-01" nType="-99"/>
            <Node pos="r" depth="3" NCoef="0" IVar="-1" Cut="0.0000000000000000e+00" cType="1" res="-3.1966343522071838e-02" rms="1.8443697690963745e-01" purity="1.1895845830440521e-01" nType="-99"/>
          </Node>
          <Node pos="r" depth="2" NCoef="0" IVar="-1" Cut="0.0000000000000000e+00" cType="1" res="3.4751556813716888e-02" rms="2.7476400136947632e-01" purity="1.9042377173900604e-01" nType="-99"/>
        </Node>
      </Node>
    </BinaryTree>
    <BinaryTree type="DecisionTree" boostWeight="1.0000000000000000e+00" itree="731">
      <Node pos="s" depth="0" NCoef="0" IVar="1" Cut="4.3801289051771164e-02" cType="1" res="9.9256576504558325e-04" rms="2.8537413477897644e-01" purity="5.0339180231094360e-01" nType="0">
        <Node pos="l" depth="1" NCoef="0" IVar="11" Cut="8.6624926328659058e-01" cType="1" res="-3.5631279461085796e-03" rms="2.6485866308212280e-01" purity="2.1122106909751892e-01" nType="0">
          <Node pos="l" depth="2" NCoef="0" IVar="7" Cut="1.4952087402343750e-01" cType="1" res="-2.0972248166799545e-03" rms="2.5961723923683167e-01" purity="1.9776849448680878e-01" nType="0">
            <Node pos="l" depth="3" NCoef="0" IVar="-1" Cut="0.0000000000000000e+00" cType="1" res="-1.0045557282865047e-02" rms="2.5930079817771912e-01" purity="2.0978131890296936e-01" nType="-99"/>
            <Node pos="r" depth="3" NCoef="0" IVar="-1" Cut="0.0000000000000000e+00" cType="1" res="6.2466827221214771e-03" rms="2.5986596941947937e-01" purity="1.8301314115524292e-01" nType="-99"/>
          </Node>
          <Node pos="r" depth="2" NCoef="0" IVar="-1" Cut="0.0000000000000000e+00" cType="1" res="-1.8955605104565620e-02" rms="3.1813338398933411e-01" purity="3.6469963192939758e-01" nType="-99"/>
        </Node>
        <Node pos="r" depth="1" NCoef="0" IVar="0" Cut="1.3324686279296875e+03" cType="1" res="4.3481793254613876e-03" rms="2.9954385757446289e-01" purity="7.1859776973724365e-01" nType="0">
          <Node pos="l" depth="2" NCoef="0" IVar="2" Cut="2.5554765319824219e+02" cType="1" res="1.6545413061976433e-02" rms="3.6689409613609314e-01" purity="3.1991517543792725e-01" nType="0">
            <Node pos="l" depth="3" NCoef="0" IVar="-1" Cut="0.0000000000000000e+00" cType="1" res="-5.2139809122309089e-04" rms="3.5988652706146240e-01" purity="3.4326025843620300e-01" nType="-99"/>
            <Node pos="r" depth="3" NCoef="0" IVar="-1" Cut="0.0000000000000000e+00" cType="1" res="2.2829120978713036e-02" rms="3.7190413475036621e-01" purity="3.0094093084335327e-01" nType="-99"/>
          </Node>
          <Node pos="r" depth="2" NCoef="0" IVar="3" Cut="2.5766421508789062e+02" cType="1" res="1.6803160178824328e-05" rms="2.7150660753250122e-01" purity="8.6017441749572754e-01" nType="0">
            <Node pos="l" depth="3" NCoef="0" IVar="-1" Cut="0.0000000000000000e+00" cType="1" res="-7.0002637803554535e-03" rms="2.7544426918029785e-01" purity="8.5275667905807495e-01" nType="-99"/>
            <Node pos="r" depth="3" NCoef="0" IVar="-1" Cut="0.0000000000000000e+00" cType="1" res="6.4460802823305130e-03" rms="2.6799681782722473e-01" purity="8.6653822660446167e-01" nType="-99"/>
          </Node>
        </Node>
      </Node>
    </BinaryTree>
    <BinaryTree type="DecisionTree" boostWeight="1.0000000000000000e+00" itree="732">
      <Node pos="s" depth="0" NCoef="0" IVar="10" Cut="-1.7333137989044189e+00" cType="1" res="6.0228921938687563e-04" rms="2.8356987237930298e-01" purity="4.9682623147964478e-01" nType="0">
        <Node pos="l" depth="1" NCoef="0" IVar="10" Cut="-2.0380716323852539e+00" cType="1" res="-1.2144496664404869e-02" rms="2.5699016451835632e-01" purity="2.7323883771896362e-01" nType="0">
          <Node pos="l" depth="2" NCoef="0" IVar="-1" Cut="0.0000000000000000e+00" cType="1" res="-6.8601863458752632e-03" rms="2.5369423627853394e-01" purity="2.3662036657333374e-01" nType="-99"/>
          <Node pos="r" depth="2" NCoef="0" IVar="-1" Cut="0.0000000000000000e+00" cType="1" res="-2.7151370421051979e-02" rms="2.6126438379287720e-01" purity="3.2537087798118591e-01" nType="-99"/>
        </Node>
        <Node pos="r" depth="1" NCoef="0" IVar="7" Cut="4.0565305948257446e-01" cType="1" res="1.6752969240769744e-03" rms="2.8566852211952209e-01" purity="5.1564753055572510e-01" nType="0">
          <Node pos="l" depth="2" NCoef="0" IVar="7" Cut="2.5381264090538025e-01" cType="1" res="-7.2706793434917927e-04" rms="2.8698962926864624e-01" purity="5.5663001537322998e-01" nType="0">
            <Node pos="l" depth="3" NCoef="0" IVar="-1" Cut="0.0000000000000000e+00" cType="1" res="7.9598353477194905e-04" rms="2.8546988964080811e-01" purity="5.4847288131713867e-01" nType="-99"/>
            <Node pos="r" depth="3" NCoef="0" IVar="-1" Cut="0.0000000000000000e+00" cType="1" res="-1.4705759473145008e-02" rms="3.0051830410957336e-01" purity="6.3293170928955078e-01" nType="-99"/>
          </Node>
          <Node pos="r" depth="2" NCoef="0" IVar="4" Cut="1.4544813537597656e+02" cType="1" res="6.8782996386289597e-03" rms="2.8271621465682983e-01" purity="4.2688840627670288e-01" nType="0">
            <Node pos="l" depth="3" NCoef="0" IVar="-1" Cut="0.0000000000000000e+00" cType="1" res="2.1187108010053635e-02" rms="2.6845890283584595e-01" purity="2.0005609095096588e-01" nType="-99"/>
            <Node pos="r" depth="3" NCoef="0" IVar="-1" Cut="0.0000000000000000e+00" cType="1" res="-7.7183637768030167e-04" rms="2.9539716243743896e-01" purity="6.4190989732742310e-01" nType="-99"/>
          </Node>
        </Node>
      </Node>
    </BinaryTree>
    <BinaryTree type="DecisionTree" boostWeight="1.0000000000000000e+00" itree="733">
      <Node pos="s" depth="0" NCoef="0" IVar="0" Cut="1.9496573486328125e+03" cType="1" res="4.2278352193534374e-03" rms="2.8662851452827454e-01" purity="5.0188124179840088e-01" nType="0">
        <Node pos="l" depth="1" NCoef="0" IVar="2" Cut="3.2623779296875000e+02" cType="1" res="6.4732371829450130e-03" rms="2.9918178915977478e-01" purity="4.0313127636909485e-01" nType="0">
          <Node pos="l" depth="2" NCoef="0" IVar="9" Cut="1.1990612745285034e+00" cType="1" res="1.7266526119783521e-03" rms="2.9087907075881958e-01" purity="3.9564812183380127e-01" nType="0">
            <Node pos="l" depth="3" NCoef="0" IVar="-1" Cut="0.0000000000000000e+00" cType="1" res="4.6029533259570599e-03" rms="2.9663255810737610e-01" purity="4.2840129137039185e-01" nType="-99"/>
            <Node pos="r" depth="3" NCoef="0" IVar="-1" Cut="0.0000000000000000e+00" cType="1" res="-1.6671391203999519e-02" rms="2.5384348630905151e-01" purity="2.0227771997451782e-01" nType="-99"/>
          </Node>
          <Node pos="r" depth="2" NCoef="0" IVar="3" Cut="1.6887969970703125e+02" cType="1" res="1.1449564248323441e-02" rms="3.0756723880767822e-01" purity="4.1097661852836609e-01" nType="0">
            <Node pos="l" depth="3" NCoef="0" IVar="-1" Cut="0.0000000000000000e+00" cType="1" res="-2.8646627906709909e-03" rms="2.4923276901245117e-01" purity="1.6493155062198639e-01" nType="-99"/>
            <Node pos="r" depth="3" NCoef="0" IVar="-1" Cut="0.0000000000000000e+00" cType="1" res="1.4678196981549263e-02" rms="3.2429981231689453e-01" purity="4.9165856838226318e-01" nType="-99"/>
          </Node>
        </Node>
        <Node pos="r" depth="1" NCoef="0" IVar="10" Cut="-9.3311256170272827e-01" cType="1" res="-4.5880181714892387e-03" rms="2.3062068223953247e-01" purity="8.8959139585494995e-01" nType="0">
          <Node pos="l" depth="2" NCoef="0" IVar="-1" Cut="0.0000000000000000e+00" cType="1" res="1.5759328380227089e-02" rms="2.4783866107463837e-01" purity="8.6221212148666382e-01" nType="-99"/>
          <Node pos="r" depth="2" NCoef="0" IVar="6" Cut="7.8976905822753906e+01" cType="1" res="-7.9549578949809074e-03" rms="2.2618131339550018e-01" purity="8.9613580703735352e-01" nType="0">
            <Node pos="l" depth="3" NCoef="0" IVar="-1" Cut="0.0000000000000000e+00" cType="1" res="-2.3212680593132973e-02" rms="2.9933980107307434e-01" purity="7.9431611299514771e-01" nType="-99"/>
            <Node pos="r" depth="3" NCoef="0" IVar="-1" Cut="0.0000000000000000e+00" cType="1" res="-6.5578271460253745e-05" rms="1.5357157588005066e-01" purity="9.6876007318496704e-01" nType="-99"/>
          </Node>
        </Node>
      </Node>
    </BinaryTree>
    <BinaryTree type="DecisionTree" boostWeight="1.0000000000000000e+00" itree="734">
      <Node pos="s" depth="0" NCoef="0" IVar="4" Cut="1.9288612365722656e+02" cType="1" res="5.9512857114896178e-04" rms="2.8422349691390991e-01" purity="5.0048923492431641e-01" nType="0">
        <Node pos="l" depth="1" NCoef="0" IVar="9" Cut="-1.9990226030349731e+00" cType="1" res="-1.2968737864866853e-03" rms="2.9136827588081360e-01" purity="3.6398017406463623e-01" nType="0">
          <Node pos="l" depth="2" NCoef="0" IVar="-1" Cut="0.0000000000000000e+00" cType="1" res="3.5450439900159836e-02" rms="2.2589135169982910e-01" purity="1.0695946216583252e-01" nType="-99"/>
          <Node pos="r" depth="2" NCoef="0" IVar="5" Cut="1.0226903533935547e+02" cType="1" res="-2.1486028563231230e-03" rms="2.9412969946861267e-01" purity="3.7636950612068176e-01" nType="0">
            <Node pos="l" depth="3" NCoef="0" IVar="-1" Cut="0.0000000000000000e+00" cType="1" res="-4.3721860274672508e-03" rms="2.9949969053268433e-01" purity="2.8094699978828430e-01" nType="-99"/>
            <Node pos="r" depth="3" NCoef="0" IVar="-1" Cut="0.0000000000000000e+00" cType="1" res="8.4352428093552589e-03" rms="2.6791700720787048e-01" purity="8.1464421749114990e-01" nType="-99"/>
          </Node>
        </Node>
        <Node pos="r" depth="1" NCoef="0" IVar="1" Cut="6.3641265034675598e-02" cType="1" res="4.8331259749829769e-03" rms="2.6747944951057434e-01" purity="8.0626314878463745e-01" nType="0">
          <Node pos="l" depth="2" NCoef="0" IVar="9" Cut="-6.6600644588470459e-01" cType="1" res="1.5907803550362587e-02" rms="3.2368025183677673e-01" purity="6.2181752920150757e-01" nType="0">
            <Node pos="l" depth="3" NCoef="0" IVar="-1" Cut="0.0000000000000000e+00" cType="1" res="-1.0542927309870720e-02" rms="3.0778867006301880e-01" purity="5.0614851713180542e-01" nType="-99"/>
            <Node pos="r" depth="3" NCoef="0" IVar="-1" Cut="0.0000000000000000e+00" cType="1" res="2.2104270756244659e-02" rms="3.2802397012710571e-01" purity="6.5791875123977661e-01" nType="-99"/>
          </Node>
          <Node pos="r" depth="2" NCoef="0" IVar="1" Cut="9.9990017712116241e-02" cType="1" res="-1.6152427997440100e-03" rms="2.2822660207748413e-01" purity="9.1365891695022583e-01" nType="0">
            <Node pos="l" depth="3" NCoef="0" IVar="-1" Cut="0.0000000000000000e+00" cType="1" res="-1.7997013404965401e-02" rms="2.7946633100509644e-01" purity="8.4263741970062256e-01" nType="-99"/>
            <Node pos="r" depth="3" NCoef="0" IVar="-1" Cut="0.0000000000000000e+00" cType="1" res="7.2929626330733299e-03" rms="2.0455807447433472e-01" purity="9.4140231609344482e-01" nType="-99"/>
          </Node>
        </Node>
      </Node>
    </BinaryTree>
    <BinaryTree type="DecisionTree" boostWeight="1.0000000000000000e+00" itree="735">
      <Node pos="s" depth="0" NCoef="0" IVar="7" Cut="-1.2477795034646988e-01" cType="1" res="-3.3246134407818317e-03" rms="2.8171476721763611e-01" purity="4.9859002232551575e-01" nType="0">
        <Node pos="l" depth="1" NCoef="0" IVar="8" Cut="-1.3296584784984589e-01" cType="1" res="-8.1999497488141060e-03" rms="2.7823719382286072e-01" purity="4.7154009342193604e-01" nType="0">
          <Node pos="l" depth="2" NCoef="0" IVar="9" Cut="-6.6678059101104736e-01" cType="1" res="-1.3996323570609093e-02" rms="2.7835518121719360e-01" purity="4.5785453915596008e-01" nType="0">
            <Node pos="l" depth="3" NCoef="0" IVar="-1" Cut="0.0000000000000000e+00" cType="1" res="-2.9781781136989594e-02" rms="2.7108618617057800e-01" purity="3.8281604647636414e-01" nType="-99"/>
            <Node pos="r" depth="3" NCoef="0" IVar="-1" Cut="0.0000000000000000e+00" cType="1" res="-9.9179027602076530e-03" rms="2.8188839554786682e-01" purity="4.9703612923622131e-01" nType="-99"/>
          </Node>
          <Node pos="r" depth="2" NCoef="0" IVar="1" Cut="3.8913019001483917e-02" cType="1" res="-2.9814783483743668e-03" rms="2.7802756428718567e-01" purity="4.8386126756668091e-01" nType="0">
            <Node pos="l" depth="3" NCoef="0" IVar="-1" Cut="0.0000000000000000e+00" cType="1" res="1.1040923185646534e-02" rms="2.5468295812606812e-01" purity="1.9143757224082947e-01" nType="-99"/>
            <Node pos="r" depth="3" NCoef="0" IVar="-1" Cut="0.0000000000000000e+00" cType="1" res="-1.1078269220888615e-02" rms="2.9239732027053833e-01" purity="6.7930811643600464e-01" nType="-99"/>
          </Node>
        </Node>
        <Node pos="r" depth="1" NCoef="0" IVar="7" Cut="2.9290038347244263e-01" cType="1" res="5.7662773178890347e-04" rms="2.8440669178962708e-01" purity="5.2023530006408691e-01" nType="0">
          <Node pos="l" depth="2" NCoef="0" IVar="0" Cut="1.3749869384765625e+03" cType="1" res="6.9553731009364128e-03" rms="2.9661110043525696e-01" purity="6.7964971065521240e-01" nType="0">
            <Node pos="l" depth="3" NCoef="0" IVar="-1" Cut="0.0000000000000000e+00" cType="1" res="2.1379278972744942e-02" rms="3.5105961561203003e-01" purity="3.2714283466339111e-01" nType="-99"/>
            <Node pos="r" depth="3" NCoef="0" IVar="-1" Cut="0.0000000000000000e+00" cType="1" res="-1.5972557011991739e-03" rms="2.6870498061180115e-01" purity="8.3518344163894653e-01" nType="-99"/>
          </Node>
          <Node pos="r" depth="2" NCoef="0" IVar="6" Cut="5.1628398895263672e+01" cType="1" res="-2.7045675087720156e-03" rms="2.7786311507225037e-01" purity="4.3823334574699402e-01" nType="0">
            <Node pos="l" depth="3" NCoef="0" IVar="-1" Cut="0.0000000000000000e+00" cType="1" res="5.3928149864077568e-03" rms="2.7307251095771790e-01" purity="1.9633115828037262e-01" nType="-99"/>
            <Node pos="r" depth="3" NCoef="0" IVar="-1" Cut="0.0000000000000000e+00" cType="1" res="-1.2372442521154881e-02" rms="2.8300401568412781e-01" purity="7.1288150548934937e-01" nType="-99"/>
          </Node>
        </Node>
      </Node>
    </BinaryTree>
    <BinaryTree type="DecisionTree" boostWeight="1.0000000000000000e+00" itree="736">
      <Node pos="s" depth="0" NCoef="0" IVar="8" Cut="-9.3302583694458008e-01" cType="1" res="4.5116650289855897e-04" rms="2.8109210729598999e-01" purity="4.9900689721107483e-01" nType="0">
        <Node pos="l" depth="1" NCoef="0" IVar="8" Cut="-1.1108686923980713e+00" cType="1" res="9.0323537588119507e-03" rms="2.6712352037429810e-01" purity="2.9018515348434448e-01" nType="0">
          <Node pos="l" depth="2" NCoef="0" IVar="11" Cut="-2.1723194122314453e+00" cType="1" res="1.1838730424642563e-03" rms="2.5168213248252869e-01" purity="2.2464232146739960e-01" nType="0">
            <Node pos="l" depth="3" NCoef="0" IVar="-1" Cut="0.0000000000000000e+00" cType="1" res="-1.2107682414352894e-02" rms="2.0074935257434845e-01" purity="7.3449701070785522e-02" nType="-99"/>
            <Node pos="r" depth="3" NCoef="0" IVar="-1" Cut="0.0000000000000000e+00" cType="1" res="1.1785680428147316e-02" rms="3.1915202736854553e-01" purity="4.7863262891769409e-01" nType="-99"/>
          </Node>
          <Node pos="r" depth="2" NCoef="0" IVar="-1" Cut="0.0000000000000000e+00" cType="1" res="3.6147739738225937e-02" rms="3.0990383028984070e-01" purity="4.9886241555213928e-01" nType="-99"/>
        </Node>
        <Node pos="r" depth="1" NCoef="0" IVar="10" Cut="-1.2000746726989746e+00" cType="1" res="-1.3558584032580256e-03" rms="2.8391298651695251e-01" purity="5.4298055171966553e-01" nType="0">
          <Node pos="l" depth="2" NCoef="0" IVar="1" Cut="5.8109976351261139e-02" cType="1" res="-1.2083638459444046e-02" rms="2.8129541873931885e-01" purity="4.1318872570991516e-01" nType="0">
            <Node pos="l" depth="3" NCoef="0" IVar="-1" Cut="0.0000000000000000e+00" cType="1" res="-7.8272557584568858e-04" rms="2.5870099663734436e-01" purity="2.0424591004848480e-01" nType="-99"/>
            <Node pos="r" depth="3" NCoef="0" IVar="-1" Cut="0.0000000000000000e+00" cType="1" res="-2.5044444948434830e-02" rms="3.0539274215698242e-01" purity="6.6119575500488281e-01" nType="-99"/>
          </Node>
          <Node pos="r" depth="2" NCoef="0" IVar="10" Cut="-1.0095753669738770e+00" cType="1" res="5.3600571118295193e-04" rms="2.8433009982109070e-01" purity="5.6586956977844238e-01" nType="0">
            <Node pos="l" depth="3" NCoef="0" IVar="-1" Cut="0.0000000000000000e+00" cType="1" res="2.4968033656477928e-02" rms="3.0274778604507446e-01" purity="5.6806534528732300e-01" nType="-99"/>
            <Node pos="r" depth="3" NCoef="0" IVar="-1" Cut="0.0000000000000000e+00" cType="1" res="-6.6360173514112830e-04" rms="2.8328421711921692e-01" purity="5.6575387716293335e-01" nType="-99"/>
          </Node>
        </Node>
      </Node>
    </BinaryTree>
    <BinaryTree type="DecisionTree" boostWeight="1.0000000000000000e+00" itree="737">
      <Node pos="s" depth="0" NCoef="0" IVar="3" Cut="3.0714752197265625e+02" cType="1" res="3.7526697269640863e-04" rms="2.8577789664268494e-01" purity="4.9870955944061279e-01" nType="0">
        <Node pos="l" depth="1" NCoef="0" IVar="2" Cut="4.5166296386718750e+02" cType="1" res="2.3242558818310499e-03" rms="2.8729799389839172e-01" purity="4.3865051865577698e-01" nType="0">
          <Node pos="l" depth="2" NCoef="0" IVar="9" Cut="-6.6653764247894287e-01" cType="1" res="-5.3544499678537250e-05" rms="2.8454875946044922e-01" purity="4.3240892887115479e-01" nType="0">
            <Node pos="l" depth="3" NCoef="0" IVar="-1" Cut="0.0000000000000000e+00" cType="1" res="9.6397222951054573e-03" rms="2.8808793425559998e-01" purity="3.6557832360267639e-01" nType="-99"/>
            <Node pos="r" depth="3" NCoef="0" IVar="-1" Cut="0.0000000000000000e+00" cType="1" res="-3.8278792053461075e-03" rms="2.8307235240936279e-01" purity="4.5889797806739807e-01" nType="-99"/>
          </Node>
          <Node pos="r" depth="2" NCoef="0" IVar="5" Cut="8.2294044494628906e+01" cType="1" res="1.3410757295787334e-02" rms="2.9953458905220032e-01" purity="4.6775197982788086e-01" nType="0">
            <Node pos="l" depth="3" NCoef="0" IVar="-1" Cut="0.0000000000000000e+00" cType="1" res="3.6178149748593569e-03" rms="3.0498746037483215e-01" purity="2.3321200907230377e-01" nType="-99"/>
            <Node pos="r" depth="3" NCoef="0" IVar="-1" Cut="0.0000000000000000e+00" cType="1" res="2.8728812932968140e-02" rms="2.9214084148406982e-01" purity="7.5901454687118530e-01" nType="-99"/>
          </Node>
        </Node>
        <Node pos="r" depth="1" NCoef="0" IVar="1" Cut="1.1728795617818832e-01" cType="1" res="-7.0071858353912830e-03" rms="2.7982211112976074e-01" purity="7.2620326280593872e-01" nType="0">
          <Node pos="l" depth="2" NCoef="0" IVar="0" Cut="1.6611760253906250e+03" cType="1" res="-1.1848761700093746e-02" rms="3.0523896217346191e-01" purity="6.3598155975341797e-01" nType="0">
            <Node pos="l" depth="3" NCoef="0" IVar="-1" Cut="0.0000000000000000e+00" cType="1" res="7.0282421074807644e-03" rms="3.2451367378234863e-01" purity="2.4361713230609894e-01" nType="-99"/>
            <Node pos="r" depth="3" NCoef="0" IVar="-1" Cut="0.0000000000000000e+00" cType="1" res="-1.8488476052880287e-02" rms="3.0014476180076599e-01" purity="7.3194503784179688e-01" nType="-99"/>
          </Node>
          <Node pos="r" depth="2" NCoef="0" IVar="-1" Cut="0.0000000000000000e+00" cType="1" res="9.1051096096634865e-03" rms="2.0872779190540314e-01" purity="9.3583762645721436e-01" nType="-99"/>
        </Node>
      </Node>
    </BinaryTree>
    <BinaryTree type="DecisionTree" boostWeight="1.0000000000000000e+00" itree="738">
      <Node pos="s" depth="0" NCoef="0" IVar="8" Cut="6.6672694683074951e-01" cType="1" res="1.3414702843874693e-03" rms="2.8186210989952087e-01" purity="5.0293576717376709e-01" nType="0">
        <Node pos="l" depth="1" NCoef="0" IVar="8" Cut="1.7149356007575989e-01" cType="1" res="4.0565165691077709e-03" rms="2.8539606928825378e-01" purity="5.4977816343307495e-01" nType="0">
          <Node pos="l" depth="2" NCoef="0" IVar="0" Cut="1.0949775390625000e+03" cType="1" res="1.7898047808557749e-03" rms="2.8225740790367126e-01" purity="5.2332323789596558e-01" nType="0">
            <Node pos="l" depth="3" NCoef="0" IVar="-1" Cut="0.0000000000000000e+00" cType="1" res="-2.0828802138566971e-02" rms="1.7865845561027527e-01" purity="3.9159454405307770e-02" nType="-99"/>
            <Node pos="r" depth="3" NCoef="0" IVar="-1" Cut="0.0000000000000000e+00" cType="1" res="4.0087341330945492e-03" rms="2.9716265201568604e-01" purity="6.1110329627990723e-01" nType="-99"/>
          </Node>
          <Node pos="r" depth="2" NCoef="0" IVar="4" Cut="1.3659431457519531e+02" cType="1" res="1.1164865456521511e-02" rms="2.9490938782691956e-01" purity="6.3274019956588745e-01" nType="0">
            <Node pos="l" depth="3" NCoef="0" IVar="-1" Cut="0.0000000000000000e+00" cType="1" res="2.4866243824362755e-02" rms="3.2363727688789368e-01" purity="3.2156902551651001e-01" nType="-99"/>
            <Node pos="r" depth="3" NCoef="0" IVar="-1" Cut="0.0000000000000000e+00" cType="1" res="4.5133610256016254e-03" rms="2.7865403890609741e-01" purity="7.9314649105072021e-01" nType="-99"/>
          </Node>
        </Node>
        <Node pos="r" depth="1" NCoef="0" IVar="11" Cut="-5.1437032222747803e-01" cType="1" res="-7.0703672245144844e-03" rms="2.7044722437858582e-01" purity="3.5780724883079529e-01" nType="0">
          <Node pos="l" depth="2" NCoef="0" IVar="5" Cut="8.2944328308105469e+01" cType="1" res="-1.4296445064246655e-02" rms="2.5716784596443176e-01" purity="2.2212629020214081e-01" nType="0">
            <Node pos="l" depth="3" NCoef="0" IVar="-1" Cut="0.0000000000000000e+00" cType="1" res="-1.1558054946362972e-02" rms="2.4105080962181091e-01" purity="1.1863421648740768e-01" nType="-99"/>
            <Node pos="r" depth="3" NCoef="0" IVar="-1" Cut="0.0000000000000000e+00" cType="1" res="-3.3648688346147537e-02" rms="2.9783874750137329e-01" purity="5.2017444372177124e-01" nType="-99"/>
          </Node>
          <Node pos="r" depth="2" NCoef="0" IVar="6" Cut="6.4214027404785156e+01" cType="1" res="8.3610471338033676e-03" rms="2.9623362421989441e-01" purity="6.4755612611770630e-01" nType="0">
